<unk>	0
<s>	0
</s>	0
▁t	-0
he	-1
то	-2
ou	-3
▁a	-4
▁н	-5
in	-6
▁п	-7
▁с	-8
▁w	-9
▁в	-10
re	-11
▁s	-12
▁I	-13
ha	-14
on	-15
▁y	-16
▁the	-17
▁you	-18
▁m	-19
▁м	-20
▁о	-21
ть	-22
▁b	-23
▁т	-24
ен	-25
er	-26
ра	-27
ing	-28
▁д	-29
▁по	-30
it	-31
ll	-32
▁d	-33
но	-34
ро	-35
▁c	-36
▁to	-37
is	-38
ко	-39
▁не	-40
▁ч	-41
го	-42
ли	-43
▁и	-44
▁f	-45
an	-46
▁б	-47
ет	-48
ст	-49
or	-50
▁g	-51
ка	-52
ла	-53
ер	-54
hat	-55
nd	-56
▁на	-57
▁l	-58
на	-59
ve	-60
▁з	-61
▁o	-62
▁что	-63
..	-64
▁n	-65
▁p	-66
ни	-67
ed	-68
...	-69
ри	-70
во	-71
st	-72
en	-73
ем	-74
ow	-75
ва	-76
om	-77
▁у	-78
ль	-79
▁W	-80
ot	-81
▁э	-82
да	-83
ar	-84
▁T	-85
▁he	-86
et	-87
ло	-88
ся	-89
▁th	-90
es	-91
▁of	-92
▁ha	-93
at	-94
▁in	-95
▁h	-96
▁Н	-97
▁е	-98
▁я	-99
ay	-100
▁Y	-101
▁be	-102
▁it	-103
де	-104
▁Я	-105
▁это	-106
as	-107
ре	-108
▁П	-109
▁A	-110
те	-111
▁бы	-112
▁that	-113
le	-114
▁за	-115
▁and	-116
▁Т	-117
▁S	-118
ди	-119
▁Д	-120
id	-121
не	-122
▁мо	-123
▁me	-124
хо	-125
▁on	-126
▁k	-127
▁В	-128
gh	-129
та	-130
▁ко	-131
▁we	-132
▁М	-133
ны	-134
сь	-135
ld	-136
ти	-137
▁H	-138
ма	-139
ic	-140
шь	-141
▁e	-142
▁О	-143
ut	-144
же	-145
▁u	-146
se	-147
ви	-148
▁is	-149
▁You	-150
ле	-151
▁про	-152
▁к	-153
ак	-154
▁ты	-155
im	-156
ke	-157
al	-158
▁то	-159
▁до	-160
еб	-161
▁С	-162
▁К	-163
мо	-164
out	-165
▁ра	-166
ac	-167
ght	-168
ver	-169
▁ка	-170
▁вы	-171
ру	-172
oo	-173
▁M	-174
▁for	-175
▁re	-176
▁do	-177
ri	-178
бо	-179
ас	-180
▁вс	-181
ки	-182
чи	-183
▁Э	-184
▁B	-185
за	-186
▁was	-187
ad	-188
▁st	-189
ени	-190
лу	-191
▁have	-192
▁kn	-193
ми	-194
▁your	-195
▁O	-196
▁от	-197
ust	-198
▁при	-199
ей	-200
жи	-201
▁И	-202
▁li	-203
▁this	-204
ome	-205
▁C	-206
▁The	-207
ith	-208
▁D	-209
▁N	-210
▁my	-211
▁хо	-212
ля	-213
до	-214
▁По	-215
▁со	-216
▁an	-217
ly	-218
▁теб	-219
▁We	-220
▁know	-221
ста	-222
am	-223
ill	-224
▁not	-225
▁j	-226
ould	-227
▁-	-228
▁with	-229
ду	-230
ion	-231
all	-232
ir	-233
сто	-234
ent	-235
ну	-236
▁во	-237
▁"	-238
ant	-239
▁но	-240
гда	-241
ee	-242
▁зна	-243
еня	-244
▁го	-245
▁go	-246
ешь	-247
ro	-248
лю	-249
ше	-250
▁ne	-251
ве	-252
по	-253
▁can	-254
▁He	-255
▁L	-256
▁Ты	-257
▁А	-258
ши	-259
ам	-260
▁меня	-261
her	-262
▁don	-263
▁Ч	-264
▁все	-265
▁G	-266
▁It	-267
▁как	-268
▁are	-269
би	-270
▁ни	-271
▁Да	-272
▁Это	-273
ec	-274
ho	-275
if	-276
ea	-277
▁what	-278
ку	-279
hing	-280
▁так	-281
ча	-282
▁Б	-283
▁де	-284
ur	-285
сть	-286
▁об	-287
▁just	-288
▁из	-289
сти	-290
га	-291
уд	-292
▁мы	-293
▁ab	-294
му	-295
ры	-296
▁мне	-297
▁он	-298
▁What	-299
си	-300
▁get	-301
▁And	-302
бы	-303
▁а	-304
ере	-305
жа	-306
сли	-307
ться	-308
че	-309
ня	-310
▁all	-311
▁out	-312
▁as	-313
▁like	-314
ень	-315
ша	-316
pp	-317
ce	-318
▁so	-319
one	-320
ch	-321
жно	-322
▁at	-323
▁У	-324
ter	-325
▁бо	-326
каза	-327
▁его	-328
ink	-329
▁want	-330
ме	-331
ake	-332
▁г	-333
▁P	-334
▁да	-335
ry	-336
▁about	-337
вер	-338
▁here	-339
our	-340
▁тебя	-341
▁up	-342
▁him	-343
ack	-344
op	-345
▁did	-346
▁her	-347
ook	-348
han	-349
▁but	-350
▁раз	-351
со	-352
жет	-353
ore	-354
ight	-355
▁Что	-356
un	-357
▁J	-358
ар	-359
▁sh	-360
ra	-361
il	-362
ему	-363
лько	-364
▁ri	-365
ума	-366
au	-367
ood	-368
ck	-369
ie	-370
▁З	-371
ally	-372
ell	-373
ще	-374
▁F	-375
па	-376
▁think	-377
ци	-378
ge	-379
ря	-380
▁R	-381
very	-382
▁Х	-383
▁wor	-384
пи	-385
▁there	-386
▁right	-387
▁Л	-388
▁Не	-389
▁got	-390
▁пре	-391
ess	-392
гу	-393
▁su	-394
rom	-395
ной	-396
▁сво	-397
ind	-398
▁Р	-399
ive	-400
щи	-401
▁Е	-402
▁whe	-403
na	-404
▁No	-405
▁дол	-406
▁Но	-407
▁one	-408
▁any	-409
▁ве	-410
art	-411
and	-412
ный	-413
▁Г	-414
▁E	-415
ете	-416
▁she	-417
▁чтобы	-418
жен	-419
▁if	-420
▁ма	-421
▁they	-422
us	-423
льно	-424
ву	-425
тся	-426
▁Вы	-427
▁тебе	-428
▁de	-429
▁no	-430
вы	-431
▁r	-432
▁лю	-433
вори	-434
ту	-435
ги	-436
дела	-437
▁That	-438
▁us	-439
ain	-440
▁ви	-441
▁ми	-442
▁some	-443
▁же	-444
▁Мы	-445
▁Он	-446
▁see	-447
od	-448
шо	-449
са	-450
hy	-451
▁ре	-452
▁al	-453
▁his	-454
▁под	-455
ного	-456
кой	-457
▁Oh	-458
▁кото	-459
ime	-460
▁But	-461
ate	-462
▁Well	-463
▁who	-464
▁from	-465
▁буд	-466
os	-467
▁сказа	-468
ig	-469
вать	-470
▁would	-471
▁хоч	-472
▁нас	-473
eah	-474
▁дума	-475
чно	-476
▁те	-477
ab	-478
▁will	-479
▁So	-480
ast	-481
▁ну	-482
▁Мо	-483
▁ли	-484
се	-485
▁тво	-486
▁она	-487
▁sa	-488
ist	-489
▁если	-490
▁ва	-491
ers	-492
▁lo	-493
▁ме	-494
его	-495
▁для	-496
▁Нет	-497
лся	-498
лы	-499
▁дру	-500
ol	-501
▁был	-502
ul	-503
рав	-504
nt	-505
ong	-506
▁now	-507
ение	-508
onna	-509
▁or	-510
ation	-511
дно	-512
ке	-513
ct	-514
▁say	-515
▁need	-516
▁когда	-517
rou	-518
▁pl	-519
▁back	-520
▁жи	-521
▁gonna	-522
▁were	-523
▁com	-524
um	-525
ame	-526
ak	-527
десь	-528
▁дела	-529
ты	-530
▁ex	-531
▁пос	-532
▁есть	-533
end	-534
ется	-535
▁Ко	-536
▁con	-537
kay	-538
▁бе	-539
ice	-540
▁1	-541
▁gu	-542
рем	-543
зо	-544
▁та	-545
▁time	-546
▁Yeah	-547
ения	-548
▁going	-549
▁сдела	-550
ear	-551
▁просто	-552
▁Th	-553
▁было	-554
▁could	-555
▁На	-556
▁Ну	-557
ause	-558
сс	-559
ine	-560
▁ста	-561
▁нет	-562
▁man	-563
red	-564
пас	-565
▁had	-566
alk	-567
▁боль	-568
▁ф	-569
▁been	-570
ют	-571
ard	-572
▁look	-573
▁them	-574
qu	-575
▁здесь	-576
▁sp	-577
ect	-578
▁Во	-579
▁Хо	-580
рошо	-581
omet	-582
це	-583
▁они	-584
way	-585
тому	-586
ные	-587
ком	-588
▁thing	-589
res	-590
▁off	-591
ерь	-592
спо	-593
▁when	-594
ды	-595
нима	-596
вет	-597
▁быть	-598
▁ag	-599
об	-600
▁пере	-601
▁our	-602
own	-603
▁знаю	-604
ходи	-605
em	-606
▁говори	-607
▁She	-608
▁только	-609
▁Про	-610
▁Как	-611
ick	-612
рави	-613
el	-614
▁pro	-615
▁То	-616
▁tell	-617
▁оста	-618
itt	-619
▁good	-620
thing	-621
тра	-622
▁бу	-623
ort	-624
про	-625
▁K	-626
▁вер	-627
▁рабо	-628
fe	-629
▁вас	-630
жу	-631
ven	-632
▁v	-633
ная	-634
ство	-635
▁могу	-636
▁int	-637
▁every	-638
▁си	-639
▁са	-640
▁too	-641
▁somet	-642
ase	-643
▁будет	-644
ски	-645
▁может	-646
other	-647
зна	-648
ан	-649
are	-650
▁врем	-651
зи	-652
ous	-653
ace	-654
пу	-655
▁didn	-656
▁This	-657
мер	-658
енно	-659
▁how	-660
uck	-661
▁mean	-662
▁tr	-663
▁'	-664
▁Так	-665
▁сто	-666
ща	-667
ide	-668
▁Если	-669
▁слу	-670
▁па	-671
▁U	-672
ца	-673
чень	-674
вай	-675
lf	-676
тель	-677
▁Она	-678
лось	-679
час	-680
▁их	-681
нь	-682
пе	-683
▁has	-684
▁way	-685
▁work	-686
мот	-687
▁себ	-688
лет	-689
ха	-690
▁всё	-691
▁эти	-692
▁воз	-693
▁something	-694
чему	-695
▁They	-696
hi	-697
▁take	-698
▁happ	-699
▁really	-700
▁by	-701
▁чем	-702
▁кто	-703
ag	-704
▁If	-705
▁talk	-706
▁come	-707
ят	-708
зы	-709
бе	-710
ap	-711
▁ш	-712
▁ту	-713
чь	-714
▁more	-715
▁Мне	-716
est	-717
лась	-718
▁Do	-719
▁make	-720
▁которы	-721
лись	-722
ff	-723
▁pe	-724
▁How	-725
▁была	-726
ble	-727
▁call	-728
ние	-729
▁should	-730
ure	-731
hank	-732
дин	-733
▁cl	-734
▁over	-735
ба	-736
▁am	-737
▁down	-738
▁then	-739
удь	-740
▁помо	-741
▁уби	-742
▁еще	-743
ена	-744
ных	-745
▁этого	-746
он	-747
ейчас	-748
ople	-749
кто	-750
▁let	-751
▁guy	-752
▁Whe	-753
▁ку	-754
▁или	-755
▁че	-756
юсь	-757
ско	-758
ound	-759
▁bec	-760
ving	-761
ity	-762
▁уже	-763
▁Ф	-764
▁нужно	-765
▁очень	-766
▁хочу	-767
ittle	-768
▁вам	-769
▁им	-770
▁St	-771
гра	-772
▁При	-773
ber	-774
▁never	-775
ери	-776
▁Hey	-777
ose	-778
чего	-779
ром	-780
▁Okay	-781
ным	-782
▁mo	-783
be	-784
ств	-785
▁love	-786
▁ее	-787
▁За	-788
reat	-789
act	-790
▁нам	-791
ther	-792
▁bl	-793
ор	-794
▁does	-795
th	-796
▁There	-797
▁day	-798
".	-799
▁долж	-800
▁2	-801
▁этом	-802
▁little	-803
ew	-804
ies	-805
су	-806
▁people	-807
сте	-808
▁said	-809
▁se	-810
▁хоте	-811
▁х	-812
ody	-813
бой	-814
lp	-815
ибо	-816
wo	-817
▁thou	-818
▁пред	-819
перь	-820
луч	-821
iss	-822
▁Ка	-823
им	-824
ud	-825
▁Бо	-826
йти	-827
▁ро	-828
▁Why	-829
▁Yes	-830
▁only	-831
том	-832
▁le	-833
▁се	-834
oy	-835
▁kill	-836
дь	-837
▁qu	-838
orry	-839
пасибо	-840
▁чу	-841
▁ж	-842
▁пар	-843
ass	-844
riend	-845
▁од	-846
лове	-847
▁там	-848
▁co	-849
▁Они	-850
жешь	-851
▁жиз	-852
будь	-853
▁больше	-854
ree	-855
ond	-856
self	-857
▁happen	-858
▁после	-859
сту	-860
▁All	-861
йте	-862
▁сейчас	-863
▁bet	-864
▁find	-865
pl	-866
▁en	-867
ска	-868
▁into	-869
нт	-870
ment	-871
тельно	-872
▁Ни	-873
nder	-874
▁ro	-875
ров	-876
лен	-877
▁sc	-878
зу	-879
ное	-880
▁help	-881
▁мог	-882
зво	-883
▁буду	-884
ting	-885
▁му	-886
▁наш	-887
ния	-888
▁время	-889
ite	-890
▁why	-891
▁even	-892
ep	-893
▁br	-894
▁Mr	-895
▁mu	-896
00	-897
▁again	-898
бира	-899
eel	-900
▁lea	-901
▁того	-902
вал	-903
▁because	-904
▁af	-905
▁other	-906
eep	-907
age	-908
▁До	-909
фи	-910
▁where	-911
▁give	-912
▁doing	-913
▁Ма	-914
▁су	-915
▁нико	-916
мен	-917
▁year	-918
▁two	-919
▁very	-920
мы	-921
ning	-922
▁луч	-923
▁день	-924
ady	-925
lease	-926
▁My	-927
▁жен	-928
aybe	-929
ue	-930
▁Ми	-931
▁её	-932
нибудь	-933
йд	-934
▁себя	-935
▁much	-936
irst	-937
▁Is	-938
▁само	-939
fore	-940
▁Зна	-941
▁un	-942
▁пер	-943
▁мой	-944
▁пу	-945
▁полу	-946
ire	-947
▁pr	-948
▁Хорошо	-949
▁пока	-950
▁pre	-951
ather	-952
▁Thank	-953
▁feel	-954
ait	-955
бра	-956
▁пи	-957
▁смо	-958
▁расс	-959
тов	-960
▁thought	-961
▁работа	-962
вя	-963
▁ле	-964
wn	-965
▁under	-966
вно	-967
стре	-968
бу	-969
▁Don	-970
дел	-971
▁челове	-972
▁ask	-973
▁сказал	-974
▁должен	-975
▁ему	-976
▁Все	-977
▁где	-978
▁still	-979
ade	-980
▁life	-981
per	-982
чит	-983
юда	-984
шу	-985
▁Now	-986
▁были	-987
▁От	-988
▁Let	-989
ит	-990
ём	-991
дня	-992
▁ничего	-993
ty	-994
▁try	-995
▁кон	-996
кры	-997
▁прои	-998
ков	-999
▁im	-1000
▁ру	-1001
▁night	-1002
щё	-1003
▁Ра	-1004
▁than	-1005
urn	-1006
▁хорошо	-1007
▁V	-1008
▁ar	-1009
ети	-1010
▁вз	-1011
ich	-1012
ству	-1013
ull	-1014
▁anything	-1015
▁думаю	-1016
."	-1017
▁Look	-1018
▁before	-1019
▁пла	-1020
ерт	-1021
▁прав	-1022
ny	-1023
стви	-1024
▁потому	-1025
round	-1026
▁Come	-1027
ез	-1028
▁their	-1029
ob	-1030
▁Ла	-1031
ord	-1032
▁Not	-1033
▁wr	-1034
кра	-1035
▁сле	-1036
ную	-1037
iz	-1038
lie	-1039
стро	-1040
get	-1041
▁Дж	-1042
▁friend	-1043
лем	-1044
ыта	-1045
▁него	-1046
▁Вот	-1047
▁sure	-1048
можно	-1049
▁Спасибо	-1050
ish	-1051
body	-1052
▁okay	-1053
▁well	-1054
их	-1055
дите	-1056
▁Just	-1057
▁знаешь	-1058
▁first	-1059
▁part	-1060
▁sorry	-1061
▁име	-1062
ress	-1063
сно	-1064
жем	-1065
▁стра	-1066
▁last	-1067
луша	-1068
▁long	-1069
ства	-1070
ne	-1071
ach	-1072
▁put	-1073
▁new	-1074
▁gir	-1075
▁никогда	-1076
▁этот	-1077
▁these	-1078
егодня	-1079
чу	-1080
▁In	-1081
▁час	-1082
▁сло	-1083
кое	-1084
▁after	-1085
▁Го	-1086
ave	-1087
ять	-1088
▁told	-1089
▁home	-1090
pt	-1091
▁сказать	-1092
ник	-1093
вой	-1094
day	-1095
ool	-1096
row	-1097
▁po	-1098
вали	-1099
ft	-1100
ise	-1101
стер	-1102
▁rem	-1103
▁тоже	-1104
вля	-1105
▁act	-1106
ции	-1107
▁ac	-1108
▁даже	-1109
▁ещё	-1110
гла	-1111
▁God	-1112
мотри	-1113
▁надо	-1114
ствен	-1115
▁понима	-1116
▁Are	-1117
har	-1118
▁sec	-1119
▁ком	-1120
▁hand	-1121
кон	-1122
oney	-1123
ough	-1124
ious	-1125
▁wh	-1126
▁ска	-1127
ью	-1128
▁Почему	-1129
▁Эй	-1130
▁chan	-1131
▁Who	-1132
sp	-1133
тив	-1134
▁Ш	-1135
▁keep	-1136
▁тобой	-1137
ёт	-1138
▁car	-1139
дер	-1140
▁теперь	-1141
луй	-1142
▁things	-1143
▁сделать	-1144
▁3	-1145
▁Может	-1146
ways	-1147
вить	-1148
▁away	-1149
ence	-1150
ily	-1151
▁собира	-1152
▁ad	-1153
стоя	-1154
шло	-1155
ouse	-1156
▁позво	-1157
ряд	-1158
▁dis	-1159
▁верну	-1160
able	-1161
we	-1162
▁ever	-1163
гля	-1164
лли	-1165
▁years	-1166
ark	-1167
▁вот	-1168
тер	-1169
дума	-1170
ip	-1171
▁girl	-1172
рю	-1173
▁start	-1174
ней	-1175
жалуй	-1176
▁должны	-1177
▁Пос	-1178
▁kid	-1179
▁Your	-1180
кая	-1181
▁must	-1182
ia	-1183
▁почему	-1184
▁belie	-1185
▁мной	-1186
ман	-1187
og	-1188
▁много	-1189
▁Давай	-1190
ран	-1191
▁those	-1192
▁лучше	-1193
нечно	-1194
▁хочешь	-1195
ran	-1196
▁Ладно	-1197
▁doesn	-1198
▁ис	-1199
▁лет	-1200
ian	-1201
▁fl	-1202
▁Когда	-1203
говори	-1204
▁том	-1205
▁€	-1206
вый	-1207
жда	-1208
ict	-1209
▁реб	-1210
вает	-1211
▁Дже	-1212
▁ско	-1213
▁ла	-1214
▁kind	-1215
▁cou	-1216
ary	-1217
ory	-1218
▁better	-1219
aking	-1220
ном	-1221
int	-1222
▁тут	-1223
ried	-1224
▁won	-1225
ья	-1226
прав	-1227
ually	-1228
ved	-1229
▁Кто	-1230
▁Did	-1231
▁рас	-1232
нов	-1233
▁always	-1234
▁real	-1235
▁Те	-1236
▁dr	-1237
▁нем	-1238
▁ст	-1239
old	-1240
▁wanted	-1241
▁без	-1242
▁around	-1243
▁Ва	-1244
▁Where	-1245
▁made	-1246
нут	-1247
oss	-1248
▁lot	-1249
деть	-1250
▁che	-1251
ial	-1252
жалуйста	-1253
ин	-1254
▁хоро	-1255
rough	-1256
ves	-1257
эр	-1258
hed	-1259
▁fuck	-1260
ng	-1261
▁получи	-1262
▁сегодня	-1263
▁всегда	-1264
▁подо	-1265
▁один	-1266
▁place	-1267
ющи	-1268
нова	-1269
ню	-1270
нить	-1271
▁sm	-1272
ever	-1273
шел	-1274
рой	-1275
эн	-1276
дей	-1277
ail	-1278
ент	-1279
жды	-1280
▁поня	-1281
ене	-1282
нет	-1283
▁чув	-1284
ath	-1285
ater	-1286
дешь	-1287
▁пыта	-1288
▁кра	-1289
▁own	-1290
▁show	-1291
▁When	-1292
▁through	-1293
▁bu	-1294
ions	-1295
▁might	-1296
▁Can	-1297
▁everything	-1298
дни	-1299
▁being	-1300
▁можешь	-1301
кого	-1302
блю	-1303
▁uh	-1304
▁ц	-1305
▁care	-1306
▁wait	-1307
сы	-1308
orm	-1309
ons	-1310
что	-1311
ign	-1312
▁cour	-1313
▁cont	-1314
up	-1315
лыша	-1316
▁Со	-1317
▁te	-1318
▁someone	-1319
жд	-1320
▁сем	-1321
▁дело	-1322
▁name	-1323
▁узна	-1324
▁ей	-1325
▁сам	-1326
▁уви	-1327
▁этим	-1328
▁Привет	-1329
▁который	-1330
▁guys	-1331
▁хотел	-1332
▁ass	-1333
рова	-1334
дить	-1335
▁nothing	-1336
▁Ch	-1337
▁друго	-1338
xt	-1339
▁fam	-1340
еха	-1341
сси	-1342
▁жизнь	-1343
▁old	-1344
▁спо	-1345
▁found	-1346
▁wom	-1347
чита	-1348
▁el	-1349
нее	-1350
▁id	-1351
▁обра	-1352
▁вме	-1353
▁big	-1354
▁har	-1355
▁сюда	-1356
▁per	-1357
▁believe	-1358
▁нача	-1359
▁делать	-1360
▁пра	-1361
▁great	-1362
ходит	-1363
ub	-1364
▁бра	-1365
ful	-1366
▁boy	-1367
▁пол	-1368
цу	-1369
▁гла	-1370
ерез	-1371
▁min	-1372
▁rec	-1373
прави	-1374
ance	-1375
▁cr	-1376
ция	-1377
▁done	-1378
▁head	-1379
▁люби	-1380
av	-1381
▁ин	-1382
▁них	-1383
ren	-1384
▁mom	-1385
рт	-1386
▁голо	-1387
▁ба	-1388
шка	-1389
▁Дума	-1390
▁поряд	-1391
ated	-1392
ger	-1393
мой	-1394
erson	-1395
▁ней	-1396
▁всего	-1397
▁bad	-1398
▁Просто	-1399
▁сы	-1400
▁ним	-1401
▁app	-1402
▁случи	-1403
ить	-1404
▁money	-1405
▁supp	-1406
дать	-1407
▁left	-1408
▁Ро	-1409
▁Bec	-1410
▁play	-1411
хи	-1412
▁house	-1413
цо	-1414
ember	-1415
ено	-1416
▁всех	-1417
▁порядке	-1418
пре	-1419
▁Uh	-1420
▁run	-1421
вра	-1422
при	-1423
isten	-1424
stand	-1425
▁моя	-1426
▁happened	-1427
▁Then	-1428
▁came	-1429
лушай	-1430
цы	-1431
дом	-1432
▁Good	-1433
▁stay	-1434
ход	-1435
▁please	-1436
▁hear	-1437
▁5	-1438
нии	-1439
▁испо	-1440
клю	-1441
▁ус	-1442
▁моей	-1443
atch	-1444
▁gr	-1445
чка	-1446
▁тем	-1447
▁bit	-1448
▁свя	-1449
пер	-1450
▁Из	-1451
ince	-1452
▁увер	-1453
стра	-1454
▁plan	-1455
▁trying	-1456
тя	-1457
▁этой	-1458
▁imp	-1459
ший	-1460
▁Теб	-1461
чет	-1462
▁проб	-1463
шком	-1464
▁Потому	-1465
side	-1466
▁ваш	-1467
▁else	-1468
ner	-1469
▁ph	-1470
▁Maybe	-1471
дит	-1472
▁свою	-1473
чем	-1474
▁comp	-1475
пы	-1476
▁4	-1477
рет	-1478
▁ser	-1479
▁Па	-1480
▁sha	-1481
▁маши	-1482
ил	-1483
ike	-1484
▁ду	-1485
▁father	-1486
iv	-1487
кс	-1488
соб	-1489
▁sur	-1490
▁world	-1491
▁женщи	-1492
▁себе	-1493
жется	-1494
шли	-1495
▁должна	-1496
▁жа	-1497
нг	-1498
▁stop	-1499
ute	-1500
▁which	-1501
der	-1502
▁пло	-1503
▁leave	-1504
aw	-1505
чески	-1506
вая	-1507
▁которые	-1508
▁Because	-1509
▁уж	-1510
▁дей	-1511
▁end	-1512
▁mar	-1513
▁случа	-1514
▁att	-1515
ps	-1516
▁dead	-1517
лишком	-1518
man	-1519
▁Re	-1520
oth	-1521
imes	-1522
▁coming	-1523
дели	-1524
пла	-1525
▁dec	-1526
ife	-1527
▁cle	-1528
▁meet	-1529
▁talking	-1530
pen	-1531
▁через	-1532
▁немного	-1533
▁understand	-1534
▁ша	-1535
▁went	-1536
▁ло	-1537
фе	-1538
▁гово	-1539
▁mother	-1540
▁hell	-1541
▁person	-1542
▁getting	-1543
▁ид	-1544
ются	-1545
зад	-1546
▁wrong	-1547
зыва	-1548
ктор	-1549
▁isn	-1550
чина	-1551
▁same	-1552
ешься	-1553
▁дет	-1554
шего	-1555
▁another	-1556
рен	-1557
▁wasn	-1558
▁wee	-1559
▁Са	-1560
▁Al	-1561
akes	-1562
▁поговори	-1563
ug	-1564
▁miss	-1565
▁bus	-1566
▁такой	-1567
▁правда	-1568
ret	-1569
ms	-1570
▁looking	-1571
▁tra	-1572
▁возможно	-1573
проси	-1574
gether	-1575
▁sho	-1576
ied	-1577
нуть	-1578
пусти	-1579
▁Ж	-1580
▁mon	-1581
▁For	-1582
▁эту	-1583
эй	-1584
▁доста	-1585
mer	-1586
rest	-1587
▁fo	-1588
▁потом	-1589
▁сказала	-1590
рь	-1591
жать	-1592
мотре	-1593
▁Get	-1594
▁job	-1595
▁family	-1596
▁enough	-1597
▁нрави	-1598
ating	-1599
▁пря	-1600
▁may	-1601
▁чего	-1602
▁убий	-1603
▁acc	-1604
нно	-1605
▁проблем	-1606
ock	-1607
▁встре	-1608
▁Ви	-1609
aught	-1610
тно	-1611
▁room	-1612
ope	-1613
▁назад	-1614
▁Прости	-1615
ix	-1616
ors	-1617
▁наши	-1618
мни	-1619
▁нуж	-1620
этому	-1621
▁best	-1622
▁maybe	-1623
tain	-1624
▁pret	-1625
сле	-1626
▁ведь	-1627
▁chi	-1628
▁together	-1629
она	-1630
▁turn	-1631
▁фи	-1632
air	-1633
▁пе	-1634
igh	-1635
дол	-1636
▁As	-1637
ations	-1638
▁можем	-1639
▁поли	-1640
▁доро	-1641
▁жизни	-1642
обще	-1643
▁твой	-1644
▁вместе	-1645
ении	-1646
▁кого	-1647
яс	-1648
▁можно	-1649
сем	-1650
hile	-1651
▁three	-1652
писа	-1653
▁сделал	-1654
вини	-1655
тец	-1656
▁saw	-1657
лей	-1658
▁fun	-1659
atter	-1660
ost	-1661
▁друг	-1662
▁свои	-1663
▁Go	-1664
▁людей	-1665
▁course	-1666
▁des	-1667
▁bab	-1668
▁слишком	-1669
ple	-1670
лаго	-1671
▁место	-1672
▁человек	-1673
дишь	-1674
▁Jo	-1675
▁тогда	-1676
ких	-1677
ans	-1678
ical	-1679
цию	-1680
емся	-1681
▁похо	-1682
▁sl	-1683
▁обо	-1684
▁Где	-1685
▁обе	-1686
жду	-1687
▁yourself	-1688
тите	-1689
▁remember	-1690
ible	-1691
част	-1692
▁bre	-1693
▁mor	-1694
ложи	-1695
▁Тебе	-1696
шла	-1697
▁hard	-1698
▁Sh	-1699
мени	-1700
▁To	-1701
▁An	-1702
▁fin	-1703
▁Теперь	-1704
▁муж	-1705
лага	-1706
▁mind	-1707
▁knew	-1708
▁закон	-1709
▁dif	-1710
▁today	-1711
▁ch	-1712
▁гру	-1713
▁такое	-1714
ks	-1715
▁дома	-1716
les	-1717
▁next	-1718
▁Знаешь	-1719
▁child	-1720
my	-1721
ными	-1722
uff	-1723
▁wouldn	-1724
▁тех	-1725
▁следу	-1726
ступ	-1727
▁действи	-1728
▁це	-1729
ye	-1730
▁ra	-1731
тить	-1732
▁люди	-1733
▁вопро	-1734
▁всем	-1735
▁пор	-1736
chool	-1737
▁прави	-1738
вед	-1739
ready	-1740
▁Тогда	-1741
"?	-1742
▁значит	-1743
▁took	-1744
пра	-1745
▁пой	-1746
here	-1747
▁bo	-1748
▁теле	-1749
▁Пре	-1750
аль	-1751
▁кро	-1752
▁Воз	-1753
▁снова	-1754
вала	-1755
▁hour	-1756
hes	-1757
▁уда	-1758
▁знать	-1759
шая	-1760
▁Every	-1761
so	-1762
▁son	-1763
бер	-1764
вь	-1765
▁кое	-1766
род	-1767
osed	-1768
▁ди	-1769
▁idea	-1770
▁woman	-1771
▁Ве	-1772
ника	-1773
ntil	-1774
▁already	-1775
▁ago	-1776
▁тру	-1777
▁most	-1778
▁слыша	-1779
▁Де	-1780
▁nice	-1781
ут	-1782
нд	-1783
▁used	-1784
▁случилось	-1785
вое	-1786
▁инт	-1787
▁своей	-1788
нс	-1789
less	-1790
▁хочет	-1791
▁смер	-1792
▁помочь	-1793
▁war	-1794
▁Please	-1795
▁ут	-1796
▁два	-1797
▁rep	-1798
ности	-1799
вые	-1800
▁use	-1801
▁whole	-1802
▁чи	-1803
▁ночь	-1804
ably	-1805
▁without	-1806
▁сер	-1807
▁thank	-1808
▁сов	-1809
ены	-1810
▁called	-1811
▁Ли	-1812
ient	-1813
▁guess	-1814
так	-1815
▁объ	-1816
вто	-1817
кий	-1818
лень	-1819
▁quest	-1820
▁fine	-1821
йся	-1822
ident	-1823
▁подума	-1824
▁sw	-1825
ление	-1826
ружи	-1827
▁bring	-1828
▁зо	-1829
▁прид	-1830
ness	-1831
▁sir	-1832
▁найти	-1833
▁killed	-1834
сё	-1835
▁Мар	-1836
▁мои	-1837
казать	-1838
▁ум	-1839
▁времени	-1840
▁тот	-1841
▁любо	-1842
▁боле	-1843
oc	-1844
ib	-1845
ваться	-1846
▁счита	-1847
▁10	-1848
▁seen	-1849
▁school	-1850
▁actually	-1851
▁Or	-1852
нови	-1853
▁proble	-1854
шься	-1855
▁сек	-1856
вез	-1857
▁Раз	-1858
anna	-1859
▁прекра	-1860
ta	-1861
фор	-1862
▁baby	-1863
▁неско	-1864
mm	-1865
льше	-1866
▁many	-1867
▁други	-1868
pped	-1869
▁On	-1870
втра	-1871
▁heard	-1872
▁проис	-1873
кие	-1874
iness	-1875
▁em	-1876
▁предста	-1877
▁dad	-1878
▁pol	-1879
▁cra	-1880
▁Mar	-1881
▁одна	-1882
▁Та	-1883
▁исполь	-1884
▁думаешь	-1885
▁деву	-1886
▁gl	-1887
ason	-1888
▁few	-1889
▁исто	-1890
нем	-1891
▁while	-1892
▁comm	-1893
той	-1894
ile	-1895
▁домой	-1896
рое	-1897
рая	-1898
▁hu	-1899
▁case	-1900
ang	-1901
▁friends	-1902
ens	-1903
▁word	-1904
▁saying	-1905
leep	-1906
сон	-1907
▁чер	-1908
▁деле	-1909
тесь	-1910
ister	-1911
▁думал	-1912
▁Конечно	-1913
ont	-1914
▁спа	-1915
▁Hell	-1916
лом	-1917
eak	-1918
▁наде	-1919
▁live	-1920
▁отец	-1921
ctor	-1922
▁реши	-1923
ёл	-1924
▁сви	-1925
ower	-1926
▁wife	-1927
▁Ex	-1928
▁видел	-1929
рую	-1930
▁Br	-1931
▁поговорить	-1932
ition	-1933
▁Боже	-1934
▁игра	-1935
дова	-1936
urt	-1937
жение	-1938
▁pretty	-1939
▁нравится	-1940
▁second	-1941
▁хотела	-1942
ге	-1943
▁Any	-1944
▁morning	-1945
▁fr	-1946
рти	-1947
▁Думаю	-1948
▁walk	-1949
чить	-1950
▁Here	-1951
▁deal	-1952
▁эта	-1953
orrow	-1954
▁твоя	-1955
uth	-1956
▁Только	-1957
▁дер	-1958
▁га	-1959
bably	-1960
ott	-1961
ность	-1962
▁парень	-1963
ier	-1964
▁стоит	-1965
▁rest	-1966
▁вол	-1967
▁20	-1968
▁знаете	-1969
▁говорил	-1970
▁anyone	-1971
▁моего	-1972
▁myself	-1973
rent	-1974
▁ваши	-1975
▁понимаю	-1976
чки	-1977
ged	-1978
▁зво	-1979
▁One	-1980
гово	-1981
▁лишь	-1982
▁Ско	-1983
▁days	-1984
▁выгля	-1985
▁Нам	-1986
▁над	-1987
▁set	-1988
▁matter	-1989
нец	-1990
▁until	-1991
▁шко	-1992
▁отно	-1993
зя	-1994
▁веч	-1995
use	-1996
▁open	-1997
▁both	-1998
ings	-1999
ey	-2000
щу	-2001
▁dri	-2002
▁Лю	-2003
anc	-2004
дал	-2005
▁brother	-2006
▁Right	-2007
ream	-2008
▁Ку	-2009
▁деньги	-2010
рма	-2011
▁yeah	-2012
▁Всё	-2013
hn	-2014
▁Dr	-2015
▁Some	-2016
вари	-2017
тан	-2018
▁говорить	-2019
▁*	-2020
▁сэр	-2021
ird	-2022
три	-2023
▁пожалуйста	-2024
бли	-2025
▁since	-2026
onight	-2027
▁действительно	-2028
ult	-2029
ying	-2030
дим	-2031
▁cha	-2032
▁прямо	-2033
▁yet	-2034
сты	-2035
▁одно	-2036
▁haven	-2037
кла	-2038
▁move	-2039
ash	-2040
дя	-2041
▁знал	-2042
▁ответ	-2043
кажи	-2044
ah	-2045
▁pay	-2046
▁men	-2047
",	-2048
▁mur	-2049
▁res	-2050
▁blood	-2051
▁перед	-2052
▁fucking	-2053
▁сра	-2054
▁коро	-2055
dy	-2056
▁потер	-2057
ления	-2058
▁having	-2059
▁diffe	-2060
▁бро	-2061
ling	-2062
▁сторо	-2063
▁ча	-2064
ins	-2065
▁пода	-2066
▁несколько	-2067
▁hat	-2068
нять	-2069
лин	-2070
▁малень	-2071
▁wants	-2072
▁люблю	-2073
▁ent	-2074
пол	-2075
сом	-2076
ск	-2077
вести	-2078
▁знает	-2079
▁тре	-2080
ss	-2081
ие	-2082
▁друз	-2083
▁делаешь	-2084
ax	-2085
▁би	-2086
ense	-2087
▁month	-2088
стр	-2089
▁met	-2090
az	-2091
▁будем	-2092
▁check	-2093
ваю	-2094
▁gone	-2095
ild	-2096
▁кажется	-2097
▁будешь	-2098
▁Thanks	-2099
ward	-2100
▁самом	-2101
▁повер	-2102
▁Be	-2103
▁кру	-2104
rew	-2105
роде	-2106
ственно	-2107
▁иде	-2108
▁три	-2109
ён	-2110
▁rel	-2111
▁exp	-2112
▁inf	-2113
ered	-2114
▁ника	-2115
▁couldn	-2116
ждый	-2117
▁Джей	-2118
▁заста	-2119
▁face	-2120
▁once	-2121
▁поз	-2122
ize	-2123
▁stand	-2124
▁прошло	-2125
▁свой	-2126
arent	-2127
ской	-2128
ально	-2129
ison	-2130
▁point	-2131
▁Hello	-2132
▁char	-2133
▁thinking	-2134
▁соб	-2135
▁должно	-2136
▁cho	-2137
▁Бе	-2138
▁hope	-2139
▁fight	-2140
▁какой	-2141
куда	-2142
вати	-2143
▁sit	-2144
▁твоей	-2145
▁против	-2146
where	-2147
▁str	-2148
ский	-2149
▁защи	-2150
▁Wh	-2151
uc	-2152
ний	-2153
▁спи	-2154
▁far	-2155
▁мистер	-2156
vel	-2157
▁истори	-2158
лый	-2159
шения	-2160
▁tonight	-2161
▁heart	-2162
▁also	-2163
жде	-2164
▁At	-2165
▁phone	-2166
amn	-2167
▁давай	-2168
▁hold	-2169
ither	-2170
ёр	-2171
▁drink	-2172
▁happy	-2173
▁alone	-2174
ений	-2175
▁working	-2176
cept	-2177
тор	-2178
▁stuff	-2179
000	-2180
▁откры	-2181
лично	-2182
▁business	-2183
▁произо	-2184
▁ter	-2185
▁says	-2186
▁ладно	-2187
ars	-2188
▁гото	-2189
▁count	-2190
▁Ри	-2191
рого	-2192
▁listen	-2193
▁Слушай	-2194
▁shit	-2195
actly	-2196
▁Пожалуйста	-2197
▁prom	-2198
▁происходит	-2199
ual	-2200
▁ap	-2201
▁Dad	-2202
▁навер	-2203
кру	-2204
▁6	-2205
ount	-2206
мотреть	-2207
▁глу	-2208
▁будут	-2209
▁compl	-2210
вил	-2211
▁sleep	-2212
▁such	-2213
вин	-2214
▁Его	-2215
▁занима	-2216
▁Си	-2217
▁problem	-2218
▁точно	-2219
ove	-2220
▁Cl	-2221
▁late	-2222
▁меся	-2223
med	-2224
▁Или	-2225
▁probably	-2226
▁i	-2227
▁послед	-2228
att	-2229
▁Госпо	-2230
▁Май	-2231
▁pass	-2232
ятно	-2233
▁можете	-2234
▁Есть	-2235
▁Have	-2236
ением	-2237
▁ради	-2238
▁офи	-2239
▁минут	-2240
▁Извини	-2241
▁дом	-2242
бота	-2243
▁конечно	-2244
шие	-2245
торы	-2246
стно	-2247
▁сооб	-2248
▁работу	-2249
шки	-2250
▁wanna	-2251
вле	-2252
▁беспо	-2253
▁Of	-2254
ровать	-2255
aut	-2256
▁мою	-2257
▁lost	-2258
▁means	-2259
vers	-2260
точно	-2261
▁завтра	-2262
эм	-2263
▁ready	-2264
▁нее	-2265
▁tom	-2266
лагода	-2267
▁each	-2268
▁Джо	-2269
▁soon	-2270
▁break	-2271
▁sign	-2272
zy	-2273
▁ки	-2274
▁помощ	-2275
▁conf	-2276
▁inv	-2277
▁вами	-2278
нес	-2279
▁чувству	-2280
pe	-2281
▁говорит	-2282
▁inc	-2283
▁возь	-2284
▁встреча	-2285
ден	-2286
▁иг	-2287
▁ти	-2288
▁De	-2289
▁pres	-2290
пить	-2291
дут	-2292
▁pick	-2293
aul	-2294
▁согла	-2295
▁ob	-2296
▁inter	-2297
▁die	-2298
▁провер	-2299
▁Un	-2300
▁вра	-2301
▁sk	-2302
orn	-2303
▁death	-2304
▁неде	-2305
▁сме	-2306
шение	-2307
дж	-2308
▁Итак	-2309
▁ново	-2310
▁плохо	-2311
▁Бы	-2312
льчи	-2313
чера	-2314
ению	-2315
лл	-2316
чку	-2317
▁вообще	-2318
▁более	-2319
▁фо	-2320
▁resp	-2321
▁Sorry	-2322
▁tri	-2323
rist	-2324
▁gave	-2325
▁poss	-2326
ump	-2327
мина	-2328
▁способ	-2329
▁supposed	-2330
▁интере	-2331
частли	-2332
▁read	-2333
ork	-2334
▁#	-2335
▁See	-2336
▁могли	-2337
▁Вам	-2338
нок	-2339
▁туда	-2340
▁num	-2341
▁everyone	-2342
ску	-2343
▁Ле	-2344
pr	-2345
▁Мой	-2346
▁sound	-2347
▁семь	-2348
▁забы	-2349
стве	-2350
ками	-2351
▁самы	-2352
▁ше	-2353
▁настоя	-2354
сов	-2355
▁Wait	-2356
ared	-2357
ired	-2358
ates	-2359
вым	-2360
▁ад	-2361
▁Лу	-2362
▁этих	-2363
▁prot	-2364
рей	-2365
onder	-2366
▁отс	-2367
▁Like	-2368
▁един	-2369
▁тер	-2370
▁ret	-2371
utes	-2372
▁body	-2373
▁mess	-2374
erest	-2375
▁def	-2376
▁sex	-2377
вых	-2378
ним	-2379
▁убе	-2380
▁hurt	-2381
чный	-2382
▁Me	-2383
▁hum	-2384
правля	-2385
▁нужен	-2386
vent	-2387
▁kids	-2388
▁момен	-2389
llow	-2390
▁door	-2391
▁sy	-2392
▁Пока	-2393
▁пора	-2394
ale	-2395
▁hands	-2396
amp	-2397
▁eas	-2398
iously	-2399
▁комна	-2400
▁Ме	-2401
▁expl	-2402
▁поч	-2403
▁Car	-2404
▁knows	-2405
cess	-2406
▁gun	-2407
пера	-2408
aughter	-2409
▁reason	-2410
▁taking	-2411
чешь	-2412
▁нужна	-2413
▁расска	-2414
▁gotta	-2415
▁уверен	-2416
▁телеф	-2417
▁asked	-2418
▁bro	-2419
ank	-2420
верь	-2421
hip	-2422
band	-2423
▁jo	-2424
▁ос	-2425
▁смы	-2426
ята	-2427
▁спасибо	-2428
▁коман	-2429
▁поэтому	-2430
▁9	-2431
сить	-2432
sw	-2433
▁Возможно	-2434
▁совсем	-2435
▁Tell	-2436
uct	-2437
ющий	-2438
▁ужас	-2439
▁оши	-2440
▁tomorrow	-2441
▁тра	-2442
▁никто	-2443
ned	-2444
dd	-2445
▁shot	-2446
жал	-2447
▁кем	-2448
▁мат	-2449
▁куда	-2450
▁которая	-2451
▁Ло	-2452
▁law	-2453
▁мама	-2454
ньше	-2455
▁high	-2456
▁perf	-2457
▁ear	-2458
рок	-2459
тия	-2460
enc	-2461
▁fact	-2462
▁потеря	-2463
led	-2464
▁ev	-2465
app	-2466
als	-2467
▁хотите	-2468
▁говоря	-2469
дой	-2470
щей	-2471
▁всю	-2472
▁hit	-2473
son	-2474
кан	-2475
▁chance	-2476
▁beg	-2477
▁бли	-2478
▁least	-2479
▁beaut	-2480
▁могут	-2481
▁Значит	-2482
▁minutes	-2483
▁19	-2484
▁With	-2485
▁поло	-2486
▁Will	-2487
щее	-2488
lic	-2489
▁book	-2490
▁Sp	-2491
▁disc	-2492
▁нами	-2493
▁имя	-2494
▁отсюда	-2495
лле	-2496
▁совер	-2497
▁жаль	-2498
▁different	-2499
ского	-2500
▁exactly	-2501
▁Мак	-2502
usband	-2503
ets	-2504
▁взя	-2505
▁продол	-2506
▁speak	-2507
▁moment	-2508
cuse	-2509
▁своего	-2510
....	-2511
цев	-2512
кт	-2513
▁hot	-2514
▁makes	-2515
▁обы	-2516
ween	-2517
▁закончи	-2518
▁моло	-2519
▁making	-2520
ван	-2521
▁true	-2522
▁умер	-2523
▁Ди	-2524
▁yes	-2525
ross	-2526
▁гра	-2527
▁OK	-2528
▁hours	-2529
▁кла	-2530
▁ак	-2531
▁police	-2532
▁change	-2533
▁week	-2534
зе	-2535
▁8	-2536
слу	-2537
ised	-2538
▁заня	-2539
more	-2540
▁fig	-2541
стя	-2542
▁wonder	-2543
от	-2544
cer	-2545
▁spec	-2546
atc	-2547
▁Ah	-2548
ding	-2549
▁Ага	-2550
▁уни	-2551
▁между	-2552
▁года	-2553
бро	-2554
ках	-2555
▁ри	-2556
▁твои	-2557
вут	-2558
стрети	-2559
▁aw	-2560
▁ули	-2561
▁Ничего	-2562
▁другой	-2563
▁безо	-2564
▁смогу	-2565
▁interest	-2566
▁looks	-2567
▁Здесь	-2568
▁пот	-2569
▁серь	-2570
ster	-2571
▁$	-2572
▁Кар	-2573
рд	-2574
▁trust	-2575
▁against	-2576
▁7	-2577
▁Z	-2578
▁import	-2579
▁husband	-2580
▁clear	-2581
▁Сейчас	-2582
yes	-2583
чать	-2584
еты	-2585
▁Hi	-2586
▁eat	-2587
▁именно	-2588
▁swe	-2589
ред	-2590
▁Мэ	-2591
▁раньше	-2592
чение	-2593
▁story	-2594
▁bed	-2595
iful	-2596
▁inside	-2597
▁Q	-2598
▁um	-2599
▁coll	-2600
шей	-2601
▁встрети	-2602
▁young	-2603
▁будто	-2604
unch	-2605
▁close	-2606
▁дня	-2607
пло	-2608
▁question	-2609
▁использо	-2610
▁человека	-2611
▁det	-2612
olog	-2613
▁side	-2614
▁TH	-2615
▁Зачем	-2616
▁думала	-2617
▁счастли	-2618
▁друга	-2619
▁Мистер	-2620
▁измени	-2621
▁power	-2622
▁Ab	-2623
▁cons	-2624
rop	-2625
▁cor	-2626
▁вос	-2627
▁поя	-2628
OU	-2629
▁равно	-2630
ete	-2631
▁Gr	-2632
▁виду	-2633
▁вещи	-2634
▁worry	-2635
ention	-2636
▁pain	-2637
▁призна	-2638
▁cut	-2639
льный	-2640
iet	-2641
▁party	-2642
▁Меня	-2643
▁Похо	-2644
▁Bl	-2645
▁...	-2646
▁Um	-2647
кти	-2648
▁times	-2649
its	-2650
▁серд	-2651
кро	-2652
йдет	-2653
uss	-2654
чат	-2655
▁глаза	-2656
▁этому	-2657
ток	-2658
▁большо	-2659
▁Доб	-2660
▁слуша	-2661
шим	-2662
▁later	-2663
▁30	-2664
▁Ar	-2665
▁мальчи	-2666
ху	-2667
▁могла	-2668
лов	-2669
ов	-2670
▁побе	-2671
▁daughter	-2672
▁gets	-2673
▁весь	-2674
▁ор	-2675
▁light	-2676
▁15	-2677
▁месте	-2678
▁between	-2679
сла	-2680
▁sent	-2681
ude	-2682
вают	-2683
▁truth	-2684
▁пом	-2685
▁Fran	-2686
▁Christ	-2687
▁able	-2688
йдем	-2689
етесь	-2690
sel	-2691
▁important	-2692
ская	-2693
▁каждый	-2694
land	-2695
▁Take	-2696
дов	-2697
нил	-2698
▁видеть	-2699
▁answ	-2700
▁вели	-2701
▁Там	-2702
▁говорю	-2703
vie	-2704
▁Скажи	-2705
▁мать	-2706
ited	-2707
шку	-2708
?"	-2709
eal	-2710
▁Для	-2711
▁единствен	-2712
▁fire	-2713
цей	-2714
▁кар	-2715
▁luck	-2716
▁которую	-2717
чен	-2718
▁five	-2719
чала	-2720
ital	-2721
raid	-2722
▁inst	-2723
▁cop	-2724
aid	-2725
hind	-2726
▁важно	-2727
▁full	-2728
лан	-2729
▁telling	-2730
▁захо	-2731
▁друзья	-2732
▁Похоже	-2733
▁crazy	-2734
ene	-2735
льзя	-2736
▁free	-2737
держи	-2738
any	-2739
▁сама	-2740
▁started	-2741
нер	-2742
▁huh	-2743
by	-2744
ject	-2745
▁спроси	-2746
▁учи	-2747
▁office	-2748
ета	-2749
▁л	-2750
▁дви	-2751
▁зам	-2752
зда	-2753
▁норма	-2754
▁причи	-2755
ung	-2756
▁Listen	-2757
▁follow	-2758
▁four	-2759
▁sister	-2760
▁пару	-2761
▁убить	-2762
▁После	-2763
▁Mom	-2764
▁anymore	-2765
вую	-2766
▁поста	-2767
▁eyes	-2768
дем	-2769
▁дево	-2770
▁идти	-2771
▁half	-2772
▁Dan	-2773
unt	-2774
▁reg	-2775
inner	-2776
лить	-2777
▁начина	-2778
▁Даже	-2779
▁долго	-2780
щение	-2781
ших	-2782
ames	-2783
ногда	-2784
▁чём	-2785
▁Простите	-2786
▁Кэ	-2787
▁comes	-2788
бор	-2789
брать	-2790
▁Somet	-2791
▁died	-2792
▁своих	-2793
нул	-2794
щем	-2795
▁behind	-2796
▁Mrs	-2797
▁John	-2798
▁Af	-2799
▁Моя	-2800
▁protect	-2801
▁couple	-2802
▁sing	-2803
▁попа	-2804
▁Le	-2805
▁фото	-2806
io	-2807
яза	-2808
доро	-2809
▁тя	-2810
rol	-2811
▁безопас	-2812
▁mem	-2813
▁заме	-2814
▁send	-2815
враща	-2816
▁ря	-2817
▁needs	-2818
▁its	-2819
▁afraid	-2820
▁beautiful	-2821
▁wish	-2822
▁test	-2823
▁неко	-2824
▁преступ	-2825
▁months	-2826
▁сколько	-2827
▁Оста	-2828
▁tried	-2829
▁secret	-2830
▁His	-2831
ane	-2832
▁lear	-2833
ina	-2834
▁pull	-2835
щего	-2836
▁New	-2837
▁часть	-2838
▁pat	-2839
▁number	-2840
лагаю	-2841
▁Ба	-2842
▁уго	-2843
▁Ц	-2844
▁жить	-2845
рить	-2846
▁Тво	-2847
щения	-2848
▁авто	-2849
ун	-2850
▁имею	-2851
дет	-2852
лая	-2853
▁bar	-2854
▁forg	-2855
aster	-2856
енави	-2857
▁married	-2858
ole	-2859
▁скоро	-2860
aken	-2861
▁med	-2862
▁Am	-2863
ствовать	-2864
▁сла	-2865
дил	-2866
▁стать	-2867
▁Разве	-2868
▁parent	-2869
▁vis	-2870
▁trou	-2871
▁спра	-2872
▁water	-2873
▁спас	-2874
▁Этот	-2875
ники	-2876
▁though	-2877
дний	-2878
▁dra	-2879
▁отправи	-2880
▁pri	-2881
▁Sc	-2882
head	-2883
▁слова	-2884
▁случае	-2885
ким	-2886
ваем	-2887
ought	-2888
▁уг	-2889
▁мам	-2890
сит	-2891
ётся	-2892
eed	-2893
vest	-2894
▁детей	-2895
▁собой	-2896
▁watch	-2897
ую	-2898
хра	-2899
▁Прав	-2900
▁объяс	-2901
▁смерти	-2902
▁запи	-2903
inc	-2904
▁safe	-2905
▁dep	-2906
▁попро	-2907
тим	-2908
▁отца	-2909
ush	-2910
▁whatever	-2911
▁вопрос	-2912
тон	-2913
▁знаем	-2914
▁Джи	-2915
▁спе	-2916
▁уста	-2917
▁кли	-2918
фа	-2919
▁12	-2920
ric	-2921
▁town	-2922
▁кни	-2923
▁lead	-2924
▁довер	-2925
▁bra	-2926
ents	-2927
▁жена	-2928
чает	-2929
▁Gu	-2930
most	-2931
сил	-2932
ener	-2933
▁goes	-2934
ertain	-2935
▁ю	-2936
▁парня	-2937
▁minute	-2938
▁достаточно	-2939
▁dream	-2940
▁жерт	-2941
щий	-2942
li	-2943
▁front	-2944
rought	-2945
▁нашей	-2946
▁собираюсь	-2947
▁иди	-2948
▁такая	-2949
▁вижу	-2950
ница	-2951
▁лег	-2952
говари	-2953
шёл	-2954
unk	-2955
▁Им	-2956
▁murder	-2957
▁сказали	-2958
▁ху	-2959
▁неё	-2960
обра	-2961
rap	-2962
▁Har	-2963
▁показа	-2964
▁оно	-2965
тем	-2966
▁Give	-2967
▁скажу	-2968
ждения	-2969
▁мерт	-2970
▁шо	-2971
дна	-2972
ery	-2973
жения	-2974
жить	-2975
▁мир	-2976
▁нашли	-2977
▁нау	-2978
▁Джон	-2979
▁Правда	-2980
ватит	-2981
ваешь	-2982
лия	-2983
▁fore	-2984
ony	-2985
ically	-2986
iate	-2987
щая	-2988
▁ква	-2989
▁Се	-2990
▁past	-2991
,"	-2992
▁знала	-2993
ссис	-2994
дам	-2995
▁fall	-2996
ом	-2997
▁произошло	-2998
ёшь	-2999
вого	-3000
▁shoot	-3001
aj	-3002
▁увидеть	-3003
▁твою	-3004
▁stre	-3005
▁team	-3006
▁mine	-3007
me	-3008
ined	-3009
▁внут	-3010
▁сна	-3011
iving	-3012
▁похоже	-3013
▁ins	-3014
▁wear	-3015
ective	-3016
▁женщина	-3017
йду	-3018
форма	-3019
▁связа	-3020
воз	-3021
come	-3022
idence	-3023
вание	-3024
not	-3025
▁тю	-3026
▁вся	-3027
▁quite	-3028
драв	-3029
upid	-3030
▁предпо	-3031
▁tou	-3032
▁ext	-3033
▁посту	-3034
gest	-3035
▁stud	-3036
artment	-3037
▁бан	-3038
▁build	-3039
▁пойти	-3040
▁brought	-3041
▁cap	-3042
▁Stop	-3043
лез	-3044
▁видела	-3045
▁Nothing	-3046
ield	-3047
▁говоришь	-3048
ience	-3049
▁опас	-3050
▁зовут	-3051
▁Пу	-3052
нию	-3053
ерин	-3054
br	-3055
▁Поэтому	-3056
▁гор	-3057
ured	-3058
▁Подо	-3059
▁waiting	-3060
▁такие	-3061
osp	-3062
льные	-3063
lo	-3064
ёрт	-3065
▁сделала	-3066
▁готов	-3067
▁дене	-3068
▁написа	-3069
▁Ха	-3070
▁Which	-3071
▁Com	-3072
▁твоего	-3073
▁Char	-3074
▁нес	-3075
ton	-3076
▁понял	-3077
▁vict	-3078
▁одного	-3079
теля	-3080
▁Посмотри	-3081
▁game	-3082
▁less	-3083
рон	-3084
еры	-3085
cause	-3086
▁зем	-3087
▁сын	-3088
▁свобо	-3089
▁somebody	-3090
▁насчет	-3091
▁leg	-3092
▁ind	-3093
гать	-3094
▁ребята	-3095
ER	-3096
▁самое	-3097
▁either	-3098
▁Miss	-3099
▁обяза	-3100
▁ребен	-3101
▁аг	-3102
outh	-3103
▁Se	-3104
▁Дэ	-3105
▁посмотри	-3106
▁sweet	-3107
ging	-3108
▁понимаешь	-3109
▁girls	-3110
▁вернуться	-3111
▁buy	-3112
▁news	-3113
ента	-3114
iec	-3115
▁Вер	-3116
▁Would	-3117
▁отве	-3118
▁говорила	-3119
▁answer	-3120
▁делает	-3121
▁рядом	-3122
▁хоть	-3123
▁Ти	-3124
▁Really	-3125
,000	-3126
▁expect	-3127
vice	-3128
▁Ре	-3129
▁Does	-3130
▁Пере	-3131
▁children	-3132
oll	-3133
▁вой	-3134
▁убил	-3135
▁record	-3136
▁узнать	-3137
▁прости	-3138
▁кре	-3139
гна	-3140
тят	-3141
▁ры	-3142
раб	-3143
idd	-3144
лич	-3145
▁стре	-3146
пыта	-3147
▁Jack	-3148
▁aren	-3149
▁родите	-3150
▁Хочешь	-3151
▁кри	-3152
сса	-3153
▁руки	-3154
рко	-3155
▁Давайте	-3156
▁sn	-3157
ts	-3158
ой	-3159
▁line	-3160
▁Иди	-3161
ские	-3162
▁компа	-3163
▁hate	-3164
ley	-3165
?!	-3166
стой	-3167
▁Tom	-3168
стью	-3169
▁моих	-3170
▁случай	-3171
пере	-3172
▁смотри	-3173
▁оружи	-3174
дание	-3175
▁мину	-3176
▁sim	-3177
▁дву	-3178
▁fav	-3179
ures	-3180
kes	-3181
еди	-3182
раз	-3183
чером	-3184
▁perfect	-3185
▁почти	-3186
oke	-3187
ходить	-3188
▁clean	-3189
▁grand	-3190
▁sub	-3191
▁тому	-3192
ел	-3193
▁add	-3194
▁попроси	-3195
▁dest	-3196
пря	-3197
▁yours	-3198
▁называ	-3199
дете	-3200
▁es	-3201
▁air	-3202
ехать	-3203
▁alive	-3204
ote	-3205
▁своим	-3206
▁dist	-3207
▁Our	-3208
▁сол	-3209
meric	-3210
▁ог	-3211
▁вла	-3212
▁dog	-3213
co	-3214
▁easy	-3215
▁работать	-3216
▁вашей	-3217
▁women	-3218
▁offic	-3219
▁наз	-3220
▁Га	-3221
▁pict	-3222
▁win	-3223
▁скажи	-3224
кус	-3225
▁parents	-3226
ney	-3227
sh	-3228
бь	-3229
▁обеща	-3230
ility	-3231
ract	-3232
▁sort	-3233
▁прово	-3234
▁Очень	-3235
▁Рас	-3236
▁class	-3237
▁Доктор	-3238
▁моим	-3239
▁милли	-3240
ler	-3241
из	-3242
▁outside	-3243
ников	-3244
▁смог	-3245
▁слышал	-3246
▁свет	-3247
рый	-3248
гая	-3249
▁mill	-3250
▁брат	-3251
▁прода	-3252
воль	-3253
▁суще	-3254
▁таким	-3255
cle	-3256
▁stupid	-3257
▁которой	-3258
▁вроде	-3259
▁краси	-3260
▁save	-3261
▁вчера	-3262
нтро	-3263
▁мужчи	-3264
ок	-3265
ished	-3266
▁устро	-3267
ics	-3268
▁ele	-3269
▁одной	-3270
eter	-3271
▁сможет	-3272
▁ночью	-3273
▁пригла	-3274
▁Pro	-3275
pping	-3276
fort	-3277
▁сильно	-3278
▁Нас	-3279
нный	-3280
▁денег	-3281
▁проблемы	-3282
▁быстро	-3283
▁mist	-3284
▁attack	-3285
gr	-3286
itting	-3287
▁forget	-3288
right	-3289
▁taken	-3290
che	-3291
▁Кри	-3292
▁забо	-3293
▁жела	-3294
▁ску	-3295
▁Вас	-3296
▁dinner	-3297
▁находи	-3298
▁Су	-3299
▁вечером	-3300
▁которого	-3301
▁помощь	-3302
ines	-3303
▁Americ	-3304
▁order	-3305
жди	-3306
▁report	-3307
▁exper	-3308
▁seems	-3309
IN	-3310
▁Was	-3311
▁Excuse	-3312
▁Ста	-3313
▁информа	-3314
lcome	-3315
▁помни	-3316
to	-3317
▁00	-3318
▁волну	-3319
▁six	-3320
дят	-3321
▁госпо	-3322
▁mag	-3323
▁пон	-3324
▁himself	-3325
▁lives	-3326
▁ненави	-3327
▁также	-3328
вается	-3329
▁trouble	-3330
▁вто	-3331
▁mil	-3332
▁первый	-3333
▁ошиб	-3334
вели	-3335
▁Her	-3336
графи	-3337
▁human	-3338
▁Бу	-3339
▁fil	-3340
▁inform	-3341
▁стал	-3342
▁Per	-3343
▁места	-3344
▁bas	-3345
▁иска	-3346
▁gra	-3347
йтесь	-3348
▁These	-3349
▁секу	-3350
▁running	-3351
▁black	-3352
рее	-3353
▁каж	-3354
стей	-3355
▁city	-3356
▁Che	-3357
вания	-3358
▁вечерин	-3359
▁верно	-3360
ized	-3361
▁изве	-3362
room	-3363
▁hang	-3364
▁нач	-3365
▁внима	-3366
▁almost	-3367
шен	-3368
ледова	-3369
▁опера	-3370
gan	-3371
▁неу	-3372
вольно	-3373
ault	-3374
▁Man	-3375
▁ain	-3376
лло	-3377
ative	-3378
▁living	-3379
▁Никто	-3380
▁разговари	-3381
▁машину	-3382
▁пои	-3383
▁Pr	-3384
▁Бар	-3385
ator	-3386
▁Cap	-3387
логи	-3388
▁момент	-3389
▁нельзя	-3390
▁доктор	-3391
▁жив	-3392
зом	-3393
лушайте	-3394
▁Even	-3395
▁тюрь	-3396
шно	-3397
▁проблема	-3398
▁feeling	-3399
▁Нико	-3400
▁работает	-3401
▁мое	-3402
▁Mm	-3403
казал	-3404
men	-3405
▁придется	-3406
▁invest	-3407
▁susp	-3408
▁такого	-3409
▁удо	-3410
leas	-3411
▁пожа	-3412
ants	-3413
▁Tr	-3414
▁wind	-3415
▁fell	-3416
ided	-3417
▁asking	-3418
▁опре	-3419
▁return	-3420
▁Ad	-3421
▁Sam	-3422
▁зачем	-3423
▁Mic	-3424
▁лицо	-3425
▁прекрас	-3426
▁Бра	-3427
▁недо	-3428
пар	-3429
▁exc	-3430
irth	-3431
тен	-3432
▁fre	-3433
▁certain	-3434
лла	-3435
▁After	-3436
▁dou	-3437
▁Послушай	-3438
▁surpr	-3439
haps	-3440
sy	-3441
пом	-3442
▁ref	-3443
▁Pe	-3444
ленно	-3445
▁YOU	-3446
ering	-3447
▁часов	-3448
ospital	-3449
▁Ан	-3450
▁Ag	-3451
пуска	-3452
туа	-3453
▁Дай	-3454
▁успе	-3455
чество	-3456
▁нормально	-3457
▁victim	-3458
чной	-3459
mp	-3460
▁подру	-3461
пил	-3462
▁doctor	-3463
док	-3464
дру	-3465
▁уди	-3466
▁ship	-3467
вили	-3468
▁Че	-3469
ik	-3470
▁Кла	-3471
ствие	-3472
нется	-3473
▁кому	-3474
▁возьми	-3475
▁нужны	-3476
ское	-3477
▁Сколько	-3478
▁шту	-3479
нял	-3480
▁бер	-3481
▁одну	-3482
▁колле	-3483
▁съ	-3484
▁фа	-3485
▁Би	-3486
▁ды	-3487
▁Пер	-3488
▁Su	-3489
▁осно	-3490
▁imag	-3491
▁права	-3492
▁hair	-3493
anger	-3494
▁сделали	-3495
▁sick	-3496
▁оди	-3497
▁special	-3498
▁complete	-3499
oon	-3500
▁pap	-3501
▁ними	-3502
▁груп	-3503
▁серьез	-3504
▁оказа	-3505
вом	-3506
▁слы	-3507
▁пово	-3508
▁Чтобы	-3509
▁номер	-3510
elt	-3511
рик	-3512
arth	-3513
▁country	-3514
▁матери	-3515
▁seem	-3516
▁small	-3517
▁Можно	-3518
uring	-3519
▁благода	-3520
▁правильно	-3521
ters	-3522
▁stra	-3523
▁lock	-3524
▁последний	-3525
▁Сегодня	-3526
▁Отлично	-3527
ards	-3528
▁Ки	-3529
▁control	-3530
▁bull	-3531
дви	-3532
▁пов	-3533
▁той	-3534
▁lose	-3535
ular	-3536
лять	-3537
▁Майк	-3538
▁утром	-3539
жит	-3540
▁food	-3541
▁меч	-3542
▁piec	-3543
▁Пи	-3544
вак	-3545
▁ожи	-3546
ёз	-3547
selves	-3548
▁высо	-3549
▁possible	-3550
▁виде	-3551
ум	-3552
▁damn	-3553
▁cannot	-3554
конец	-3555
onest	-3556
▁drug	-3557
▁работы	-3558
▁art	-3559
▁закры	-3560
▁оде	-3561
▁Фи	-3562
торые	-3563
▁shouldn	-3564
пал	-3565
▁отношения	-3566
▁meeting	-3567
ones	-3568
▁ночи	-3569
▁ваша	-3570
▁оп	-3571
▁everybody	-3572
▁дверь	-3573
сло	-3574
▁мно	-3575
▁along	-3576
ровь	-3577
▁Bar	-3578
▁взять	-3579
ides	-3580
нись	-3581
▁имеет	-3582
▁тро	-3583
ury	-3584
▁принима	-3585
▁укра	-3586
мся	-3587
▁become	-3588
▁подоз	-3589
▁Qu	-3590
ян	-3591
▁хотя	-3592
спе	-3593
▁чувствую	-3594
▁hor	-3595
▁mus	-3596
stem	-3597
▁город	-3598
▁Пар	-3599
▁aff	-3600
cc	-3601
▁запла	-3602
▁Смотри	-3603
ходя	-3604
▁рассказать	-3605
▁дней	-3606
▁понять	-3607
▁trans	-3608
▁беспоко	-3609
▁land	-3610
▁Sha	-3611
▁happens	-3612
ats	-3613
▁tw	-3614
▁дать	-3615
▁необ	-3616
▁tot	-3617
...?	-3618
пад	-3619
▁план	-3620
▁Дол	-3621
▁company	-3622
▁филь	-3623
▁появи	-3624
urity	-3625
помина	-3626
▁Навер	-3627
entle	-3628
мом	-3629
▁cool	-3630
▁Наде	-3631
▁dress	-3632
▁Got	-3633
ских	-3634
▁explain	-3635
▁переста	-3636
▁promise	-3637
▁Нью	-3638
▁50	-3639
▁wit	-3640
▁ball	-3641
ган	-3642
iting	-3643
▁шанс	-3644
▁нарко	-3645
▁ок	-3646
▁останови	-3647
▁собствен	-3648
дель	-3649
▁known	-3650
▁возвраща	-3651
▁Sir	-3652
bs	-3653
▁weeks	-3654
▁чувство	-3655
▁дальше	-3656
eth	-3657
рода	-3658
▁hospital	-3659
▁sense	-3660
▁leaving	-3661
▁получить	-3662
▁state	-3663
▁пси	-3664
▁свое	-3665
ницу	-3666
над	-3667
▁папа	-3668
▁поза	-3669
ехал	-3670
либо	-3671
▁контро	-3672
▁adm	-3673
▁глав	-3674
питан	-3675
езжа	-3676
▁Act	-3677
▁спраши	-3678
▁Извините	-3679
рия	-3680
кар	-3681
чёт	-3682
коло	-3683
▁взгля	-3684
дания	-3685
ept	-3686
цен	-3687
rible	-3688
▁Эта	-3689
▁оба	-3690
▁приходи	-3691
▁ten	-3692
▁lie	-3693
▁представля	-3694
грам	-3695
▁Sure	-3696
▁разре	-3697
ните	-3698
него	-3699
▁разве	-3700
новить	-3701
ten	-3702
▁watc	-3703
▁Ст	-3704
нце	-3705
▁drive	-3706
▁нео	-3707
▁дерь	-3708
ision	-3709
▁наших	-3710
▁treat	-3711
▁говорят	-3712
▁сердце	-3713
▁birth	-3714
▁поме	-3715
▁вне	-3716
щен	-3717
▁near	-3718
▁Об	-3719
▁особ	-3720
роятно	-3721
▁позна	-3722
▁видели	-3723
▁ар	-3724
▁red	-3725
▁идея	-3726
кло	-3727
▁sell	-3728
дра	-3729
рии	-3730
▁доме	-3731
льной	-3732
ift	-3733
▁Ох	-3734
▁figure	-3735
▁аре	-3736
▁сот	-3737
ert	-3738
▁созда	-3739
▁Господи	-3740
ехали	-3741
▁понрави	-3742
▁телефон	-3743
ced	-3744
▁entire	-3745
▁выбра	-3746
▁секрет	-3747
тил	-3748
▁system	-3749
▁shall	-3750
▁Вообще	-3751
▁чита	-3752
шее	-3753
▁смысле	-3754
▁pur	-3755
ester	-3756
▁spend	-3757
бери	-3758
▁обсу	-3759
▁key	-3760
▁вечер	-3761
нит	-3762
ett	-3763
ief	-3764
▁lady	-3765
вока	-3766
▁давно	-3767
▁rid	-3768
▁dire	-3769
вался	-3770
▁кор	-3771
сторо	-3772
сок	-3773
▁пять	-3774
▁уверена	-3775
▁anyway	-3776
▁девушка	-3777
▁Ge	-3778
▁мило	-3779
▁Эн	-3780
▁мас	-3781
▁boys	-3782
ствует	-3783
▁prison	-3784
▁Ser	-3785
▁Под	-3786
▁Джу	-3787
▁какие	-3788
▁которое	-3789
ken	-3790
▁уйти	-3791
▁May	-3792
▁ге	-3793
ities	-3794
▁Two	-3795
▁орга	-3796
▁прежде	-3797
▁жу	-3798
▁gre	-3799
▁Сто	-3800
▁Чу	-3801
▁зву	-3802
говор	-3803
шенно	-3804
▁вашего	-3805
▁оч	-3806
▁Ne	-3807
нием	-3808
колько	-3809
▁тол	-3810
▁черт	-3811
▁weird	-3812
▁mad	-3813
▁сва	-3814
▁моз	-3815
▁тыся	-3816
oor	-3817
бора	-3818
▁край	-3819
▁danger	-3820
▁favor	-3821
▁worked	-3822
льта	-3823
▁выход	-3824
ining	-3825
▁комп	-3826
▁нашего	-3827
▁date	-3828
▁bel	-3829
вила	-3830
ially	-3831
▁prof	-3832
▁пара	-3833
▁голову	-3834
▁pos	-3835
мира	-3836
▁выяс	-3837
мет	-3838
▁мисс	-3839
▁press	-3840
▁funny	-3841
gy	-3842
коми	-3843
▁тело	-3844
▁throw	-3845
▁скры	-3846
roy	-3847
rie	-3848
▁Знаете	-3849
▁quick	-3850
▁мире	-3851
чил	-3852
king	-3853
▁top	-3854
служи	-3855
▁год	-3856
▁клю	-3857
▁Одна	-3858
▁Could	-3859
▁fut	-3860
▁meant	-3861
ges	-3862
ержи	-3863
▁pub	-3864
▁cond	-3865
ma	-3866
▁люб	-3867
дили	-3868
▁близ	-3869
▁wed	-3870
▁дочь	-3871
▁наверное	-3872
ктив	-3873
▁осо	-3874
▁дети	-3875
▁questions	-3876
▁felt	-3877
▁небо	-3878
▁сист	-3879
димся	-3880
гой	-3881
▁пона	-3882
range	-3883
▁fe	-3884
▁phot	-3885
▁услыша	-3886
▁weren	-3887
тельный	-3888
▁тор	-3889
▁обна	-3890
▁needed	-3891
▁allow	-3892
▁foot	-3893
airs	-3894
ностью	-3895
▁loc	-3896
▁18	-3897
▁кварти	-3898
шую	-3899
рэн	-3900
чения	-3901
oun	-3902
▁сразу	-3903
▁ce	-3904
печат	-3905
▁glad	-3906
▁Джор	-3907
▁поку	-3908
тельства	-3909
нные	-3910
.....	-3911
шать	-3912
льшо	-3913
viously	-3914
ots	-3915
▁hey	-3916
▁par	-3917
▁ги	-3918
▁уничто	-3919
тки	-3920
AT	-3921
▁Эти	-3922
▁Мама	-3923
гази	-3924
дорово	-3925
▁Wow	-3926
▁ran	-3927
▁strong	-3928
▁нашел	-3929
ific	-3930
▁обратно	-3931
▁bitch	-3932
▁longer	-3933
▁хотели	-3934
rence	-3935
▁шта	-3936
▁которых	-3937
▁Ар	-3938
▁пес	-3939
▁вста	-3940
oul	-3941
▁ru	-3942
▁прос	-3943
ection	-3944
▁Надеюсь	-3945
inal	-3946
▁mark	-3947
▁Ру	-3948
▁step	-3949
vern	-3950
▁пришел	-3951
ues	-3952
▁лично	-3953
▁исче	-3954
хва	-3955
реди	-3956
▁bag	-3957
▁фор	-3958
етыре	-3959
▁disapp	-3960
▁пытался	-3961
▁другом	-3962
▁sug	-3963
▁кур	-3964
▁состоя	-3965
▁serious	-3966
▁Позво	-3967
▁большой	-3968
скую	-3969
oose	-3970
▁kiss	-3971
▁Сан	-3972
▁возра	-3973
емо	-3974
ction	-3975
▁зара	-3976
▁следую	-3977
▁приш	-3978
▁shut	-3979
▁Captain	-3980
▁relations	-3981
ior	-3982
ked	-3983
▁Con	-3984
шить	-3985
▁помню	-3986
▁ужи	-3987
чные	-3988
▁важ	-3989
▁дере	-3990
▁необходи	-3991
▁Кей	-3992
сона	-3993
▁две	-3994
▁дво	-3995
▁Je	-3996
▁El	-3997
▁нару	-3998
ution	-3999
зывать	-4000
▁столько	-4001
▁собра	-4002
▁Чар	-4003
▁кры	-4004
ском	-4005
▁worth	-4006
▁Jes	-4007
▁Надо	-4008
▁100	-4009
▁future	-4010
▁живо	-4011
тие	-4012
дох	-4013
▁fast	-4014
▁думаете	-4015
▁выи	-4016
▁замеча	-4017
▁super	-4018
▁Куда	-4019
▁Гар	-4020
▁подумал	-4021
▁Ю	-4022
сили	-4023
▁получа	-4024
ists	-4025
▁Ben	-4026
bers	-4027
▁тяже	-4028
▁самый	-4029
дает	-4030
▁seeing	-4031
▁будете	-4032
ead	-4033
fic	-4034
amer	-4035
▁anybody	-4036
aces	-4037
ющие	-4038
▁кораб	-4039
▁никаких	-4040
вобо	-4041
▁arrest	-4042
nie	-4043
▁turned	-4044
joy	-4045
▁часа	-4046
▁воло	-4047
▁eye	-4048
▁какая	-4049
▁By	-4050
▁использу	-4051
▁finally	-4052
ложить	-4053
▁ам	-4054
нили	-4055
▁cur	-4056
▁адвока	-4057
леко	-4058
▁сможем	-4059
▁безопасности	-4060
▁других	-4061
fer	-4062
▁touch	-4063
▁Pl	-4064
енок	-4065
▁Еще	-4066
▁дра	-4067
▁hop	-4068
▁утро	-4069
▁cell	-4070
нки	-4071
▁уме	-4072
▁поверить	-4073
▁пойду	-4074
▁Кро	-4075
▁ситуа	-4076
▁сможешь	-4077
▁неве	-4078
▁di	-4079
▁million	-4080
▁ahead	-4081
▁track	-4082
▁wall	-4083
▁найд	-4084
uh	-4085
▁Прошу	-4086
ницы	-4087
▁Джек	-4088
▁тр	-4089
▁words	-4090
тье	-4091
цион	-4092
▁посмотреть	-4093
sol	-4094
▁магази	-4095
▁missing	-4096
▁evidence	-4097
ru	-4098
рит	-4099
чув	-4100
пать	-4101
тей	-4102
▁хороший	-4103
▁weap	-4104
▁Something	-4105
▁думать	-4106
▁уч	-4107
▁hon	-4108
▁Кажется	-4109
рта	-4110
▁choice	-4111
▁scared	-4112
▁весе	-4113
▁постоя	-4114
▁пути	-4115
▁Нужно	-4116
ched	-4117
▁работе	-4118
ession	-4119
▁Эм	-4120
irt	-4121
▁дал	-4122
вление	-4123
зывает	-4124
▁рад	-4125
▁делал	-4126
▁подоб	-4127
▁somewhere	-4128
▁другу	-4129
▁Fuck	-4130
нила	-4131
▁cry	-4132
▁двух	-4133
▁loved	-4134
ces	-4135
▁calling	-4136
нусь	-4137
▁хотят	-4138
наче	-4139
▁star	-4140
ям	-4141
▁ve	-4142
▁Могу	-4143
▁угро	-4144
ider	-4145
ково	-4146
▁довольно	-4147
▁непри	-4148
▁новый	-4149
▁ребенка	-4150
чная	-4151
ys	-4152
ктора	-4153
▁Хоро	-4154
▁sol	-4155
▁thanks	-4156
bo	-4157
▁пое	-4158
▁dark	-4159
▁кроме	-4160
▁Му	-4161
▁счет	-4162
▁dear	-4163
!"	-4164
cl	-4165
тво	-4166
круг	-4167
все	-4168
Cause	-4169
▁rather	-4170
чеви	-4171
емы	-4172
▁opp	-4173
▁затем	-4174
orge	-4175
▁ris	-4176
▁двига	-4177
▁short	-4178
▁looked	-4179
ency	-4180
ounds	-4181
▁Everything	-4182
цов	-4183
▁Какой	-4184
▁понадо	-4185
чек	-4186
ries	-4187
▁твое	-4188
▁сделаю	-4189
▁box	-4190
▁playing	-4191
ected	-4192
rec	-4193
лит	-4194
oint	-4195
ments	-4196
▁судь	-4197
ческий	-4198
▁получил	-4199
стру	-4200
▁надеюсь	-4201
цом	-4202
▁investig	-4203
стати	-4204
▁Actually	-4205
ант	-4206
▁straight	-4207
▁Реб	-4208
кси	-4209
▁сами	-4210
тый	-4211
тью	-4212
лена	-4213
нали	-4214
ze	-4215
uation	-4216
▁oper	-4217
влека	-4218
▁giving	-4219
▁given	-4220
▁honest	-4221
▁THE	-4222
▁information	-4223
▁Думаешь	-4224
▁boss	-4225
▁jud	-4226
▁мя	-4227
▁ясно	-4228
lex	-4229
▁прошу	-4230
рес	-4231
чик	-4232
▁наблю	-4233
▁coff	-4234
▁murd	-4235
▁другие	-4236
▁Mc	-4237
▁долла	-4238
▁слово	-4239
▁11	-4240
▁list	-4241
▁замети	-4242
hael	-4243
▁совет	-4244
▁Эми	-4245
▁fix	-4246
тели	-4247
▁задни	-4248
▁dro	-4249
aus	-4250
нение	-4251
▁познакоми	-4252
тк	-4253
▁приго	-4254
▁сбе	-4255
ape	-4256
▁говорили	-4257
▁priv	-4258
ником	-4259
▁wedding	-4260
▁ваше	-4261
▁явля	-4262
▁мере	-4263
ature	-4264
▁bud	-4265
вит	-4266
▁стороны	-4267
▁безу	-4268
▁правду	-4269
▁Frank	-4270
▁людя	-4271
alt	-4272
▁gentle	-4273
▁разо	-4274
▁eng	-4275
▁invol	-4276
▁доб	-4277
▁Твой	-4278
▁остаться	-4279
▁Ste	-4280
Йор	-4281
люсь	-4282
▁пойма	-4283
▁семья	-4284
▁мед	-4285
▁concer	-4286
▁выра	-4287
казыва	-4288
ема	-4289
▁Без	-4290
▁Lord	-4291
помни	-4292
▁works	-4293
▁Черт	-4294
▁Ha	-4295
AN	-4296
стрее	-4297
▁sold	-4298
▁sometimes	-4299
▁свидете	-4300
▁чтоб	-4301
▁наконец	-4302
▁миссис	-4303
лер	-4304
▁Том	-4305
▁bott	-4306
гие	-4307
▁поль	-4308
bed	-4309
▁предло	-4310
▁деся	-4311
▁Один	-4312
▁takes	-4313
▁Прекра	-4314
▁озна	-4315
▁dem	-4316
aste	-4317
▁цен	-4318
▁lau	-4319
▁changed	-4320
▁иногда	-4321
ode	-4322
alm	-4323
▁парни	-4324
▁sto	-4325
зор	-4326
▁thinks	-4327
ama	-4328
ows	-4329
тера	-4330
зь	-4331
▁фак	-4332
▁personal	-4333
▁Луч	-4334
▁конце	-4335
▁отлично	-4336
▁зада	-4337
▁хра	-4338
▁killer	-4339
▁решил	-4340
▁ува	-4341
ills	-4342
жай	-4343
▁Only	-4344
дравству	-4345
ara	-4346
▁вернулся	-4347
▁согласи	-4348
▁ord	-4349
▁vo	-4350
elf	-4351
▁From	-4352
▁begin	-4353
гов	-4354
▁esc	-4355
▁гу	-4356
▁catch	-4357
▁squ	-4358
ball	-4359
▁others	-4360
▁security	-4361
▁Mor	-4362
▁начала	-4363
▁court	-4364
▁шу	-4365
▁честь	-4366
▁благо	-4367
▁пришлось	-4368
▁Cha	-4369
▁любит	-4370
ключи	-4371
▁building	-4372
▁er	-4373
▁Пит	-4374
ждать	-4375
▁зая	-4376
inite	-4377
▁пережи	-4378
▁Откуда	-4379
стера	-4380
azing	-4381
▁creat	-4382
▁hist	-4383
▁fail	-4384
▁смотреть	-4385
▁опо	-4386
▁ones	-4387
▁stick	-4388
▁Буд	-4389
▁знали	-4390
сут	-4391
став	-4392
▁Ro	-4393
▁сти	-4394
▁z	-4395
iddle	-4396
esterday	-4397
▁cover	-4398
▁conn	-4399
▁поможет	-4400
▁cold	-4401
тельство	-4402
гал	-4403
ремя	-4404
▁200	-4405
▁пись	-4406
низ	-4407
friend	-4408
▁году	-4409
сила	-4410
gg	-4411
▁бес	-4412
тащи	-4413
▁фотографи	-4414
umb	-4415
▁наша	-4416
oof	-4417
шек	-4418
▁write	-4419
▁Эд	-4420
▁мень	-4421
▁piece	-4422
aur	-4423
▁destroy	-4424
▁decided	-4425
▁ума	-4426
▁till	-4427
▁исчез	-4428
дала	-4429
диться	-4430
▁дев	-4431
▁Папа	-4432
▁kept	-4433
▁экс	-4434
▁одино	-4435
ages	-4436
ully	-4437
▁станет	-4438
ай	-4439
▁прине	-4440
ек	-4441
▁cent	-4442
▁право	-4443
сен	-4444
нешь	-4445
▁Jul	-4446
▁Спо	-4447
▁никого	-4448
лой	-4449
▁сом	-4450
дали	-4451
ph	-4452
solute	-4453
lfriend	-4454
▁worse	-4455
▁moving	-4456
▁patient	-4457
хожу	-4458
титься	-4459
али	-4460
▁сына	-4461
▁col	-4462
▁breat	-4463
▁accident	-4464
▁пришла	-4465
льное	-4466
виду	-4467
▁norm	-4468
▁Помо	-4469
▁справи	-4470
▁обычно	-4471
▁fault	-4472
omb	-4473
▁дам	-4474
▁god	-4475
ately	-4476
▁Джен	-4477
▁smell	-4478
▁пришли	-4479
ming	-4480
▁worried	-4481
▁вернуть	-4482
▁Keep	-4483
▁музы	-4484
▁прези	-4485
▁сту	-4486
▁прия	-4487
▁happening	-4488
gel	-4489
▁семьи	-4490
чай	-4491
ational	-4492
▁gener	-4493
▁honey	-4494
пита	-4495
▁song	-4496
лай	-4497
▁стар	-4498
▁road	-4499
▁requ	-4500
▁First	-4501
oh	-4502
▁picture	-4503
atur	-4504
кую	-4505
▁ци	-4506
▁white	-4507
ories	-4508
▁learn	-4509
▁sounds	-4510
▁clos	-4511
▁типа	-4512
▁Put	-4513
▁Jesus	-4514
ющих	-4515
een	-4516
▁биз	-4517
▁нашу	-4518
bt	-4519
нтере	-4520
▁grow	-4521
▁Хар	-4522
▁умира	-4523
лил	-4524
▁разру	-4525
▁тай	-4526
кам	-4527
▁Rem	-4528
нице	-4529
▁сих	-4530
льных	-4531
adies	-4532
amed	-4533
▁Someone	-4534
йо	-4535
iding	-4536
▁Сэр	-4537
вен	-4538
гом	-4539
▁client	-4540
ссе	-4541
ол	-4542
ris	-4543
▁огром	-4544
itch	-4545
▁Call	-4546
▁mention	-4547
bye	-4548
▁coffee	-4549
▁Michael	-4550
▁Gre	-4551
▁Можешь	-4552
жь	-4553
▁People	-4554
▁нашла	-4555
дай	-4556
▁будь	-4557
пыт	-4558
▁York	-4559
▁какое	-4560
▁делаю	-4561
▁eff	-4562
ятся	-4563
▁Бен	-4564
▁conv	-4565
▁преду	-4566
▁трудно	-4567
▁Пошли	-4568
▁четыре	-4569
▁образом	-4570
▁ty	-4571
▁deep	-4572
езд	-4573
рован	-4574
unity	-4575
▁Пол	-4576
▁Пред	-4577
▁следует	-4578
▁крови	-4579
hose	-4580
▁Бер	-4581
лены	-4582
лек	-4583
▁зай	-4584
▁kick	-4585
▁дете	-4586
▁pleas	-4587
циально	-4588
▁заслужи	-4589
▁поки	-4590
дила	-4591
льная	-4592
mas	-4593
▁ха	-4594
▁внутри	-4595
▁свадь	-4596
▁threat	-4597
▁хи	-4598
▁холо	-4599
▁опять	-4600
▁beat	-4601
▁Hold	-4602
▁обла	-4603
▁ши	-4604
▁bur	-4605
лад	-4606
▁Чего	-4607
ror	-4608
▁кам	-4609
ссо	-4610
телей	-4611
▁Dav	-4612
▁Fl	-4613
erve	-4614
▁писа	-4615
▁Ќ	-4616
стить	-4617
▁fly	-4618
▁любовь	-4619
▁Doctor	-4620
▁ground	-4621
▁оружие	-4622
вери	-4623
▁хватит	-4624
▁поздно	-4625
▁mis	-4626
▁хва	-4627
▁вокруг	-4628
▁пытаюсь	-4629
▁fair	-4630
▁угодно	-4631
▁ang	-4632
▁respons	-4633
▁неза	-4634
чая	-4635
▁using	-4636
мери	-4637
▁Подожди	-4638
▁извини	-4639
▁totally	-4640
▁секун	-4641
шед	-4642
▁Сэм	-4643
▁твоим	-4644
лета	-4645
▁насто	-4646
The	-4647
▁спасти	-4648
▁месяцев	-4649
▁выз	-4650
▁Ника	-4651
▁понадоби	-4652
▁rad	-4653
нен	-4654
▁Ше	-4655
▁lawy	-4656
▁убийство	-4657
▁единственный	-4658
▁street	-4659
▁спросить	-4660
ждение	-4661
view	-4662
▁твоих	-4663
▁подозре	-4664
ky	-4665
▁Ваша	-4666
▁Знаю	-4667
▁Твоя	-4668
▁music	-4669
aged	-4670
▁enjoy	-4671
▁хуже	-4672
ilt	-4673
illy	-4674
▁использовать	-4675
▁Наверное	-4676
▁relationship	-4677
▁выглядит	-4678
▁Jim	-4679
▁camp	-4680
▁lying	-4681
iol	-4682
▁начать	-4683
▁message	-4684
els	-4685
▁clot	-4686
▁забра	-4687
гает	-4688
дент	-4689
▁Great	-4690
▁broke	-4691
▁contact	-4692
▁surv	-4693
▁сте	-4694
▁каждо	-4695
▁Ах	-4696
inger	-4697
▁Хотя	-4698
▁Кра	-4699
▁вашу	-4700
▁хотим	-4701
▁таких	-4702
вид	-4703
▁странно	-4704
▁суд	-4705
▁Nice	-4706
ях	-4707
▁caught	-4708
▁убийства	-4709
▁adv	-4710
▁кофе	-4711
▁single	-4712
▁cir	-4713
▁Бог	-4714
держа	-4715
▁спать	-4716
▁card	-4717
▁поги	-4718
▁попыта	-4719
▁зако	-4720
шкой	-4721
▁ѕ	-4722
▁prep	-4723
▁mistake	-4724
▁burn	-4725
▁Those	-4726
▁следующий	-4727
▁40	-4728
ai	-4729
▁ill	-4730
▁Peter	-4731
▁present	-4732
▁lucky	-4733
▁govern	-4734
ловать	-4735
▁crime	-4736
▁talked	-4737
▁Mart	-4738
▁proper	-4739
чевидно	-4740
▁полицей	-4741
▁бога	-4742
▁Ке	-4743
▁lab	-4744
initely	-4745
▁apolog	-4746
того	-4747
acy	-4748
ume	-4749
▁Кон	-4750
ae	-4751
▁иметь	-4752
нула	-4753
▁часто	-4754
▁Чем	-4755
hol	-4756
the	-4757
▁совершенно	-4758
▁собираешься	-4759
cus	-4760
▁pack	-4761
gn	-4762
▁visit	-4763
▁имени	-4764
▁watching	-4765
▁Never	-4766
▁играть	-4767
str	-4768
▁ск	-4769
▁Три	-4770
▁respect	-4771
▁suggest	-4772
▁выигра	-4773
▁дура	-4774
▁Здравству	-4775
ровал	-4776
зульта	-4777
▁путь	-4778
▁early	-4779
пустить	-4780
▁решение	-4781
дера	-4782
▁взял	-4783
▁Держи	-4784
vo	-4785
▁говорите	-4786
рин	-4787
▁div	-4788
▁Увер	-4789
▁girlfriend	-4790
▁писто	-4791
жении	-4792
und	-4793
--	-4794
▁Точно	-4795
шке	-4796
▁полиции	-4797
▁пове	-4798
▁nobody	-4799
▁Люди	-4800
▁Эли	-4801
▁неделю	-4802
▁здорово	-4803
▁Ему	-4804
▁получ	-4805
▁Ed	-4806
▁Фрэн	-4807
бри	-4808
▁Мои	-4809
▁paper	-4810
▁sear	-4811
key	-4812
▁уча	-4813
▁apartment	-4814
▁Very	-4815
▁стои	-4816
▁En	-4817
▁воспо	-4818
▁кровь	-4819
ляю	-4820
рэ	-4821
LL	-4822
▁Помни	-4823
▁паль	-4824
▁скажешь	-4825
мотря	-4826
▁части	-4827
▁ждать	-4828
▁сестра	-4829
▁станови	-4830
бить	-4831
▁руку	-4832
▁completely	-4833
мера	-4834
▁Именно	-4835
кли	-4836
▁долларов	-4837
рот	-4838
ray	-4839
▁повто	-4840
▁чёр	-4841
▁Em	-4842
ходите	-4843
pper	-4844
▁цер	-4845
▁сосе	-4846
RE	-4847
▁пле	-4848
▁комнате	-4849
▁мужчина	-4850
▁обще	-4851
ON	-4852
▁offer	-4853
▁amazing	-4854
▁изба	-4855
▁малы	-4856
▁профе	-4857
▁Тут	-4858
▁бума	-4859
▁Никогда	-4860
iam	-4861
ians	-4862
▁sad	-4863
нения	-4864
▁непо	-4865
▁fear	-4866
льным	-4867
▁Col	-4868
▁cross	-4869
erv	-4870
▁Рей	-4871
▁park	-4872
▁brain	-4873
▁Say	-4874
▁Eng	-4875
▁arri	-4876
▁далеко	-4877
▁доказа	-4878
лка	-4879
▁yesterday	-4880
▁mouth	-4881
▁заклю	-4882
▁придума	-4883
▁mot	-4884
▁table	-4885
▁школе	-4886
iot	-4887
▁Det	-4888
▁age	-4889
▁оставить	-4890
▁паци	-4891
▁дорогая	-4892
▁16	-4893
ING	-4894
▁посла	-4895
▁spent	-4896
▁пропа	-4897
▁situation	-4898
▁ребенок	-4899
▁25	-4900
▁крайней	-4901
реза	-4902
▁Фран	-4903
▁чувак	-4904
лете	-4905
▁окру	-4906
solutely	-4907
▁верн	-4908
▁accept	-4909
▁account	-4910
ices	-4911
лые	-4912
▁Mad	-4913
▁идет	-4914
▁ring	-4915
▁history	-4916
кля	-4917
▁чет	-4918
фф	-4919
work	-4920
▁Дэн	-4921
▁необходимо	-4922
▁моё	-4923
eg	-4924
кер	-4925
лки	-4926
▁sun	-4927
▁public	-4928
▁drop	-4929
▁¬	-4930
▁King	-4931
ческой	-4932
▁Чи	-4933
▁self	-4934
тт	-4935
▁продолжа	-4936
чей	-4937
▁чуть	-4938
▁машины	-4939
рует	-4940
▁вернусь	-4941
▁новости	-4942
▁рада	-4943
▁знаком	-4944
▁witness	-4945
▁Ph	-4946
▁14	-4947
ственное	-4948
▁заму	-4949
ajor	-4950
iter	-4951
▁teac	-4952
▁отли	-4953
▁однажды	-4954
щь	-4955
вший	-4956
▁очере	-4957
зови	-4958
▁стран	-4959
▁Понима	-4960
bor	-4961
хов	-4962
▁вид	-4963
хе	-4964
▁знают	-4965
▁настолько	-4966
▁предо	-4967
▁прика	-4968
hel	-4969
цем	-4970
▁Father	-4971
вел	-4972
▁Hmm	-4973
▁birthday	-4974
set	-4975
erry	-4976
▁bath	-4977
▁огра	-4978
▁аресто	-4979
▁Whatever	-4980
▁полностью	-4981
▁wearing	-4982
▁насколько	-4983
ёте	-4984
твер	-4985
▁живот	-4986
▁мало	-4987
▁мене	-4988
▁Коро	-4989
▁Ду	-4990
▁welcome	-4991
▁Looks	-4992
ov	-4993
▁позже	-4994
мс	-4995
▁мест	-4996
▁feet	-4997
▁ann	-4998
▁blow	-4999
▁оби	-5000
▁cook	-5001
нулся	-5002
▁tre	-5003
▁предупре	-5004
вар	-5005
▁cost	-5006
▁верю	-5007
▁цвет	-5008
▁сим	-5009
▁машина	-5010
▁сначала	-5011
urry	-5012
▁steal	-5013
лок	-5014
▁людям	-5015
▁pot	-5016
пример	-5017
гру	-5018
▁psy	-5019
▁моем	-5020
▁rock	-5021
▁mach	-5022
roup	-5023
itive	-5024
▁apprec	-5025
вод	-5026
друг	-5027
▁Мисс	-5028
▁прошлой	-5029
▁жени	-5030
тай	-5031
fully	-5032
▁support	-5033
илл	-5034
▁hasn	-5035
гами	-5036
ливо	-5037
▁middle	-5038
бсо	-5039
▁видишь	-5040
▁гре	-5041
▁возможность	-5042
▁pen	-5043
▁boyfriend	-5044
▁клу	-5045
▁poor	-5046
▁стара	-5047
лег	-5048
▁contin	-5049
▁откуда	-5050
бий	-5051
▁давайте	-5052
щие	-5053
ехала	-5054
▁handle	-5055
▁mod	-5056
циона	-5057
▁Pres	-5058
▁думает	-5059
▁cause	-5060
вались	-5061
▁двое	-5062
▁Christmas	-5063
▁tec	-5064
▁George	-5065
▁сложно	-5066
uce	-5067
ism	-5068
▁доч	-5069
▁влю	-5070
▁приду	-5071
▁Иногда	-5072
ald	-5073
arr	-5074
фо	-5075
зов	-5076
▁form	-5077
▁imagine	-5078
▁pract	-5079
sc	-5080
▁стро	-5081
▁освобо	-5082
▁дерьмо	-5083
▁Ок	-5084
цией	-5085
▁своими	-5086
гре	-5087
жки	-5088
▁друзей	-5089
▁гря	-5090
▁voice	-5091
▁across	-5092
▁paid	-5093
▁нему	-5094
▁недели	-5095
▁результа	-5096
▁Mike	-5097
▁около	-5098
riage	-5099
▁cas	-5100
▁кост	-5101
▁све	-5102
▁fool	-5103
▁самого	-5104
orth	-5105
▁рождения	-5106
влю	-5107
▁всей	-5108
▁soc	-5109
▁dance	-5110
бсолю	-5111
▁истории	-5112
▁показать	-5113
доб	-5114
перед	-5115
▁during	-5116
кумен	-5117
▁узнал	-5118
▁anywhere	-5119
▁человеком	-5120
▁rob	-5121
▁убили	-5122
▁женщины	-5123
виня	-5124
▁post	-5125
▁Bo	-5126
плохо	-5127
irm	-5128
▁terrible	-5129
ствия	-5130
▁вина	-5131
▁camer	-5132
▁которым	-5133
вляет	-5134
▁event	-5135
▁station	-5136
чного	-5137
▁иначе	-5138
"...	-5139
▁suppose	-5140
ус	-5141
▁готовы	-5142
wards	-5143
▁floor	-5144
тать	-5145
▁los	-5146
▁вери	-5147
▁ble	-5148
▁скорее	-5149
▁другого	-5150
▁Уви	-5151
▁busy	-5152
▁эк	-5153
лови	-5154
тья	-5155
▁pop	-5156
▁marry	-5157
▁некоторые	-5158
▁зави	-5159
▁стол	-5160
нули	-5161
▁Ваш	-5162
▁надея	-5163
▁Рай	-5164
▁Сдела	-5165
▁убь	-5166
▁stopped	-5167
щать	-5168
▁охо	-5169
▁машине	-5170
ching	-5171
дон	-5172
нди	-5173
▁боже	-5174
▁помнишь	-5175
юр	-5176
▁club	-5177
▁серьезно	-5178
▁Ой	-5179
▁наше	-5180
ческие	-5181
▁Ё	-5182
ands	-5183
ереть	-5184
▁глупо	-5185
line	-5186
вайся	-5187
▁stri	-5188
▁сери	-5189
енера	-5190
▁ƒ	-5191
▁слышала	-5192
▁king	-5193
▁Джим	-5194
▁realize	-5195
iny	-5196
▁камер	-5197
▁утра	-5198
стран	-5199
▁мужи	-5200
▁мор	-5201
честве	-5202
▁добра	-5203
▁забрать	-5204
▁Пусть	-5205
▁neigh	-5206
▁последние	-5207
erc	-5208
▁Bye	-5209
шин	-5210
▁tem	-5211
▁сум	-5212
▁Everyone	-5213
▁store	-5214
▁bought	-5215
тая	-5216
▁TO	-5217
▁tick	-5218
▁Тебя	-5219
▁normal	-5220
▁ed	-5221
рк	-5222
▁smart	-5223
▁bank	-5224
рил	-5225
тами	-5226
▁movie	-5227
▁история	-5228
▁спокой	-5229
ns	-5230
▁сда	-5231
▁soul	-5232
▁ужасно	-5233
idge	-5234
циаль	-5235
▁города	-5236
▁причина	-5237
▁постоянно	-5238
▁ride	-5239
ьют	-5240
▁dev	-5241
▁instead	-5242
▁сообщи	-5243
▁похи	-5244
жка	-5245
▁девочка	-5246
енное	-5247
шил	-5248
▁del	-5249
▁evening	-5250
,...	-5251
▁органи	-5252
uction	-5253
нан	-5254
▁лучший	-5255
rill	-5256
стри	-5257
▁Sec	-5258
ffic	-5259
▁Isn	-5260
uter	-5261
▁uni	-5262
стин	-5263
▁Bob	-5264
▁Какая	-5265
▁killing	-5266
▁17	-5267
▁смерть	-5268
жели	-5269
▁board	-5270
▁ваших	-5271
▁городе	-5272
мотрю	-5273
▁Рэй	-5274
ваете	-5275
▁Anyway	-5276
▁делаете	-5277
▁dangerous	-5278
леп	-5279
▁неда	-5280
▁успо	-5281
чено	-5282
▁Амери	-5283
roud	-5284
▁конец	-5285
ана	-5286
рос	-5287
димо	-5288
▁прис	-5289
▁програм	-5290
тора	-5291
▁inn	-5292
▁прекрасно	-5293
▁quiet	-5294
▁remain	-5295
▁обнаружи	-5296
▁Аль	-5297
▁интересно	-5298
▁боя	-5299
▁anim	-5300
▁означает	-5301
▁приятель	-5302
▁остановить	-5303
енни	-5304
виться	-5305
щих	-5306
▁объя	-5307
▁осталось	-5308
▁sil	-5309
▁меньше	-5310
▁Lea	-5311
надле	-5312
▁val	-5313
▁вклю	-5314
▁Bet	-5315
▁Лин	-5316
▁clothes	-5317
▁sal	-5318
▁выс	-5319
ption	-5320
▁jump	-5321
врати	-5322
▁belong	-5323
IS	-5324
▁sitting	-5325
▁Te	-5326
▁Их	-5327
▁переда	-5328
▁Потом	-5329
возможно	-5330
▁сдел	-5331
▁шоу	-5332
▁чувства	-5333
▁field	-5334
▁forever	-5335
▁впер	-5336
▁игру	-5337
▁выпол	-5338
▁привет	-5339
▁lunch	-5340
▁наркоти	-5341
лку	-5342
gram	-5343
дный	-5344
▁расстро	-5345
рения	-5346
go	-5347
▁Comm	-5348
▁screw	-5349
▁чему	-5350
ege	-5351
▁Perhaps	-5352
▁Уже	-5353
over	-5354
▁suspect	-5355
ron	-5356
▁Fine	-5357
▁принадле	-5358
▁swear	-5359
▁каса	-5360
iant	-5361
▁минуту	-5362
▁Hen	-5363
▁Mon	-5364
▁share	-5365
гры	-5366
rat	-5367
ством	-5368
▁round	-5369
▁милая	-5370
▁поводу	-5371
▁doll	-5372
urch	-5373
cri	-5374
▁стала	-5375
▁Джа	-5376
▁missed	-5377
▁Detective	-5378
▁Damn	-5379
▁сред	-5380
used	-5381
ili	-5382
▁rul	-5383
щую	-5384
нгли	-5385
▁обвин	-5386
▁представить	-5387
▁About	-5388
▁calls	-5389
▁расследова	-5390
яти	-5391
▁Ген	-5392
▁повез	-5393
▁involved	-5394
▁язы	-5395
▁appro	-5396
▁Лучше	-5397
▁сексу	-5398
▁exam	-5399
▁принес	-5400
▁iss	-5401
▁prod	-5402
uty	-5403
лее	-5404
жим	-5405
мед	-5406
▁charge	-5407
▁член	-5408
▁любишь	-5409
ently	-5410
▁carry	-5411
▁eight	-5412
▁hero	-5413
▁Чарли	-5414
▁шан	-5415
▁interested	-5416
stairs	-5417
▁стало	-5418
▁Nobody	-5419
▁спу	-5420
▁scene	-5421
ese	-5422
чке	-5423
ches	-5424
страи	-5425
▁peace	-5426
бил	-5427
▁сума	-5428
▁докумен	-5429
▁Should	-5430
▁moved	-5431
фер	-5432
▁вопросы	-5433
ваюсь	-5434
▁forward	-5435
▁мальчик	-5436
ified	-5437
▁partner	-5438
дан	-5439
▁Ги	-5440
▁Ту	-5441
▁другое	-5442
▁интер	-5443
ana	-5444
▁смотре	-5445
▁enem	-5446
▁меди	-5447
▁Ещё	-5448
▁школу	-5449
▁Charlie	-5450
еме	-5451
▁Stay	-5452
▁возду	-5453
▁forgive	-5454
ails	-5455
▁born	-5456
▁Было	-5457
льного	-5458
ement	-5459
▁Й	-5460
▁fill	-5461
▁выйти	-5462
▁cat	-5463
▁научи	-5464
▁lawyer	-5465
hard	-5466
ission	-5467
гли	-5468
▁finish	-5469
▁agree	-5470
▁definitely	-5471
▁suck	-5472
▁подтвер	-5473
▁glass	-5474
▁discuss	-5475
▁сообщение	-5476
▁уво	-5477
▁Jen	-5478
▁позабо	-5479
aim	-5480
▁cust	-5481
ске	-5482
▁свер	-5483
тин	-5484
▁любом	-5485
▁Whoa	-5486
▁хорошая	-5487
эт	-5488
▁tor	-5489
чных	-5490
dden	-5491
▁Alex	-5492
▁сохра	-5493
меня	-5494
▁Max	-5495
▁proud	-5496
▁конца	-5497
▁отказа	-5498
aff	-5499
▁Зем	-5500
▁скажет	-5501
▁ищ	-5502
▁except	-5503
▁прошлом	-5504
▁агент	-5505
зер	-5506
▁13	-5507
erman	-5508
▁rece	-5509
▁лу	-5510
мя	-5511
матри	-5512
▁поняла	-5513
▁sat	-5514
▁костю	-5515
▁pun	-5516
▁Боб	-5517
▁prop	-5518
ogn	-5519
▁Gl	-5520
▁Ray	-5521
▁роди	-5522
▁sudden	-5523
▁купить	-5524
довать	-5525
ентов	-5526
пуск	-5527
▁мар	-5528
▁Позволь	-5529
мон	-5530
▁род	-5531
ступа	-5532
▁ввиду	-5533
gue	-5534
ify	-5535
▁всему	-5536
▁отцом	-5537
▁Мор	-5538
▁пошли	-5539
▁короле	-5540
вни	-5541
нуться	-5542
ears	-5543
хать	-5544
▁Питер	-5545
▁делают	-5546
▁бар	-5547
owers	-5548
▁вещь	-5549
▁Sm	-5550
rect	-5551
беру	-5552
▁Luc	-5553
▁либо	-5554
▁поце	-5555
дьми	-5556
attle	-5557
▁diffic	-5558
▁Вели	-5559
жаю	-5560
или	-5561
▁suc	-5562
▁историю	-5563
▁coun	-5564
▁боюсь	-5565
▁suit	-5566
▁легко	-5567
▁интерес	-5568
йдём	-5569
▁viol	-5570
▁приз	-5571
▁Sometimes	-5572
▁ќ	-5573
▁saved	-5574
▁имеешь	-5575
▁понимаете	-5576
ica	-5577
▁feels	-5578
▁hide	-5579
ев	-5580
bert	-5581
▁пример	-5582
▁position	-5583
▁tar	-5584
▁прибы	-5585
▁подумала	-5586
пасть	-5587
▁space	-5588
▁Дру	-5589
жала	-5590
стов	-5591
теше	-5592
▁Джер	-5593
▁Make	-5594
▁встретиться	-5595
cum	-5596
ham	-5597
цать	-5598
▁последнее	-5599
ibly	-5600
нах	-5601
▁вести	-5602
▁проце	-5603
OR	-5604
une	-5605
ходят	-5606
▁начал	-5607
▁Каждый	-5608
▁увидел	-5609
▁occ	-5610
▁Серь	-5611
▁drunk	-5612
▁Говори	-5613
eral	-5614
▁deli	-5615
▁Будь	-5616
▁вдруг	-5617
▁Ms	-5618
▁gift	-5619
▁train	-5620
▁Какого	-5621
▁полагаю	-5622
▁Remember	-5623
йди	-5624
ager	-5625
▁Help	-5626
▁уров	-5627
▁каким	-5628
iel	-5629
▁принять	-5630
ander	-5631
▁дай	-5632
▁Видишь	-5633
▁сработа	-5634
▁р	-5635
▁pregn	-5636
▁24	-5637
▁slow	-5638
▁никому	-5639
bit	-5640
lish	-5641
que	-5642
▁Ее	-5643
▁agre	-5644
чаю	-5645
▁oh	-5646
▁ident	-5647
дже	-5648
▁force	-5649
▁Ho	-5650
▁телефо	-5651
hood	-5652
▁готова	-5653
▁зу	-5654
▁Par	-5655
▁Алло	-5656
чал	-5657
read	-5658
▁известно	-5659
▁запа	-5660
▁beha	-5661
▁trip	-5662
▁удоволь	-5663
ис	-5664
▁hung	-5665
▁pretend	-5666
пой	-5667
▁Ma	-5668
▁government	-5669
zz	-5670
дка	-5671
лым	-5672
нка	-5673
▁Вин	-5674
▁hotel	-5675
вайте	-5676
▁проти	-5677
▁President	-5678
▁позволить	-5679
тит	-5680
дар	-5681
▁придётся	-5682
▁обу	-5683
ложил	-5684
▁вместо	-5685
EN	-5686
▁провести	-5687
▁потря	-5688
ination	-5689
yle	-5690
▁Два	-5691
▁ребён	-5692
лот	-5693
iday	-5694
валась	-5695
ored	-5696
▁котором	-5697
▁хорош	-5698
▁пас	-5699
▁держи	-5700
▁Больше	-5701
били	-5702
▁Paul	-5703
▁Оно	-5704
▁gen	-5705
▁Three	-5706
ций	-5707
▁draw	-5708
▁roll	-5709
▁ir	-5710
▁Хан	-5711
▁vide	-5712
▁цент	-5713
нами	-5714
▁upset	-5715
▁Joe	-5716
▁неделе	-5717
▁Дело	-5718
тили	-5719
▁внимание	-5720
ium	-5721
▁Хватит	-5722
годи	-5723
▁зло	-5724
▁David	-5725
▁appreciate	-5726
hys	-5727
ires	-5728
▁Agent	-5729
▁стан	-5730
▁слыши	-5731
▁поддер	-5732
▁Think	-5733
бсолютно	-5734
▁потерял	-5735
▁прощения	-5736
▁привы	-5737
▁насчёт	-5738
..."	-5739
▁праз	-5740
▁broken	-5741
▁людьми	-5742
▁держать	-5743
▁своё	-5744
▁ал	-5745
▁Сле	-5746
▁служ	-5747
▁magic	-5748
▁компании	-5749
казала	-5750
▁полови	-5751
дия	-5752
ploy	-5753
▁Cle	-5754
arently	-5755
▁ћ	-5756
▁More	-5757
▁брата	-5758
▁родители	-5759
▁плани	-5760
▁remind	-5761
▁определ	-5762
▁equ	-5763
▁Возь	-5764
щаться	-5765
rod	-5766
пор	-5767
▁сп	-5768
ским	-5769
литься	-5770
▁group	-5771
▁prove	-5772
▁выбор	-5773
▁marriage	-5774
▁direct	-5775
▁осторо	-5776
▁thous	-5777
▁оставил	-5778
▁погиб	-5779
▁класс	-5780
▁извест	-5781
тые	-5782
▁address	-5783
джи	-5784
▁arm	-5785
▁Стив	-5786
▁trick	-5787
сят	-5788
▁второй	-5789
гите	-5790
выми	-5791
▁Стра	-5792
▁зака	-5793
▁chick	-5794
▁Didn	-5795
БР	-5796
чным	-5797
тельная	-5798
▁уходи	-5799
▁миллио	-5800
▁Доброе	-5801
▁исс	-5802
▁area	-5803
▁бом	-5804
▁комнату	-5805
uts	-5806
сер	-5807
▁dam	-5808
▁main	-5809
▁горя	-5810
uel	-5811
▁laugh	-5812
▁амери	-5813
▁Ind	-5814
▁ma	-5815
▁tur	-5816
лё	-5817
▁мира	-5818
▁позвонить	-5819
гло	-5820
жусь	-5821
пила	-5822
▁любви	-5823
▁подго	-5824
▁tired	-5825
статочно	-5826
▁Since	-5827
▁techn	-5828
▁service	-5829
▁Ваши	-5830
▁unless	-5831
▁kidding	-5832
ius	-5833
зить	-5834
▁Fin	-5835
▁звез	-5836
▁bast	-5837
▁hund	-5838
▁прин	-5839
▁неправи	-5840
ровали	-5841
▁Once	-5842
ka	-5843
рна	-5844
▁emb	-5845
▁Поня	-5846
▁бабу	-5847
▁difficult	-5848
рак	-5849
▁join	-5850
▁работал	-5851
com	-5852
▁Дей	-5853
▁seven	-5854
time	-5855
ived	-5856
▁видео	-5857
▁hundred	-5858
▁сделаем	-5859
▁truck	-5860
▁Генри	-5861
▁связи	-5862
▁месяца	-5863
мм	-5864
ring	-5865
▁Майкл	-5866
▁window	-5867
▁цель	-5868
▁cops	-5869
бин	-5870
▁дя	-5871
▁тан	-5872
▁Ke	-5873
жку	-5874
▁забыл	-5875
▁hy	-5876
▁пам	-5877
▁angry	-5878
▁extra	-5879
▁recogn	-5880
ecially	-5881
▁president	-5882
колеп	-5883
▁управля	-5884
erm	-5885
ugg	-5886
ising	-5887
▁simple	-5888
▁convers	-5889
▁emp	-5890
▁Turn	-5891
▁Earth	-5892
▁impress	-5893
▁изу	-5894
▁произ	-5895
▁сумас	-5896
▁problems	-5897
▁таком	-5898
▁college	-5899
ляет	-5900
▁knock	-5901
▁Mary	-5902
▁strange	-5903
▁attention	-5904
▁приня	-5905
icated	-5906
▁случится	-5907
▁doubt	-5908
uri	-5909
▁Shut	-5910
▁напи	-5911
▁wonderful	-5912
aked	-5913
aven	-5914
uke	-5915
▁Lou	-5916
▁Nick	-5917
▁weapon	-5918
▁серьёз	-5919
▁decision	-5920
▁Роб	-5921
itche	-5922
irty	-5923
▁Сна	-5924
▁forgot	-5925
стры	-5926
хвати	-5927
▁Пря	-5928
нев	-5929
▁маленький	-5930
▁рассказал	-5931
чон	-5932
▁James	-5933
▁энер	-5934
ал	-5935
жаться	-5936
▁grab	-5937
▁within	-5938
▁standing	-5939
соеди	-5940
▁умерла	-5941
▁убийца	-5942
лили	-5943
бовать	-5944
кин	-5945
лых	-5946
тах	-5947
▁сигна	-5948
▁парнем	-5949
▁реально	-5950
▁gentlemen	-5951
▁другим	-5952
hmm	-5953
вете	-5954
▁дан	-5955
▁мужа	-5956
аки	-5957
тым	-5958
▁Sar	-5959
нику	-5960
▁является	-5961
▁винова	-5962
▁none	-5963
▁spir	-5964
▁больно	-5965
риан	-5966
▁пусть	-5967
▁сотру	-5968
▁женщин	-5969
▁мистера	-5970
кре	-5971
влен	-5972
uthor	-5973
▁Henry	-5974
▁wake	-5975
▁private	-5976
▁Kn	-5977
ograp	-5978
▁практи	-5979
▁letter	-5980
▁хвата	-5981
▁Неу	-5982
▁пистолет	-5983
het	-5984
▁Min	-5985
▁карти	-5986
▁American	-5987
▁шесть	-5988
▁путеше	-5989
▁невозможно	-5990
▁поезд	-5991
aint	-5992
▁putting	-5993
year	-5994
nal	-5995
лик	-5996
orce	-5997
▁Pre	-5998
▁нер	-5999
▁одним	-6000
койся	-6001
pa	-6002
▁neck	-6003
▁тяжело	-6004
▁heal	-6005
AR	-6006
▁Оли	-6007
▁excuse	-6008
вьте	-6009
▁Бро	-6010
▁газ	-6011
▁моему	-6012
▁Ска	-6013
▁Ваше	-6014
▁работаю	-6015
▁fat	-6016
▁elect	-6017
▁interesting	-6018
тка	-6019
▁machine	-6020
ancy	-6021
▁снима	-6022
▁намного	-6023
▁сни	-6024
вли	-6025
▁взры	-6026
▁partic	-6027
▁Увидимся	-6028
vin	-6029
▁named	-6030
▁распо	-6031
▁посте	-6032
▁ужин	-6033
▁Ric	-6034
лянусь	-6035
бку	-6036
▁honor	-6037
гии	-6038
▁почув	-6039
▁buddy	-6040
▁поб	-6041
▁holding	-6042
читы	-6043
▁мет	-6044
▁выпить	-6045
▁Её	-6046
▁быстрее	-6047
cell	-6048
▁risk	-6049
▁счас	-6050
▁искать	-6051
чел	-6052
▁фе	-6053
▁est	-6054
▁стороне	-6055
▁Здравствуйте	-6056
▁преступления	-6057
йдёт	-6058
▁stuck	-6059
rian	-6060
цени	-6061
▁умереть	-6062
▁охра	-6063
▁fac	-6064
▁тела	-6065
▁careful	-6066
how	-6067
oud	-6068
roll	-6069
▁dying	-6070
▁мол	-6071
▁радо	-6072
▁времен	-6073
▁берем	-6074
▁честно	-6075
lebr	-6076
▁Sim	-6077
цер	-6078
▁Er	-6079
▁разу	-6080
▁предложение	-6081
жале	-6082
▁ФБР	-6083
▁суде	-6084
▁plane	-6085
▁Кроме	-6086
▁назна	-6087
мите	-6088
▁program	-6089
▁Ей	-6090
▁ant	-6091
▁cash	-6092
▁seconds	-6093
▁семью	-6094
▁подумать	-6095
esides	-6096
▁hoping	-6097
▁computer	-6098
чную	-6099
ibility	-6100
рис	-6101
тельные	-6102
▁выглядишь	-6103
▁выстре	-6104
По	-6105
▁boat	-6106
▁Спокой	-6107
▁innoc	-6108
▁Last	-6109
▁никакого	-6110
ording	-6111
▁стары	-6112
▁потре	-6113
▁exist	-6114
▁пят	-6115
▁worst	-6116
ила	-6117
▁starting	-6118
▁surprise	-6119
▁Мам	-6120
verse	-6121
▁access	-6122
▁попробу	-6123
▁figured	-6124
▁drag	-6125
▁Pat	-6126
▁ste	-6127
▁Still	-6128
▁любов	-6129
коль	-6130
раздо	-6131
▁собирался	-6132
▁officer	-6133
▁собирается	-6134
ат	-6135
rib	-6136
▁upon	-6137
ena	-6138
▁выжи	-6139
▁level	-6140
пута	-6141
▁полно	-6142
▁доверя	-6143
▁бол	-6144
gu	-6145
▁low	-6146
uten	-6147
бол	-6148
▁пож	-6149
▁относи	-6150
▁App	-6151
▁TV	-6152
тел	-6153
▁быв	-6154
ждите	-6155
▁Миссис	-6156
▁находится	-6157
▁gold	-6158
▁planet	-6159
lier	-6160
▁target	-6161
▁понадобится	-6162
▁seat	-6163
cent	-6164
▁заб	-6165
▁Shit	-6166
ki	-6167
▁улице	-6168
▁пройти	-6169
щаю	-6170
▁Поли	-6171
▁любой	-6172
гах	-6173
▁walking	-6174
▁fighting	-6175
▁bill	-6176
▁drugs	-6177
▁лекар	-6178
ern	-6179
▁ice	-6180
иться	-6181
ческая	-6182
▁suff	-6183
▁полити	-6184
de	-6185
port	-6186
▁парт	-6187
▁капитан	-6188
otion	-6189
лож	-6190
▁Ай	-6191
▁слома	-6192
шает	-6193
▁сторону	-6194
▁стоя	-6195
▁Welcome	-6196
house	-6197
▁block	-6198
▁требу	-6199
▁Boy	-6200
▁liked	-6201
▁посмотрим	-6202
itor	-6203
▁настро	-6204
лон	-6205
▁отда	-6206
ера	-6207
▁Уол	-6208
▁пожаловать	-6209
▁comfort	-6210
▁Послушайте	-6211
▁Fr	-6212
няет	-6213
▁blue	-6214
▁проверить	-6215
▁likes	-6216
▁удиви	-6217
▁всеми	-6218
enty	-6219
▁силь	-6220
BI	-6221
icide	-6222
▁своем	-6223
▁восста	-6224
▁ото	-6225
▁Ooh	-6226
▁lived	-6227
▁finished	-6228
пуга	-6229
▁Huh	-6230
▁herself	-6231
дец	-6232
▁зад	-6233
▁cred	-6234
▁мечта	-6235
▁sleeping	-6236
гер	-6237
▁Свя	-6238
▁ван	-6239
▁гро	-6240
▁earth	-6241
▁защитить	-6242
▁испол	-6243
kend	-6244
дина	-6245
▁здо	-6246
▁helping	-6247
▁loves	-6248
клады	-6249
noon	-6250
▁Грей	-6251
жден	-6252
0.	-6253
хом	-6254
▁bother	-6255
▁большая	-6256
you	-6257
▁дости	-6258
▁whether	-6259
нюю	-6260
▁чест	-6261
▁правила	-6262
▁Rob	-6263
▁самая	-6264
ул	-6265
▁выбира	-6266
щему	-6267
▁нрав	-6268
▁Благода	-6269
▁Anything	-6270
▁feelings	-6271
лья	-6272
▁consider	-6273
кет	-6274
rench	-6275
▁понятия	-6276
net	-6277
▁недель	-6278
ives	-6279
▁Danny	-6280
▁впечат	-6281
arling	-6282
сл	-6283
телем	-6284
▁wrote	-6285
▁Оу	-6286
▁нашим	-6287
▁семей	-6288
▁Пойдем	-6289
▁пресле	-6290
▁вытащи	-6291
▁Mark	-6292
▁America	-6293
iced	-6294
▁уро	-6295
▁third	-6296
▁Верно	-6297
▁willing	-6298
▁Mag	-6299
▁learned	-6300
oop	-6301
▁Отец	-6302
▁леди	-6303
lin	-6304
mmer	-6305
чное	-6306
▁Кстати	-6307
▁Хочу	-6308
▁celebr	-6309
▁keeping	-6310
стань	-6311
▁sens	-6312
iff	-6313
▁приятно	-6314
▁Try	-6315
▁хотелось	-6316
▁lay	-6317
▁hadn	-6318
ческих	-6319
▁perhaps	-6320
▁pregnant	-6321
▁AN	-6322
▁воды	-6323
▁тысяч	-6324
▁разобра	-6325
▁Слушайте	-6326
▁уб	-6327
таки	-6328
▁ноги	-6329
дки	-6330
▁Дон	-6331
▁твоё	-6332
▁приве	-6333
resh	-6334
обе	-6335
▁руках	-6336
yl	-6337
▁ca	-6338
▁prov	-6339
▁Mother	-6340
▁lovely	-6341
▁голове	-6342
▁спря	-6343
▁Рожде	-6344
ino	-6345
yn	-6346
▁курсе	-6347
hole	-6348
нести	-6349
▁Before	-6350
▁Сер	-6351
▁prec	-6352
▁фут	-6353
urs	-6354
▁Полагаю	-6355
▁тран	-6356
essor	-6357
▁Лон	-6358
▁phys	-6359
▁weekend	-6360
atic	-6361
▁мыс	-6362
ulous	-6363
ющим	-6364
▁мини	-6365
▁cab	-6366
▁lar	-6367
▁certainly	-6368
▁игры	-6369
ened	-6370
▁dig	-6371
uit	-6372
▁соз	-6373
мов	-6374
▁sett	-6375
▁среди	-6376
hen	-6377
▁incl	-6378
пери	-6379
рах	-6380
▁прош	-6381
▁объяснить	-6382
▁Должно	-6383
▁Пе	-6384
▁Russ	-6385
▁семье	-6386
▁Але	-6387
твори	-6388
▁помощи	-6389
▁Red	-6390
▁video	-6391
▁judge	-6392
▁связь	-6393
▁стали	-6394
▁lim	-6395
▁idiot	-6396
▁ladies	-6397
йл	-6398
пли	-6399
▁mir	-6400
▁улы	-6401
▁пытается	-6402
▁сумасшед	-6403
▁crap	-6404
▁соба	-6405
▁Через	-6406
▁пыталась	-6407
▁сц	-6408
▁шут	-6409
▁заставить	-6410
▁piss	-6411
ясь	-6412
▁Carl	-6413
▁Everybody	-6414
ый	-6415
шем	-6416
▁Уи	-6417
itted	-6418
ners	-6419
▁поко	-6420
▁experience	-6421
▁решили	-6422
▁еду	-6423
▁bomb	-6424
▁teacher	-6425
▁упа	-6426
▁прийти	-6427
щим	-6428
▁месяц	-6429
▁choose	-6430
▁afternoon	-6431
▁fur	-6432
▁общем	-6433
няка	-6434
utenant	-6435
por	-6436
вки	-6437
▁Ник	-6438
тельное	-6439
▁бизнес	-6440
▁бывает	-6441
▁driving	-6442
лении	-6443
▁психо	-6444
▁имел	-6445
▁окон	-6446
▁Дэнни	-6447
▁Джордж	-6448
▁глаз	-6449
▁менее	-6450
▁поддержи	-6451
ES	-6452
rey	-6453
▁Тот	-6454
eared	-6455
▁caus	-6456
▁своему	-6457
▁Ok	-6458
▁ан	-6459
▁Ведь	-6460
▁вашим	-6461
▁Фе	-6462
ossible	-6463
▁возьму	-6464
▁какого	-6465
▁роман	-6466
лец	-6467
жает	-6468
▁host	-6469
▁Jane	-6470
всегда	-6471
ими	-6472
▁organ	-6473
тельной	-6474
▁guest	-6475
▁jail	-6476
ED	-6477
лье	-6478
cha	-6479
▁туа	-6480
▁Един	-6481
▁неплохо	-6482
▁отлич	-6483
▁ез	-6484
▁claim	-6485
▁фу	-6486
льшой	-6487
▁often	-6488
▁Co	-6489
▁гораздо	-6490
▁picked	-6491
▁кос	-6492
ulations	-6493
▁особенно	-6494
▁obviously	-6495
▁зас	-6496
▁match	-6497
▁школы	-6498
фу	-6499
▁Pol	-6500
▁мысли	-6501
ственный	-6502
вку	-6503
▁gay	-6504
▁crim	-6505
▁interview	-6506
▁result	-6507
▁прикры	-6508
▁болез	-6509
▁такую	-6510
▁сотрудни	-6511
▁бои	-6512
хода	-6513
▁Гово	-6514
▁секунду	-6515
них	-6516
▁найду	-6517
rer	-6518
▁rules	-6519
▁bunch	-6520
▁Tod	-6521
▁shop	-6522
▁пошел	-6523
ises	-6524
▁чуде	-6525
▁дорогой	-6526
▁promised	-6527
▁вопросов	-6528
▁настоящий	-6529
льд	-6530
llen	-6531
▁солда	-6532
▁necess	-6533
моему	-6534
▁$1	-6535
сный	-6536
▁одном	-6537
▁Расска	-6538
alent	-6539
▁spot	-6540
▁Мэри	-6541
▁bird	-6542
▁обма	-6543
let	-6544
▁поле	-6545
▁feed	-6546
▁Grand	-6547
жей	-6548
▁Daddy	-6549
▁text	-6550
▁pray	-6551
▁conversation	-6552
чер	-6553
▁wood	-6554
▁wondering	-6555
-1	-6556
ien	-6557
анта	-6558
▁guard	-6559
▁друзьями	-6560
▁список	-6561
▁чертов	-6562
▁Big	-6563
▁Тем	-6564
▁хр	-6565
стом	-6566
▁Тай	-6567
▁вниз	-6568
▁сидеть	-6569
чкой	-6570
зывал	-6571
▁супер	-6572
▁Помнишь	-6573
джа	-6574
мент	-6575
▁вет	-6576
▁выпи	-6577
▁преда	-6578
▁заниматься	-6579
osh	-6580
▁Бри	-6581
▁mission	-6582
▁Сначала	-6583
рию	-6584
ances	-6585
▁речь	-6586
▁admit	-6587
▁tough	-6588
ended	-6589
чие	-6590
▁hiding	-6591
▁свидание	-6592
▁seriously	-6593
▁становится	-6594
▁иду	-6595
ppy	-6596
стан	-6597
▁rese	-6598
ерью	-6599
mediate	-6600
баты	-6601
вном	-6602
дной	-6603
▁opport	-6604
▁решила	-6605
эл	-6606
тишь	-6607
▁decide	-6608
▁calm	-6609
▁horse	-6610
bing	-6611
вим	-6612
▁stole	-6613
▁Капитан	-6614
жали	-6615
▁skin	-6616
нему	-6617
▁sle	-6618
▁немед	-6619
▁течение	-6620
gery	-6621
▁finger	-6622
rif	-6623
мены	-6624
itten	-6625
▁favorite	-6626
▁became	-6627
enn	-6628
цами	-6629
▁Завтра	-6630
▁immediate	-6631
▁owe	-6632
сю	-6633
бби	-6634
▁Зо	-6635
даю	-6636
▁нужда	-6637
▁най	-6638
▁золо	-6639
aced	-6640
лую	-6641
тро	-6642
▁Ry	-6643
ilty	-6644
▁Sw	-6645
olly	-6646
▁War	-6647
iment	-6648
▁хорошие	-6649
▁bear	-6650
▁корабль	-6651
wise	-6652
▁FBI	-6653
▁buck	-6654
▁повезло	-6655
te	-6656
▁момента	-6657
za	-6658
▁словно	-6659
▁фильм	-6660
ids	-6661
▁perform	-6662
▁вернулась	-6663
par	-6664
туда	-6665
▁ого	-6666
ваются	-6667
▁пья	-6668
ступи	-6669
▁Чёрт	-6670
▁обязательно	-6671
ls	-6672
▁гряз	-6673
▁каза	-6674
▁опла	-6675
▁заба	-6676
▁memory	-6677
▁подарок	-6678
▁коль	-6679
▁разгово	-6680
▁твоем	-6681
▁Bab	-6682
▁замо	-6683
един	-6684
рами	-6685
▁вон	-6686
▁X	-6687
крет	-6688
▁names	-6689
▁Зак	-6690
ческого	-6691
▁usually	-6692
▁gar	-6693
▁зап	-6694
пустил	-6695
▁wine	-6696
▁Тома	-6697
нике	-6698
мая	-6699
▁allowed	-6700
дии	-6701
мей	-6702
▁арми	-6703
▁дорогу	-6704
▁ушла	-6705
▁Leave	-6706
▁themselves	-6707
чок	-6708
▁бук	-6709
esome	-6710
itary	-6711
▁получится	-6712
night	-6713
▁кино	-6714
arch	-6715
▁Сам	-6716
▁считаю	-6717
▁сомне	-6718
▁staying	-6719
uly	-6720
▁Has	-6721
▁fish	-6722
▁cup	-6723
▁Боль	-6724
помнить	-6725
▁уверены	-6726
▁помощью	-6727
avy	-6728
дная	-6729
▁идиот	-6730
▁showed	-6731
▁neg	-6732
▁mass	-6733
▁подро	-6734
▁ощу	-6735
дитель	-6736
▁подозреваем	-6737
▁Обе	-6738
▁жену	-6739
▁противо	-6740
▁hall	-6741
▁Макс	-6742
▁милый	-6743
▁коми	-6744
▁correct	-6745
тых	-6746
щик	-6747
▁fit	-6748
▁Richard	-6749
▁focus	-6750
▁dude	-6751
amb	-6752
ствую	-6753
▁парней	-6754
▁aut	-6755
▁ублю	-6756
дри	-6757
тура	-6758
▁силы	-6759
▁трав	-6760
дится	-6761
▁pulled	-6762
▁Ted	-6763
iles	-6764
▁глубо	-6765
▁первым	-6766
▁пришёл	-6767
▁bathroom	-6768
▁собы	-6769
▁passed	-6770
▁постро	-6771
fortun	-6772
▁Daniel	-6773
▁Сай	-6774
дро	-6775
▁яй	-6776
▁могло	-6777
▁ресто	-6778
ral	-6779
▁hook	-6780
▁босс	-6781
▁детектив	-6782
▁Cal	-6783
astic	-6784
▁вкус	-6785
нешься	-6786
▁какую	-6787
▁получили	-6788
▁самой	-6789
▁доктора	-6790
▁услышать	-6791
▁вашем	-6792
▁компьют	-6793
rog	-6794
ached	-6795
▁Гла	-6796
▁ways	-6797
ishing	-6798
▁investigation	-6799
.,	-6800
▁сро	-6801
▁делали	-6802
▁Ясно	-6803
▁ката	-6804
вро	-6805
aith	-6806
▁vill	-6807
▁сила	-6808
▁op	-6809
▁tea	-6810
oring	-6811
▁Доро	-6812
▁тюрьме	-6813
вяза	-6814
▁абсолютно	-6815
кать	-6816
▁ошиба	-6817
▁search	-6818
▁earlier	-6819
▁travel	-6820
▁контроли	-6821
▁чт	-6822
▁difference	-6823
лями	-6824
▁Кру	-6825
▁девчон	-6826
▁концов	-6827
▁success	-6828
пь	-6829
▁оставля	-6830
▁нём	-6831
▁Джейн	-6832
тона	-6833
▁books	-6834
▁Гарри	-6835
няя	-6836
▁ourselves	-6837
▁eating	-6838
▁состоянии	-6839
▁Рича	-6840
▁делу	-6841
▁исследова	-6842
▁huge	-6843
саю	-6844
кими	-6845
▁turns	-6846
ountain	-6847
▁делала	-6848
ker	-6849
▁Aw	-6850
ector	-6851
▁locked	-6852
▁deserve	-6853
▁innocent	-6854
ткнись	-6855
▁четвер	-6856
▁американ	-6857
▁информацию	-6858
▁=	-6859
жела	-6860
жный	-6861
▁бак	-6862
▁church	-6863
mb	-6864
overed	-6865
▁assist	-6866
▁медици	-6867
▁absolutely	-6868
▁Cor	-6869
ology	-6870
AS	-6871
вало	-6872
▁весело	-6873
сия	-6874
льник	-6875
рез	-6876
▁ушел	-6877
важно	-6878
▁День	-6879
▁замуж	-6880
▁van	-6881
fet	-6882
▁делаем	-6883
▁medical	-6884
▁изменить	-6885
дись	-6886
роят	-6887
▁jack	-6888
▁будущее	-6889
▁sac	-6890
ческое	-6891
▁cute	-6892
▁присоеди	-6893
rief	-6894
▁Поз	-6895
чества	-6896
▁gas	-6897
▁нож	-6898
▁жесто	-6899
▁cow	-6900
ongrat	-6901
nel	-6902
▁hol	-6903
▁weak	-6904
нят	-6905
юрпри	-6906
▁gives	-6907
▁miles	-6908
▁notice	-6909
▁расста	-6910
▁большое	-6911
IT	-6912
oe	-6913
мый	-6914
▁чувствуешь	-6915
▁лоша	-6916
▁понятно	-6917
▁счастлив	-6918
▁Вз	-6919
▁встречи	-6920
▁вечеринку	-6921
▁den	-6922
▁побы	-6923
▁доба	-6924
▁Прямо	-6925
▁детка	-6926
▁blame	-6927
▁отправля	-6928
лект	-6929
▁избе	-6930
▁рано	-6931
▁surprised	-6932
сах	-6933
▁Уил	-6934
▁joke	-6935
▁небе	-6936
▁нашем	-6937
▁вещей	-6938
▁tele	-6939
▁покон	-6940
▁evil	-6941
▁teach	-6942
▁Lie	-6943
▁девушки	-6944
ственность	-6945
▁немедленно	-6946
▁пы	-6947
wood	-6948
▁Time	-6949
▁голос	-6950
▁bloody	-6951
▁стреля	-6952
▁вез	-6953
▁shoes	-6954
править	-6955
▁завер	-6956
▁встречу	-6957
▁выяснить	-6958
▁Какие	-6959
▁murdered	-6960
ниться	-6961
▁Ребята	-6962
▁ас	-6963
▁этими	-6964
▁великолеп	-6965
▁Ev	-6966
▁сожал	-6967
lt	-6968
чий	-6969
▁file	-6970
пись	-6971
▁реш	-6972
хран	-6973
▁Park	-6974
▁мужик	-6975
▁каждого	-6976
▁0	-6977
▁French	-6978
▁секс	-6979
▁стоило	-6980
▁впервые	-6981
▁band	-6982
▁остро	-6983
▁design	-6984
▁вечно	-6985
▁bastard	-6986
OM	-6987
▁добро	-6988
NA	-6989
чена	-6990
▁Всегда	-6991
▁гости	-6992
▁полицию	-6993
▁beginning	-6994
▁fired	-6995
▁helped	-6996
▁process	-6997
po	-6998
aly	-6999
inary	-7000
▁звучит	-7001
▁девушку	-7002
▁Добро	-7003
hop	-7004
▁obs	-7005
▁type	-7006
▁agent	-7007
▁волнуйся	-7008
мое	-7009
▁Стой	-7010
▁common	-7011
▁професси	-7012
дают	-7013
▁съе	-7014
▁письмо	-7015
▁придет	-7016
пен	-7017
▁геро	-7018
▁camera	-7019
▁bigger	-7020
▁pleasure	-7021
sec	-7022
▁называется	-7023
сье	-7024
▁drinking	-7025
нулась	-7026
▁Chief	-7027
sha	-7028
uro	-7029
▁сожале	-7030
You	-7031
навли	-7032
▁repl	-7033
▁rich	-7034
▁буты	-7035
▁сможете	-7036
▁employ	-7037
▁further	-7038
▁разговор	-7039
▁заи	-7040
полне	-7041
▁Chan	-7042
еру	-7043
▁plans	-7044
шинство	-7045
▁покупа	-7046
ask	-7047
▁sake	-7048
icle	-7049
▁".	-7050
▁Брай	-7051
▁gotten	-7052
▁верить	-7053
▁подальше	-7054
▁остальные	-7055
бом	-7056
рачи	-7057
velop	-7058
▁polit	-7059
▁новую	-7060
▁dump	-7061
▁слышали	-7062
▁beer	-7063
▁orig	-7064
▁оттуда	-7065
itchen	-7066
чим	-7067
▁ide	-7068
▁минутку	-7069
▁сделает	-7070
▁WH	-7071
▁hom	-7072
▁emer	-7073
▁Челове	-7074
▁Back	-7075
▁Amy	-7076
▁guilty	-7077
▁попасть	-7078
▁навсегда	-7079
лд	-7080
▁удалось	-7081
▁author	-7082
▁возвра	-7083
▁годы	-7084
▁искус	-7085
борато	-7086
▁любил	-7087
гих	-7088
▁Love	-7089
▁боро	-7090
▁stran	-7091
ints	-7092
▁pictures	-7093
▁planning	-7094
▁получила	-7095
con	-7096
▁jour	-7097
▁listening	-7098
▁поса	-7099
енти	-7100
жные	-7101
▁crack	-7102
рика	-7103
▁услови	-7104
▁summer	-7105
▁apart	-7106
▁кух	-7107
light	-7108
писать	-7109
▁слышать	-7110
achel	-7111
▁повре	-7112
ex	-7113
НК	-7114
▁IT	-7115
▁code	-7116
▁Можете	-7117
▁ya	-7118
▁кол	-7119
▁первой	-7120
▁смогла	-7121
fast	-7122
▁cre	-7123
▁yell	-7124
биться	-7125
▁Этого	-7126
пан	-7127
▁imm	-7128
▁попробовать	-7129
host	-7130
▁доверять	-7131
asy	-7132
▁утвер	-7133
▁Matt	-7134
▁жизнью	-7135
▁позволи	-7136
▁очевидно	-7137
▁близко	-7138
▁Элли	-7139
▁reach	-7140
▁impossible	-7141
▁Bel	-7142
▁шлю	-7143
гия	-7144
грать	-7145
ставля	-7146
▁дире	-7147
▁ключ	-7148
▁напа	-7149
▁паро	-7150
▁потра	-7151
▁mid	-7152
▁женщину	-7153
тру	-7154
▁бля	-7155
▁push	-7156
▁карь	-7157
▁другую	-7158
▁Somebody	-7159
▁касается	-7160
▁Сара	-7161
▁хозя	-7162
▁страш	-7163
▁выбора	-7164
▁quickly	-7165
rick	-7166
▁пожи	-7167
▁анали	-7168
▁секунд	-7169
▁lied	-7170
▁созна	-7171
▁defend	-7172
ule	-7173
anda	-7174
льную	-7175
ca	-7176
вре	-7177
riff	-7178
▁tour	-7179
▁Джули	-7180
▁ока	-7181
▁неуда	-7182
▁думали	-7183
iew	-7184
ствовал	-7185
▁несчаст	-7186
▁записи	-7187
ergy	-7188
▁surgery	-7189
▁влюб	-7190
▁обещаю	-7191
ену	-7192
жнее	-7193
ooper	-7194
везти	-7195
▁blind	-7196
▁доступ	-7197
ёд	-7198
нём	-7199
▁пойдем	-7200
▁tree	-7201
gress	-7202
▁неправильно	-7203
щай	-7204
▁hi	-7205
▁мертв	-7206
▁качестве	-7207
▁ап	-7208
▁десять	-7209
нге	-7210
▁neighbor	-7211
▁responsible	-7212
▁сты	-7213
енный	-7214
▁hungry	-7215
▁дали	-7216
▁отнош	-7217
▁недавно	-7218
▁женой	-7219
▁hole	-7220
▁контра	-7221
▁knowing	-7222
▁бой	-7223
▁vac	-7224
▁тюрьму	-7225
▁хочется	-7226
ляр	-7227
▁Ant	-7228
▁планет	-7229
▁положи	-7230
кова	-7231
▁Всем	-7232
▁Gener	-7233
▁президен	-7234
▁полиция	-7235
разу	-7236
▁дни	-7237
▁fort	-7238
ata	-7239
▁60	-7240
▁Sarah	-7241
▁price	-7242
▁Next	-7243
awn	-7244
▁Ap	-7245
▁заставля	-7246
тур	-7247
▁Hon	-7248
▁пти	-7249
мента	-7250
чник	-7251
▁final	-7252
▁волосы	-7253
▁исклю	-7254
▁Наш	-7255
▁Фрэнк	-7256
гги	-7257
дёт	-7258
▁base	-7259
▁круто	-7260
▁tight	-7261
▁пошла	-7262
▁German	-7263
▁Неко	-7264
▁seemed	-7265
▁22	-7266
▁помогу	-7267
▁opportunity	-7268
ффе	-7269
▁Open	-7270
▁Прави	-7271
▁начали	-7272
heart	-7273
▁shar	-7274
▁двери	-7275
▁черта	-7276
кки	-7277
▁Аг	-7278
енты	-7279
▁дочери	-7280
▁Лей	-7281
▁купил	-7282
▁Уверен	-7283
▁смешно	-7284
▁hun	-7285
▁Жи	-7286
▁egg	-7287
▁dirty	-7288
езно	-7289
▁бор	-7290
▁нашёл	-7291
▁detective	-7292
▁сожалению	-7293
▁chair	-7294
▁смысл	-7295
бот	-7296
▁Уда	-7297
▁Тер	-7298
хая	-7299
OW	-7300
▁sea	-7301
▁отдел	-7302
чарова	-7303
5.	-7304
▁нового	-7305
▁чёрт	-7306
▁задницу	-7307
▁pus	-7308
▁офис	-7309
▁помога	-7310
gency	-7311
▁броса	-7312
канчи	-7313
▁tells	-7314
oned	-7315
▁walked	-7316
▁following	-7317
▁Vict	-7318
ллер	-7319
▁trial	-7320
▁пригото	-7321
▁records	-7322
▁приехал	-7323
дко	-7324
▁Honey	-7325
cy	-7326
бло	-7327
▁эмо	-7328
aire	-7329
▁master	-7330
▁получилось	-7331
▁Lady	-7332
▁poison	-7333
▁считает	-7334
aret	-7335
▁напомина	-7336
рят	-7337
▁Ин	-7338
▁пры	-7339
arrass	-7340
▁миллионов	-7341
рай	-7342
жной	-7343
▁mate	-7344
▁Согла	-7345
▁попросил	-7346
вших	-7347
▁дала	-7348
▁Move	-7349
▁scr	-7350
antic	-7351
▁writing	-7352
сей	-7353
▁medic	-7354
▁reading	-7355
▁fresh	-7356
▁смогли	-7357
▁Неужели	-7358
▁времена	-7359
▁команда	-7360
▁познакомиться	-7361
▁Adam	-7362
▁crew	-7363
▁войны	-7364
VE	-7365
▁Кор	-7366
▁осу	-7367
▁credit	-7368
▁Хи	-7369
нтер	-7370
yal	-7371
ivil	-7372
well	-7373
▁aware	-7374
нам	-7375
pose	-7376
▁прибли	-7377
andy	-7378
▁чувствовать	-7379
еми	-7380
▁smo	-7381
▁army	-7382
▁измен	-7383
▁letting	-7384
▁!	-7385
▁21	-7386
▁ехать	-7387
▁перес	-7388
▁spirit	-7389
▁нечего	-7390
▁обоих	-7391
крой	-7392
▁spoke	-7393
▁Del	-7394
▁Que	-7395
▁warm	-7396
▁нечто	-7397
шеб	-7398
empt	-7399
▁Окей	-7400
though	-7401
▁новые	-7402
▁Хотите	-7403
▁Спокойной	-7404
▁суб	-7405
ответ	-7406
▁восто	-7407
▁flight	-7408
▁Однажды	-7409
▁Sl	-7410
▁ho	-7411
▁advice	-7412
аме	-7413
вей	-7414
▁bare	-7415
▁cast	-7416
▁bullet	-7417
▁Слишком	-7418
▁существует	-7419
ply	-7420
▁Бога	-7421
▁Ча	-7422
тельным	-7423
ero	-7424
▁Мер	-7425
▁project	-7426
▁request	-7427
стря	-7428
▁Моло	-7429
▁empty	-7430
▁losing	-7431
▁руково	-7432
▁поро	-7433
▁enemy	-7434
▁живет	-7435
▁платье	-7436
▁поговорим	-7437
OT	-7438
лях	-7439
▁Lond	-7440
▁каком	-7441
ille	-7442
▁Сло	-7443
▁view	-7444
▁распро	-7445
▁kitchen	-7446
▁film	-7447
▁Боюсь	-7448
▁присут	-7449
▁неприят	-7450
кви	-7451
▁Кас	-7452
▁мусо	-7453
▁взяли	-7454
дди	-7455
▁Wor	-7456
▁English	-7457
▁Кл	-7458
▁посо	-7459
▁теря	-7460
вления	-7461
пно	-7462
тали	-7463
▁услу	-7464
▁quar	-7465
▁ненавижу	-7466
▁embarrass	-7467
тии	-7468
reme	-7469
▁минуты	-7470
▁esp	-7471
▁Thom	-7472
▁посе	-7473
ствием	-7474
дку	-7475
rupt	-7476
▁Inter	-7477
▁Продол	-7478
там	-7479
эль	-7480
шему	-7481
▁лучшее	-7482
▁вероятно	-7483
▁лаборато	-7484
▁маленькая	-7485
▁pal	-7486
▁danc	-7487
▁Никаких	-7488
▁enc	-7489
▁договори	-7490
▁случайно	-7491
▁amb	-7492
▁пап	-7493
▁City	-7494
▁duty	-7495
▁Harry	-7496
▁каких	-7497
▁мамой	-7498
▁Нем	-7499
▁introd	-7500
▁застре	-7501
▁ходить	-7502
▁ребёнка	-7503
▁Обы	-7504
▁думают	-7505
xic	-7506
▁department	-7507
▁Ша	-7508
ждую	-7509
мини	-7510
▁неиз	-7511
▁чудо	-7512
▁оставаться	-7513
▁Eric	-7514
▁Step	-7515
▁Little	-7516
▁continue	-7517
▁свидания	-7518
▁Most	-7519
▁restaur	-7520
кур	-7521
reet	-7522
▁freak	-7523
▁places	-7524
лят	-7525
▁Хе	-7526
▁avo	-7527
▁лица	-7528
▁одол	-7529
аку	-7530
cher	-7531
мена	-7532
▁бле	-7533
▁sand	-7534
ботать	-7535
▁бри	-7536
▁крова	-7537
▁note	-7538
▁Эмили	-7539
▁twice	-7540
▁автобу	-7541
off	-7542
прос	-7543
▁фун	-7544
▁жены	-7545
▁неви	-7546
▁прокля	-7547
▁показания	-7548
shit	-7549
▁built	-7550
▁хватает	-7551
▁local	-7552
▁escape	-7553
▁гражда	-7554
жо	-7555
▁inj	-7556
▁ДНК	-7557
▁коло	-7558
atural	-7559
▁захочешь	-7560
▁bene	-7561
▁sour	-7562
▁Unless	-7563
▁послушай	-7564
два	-7565
iety	-7566
▁намер	-7567
▁realized	-7568
odies	-7569
▁карто	-7570
▁apologize	-7571
чены	-7572
▁Фло	-7573
▁взор	-7574
▁вечера	-7575
▁единственная	-7576
▁коли	-7577
▁contract	-7578
▁Серьезно	-7579
▁Phil	-7580
▁старый	-7581
▁Ух	-7582
▁ban	-7583
▁West	-7584
▁напря	-7585
▁career	-7586
▁очередь	-7587
▁Watch	-7588
▁acting	-7589
▁ран	-7590
▁пози	-7591
менить	-7592
▁успоко	-7593
▁понравится	-7594
iling	-7595
▁узнает	-7596
ET	-7597
▁Jimmy	-7598
▁speaking	-7599
▁pressure	-7600
itz	-7601
цио	-7602
▁Ty	-7603
лого	-7604
▁rent	-7605
▁bringing	-7606
▁Over	-7607
ference	-7608
вол	-7609
▁double	-7610
rant	-7611
▁наста	-7612
▁Want	-7613
▁quit	-7614
▁battle	-7615
▁узнала	-7616
nes	-7617
▁Happ	-7618
▁жертвы	-7619
oman	-7620
рать	-7621
▁Out	-7622
▁Кен	-7623
▁London	-7624
ted	-7625
вка	-7626
▁ur	-7627
▁горо	-7628
▁Алекс	-7629
ased	-7630
mail	-7631
▁played	-7632
▁Скажите	-7633
стон	-7634
▁Чер	-7635
▁прове	-7636
▁Lieutenant	-7637
▁Дайте	-7638
рам	-7639
▁хорошее	-7640
"!	-7641
▁раскры	-7642
▁мужчины	-7643
ervous	-7644
▁whose	-7645
▁energy	-7646
▁Гер	-7647
▁keeps	-7648
▁hearing	-7649
ette	-7650
семь	-7651
▁маме	-7652
ongratulations	-7653
▁радио	-7654
▁closed	-7655
творя	-7656
▁Guys	-7657
▁arms	-7658
▁вперед	-7659
▁suddenly	-7660
лог	-7661
▁дел	-7662
▁раза	-7663
▁prefer	-7664
▁доказать	-7665
▁Mo	-7666
▁фер	-7667
▁General	-7668
▁родителей	-7669
скор	-7670
▁Время	-7671
▁dropped	-7672
▁Зву	-7673
▁безум	-7674
▁terror	-7675
▁звонил	-7676
▁waste	-7677
col	-7678
▁прие	-7679
▁проя	-7680
▁свете	-7681
▁поехать	-7682
▁прися	-7683
▁звонок	-7684
дю	-7685
▁Ху	-7686
жено	-7687
▁Лор	-7688
▁делай	-7689
ведливо	-7690
▁Джеймс	-7691
▁устраи	-7692
▁дога	-7693
▁itself	-7694
gers	-7695
▁Sant	-7696
▁held	-7697
▁мёрт	-7698
▁dreams	-7699
▁Погоди	-7700
▁подожди	-7701
▁Ого	-7702
▁faith	-7703
▁immediately	-7704
▁fed	-7705
▁Будет	-7706
▁свидетель	-7707
▁descri	-7708
▁собираемся	-7709
sing	-7710
тила	-7711
vious	-7712
нской	-7713
▁живу	-7714
▁bottle	-7715
▁Son	-7716
▁вза	-7717
▁guns	-7718
▁друж	-7719
▁Попро	-7720
▁видите	-7721
▁убивать	-7722
▁предлага	-7723
rel	-7724
тенант	-7725
▁Джимми	-7726
зит	-7727
шнего	-7728
gin	-7729
льз	-7730
▁Джона	-7731
▁финан	-7732
▁Нельзя	-7733
▁Cr	-7734
lect	-7735
stit	-7736
▁aud	-7737
▁просил	-7738
шими	-7739
▁ign	-7740
▁House	-7741
▁похож	-7742
▁похоро	-7743
▁сексуаль	-7744
▁Ow	-7745
▁vir	-7746
рядок	-7747
▁забыть	-7748
▁develop	-7749
ipe	-7750
имся	-7751
чусь	-7752
▁Пора	-7753
▁clearly	-7754
▁Полу	-7755
▁taste	-7756
▁commun	-7757
▁заняться	-7758
▁Mmm	-7759
▁сне	-7760
▁дороги	-7761
▁эй	-7762
▁захва	-7763
▁пользу	-7764
val	-7765
нишь	-7766
▁позволь	-7767
мыш	-7768
▁High	-7769
▁удар	-7770
▁проку	-7771
▁corner	-7772
▁останется	-7773
▁rom	-7774
▁dare	-7775
▁photo	-7776
▁участ	-7777
▁сексом	-7778
▁Расскажи	-7779
▁шпи	-7780
рому	-7781
▁Carol	-7782
▁Какое	-7783
▁полез	-7784
▁рассказала	-7785
aded	-7786
ceed	-7787
▁выше	-7788
▁мысль	-7789
ссии	-7790
ealous	-7791
бан	-7792
▁boo	-7793
▁und	-7794
▁harm	-7795
жат	-7796
▁Doesn	-7797
50	-7798
▁serv	-7799
▁делом	-7800
ису	-7801
тится	-7802
▁Check	-7803
▁повед	-7804
▁scream	-7805
back	-7806
▁insp	-7807
▁физи	-7808
▁уезжа	-7809
рат	-7810
▁Were	-7811
▁стану	-7812
жных	-7813
▁dating	-7814
▁spl	-7815
▁Sounds	-7816
▁incred	-7817
▁Probably	-7818
льшое	-7819
▁расскажу	-7820
▁сделаешь	-7821
▁выну	-7822
▁деть	-7823
▁becom	-7824
esty	-7825
▁Сью	-7826
▁Ryan	-7827
▁Кейт	-7828
▁повы	-7829
ставить	-7830
▁следова	-7831
редо	-7832
▁позвоню	-7833
моби	-7834
▁Ком	-7835
долго	-7836
▁особо	-7837
▁nervous	-7838
ox	-7839
лено	-7840
▁orders	-7841
▁полага	-7842
▁пр	-7843
▁рот	-7844
▁магазин	-7845
▁опу	-7846
rag	-7847
▁ще	-7848
▁spo	-7849
▁breakfast	-7850
ндже	-7851
▁чере	-7852
▁green	-7853
▁island	-7854
▁господин	-7855
dom	-7856
▁эм	-7857
▁Bill	-7858
▁simply	-7859
▁checked	-7860
▁попросить	-7861
▁bow	-7862
▁major	-7863
▁насла	-7864
▁profession	-7865
тий	-7866
льном	-7867
ых	-7868
сами	-7869
ences	-7870
▁бере	-7871
▁подождать	-7872
▁направ	-7873
▁shooting	-7874
ному	-7875
шите	-7876
▁pan	-7877
▁инстру	-7878
▁никуда	-7879
▁Гу	-7880
▁срав	-7881
версит	-7882
▁малыш	-7883
▁condition	-7884
sed	-7885
▁пить	-7886
кому	-7887
▁Sit	-7888
iculous	-7889
▁darling	-7890
▁адвокат	-7891
тик	-7892
▁Jud	-7893
▁odd	-7894
▁найдем	-7895
▁due	-7896
like	-7897
чается	-7898
цеп	-7899
ees	-7900
вос	-7901
нья	-7902
▁godd	-7903
ato	-7904
ёнок	-7905
▁Black	-7906
▁детьми	-7907
▁сюрпри	-7908
▁вышел	-7909
▁капита	-7910
симо	-7911
стрет	-7912
▁Jeff	-7913
▁fant	-7914
▁closer	-7915
▁race	-7916
▁генера	-7917
orney	-7918
▁Show	-7919
▁kidna	-7920
▁charac	-7921
▁wound	-7922
▁сопро	-7923
▁элект	-7924
▁Besides	-7925
▁finding	-7926
дения	-7927
▁necessary	-7928
bb	-7929
▁Мари	-7930
▁bottom	-7931
▁Скоро	-7932
vis	-7933
▁Rick	-7934
▁книгу	-7935
▁позвонил	-7936
▁pants	-7937
▁слышу	-7938
▁открыть	-7939
день	-7940
▁vol	-7941
▁above	-7942
▁speed	-7943
влечь	-7944
▁поднима	-7945
▁possibly	-7946
▁Ши	-7947
рори	-7948
▁трени	-7949
▁€.	-7950
▁noticed	-7951
▁мамы	-7952
▁заметил	-7953
▁hanging	-7954
▁беремен	-7955
▁фран	-7956
▁react	-7957
▁sever	-7958
▁написал	-7959
▁nine	-7960
▁Paris	-7961
▁взяла	-7962
▁твоему	-7963
▁больницу	-7964
weet	-7965
тный	-7966
▁Stan	-7967
▁некото	-7968
▁upstairs	-7969
ades	-7970
▁Dar	-7971
▁Too	-7972
▁cous	-7973
▁regret	-7974
вл	-7975
чо	-7976
шит	-7977
щает	-7978
▁стой	-7979
▁воспомина	-7980
▁девочки	-7981
▁коп	-7982
▁слушай	-7983
zen	-7984
пати	-7985
▁Ell	-7986
▁agreed	-7987
▁многое	-7988
▁Сла	-7989
▁fake	-7990
▁идёт	-7991
▁маму	-7992
▁Добрый	-7993
рка	-7994
▁separ	-7995
▁sight	-7996
▁ok	-7997
▁radio	-7998
▁попал	-7999
▁постара	-8000
▁Lau	-8001
▁desk	-8002
▁Scott	-8003
▁крас	-8004
▁слов	-8005
▁целый	-8006
af	-8007
▁fem	-8008
делить	-8009
▁intell	-8010
▁больнице	-8011
мин	-8012
▁Gar	-8013
▁hurry	-8014
▁DNA	-8015
вании	-8016
▁Возьми	-8017
geant	-8018
▁easier	-8019
▁поиска	-8020
ko	-8021
тль	-8022
idden	-8023
▁appear	-8024
▁command	-8025
olen	-8026
▁Until	-8027
▁восполь	-8028
▁некоторы	-8029
lock	-8030
▁мэм	-8031
▁taught	-8032
▁головы	-8033
▁captain	-8034
asc	-8035
▁raise	-8036
essed	-8037
▁nose	-8038
▁посы	-8039
▁weapons	-8040
рито	-8041
▁жало	-8042
▁pig	-8043
▁Интере	-8044
▁Wal	-8045
▁команды	-8046
▁вернется	-8047
▁thousand	-8048
▁новое	-8049
▁пообе	-8050
▁забира	-8051
▁продолжать	-8052
джер	-8053
▁Bre	-8054
▁прогу	-8055
▁вполне	-8056
▁gang	-8057
▁Ken	-8058
▁шка	-8059
▁crying	-8060
▁awesome	-8061
▁слушать	-8062
▁Jan	-8063
▁напад	-8064
▁неболь	-8065
onel	-8066
▁воен	-8067
▁civil	-8068
▁Ob	-8069
▁Kat	-8070
▁Mum	-8071
▁шаг	-8072
▁relax	-8073
▁Except	-8074
▁господа	-8075
▁Ради	-8076
▁нравятся	-8077
▁Эл	-8078
жант	-8079
▁Tra	-8080
гарет	-8081
▁custom	-8082
▁matters	-8083
▁Dep	-8084
▁wild	-8085
▁White	-8086
▁everywhere	-8087
мар	-8088
дное	-8089
▁bodies	-8090
▁arrived	-8091
дник	-8092
▁оправ	-8093
▁фотографии	-8094
olf	-8095
▁cock	-8096
▁pock	-8097
▁никакой	-8098
▁дерев	-8099
▁жертва	-8100
▁Seriously	-8101
▁наверняка	-8102
дного	-8103
ческую	-8104
▁Ман	-8105
▁onto	-8106
▁Кэро	-8107
imate	-8108
ходил	-8109
▁legs	-8110
▁knife	-8111
▁купи	-8112
▁отправ	-8113
▁¶	-8114
▁Yep	-8115
▁Five	-8116
жна	-8117
▁худ	-8118
▁Поверь	-8119
ленной	-8120
sen	-8121
incess	-8122
▁study	-8123
▁бас	-8124
urse	-8125
arden	-8126
▁част	-8127
▁includ	-8128
льких	-8129
▁perm	-8130
▁студ	-8131
▁выйдет	-8132
▁возьм	-8133
▁мнение	-8134
▁numbers	-8135
▁например	-8136
▁Лили	-8137
▁занят	-8138
▁military	-8139
думы	-8140
сило	-8141
▁управ	-8142
▁neither	-8143
▁Фо	-8144
▁00.	-8145
▁thr	-8146
▁воск	-8147
▁plant	-8148
ental	-8149
▁rout	-8150
ект	-8151
▁запо	-8152
▁спосо	-8153
▁лей	-8154
▁тео	-8155
iring	-8156
держать	-8157
arm	-8158
▁Мон	-8159
▁fund	-8160
▁activ	-8161
ads	-8162
ждает	-8163
▁билет	-8164
▁страшно	-8165
няли	-8166
▁адрес	-8167
iers	-8168
▁stab	-8169
▁champ	-8170
▁самых	-8171
вок	-8172
field	-8173
▁whoa	-8174
▁Чувак	-8175
▁ль	-8176
▁пото	-8177
▁разби	-8178
▁Wil	-8179
▁Emily	-8180
▁врач	-8181
▁необы	-8182
▁обеспе	-8183
ями	-8184
▁влия	-8185
▁among	-8186
▁victims	-8187
▁пя	-8188
▁Jake	-8189
▁Подума	-8190
▁стране	-8191
▁500	-8192
▁Aren	-8193
▁Jess	-8194
▁появля	-8195
низу	-8196
inion	-8197
▁узнали	-8198
yond	-8199
ваешься	-8200
▁команду	-8201
ped	-8202
▁интересу	-8203
▁eh	-8204
кции	-8205
▁OF	-8206
ieve	-8207
порт	-8208
▁черто	-8209
▁purpose	-8210
usion	-8211
▁самоу	-8212
▁nature	-8213
▁сил	-8214
▁разум	-8215
▁прочита	-8216
жены	-8217
мати	-8218
▁тон	-8219
iation	-8220
▁голова	-8221
▁Fred	-8222
▁разобраться	-8223
рки	-8224
ledge	-8225
▁uncle	-8226
▁arrested	-8227
▁таб	-8228
▁restaurant	-8229
▁профессиона	-8230
▁AND	-8231
▁beyond	-8232
fuck	-8233
▁сос	-8234
▁soft	-8235
▁Today	-8236
вайтесь	-8237
▁кстати	-8238
▁loss	-8239
▁рассла	-8240
▁Тре	-8241
▁испыта	-8242
▁excited	-8243
▁существо	-8244
min	-8245
писы	-8246
1.	-8247
тти	-8248
▁Подождите	-8249
эро	-8250
▁Run	-8251
▁Kill	-8252
▁кана	-8253
▁убийстве	-8254
плы	-8255
▁Prof	-8256
▁забер	-8257
▁paying	-8258
сите	-8259
▁ног	-8260
▁Иису	-8261
▁отка	-8262
▁докто	-8263
ША	-8264
▁круп	-8265
▁fol	-8266
▁pet	-8267
▁bell	-8268
▁дороге	-8269
▁criminal	-8270
▁particular	-8271
▁hello	-8272
▁закончится	-8273
US	-8274
люс	-8275
▁Рад	-8276
▁Uncle	-8277
▁bleed	-8278
▁отсле	-8279
▁Гре	-8280
▁daddy	-8281
▁market	-8282
▁привлека	-8283
den	-8284
▁Nor	-8285
▁betray	-8286
▁мужчин	-8287
▁говорим	-8288
▁William	-8289
▁concerned	-8290
▁сре	-8291
itude	-8292
▁значи	-8293
▁новая	-8294
▁еди	-8295
▁tape	-8296
бб	-8297
ина	-8298
Йорк	-8299
▁женщиной	-8300
▁закончить	-8301
ses	-8302
жил	-8303
aine	-8304
▁Dou	-8305
▁длин	-8306
2.	-8307
EA	-8308
▁волнова	-8309
▁smoke	-8310
▁прият	-8311
▁забыла	-8312
▁somehow	-8313
▁хорошим	-8314
▁psyc	-8315
▁Angel	-8316
ux	-8317
▁Sus	-8318
▁tax	-8319
▁ended	-8320
▁breath	-8321
fortunately	-8322
▁sam	-8323
▁печа	-8324
сажи	-8325
▁Nat	-8326
ajesty	-8327
▁прино	-8328
▁stories	-8329
▁опасности	-8330
▁23	-8331
▁Сюда	-8332
жество	-8333
▁никак	-8334
▁stolen	-8335
▁subject	-8336
▁la	-8337
руют	-8338
▁аль	-8339
▁merc	-8340
гон	-8341
рел	-8342
енности	-8343
▁забудь	-8344
▁emotion	-8345
▁вспомни	-8346
▁research	-8347
рё	-8348
▁Сте	-8349
▁shock	-8350
▁jealous	-8351
▁подходя	-8352
▁ѕо	-8353
▁rub	-8354
▁Under	-8355
▁Парень	-8356
▁слышишь	-8357
дные	-8358
▁Other	-8359
▁Немного	-8360
▁practice	-8361
енси	-8362
стая	-8363
ipped	-8364
otten	-8365
venge	-8366
жнему	-8367
▁сердца	-8368
▁especially	-8369
▁Ol	-8370
шель	-8371
▁whoever	-8372
▁грузови	-8373
lyn	-8374
▁Шар	-8375
▁планы	-8376
енность	-8377
▁action	-8378
ita	-8379
vered	-8380
▁мета	-8381
▁роль	-8382
▁shows	-8383
▁цели	-8384
isa	-8385
▁tran	-8386
▁Пари	-8387
▁survive	-8388
гай	-8389
ounce	-8390
▁земле	-8391
▁Дэвид	-8392
▁Например	-8393
▁Ham	-8394
▁myster	-8395
▁object	-8396
ель	-8397
▁чисто	-8398
bel	-8399
ground	-8400
▁assume	-8401
▁убедиться	-8402
фри	-8403
▁Тони	-8404
▁осозна	-8405
ading	-8406
▁powerful	-8407
рица	-8408
▁юри	-8409
▁джен	-8410
▁квартиру	-8411
▁президент	-8412
▁Day	-8413
▁Ros	-8414
енько	-8415
▁пришло	-8416
book	-8417
elly	-8418
няться	-8419
▁уто	-8420
▁slept	-8421
▁emergency	-8422
▁двигаться	-8423
▁tow	-8424
▁пого	-8425
ential	-8426
▁вампи	-8427
▁покажу	-8428
▁снаружи	-8429
ram	-8430
▁pu	-8431
▁dumb	-8432
▁внимания	-8433
▁shirt	-8434
omm	-8435
нтересо	-8436
▁Ричард	-8437
gie	-8438
▁суда	-8439
▁убью	-8440
▁invited	-8441
▁heaven	-8442
▁подруга	-8443
▁Жен	-8444
▁каби	-8445
▁сильнее	-8446
▁публи	-8447
тельных	-8448
▁каждую	-8449
▁благодаря	-8450
дании	-8451
▁port	-8452
▁незна	-8453
▁written	-8454
▁Заткнись	-8455
▁США	-8456
▁repres	-8457
AY	-8458
теле	-8459
▁Dude	-8460
▁деду	-8461
▁следующей	-8462
no	-8463
▁streng	-8464
▁Понятно	-8465
пот	-8466
▁Хей	-8467
ality	-8468
▁авари	-8469
▁бросил	-8470
▁Некоторые	-8471
icy	-8472
▁образ	-8473
▁разбира	-8474
▁ridiculous	-8475
шили	-8476
мах	-8477
ford	-8478
inct	-8479
ston	-8480
шний	-8481
▁диа	-8482
▁автомоби	-8483
▁замечательно	-8484
▁Four	-8485
▁firm	-8486
▁Happy	-8487
▁встречаться	-8488
▁Пап	-8489
▁обраща	-8490
▁asleep	-8491
йт	-8492
▁Guess	-8493
▁Queen	-8494
▁Прези	-8495
▁музыка	-8496
▁книги	-8497
▁damage	-8498
▁клиент	-8499
▁several	-8500
дём	-8501
шал	-8502
▁разговаривать	-8503
льф	-8504
▁cand	-8505
▁твори	-8506
▁compet	-8507
▁возможности	-8508
под	-8509
▁Али	-8510
▁destroyed	-8511
▁Сы	-8512
ровала	-8513
▁Victor	-8514
▁любить	-8515
▁обед	-8516
емон	-8517
▁path	-8518
▁awful	-8519
▁Звучит	-8520
кор	-8521
энди	-8522
▁lies	-8523
таться	-8524
▁прием	-8525
пустите	-8526
▁Another	-8527
▁Bu	-8528
▁Ис	-8529
▁считаешь	-8530
▁Гри	-8531
▁chief	-8532
пустили	-8533
▁Gab	-8534
роваться	-8535
пов	-8536
▁mum	-8537
asons	-8538
▁vamp	-8539
▁танце	-8540
▁Полиция	-8541
зан	-8542
▁hig	-8543
▁девя	-8544
зм	-8545
▁..	-8546
▁отпечат	-8547
▁соответ	-8548
▁иск	-8549
▁Твои	-8550
▁красо	-8551
▁saving	-8552
▁мер	-8553
▁остался	-8554
▁Очевидно	-8555
▁Гра	-8556
▁recently	-8557
рук	-8558
aker	-8559
▁увидишь	-8560
Не	-8561
▁чь	-8562
▁leaves	-8563
▁ищу	-8564
▁Find	-8565
▁exec	-8566
▁likely	-8567
▁Int	-8568
▁sen	-8569
▁ghost	-8570
▁восхи	-8571
▁driver	-8572
▁заканчи	-8573
▁послуша	-8574
▁направля	-8575
хие	-8576
чили	-8577
▁keys	-8578
▁Сэ	-8579
atest	-8580
▁отвер	-8581
▁Martin	-8582
зон	-8583
▁изна	-8584
▁побо	-8585
▁Ор	-8586
▁эффе	-8587
▁smile	-8588
▁футбо	-8589
дование	-8590
▁dollars	-8591
▁prepared	-8592
▁IN	-8593
▁Дэй	-8594
▁starts	-8595
▁Exactly	-8596
ору	-8597
▁поу	-8598
▁обвиня	-8599
ID	-8600
▁кров	-8601
iction	-8602
рев	-8603
▁реа	-8604
▁stage	-8605
▁ребят	-8606
▁Понимаешь	-8607
вный	-8608
▁Emm	-8609
▁Фор	-8610
▁многие	-8611
▁мен	-8612
▁mix	-8613
▁teeth	-8614
▁журна	-8615
▁cal	-8616
судар	-8617
▁horrible	-8618
▁Mal	-8619
дцать	-8620
▁любят	-8621
▁откро	-8622
▁снять	-8623
жище	-8624
летки	-8625
▁rule	-8626
▁серьёзно	-8627
▁ј	-8628
дке	-8629
▁Tw	-8630
rate	-8631
▁бесс	-8632
▁отдать	-8633
▁Mil	-8634
▁sched	-8635
▁рекла	-8636
▁Джесси	-8637
▁Acc	-8638
▁cars	-8639
▁Rachel	-8640
▁произво	-8641
▁обсудить	-8642
цам	-8643
▁$2	-8644
▁ата	-8645
father	-8646
GH	-8647
vey	-8648
eech	-8649
▁Bea	-8650
▁animal	-8651
▁позволю	-8652
IC	-8653
▁ver	-8654
▁truly	-8655
▁увидела	-8656
hew	-8657
▁Уэ	-8658
▁отды	-8659
▁expen	-8660
▁покое	-8661
▁присла	-8662
▁получается	-8663
▁pers	-8664
▁борь	-8665
▁attract	-8666
▁использовал	-8667
hold	-8668
▁Bring	-8669
▁Grace	-8670
▁уехать	-8671
▁Cra	-8672
▁Must	-8673
▁избавиться	-8674
кал	-8675
▁Попробу	-8676
▁прокуро	-8677
▁скажите	-8678
▁мон	-8679
нность	-8680
▁large	-8681
▁operation	-8682
▁Посмотрите	-8683
erk	-8684
лома	-8685
праши	-8686
▁Всего	-8687
▁lately	-8688
лина	-8689
▁Gra	-8690
▁Tim	-8691
▁ответить	-8692
чти	-8693
ременно	-8694
▁Street	-8695
▁Hall	-8696
▁телеви	-8697
▁террори	-8698
сишь	-8699
ending	-8700
▁убила	-8701
эк	-8702
шись	-8703
▁dick	-8704
▁45	-8705
▁изо	-8706
▁pool	-8707
▁ждет	-8708
▁обез	-8709
▁Много	-8710
▁afford	-8711
▁пь	-8712
▁сон	-8713
▁Наши	-8714
▁turning	-8715
▁отра	-8716
▁провед	-8717
▁большие	-8718
бет	-8719
цент	-8720
рение	-8721
▁народ	-8722
▁первого	-8723
▁believed	-8724
▁похожи	-8725
▁followed	-8726
▁недостаточно	-8727
▁Star	-8728
▁заво	-8729
▁пиро	-8730
▁ничто	-8731
зоваться	-8732
▁connection	-8733
orts	-8734
▁Сол	-8735
▁bust	-8736
▁HE	-8737
▁сынок	-8738
бно	-8739
▁fle	-8740
▁Бей	-8741
▁attempt	-8742
ссор	-8743
▁мозг	-8744
▁Суд	-8745
▁лес	-8746
▁воду	-8747
▁землю	-8748
▁помог	-8749
▁риско	-8750
ilar	-8751
кров	-8752
щина	-8753
▁Следу	-8754
▁вышла	-8755
▁effect	-8756
никами	-8757
▁heads	-8758
▁justice	-8759
▁приходится	-8760
▁плевать	-8761
▁документы	-8762
оз	-8763
▁Kim	-8764
board	-8765
bec	-8766
▁current	-8767
▁secrets	-8768
rem	-8769
▁ау	-8770
▁dry	-8771
▁вку	-8772
▁goddamn	-8773
▁персона	-8774
ъя	-8775
▁Mac	-8776
▁Фин	-8777
▁Offic	-8778
form	-8779
строй	-8780
▁Honor	-8781
▁клянусь	-8782
▁mountain	-8783
▁Bur	-8784
▁ближе	-8785
▁ошибку	-8786
▁частью	-8787
▁log	-8788
▁older	-8789
▁Затем	-8790
▁appoint	-8791
▁хорошего	-8792
angu	-8793
▁fan	-8794
▁отцу	-8795
▁столк	-8796
фици	-8797
▁None	-8798
▁плохой	-8799
▁компьютер	-8800
▁доказательства	-8801
rit	-8802
читься	-8803
▁оставила	-8804
▁передать	-8805
▁подходит	-8806
▁предложить	-8807
▁Bra	-8808
ванием	-8809
▁контак	-8810
номи	-8811
шила	-8812
▁Mur	-8813
▁винов	-8814
▁вышло	-8815
▁самые	-8816
▁Джерри	-8817
зай	-8818
▁обвинения	-8819
rank	-8820
▁пусты	-8821
▁смотрю	-8822
▁chicken	-8823
▁уничтожить	-8824
рий	-8825
▁трех	-8826
▁angel	-8827
▁костюм	-8828
▁Sy	-8829
reen	-8830
▁пойм	-8831
▁реаль	-8832
▁therap	-8833
ходим	-8834
▁идут	-8835
▁туалет	-8836
пле	-8837
▁psych	-8838
▁Помогите	-8839
▁рук	-8840
дняя	-8841
жением	-8842
▁посколь	-8843
▁Talk	-8844
▁sexual	-8845
▁student	-8846
▁universe	-8847
▁последни	-8848
эрри	-8849
▁Bro	-8850
▁написано	-8851
▁Jon	-8852
валось	-8853
▁While	-8854
▁beach	-8855
▁новой	-8856
▁brothers	-8857
▁принимать	-8858
плю	-8859
▁Наша	-8860
ration	-8861
тое	-8862
▁WE	-8863
вана	-8864
меется	-8865
▁shame	-8866
▁Скорее	-8867
▁butt	-8868
нологи	-8869
▁упомина	-8870
▁потеряла	-8871
▁liter	-8872
▁постра	-8873
▁волнует	-8874
ends	-8875
face	-8876
▁работ	-8877
▁Господин	-8878
▁Mel	-8879
▁силу	-8880
гам	-8881
▁threw	-8882
▁бизне	-8883
▁самым	-8884
▁волшеб	-8885
▁душе	-8886
▁факт	-8887
▁англи	-8888
▁cousin	-8889
▁веришь	-8890
▁Steve	-8891
▁правы	-8892
▁спросил	-8893
▁операции	-8894
верх	-8895
orter	-8896
▁всём	-8897
▁взрос	-8898
▁meaning	-8899
▁проверя	-8900
▁сожалею	-8901
▁потеряли	-8902
▁Hel	-8903
▁кош	-8904
▁deser	-8905
▁issue	-8906
▁сделку	-8907
▁страны	-8908
▁comfortable	-8909
рур	-8910
▁копи	-8911
▁plenty	-8912
▁strength	-8913
mond	-8914
▁rain	-8915
▁принести	-8916
▁ситуации	-8917
▁Тру	-8918
почка	-8919
редото	-8920
▁Tommy	-8921
▁spell	-8922
бов	-8923
▁выпуск	-8924
▁имеете	-8925
▁получше	-8926
▁примерно	-8927
▁телефону	-8928
althy	-8929
▁Thomas	-8930
▁engine	-8931
▁беспла	-8932
ano	-8933
сан	-8934
▁добраться	-8935
▁comb	-8936
▁lord	-8937
cellent	-8938
▁перезво	-8939
ген	-8940
▁greatest	-8941
isc	-8942
chan	-8943
▁barely	-8944
▁счастлива	-8945
▁подвер	-8946
▁позволя	-8947
▁потрясаю	-8948
▁пытались	-8949
▁Ѕ	-8950
▁Dam	-8951
ницей	-8952
▁Thing	-8953
▁instr	-8954
▁Тор	-8955
▁млад	-8956
▁разво	-8957
▁девушкой	-8958
мети	-8959
▁весьма	-8960
▁достать	-8961
сна	-8962
▁Прекрати	-8963
▁жду	-8964
дравляю	-8965
▁Professor	-8966
▁stat	-8967
▁разы	-8968
▁получишь	-8969
стях	-8970
▁wast	-8971
▁recognize	-8972
▁THAT	-8973
▁grown	-8974
▁притворя	-8975
▁Син	-8976
stood	-8977
▁заболе	-8978
▁San	-8979
▁Дете	-8980
▁первая	-8981
▁Хорошая	-8982
▁собиралась	-8983
лс	-8984
▁opinion	-8985
▁большую	-8986
▁террито	-8987
▁увидимся	-8988
LE	-8989
жным	-8990
ender	-8991
▁коле	-8992
▁amount	-8993
▁баксов	-8994
▁Lind	-8995
▁офисе	-8996
▁застря	-8997
▁поняли	-8998
▁training	-8999
▁Apparently	-9000
▁вну	-9001
▁особен	-9002
vol	-9003
нера	-9004
вшего	-9005
▁Энди	-9006
▁забрал	-9007
▁францу	-9008
vere	-9009
▁settle	-9010
▁80	-9011
▁suicide	-9012
▁Позвольте	-9013
▁умо	-9014
asion	-9015
▁Chris	-9016
▁помогает	-9017
▁photograp	-9018
▁определенно	-9019
kin	-9020
▁часы	-9021
▁учиты	-9022
▁social	-9023
▁выходит	-9024
▁ju	-9025
довал	-9026
▁умру	-9027
▁challen	-9028
ued	-9029
мит	-9030
▁Pret	-9031
▁aband	-9032
▁balls	-9033
▁спаса	-9034
▁deliver	-9035
ань	-9036
дор	-9037
сыпа	-9038
▁дро	-9039
▁Holy	-9040
▁ребёнок	-9041
izing	-9042
▁ends	-9043
▁пери	-9044
▁наказа	-9045
▁sending	-9046
▁матерью	-9047
бур	-9048
тал	-9049
▁failed	-9050
▁natural	-9051
now	-9052
▁BE	-9053
вной	-9054
▁рем	-9055
▁swim	-9056
▁Марк	-9057
▁отде	-9058
▁молоды	-9059
▁charges	-9060
▁имена	-9061
▁Ад	-9062
▁Эдди	-9063
дитесь	-9064
▁выбро	-9065
▁огонь	-9066
▁перево	-9067
▁Ron	-9068
▁Луи	-9069
ites	-9070
▁Rep	-9071
▁Гор	-9072
тельств	-9073
▁университ	-9074
вишь	-9075
клад	-9076
пыты	-9077
itions	-9078
urious	-9079
▁Джефф	-9080
▁внизу	-9081
▁двоих	-9082
▁monster	-9083
▁исправить	-9084
ari	-9085
▁crow	-9086
▁аэро	-9087
▁ситуация	-9088
ashed	-9089
▁cases	-9090
▁character	-9091
do	-9092
▁Hal	-9093
▁Lee	-9094
▁non	-9095
ivers	-9096
▁vote	-9097
▁голу	-9098
▁понравилось	-9099
▁плем	-9100
тую	-9101
▁веща	-9102
▁попу	-9103
▁кольцо	-9104
▁Смотрите	-9105
▁Andy	-9106
▁manage	-9107
▁weight	-9108
▁asshole	-9109
▁breaking	-9110
лк	-9111
жида	-9112
▁Cent	-9113
▁Марти	-9114
▁пожар	-9115
▁память	-9116
▁Jerry	-9117
▁science	-9118
▁выходные	-9119
ету	-9120
лайн	-9121
▁cream	-9122
▁Вчера	-9123
▁members	-9124
▁Josh	-9125
лип	-9126
▁bi	-9127
▁Cat	-9128
▁пля	-9129
▁Ге	-9130
▁компания	-9131
▁вре	-9132
icate	-9133
зации	-9134
▁cards	-9135
▁внутрь	-9136
▁village	-9137
▁complicated	-9138
sive	-9139
вест	-9140
▁засе	-9141
▁моём	-9142
▁biggest	-9143
▁dressed	-9144
чила	-9145
▁Mer	-9146
▁chem	-9147
▁первое	-9148
▁convinc	-9149
▁информация	-9150
▁av	-9151
▁эт	-9152
ится	-9153
ствуют	-9154
▁games	-9155
▁ideas	-9156
▁Дженни	-9157
▁одежду	-9158
acle	-9159
▁Вон	-9160
▁cake	-9161
▁Идем	-9162
▁бросить	-9163
нё	-9164
iver	-9165
▁Посмотрим	-9166
▁location	-9167
iliar	-9168
▁одному	-9169
▁такими	-9170
вис	-9171
▁пору	-9172
▁forced	-9173
▁рассказыва	-9174
▁cos	-9175
▁психи	-9176
ваны	-9177
сюду	-9178
▁abs	-9179
▁led	-9180
▁meat	-9181
▁Coll	-9182
прежнему	-9183
3.	-9184
Ко	-9185
тку	-9186
elle	-9187
▁Gir	-9188
▁theory	-9189
▁contain	-9190
▁bullshit	-9191
▁ребенком	-9192
▁Lo	-9193
лился	-9194
▁идем	-9195
риться	-9196
ulation	-9197
▁побери	-9198
ишь	-9199
▁Brian	-9200
▁freed	-9201
▁serve	-9202
▁попыт	-9203
▁Человек	-9204
fit	-9205
веща	-9206
ёмся	-9207
▁Фред	-9208
▁chest	-9209
▁спокойно	-9210
lan	-9211
чали	-9212
▁farm	-9213
▁Адам	-9214
▁моро	-9215
▁Trust	-9216
▁health	-9217
for	-9218
▁втор	-9219
▁proof	-9220
▁papers	-9221
▁помогать	-9222
ago	-9223
ste	-9224
▁жил	-9225
▁Кларк	-9226
▁Ladies	-9227
▁Majesty	-9228
▁взглянуть	-9229
▁повторя	-9230
▁disappeared	-9231
▁Tony	-9232
▁Гото	-9233
▁проигра	-9234
▁perfectly	-9235
▁пах	-9236
ressed	-9237
▁staff	-9238
▁Томми	-9239
UT	-9240
boy	-9241
▁Sil	-9242
ctors	-9243
▁roof	-9244
▁разви	-9245
▁поблагода	-9246
arl	-9247
▁Фа	-9248
▁украл	-9249
▁восемь	-9250
▁согласен	-9251
▁заинтересо	-9252
ingers	-9253
стретимся	-9254
вард	-9255
льям	-9256
▁сосед	-9257
▁Always	-9258
▁scient	-9259
▁towards	-9260
▁Сем	-9261
▁устрой	-9262
тельного	-9263
▁приходит	-9264
▁shower	-9265
зой	-9266
▁Уж	-9267
ples	-9268
▁рай	-9269
▁Cast	-9270
▁реак	-9271
▁свали	-9272
▁transfer	-9273
сим	-9274
fety	-9275
▁Win	-9276
▁Brit	-9277
▁легче	-9278
▁circum	-9279
▁работаешь	-9280
▁hired	-9281
▁Better	-9282
▁Осторо	-9283
▁другими	-9284
▁работала	-9285
▁Насколько	-9286
7.	-9287
▁запас	-9288
▁приво	-9289
▁Robert	-9290
▁Однако	-9291
▁поменя	-9292
▁появился	-9293
▁поскольку	-9294
▁copy	-9295
▁карма	-9296
▁Master	-9297
▁идеаль	-9298
▁многих	-9299
▁Shall	-9300
▁группы	-9301
▁знакомы	-9302
▁оказался	-9303
asure	-9304
▁Билли	-9305
▁писать	-9306
▁moon	-9307
▁цело	-9308
▁оскор	-9309
▁пойдет	-9310
▁painting	-9311
▁90	-9312
▁Jap	-9313
▁member	-9314
▁details	-9315
▁преврати	-9316
▁vers	-9317
▁конф	-9318
▁простите	-9319
▁отправить	-9320
лам	-9321
▁Att	-9322
стями	-9323
▁Long	-9324
▁обстоя	-9325
▁остальных	-9326
▁Эр	-9327
erer	-9328
▁проте	-9329
рети	-9330
▁page	-9331
▁discovered	-9332
▁Хэ	-9333
▁North	-9334
▁South	-9335
▁данные	-9336
rilliant	-9337
▁принадлежит	-9338
ils	-9339
трин	-9340
▁почи	-9341
▁sword	-9342
▁spread	-9343
▁федера	-9344
▁читать	-9345
▁настоящее	-9346
▁собираетесь	-9347
тоя	-9348
down	-9349
▁Without	-9350
▁Sch	-9351
▁чай	-9352
▁любила	-9353
▁rum	-9354
▁signal	-9355
▁родствен	-9356
sey	-9357
under	-9358
йдешь	-9359
▁детекти	-9360
▁Интересно	-9361
▁дядя	-9362
▁Sweet	-9363
▁внеза	-9364
▁famous	-9365
▁Видите	-9366
▁препо	-9367
atherine	-9368
▁гал	-9369
гляды	-9370
ентом	-9371
▁queen	-9372
▁river	-9373
ization	-9374
▁official	-9375
▁устроить	-9376
▁бь	-9377
▁Sund	-9378
▁лест	-9379
▁legal	-9380
▁Friday	-9381
▁проник	-9382
hand	-9383
▁Anna	-9384
▁другая	-9385
▁extreme	-9386
▁кло	-9387
▁рука	-9388
▁behav	-9389
▁insane	-9390
▁испорти	-9391
▁рода	-9392
вшие	-9393
мана	-9394
▁Вся	-9395
▁вов	-9396
▁accom	-9397
▁caused	-9398
▁извиня	-9399
▁вернулись	-9400
▁disappoint	-9401
жете	-9402
▁Roy	-9403
▁size	-9404
▁тихо	-9405
▁опреде	-9406
▁Энд	-9407
ension	-9408
▁assum	-9409
▁столь	-9410
▁animals	-9411
▁смотрел	-9412
чё	-9413
▁души	-9414
▁intellig	-9415
▁stom	-9416
▁отдох	-9417
▁которому	-9418
▁предполага	-9419
бка	-9420
▁Ал	-9421
▁opened	-9422
▁invent	-9423
▁nearly	-9424
▁задума	-9425
▁disappear	-9426
▁выглядеть	-9427
▁Вме	-9428
ators	-9429
йдите	-9430
парта	-9431
▁арен	-9432
▁кори	-9433
▁мимо	-9434
▁изобра	-9435
нете	-9436
▁шеф	-9437
▁зага	-9438
▁Hanna	-9439
▁отчет	-9440
▁stayed	-9441
▁решить	-9442
▁священ	-9443
▁dealing	-9444
▁подписа	-9445
▁Оп	-9446
▁lic	-9447
▁Покажи	-9448
itty	-9449
▁sky	-9450
▁Hang	-9451
▁ключи	-9452
▁created	-9453
▁Йо	-9454
▁lap	-9455
stant	-9456
▁мадам	-9457
нин	-9458
▁алкого	-9459
гнуть	-9460
▁flat	-9461
▁Franc	-9462
▁уходить	-9463
▁net	-9464
▁вдох	-9465
▁выда	-9466
▁двер	-9467
urance	-9468
▁переб	-9469
гас	-9470
▁био	-9471
▁milk	-9472
▁tort	-9473
лектри	-9474
▁attorney	-9475
▁mentioned	-9476
гию	-9477
ропи	-9478
aring	-9479
▁Бл	-9480
▁lift	-9481
▁color	-9482
▁награ	-9483
▁buried	-9484
▁responsibility	-9485
ейс	-9486
▁краса	-9487
▁проду	-9488
▁останавли	-9489
▁чертовски	-9490
▁Кристи	-9491
РУ	-9492
ips	-9493
aper	-9494
▁files	-9495
▁Выгля	-9496
▁ошибка	-9497
iest	-9498
днее	-9499
лант	-9500
▁Rog	-9501
▁раст	-9502
настоя	-9503
▁signed	-9504
▁превра	-9505
шина	-9506
▁Отве	-9507
fl	-9508
дным	-9509
▁cig	-9510
▁Kate	-9511
▁Mill	-9512
▁отсут	-9513
▁flying	-9514
▁reasons	-9515
▁решения	-9516
▁resc	-9517
▁клуб	-9518
▁руба	-9519
aturday	-9520
▁Charles	-9521
▁платить	-9522
▁заплатить	-9523
▁справиться	-9524
cious	-9525
▁окно	-9526
▁thoughts	-9527
▁фир	-9528
▁dogs	-9529
▁Анна	-9530
▁Their	-9531
▁пересе	-9532
чении	-9533
▁Lily	-9534
▁кучу	-9535
▁langu	-9536
▁трубку	-9537
тельность	-9538
ann	-9539
▁Бет	-9540
▁transp	-9541
▁attacked	-9542
▁patients	-9543
▁selling	-9544
▁Congratulations	-9545
ффи	-9546
▁total	-9547
▁flowers	-9548
▁расследование	-9549
▁cancer	-9550
▁подгото	-9551
▁ито	-9552
▁Обычно	-9553
▁государ	-9554
кса	-9555
▁Хм	-9556
вите	-9557
менты	-9558
▁боли	-9559
▁песню	-9560
▁опозда	-9561
▁divorce	-9562
▁showing	-9563
▁разница	-9564
стую	-9565
4.	-9566
▁Гей	-9567
переди	-9568
▁based	-9569
▁Claire	-9570
▁photos	-9571
▁talent	-9572
▁маленькой	-9573
▁мн	-9574
▁Jew	-9575
дился	-9576
law	-9577
▁Агент	-9578
▁штука	-9579
▁commit	-9580
▁funeral	-9581
8.	-9582
тился	-9583
▁grad	-9584
▁акти	-9585
▁бю	-9586
thur	-9587
▁bug	-9588
order	-9589
mother	-9590
▁кажды	-9591
▁фанта	-9592
▁Сов	-9593
слуши	-9594
▁зайти	-9595
▁напар	-9596
▁Hurry	-9597
▁heavy	-9598
▁света	-9599
▁записа	-9600
▁смотря	-9601
▁property	-9602
▁heat	-9603
▁bright	-9604
▁ticket	-9605
▁глазах	-9606
▁причин	-9607
▁риск	-9608
▁demon	-9609
▁вашему	-9610
▁nowhere	-9611
gly	-9612
▁deb	-9613
▁covered	-9614
▁300	-9615
▁Leon	-9616
▁Billy	-9617
▁войти	-9618
▁участи	-9619
▁release	-9620
▁Previously	-9621
▁mail	-9622
▁связан	-9623
▁answers	-9624
9.	-9625
▁й	-9626
▁pieces	-9627
cil	-9628
вью	-9629
▁hack	-9630
▁красивая	-9631
шет	-9632
голо	-9633
вшись	-9634
▁sees	-9635
▁Chuck	-9636
▁mater	-9637
▁главный	-9638
oms	-9639
гка	-9640
фон	-9641
печа	-9642
▁смеш	-9643
▁язык	-9644
▁Бобби	-9645
▁Sunday	-9646
▁получит	-9647
▁community	-9648
▁небольшой	-9649
эйн	-9650
блем	-9651
▁Лар	-9652
▁clim	-9653
▁следы	-9654
▁create	-9655
▁determ	-9656
▁fucked	-9657
▁.	-9658
▁ME	-9659
What	-9660
вето	-9661
usting	-9662
▁группа	-9663
▁испыты	-9664
▁романти	-9665
▁Yo	-9666
▁map	-9667
▁блин	-9668
▁brief	-9669
▁увижу	-9670
▁desper	-9671
▁причины	-9672
▁приехали	-9673
▁работают	-9674
▁Дам	-9675
▁сли	-9676
▁взгляд	-9677
кта	-9678
дами	-9679
нос	-9680
▁Сим	-9681
зывали	-9682
▁finds	-9683
ственная	-9684
▁мальчика	-9685
▁represent	-9686
▁statement	-9687
тс	-9688
▁Аа	-9689
лера	-9690
▁Лос	-9691
▁chat	-9692
▁illeg	-9693
▁разде	-9694
▁Esp	-9695
▁фон	-9696
▁кончено	-9697
▁Sergeant	-9698
▁центре	-9699
▁помните	-9700
omed	-9701
циали	-9702
▁запре	-9703
▁United	-9704
▁fuckin	-9705
▁предпочита	-9706
▁единственное	-9707
6.	-9708
IA	-9709
бые	-9710
нку	-9711
▁speech	-9712
▁способен	-9713
▁специально	-9714
муще	-9715
▁блядь	-9716
▁поступа	-9717
▁Пла	-9718
▁темно	-9719
▁новость	-9720
▁информации	-9721
▁€,	-9722
▁Sho	-9723
▁Hope	-9724
▁двумя	-9725
▁borrow	-9726
▁офицер	-9727
▁expected	-9728
дая	-9729
зии	-9730
▁Шо	-9731
вился	-9732
▁Успо	-9733
▁лета	-9734
▁крово	-9735
▁квартире	-9736
вная	-9737
▁Дет	-9738
▁tiny	-9739
нности	-9740
resp	-9741
▁infl	-9742
▁ours	-9743
▁джентль	-9744
ствии	-9745
▁спор	-9746
▁дурац	-9747
▁hardly	-9748
▁запись	-9749
▁оружия	-9750
▁manager	-9751
▁жал	-9752
▁familiar	-9753
стоит	-9754
▁cree	-9755
ложение	-9756
▁Up	-9757
ilies	-9758
▁одни	-9759
нулись	-9760
▁docum	-9761
▁model	-9762
▁Работа	-9763
▁молодой	-9764
▁заставил	-9765
bl	-9766
▁Вау	-9767
▁стоять	-9768
▁удовольствием	-9769
ланд	-9770
▁Kevin	-9771
▁мертва	-9772
▁слегка	-9773
▁сохранить	-9774
▁низ	-9775
▁Буду	-9776
▁вино	-9777
▁знак	-9778
▁прото	-9779
▁случиться	-9780
бки	-9781
▁Stand	-9782
▁насле	-9783
▁brings	-9784
▁safety	-9785
▁Приятно	-9786
▁кабинет	-9787
▁креп	-9788
▁трево	-9789
▁Police	-9790
▁deg	-9791
▁Walk	-9792
▁пяти	-9793
▁stars	-9794
▁apparently	-9795
▁практически	-9796
рим	-9797
▁wis	-9798
▁Лео	-9799
▁добры	-9800
▁Пра	-9801
▁bucks	-9802
▁Вашинг	-9803
aren	-9804
▁справля	-9805
▁отказыва	-9806
настоящему	-9807
▁Винс	-9808
▁Кого	-9809
▁идио	-9810
icious	-9811
▁ordered	-9812
▁пытаешься	-9813
мочка	-9814
▁выго	-9815
▁убира	-9816
aves	-9817
ening	-9818
itter	-9819
▁гром	-9820
▁беспокой	-9821
▁казалось	-9822
▁Особ	-9823
▁avoid	-9824
▁буква	-9825
▁моими	-9826
▁разра	-9827
▁виноват	-9828
жена	-9829
▁Chi	-9830
▁разные	-9831
▁original	-9832
▁Absolutely	-9833
вец	-9834
мым	-9835
рус	-9836
ковь	-9837
▁stock	-9838
уз	-9839
▁Ёто	-9840
istic	-9841
▁глупы	-9842
▁спустя	-9843
▁bedroom	-9844
▁results	-9845
▁Saturday	-9846
вным	-9847
▁Nic	-9848
▁unc	-9849
▁днем	-9850
говорю	-9851
▁прошла	-9852
▁000	-9853
▁Reg	-9854
▁безуми	-9855
▁Morning	-9856
▁написать	-9857
▁кле	-9858
umber	-9859
▁едва	-9860
▁идеи	-9861
▁lights	-9862
▁ближай	-9863
▁выбраться	-9864
▁IS	-9865
▁site	-9866
▁сообщить	-9867
▁According	-9868
ия	-9869
▁Сти	-9870
▁Also	-9871
▁Bobby	-9872
▁chose	-9873
ilities	-9874
▁здание	-9875
▁пожела	-9876
▁главное	-9877
mon	-9878
▁Japan	-9879
▁состояние	-9880
▁sweetheart	-9881
ьте	-9882
▁opt	-9883
▁уте	-9884
▁воскрес	-9885
▁Рождество	-9886
комен	-9887
▁thro	-9888
▁непро	-9889
▁такси	-9890
▁cult	-9891
▁внутрен	-9892
жная	-9893
▁Van	-9894
▁Ким	-9895
▁брак	-9896
▁rough	-9897
▁треть	-9898
▁affair	-9899
▁полный	-9900
▁команде	-9901
▁фур	-9902
▁кусо	-9903
чением	-9904
▁storm	-9905
▁Англи	-9906
▁спаль	-9907
дие	-9908
▁HA	-9909
▁pill	-9910
ashion	-9911
▁Count	-9912
▁Walter	-9913
inese	-9914
▁видно	-9915
▁микро	-9916
▁сестры	-9917
▁Although	-9918
▁посмотрите	-9919
▁neighborhood	-9920
▁Муж	-9921
▁умр	-9922
▁repe	-9923
▁explos	-9924
▁Пойдём	-9925
▁example	-9926
erg	-9927
ucky	-9928
▁Edd	-9929
▁займ	-9930
▁комната	-9931
esh	-9932
▁ON	-9933
ющая	-9934
▁бит	-9935
▁дает	-9936
▁naked	-9937
▁memories	-9938
ada	-9939
▁яйца	-9940
▁Major	-9941
▁первую	-9942
hod	-9943
▁Hol	-9944
▁ино	-9945
▁дока	-9946
▁отклю	-9947
ами	-9948
▁Emma	-9949
▁source	-9950
▁Clear	-9951
▁наверху	-9952
▁несмотря	-9953
йоне	-9954
▁Крис	-9955
▁ждал	-9956
▁planned	-9957
мить	-9958
▁Jac	-9959
▁Эрик	-9960
▁delic	-9961
▁fellow	-9962
▁sna	-9963
порта	-9964
▁Rose	-9965
▁Алек	-9966
▁Вперед	-9967
▁letters	-9968
▁самолет	-9969
зви	-9970
▁cart	-9971
▁lots	-9972
▁знамени	-9973
▁distract	-9974
Да	-9975
hetic	-9976
вёл	-9977
vert	-9978
▁mic	-9979
▁сцена	-9980
▁назвал	-9981
▁received	-9982
lor	-9983
▁tun	-9984
▁Жаль	-9985
▁Mexic	-9986
▁offered	-9987
▁обсужда	-9988
▁Был	-9989
▁Нор	-9990
▁dise	-9991
▁уровень	-9992
ссия	-9993
▁oil	-9994
▁ими	-9995
полни	-9996
▁отдал	-9997
▁выбрал	-9998
▁началь	-9999
▁falling	-10000
▁Такое	-10001
▁pocket	-10002
▁кредит	-10003
▁захочет	-10004
▁отврати	-10005
▁сюрприз	-10006
▁закончили	-10007
oph	-10008
делать	-10009
▁folks	-10010
▁сделай	-10011
▁совпад	-10012
▁Детектив	-10013
▁которыми	-10014
▁Благодарю	-10015
ril	-10016
▁ны	-10017
вное	-10018
▁Jam	-10019
▁Ван	-10020
▁лаг	-10021
▁capt	-10022
▁link	-10023
сколько	-10024
▁Дорогая	-10025
▁Tomorrow	-10026
▁вечеринка	-10027
▁Энни	-10028
▁обещал	-10029
▁Officer	-10030
▁сходить	-10031
нке	-10032
клон	-10033
ненно	-10034
▁номера	-10035
▁смысла	-10036
▁привести	-10037
чко	-10038
жник	-10039
▁Des	-10040
▁Вто	-10041
▁dies	-10042
▁протя	-10043
▁идеально	-10044
▁следовало	-10045
бок	-10046
жны	-10047
зды	-10048
ulate	-10049
кономи	-10050
▁States	-10051
▁opening	-10052
▁организо	-10053
бл	-10054
дию	-10055
ческим	-10056
▁потерять	-10057
зен	-10058
▁199	-10059
▁бое	-10060
▁вовремя	-10061
▁невероятно	-10062
▁опыт	-10063
inn	-10064
▁Med	-10065
тельную	-10066
▁прекрасный	-10067
▁91	-10068
▁лову	-10069
▁Annie	-10070
▁Louis	-10071
▁слабо	-10072
▁Кэтрин	-10073
▁чувствовал	-10074
▁неприятности	-10075
мос	-10076
обо	-10077
iley	-10078
▁mood	-10079
▁exact	-10080
▁Удачи	-10081
▁закончил	-10082
▁человеку	-10083
▁Ос	-10084
скому	-10085
▁Rome	-10086
нитесь	-10087
▁новых	-10088
▁тысячи	-10089
▁останов	-10090
▁посмотре	-10091
вов	-10092
▁Cam	-10093
▁привез	-10094
icted	-10095
▁Софи	-10096
▁ложь	-10097
▁paint	-10098
▁дворе	-10099
▁убедить	-10100
▁professional	-10101
▁Def	-10102
▁loud	-10103
▁Дела	-10104
▁пала	-10105
▁leader	-10106
▁сигнал	-10107
▁выбрать	-10108
la	-10109
пети	-10110
▁мел	-10111
▁toil	-10112
▁спусти	-10113
▁collect	-10114
▁называть	-10115
▁Cy	-10116
▁зер	-10117
▁даст	-10118
▁жене	-10119
▁Райан	-10120
▁arrange	-10121
▁учитывая	-10122
▁Карл	-10123
▁гаран	-10124
▁покры	-10125
▁Things	-10126
▁Честно	-10127
▁посети	-10128
рип	-10129
▁ука	-10130
▁Богу	-10131
▁wheel	-10132
▁releas	-10133
▁играет	-10134
▁лучшая	-10135
щал	-10136
▁Lar	-10137
едине	-10138
,.....	-10139
▁опасно	-10140
▁рассчиты	-10141
▁Кин	-10142
▁heading	-10143
оте	-10144
▁владе	-10145
▁вовсе	-10146
▁воспри	-10147
▁families	-10148
▁нескольких	-10149
▁kinda	-10150
▁Colonel	-10151
▁Da	-10152
▁cy	-10153
▁Стэн	-10154
ждаться	-10155
▁рассказывать	-10156
py	-10157
ival	-10158
▁очи	-10159
▁русс	-10160
ateful	-10161
▁Останови	-10162
▁количество	-10163
ila	-10164
▁lone	-10165
▁Клэр	-10166
▁везде	-10167
▁лицом	-10168
▁защищать	-10169
▁expecting	-10170
Йорке	-10171
▁screwed	-10172
▁murderer	-10173
кол	-10174
▁кури	-10175
▁мусор	-10176
▁headed	-10177
▁прошлое	-10178
▁отношение	-10179
чики	-10180
стров	-10181
▁Кому	-10182
▁clock	-10183
▁запах	-10184
▁самоубий	-10185
ссу	-10186
▁компанию	-10187
▁беременна	-10188
▁официально	-10189
дво	-10190
жин	-10191
▁Дю	-10192
▁Six	-10193
▁шля	-10194
▁pred	-10195
▁issues	-10196
▁возле	-10197
▁кварта	-10198
▁ся	-10199
▁Eli	-10200
using	-10201
▁вода	-10202
▁Forget	-10203
лям	-10204
▁gy	-10205
▁вверх	-10206
▁ответственность	-10207
▁veh	-10208
▁Кан	-10209
▁учени	-10210
▁королев	-10211
▁Бан	-10212
▁Arthur	-10213
тери	-10214
▁pin	-10215
▁вари	-10216
▁двой	-10217
▁миру	-10218
▁своём	-10219
▁желание	-10220
▁Im	-10221
▁Baby	-10222
▁Дэние	-10223
▁Пойду	-10224
▁Pretty	-10225
▁власти	-10226
▁начало	-10227
▁продви	-10228
мор	-10229
▁пак	-10230
ковник	-10231
isf	-10232
▁hunt	-10233
▁unit	-10234
▁center	-10235
▁Стивен	-10236
▁телефона	-10237
▁наркотики	-10238
▁Res	-10239
▁вру	-10240
▁cares	-10241
▁камеры	-10242
▁Сделай	-10243
▁ep	-10244
itiz	-10245
▁встретил	-10246
▁настоящая	-10247
тела	-10248
▁jury	-10249
▁имен	-10250
▁capable	-10251
of	-10252
▁зе	-10253
тыми	-10254
▁Den	-10255
▁whom	-10256
▁lines	-10257
▁silly	-10258
▁бежать	-10259
▁Sur	-10260
▁Пло	-10261
▁куча	-10262
▁обща	-10263
▁woods	-10264
▁клиента	-10265
va	-10266
дных	-10267
ставь	-10268
▁напу	-10269
▁след	-10270
▁запол	-10271
▁buying	-10272
▁Clark	-10273
▁Eddie	-10274
▁loyal	-10275
▁траха	-10276
▁Господа	-10277
▁систему	-10278
oot	-10279
▁Анд	-10280
▁рак	-10281
▁trad	-10282
▁Пять	-10283
▁harder	-10284
▁points	-10285
▁разных	-10286
▁general	-10287
▁сказано	-10288
▁Особенно	-10289
aura	-10290
ella	-10291
▁State	-10292
▁Оставь	-10293
▁забрали	-10294
▁reb	-10295
▁офице	-10296
▁веду	-10297
▁usual	-10298
▁система	-10299
vy	-10300
ipp	-10301
vies	-10302
суль	-10303
▁нака	-10304
▁brave	-10305
▁connect	-10306
▁называют	-10307
It	-10308
▁кончи	-10309
▁описа	-10310
▁Бон	-10311
icked	-10312
▁according	-10313
omin	-10314
кция	-10315
зывай	-10316
▁начнем	-10317
▁постели	-10318
▁Ly	-10319
iner	-10320
▁Sen	-10321
▁уга	-10322
▁море	-10323
▁enter	-10324
▁искал	-10325
▁голосо	-10326
▁задать	-10327
▁Готов	-10328
▁лучшие	-10329
▁пожени	-10330
▁complain	-10331
II	-10332
уи	-10333
▁покой	-10334
▁sooner	-10335
▁concern	-10336
▁опа	-10337
▁временем	-10338
eez	-10339
▁Жиз	-10340
▁дважды	-10341
▁Alright	-10342
▁сработает	-10343
what	-10344
▁Ash	-10345
▁еды	-10346
▁Super	-10347
▁Должен	-10348
▁расскажи	-10349
▁introduce	-10350
ос	-10351
▁eld	-10352
▁remem	-10353
▁Короле	-10354
▁football	-10355
▁операцию	-10356
▁Перестань	-10357
▁сосредото	-10358
бую	-10359
ache	-10360
лится	-10361
▁Джонни	-10362
▁Russian	-10363
▁fingers	-10364
▁stomach	-10365
▁степ	-10366
▁Santa	-10367
▁старые	-10368
▁Chinese	-10369
▁knowledge	-10370
▁Hy	-10371
▁Euro	-10372
▁площа	-10373
▁faster	-10374
▁regular	-10375
▁симпати	-10376
▁предложи	-10377
бей	-10378
вятся	-10379
▁поми	-10380
▁раздра	-10381
▁Говорят	-10382
▁остались	-10383
iled	-10384
берусь	-10385
▁loose	-10386
▁ought	-10387
▁давать	-10388
▁похожа	-10389
▁holiday	-10390
▁продать	-10391
▁скажете	-10392
▁явно	-10393
▁хирур	-10394
ступить	-10395
▁online	-10396
▁Speak	-10397
▁охран	-10398
▁узнаю	-10399
▁soldiers	-10400
▁brilliant	-10401
ERE	-10402
вее	-10403
▁ула	-10404
▁male	-10405
▁Убира	-10406
▁England	-10407
▁doctors	-10408
▁тест	-10409
▁adult	-10410
▁мужем	-10411
▁Johnny	-10412
▁принял	-10413
▁скажем	-10414
▁returned	-10415
ьер	-10416
▁beauty	-10417
пая	-10418
just	-10419
▁Had	-10420
▁ate	-10421
▁Mama	-10422
▁церкви	-10423
ик	-10424
▁дайте	-10425
▁подчи	-10426
▁Morgan	-10427
▁former	-10428
▁Господь	-10429
▁повсюду	-10430
▁desp	-10431
cel	-10432
▁ссо	-10433
liver	-10434
▁Ross	-10435
▁Видимо	-10436
▁ограни	-10437
▁извиниться	-10438
No	-10439
kins	-10440
▁хле	-10441
iform	-10442
▁земли	-10443
ailable	-10444
▁Президент	-10445
▁позвонила	-10446
▁DO	-10447
бель	-10448
гому	-10449
▁ЦРУ	-10450
▁disp	-10451
▁оконча	-10452
▁возража	-10453
▁работали	-10454
▁Прекрасно	-10455
▁Pet	-10456
▁Way	-10457
rific	-10458
▁ugly	-10459
▁hurts	-10460
▁имеют	-10461
atching	-10462
itation	-10463
▁назвать	-10464
▁работой	-10465
▁благодар	-10466
кола	-10467
▁Мно	-10468
place	-10469
▁growing	-10470
вят	-10471
▁Sal	-10472
▁спал	-10473
казали	-10474
▁досто	-10475
▁корот	-10476
ственности	-10477
ropri	-10478
......	-10479
▁брать	-10480
▁имела	-10481
▁будущем	-10482
▁девушек	-10483
▁Fed	-10484
▁Dean	-10485
▁Part	-10486
▁Spec	-10487
▁хими	-10488
▁Понял	-10489
▁каждой	-10490
▁связано	-10491
▁начинается	-10492
etch	-10493
▁tie	-10494
▁суп	-10495
▁увели	-10496
▁breathe	-10497
▁jobs	-10498
antage	-10499
▁приказ	-10500
▁возвращаться	-10501
uk	-10502
▁Gib	-10503
▁female	-10504
▁strike	-10505
▁forgotten	-10506
▁Фу	-10507
▁began	-10508
▁итоге	-10509
▁мозга	-10510
▁важное	-10511
▁нервни	-10512
▁образо	-10513
▁наедине	-10514
▁подготов	-10515
▁strugg	-10516
▁рестора	-10517
▁воспоминания	-10518
holog	-10519
▁sneak	-10520
▁смогут	-10521
мут	-10522
ument	-10523
▁Brother	-10524
▁incident	-10525
▁romantic	-10526
GHT	-10527
▁Кали	-10528
▁bridge	-10529
▁assistant	-10530
▁поставить	-10531
зил	-10532
▁Hard	-10533
▁Хотел	-10534
▁soldier	-10535
▁Хороший	-10536
▁экспери	-10537
▁positive	-10538
▁основном	-10539
▁правительство	-10540
юз	-10541
iana	-10542
тием	-10543
▁Мэй	-10544
arant	-10545
▁devil	-10546
▁'.	-10547
▁Кли	-10548
▁Vinc	-10549
▁witch	-10550
▁Брайан	-10551
▁кровать	-10552
▁начинает	-10553
первых	-10554
▁Милая	-10555
▁drinks	-10556
▁класса	-10557
▁freedom	-10558
▁watched	-10559
▁учитель	-10560
▁circumst	-10561
▁смотрите	-10562
▁заявление	-10563
▁ruined	-10564
▁достой	-10565
▁зрения	-10566
▁развед	-10567
▁электри	-10568
▁передума	-10569
▁including	-10570
▁уе	-10571
креп	-10572
▁дья	-10573
▁Chic	-10574
▁trade	-10575
▁Патри	-10576
▁neighb	-10577
▁услышал	-10578
новь	-10579
▁Гру	-10580
▁campa	-10581
▁Почти	-10582
▁changes	-10583
▁physical	-10584
нта	-10585
asty	-10586
▁анти	-10587
▁split	-10588
▁преступление	-10589
LD	-10590
pes	-10591
▁doors	-10592
▁sweetie	-10593
▁головой	-10594
▁поймать	-10595
рыв	-10596
mate	-10597
возь	-10598
форд	-10599
▁sou	-10600
▁порт	-10601
▁burned	-10602
▁сбежать	-10603
▁произойдет	-10604
▁контролировать	-10605
бит	-10606
▁Pen	-10607
▁hidden	-10608
▁dancing	-10609
▁проводить	-10610
▁большинство	-10611
лах	-10612
▁Plus	-10613
▁bite	-10614
▁отдела	-10615
▁Hot	-10616
▁гей	-10617
▁East	-10618
▁зале	-10619
▁assoc	-10620
▁crowd	-10621
вета	-10622
▁Шон	-10623
▁pair	-10624
▁shad	-10625
▁ситуацию	-10626
▁Bon	-10627
ровки	-10628
▁reve	-10629
▁parts	-10630
▁Слава	-10631
▁кровью	-10632
▁неправ	-10633
▁tab	-10634
cient	-10635
▁runs	-10636
▁невин	-10637
▁cheese	-10638
▁reality	-10639
▁свадьбу	-10640
And	-10641
▁выки	-10642
▁засу	-10643
▁неле	-10644
▁технологи	-10645
We	-10646
пет	-10647
пок	-10648
▁198	-10649
▁нос	-10650
▁Люси	-10651
▁ждут	-10652
▁Повер	-10653
▁инспе	-10654
▁судеб	-10655
▁лучших	-10656
▁Уверена	-10657
▁значения	-10658
хой	-10659
iance	-10660
▁cure	-10661
▁воро	-10662
▁справ	-10663
▁Поехали	-10664
рогой	-10665
▁мело	-10666
▁bless	-10667
▁солдат	-10668
▁неважно	-10669
шаю	-10670
споко	-10671
▁Norm	-10672
стером	-10673
▁Secret	-10674
▁Первый	-10675
▁печень	-10676
▁письма	-10677
▁GO	-10678
▁Фер	-10679
▁гля	-10680
▁полю	-10681
▁сыном	-10682
▁filled	-10683
▁invite	-10684
▁вариан	-10685
▁пиц	-10686
▁спро	-10687
▁nights	-10688
▁gate	-10689
▁exchan	-10690
▁переры	-10691
▁Хью	-10692
▁Слыша	-10693
браться	-10694
▁express	-10695
▁streets	-10696
▁порядок	-10697
uced	-10698
▁north	-10699
▁Anyone	-10700
▁France	-10701
,..	-10702
▁Ever	-10703
▁долг	-10704
▁Будем	-10705
▁expert	-10706
▁просты	-10707
▁остается	-10708
лии	-10709
▁Кам	-10710
▁alco	-10711
▁жили	-10712
▁зажи	-10713
▁прем	-10714
▁Oliver	-10715
▁device	-10716
▁вообра	-10717
▁считать	-10718
hin	-10719
гала	-10720
ктов	-10721
▁Хол	-10722
▁snow	-10723
▁встречались	-10724
▁Greg	-10725
▁король	-10726
▁привед	-10727
говорить	-10728
▁custody	-10729
▁незакон	-10730
▁отличный	-10731
▁лекарства	-10732
▁Хэн	-10733
дайте	-10734
▁detail	-10735
▁Проблем	-10736
ini	-10737
geon	-10738
веди	-10739
нное	-10740
рили	-10741
щении	-10742
▁видит	-10743
▁системы	-10744
▁признать	-10745
▁попросила	-10746
▁сомневаюсь	-10747
бая	-10748
▁Це	-10749
няла	-10750
▁есте	-10751
другому	-10752
▁Francis	-10753
▁стрелять	-10754
▁поблагодарить	-10755
вия	-10756
▁data	-10757
нджеле	-10758
▁fancy	-10759
▁movies	-10760
▁ow	-10761
▁рей	-10762
▁войну	-10763
▁комнаты	-10764
▁Поздравляю	-10765
гно	-10766
▁Билл	-10767
▁Goodbye	-10768
▁показыва	-10769
▁201	-10770
▁наи	-10771
▁Luke	-10772
▁душу	-10773
▁шери	-10774
▁результаты	-10775
▁изоб	-10776
▁нена	-10777
▁зависит	-10778
▁вспомнить	-10779
▁ть	-10780
нной	-10781
▁видимо	-10782
▁данный	-10783
▁escap	-10784
▁стари	-10785
▁wire	-10786
▁Young	-10787
▁drove	-10788
▁данных	-10789
▁некоторых	-10790
чаешь	-10791
▁Dire	-10792
▁Marsha	-10793
▁защиты	-10794
▁талант	-10795
hem	-10796
▁Офи	-10797
▁моги	-10798
▁солнце	-10799
▁defense	-10800
таль	-10801
▁Весь	-10802
▁жива	-10803
▁Night	-10804
▁решать	-10805
▁material	-10806
phan	-10807
▁Слу	-10808
ертво	-10809
▁Pete	-10810
▁hous	-10811
▁Уилл	-10812
▁баре	-10813
▁шутка	-10814
▁financ	-10815
▁language	-10816
▁La	-10817
▁relie	-10818
▁звали	-10819
▁большим	-10820
ffe	-10821
iod	-10822
▁Шел	-10823
▁лиф	-10824
▁сми	-10825
▁домаш	-10826
▁тради	-10827
▁боишься	-10828
▁Dec	-10829
▁сор	-10830
▁грудь	-10831
▁assign	-10832
▁станешь	-10833
▁Li	-10834
izza	-10835
ревно	-10836
▁Ready	-10837
▁Simon	-10838
▁Роберт	-10839
▁глазами	-10840
▁convince	-10841
▁progress	-10842
▁бло	-10843
uries	-10844
▁запер	-10845
▁адвоката	-10846
▁treatment	-10847
da	-10848
ремен	-10849
▁Alice	-10850
▁pissed	-10851
▁каково	-10852
▁Thought	-10853
▁managed	-10854
▁Правильно	-10855
omy	-10856
мби	-10857
bered	-10858
▁kicked	-10859
▁remains	-10860
▁плохого	-10861
▁смотришь	-10862
▁basically	-10863
▁World	-10864
▁48	-10865
▁circ	-10866
▁просле	-10867
▁создать	-10868
▁бороться	-10869
PS	-10870
тина	-10871
▁поез	-10872
▁тера	-10873
▁genius	-10874
▁наверх	-10875
▁яр	-10876
новение	-10877
▁прошлый	-10878
▁campaign	-10879
мок	-10880
хар	-10881
▁hur	-10882
силия	-10883
▁мето	-10884
▁scare	-10885
▁south	-10886
▁slight	-10887
▁warrant	-10888
▁вариант	-10889
▁простран	-10890
▁пун	-10891
▁замет	-10892
▁нелов	-10893
▁garden	-10894
▁камеру	-10895
▁появится	-10896
сел	-10897
▁ищем	-10898
▁устал	-10899
ication	-10900
ga	-10901
пей	-10902
▁tear	-10903
▁фана	-10904
▁уехал	-10905
▁лучшим	-10906
ya	-10907
▁nor	-10908
▁teen	-10909
▁обой	-10910
твоему	-10911
▁терпе	-10912
▁Наконец	-10913
▁некоторое	-10914
▁motherfuck	-10915
рила	-10916
▁tap	-10917
▁Шта	-10918
▁grew	-10919
▁Джин	-10920
▁Убий	-10921
блиоте	-10922
▁relig	-10923
▁Enough	-10924
▁находя	-10925
ственные	-10926
▁confirm	-10927
▁действия	-10928
▁обстоятельства	-10929
▁SH	-10930
hips	-10931
▁pil	-10932
▁жут	-10933
▁рез	-10934
▁Cont	-10935
▁Cour	-10936
▁худо	-10937
ленный	-10938
▁война	-10939
unny	-10940
▁connected	-10941
▁мощ	-10942
▁wash	-10943
▁сним	-10944
▁соста	-10945
▁изменя	-10946
▁музыку	-10947
▁appears	-10948
▁sin	-10949
▁фами	-10950
▁Jason	-10951
▁owner	-10952
▁идешь	-10953
▁handsome	-10954
ксу	-10955
мум	-10956
▁Kir	-10957
▁woke	-10958
▁учас	-10959
▁извин	-10960
▁checking	-10961
▁Commander	-10962
ays	-10963
▁70	-10964
▁Ugh	-10965
▁Дар	-10966
▁Same	-10967
▁моби	-10968
▁crash	-10969
▁Отлич	-10970
▁действовать	-10971
▁Брен	-10972
▁grant	-10973
▁форму	-10974
xy	-10975
aled	-10976
емый	-10977
▁Both	-10978
▁рели	-10979
▁вновь	-10980
▁север	-10981
▁представи	-10982
▁US	-10983
▁ruin	-10984
▁trig	-10985
▁terms	-10986
▁побли	-10987
ппи	-10988
▁Ter	-10989
▁rare	-10990
▁stone	-10991
▁Ранее	-10992
кл	-10993
гну	-10994
рный	-10995
▁бал	-10996
▁fate	-10997
▁демо	-10998
aching	-10999
▁живут	-11000
▁задержа	-11001
▁вытащить	-11002
▁insurance	-11003
▁incredible	-11004
вато	-11005
пора	-11006
▁punish	-11007
▁приехала	-11008
▁вечеринке	-11009
▁оке	-11010
ющего	-11011
▁смея	-11012
▁impro	-11013
▁Между	-11014
▁требо	-11015
▁послал	-11016
thy	-11017
лёт	-11018
▁стрем	-11019
▁улыба	-11020
▁obvious	-11021
▁students	-11022
пель	-11023
ville	-11024
скать	-11025
▁пита	-11026
▁услы	-11027
▁Иначе	-11028
▁расши	-11029
▁руками	-11030
▁alright	-11031
▁просила	-11032
▁ублюдок	-11033
пку	-11034
oted	-11035
▁fal	-11036
▁Рон	-11037
▁плох	-11038
▁easily	-11039
▁англий	-11040
▁подели	-11041
вина	-11042
▁ценю	-11043
▁Прошло	-11044
ственной	-11045
▁However	-11046
вёз	-11047
ниц	-11048
туи	-11049
▁Off	-11050
▁bat	-11051
▁laws	-11052
▁заку	-11053
▁Лондо	-11054
▁Робин	-11055
▁бумаги	-11056
▁положение	-11057
AC	-11058
pet	-11059
пон	-11060
рюк	-11061
▁поне	-11062
▁проще	-11063
▁черту	-11064
▁picking	-11065
▁линии	-11066
▁пошёл	-11067
▁здоров	-11068
▁предложил	-11069
rig	-11070
лыми	-11071
isted	-11072
крови	-11073
▁Either	-11074
туры	-11075
▁Mat	-11076
▁Old	-11077
▁bone	-11078
▁зано	-11079
▁игро	-11080
▁Again	-11081
▁giant	-11082
▁кровати	-11083
▁officers	-11084
▁нравишься	-11085
mo	-11086
▁Shh	-11087
руешь	-11088
▁mult	-11089
▁whis	-11090
▁walls	-11091
▁прико	-11092
▁высоко	-11093
▁Большое	-11094
волю	-11095
стил	-11096
▁Ten	-11097
▁хво	-11098
▁Fire	-11099
▁disg	-11100
▁посвя	-11101
▁Sister	-11102
▁возник	-11103
▁плохая	-11104
▁тюрьмы	-11105
▁надеялся	-11106
▁committed	-11107
ops	-11108
мые	-11109
▁35	-11110
помя	-11111
▁Cut	-11112
▁Eve	-11113
▁куль	-11114
▁жертв	-11115
▁lonely	-11116
▁recomm	-11117
▁da	-11118
▁зато	-11119
▁умрет	-11120
▁Europe	-11121
▁испуга	-11122
▁принце	-11123
▁изнасило	-11124
▁понимает	-11125
▁беспокоит	-11126
▁mut	-11127
ardon	-11128
▁oppos	-11129
▁Скотт	-11130
▁babies	-11131
▁зарабаты	-11132
▁Di	-11133
▁Far	-11134
▁Дан	-11135
▁Cass	-11136
▁запу	-11137
▁играл	-11138
▁песня	-11139
▁скучаю	-11140
▁страну	-11141
▁поступил	-11142
imp	-11143
▁bal	-11144
жного	-11145
▁Life	-11146
▁coat	-11147
▁ears	-11148
▁Дети	-11149
▁кусок	-11150
▁fought	-11151
▁хорошей	-11152
▁bleeding	-11153
▁внезапно	-11154
▁подобное	-11155
Ты	-11156
ждь	-11157
жина	-11158
▁score	-11159
▁отчая	-11160
▁перво	-11161
▁считают	-11162
org	-11163
▁Же	-11164
▁выр	-11165
▁raised	-11166
▁rights	-11167
▁uniform	-11168
▁Уо	-11169
▁перео	-11170
▁ухожу	-11171
▁boring	-11172
▁магазине	-11173
▁секса	-11174
▁Забудь	-11175
▁позади	-11176
▁любовью	-11177
▁pee	-11178
▁Чув	-11179
▁воору	-11180
▁разме	-11181
▁выво	-11182
▁убит	-11183
▁grave	-11184
▁проститу	-11185
▁uns	-11186
▁душ	-11187
▁стер	-11188
▁eventually	-11189
ware	-11190
▁Haw	-11191
▁Pri	-11192
▁nar	-11193
▁wet	-11194
▁Обо	-11195
aches	-11196
▁плен	-11197
▁свед	-11198
▁trail	-11199
▁distur	-11200
▁поступ	-11201
временно	-11202
▁goodbye	-11203
▁медицин	-11204
▁permission	-11205
▁сидел	-11206
▁powers	-11207
▁suffer	-11208
▁Клянусь	-11209
▁downstairs	-11210
▁Leo	-11211
▁шах	-11212
▁lack	-11213
▁доби	-11214
▁actual	-11215
▁любого	-11216
▁assault	-11217
▁Здорово	-11218
зма	-11219
чном	-11220
▁Doug	-11221
▁вызвать	-11222
IM	-11223
▁Roger	-11224
▁Start	-11225
▁clients	-11226
▁потребу	-11227
арь	-11228
ivia	-11229
▁Ver	-11230
▁rac	-11231
▁Ней	-11232
▁aunt	-11233
▁Идите	-11234
▁взрыв	-11235
▁провел	-11236
▁провали	-11237
▁занимается	-11238
▁собственной	-11239
зия	-11240
sters	-11241
▁Леди	-11242
▁форме	-11243
▁patter	-11244
▁поговорю	-11245
▁остальное	-11246
зин	-11247
▁ер	-11248
зать	-11249
лево	-11250
тана	-11251
▁Дин	-11252
▁Зво	-11253
▁ушли	-11254
▁Брось	-11255
▁мастер	-11256
▁guarant	-11257
без	-11258
▁бог	-11259
▁упал	-11260
▁respond	-11261
▁сделано	-11262
▁заставляет	-11263
▁справедливо	-11264
ols	-11265
▁Et	-11266
▁Впер	-11267
▁граждан	-11268
▁осталась	-11269
▁Ba	-11270
енье	-11271
▁блю	-11272
▁ору	-11273
▁приехать	-11274
▁беспокоиться	-11275
bon	-11276
iat	-11277
ился	-11278
▁Gold	-11279
▁Любо	-11280
▁наве	-11281
▁Уильям	-11282
▁интервью	-11283
▁ат	-11284
▁nuts	-11285
▁Одно	-11286
▁слад	-11287
▁illegal	-11288
▁singing	-11289
▁personally	-11290
rad	-11291
мыс	-11292
сная	-11293
▁каз	-11294
▁нор	-11295
▁сбежал	-11296
▁просить	-11297
▁победить	-11298
▁сексуально	-11299
вида	-11300
▁joy	-11301
▁Эбби	-11302
▁носить	-11303
▁прекратить	-11304
рэй	-11305
▁цы	-11306
veill	-11307
▁Flor	-11308
деться	-11309
▁nurse	-11310
▁десяти	-11311
▁наверно	-11312
▁праздни	-11313
▁Гэ	-11314
▁Rel	-11315
hered	-11316
▁bike	-11317
▁ногу	-11318
emon	-11319
ними	-11320
▁term	-11321
ленные	-11322
льными	-11323
ческом	-11324
▁Jones	-11325
▁канди	-11326
▁семьей	-11327
▁колледж	-11328
▁оставлю	-11329
▁available	-11330
▁маленькие	-11331
▁ори	-11332
▁tong	-11333
▁выступ	-11334
▁связаться	-11335
▁Mu	-11336
hell	-11337
▁Case	-11338
▁надое	-11339
▁оцени	-11340
▁сестру	-11341
▁pulling	-11342
▁транспо	-11343
▁мужчиной	-11344
▁celebrate	-11345
ket	-11346
дак	-11347
пки	-11348
▁Уор	-11349
▁детям	-11350
▁любим	-11351
▁здания	-11352
▁Jer	-11353
▁rat	-11354
▁Тех	-11355
▁prosec	-11356
▁братом	-11357
▁кандида	-11358
ссы	-11359
дует	-11360
▁flo	-11361
▁Дер	-11362
▁нибудь	-11363
▁healthy	-11364
▁мужчину	-11365
▁отправил	-11366
▁unt	-11367
стный	-11368
▁Чика	-11369
▁изде	-11370
▁копа	-11371
▁значение	-11372
▁advantage	-11373
▁otherwise	-11374
▁держаться	-11375
▁представляешь	-11376
рда	-11377
▁уши	-11378
▁эпи	-11379
▁shape	-11380
▁Опять	-11381
▁ограб	-11382
▁думаем	-11383
▁здоровь	-11384
▁partners	-11385
bre	-11386
▁Ber	-11387
▁Hit	-11388
▁tall	-11389
▁миллиона	-11390
mit	-11391
▁код	-11392
▁behavior	-11393
▁convinced	-11394
▁_	-11395
сист	-11396
▁init	-11397
▁shift	-11398
▁cameras	-11399
▁stealing	-11400
▁protection	-11401
лён	-11402
fect	-11403
atory	-11404
▁Barb	-11405
▁fright	-11406
▁spy	-11407
▁отпу	-11408
▁уйду	-11409
▁humans	-11410
▁побыть	-11411
▁Chicago	-11412
▁оказаться	-11413
▁27	-11414
бами	-11415
▁Вла	-11416
тором	-11417
▁Jean	-11418
▁Парни	-11419
▁agents	-11420
▁посыла	-11421
▁tickets	-11422
▁свадьбы	-11423
▁следить	-11424
▁встретились	-11425
гант	-11426
жима	-11427
▁unf	-11428
▁ход	-11429
▁mort	-11430
▁бесе	-11431
▁возмо	-11432
▁китай	-11433
▁throat	-11434
▁airport	-11435
▁value	-11436
▁книга	-11437
▁кости	-11438
▁period	-11439
▁revenge	-11440
▁звонила	-11441
▁honestly	-11442
▁собирались	-11443
ждая	-11444
▁mob	-11445
▁Деб	-11446
рование	-11447
▁jacket	-11448
▁Совсем	-11449
▁circumstances	-11450
вные	-11451
▁bang	-11452
look	-11453
▁Dis	-11454
▁одина	-11455
▁перей	-11456
▁Carter	-11457
▁началось	-11458
▁Especially	-11459
▁знако	-11460
▁expensive	-11461
ias	-11462
▁Неб	-11463
▁Фил	-11464
▁Bart	-11465
▁пиво	-11466
▁убрать	-11467
ivid	-11468
нная	-11469
▁Пот	-11470
▁имеем	-11471
▁toilet	-11472
▁thousands	-11473
agn	-11474
зем	-11475
рена	-11476
▁Таким	-11477
▁репута	-11478
▁Marg	-11479
▁sexy	-11480
▁счёт	-11481
▁robber	-11482
▁обязан	-11483
▁опозна	-11484
▁предна	-11485
▁распла	-11486
▁конкрет	-11487
▁предпри	-11488
▁специали	-11489
▁жо	-11490
▁tail	-11491
▁труп	-11492
▁Mommy	-11493
▁Такой	-11494
▁gather	-11495
▁Pal	-11496
▁Nope	-11497
▁Заме	-11498
▁наме	-11499
вуд	-11500
▁ST	-11501
ждаю	-11502
кала	-11503
▁Know	-11504
▁выру	-11505
▁упомя	-11506
▁parking	-11507
эд	-11508
▁1,	-11509
тика	-11510
▁Dun	-11511
▁получу	-11512
bles	-11513
еном	-11514
монд	-11515
▁Мое	-11516
▁Home	-11517
▁mayor	-11518
▁plate	-11519
▁Грейс	-11520
▁узнаем	-11521
гро	-11522
▁hyp	-11523
▁сей	-11524
ферен	-11525
▁плохие	-11526
▁reached	-11527
цах	-11528
▁Mond	-11529
▁citiz	-11530
▁Салли	-11531
▁прожи	-11532
▁самому	-11533
▁disease	-11534
▁bon	-11535
aries	-11536
▁дому	-11537
▁curious	-11538
▁Держись	-11539
▁напо	-11540
▁Которы	-11541
▁enemies	-11542
▁финансо	-11543
жер	-11544
пят	-11545
case	-11546
vision	-11547
▁scary	-11548
▁tests	-11549
▁cigaret	-11550
▁возрасте	-11551
▁technology	-11552
▁√	-11553
▁Tor	-11554
▁hug	-11555
рости	-11556
▁Shan	-11557
▁laid	-11558
▁pure	-11559
▁lesson	-11560
▁Jackson	-11561
▁счастью	-11562
▁laughing	-11563
▁direction	-11564
▁satisf	-11565
▁journey	-11566
▁warning	-11567
▁миллион	-11568
▁spending	-11569
▁vacation	-11570
hal	-11571
тяги	-11572
▁Лай	-11573
▁душа	-11574
▁лучшего	-11575
▁carrying	-11576
▁literally	-11577
▁президента	-11578
стый	-11579
▁тяж	-11580
▁усы	-11581
▁adop	-11582
▁срок	-11583
▁сериа	-11584
▁указа	-11585
▁butter	-11586
▁нашему	-11587
▁director	-11588
▁appointment	-11589
дах	-11590
▁рады	-11591
▁торго	-11592
▁player	-11593
▁опазды	-11594
▁полной	-11595
▁medicine	-11596
▁занимался	-11597
lly	-11598
руем	-11599
▁Ask	-11600
▁Alan	-11601
▁миль	-11602
▁отре	-11603
▁целью	-11604
▁confused	-11605
▁животных	-11606
▁Barry	-11607
▁Томас	-11608
▁жертву	-11609
▁придёт	-11610
▁Unfortunately	-11611
стся	-11612
▁197	-11613
▁мяг	-11614
▁Light	-11615
▁Жизнь	-11616
▁traffic	-11617
1,	-11618
▁Дере	-11619
▁бага	-11620
▁спит	-11621
▁форма	-11622
▁Andrew	-11623
▁передо	-11624
▁француз	-11625
шишь	-11626
▁noise	-11627
▁навре	-11628
▁directly	-11629
▁превраща	-11630
▁остановиться	-11631
gen	-11632
huh	-11633
▁Сон	-11634
▁Down	-11635
▁Малень	-11636
▁grateful	-11637
▁позволил	-11638
▁поступить	-11639
▁приходить	-11640
▁Две	-11641
▁хло	-11642
▁осве	-11643
▁сидит	-11644
▁Prince	-11645
▁перене	-11646
▁Быстрее	-11647
казывается	-11648
acon	-11649
ship	-11650
зация	-11651
▁Comp	-11652
▁gain	-11653
▁Рань	-11654
▁sandw	-11655
▁останусь	-11656
▁Eliz	-11657
▁твоём	-11658
▁поехали	-11659
veillance	-11660
жий	-11661
▁мэ	-11662
▁Dor	-11663
▁prior	-11664
▁favour	-11665
▁догада	-11666
▁превос	-11667
▁exciting	-11668
▁Джейк	-11669
▁встрече	-11670
▁pit	-11671
▁alter	-11672
▁pills	-11673
▁license	-11674
▁passion	-11675
▁собрать	-11676
▁released	-11677
▁throwing	-11678
где	-11679
вера	-11680
нных	-11681
▁una	-11682
▁Лэн	-11683
Йорка	-11684
▁фаль	-11685
▁stood	-11686
▁короля	-11687
▁смотрит	-11688
▁нен	-11689
ropriate	-11690
▁выиграть	-11691
PD	-11692
cean	-11693
rict	-11694
пала	-11695
gment	-11696
▁Мило	-11697
▁bound	-11698
▁счета	-11699
▁принци	-11700
▁пожертво	-11701
гаю	-11702
тной	-11703
▁сму	-11704
▁сож	-11705
aging	-11706
▁урок	-11707
▁stress	-11708
▁стыдно	-11709
▁fro	-11710
▁tim	-11711
abeth	-11712
тером	-11713
няется	-11714
▁Сказал	-11715
▁помеша	-11716
гс	-11717
▁муд	-11718
▁ищет	-11719
▁Afric	-11720
пустила	-11721
▁secure	-11722
▁Мартин	-11723
▁schedule	-11724
kn	-11725
bur	-11726
тони	-11727
▁районе	-11728
▁Думаете	-11729
▁Caroline	-11730
ube	-11731
ите	-11732
мец	-11733
▁еда	-11734
isions	-11735
▁Взгля	-11736
▁напро	-11737
▁точки	-11738
▁завтрак	-11739
%.	-11740
▁maid	-11741
▁отеле	-11742
▁дю	-11743
▁Bad	-11744
▁McC	-11745
▁Val	-11746
▁Разу	-11747
▁заго	-11748
▁bread	-11749
▁жениться	-11750
▁Air	-11751
▁выбо	-11752
▁cheap	-11753
▁подпи	-11754
▁ужина	-11755
▁Рейчел	-11756
▁общего	-11757
▁глубоко	-11758
▁пациент	-11759
▁Tob	-11760
▁tatt	-11761
▁жест	-11762
▁demand	-11763
▁Раньше	-11764
▁ожидал	-11765
▁отвечать	-11766
ida	-11767
дыду	-11768
▁faces	-11769
▁бассей	-11770
ствовала	-11771
▁национа	-11772
▁операция	-11773
▁ресторан	-11774
Это	-11775
iple	-11776
hington	-11777
▁higher	-11778
▁society	-11779
▁звонить	-11780
▁причине	-11781
▁смертью	-11782
▁Поговори	-11783
▁desperate	-11784
▁вечеринки	-11785
▁перестать	-11786
▁беспокойся	-11787
▁эго	-11788
▁Дево	-11789
▁hated	-11790
▁выклю	-11791
▁центр	-11792
▁accompl	-11793
▁впереди	-11794
▁попытаться	-11795
▁Sk	-11796
▁чрез	-11797
▁traum	-11798
▁ы	-11799
▁Men	-11800
arily	-11801
▁Forg	-11802
▁prepare	-11803
▁придумать	-11804
гар	-11805
дном	-11806
▁Испо	-11807
▁курс	-11808
тировать	-11809
▁задержи	-11810
▁gentleman	-11811
izz	-11812
▁Шей	-11813
▁Insp	-11814
▁anti	-11815
▁sweat	-11816
▁здоро	-11817
▁Gentle	-11818
▁бабушка	-11819
▁пойдешь	-11820
▁оставили	-11821
жишь	-11822
скими	-11823
▁Rock	-11824
▁Дамы	-11825
▁учеб	-11826
тник	-11827
▁смей	-11828
ляться	-11829
▁взлома	-11830
▁product	-11831
▁изменилось	-11832
otic	-11833
▁tip	-11834
▁crit	-11835
▁eggs	-11836
▁урод	-11837
▁beast	-11838
▁поеду	-11839
▁прошел	-11840
▁прошли	-11841
▁рассказывал	-11842
ёг	-11843
вяз	-11844
льт	-11845
▁Кай	-11846
▁puts	-11847
▁Смер	-11848
▁Также	-11849
▁artist	-11850
▁resist	-11851
▁старая	-11852
▁любимый	-11853
▁changing	-11854
▁вспомина	-11855
жке	-11856
мую	-11857
▁Bud	-11858
▁Kind	-11859
▁role	-11860
▁summ	-11861
▁Евро	-11862
▁спер	-11863
atches	-11864
▁incre	-11865
▁signs	-11866
▁мечты	-11867
▁volunt	-11868
▁рекомен	-11869
▁сигарет	-11870
▁national	-11871
▁клиентов	-11872
▁тур	-11873
▁Holly	-11874
▁сыгра	-11875
▁убивал	-11876
▁Aah	-11877
▁Blood	-11878
▁image	-11879
▁испор	-11880
▁кухне	-11881
▁купила	-11882
gend	-11883
льку	-11884
▁Susan	-11885
▁Настоя	-11886
бар	-11887
▁Мм	-11888
▁ушёл	-11889
▁кисло	-11890
▁Уолтер	-11891
▁reports	-11892
▁неожида	-11893
▁Достаточно	-11894
▁Спе	-11895
ходишь	-11896
▁Элиза	-11897
▁вызов	-11898
▁cooper	-11899
▁Art	-11900
▁Тоби	-11901
▁вызо	-11902
▁наро	-11903
▁разно	-11904
▁прекрати	-11905
van	-11906
ряс	-11907
rett	-11908
пара	-11909
▁Wood	-11910
▁столе	-11911
▁читал	-11912
▁старик	-11913
▁сообщения	-11914
▁чувствует	-11915
▁Здравствуй	-11916
?.	-11917
▁8:	-11918
▁ess	-11919
▁придурок	-11920
гей	-11921
▁Hor	-11922
▁Ren	-11923
ровка	-11924
ёшься	-11925
▁едем	-11926
colate	-11927
▁Green	-11928
▁парню	-11929
▁улики	-11930
▁участок	-11931
▁Po	-11932
phone	-11933
▁iron	-11934
▁rate	-11935
ковать	-11936
▁spare	-11937
▁touched	-11938
▁задание	-11939
гина	-11940
▁исти	-11941
▁Haven	-11942
▁trace	-11943
▁оказалось	-11944
▁случается	-11945
кле	-11946
▁Ass	-11947
idering	-11948
▁привык	-11949
▁удосто	-11950
▁exchange	-11951
▁покинуть	-11952
▁проходит	-11953
▁представляю	-11954
lev	-11955
нар	-11956
ваясь	-11957
▁hunting	-11958
▁бросила	-11959
▁принесла	-11960
▁собираются	-11961
ёс	-11962
omen	-11963
▁purs	-11964
▁сража	-11965
▁Rec	-11966
▁shr	-11967
▁Lisa	-11968
▁scar	-11969
▁symb	-11970
▁загля	-11971
Анджеле	-11972
▁приста	-11973
▁treated	-11974
▁посмотрю	-11975
▁Несколько	-11976
▁пригласить	-11977
▁закончилось	-11978
outs	-11979
▁Соб	-11980
▁Стар	-11981
▁надела	-11982
▁списке	-11983
▁энергии	-11984
▁Вста	-11985
▁посме	-11986
▁surround	-11987
▁появилась	-11988
▁Washington	-11989
туру	-11990
,000.	-11991
стили	-11992
▁Cons	-11993
▁Wall	-11994
▁Пыта	-11995
▁estab	-11996
▁Убери	-11997
ability	-11998
▁незави	-11999
▁бесполез	-12000
▁мг	-12001
play	-12002
леть	-12003
рели	-12004
▁Doc	-12005
▁meal	-12006
▁shots	-12007
sidered	-12008
▁waited	-12009
▁considered	-12010
▁protecting	-12011
-2	-12012
вор	-12013
клина	-12014
▁Lucy	-12015
▁сена	-12016
▁solve	-12017
▁женщине	-12018
▁запомни	-12019
▁stronger	-12020
ТО	-12021
дца	-12022
▁Fo	-12023
▁sem	-12024
▁добы	-12025
▁Donna	-12026
▁собака	-12027
▁очарова	-12028
▁провели	-12029
▁presence	-12030
▁влюби	-12031
▁пациента	-12032
ula	-12033
▁лиш	-12034
готов	-12035
▁любое	-12036
▁screen	-12037
▁Чикаго	-12038
▁попала	-12039
▁правде	-12040
▁отпечатки	-12041
деб	-12042
вига	-12043
▁Feel	-12044
езжать	-12045
▁bones	-12046
▁Ханна	-12047
▁отрица	-12048
▁уходит	-12049
▁belongs	-12050
▁wanting	-12051
cial	-12052
▁CIA	-12053
▁Sean	-12054
▁теми	-12055
▁дерьма	-12056
▁горжусь	-12057
зади	-12058
▁Кое	-12059
▁Soon	-12060
▁whore	-12061
▁priest	-12062
▁болезнь	-12063
▁x	-12064
ковы	-12065
▁хер	-12066
▁банк	-12067
▁pizza	-12068
▁карты	-12069
▁новым	-12070
▁Ненави	-12071
▁Прежде	-12072
▁поверх	-12073
▁убийцу	-12074
▁McG	-12075
▁lad	-12076
▁зар	-12077
▁лесу	-12078
▁weather	-12079
▁церковь	-12080
▁присматри	-12081
▁обнаружили	-12082
веро	-12083
▁Судя	-12084
тельна	-12085
▁Robin	-12086
▁Vincent	-12087
▁надеяться	-12088
bage	-12089
▁Ari	-12090
▁МакК	-12091
▁coinc	-12092
▁облег	-12093
▁штаны	-12094
▁помоги	-12095
▁counter	-12096
▁навести	-12097
▁последней	-12098
стка	-12099
▁Тей	-12100
▁циф	-12101
▁Келли	-12102
▁confident	-12103
ef	-12104
буд	-12105
сны	-12106
▁30.	-12107
дение	-12108
▁April	-12109
▁трети	-12110
▁чемпи	-12111
▁звонки	-12112
▁engaged	-12113
▁избежать	-12114
На	-12115
...!	-12116
рета	-12117
▁Law	-12118
▁Aunt	-12119
▁false	-12120
▁кабин	-12121
тически	-12122
▁чудови	-12123
▁приготов	-12124
▁договорились	-12125
вот	-12126
шко	-12127
icks	-12128
тики	-12129
▁Gun	-12130
▁Пет	-12131
берна	-12132
▁дыха	-12133
▁замеша	-12134
▁устала	-12135
▁сержант	-12136
▁лаборатории	-12137
кты	-12138
imin	-12139
uman	-12140
▁Conn	-12141
▁герой	-12142
▁indeed	-12143
▁season	-12144
▁напуга	-12145
▁footage	-12146
▁эмоциона	-12147
aph	-12148
▁Fel	-12149
▁Nah	-12150
▁Tyler	-12151
▁сотни	-12152
▁tattoo	-12153
▁распростра	-12154
▁FOR	-12155
ament	-12156
▁plus	-12157
беремся	-12158
▁confir	-12159
▁предыду	-12160
▁Ву	-12161
вило	-12162
гали	-12163
▁Jay	-12164
▁Брэ	-12165
▁мяч	-12166
▁Хоть	-12167
▁лице	-12168
ленная	-12169
▁цветы	-12170
▁served	-12171
▁установи	-12172
▁happiness	-12173
▁decl	-12174
▁magaz	-12175
▁temper	-12176
▁prevent	-12177
▁Вероятно	-12178
▁деньгами	-12179
▁половину	-12180
▁Vir	-12181
▁elev	-12182
▁Начина	-12183
▁убивает	-12184
rated	-12185
чники	-12186
▁Dear	-12187
▁Work	-12188
▁bond	-12189
▁поси	-12190
▁дополни	-12191
▁≈	-12192
▁arg	-12193
▁Блин	-12194
▁внеш	-12195
▁Seems	-12196
▁убийцы	-12197
▁показалось	-12198
▁grandfather	-12199
▁grandmother	-12200
unior	-12201
▁вось	-12202
rifice	-12203
ходили	-12204
▁каждое	-12205
▁vampire	-12206
▁извините	-12207
uses	-12208
▁jew	-12209
▁Глу	-12210
▁Час	-12211
▁Easy	-12212
▁дольше	-12213
▁переме	-12214
▁срочно	-12215
▁принесу	-12216
▁Согласно	-12217
▁радостью	-12218
реб	-12219
циа	-12220
oops	-12221
ucle	-12222
лами	-12223
▁Ммм	-12224
▁Чак	-12225
ublic	-12226
▁fully	-12227
▁вернемся	-12228
▁заработа	-12229
вшая	-12230
▁Squ	-12231
holic	-12232
▁Кото	-12233
▁оцен	-12234
▁ведет	-12235
▁мозги	-12236
циальный	-12237
▁Believe	-12238
▁удовольствие	-12239
ббс	-12240
otte	-12241
йдёшь	-12242
▁ждёт	-12243
▁sugar	-12244
▁Мария	-12245
▁харак	-12246
▁плохое	-12247
▁Ac	-12248
▁clin	-12249
▁libr	-12250
▁автобус	-12251
▁невероят	-12252
кун	-12253
▁Ir	-12254
боту	-12255
буду	-12256
мого	-12257
▁звук	-12258
▁ходил	-12259
▁безумие	-12260
▁девочек	-12261
▁контроль	-12262
лика	-12263
▁Tur	-12264
▁Abby	-12265
▁Shar	-12266
▁drown	-12267
▁власть	-12268
▁считаете	-12269
▁Won	-12270
▁Вол	-12271
вится	-12272
нилось	-12273
▁badly	-12274
▁toast	-12275
▁garage	-12276
▁местах	-12277
▁burning	-12278
▁партнер	-12279
rek	-12280
▁impl	-12281
▁Помоги	-12282
▁братья	-12283
▁службы	-12284
▁Мин	-12285
▁Тед	-12286
▁шум	-12287
ститу	-12288
▁hire	-12289
▁scan	-12290
▁trap	-12291
▁Силь	-12292
▁Эндрю	-12293
▁distance	-12294
iev	-12295
щины	-12296
▁Pap	-12297
▁gym	-12298
▁бур	-12299
лений	-12300
▁bail	-12301
▁Быть	-12302
▁миро	-12303
▁окна	-12304
▁awake	-12305
▁живёт	-12306
пускать	-12307
▁sentence	-12308
▁Ћ	-12309
uted	-12310
▁Мас	-12311
▁acqu	-12312
▁cabin	-12313
ходы	-12314
▁Steven	-12315
▁Мальчи	-12316
ственным	-12317
▁provide	-12318
▁счастливы	-12319
сии	-12320
born	-12321
жают	-12322
▁Спи	-12323
▁ящи	-12324
isher	-12325
ристи	-12326
▁flag	-12327
▁Идём	-12328
▁гара	-12329
▁обру	-12330
▁улицу	-12331
▁ошибки	-12332
▁glasses	-12333
▁родился	-12334
▁работаем	-12335
▁Nik	-12336
▁remo	-12337
▁убор	-12338
▁Laura	-12339
▁груди	-12340
▁классе	-12341
▁дружище	-12342
лив	-12343
hest	-12344
sequ	-12345
▁Пау	-12346
▁hors	-12347
▁princ	-12348
▁Перед	-12349
▁fortune	-12350
▁emotional	-12351
▁чувствовала	-12352
iron	-12353
жите	-12354
рисо	-12355
▁Мит	-12356
▁отвечает	-12357
▁prim	-12358
▁дамы	-12359
▁cheer	-12360
▁Коман	-12361
▁кампа	-12362
▁обору	-12363
▁Который	-12364
▁suffering	-12365
▁yourselves	-12366
мат	-12367
▁tit	-12368
▁Нес	-12369
▁Coun	-12370
▁Mind	-12371
▁educ	-12372
▁grade	-12373
▁Такие	-12374
▁леген	-12375
▁collea	-12376
▁intern	-12377
▁regard	-12378
▁vehicle	-12379
▁отличная	-12380
▁понимать	-12381
gs	-12382
лос	-12383
лила	-12384
▁Cho	-12385
▁Care	-12386
▁WHAT	-12387
▁даль	-12388
▁forest	-12389
▁British	-12390
▁Tonight	-12391
дую	-12392
▁али	-12393
рования	-12394
▁Olivia	-12395
▁отдохнуть	-12396
▁Found	-12397
▁compan	-12398
▁агента	-12399
▁understood	-12400
Мо	-12401
▁Poor	-12402
▁выле	-12403
▁спорт	-12404
▁миллиар	-12405
▁guessing	-12406
▁лекарство	-12407
▁отношений	-12408
▁последняя	-12409
▁управлять	-12410
hab	-12411
▁тет	-12412
aming	-12413
▁Dave	-12414
▁рыба	-12415
▁патру	-12416
▁разоча	-12417
▁younger	-12418
gar	-12419
▁liar	-12420
▁Деву	-12421
▁заре	-12422
▁Ребек	-12423
▁recall	-12424
▁пойдём	-12425
▁similar	-12426
▁заботиться	-12427
нца	-12428
била	-12429
▁Интер	-12430
▁немно	-12431
▁'?	-12432
жней	-12433
чают	-12434
клять	-12435
▁петь	-12436
▁пива	-12437
▁слухи	-12438
▁engage	-12439
▁вероят	-12440
▁passing	-12441
▁entirely	-12442
▁whenever	-12443
хал	-12444
▁Anne	-12445
▁aside	-12446
▁shopping	-12447
▁experiment	-12448
вень	-12449
еной	-12450
жений	-12451
verage	-12452
▁ванной	-12453
▁воздух	-12454
▁умирает	-12455
▁танцевать	-12456
▁Ак	-12457
▁Смо	-12458
▁бара	-12459
▁Being	-12460
▁домом	-12461
▁Whoever	-12462
▁mistakes	-12463
нится	-12464
▁Hank	-12465
▁уско	-12466
▁камень	-12467
▁percent	-12468
▁transport	-12469
▁использует	-12470
▁отношениях	-12471
пля	-12472
ломет	-12473
▁negot	-12474
▁uncom	-12475
▁Elizabeth	-12476
▁Дра	-12477
▁Мед	-12478
▁Хэй	-12479
▁эфи	-12480
stead	-12481
▁Sand	-12482
▁Sher	-12483
▁chap	-12484
▁кафе	-12485
вершенно	-12486
▁Понимаю	-12487
▁Inspector	-12488
▁Eh	-12489
▁ано	-12490
▁зуб	-12491
enced	-12492
▁Барри	-12493
▁одержи	-12494
▁племян	-12495
▁Отличная	-12496
He	-12497
ёзно	-12498
▁Dev	-12499
▁Бру	-12500
ushed	-12501
▁defe	-12502
▁guests	-12503
▁пропал	-12504
▁центра	-12505
▁другому	-12506
▁перегово	-12507
▁предлагаю	-12508
▁surveillance	-12509
фом	-12510
мену	-12511
▁Mus	-12512
▁взво	-12513
▁доми	-12514
▁Ricky	-12515
▁совме	-12516
▁spring	-12517
▁Fucking	-12518
▁quarter	-12519
ственного	-12520
▁понедель	-12521
▁волноваться	-12522
aud	-12523
▁Ra	-12524
▁Hay	-12525
▁flu	-12526
▁dust	-12527
▁верх	-12528
▁перио	-12529
▁tongue	-12530
▁Special	-12531
▁предела	-12532
тельности	-12533
▁прошлого	-12534
▁Guy	-12535
▁diam	-12536
▁сука	-12537
▁highly	-12538
▁медленно	-12539
▁пригласил	-12540
▁одновременно	-12541
can	-12542
зал	-12543
▁ID	-12544
iece	-12545
ront	-12546
нгел	-12547
▁Fore	-12548
▁bags	-12549
▁reck	-12550
atives	-12551
▁убьет	-12552
▁Honest	-12553
▁фунтов	-12554
▁согласился	-12555
дн	-12556
top	-12557
▁bom	-12558
▁Сво	-12559
▁Оска	-12560
▁выдви	-12561
▁разоз	-12562
▁forces	-12563
▁potential	-12564
▁conference	-12565
часа	-12566
▁Veg	-12567
▁гос	-12568
▁Бере	-12569
▁Неве	-12570
▁univers	-12571
▁библиоте	-12572
▁занимаюсь	-12573
▁Han	-12574
▁Тан	-12575
▁звон	-12576
▁реша	-12577
▁pounds	-12578
▁приближа	-12579
▁political	-12580
▁tradition	-12581
яю	-12582
ждал	-12583
нией	-12584
▁вряд	-12585
▁жила	-12586
▁экза	-12587
▁Might	-12588
▁moves	-12589
▁медсе	-12590
▁серде	-12591
▁процесс	-12592
лор	-12593
▁spin	-12594
▁тему	-12595
▁trash	-12596
▁отстой	-12597
▁удивительно	-12598
▁blew	-12599
▁alien	-12600
▁leads	-12601
▁занята	-12602
▁becoming	-12603
▁Gentlemen	-12604
mar	-12605
▁rush	-12606
▁annoy	-12607
▁схвати	-12608
▁specific	-12609
▁Элизабет	-12610
етт	-12611
▁9:	-12612
▁Kr	-12613
▁gal	-12614
▁Gary	-12615
▁Gray	-12616
лением	-12617
▁trees	-12618
▁remove	-12619
▁настаи	-12620
▁предпоч	-12621
▁Успокойся	-12622
KE	-12623
шок	-12624
тоне	-12625
▁опе	-12626
force	-12627
довлет	-12628
оборот	-12629
▁revol	-12630
▁Викто	-12631
надцать	-12632
▁option	-12633
▁skills	-12634
▁шутишь	-12635
▁правило	-12636
▁Minister	-12637
▁Шу	-12638
▁Сви	-12639
▁ски	-12640
▁игре	-12641
▁руке	-12642
датель	-12643
▁staring	-12644
▁множество	-12645
▁спрашиваю	-12646
mber	-12647
нным	-12648
▁ков	-12649
▁налич	-12650
▁старше	-12651
▁setting	-12652
вшей	-12653
чика	-12654
▁мак	-12655
▁Инди	-12656
▁recent	-12657
▁rescue	-12658
▁Предпо	-12659
▁поступи	-12660
▁приходил	-12661
▁Продолжай	-12662
▁присоединиться	-12663
Ма	-12664
чих	-12665
мость	-12666
▁unus	-12667
▁круг	-12668
▁реги	-12669
▁motor	-12670
▁kissed	-12671
▁mystery	-12672
▁shoulder	-12673
OS	-12674
Oh	-12675
Th	-12676
▁Met	-12677
▁Вен	-12678
▁вор	-12679
iforn	-12680
▁Откры	-12681
▁mental	-12682
▁propos	-12683
▁Оливер	-12684
▁мертвы	-12685
▁foreign	-12686
▁электро	-12687
▁здоровье	-12688
▁находиться	-12689
lig	-12690
wor	-12691
дны	-12692
sell	-12693
▁Брю	-12694
▁Дом	-12695
▁Jenny	-12696
▁lower	-12697
▁церемо	-12698
▁лейтенант	-12699
▁заслуживает	-12700
дну	-12701
gent	-12702
▁Пей	-12703
▁гне	-12704
▁cris	-12705
▁горе	-12706
romise	-12707
▁Леона	-12708
▁мёртв	-12709
▁mirror	-12710
▁switch	-12711
▁Обещаю	-12712
нутся	-12713
рнали	-12714
ipping	-12715
ходила	-12716
▁штата	-12717
▁востор	-12718
▁спиной	-12719
▁ability	-12720
▁установ	-12721
▁princess	-12722
кри	-12723
▁Cos	-12724
▁тип	-12725
даний	-12726
▁вело	-12727
▁вину	-12728
▁Счастли	-12729
▁выиграл	-12730
▁свободу	-12731
▁связаны	-12732
▁соревно	-12733
▁исследования	-12734
лишься	-12735
▁spoken	-12736
▁Patrick	-12737
▁приезжа	-12738
▁фра	-12739
hamed	-12740
▁Pull	-12741
▁Спас	-12742
ipment	-12743
▁лежит	-12744
▁рукой	-12745
▁ancient	-12746
▁начинаю	-12747
▁breathing	-12748
▁sacrifice	-12749
30	-12750
00.	-12751
ales	-12752
▁Нач	-12753
utter	-12754
▁Cool	-12755
▁tied	-12756
▁трое	-12757
▁Monday	-12758
▁Second	-12759
▁mostly	-12760
▁Christian	-12761
▁challenge	-12762
▁financial	-12763
ural	-12764
▁jam	-12765
▁меха	-12766
▁Charl	-12767
▁Elena	-12768
▁alarm	-12769
▁blank	-12770
▁ships	-12771
▁приро	-12772
▁Дорогой	-12773
▁violence	-12774
▁extremely	-12775
?..	-12776
вица	-12777
▁nation	-12778
▁расстоя	-12779
▁учиться	-12780
бься	-12781
ходе	-12782
енные	-12783
▁gall	-12784
▁схва	-12785
щением	-12786
▁concl	-12787
▁убьют	-12788
▁Картер	-12789
▁важнее	-12790
▁confess	-12791
▁Последний	-12792
dra	-12793
▁10:	-12794
▁Повто	-12795
▁chosen	-12796
▁clever	-12797
▁Морган	-12798
▁узнают	-12799
▁28	-12800
▁rap	-12801
влена	-12802
▁одоб	-12803
▁attend	-12804
▁памяти	-12805
▁пытаемся	-12806
▁использовали	-12807
▁дух	-12808
▁dozen	-12809
▁trave	-12810
▁нелег	-12811
ии	-12812
чало	-12813
▁ach	-12814
▁notes	-12815
onsense	-12816
▁колледже	-12817
▁Величество	-12818
▁glo	-12819
▁ult	-12820
▁лжи	-12821
▁warn	-12822
▁преи	-12823
▁experi	-12824
▁Неважно	-12825
▁Зи	-12826
▁punch	-12827
▁Вроде	-12828
▁помол	-12829
▁страх	-12830
▁button	-12831
▁closet	-12832
▁pushed	-12833
▁silver	-12834
▁vision	-12835
▁occasion	-12836
▁32	-12837
illa	-12838
▁breast	-12839
▁зарпла	-12840
▁первом	-12841
▁trapped	-12842
▁красиво	-12843
▁Возвраща	-12844
▁совершил	-12845
▁Play	-12846
▁разор	-12847
utation	-12848
▁вперёд	-12849
▁договор	-12850
▁темпера	-12851
▁пытаются	-12852
▁Мей	-12853
▁fixed	-12854
▁loving	-12855
▁каждом	-12856
▁journal	-12857
▁intelligence	-12858
eng	-12859
▁1.	-12860
▁Тим	-12861
колад	-12862
▁Руки	-12863
пустим	-12864
▁сесть	-12865
▁corpor	-12866
▁Многие	-12867
▁individ	-12868
▁Калифор	-12869
▁equipment	-12870
▁excellent	-12871
фика	-12872
▁Люблю	-12873
▁popular	-12874
▁занятия	-12875
сипе	-12876
▁Lex	-12877
▁Aust	-12878
▁Brad	-12879
▁отста	-12880
▁третий	-12881
▁billion	-12882
▁photograph	-12883
▁зла	-12884
▁Card	-12885
▁едет	-12886
▁couch	-12887
▁virus	-12888
▁Санта	-12889
struction	-12890
▁electric	-12891
▁separate	-12892
▁контракт	-12893
▁fantastic	-12894
ek	-12895
die	-12896
ange	-12897
ifts	-12898
uary	-12899
▁Roman	-12900
▁Попробуй	-12901
▁Obviously	-12902
▁буквально	-12903
мона	-12904
acher	-12905
▁перем	-12906
▁молодо	-12907
▁больницы	-12908
▁сомнения	-12909
lim	-12910
▁Mir	-12911
▁Ange	-12912
▁Аман	-12913
▁уволь	-12914
▁подска	-12915
▁километ	-12916
▁полицейский	-12917
▁Хло	-12918
▁Энн	-12919
форми	-12920
▁Mont	-12921
▁broad	-12922
▁trigger	-12923
ствительно	-12924
▁Yet	-12925
▁уве	-12926
нений	-12927
▁Grant	-12928
▁преле	-12929
▁proced	-12930
▁девять	-12931
▁пытаясь	-12932
бовал	-12933
▁steps	-12934
ongress	-12935
▁поесть	-12936
▁оружием	-12937
▁показал	-12938
adem	-12939
▁Mean	-12940
▁jerk	-12941
▁насе	-12942
▁роли	-12943
▁influ	-12944
▁Молодец	-12945
▁flesh	-12946
▁нашими	-12947
▁Джереми	-12948
▁cleaning	-12949
▁env	-12950
▁Ган	-12951
▁шам	-12952
▁сбро	-12953
ходило	-12954
▁decent	-12955
▁подста	-12956
ona	-12957
▁brown	-12958
▁coach	-12959
▁мошен	-12960
▁напра	-12961
▁chances	-12962
енных	-12963
▁Bull	-12964
▁зубы	-12965
▁прока	-12966
▁Садись	-12967
▁becomes	-12968
▁встретимся	-12969
▁competition	-12970
▁предупредить	-12971
berg	-12972
▁Гло	-12973
баный	-12974
ченный	-12975
▁вмеши	-12976
ifornia	-12977
▁desire	-12978
▁голоса	-12979
▁рассле	-12980
▁пожалуй	-12981
▁поймали	-12982
▁расписа	-12983
reg	-12984
▁row	-12985
▁review	-12986
▁фальши	-12987
▁ответил	-12988
fan	-12989
гнать	-12990
▁армии	-12991
▁перестань	-12992
▁подобного	-12993
нда	-12994
remy	-12995
▁Kar	-12996
▁гло	-12997
▁desert	-12998
▁узнаешь	-12999
▁Internet	-13000
▁Щ	-13001
▁Los	-13002
▁Kore	-13003
erable	-13004
▁спала	-13005
▁обнару	-13006
▁считал	-13007
▁увидит	-13008
▁basement	-13009
▁Серьёзно	-13010
▁таблетки	-13011
fle	-13012
ани	-13013
▁Ta	-13014
becca	-13015
▁Кэти	-13016
▁Элис	-13017
▁сцен	-13018
▁улуч	-13019
▁Larry	-13020
▁Wouldn	-13021
▁version	-13022
▁Довольно	-13023
▁ев	-13024
▁edge	-13025
▁newsp	-13026
▁estate	-13027
▁ashamed	-13028
▁Осторожно	-13029
▁ох	-13030
cover	-13031
▁Blue	-13032
▁slip	-13033
▁Seven	-13034
▁экспер	-13035
▁события	-13036
▁удастся	-13037
▁threatened	-13038
▁доказательств	-13039
лаз	-13040
вале	-13041
▁san	-13042
вычай	-13043
▁двор	-13044
▁ниже	-13045
▁square	-13046
▁камера	-13047
▁diamond	-13048
▁disgusting	-13049
▁Большинство	-13050
▁helps	-13051
▁демон	-13052
▁дорого	-13053
▁хороша	-13054
▁century	-13055
▁впечатление	-13056
До	-13057
жие	-13058
▁фай	-13059
▁МакГ	-13060
▁Джоан	-13061
▁попали	-13062
▁Forgive	-13063
▁материа	-13064
▁witnesses	-13065
▁поведение	-13066
▁LA	-13067
lies	-13068
stein	-13069
▁Эмма	-13070
▁деше	-13071
▁рису	-13072
▁парков	-13073
▁поможешь	-13074
брал	-13075
aylor	-13076
ishop	-13077
ensive	-13078
▁вскры	-13079
▁бояться	-13080
мых	-13081
диви	-13082
▁выро	-13083
▁умею	-13084
ulance	-13085
▁Норма	-13086
▁miracle	-13087
▁Ненавижу	-13088
▁собственно	-13089
mark	-13090
▁Karen	-13091
▁hates	-13092
▁style	-13093
▁Отдай	-13094
▁готово	-13095
▁держит	-13096
▁защища	-13097
▁federal	-13098
▁источник	-13099
▁Ram	-13100
▁Sun	-13101
▁зная	-13102
▁карту	-13103
▁обманы	-13104
▁Neither	-13105
▁Отпусти	-13106
▁Лейтенант	-13107
▁позвольте	-13108
▁Wr	-13109
льзу	-13110
▁шар	-13111
чется	-13112
▁Север	-13113
▁Maggie	-13114
▁постель	-13115
▁сестрой	-13116
▁наблюдения	-13117
зок	-13118
йка	-13119
фли	-13120
чуть	-13121
▁sed	-13122
▁Лиз	-13123
▁wise	-13124
▁brand	-13125
▁slowly	-13126
▁Открой	-13127
▁trusted	-13128
▁требует	-13129
▁millions	-13130
поз	-13131
▁Шеф	-13132
▁твер	-13133
▁ответы	-13134
▁murders	-13135
▁therapy	-13136
▁планете	-13137
▁поисках	-13138
▁написала	-13139
шками	-13140
▁Joey	-13141
▁Стре	-13142
▁moments	-13143
▁включая	-13144
▁кабинете	-13145
сток	-13146
▁dism	-13147
▁wond	-13148
▁подъ	-13149
▁возбу	-13150
▁events	-13151
▁кошмар	-13152
▁пласти	-13153
▁network	-13154
▁невинов	-13155
▁Security	-13156
▁положить	-13157
▁получает	-13158
▁придумал	-13159
▁научиться	-13160
пали	-13161
▁gods	-13162
▁nail	-13163
▁дово	-13164
▁Maria	-13165
▁Счита	-13166
▁залож	-13167
▁встать	-13168
▁выигры	-13169
▁записы	-13170
▁процеду	-13171
▁экономи	-13172
▁identity	-13173
▁одолжение	-13174
cing	-13175
кцию	-13176
▁mat	-13177
▁Кем	-13178
action	-13179
▁candy	-13180
▁Кевин	-13181
▁Можем	-13182
▁думай	-13183
▁целую	-13184
▁бывший	-13185
▁конкур	-13186
▁станции	-13187
▁украсть	-13188
хэ	-13189
сков	-13190
▁даю	-13191
▁occur	-13192
▁Артур	-13193
▁legend	-13194
▁выжить	-13195
▁холодно	-13196
▁разрешения	-13197
agne	-13198
дную	-13199
▁Была	-13200
▁Kelly	-13201
▁потен	-13202
▁судья	-13203
▁houses	-13204
▁Спроси	-13205
▁одиночку	-13206
▁расскажешь	-13207
бря	-13208
▁Ju	-13209
мотр	-13210
▁фиг	-13211
overy	-13212
предел	-13213
▁lover	-13214
▁Харви	-13215
▁отель	-13216
▁песни	-13217
▁девушке	-13218
▁достоин	-13219
▁chocolate	-13220
нутри	-13221
▁Jacob	-13222
▁пусто	-13223
▁Положи	-13224
▁группу	-13225
AM	-13226
▁7:	-13227
that	-13228
▁tum	-13229
▁Крей	-13230
▁заблу	-13231
▁перено	-13232
▁уехала	-13233
▁solution	-13234
▁название	-13235
▁незнаком	-13236
▁позаботиться	-13237
dle	-13238
met	-13239
▁2.	-13240
▁Ат	-13241
▁Кит	-13242
чными	-13243
▁Брат	-13244
▁нали	-13245
рованы	-13246
▁любую	-13247
▁instruct	-13248
▁abandoned	-13249
▁отказаться	-13250
cks	-13251
сию	-13252
▁ля	-13253
▁Круто	-13254
▁шести	-13255
▁сквозь	-13256
▁секреты	-13257
▁Выглядит	-13258
▁неприятно	-13259
aze	-13260
фан	-13261
▁unp	-13262
▁Ethan	-13263
▁anger	-13264
▁bride	-13265
▁фильма	-13266
▁желания	-13267
▁Понимаете	-13268
лял	-13269
вшим	-13270
▁Шер	-13271
▁ерун	-13272
ждении	-13273
▁rooms	-13274
▁Кейси	-13275
▁танцу	-13276
bey	-13277
хан	-13278
▁MY	-13279
▁йо	-13280
▁Генера	-13281
министра	-13282
▁потрясающе	-13283
▁ябло	-13284
станов	-13285
▁Casey	-13286
▁разбу	-13287
▁Castle	-13288
▁найдешь	-13289
▁словами	-13290
▁Otherwise	-13291
шер	-13292
тные	-13293
▁ded	-13294
▁Уай	-13295
▁войне	-13296
▁Чарльз	-13297
▁counsel	-13298
▁пятницу	-13299
▁Кэролайн	-13300
▁сражаться	-13301
9,	-13302
EC	-13303
рно	-13304
▁кно	-13305
▁debt	-13306
▁rise	-13307
▁прим	-13308
omeday	-13309
▁outta	-13310
▁живых	-13311
▁пенси	-13312
▁ударил	-13313
▁обнаружил	-13314
▁remembered	-13315
лим	-13316
щер	-13317
▁Пас	-13318
ливый	-13319
▁анге	-13320
▁опро	-13321
▁именем	-13322
▁придут	-13323
▁провела	-13324
▁announce	-13325
▁deserves	-13326
iated	-13327
дство	-13328
телен	-13329
лилась	-13330
▁sucks	-13331
▁talks	-13332
▁забыли	-13333
▁создал	-13334
▁courage	-13335
▁messages	-13336
uf	-13337
чишь	-13338
▁stink	-13339
▁подра	-13340
▁Rebecca	-13341
▁sisters	-13342
▁корабля	-13343
▁AT	-13344
▁Fe	-13345
cast	-13346
keep	-13347
▁fra	-13348
▁Лан	-13349
нимание	-13350
▁откров	-13351
▁ня	-13352
scar	-13353
▁кот	-13354
▁Best	-13355
▁клет	-13356
▁спину	-13357
▁assure	-13358
▁забавно	-13359
▁направи	-13360
▁велосипе	-13361
▁agreement	-13362
-4	-13363
ого	-13364
▁брю	-13365
ющими	-13366
▁Said	-13367
▁Судь	-13368
▁сокра	-13369
▁обсуждать	-13370
▁совпадение	-13371
пай	-13372
▁pa	-13373
▁гри	-13374
▁Отой	-13375
▁Узна	-13376
uclear	-13377
▁прось	-13378
▁Follow	-13379
▁Jeremy	-13380
▁распоря	-13381
▁вызывает	-13382
▁screaming	-13383
▁friendship	-13384
.?	-13385
ros	-13386
тию	-13387
берт	-13388
йдут	-13389
▁трё	-13390
andom	-13391
класс	-13392
▁print	-13393
▁отвез	-13394
▁субботу	-13395
▁мм	-13396
▁тка	-13397
▁Port	-13398
▁below	-13399
▁ордер	-13400
▁разда	-13401
▁midnight	-13402
▁precious	-13403
жили	-13404
щено	-13405
▁Sara	-13406
▁мона	-13407
ствуешь	-13408
▁найдут	-13409
▁поднять	-13410
▁увидели	-13411
▁Director	-13412
▁Marshall	-13413
5,	-13414
gle	-13415
▁Na	-13416
▁Sa	-13417
mare	-13418
▁Кол	-13419
▁YOUR	-13420
▁phones	-13421
▁спуска	-13422
▁детстве	-13423
▁посреди	-13424
лему	-13425
▁ген	-13426
alley	-13427
▁nurs	-13428
▁тупи	-13429
▁Gibbs	-13430
▁marks	-13431
▁забро	-13432
▁policy	-13433
▁крайне	-13434
▁увидите	-13435
▁возраста	-13436
За	-13437
гают	-13438
пьем	-13439
ссию	-13440
▁Mos	-13441
▁Such	-13442
▁углу	-13443
▁teaching	-13444
▁стараюсь	-13445
▁Разумеется	-13446
ква	-13447
onse	-13448
влять	-13449
▁Helen	-13450
▁Лорен	-13451
▁завед	-13452
▁guards	-13453
▁заполу	-13454
▁обезья	-13455
▁alcohol	-13456
▁darkness	-13457
▁Оставьте	-13458
▁Department	-13459
стки	-13460
щите	-13461
гаешь	-13462
▁wide	-13463
▁моря	-13464
▁подс	-13465
▁союз	-13466
▁волос	-13467
▁сзади	-13468
▁улицы	-13469
▁effort	-13470
▁твоими	-13471
▁unusual	-13472
▁перерыв	-13473
▁вернётся	-13474
▁ненавидит	-13475
юар	-13476
▁Мир	-13477
логии	-13478
▁task	-13479
▁Мини	-13480
▁беру	-13481
▁сере	-13482
▁offering	-13483
▁wha	-13484
▁Типа	-13485
▁Ужас	-13486
▁curse	-13487
▁идите	-13488
▁Island	-13489
▁crimes	-13490
▁horses	-13491
▁объеди	-13492
▁parties	-13493
▁оказалась	-13494
▁California	-13495
▁confession	-13496
kward	-13497
никам	-13498
▁поверь	-13499
лоу	-13500
тная	-13501
▁еже	-13502
зости	-13503
▁qual	-13504
▁Твое	-13505
▁Супер	-13506
▁занять	-13507
▁Anybody	-13508
▁escaped	-13509
▁страхов	-13510
▁потребуется	-13511
loe	-13512
▁Люк	-13513
▁вес	-13514
▁кок	-13515
▁чушь	-13516
▁Земле	-13517
▁оборо	-13518
venture	-13519
▁Almost	-13520
▁Catherine	-13521
▁собственный	-13522
зопас	-13523
лению	-13524
▁Howard	-13525
▁детали	-13526
▁модель	-13527
▁сверху	-13528
▁beating	-13529
▁carefully	-13530
ым	-13531
пка	-13532
▁Слы	-13533
▁чек	-13534
тельны	-13535
▁поспо	-13536
▁Федера	-13537
▁съесть	-13538
▁справлюсь	-13539
льс	-13540
▁Kl	-13541
▁Бэ	-13542
зино	-13543
▁Hom	-13544
▁сго	-13545
▁любез	-13546
▁разоб	-13547
ception	-13548
▁заплатил	-13549
▁получите	-13550
▁successful	-13551
ev	-13552
ola	-13553
уса	-13554
acks	-13555
eaks	-13556
▁196	-13557
▁Rus	-13558
даешь	-13559
▁soup	-13560
▁пари	-13561
▁Julia	-13562
▁solid	-13563
▁useful	-13564
▁Говорю	-13565
▁отвлека	-13566
стям	-13567
illed	-13568
usive	-13569
▁шансы	-13570
▁smells	-13571
▁репети	-13572
слов	-13573
agger	-13574
ittee	-13575
ordin	-13576
ваний	-13577
▁Fair	-13578
▁Jose	-13579
▁вред	-13580
▁Поста	-13581
▁поедем	-13582
▁заметила	-13583
▁authority	-13584
▁2:	-13585
▁rot	-13586
▁pump	-13587
▁Лука	-13588
▁cloud	-13589
▁ocean	-13590
▁Карен	-13591
▁живой	-13592
▁обмен	-13593
▁чудес	-13594
▁affect	-13595
▁искрен	-13596
▁холоди	-13597
▁judgment	-13598
▁interrupt	-13599
▁программу	-13600
▁прекрасная	-13601
AL	-13602
рои	-13603
спу	-13604
itar	-13605
pson	-13606
▁дают	-13607
▁водой	-13608
▁messed	-13609
▁library	-13610
▁pleased	-13611
▁просыпа	-13612
▁странное	-13613
▁настоящие	-13614
UR	-13615
edy	-13616
▁Убе	-13617
▁бух	-13618
▁Стоп	-13619
▁route	-13620
▁горло	-13621
▁земля	-13622
▁остан	-13623
▁пахнет	-13624
▁судьба	-13625
▁замужем	-13626
▁неловко	-13627
▁останешься	-13628
▁Объ	-13629
▁mama	-13630
▁flash	-13631
▁людях	-13632
▁собак	-13633
▁basket	-13634
▁предназна	-13635
▁профессор	-13636
гий	-13637
▁уз	-13638
ador	-13639
ours	-13640
▁zero	-13641
▁удоб	-13642
▁range	-13643
▁Harvey	-13644
▁проблему	-13645
▁36	-13646
uate	-13647
ulse	-13648
▁Tre	-13649
▁exha	-13650
▁kills	-13651
▁звоню	-13652
▁cooking	-13653
▁cutting	-13654
▁Проверь	-13655
▁Странно	-13656
▁привяза	-13657
▁умирать	-13658
▁катастро	-13659
▁мальчики	-13660
▁je	-13661
hern	-13662
чнее	-13663
▁Бёр	-13664
▁porn	-13665
▁Спен	-13666
▁armed	-13667
▁birds	-13668
▁совра	-13669
▁призра	-13670
▁очки	-13671
раздел	-13672
▁папой	-13673
▁хрень	-13674
▁Leonard	-13675
▁properly	-13676
VER	-13677
зей	-13678
ься	-13679
шено	-13680
▁pie	-13681
clock	-13682
▁водо	-13683
▁Jamie	-13684
▁depos	-13685
▁backup	-13686
▁regist	-13687
▁individual	-13688
iac	-13689
вла	-13690
вёр	-13691
зву	-13692
▁Drop	-13693
▁штук	-13694
клятье	-13695
телось	-13696
телями	-13697
▁стоял	-13698
▁каждым	-13699
▁prisoner	-13700
▁officially	-13701
▁занимаешься	-13702
▁разговаривал	-13703
чия	-13704
кона	-13705
▁сно	-13706
▁Nathan	-13707
▁средства	-13708
▁mere	-13709
▁обви	-13710
▁духов	-13711
▁Mexico	-13712
▁dumped	-13713
▁explan	-13714
▁обвини	-13715
▁отвезти	-13716
▁possibility	-13717
стен	-13718
▁Kyle	-13719
способ	-13720
▁Smith	-13721
▁школа	-13722
▁собаку	-13723
▁старой	-13724
▁ненадолго	-13725
▁следующем	-13726
eds	-13727
▁шкаф	-13728
▁blast	-13729
▁признаться	-13730
бере	-13731
▁bum	-13732
▁Fort	-13733
▁craw	-13734
▁tank	-13735
▁адре	-13736
▁поду	-13737
▁Ларри	-13738
▁Марша	-13739
▁поцело	-13740
▁concent	-13741
▁stranger	-13742
▁личность	-13743
known	-13744
ванию	-13745
▁веще	-13746
▁иску	-13747
▁sales	-13748
▁брось	-13749
▁невер	-13750
▁метров	-13751
▁найдём	-13752
▁fashion	-13753
▁команди	-13754
▁корпора	-13755
▁creature	-13756
▁преимуще	-13757
ij	-13758
рс	-13759
▁GPS	-13760
rance	-13761
чками	-13762
▁econ	-13763
▁junk	-13764
▁Мекси	-13765
▁Amanda	-13766
▁reward	-13767
ственных	-13768
▁отпустить	-13769
rier	-13770
▁lob	-13771
▁бен	-13772
▁corn	-13773
стоять	-13774
▁thief	-13775
ironment	-13776
▁Matthew	-13777
▁failure	-13778
▁выгляжу	-13779
▁нелегко	-13780
▁счастье	-13781
▁спросила	-13782
▁вдо	-13783
▁east	-13784
▁мото	-13785
▁врать	-13786
▁зерка	-13787
▁редко	-13788
▁цвета	-13789
▁Coming	-13790
▁arrive	-13791
▁скучно	-13792
▁Убирайся	-13793
▁добиться	-13794
▁decisions	-13795
win	-13796
▁CH	-13797
▁Ры	-13798
▁Собира	-13799
▁жестоко	-13800
▁недоста	-13801
▁готовить	-13802
ленных	-13803
▁Child	-13804
▁Death	-13805
▁драго	-13806
▁пошло	-13807
▁помогла	-13808
▁интересует	-13809
ifer	-13810
носи	-13811
щены	-13812
▁Заба	-13813
рована	-13814
▁Quick	-13815
▁товари	-13816
▁trained	-13817
▁Неплохо	-13818
сель	-13819
▁Высо	-13820
▁Грин	-13821
▁kinds	-13822
▁nasty	-13823
▁месье	-13824
▁техни	-13825
▁поставил	-13826
▁рассматри	-13827
▁определить	-13828
гим	-13829
▁затк	-13830
▁Oscar	-13831
▁knees	-13832
fortable	-13833
▁knocked	-13834
▁популяр	-13835
▁approach	-13836
▁survived	-13837
уп	-13838
рых	-13839
iano	-13840
iper	-13841
▁var	-13842
▁item	-13843
▁отор	-13844
▁фигу	-13845
▁skull	-13846
▁верто	-13847
▁terrif	-13848
▁Четыре	-13849
▁besides	-13850
▁отказался	-13851
дине	-13852
▁Гон	-13853
▁мора	-13854
▁Снова	-13855
▁thrown	-13856
▁подряд	-13857
▁будущего	-13858
▁неизвест	-13859
▁последнюю	-13860
▁необходимости	-13861
пры	-13862
чён	-13863
▁mercy	-13864
▁вещах	-13865
▁surface	-13866
▁winning	-13867
▁entertain	-13868
дд	-13869
amps	-13870
reck	-13871
гана	-13872
нями	-13873
щена	-13874
▁гер	-13875
лость	-13876
ренер	-13877
▁babe	-13878
▁Taylor	-13879
▁repeat	-13880
▁отдыха	-13881
зительно	-13882
▁Помните	-13883
▁дочерью	-13884
▁благотвори	-13885
▁Действительно	-13886
кает	-13887
нель	-13888
▁Les	-13889
▁гар	-13890
нного	-13891
▁Need	-13892
▁alib	-13893
▁вдво	-13894
inting	-13895
▁Денни	-13896
▁давление	-13897
▁searching	-13898
tle	-13899
жкой	-13900
▁Бэй	-13901
▁преу	-13902
▁minds	-13903
▁Молли	-13904
▁проче	-13905
▁border	-13906
▁Sheriff	-13907
▁package	-13908
▁закрыть	-13909
▁оказались	-13910
ado	-13911
▁AS	-13912
▁bid	-13913
▁Кре	-13914
чиков	-13915
▁dece	-13916
▁liber	-13917
▁будьте	-13918
▁наружу	-13919
▁неудоб	-13920
▁сериале	-13921
▁facility	-13922
▁говорится	-13923
▁Единственное	-13924
▁воспользоваться	-13925
виа	-13926
вано	-13927
▁Хри	-13928
▁tast	-13929
▁Molly	-13930
▁refer	-13931
▁Замеча	-13932
▁облажа	-13933
▁проект	-13934
▁привело	-13935
▁удовлет	-13936
▁constant	-13937
▁Проблема	-13938
eer	-13939
санд	-13940
▁Rich	-13941
▁Тихо	-13942
резать	-13943
▁замок	-13944
▁транс	-13945
▁займет	-13946
▁журнали	-13947
▁opposite	-13948
ito	-13949
▁веж	-13950
▁dirt	-13951
▁sale	-13952
▁Джош	-13953
▁exerc	-13954
▁brains	-13955
▁factory	-13956
▁наблюдать	-13957
▁understanding	-13958
▁Bay	-13959
▁Ари	-13960
▁зря	-13961
alled	-13962
rison	-13963
▁Scot	-13964
▁логи	-13965
▁шпио	-13966
▁Мэгги	-13967
▁Профе	-13968
▁batter	-13969
▁candid	-13970
▁установить	-13971
▁disappointed	-13972
▁Aye	-13973
▁Cop	-13974
мости	-13975
▁игно	-13976
▁facts	-13977
▁Cheers	-13978
▁Though	-13979
▁SO	-13980
мусь	-13981
▁Ohh	-13982
▁vul	-13983
▁дне	-13984
▁Calm	-13985
▁Звез	-13986
believ	-13987
giving	-13988
дилась	-13989
▁Madam	-13990
▁женат	-13991
▁Honestly	-13992
зки	-13993
жайте	-13994
▁seek	-13995
▁выку	-13996
▁алиби	-13997
▁ничем	-13998
▁звонит	-13999
▁rape	-14000
▁днев	-14001
▁stake	-14002
▁tears	-14003
▁нанял	-14004
▁всякий	-14005
▁предъя	-14006
▁болезни	-14007
▁чрезвычай	-14008
▁несчастный	-14009
▁coincidence	-14010
non	-14011
▁Ќо	-14012
pect	-14013
шены	-14014
▁Jord	-14015
▁плюс	-14016
▁трёх	-14017
ордина	-14018
▁Поско	-14019
▁fallen	-14020
▁refuse	-14021
▁consequ	-14022
▁Америке	-14023
▁приняли	-14024
▁побольше	-14025
▁рисковать	-14026
OME	-14027
▁6:	-14028
▁Us	-14029
amin	-14030
anks	-14031
линг	-14032
сать	-14033
▁Dick	-14034
▁swing	-14035
▁сообщ	-14036
▁resour	-14037
▁удержи	-14038
▁proceed	-14039
▁profile	-14040
▁захотел	-14041
▁участие	-14042
▁начинать	-14043
▁considering	-14044
RI	-14045
cend	-14046
ianc	-14047
читать	-14048
▁media	-14049
▁прояс	-14050
▁senior	-14051
▁открыл	-14052
▁hundreds	-14053
▁services	-14054
▁директор	-14055
▁капитана	-14056
▁ambulance	-14057
▁страшного	-14058
▁используют	-14059
чис	-14060
▁Мэн	-14061
ровку	-14062
endent	-14063
▁дождь	-14064
▁индей	-14065
▁молод	-14066
stitute	-14067
▁Позвони	-14068
▁грузовик	-14069
▁спрашивать	-14070
▁Sad	-14071
гнали	-14072
▁-...	-14073
▁duck	-14074
▁погру	-14075
▁чёрта	-14076
▁removed	-14077
▁friendly	-14078
▁мистером	-14079
▁подумали	-14080
▁guarantee	-14081
▁вернешься	-14082
▁встретила	-14083
▁арестовали	-14084
▁протяжении	-14085
▁разрешение	-14086
▁£	-14087
box	-14088
зра	-14089
load	-14090
нился	-14091
▁Bell	-14092
▁Pick	-14093
▁tend	-14094
▁Малы	-14095
зовите	-14096
▁China	-14097
▁Иисус	-14098
▁удачи	-14099
▁усили	-14100
▁Church	-14101
▁sometime	-14102
▁treasure	-14103
▁recommend	-14104
utor	-14105
▁Pier	-14106
▁rude	-14107
вность	-14108
▁chain	-14109
▁тепло	-14110
тографи	-14111
▁столом	-14112
standing	-14113
▁степени	-14114
▁impression	-14115
лат	-14116
▁ца	-14117
жись	-14118
▁NOT	-14119
▁wra	-14120
▁anal	-14121
гистри	-14122
▁Going	-14123
▁Филип	-14124
▁остров	-14125
▁скучать	-14126
▁путешествие	-14127
Ка	-14128
йн	-14129
бах	-14130
делы	-14131
uable	-14132
▁Алан	-14133
▁желу	-14134
▁Turns	-14135
▁Совет	-14136
▁беско	-14137
▁напал	-14138
▁госпита	-14139
▁подозри	-14140
▁наслажда	-14141
▁ощущение	-14142
▁согласно	-14143
При	-14144
▁Ang	-14145
▁arch	-14146
▁lung	-14147
▁wave	-14148
▁кара	-14149
▁сове	-14150
▁сукин	-14151
▁подстре	-14152
▁полчаса	-14153
▁связыва	-14154
▁появились	-14155
ulf	-14156
▁$5	-14157
льда	-14158
▁фла	-14159
▁скло	-14160
▁Brown	-14161
▁болит	-14162
▁рожде	-14163
▁Adrian	-14164
▁Cooper	-14165
▁stairs	-14166
▁Постой	-14167
▁сумасшедший	-14168
жён	-14169
asha	-14170
года	-14171
▁сня	-14172
▁assass	-14173
▁Будешь	-14174
▁pushing	-14175
▁доверяю	-14176
▁правосу	-14177
▁девчонка	-14178
итя	-14179
issa	-14180
ussy	-14181
ваку	-14182
▁bye	-14183
▁mal	-14184
istan	-14185
давно	-14186
▁bump	-14187
▁blond	-14188
▁consp	-14189
▁ждала	-14190
▁random	-14191
▁unlike	-14192
▁Быстро	-14193
▁близки	-14194
▁conduct	-14195
▁greater	-14196
▁violent	-14197
▁кримина	-14198
▁заметили	-14199
▁сегодняш	-14200
▁26	-14201
гули	-14202
перт	-14203
▁пост	-14204
▁юриди	-14205
▁stands	-14206
▁нахожу	-14207
▁первые	-14208
▁robbery	-14209
▁получим	-14210
▁Princess	-14211
▁designed	-14212
▁контролем	-14213
▁подождите	-14214
няю	-14215
imony	-14216
▁заслу	-14217
▁рецеп	-14218
▁строи	-14219
▁штуку	-14220
▁надеть	-14221
arehouse	-14222
▁праздник	-14223
CH	-14224
▁Ог	-14225
ique	-14226
▁anx	-14227
▁уку	-14228
oting	-14229
точку	-14230
▁squad	-14231
▁Краси	-14232
▁Самое	-14233
▁проща	-14234
ступать	-14235
▁prints	-14236
▁игнори	-14237
▁сопрово	-14238
2,	-14239
одо	-14240
▁Tri	-14241
▁Уни	-14242
йдете	-14243
▁Ital	-14244
▁liqu	-14245
lished	-14246
▁держа	-14247
▁hearts	-14248
▁отмети	-14249
▁Perfect	-14250
▁согласна	-14251
▁Charlotte	-14252
▁delicious	-14253
▁reputation	-14254
бя	-14255
ёк	-14256
▁Голо	-14257
▁joined	-14258
▁riding	-14259
UST	-14260
энд	-14261
гани	-14262
кцио	-14263
▁ищешь	-14264
▁indust	-14265
▁футбол	-14266
▁пройдет	-14267
▁волнуйтесь	-14268
▁устройство	-14269
вляю	-14270
ковые	-14271
чений	-14272
чился	-14273
▁пишу	-14274
▁прет	-14275
▁bored	-14276
▁shake	-14277
▁выходить	-14278
▁пропустил	-14279
жек	-14280
син	-14281
away	-14282
essa	-14283
rane	-14284
няют	-14285
решь	-14286
шена	-14287
▁дея	-14288
▁коз	-14289
▁взро	-14290
▁невы	-14291
▁shield	-14292
▁Сестра	-14293
▁вызыва	-14294
▁however	-14295
▁useless	-14296
▁проверил	-14297
сис	-14298
▁Дя	-14299
▁ple	-14300
icing	-14301
ждены	-14302
▁Club	-14303
▁lips	-14304
▁yellow	-14305
▁матема	-14306
EL	-14307
isy	-14308
▁Рой	-14309
▁Обра	-14310
ступил	-14311
▁сумку	-14312
▁содержа	-14313
▁wherever	-14314
люб	-14315
▁ке	-14316
ownt	-14317
▁gig	-14318
▁Бля	-14319
ллиан	-14320
▁fruit	-14321
▁Донна	-14322
▁напол	-14323
▁Мишель	-14324
▁компью	-14325
▁прибыли	-14326
▁nightmare	-14327
▁извинения	-14328
▁расстроен	-14329
ял	-14330
▁хол	-14331
▁scen	-14332
▁копы	-14333
▁studio	-14334
▁лагерь	-14335
▁предот	-14336
▁Подумай	-14337
▁audience	-14338
▁пациентов	-14339
▁television	-14340
▁познакомились	-14341
.'	-14342
бый	-14343
▁3:	-14344
▁хит	-14345
▁Liam	-14346
▁сети	-14347
▁cerem	-14348
▁верит	-14349
▁underw	-14350
▁Джейми	-14351
▁гостей	-14352
▁новень	-14353
▁оставь	-14354
▁awkward	-14355
▁reported	-14356
▁intention	-14357
IR	-14358
hia	-14359
лке	-14360
какие	-14361
▁Такая	-14362
▁Hannah	-14363
▁личное	-14364
▁silence	-14365
▁спрашивал	-14366
onym	-14367
▁Ali	-14368
▁Aud	-14369
▁Пор	-14370
▁древ	-14371
▁strate	-14372
▁дышать	-14373
▁receive	-14374
▁пальцев	-14375
▁environment	-14376
▁отправиться	-14377
azz	-14378
кен	-14379
рал	-14380
мора	-14381
▁Фели	-14382
▁непре	-14383
▁подня	-14384
▁hitting	-14385
▁совершен	-14386
▁экра	-14387
▁Brook	-14388
▁juice	-14389
▁metal	-14390
▁songs	-14391
▁самую	-14392
новения	-14393
новятся	-14394
▁leading	-14395
▁выслуша	-14396
▁reaction	-14397
▁доставить	-14398
▁небольшая	-14399
▁pretending	-14400
▁единственным	-14401
ые	-14402
зья	-14403
граф	-14404
чите	-14405
▁sail	-14406
▁sink	-14407
▁нови	-14408
довали	-14409
▁клубе	-14410
▁coward	-14411
▁supply	-14412
▁шоколад	-14413
▁controll	-14414
▁Americans	-14415
3,	-14416
был	-14417
шный	-14418
▁400	-14419
▁Camp	-14420
▁Free	-14421
▁Gord	-14422
▁Lock	-14423
▁Вален	-14424
▁совпа	-14425
▁hurting	-14426
праведливо	-14427
ссом	-14428
▁10.	-14429
▁Ада	-14430
ained	-14431
▁Duke	-14432
▁west	-14433
▁трах	-14434
ashing	-14435
▁вмеша	-14436
▁начну	-14437
▁плачу	-14438
▁приоб	-14439
▁проек	-14440
▁Stefan	-14441
▁Jessica	-14442
▁crossed	-14443
▁контакт	-14444
▁натвори	-14445
▁разберусь	-14446
▁uncomfortable	-14447
bar	-14448
▁2,	-14449
жное	-14450
▁зал	-14451
▁палец	-14452
▁Роджер	-14453
▁владель	-14454
▁пристре	-14455
▁хороших	-14456
▁квартиры	-14457
▁возвращается	-14458
фт	-14459
▁Тя	-14460
▁Ann	-14461
▁хуй	-14462
▁лицу	-14463
▁shout	-14464
▁умный	-14465
▁reject	-14466
▁боится	-14467
▁искали	-14468
▁carried	-14469
▁nuclear	-14470
▁require	-14471
▁господи	-14472
onn	-14473
▁Ќе	-14474
▁vag	-14475
▁ана	-14476
▁Вижу	-14477
▁конфи	-14478
▁wounds	-14479
▁smoking	-14480
▁meantime	-14481
▁suspicious	-14482
sl	-14483
cho	-14484
май	-14485
wife	-14486
▁ves	-14487
▁Мать	-14488
▁белый	-14489
▁богат	-14490
▁отеля	-14491
▁чёрто	-14492
▁поработать	-14493
▁3.	-14494
venue	-14495
▁Save	-14496
▁лето	-14497
▁отом	-14498
▁ящик	-14499
ulated	-14500
▁билеты	-14501
▁пальцы	-14502
▁планеты	-14503
▁stopping	-14504
Что	-14505
лго	-14506
tery	-14507
илась	-14508
▁Шери	-14509
▁марш	-14510
▁скор	-14511
▁alert	-14512
▁tooth	-14513
▁извра	-14514
▁method	-14515
▁Вопрос	-14516
▁коктей	-14517
▁лошадь	-14518
▁тратить	-14519
▁response	-14520
вела	-14521
▁Hill	-14522
▁Soph	-14523
▁eter	-14524
словно	-14525
▁tempor	-14526
▁приклю	-14527
▁представление	-14528
ases	-14529
▁Emp	-14530
▁Чен	-14531
ureau	-14532
▁зама	-14533
ivered	-14534
▁Класс	-14535
▁умеешь	-14536
▁Finally	-14537
▁проверю	-14538
▁странный	-14539
▁встретить	-14540
▁занимались	-14541
аря	-14542
шусь	-14543
нском	-14544
▁Half	-14545
▁идём	-14546
▁Andre	-14547
▁eaten	-14548
▁желез	-14549
▁анализ	-14550
▁словам	-14551
▁членов	-14552
▁обвинение	-14553
ЕН	-14554
роу	-14555
поли	-14556
▁Papa	-14557
▁роде	-14558
зиться	-14559
▁Jenna	-14560
▁болен	-14561
▁Лондон	-14562
▁боялся	-14563
▁свадеб	-14564
▁consult	-14565
▁напоминает	-14566
атр	-14567
▁щи	-14568
▁Кал	-14569
▁Close	-14570
▁Vegas	-14571
▁guilt	-14572
▁стене	-14573
▁intend	-14574
▁motive	-14575
▁council	-14576
▁условия	-14577
▁покончить	-14578
▁explanation	-14579
▁Единственный	-14580
орма	-14581
шают	-14582
▁Gil	-14583
▁Сме	-14584
чника	-14585
▁clue	-14586
▁fasc	-14587
▁mask	-14588
▁розы	-14589
▁чемо	-14590
▁борту	-14591
▁коридо	-14592
▁департа	-14593
▁сокрови	-14594
▁professor	-14595
▁Поскольку	-14596
филд	-14597
▁conc	-14598
▁Игра	-14599
▁cruel	-14600
▁suffe	-14601
▁Instead	-14602
▁nonsense	-14603
▁thy	-14604
▁Росс	-14605
▁Само	-14606
▁элем	-14607
▁глава	-14608
▁Деньги	-14609
▁девочку	-14610
▁заберем	-14611
▁betrayed	-14612
▁delivery	-14613
▁наоборот	-14614
▁background	-14615
▁почувствовать	-14616
▁Ум	-14617
etic	-14618
ллин	-14619
▁Fer	-14620
▁Boss	-14621
▁Joan	-14622
▁названием	-14623
▁разрушить	-14624
▁счастливой	-14625
tes	-14626
ums	-14627
▁LI	-14628
usted	-14629
▁shoe	-14630
▁спец	-14631
uesday	-14632
ваемся	-14633
▁оскорб	-14634
▁простой	-14635
▁embarrassed	-14636
ech	-14637
▁et	-14638
▁zone	-14639
▁скон	-14640
личный	-14641
чивать	-14642
▁sports	-14643
▁winter	-14644
▁monitor	-14645
▁последнего	-14646
0,	-14647
дио	-14648
allow	-14649
▁Твою	-14650
▁здра	-14651
▁режи	-14652
▁falls	-14653
▁Джонс	-14654
▁друже	-14655
▁Wilson	-14656
▁поиски	-14657
▁сильный	-14658
▁National	-14659
▁sandwich	-14660
▁свидетелей	-14661
гни	-14662
рите	-14663
▁маги	-14664
▁серий	-14665
▁castle	-14666
▁fourth	-14667
ological	-14668
▁величай	-14669
▁исключением	-14670
ане	-14671
мол	-14672
▁лы	-14673
▁Land	-14674
ursday	-14675
▁Хелен	-14676
▁ранее	-14677
▁Stephen	-14678
▁Франции	-14679
▁корабле	-14680
▁terrorist	-14681
▁телевизор	-14682
лейн	-14683
ломи	-14684
▁Мэм	-14685
▁лёг	-14686
▁Dale	-14687
▁bury	-14688
▁навы	-14689
▁Marty	-14690
▁ходит	-14691
looking	-14692
▁victory	-14693
▁psycholog	-14694
▁маленькую	-14695
7,	-14696
▁II	-14697
▁дур	-14698
▁Span	-14699
▁позо	-14700
▁своя	-14701
▁Милый	-14702
▁живым	-14703
▁Carrie	-14704
▁ignore	-14705
▁умерли	-14706
▁lawyers	-14707
▁windows	-14708
▁Наверно	-14709
▁захвати	-14710
▁объясняет	-14711
▁отправили	-14712
▁Пой	-14713
▁Мадам	-14714
▁modern	-14715
▁contest	-14716
▁garbage	-14717
▁KN	-14718
icia	-14719
▁Вра	-14720
▁акт	-14721
стная	-14722
▁Dead	-14723
▁load	-14724
▁начи	-14725
▁stret	-14726
▁стоят	-14727
▁живешь	-14728
▁заберу	-14729
▁закона	-14730
▁Victoria	-14731
▁believes	-14732
▁tracking	-14733
▁работаете	-14734
▁результат	-14735
ENT	-14736
mes	-14737
ifth	-14738
ньте	-14739
▁Dri	-14740
▁Spr	-14741
▁сан	-14742
icles	-14743
летом	-14744
шении	-14745
▁deny	-14746
▁вспы	-14747
▁зате	-14748
▁stays	-14749
▁умеет	-14750
▁vessel	-14751
▁лучшей	-14752
▁терапи	-14753
▁selfish	-14754
▁доктором	-14755
▁наркотиков	-14756
bra	-14757
бым	-14758
▁Ian	-14759
andal	-14760
▁mole	-14761
▁заново	-14762
▁любите	-14763
▁massive	-14764
▁малышка	-14765
▁проголо	-14766
▁последним	-14767
мере	-14768
окну	-14769
inist	-14770
▁Send	-14771
▁Toby	-14772
▁Роуз	-14773
▁днём	-14774
▁warri	-14775
▁вышли	-14776
▁истин	-14777
▁порно	-14778
▁сцену	-14779
▁призем	-14780
▁closing	-14781
▁Женщина	-14782
▁исключи	-14783
▁argument	-14784
▁заставила	-14785
▁performance	-14786
nda	-14787
нал	-14788
▁Face	-14789
▁нала	-14790
▁ядер	-14791
▁divor	-14792
▁хрено	-14793
▁Jordan	-14794
▁Король	-14795
▁искала	-14796
▁Большой	-14797
▁нравилось	-14798
rid	-14799
▁мясо	-14800
▁поля	-14801
спубли	-14802
▁Quinn	-14803
▁загру	-14804
▁нетер	-14805
▁ремон	-14806
▁дорога	-14807
onscious	-14808
сомненно	-14809
▁learning	-14810
▁разочарова	-14811
ОН	-14812
▁THIS	-14813
▁dish	-14814
▁serial	-14815
▁Дэниел	-14816
▁большее	-14817
хло	-14818
zing	-14819
джет	-14820
▁Naz	-14821
▁Кэм	-14822
ppers	-14823
▁пьян	-14824
▁суть	-14825
▁Призна	-14826
▁отпуск	-14827
▁выбрала	-14828
▁пропала	-14829
Но	-14830
nity	-14831
usty	-14832
ysis	-14833
▁Rod	-14834
▁symp	-14835
▁Богом	-14836
▁молча	-14837
▁любимая	-14838
▁document	-14839
▁confidence	-14840
agon	-14841
iable	-14842
руется	-14843
▁purse	-14844
▁collap	-14845
▁водите	-14846
▁шампан	-14847
▁options	-14848
▁pattern	-14849
▁похорон	-14850
▁fingerpr	-14851
OD	-14852
ima	-14853
бре	-14854
жко	-14855
otes	-14856
дёшь	-14857
рони	-14858
▁forb	-14859
▁shel	-14860
▁архи	-14861
планет	-14862
потреб	-14863
▁лидер	-14864
▁макси	-14865
▁молит	-14866
▁стены	-14867
▁Monica	-14868
▁Virgin	-14869
▁article	-14870
▁charged	-14871
▁chasing	-14872
believable	-14873
gl	-14874
ups	-14875
жая	-14876
▁nut	-14877
atched	-14878
▁Damon	-14879
▁офици	-14880
▁Marcus	-14881
▁transm	-14882
ствовали	-14883
▁минимум	-14884
▁неожиданно	-14885
▁участвовать	-14886
лью	-14887
ённо	-14888
▁дли	-14889
рился	-14890
▁goal	-14891
▁спут	-14892
▁цени	-14893
▁laund	-14894
▁спишь	-14895
▁Friend	-14896
▁circle	-14897
▁причину	-14898
▁pathetic	-14899
даем	-14900
▁Liz	-14901
▁деб	-14902
▁surre	-14903
▁запад	-14904
▁agency	-14905
▁поцелу	-14906
▁choices	-14907
▁offense	-14908
▁надежда	-14909
▁огромное	-14910
▁уха	-14911
ights	-14912
▁найдет	-14913
▁Джексон	-14914
▁событий	-14915
▁личности	-14916
Мы	-14917
дий	-14918
ппа	-14919
▁Зе	-14920
hatt	-14921
стят	-14922
▁Лоу	-14923
▁суме	-14924
▁съем	-14925
▁Елена	-14926
▁терять	-14927
▁identify	-14928
▁заключен	-14929
▁confirmed	-14930
▁Невероятно	-14931
▁встречался	-14932
▁:	-14933
▁щ	-14934
rial	-14935
▁11:	-14936
▁Sat	-14937
prise	-14938
▁Вами	-14939
▁вход	-14940
▁диск	-14941
▁начн	-14942
▁Marie	-14943
▁sides	-14944
▁warned	-14945
▁заняты	-14946
▁Getting	-14947
▁digging	-14948
▁водитель	-14949
▁поиграть	-14950
wr	-14951
ams	-14952
rell	-14953
твор	-14954
чиво	-14955
▁Sol	-14956
ushing	-14957
▁плана	-14958
orgeous	-14959
▁защиту	-14960
▁мотоци	-14961
▁торопи	-14962
▁пассажи	-14963
▁хранить	-14964
▁suffered	-14965
▁неправда	-14966
▁приходят	-14967
▁развлека	-14968
▁послушать	-14969
▁fab	-14970
ишься	-14971
▁hits	-14972
▁lake	-14973
▁pink	-14974
▁Лиза	-14975
▁River	-14976
▁crown	-14977
▁frank	-14978
▁placed	-14979
▁дерево	-14980
▁запута	-14981
▁процен	-14982
▁accused	-14983
▁свадьбе	-14984
тар	-14985
▁Chloe	-14986
▁Derek	-14987
▁миром	-14988
inating	-14989
▁Jackie	-14990
▁silent	-14991
▁здании	-14992
▁succeed	-14993
▁внимательно	-14994
▁ner	-14995
▁зме	-14996
▁вины	-14997
▁Judge	-14998
▁силой	-14999
▁Элисон	-15000
▁Looking	-15001
▁systems	-15002
▁torture	-15003
▁дедушка	-15004
▁красивый	-15005
▁маленьким	-15006
▁motherfucker	-15007
нц	-15008
bie	-15009
▁NO	-15010
жечь	-15011
▁цве	-15012
▁бейс	-15013
▁богу	-15014
▁Джеки	-15015
▁Новый	-15016
▁клуба	-15017
▁стату	-15018
vention	-15019
▁mechan	-15020
▁writer	-15021
▁простить	-15022
▁расследования	-15023
рас	-15024
pting	-15025
▁rehe	-15026
▁пары	-15027
▁заказ	-15028
▁Прощай	-15029
▁cleared	-15030
▁надолго	-15031
▁предоста	-15032
тное	-15033
▁Гас	-15034
▁HAVE	-15035
▁исте	-15036
кройте	-15037
▁Джейм	-15038
▁Париж	-15039
▁годов	-15040
▁Juliet	-15041
▁образе	-15042
▁продал	-15043
▁украли	-15044
▁позволит	-15045
жную	-15046
зами	-15047
▁баш	-15048
▁loan	-15049
▁мани	-15050
▁stalk	-15051
▁Каким	-15052
▁наибо	-15053
▁shadow	-15054
▁Thursday	-15055
▁activity	-15056
▁маленьких	-15057
▁поддержки	-15058
▁продолжить	-15059
жье	-15060
▁gro	-15061
▁sav	-15062
▁Дик	-15063
летел	-15064
▁Cole	-15065
▁asks	-15066
▁alibi	-15067
▁potato	-15068
▁общаться	-15069
▁сработало	-15070
▁позабочусь	-15071
ban	-15072
▁яи	-15073
енец	-15074
▁Pop	-15075
stone	-15076
▁крити	-15077
▁Wonder	-15078
▁Шарлот	-15079
▁пользо	-15080
ervation	-15081
▁ужасный	-15082
jo	-15083
zo	-15084
гнал	-15085
щими	-15086
нению	-15087
▁Girl	-15088
▁Tran	-15089
▁Teddy	-15090
▁thrill	-15091
▁повесе	-15092
▁fishing	-15093
▁wasting	-15094
▁accepted	-15095
▁самостоя	-15096
▁способности	-15097
▁embarrassing	-15098
▁4:	-15099
чете	-15100
▁Фар	-15101
▁Head	-15102
▁jumped	-15103
▁Speaking	-15104
▁goodness	-15105
▁Ами	-15106
▁май	-15107
тятся	-15108
▁Beth	-15109
▁Dark	-15110
▁крем	-15111
▁рисо	-15112
ктором	-15113
▁парке	-15114
▁monkey	-15115
▁Англии	-15116
▁огромный	-15117
▁hmm	-15118
▁typ	-15119
кадем	-15120
▁100%	-15121
▁выно	-15122
▁сыну	-15123
▁реаги	-15124
▁Будьте	-15125
▁apology	-15126
▁сыграть	-15127
▁mer	-15128
▁golf	-15129
▁Теле	-15130
▁курт	-15131
▁широ	-15132
▁вырос	-15133
▁добрый	-15134
▁Америки	-15135
▁контроля	-15136
▁королева	-15137
▁пытаться	-15138
▁paperwork	-15139
▁расстались	-15140
▁встречалась	-15141
ua	-15142
▁ќн	-15143
raft	-15144
▁dome	-15145
▁thin	-15146
▁toss	-15147
▁Рада	-15148
▁Стей	-15149
▁раны	-15150
itched	-15151
ведите	-15152
▁Земли	-15153
▁escort	-15154
▁Стойте	-15155
▁класси	-15156
▁восхити	-15157
▁cheating	-15158
▁delivered	-15159
▁воскресенье	-15160
pse	-15161
aver	-15162
▁Rom	-15163
▁pow	-15164
живать	-15165
▁pilot	-15166
▁Кэрри	-15167
▁глуби	-15168
▁насили	-15169
▁системе	-15170
▁дождаться	-15171
▁родителями	-15172
oom	-15173
вере	-15174
нься	-15175
туре	-15176
▁ешь	-15177
▁рав	-15178
▁Wend	-15179
▁muse	-15180
▁Роза	-15181
▁обре	-15182
▁нарисо	-15183
▁сторон	-15184
▁судить	-15185
▁бутылку	-15186
▁доктору	-15187
▁надежды	-15188
гг	-15189
лел	-15190
▁194	-15191
▁Хмм	-15192
▁жел	-15193
рится	-15194
▁Hand	-15195
тились	-15196
▁sharp	-15197
▁Кэрол	-15198
imately	-15199
▁Govern	-15200
▁ending	-15201
▁группе	-15202
▁колени	-15203
▁выбирать	-15204
▁захотите	-15205
▁impressed	-15206
▁надеялась	-15207
'.	-15208
фей	-15209
▁Бил	-15210
▁Мэт	-15211
десят	-15212
бности	-15213
▁chase	-15214
▁winner	-15215
▁банков	-15216
▁месяце	-15217
▁привле	-15218
▁выбрали	-15219
▁завести	-15220
▁области	-15221
▁помнить	-15222
▁ужасное	-15223
▁смотрела	-15224
▁одиночестве	-15225
leg	-15226
ora	-15227
рку	-15228
ктом	-15229
▁отъ	-15230
oston	-15231
▁упря	-15232
▁hoped	-15233
▁Барни	-15234
▁пробе	-15235
▁commer	-15236
▁губерна	-15237
▁приедет	-15238
▁Japanese	-15239
▁ordinary	-15240
▁магазина	-15241
▁нуждается	-15242
▁положении	-15243
▁собрались	-15244
▁благодарен	-15245
▁собственную	-15246
ждён	-15247
нача	-15248
anced	-15249
▁Many	-15250
▁Owen	-15251
▁ищут	-15252
▁писал	-15253
▁tracks	-15254
▁следов	-15255
▁заклина	-15256
▁3-	-15257
IGHT	-15258
ares	-15259
▁rip	-15260
▁скла	-15261
coming	-15262
▁limit	-15263
▁panic	-15264
▁Прине	-15265
▁crisis	-15266
▁Сержант	-15267
▁сделают	-15268
▁miserable	-15269
▁sensitive	-15270
стые	-15271
▁WIT	-15272
▁Хам	-15273
▁шел	-15274
igning	-15275
▁units	-15276
▁хрена	-15277
▁шанса	-15278
▁latest	-15279
▁symbol	-15280
▁Рассла	-15281
▁attitude	-15282
▁generous	-15283
▁животное	-15284
▁закончила	-15285
▁изменился	-15286
жон	-15287
сыла	-15288
▁WAS	-15289
▁дар	-15290
▁боти	-15291
▁несо	-15292
▁fianc	-15293
▁Стюар	-15294
▁protoc	-15295
▁Tuesday	-15296
▁actions	-15297
▁находятся	-15298
▁доказательство	-15299
san	-15300
▁вь	-15301
oren	-15302
▁лам	-15303
inals	-15304
ждена	-15305
▁Более	-15306
▁прочь	-15307
▁соеди	-15308
▁Couldn	-15309
▁причиной	-15310
▁позвонили	-15311
▁великолепно	-15312
opo	-15313
eted	-15314
веду	-15315
▁Tex	-15316
▁Imag	-15317
▁ment	-15318
▁визи	-15319
▁forth	-15320
▁дурак	-15321
▁запро	-15322
▁Number	-15323
▁привел	-15324
▁стрель	-15325
▁перевер	-15326
▁секунды	-15327
▁magazine	-15328
▁прослуши	-15329
лота	-15330
▁Hun	-15331
▁dea	-15332
▁Бли	-15333
▁напле	-15334
▁honour	-15335
▁capital	-15336
▁выступа	-15337
▁freaking	-15338
▁misunder	-15339
бла	-15340
клу	-15341
▁5:	-15342
▁тря	-15343
тации	-15344
торов	-15345
▁flow	-15346
▁mile	-15347
ватель	-15348
▁Brand	-15349
▁Barney	-15350
▁Valent	-15351
▁produc	-15352
▁complex	-15353
ification	-15354
▁движение	-15355
▁заметить	-15356
▁фотографию	-15357
шта	-15358
▁rig	-15359
▁uses	-15360
▁кора	-15361
▁Номер	-15362
▁врача	-15363
▁Sophie	-15364
▁series	-15365
▁wallet	-15366
▁достал	-15367
▁пойдёт	-15368
▁развле	-15369
▁Вставай	-15370
▁Джейсон	-15371
▁сбежала	-15372
▁Благодаря	-15373
▁произойти	-15374
bell	-15375
толк	-15376
лнова	-15377
▁Clay	-15378
▁силах	-15379
▁Любовь	-15380
▁leaders	-15381
▁приняла	-15382
▁свободе	-15383
▁Внимание	-15384
▁добавить	-15385
▁половина	-15386
▁нев	-15387
▁сфо	-15388
▁Sing	-15389
▁bars	-15390
▁intent	-15391
▁trauma	-15392
▁section	-15393
▁discover	-15394
▁виновата	-15395
▁джентльмены	-15396
▁разговаривали	-15397
дело	-15398
▁Atl	-15399
▁Use	-15400
▁Себ	-15401
ждают	-15402
▁Wake	-15403
▁argue	-15404
▁риску	-15405
читывая	-15406
▁делами	-15407
▁должность	-15408
лое	-15409
ффа	-15410
защи	-15411
▁abd	-15412
▁Beck	-15413
▁Been	-15414
▁Афри	-15415
icking	-15416
▁Anton	-15417
▁bills	-15418
▁Шесть	-15419
▁играю	-15420
▁remote	-15421
▁отстав	-15422
▁страха	-15423
▁ходила	-15424
▁valuable	-15425
▁помощник	-15426
▁родителям	-15427
▁последствия	-15428
▁правительства	-15429
ряз	-15430
ader	-15431
▁End	-15432
дость	-15433
▁Each	-15434
▁Nate	-15435
▁dial	-15436
▁prob	-15437
▁бери	-15438
▁manip	-15439
▁Отвали	-15440
▁верите	-15441
▁страна	-15442
▁surgeon	-15443
▁сердцем	-15444
▁терпеть	-15445
▁выглядят	-15446
▁квартира	-15447
▁impressive	-15448
тала	-15449
▁агре	-15450
▁стес	-15451
дились	-15452
▁высле	-15453
▁покля	-15454
▁сучка	-15455
▁Говорит	-15456
▁грустно	-15457
▁продавать	-15458
акс	-15459
▁Ав	-15460
▁Сю	-15461
oner	-15462
word	-15463
▁Нил	-15464
▁бла	-15465
▁пау	-15466
▁crush	-15467
▁drill	-15468
▁lifet	-15469
▁машин	-15470
▁flower	-15471
лз	-15472
ёй	-15473
gir	-15474
stal	-15475
lying	-15476
стами	-15477
▁желаю	-15478
▁фургон	-15479
AD	-15480
рец	-15481
▁Ca	-15482
utch	-15483
▁20-	-15484
▁Imp	-15485
▁Log	-15486
istry	-15487
▁Безу	-15488
▁базе	-15489
▁pride	-15490
▁walks	-15491
▁insist	-15492
▁хорошую	-15493
▁интернет	-15494
пел	-15495
сай	-15496
▁wow	-15497
▁тща	-15498
▁Spen	-15499
▁wore	-15500
▁акку	-15501
▁novel	-15502
▁визит	-15503
▁кризи	-15504
▁профи	-15505
дновать	-15506
▁блестя	-15507
▁трогай	-15508
▁helpful	-15509
▁подумай	-15510
▁заслужил	-15511
жало	-15512
▁Иде	-15513
▁Мал	-15514
▁неф	-15515
мером	-15516
тимся	-15517
эндви	-15518
▁мерз	-15519
▁моти	-15520
▁Закон	-15521
▁монет	-15522
▁раско	-15523
▁passen	-15524
▁Вместо	-15525
▁grandma	-15526
▁препода	-15527
▁chemical	-15528
▁электрон	-15529
▁проблемой	-15530
▁collection	-15531
rees	-15532
зона	-15533
▁Lat	-15534
лакти	-15535
рость	-15536
▁угол	-15537
▁Relax	-15538
▁стену	-15539
▁encour	-15540
▁accounts	-15541
▁normally	-15542
▁kidnapped	-15543
▁операцион	-15544
▁incredibly	-15545
имо	-15546
▁ћы	-15547
▁sau	-15548
▁Чан	-15549
дочку	-15550
▁Дэни	-15551
▁Хэнк	-15552
▁Этим	-15553
▁Drink	-15554
▁sport	-15555
▁Тайлер	-15556
▁maintain	-15557
▁понедельник	-15558
▁собственного	-15559
ok	-15560
▁ух	-15561
▁Him	-15562
▁bes	-15563
▁Ала	-15564
▁шею	-15565
▁Исто	-15566
▁Прид	-15567
▁века	-15568
▁горы	-15569
▁комму	-15570
▁учены	-15571
▁depends	-15572
▁похороны	-15573
▁customers	-15574
▁счастливым	-15575
дли	-15576
ghan	-15577
ipal	-15578
енном	-15579
▁сути	-15580
▁Hands	-15581
▁species	-15582
▁причаст	-15583
▁слышите	-15584
apt	-15585
ллс	-15586
кера	-15587
▁Ain	-15588
▁поэ	-15589
▁Френ	-15590
▁advance	-15591
▁заговори	-15592
пс	-15593
cut	-15594
mpt	-15595
war	-15596
вке	-15597
▁Ся	-15598
elia	-15599
динг	-15600
▁Fam	-15601
▁Fre	-15602
▁шла	-15603
▁заря	-15604
▁cared	-15605
▁plays	-15606
▁долгое	-15607
▁совета	-15608
▁страте	-15609
▁Grandma	-15610
▁sheriff	-15611
▁проигры	-15612
▁explosion	-15613
▁возможное	-15614
▁начальник	-15615
▁следовать	-15616
OULD	-15617
▁tag	-15618
▁кад	-15619
happy	-15620
▁дашь	-15621
▁пулю	-15622
▁цену	-15623
▁Linda	-15624
▁скром	-15625
▁побере	-15626
▁торгов	-15627
▁comment	-15628
▁elevator	-15629
▁signific	-15630
▁странным	-15631
▁беспокоюсь	-15632
▁чувствуете	-15633
▁ren	-15634
▁ноч	-15635
▁Зато	-15636
▁дожд	-15637
▁cells	-15638
▁stops	-15639
▁Гиббс	-15640
▁выпла	-15641
▁Госпожа	-15642
▁продела	-15643
▁расстраи	-15644
▁скрывать	-15645
▁телевизо	-15646
▁изменения	-15647
вена	-15648
▁оре	-15649
легче	-15650
▁Fall	-15651
ounced	-15652
▁arran	-15653
▁sample	-15654
▁одежды	-15655
▁острове	-15656
▁поцелуй	-15657
▁Margaret	-15658
▁Учитывая	-15659
▁территории	-15660
reek	-15661
нуло	-15662
▁Бор	-15663
point	-15664
▁sons	-15665
▁Бабу	-15666
▁Коул	-15667
▁опоз	-15668
▁чаще	-15669
центри	-15670
▁Gabri	-15671
▁бомба	-15672
▁School	-15673
▁выхода	-15674
▁сестре	-15675
▁Italian	-15676
▁charity	-15677
▁counting	-15678
▁инспектор	-15679
зку	-15680
▁Тэ	-15681
anny	-15682
iger	-15683
osis	-15684
uing	-15685
uled	-15686
вшую	-15687
helle	-15688
▁wolf	-15689
▁Бери	-15690
▁графи	-15691
▁Соедин	-15692
▁function	-15693
▁homework	-15694
▁воспринима	-15695
hib	-15696
▁cod	-15697
▁nap	-15698
▁Уин	-15699
стрен	-15700
▁Court	-15701
▁occup	-15702
▁Земля	-15703
▁допро	-15704
▁хвати	-15705
▁destiny	-15706
▁плакать	-15707
▁покупать	-15708
нор	-15709
▁ию	-15710
[...]
