<unk>	0
<s>	0
</s>	0
▁t	-0
he	-1
то	-2
ou	-3
▁a	-4
▁н	-5
in	-6
▁п	-7
▁с	-8
▁в	-9
▁w	-10
re	-11
▁s	-12
▁I	-13
ha	-14
on	-15
▁y	-16
▁the	-17
▁you	-18
▁m	-19
▁м	-20
ть	-21
▁о	-22
▁b	-23
▁т	-24
ен	-25
er	-26
ра	-27
ing	-28
▁по	-29
▁д	-30
it	-31
ll	-32
▁d	-33
но	-34
ро	-35
▁c	-36
▁to	-37
is	-38
ко	-39
▁не	-40
▁ч	-41
ли	-42
го	-43
▁и	-44
▁f	-45
an	-46
▁б	-47
ет	-48
ст	-49
or	-50
▁g	-51
ка	-52
ла	-53
ер	-54
hat	-55
nd	-56
▁на	-57
▁l	-58
на	-59
ve	-60
▁з	-61
▁o	-62
▁что	-63
..	-64
▁n	-65
▁p	-66
ни	-67
ed	-68
...	-69
ри	-70
во	-71
st	-72
en	-73
ем	-74
ow	-75
ва	-76
om	-77
▁у	-78
ль	-79
▁W	-80
ot	-81
▁э	-82
да	-83
ar	-84
▁T	-85
▁he	-86
ло	-87
et	-88
ся	-89
▁th	-90
es	-91
▁of	-92
▁ha	-93
at	-94
▁in	-95
▁Н	-96
▁е	-97
▁h	-98
▁я	-99
ay	-100
▁Y	-101
▁be	-102
▁it	-103
де	-104
▁Я	-105
▁это	-106
as	-107
ре	-108
▁П	-109
▁A	-110
те	-111
▁бы	-112
▁that	-113
le	-114
▁за	-115
▁and	-116
▁Т	-117
▁S	-118
ди	-119
▁Д	-120
id	-121
не	-122
▁мо	-123
▁me	-124
хо	-125
▁on	-126
▁k	-127
▁В	-128
gh	-129
▁ко	-130
та	-131
▁we	-132
▁М	-133
ны	-134
сь	-135
ld	-136
ти	-137
▁H	-138
ма	-139
ic	-140
шь	-141
▁О	-142
▁e	-143
ut	-144
же	-145
▁u	-146
se	-147
ви	-148
▁is	-149
▁You	-150
ле	-151
▁про	-152
▁к	-153
▁ты	-154
ак	-155
ke	-156
im	-157
al	-158
▁то	-159
▁до	-160
еб	-161
▁С	-162
▁К	-163
out	-164
мо	-165
ac	-166
▁ра	-167
ght	-168
▁ка	-169
ver	-170
▁вы	-171
ру	-172
oo	-173
▁M	-174
▁for	-175
▁re	-176
▁do	-177
ri	-178
бо	-179
ас	-180
▁вс	-181
ки	-182
чи	-183
▁Э	-184
▁B	-185
за	-186
▁was	-187
ad	-188
▁st	-189
ени	-190
лу	-191
ми	-192
▁have	-193
▁kn	-194
▁your	-195
▁от	-196
▁O	-197
ust	-198
▁при	-199
ей	-200
▁li	-201
▁И	-202
жи	-203
ome	-204
▁this	-205
▁C	-206
▁The	-207
ith	-208
▁my	-209
▁N	-210
▁хо	-211
ля	-212
▁D	-213
до	-214
▁По	-215
▁со	-216
▁an	-217
▁теб	-218
ly	-219
▁We	-220
▁know	-221
ста	-222
am	-223
ill	-224
▁not	-225
ould	-226
▁j	-227
▁-	-228
▁with	-229
ду	-230
ir	-231
ion	-232
all	-233
сто	-234
ent	-235
▁во	-236
ну	-237
▁"	-238
ant	-239
гда	-240
▁но	-241
▁зна	-242
еня	-243
ee	-244
▁го	-245
▁go	-246
ешь	-247
ro	-248
лю	-249
ше	-250
▁ne	-251
▁can	-252
по	-253
ве	-254
▁He	-255
▁L	-256
ши	-257
▁Ты	-258
▁А	-259
ам	-260
▁меня	-261
her	-262
▁don	-263
▁Ч	-264
▁все	-265
▁G	-266
▁как	-267
▁It	-268
би	-269
▁are	-270
▁ни	-271
▁Да	-272
ec	-273
ho	-274
▁Это	-275
if	-276
▁what	-277
ea	-278
ку	-279
hing	-280
▁так	-281
▁Б	-282
ча	-283
▁де	-284
сть	-285
ur	-286
▁об	-287
▁just	-288
▁из	-289
га	-290
уд	-291
сти	-292
▁мы	-293
▁ab	-294
му	-295
ры	-296
▁мне	-297
▁What	-298
▁он	-299
си	-300
▁And	-301
▁get	-302
▁а	-303
бы	-304
ере	-305
жа	-306
сли	-307
че	-308
ться	-309
▁out	-310
ня	-311
▁all	-312
▁like	-313
▁as	-314
ень	-315
ша	-316
pp	-317
▁so	-318
one	-319
ce	-320
жно	-321
ch	-322
▁at	-323
▁У	-324
каза	-325
ink	-326
▁его	-327
ter	-328
▁бо	-329
ме	-330
▁want	-331
ake	-332
▁г	-333
▁да	-334
▁about	-335
▁P	-336
вер	-337
ry	-338
▁here	-339
▁тебя	-340
our	-341
▁up	-342
▁him	-343
ack	-344
op	-345
▁her	-346
▁did	-347
ook	-348
со	-349
▁раз	-350
han	-351
▁Что	-352
ore	-353
ight	-354
жет	-355
▁but	-356
un	-357
ар	-358
▁J	-359
▁sh	-360
ra	-361
ему	-362
il	-363
лько	-364
▁ri	-365
ума	-366
au	-367
ie	-368
ck	-369
ally	-370
ood	-371
▁F	-372
▁З	-373
ще	-374
ell	-375
па	-376
▁think	-377
ци	-378
ge	-379
▁R	-380
ря	-381
▁wor	-382
пи	-383
▁Х	-384
very	-385
▁there	-386
▁Не	-387
▁right	-388
▁Л	-389
▁got	-390
▁сво	-391
гу	-392
ной	-393
▁пре	-394
ess	-395
rom	-396
▁Р	-397
ind	-398
▁su	-399
щи	-400
ive	-401
▁Е	-402
na	-403
▁whe	-404
▁No	-405
▁дол	-406
▁Но	-407
▁ве	-408
▁any	-409
▁one	-410
art	-411
ный	-412
and	-413
ете	-414
▁Г	-415
▁E	-416
▁she	-417
▁чтобы	-418
▁ма	-419
жен	-420
▁they	-421
▁if	-422
ву	-423
us	-424
льно	-425
▁Вы	-426
▁тебе	-427
▁de	-428
▁no	-429
тся	-430
▁r	-431
вы	-432
▁лю	-433
вори	-434
ту	-435
ги	-436
▁That	-437
дела	-438
▁some	-439
▁ви	-440
ain	-441
▁us	-442
▁же	-443
▁ми	-444
▁Мы	-445
▁Он	-446
▁see	-447
шо	-448
od	-449
▁ре	-450
hy	-451
▁al	-452
са	-453
▁his	-454
ного	-455
▁под	-456
кой	-457
▁кото	-458
▁Oh	-459
▁But	-460
ate	-461
ime	-462
▁who	-463
▁сказа	-464
▁буд	-465
os	-466
▁from	-467
вать	-468
▁Well	-469
ig	-470
▁хоч	-471
eah	-472
▁would	-473
▁дума	-474
▁те	-475
чно	-476
се	-477
▁will	-478
ab	-479
▁Мо	-480
▁So	-481
▁ну	-482
▁ли	-483
▁нас	-484
ast	-485
▁тво	-486
▁она	-487
▁sa	-488
▁если	-489
ist	-490
ers	-491
▁ва	-492
▁ме	-493
▁lo	-494
▁Нет	-495
его	-496
▁для	-497
лся	-498
лы	-499
▁дру	-500
ol	-501
▁был	-502
ul	-503
рав	-504
nt	-505
ение	-506
ong	-507
▁now	-508
onna	-509
▁or	-510
ке	-511
дно	-512
ation	-513
▁когда	-514
ct	-515
rou	-516
▁back	-517
▁say	-518
▁need	-519
▁pl	-520
um	-521
▁gonna	-522
▁com	-523
▁жи	-524
▁were	-525
ты	-526
ame	-527
ak	-528
десь	-529
▁дела	-530
▁пос	-531
▁есть	-532
▁ex	-533
ется	-534
▁Ко	-535
▁con	-536
kay	-537
end	-538
▁бе	-539
ice	-540
▁1	-541
▁та	-542
зо	-543
▁Yeah	-544
рем	-545
▁gu	-546
▁time	-547
▁сдела	-548
▁going	-549
▁просто	-550
ения	-551
ear	-552
▁Th	-553
▁could	-554
▁было	-555
▁Ну	-556
▁На	-557
ause	-558
▁man	-559
ine	-560
сс	-561
▁нет	-562
пас	-563
▁ста	-564
red	-565
▁had	-566
alk	-567
ют	-568
▁боль	-569
▁ф	-570
ard	-571
▁been	-572
▁look	-573
▁them	-574
qu	-575
рошо	-576
▁здесь	-577
ect	-578
way	-579
▁Хо	-580
omet	-581
▁sp	-582
▁Во	-583
ные	-584
ком	-585
це	-586
▁thing	-587
▁они	-588
тому	-589
▁off	-590
res	-591
ерь	-592
спо	-593
▁when	-594
ды	-595
нима	-596
об	-597
▁знаю	-598
вет	-599
▁быть	-600
▁пере	-601
em	-602
▁our	-603
▁ag	-604
own	-605
▁говори	-606
ходи	-607
▁только	-608
ick	-609
▁Про	-610
▁То	-611
▁Как	-612
▁She	-613
el	-614
▁оста	-615
рави	-616
▁pro	-617
▁tell	-618
itt	-619
тра	-620
▁good	-621
thing	-622
▁бу	-623
fe	-624
ort	-625
про	-626
жу	-627
▁вас	-628
▁вер	-629
▁K	-630
▁рабо	-631
ven	-632
▁v	-633
зна	-634
ство	-635
▁могу	-636
▁си	-637
▁too	-638
▁са	-639
▁int	-640
▁somet	-641
▁every	-642
ски	-643
▁будет	-644
ase	-645
ная	-646
▁может	-647
other	-648
зи	-649
ан	-650
ace	-651
▁врем	-652
are	-653
ous	-654
пу	-655
мер	-656
▁This	-657
▁didn	-658
▁tr	-659
▁'	-660
uck	-661
▁how	-662
▁mean	-663
енно	-664
▁Так	-665
▁слу	-666
▁Если	-667
ide	-668
▁па	-669
ца	-670
ща	-671
▁U	-672
▁Она	-673
lf	-674
чень	-675
▁сто	-676
тель	-677
лось	-678
час	-679
вай	-680
▁work	-681
нь	-682
лет	-683
▁себ	-684
▁их	-685
▁has	-686
мот	-687
▁всё	-688
пе	-689
ха	-690
▁way	-691
▁take	-692
▁something	-693
чему	-694
▁воз	-695
▁really	-696
▁They	-697
▁эти	-698
▁happ	-699
hi	-700
▁by	-701
▁кто	-702
ag	-703
▁чем	-704
▁talk	-705
▁come	-706
ят	-707
▁If	-708
зы	-709
ap	-710
▁ту	-711
▁ш	-712
▁more	-713
бе	-714
▁которы	-715
ble	-716
▁Мне	-717
чь	-718
▁Do	-719
лись	-720
est	-721
▁была	-722
лась	-723
ff	-724
▁call	-725
▁should	-726
▁pe	-727
ure	-728
▁make	-729
▁How	-730
ба	-731
дин	-732
hank	-733
ние	-734
▁cl	-735
▁down	-736
▁уби	-737
▁over	-738
▁am	-739
удь	-740
▁помо	-741
▁then	-742
▁еще	-743
ена	-744
ных	-745
он	-746
юсь	-747
ейчас	-748
▁ку	-749
кто	-750
▁этого	-751
ople	-752
▁guy	-753
▁или	-754
▁let	-755
▁Whe	-756
ско	-757
▁че	-758
ound	-759
▁bec	-760
ity	-761
ving	-762
▁хочу	-763
▁нужно	-764
▁уже	-765
ittle	-766
▁очень	-767
▁вам	-768
▁им	-769
▁Ф	-770
▁mo	-771
ери	-772
гра	-773
▁St	-774
чего	-775
▁Okay	-776
ose	-777
be	-778
▁Hey	-779
▁При	-780
ром	-781
▁never	-782
▁ее	-783
ber	-784
▁love	-785
ств	-786
reat	-787
act	-788
▁нам	-789
▁bl	-790
▁За	-791
ther	-792
ор	-793
".	-794
ным	-795
th	-796
▁day	-797
▁does	-798
▁долж	-799
▁There	-800
▁little	-801
▁2	-802
ew	-803
▁этом	-804
су	-805
▁people	-806
ies	-807
▁said	-808
сте	-809
бой	-810
▁хоте	-811
lp	-812
▁se	-813
ибо	-814
луч	-815
iss	-816
▁х	-817
ody	-818
перь	-819
▁Ка	-820
▁thou	-821
им	-822
▁tw	-823
▁пред	-824
ud	-825
▁Бо	-826
▁Why	-827
▁ро	-828
йти	-829
▁Yes	-830
том	-831
дь	-832
▁le	-833
▁only	-834
▁qu	-835
▁се	-836
oy	-837
пасибо	-838
orry	-839
▁kill	-840
▁ж	-841
▁чу	-842
▁пар	-843
▁од	-844
▁Они	-845
▁там	-846
ass	-847
riend	-848
▁после	-849
ond	-850
жешь	-851
▁больше	-852
▁happen	-853
▁co	-854
лове	-855
сту	-856
будь	-857
▁жиз	-858
self	-859
ep	-860
ска	-861
▁All	-862
лен	-863
▁en	-864
▁сейчас	-865
тельно	-866
ment	-867
йте	-868
▁bet	-869
▁find	-870
pl	-871
▁кон	-872
▁Ни	-873
▁into	-874
зу	-875
nder	-876
▁help	-877
▁ro	-878
▁sc	-879
ров	-880
зво	-881
▁мог	-882
ное	-883
▁му	-884
▁буду	-885
▁время	-886
▁наш	-887
ting	-888
▁why	-889
ite	-890
▁even	-891
ree	-892
ния	-893
▁br	-894
▁mu	-895
бира	-896
▁Mr	-897
▁again	-898
00	-899
▁lea	-900
вал	-901
eel	-902
▁нико	-903
▁af	-904
▁До	-905
▁because	-906
age	-907
фи	-908
▁other	-909
▁give	-910
eep	-911
▁where	-912
▁doing	-913
▁су	-914
▁Ма	-915
▁того	-916
мен	-917
▁very	-918
▁луч	-919
▁year	-920
мы	-921
ning	-922
▁день	-923
▁two	-924
ue	-925
ady	-926
▁жен	-927
aybe	-928
▁My	-929
lease	-930
▁Ми	-931
▁её	-932
irst	-933
▁себя	-934
йд	-935
▁ин	-936
fore	-937
▁само	-938
▁Is	-939
▁much	-940
нибудь	-941
▁Зна	-942
▁un	-943
▁пер	-944
▁полу	-945
▁пу	-946
▁pr	-947
ret	-948
▁Хорошо	-949
ire	-950
▁пи	-951
▁мой	-952
бра	-953
ather	-954
тов	-955
▁смо	-956
ait	-957
▁feel	-958
▁Thank	-959
▁ле	-960
▁пока	-961
вя	-962
тер	-963
▁расс	-964
wn	-965
▁thought	-966
дел	-967
▁работа	-968
стре	-969
▁Don	-970
▁сказал	-971
▁under	-972
▁life	-973
ade	-974
бу	-975
▁Все	-976
▁ему	-977
вно	-978
▁ask	-979
чит	-980
▁челове	-981
юда	-982
▁Let	-983
▁где	-984
▁должен	-985
шу	-986
ём	-987
▁still	-988
▁ничего	-989
▁были	-990
per	-991
▁Ра	-992
дня	-993
ty	-994
▁try	-995
ети	-996
▁От	-997
▁Now	-998
кры	-999
▁im	-1000
▁прои	-1001
▁than	-1002
▁ру	-1003
▁хорошо	-1004
▁night	-1005
▁V	-1006
щё	-1007
ков	-1008
urn	-1009
ству	-1010
▁anything	-1011
▁ar	-1012
▁вз	-1013
▁думаю	-1014
▁пла	-1015
▁before	-1016
."	-1017
ich	-1018
round	-1019
ny	-1020
▁Look	-1021
ull	-1022
▁their	-1023
▁Come	-1024
▁прав	-1025
ob	-1026
ерт	-1027
ord	-1028
▁сле	-1029
стви	-1030
iz	-1031
▁Дж	-1032
▁потому	-1033
стро	-1034
▁wr	-1035
ез	-1036
lie	-1037
▁Ла	-1038
▁Not	-1039
ыта	-1040
▁него	-1041
кра	-1042
можно	-1043
ish	-1044
get	-1045
их	-1046
▁friend	-1047
ную	-1048
▁Спасибо	-1049
▁sure	-1050
▁okay	-1051
лем	-1052
▁Just	-1053
▁well	-1054
дите	-1055
▁first	-1056
▁знаешь	-1057
body	-1058
▁име	-1059
▁sorry	-1060
▁Вот	-1061
сно	-1062
жем	-1063
▁стра	-1064
▁long	-1065
▁new	-1066
▁part	-1067
▁put	-1068
ress	-1069
▁этот	-1070
луша	-1071
▁никогда	-1072
ства	-1073
▁gir	-1074
▁last	-1075
ach	-1076
ne	-1077
▁час	-1078
▁these	-1079
кое	-1080
ave	-1081
чу	-1082
▁сло	-1083
егодня	-1084
▁Го	-1085
▁In	-1086
ять	-1087
▁after	-1088
▁home	-1089
▁told	-1090
ит	-1091
day	-1092
вой	-1093
▁сказать	-1094
ft	-1095
вали	-1096
pt	-1097
ise	-1098
ник	-1099
▁po	-1100
стер	-1101
ool	-1102
row	-1103
▁тоже	-1104
вля	-1105
▁God	-1106
ции	-1107
▁rem	-1108
▁act	-1109
▁даже	-1110
▁ещё	-1111
мотри	-1112
▁sec	-1113
гла	-1114
▁ac	-1115
▁понима	-1116
кон	-1117
▁надо	-1118
▁hand	-1119
▁ком	-1120
ствен	-1121
▁Are	-1122
ough	-1123
oney	-1124
▁ска	-1125
▁Эй	-1126
ious	-1127
▁Почему	-1128
▁chan	-1129
har	-1130
▁тобой	-1131
ью	-1132
▁Ш	-1133
тив	-1134
▁Who	-1135
ёт	-1136
sp	-1137
▁wh	-1138
▁keep	-1139
ways	-1140
луй	-1141
▁things	-1142
▁теперь	-1143
ин	-1144
▁3	-1145
ily	-1146
дер	-1147
▁car	-1148
вить	-1149
▁Может	-1150
▁away	-1151
▁сделать	-1152
шло	-1153
▁позво	-1154
стоя	-1155
ence	-1156
ouse	-1157
▁собира	-1158
▁ad	-1159
▁dis	-1160
ряд	-1161
able	-1162
лли	-1163
▁верну	-1164
▁start	-1165
ark	-1166
ран	-1167
гля	-1168
ней	-1169
▁girl	-1170
ip	-1171
▁years	-1172
дума	-1173
▁вот	-1174
we	-1175
рю	-1176
▁Your	-1177
▁Пос	-1178
жалуй	-1179
▁мной	-1180
▁ever	-1181
▁ис	-1182
▁должны	-1183
ran	-1184
▁kid	-1185
▁почему	-1186
ia	-1187
▁лет	-1188
▁belie	-1189
▁must	-1190
кая	-1191
▁лучше	-1192
og	-1193
ian	-1194
ман	-1195
▁those	-1196
▁хочешь	-1197
нечно	-1198
▁doesn	-1199
жда	-1200
▁том	-1201
▁много	-1202
▁Когда	-1203
вает	-1204
▁Давай	-1205
▁Ладно	-1206
▁Дже	-1207
вый	-1208
▁реб	-1209
говори	-1210
▁ско	-1211
▁fl	-1212
ict	-1213
int	-1214
▁ла	-1215
▁kind	-1216
ary	-1217
прав	-1218
▁cou	-1219
▁always	-1220
ried	-1221
▁won	-1222
▁€	-1223
▁тут	-1224
ном	-1225
ory	-1226
ья	-1227
▁Кто	-1228
▁better	-1229
aking	-1230
▁real	-1231
▁Те	-1232
нов	-1233
▁Did	-1234
old	-1235
▁made	-1236
ually	-1237
ved	-1238
▁ст	-1239
▁around	-1240
▁без	-1241
деть	-1242
▁dr	-1243
oss	-1244
ng	-1245
▁нем	-1246
ial	-1247
▁Ва	-1248
▁che	-1249
▁wanted	-1250
жалуйста	-1251
▁рас	-1252
rough	-1253
▁получи	-1254
нут	-1255
▁Where	-1256
ves	-1257
▁хоро	-1258
▁lot	-1259
hed	-1260
эр	-1261
эн	-1262
▁подо	-1263
▁fuck	-1264
ющи	-1265
нова	-1266
ню	-1267
▁place	-1268
ever	-1269
▁сегодня	-1270
▁sm	-1271
▁всегда	-1272
дей	-1273
рой	-1274
▁один	-1275
ент	-1276
ail	-1277
ath	-1278
▁чув	-1279
нить	-1280
дешь	-1281
шел	-1282
дни	-1283
▁кра	-1284
ater	-1285
жды	-1286
▁own	-1287
▁пыта	-1288
нет	-1289
ions	-1290
кого	-1291
▁show	-1292
▁through	-1293
▁поня	-1294
▁might	-1295
▁bu	-1296
▁Can	-1297
ене	-1298
▁When	-1299
▁being	-1300
▁ц	-1301
▁cour	-1302
▁uh	-1303
блю	-1304
▁можешь	-1305
▁wait	-1306
ign	-1307
сы	-1308
▁care	-1309
ons	-1310
▁everything	-1311
▁cont	-1312
что	-1313
▁дело	-1314
лыша	-1315
▁Со	-1316
orm	-1317
жд	-1318
▁узна	-1319
▁который	-1320
▁name	-1321
▁someone	-1322
▁te	-1323
▁ей	-1324
▁сам	-1325
up	-1326
▁уви	-1327
еха	-1328
xt	-1329
▁хотел	-1330
дить	-1331
▁guys	-1332
▁сем	-1333
рова	-1334
▁nothing	-1335
▁спо	-1336
▁Ch	-1337
сси	-1338
▁fam	-1339
▁old	-1340
▁ass	-1341
▁Привет	-1342
▁этим	-1343
▁друго	-1344
▁el	-1345
нее	-1346
▁вме	-1347
▁per	-1348
чита	-1349
▁big	-1350
▁found	-1351
▁id	-1352
▁жизнь	-1353
▁wom	-1354
▁сюда	-1355
▁believe	-1356
▁har	-1357
▁обра	-1358
▁делать	-1359
ходит	-1360
▁пол	-1361
▁бра	-1362
▁нача	-1363
▁min	-1364
▁пра	-1365
ful	-1366
▁них	-1367
цу	-1368
▁great	-1369
▁boy	-1370
ren	-1371
▁ба	-1372
ция	-1373
av	-1374
ub	-1375
▁гла	-1376
▁голо	-1377
▁done	-1378
▁rec	-1379
▁люби	-1380
ance	-1381
прави	-1382
шка	-1383
ерез	-1384
ger	-1385
▁поряд	-1386
▁cr	-1387
ated	-1388
рт	-1389
▁mom	-1390
▁bad	-1391
▁всего	-1392
▁head	-1393
дать	-1394
erson	-1395
▁случи	-1396
▁money	-1397
▁ней	-1398
▁Просто	-1399
▁сы	-1400
мой	-1401
▁ним	-1402
▁play	-1403
ить	-1404
хи	-1405
пре	-1406
▁left	-1407
▁моя	-1408
▁Дума	-1409
▁house	-1410
▁supp	-1411
▁Ро	-1412
▁порядке	-1413
цо	-1414
isten	-1415
▁app	-1416
▁Bec	-1417
stand	-1418
ено	-1419
▁Uh	-1420
клю	-1421
▁stay	-1422
ember	-1423
▁run	-1424
▁happened	-1425
лушай	-1426
вра	-1427
дом	-1428
▁Good	-1429
▁Then	-1430
▁всех	-1431
▁свя	-1432
при	-1433
цы	-1434
▁came	-1435
▁испо	-1436
ход	-1437
▁hear	-1438
▁bit	-1439
▁please	-1440
▁5	-1441
▁этой	-1442
▁Из	-1443
нии	-1444
▁тем	-1445
▁моей	-1446
▁ус	-1447
▁imp	-1448
▁plan	-1449
пер	-1450
ший	-1451
atch	-1452
дит	-1453
▁Теб	-1454
▁увер	-1455
▁else	-1456
чка	-1457
▁gr	-1458
▁trying	-1459
стра	-1460
ince	-1461
▁Потому	-1462
side	-1463
▁свою	-1464
кс	-1465
шком	-1466
▁ph	-1467
▁маши	-1468
▁Maybe	-1469
▁comp	-1470
▁ваш	-1471
пы	-1472
тя	-1473
шли	-1474
▁Па	-1475
▁проб	-1476
▁sha	-1477
чет	-1478
ike	-1479
ил	-1480
ner	-1481
▁father	-1482
▁ду	-1483
▁4	-1484
▁ser	-1485
▁женщи	-1486
жется	-1487
▁жа	-1488
▁случа	-1489
▁sur	-1490
чем	-1491
▁должна	-1492
▁world	-1493
соб	-1494
der	-1495
▁себе	-1496
▁leave	-1497
рет	-1498
aw	-1499
iv	-1500
▁пло	-1501
вая	-1502
▁которые	-1503
нг	-1504
чески	-1505
▁stop	-1506
ute	-1507
▁сли	-1508
▁dead	-1509
▁дей	-1510
ife	-1511
▁Because	-1512
▁уж	-1513
дели	-1514
oth	-1515
фе	-1516
▁end	-1517
man	-1518
▁hell	-1519
imes	-1520
▁understand	-1521
▁mar	-1522
▁att	-1523
▁talking	-1524
▁Re	-1525
pen	-1526
ктор	-1527
▁getting	-1528
▁which	-1529
▁dec	-1530
▁coming	-1531
▁ло	-1532
▁meet	-1533
▁cle	-1534
▁гово	-1535
пла	-1536
зад	-1537
▁person	-1538
▁wasn	-1539
ps	-1540
▁another	-1541
▁немного	-1542
▁ид	-1543
▁pre	-1544
▁went	-1545
▁через	-1546
▁Са	-1547
ются	-1548
чина	-1549
зыва	-1550
▁wrong	-1551
▁looking	-1552
▁isn	-1553
▁wee	-1554
рен	-1555
▁ша	-1556
ешься	-1557
▁miss	-1558
▁same	-1559
ms	-1560
▁mother	-1561
▁Al	-1562
▁эту	-1563
akes	-1564
▁tra	-1565
▁возможно	-1566
▁дет	-1567
▁bus	-1568
▁такой	-1569
проси	-1570
gether	-1571
▁правда	-1572
шего	-1573
▁потом	-1574
▁family	-1575
▁Ж	-1576
▁For	-1577
▁sho	-1578
▁поговори	-1579
ied	-1580
мотре	-1581
▁Get	-1582
жать	-1583
тно	-1584
▁enough	-1585
▁job	-1586
нно	-1587
рь	-1588
▁fo	-1589
▁доста	-1590
нуть	-1591
ock	-1592
ating	-1593
▁сказала	-1594
▁may	-1595
▁чего	-1596
▁убий	-1597
ug	-1598
эй	-1599
пусти	-1600
тро	-1601
▁mon	-1602
▁назад	-1603
▁встре	-1604
▁нрави	-1605
▁нуж	-1606
rest	-1607
ope	-1608
▁пря	-1609
▁acc	-1610
aught	-1611
▁room	-1612
ix	-1613
она	-1614
ших	-1615
mer	-1616
▁As	-1617
▁проблем	-1618
ните	-1619
▁пе	-1620
▁кого	-1621
▁maybe	-1622
▁chi	-1623
этому	-1624
▁pret	-1625
▁ведь	-1626
tain	-1627
▁Ви	-1628
air	-1629
▁Прости	-1630
▁best	-1631
ors	-1632
▁together	-1633
лей	-1634
▁фи	-1635
▁твой	-1636
▁доро	-1637
обще	-1638
▁turn	-1639
▁поли	-1640
▁вместе	-1641
сем	-1642
▁можем	-1643
дол	-1644
igh	-1645
▁жизни	-1646
ations	-1647
▁можно	-1648
ении	-1649
▁Go	-1650
▁людей	-1651
ple	-1652
тец	-1653
▁сделал	-1654
лаго	-1655
▁друг	-1656
▁course	-1657
atter	-1658
▁saw	-1659
hile	-1660
ost	-1661
▁место	-1662
▁fun	-1663
▁слишком	-1664
яс	-1665
▁свои	-1666
писа	-1667
▁bab	-1668
▁three	-1669
▁des	-1670
ical	-1671
сле	-1672
▁обо	-1673
▁человек	-1674
емся	-1675
▁тогда	-1676
жду	-1677
цию	-1678
▁Где	-1679
ible	-1680
ans	-1681
ких	-1682
дишь	-1683
хоже	-1684
тите	-1685
▁yourself	-1686
▁Jo	-1687
ложи	-1688
▁обе	-1689
част	-1690
тере	-1691
▁sl	-1692
▁муж	-1693
▁remember	-1694
▁bre	-1695
▁Тебе	-1696
мени	-1697
▁today	-1698
▁Sh	-1699
▁тех	-1700
▁гру	-1701
▁hard	-1702
ными	-1703
шла	-1704
▁mor	-1705
▁fin	-1706
ступ	-1707
лага	-1708
▁An	-1709
▁To	-1710
▁Теперь	-1711
▁пор	-1712
ye	-1713
▁next	-1714
▁mind	-1715
les	-1716
▁child	-1717
▁такое	-1718
▁Знаешь	-1719
▁knew	-1720
▁закон	-1721
▁ch	-1722
▁wouldn	-1723
here	-1724
ready	-1725
ks	-1726
▁Тогда	-1727
▁люди	-1728
▁ra	-1729
▁значит	-1730
▁dif	-1731
пра	-1732
my	-1733
▁всем	-1734
uff	-1735
▁дома	-1736
▁це	-1737
▁пой	-1738
▁кро	-1739
▁Воз	-1740
бер	-1741
тить	-1742
▁действи	-1743
▁bo	-1744
▁took	-1745
▁следу	-1746
▁вопро	-1747
▁теле	-1748
▁снова	-1749
"?	-1750
▁ди	-1751
▁hour	-1752
chool	-1753
▁прави	-1754
аль	-1755
вед	-1756
род	-1757
шая	-1758
ника	-1759
▁случилось	-1760
▁Пре	-1761
▁son	-1762
less	-1763
▁хочет	-1764
▁already	-1765
▁Ве	-1766
▁кое	-1767
▁слыша	-1768
вала	-1769
▁Every	-1770
so	-1771
▁знать	-1772
▁most	-1773
hes	-1774
▁уда	-1775
▁used	-1776
▁use	-1777
osed	-1778
▁пом	-1779
▁два	-1780
▁idea	-1781
ntil	-1782
▁Де	-1783
▁тру	-1784
▁nice	-1785
▁своей	-1786
▁whole	-1787
▁woman	-1788
▁сов	-1789
так	-1790
▁rep	-1791
вь	-1792
▁чи	-1793
▁war	-1794
▁помочь	-1795
ут	-1796
нд	-1797
▁смер	-1798
▁Please	-1799
нс	-1800
вые	-1801
ient	-1802
вое	-1803
▁quest	-1804
вто	-1805
▁ago	-1806
▁сер	-1807
▁without	-1808
▁thank	-1809
▁sw	-1810
йся	-1811
ены	-1812
▁ночь	-1813
ings	-1814
ности	-1815
▁ум	-1816
▁объ	-1817
лень	-1818
▁тот	-1819
▁Раз	-1820
кий	-1821
▁called	-1822
▁Ли	-1823
сё	-1824
казать	-1825
▁Мар	-1826
ружи	-1827
▁fine	-1828
▁sir	-1829
▁guess	-1830
шим	-1831
▁прид	-1832
ident	-1833
▁мои	-1834
▁подума	-1835
ably	-1836
ib	-1837
ваться	-1838
▁найти	-1839
кие	-1840
▁proble	-1841
▁любо	-1842
ness	-1843
вез	-1844
▁времени	-1845
нови	-1846
▁счита	-1847
▁10	-1848
oc	-1849
шься	-1850
▁actually	-1851
▁many	-1852
ление	-1853
ason	-1854
ta	-1855
сон	-1856
▁сек	-1857
▁прекра	-1858
▁проис	-1859
▁seen	-1860
фор	-1861
▁heard	-1862
▁зо	-1863
▁killed	-1864
▁Mar	-1865
▁неско	-1866
той	-1867
▁Та	-1868
▁исто	-1869
anna	-1870
▁други	-1871
льше	-1872
pped	-1873
▁school	-1874
▁cra	-1875
▁Or	-1876
▁baby	-1877
▁предста	-1878
▁исполь	-1879
▁деву	-1880
▁боле	-1881
iness	-1882
▁pol	-1883
втра	-1884
▁одна	-1885
▁деле	-1886
▁On	-1887
▁em	-1888
▁сви	-1889
▁dad	-1890
▁few	-1891
рое	-1892
ens	-1893
лом	-1894
▁думаешь	-1895
ang	-1896
ile	-1897
▁while	-1898
▁comm	-1899
▁live	-1900
leep	-1901
три	-1902
▁Конечно	-1903
▁friends	-1904
▁word	-1905
mm	-1906
рая	-1907
ёл	-1908
▁saying	-1909
▁gl	-1910
▁hu	-1911
ron	-1912
нем	-1913
▁наде	-1914
▁видел	-1915
▁чер	-1916
ister	-1917
▁Ex	-1918
▁домой	-1919
▁case	-1920
▁думал	-1921
▁Hell	-1922
ower	-1923
▁hur	-1924
ге	-1925
▁wife	-1926
рую	-1927
▁спа	-1928
▁реши	-1929
▁Боже	-1930
▁second	-1931
▁отец	-1932
▁хотела	-1933
жение	-1934
ctor	-1935
дова	-1936
▁pretty	-1937
eak	-1938
рти	-1939
▁игра	-1940
▁Any	-1941
▁поговорить	-1942
orrow	-1943
чить	-1944
▁deal	-1945
▁нравится	-1946
▁Только	-1947
▁га	-1948
▁morning	-1949
▁твоя	-1950
▁эта	-1951
▁Here	-1952
▁дер	-1953
ition	-1954
uth	-1955
▁парень	-1956
ность	-1957
▁Br	-1958
▁шко	-1959
▁walk	-1960
▁знаете	-1961
▁Думаю	-1962
чки	-1963
▁Ку	-1964
▁myself	-1965
тан	-1966
ier	-1967
▁bring	-1968
▁понимаю	-1969
▁anyone	-1970
ream	-1971
ott	-1972
▁стоит	-1973
▁20	-1974
нец	-1975
▁моего	-1976
▁matter	-1977
гово	-1978
▁both	-1979
▁set	-1980
▁open	-1981
▁выгля	-1982
▁dri	-1983
use	-1984
▁вол	-1985
▁говорил	-1986
▁над	-1987
▁days	-1988
зя	-1989
▁Лю	-1990
▁rest	-1991
ged	-1992
▁until	-1993
▁Ско	-1994
bably	-1995
щу	-1996
anc	-1997
▁лишь	-1998
▁One	-1999
▁веч	-2000
▁Нам	-2001
▁brother	-2002
▁Всё	-2003
▁cha	-2004
▁Right	-2005
ey	-2006
▁yeah	-2007
▁деньги	-2008
▁отно	-2009
ird	-2010
лин	-2011
▁move	-2012
rent	-2013
▁Some	-2014
вари	-2015
▁говорить	-2016
▁сэр	-2017
onight	-2018
▁pay	-2019
ult	-2020
▁пода	-2021
▁зво	-2022
▁пожалуйста	-2023
▁*	-2024
▁Dr	-2025
▁потер	-2026
дим	-2027
▁haven	-2028
▁прямо	-2029
рма	-2030
▁yet	-2031
сты	-2032
бли	-2033
hn	-2034
▁одно	-2035
ying	-2036
кла	-2037
",	-2038
▁коро	-2039
дя	-2040
▁действительно	-2041
vel	-2042
ления	-2043
▁перед	-2044
▁mur	-2045
сом	-2046
dy	-2047
▁ответ	-2048
ash	-2049
▁знал	-2050
ah	-2051
▁res	-2052
▁men	-2053
тесь	-2054
верь	-2055
кажи	-2056
▁сра	-2057
▁met	-2058
ild	-2059
▁since	-2060
дал	-2061
▁сторо	-2062
▁будем	-2063
▁ча	-2064
нять	-2065
ins	-2066
ск	-2067
▁знает	-2068
▁делаешь	-2069
▁wants	-2070
▁fucking	-2071
▁несколько	-2072
▁бро	-2073
▁би	-2074
▁blood	-2075
▁люблю	-2076
▁иде	-2077
▁hat	-2078
ваю	-2079
az	-2080
▁друз	-2081
▁Джей	-2082
ward	-2083
▁будешь	-2084
▁having	-2085
▁кажется	-2086
▁diffe	-2087
▁самом	-2088
▁face	-2089
▁check	-2090
ense	-2091
вести	-2092
▁ника	-2093
стр	-2094
ss	-2095
▁три	-2096
▁свой	-2097
▁ent	-2098
▁прошло	-2099
▁тре	-2100
▁Thanks	-2101
▁gone	-2102
ered	-2103
пол	-2104
▁малень	-2105
ax	-2106
▁поз	-2107
rew	-2108
▁couldn	-2109
▁exp	-2110
▁заста	-2111
роде	-2112
▁once	-2113
ственно	-2114
ize	-2115
▁stand	-2116
▁month	-2117
ской	-2118
▁кру	-2119
ждый	-2120
▁rel	-2121
▁point	-2122
ие	-2123
▁Бе	-2124
where	-2125
▁thinking	-2126
ально	-2127
▁Hello	-2128
ский	-2129
▁fight	-2130
ён	-2131
▁Wh	-2132
▁спи	-2133
▁какой	-2134
ison	-2135
▁inf	-2136
▁защи	-2137
▁Be	-2138
ений	-2139
▁hope	-2140
ний	-2141
arent	-2142
▁cho	-2143
▁char	-2144
▁истори	-2145
▁должно	-2146
ёр	-2147
▁мистер	-2148
▁соб	-2149
ling	-2150
куда	-2151
▁far	-2152
▁phone	-2153
▁heart	-2154
лый	-2155
▁твоей	-2156
▁happy	-2157
uc	-2158
▁против	-2159
amn	-2160
▁sit	-2161
лично	-2162
вин	-2163
шения	-2164
▁hold	-2165
▁prom	-2166
▁tonight	-2167
▁ter	-2168
вати	-2169
▁listen	-2170
жде	-2171
▁also	-2172
тор	-2173
▁давай	-2174
▁меся	-2175
▁Ри	-2176
рого	-2177
▁str	-2178
▁происходит	-2179
▁working	-2180
▁гото	-2181
▁произо	-2182
cept	-2183
▁ладно	-2184
▁business	-2185
▁Си	-2186
▁послед	-2187
▁count	-2188
ither	-2189
actly	-2190
ount	-2191
▁Слушай	-2192
▁Cl	-2193
▁stuff	-2194
ove	-2195
000	-2196
▁Или	-2197
мотреть	-2198
▁late	-2199
med	-2200
▁problem	-2201
▁Изви	-2202
кру	-2203
▁At	-2204
▁Пожалуйста	-2205
▁alone	-2206
▁drink	-2207
▁sleep	-2208
▁навер	-2209
▁откры	-2210
▁занима	-2211
вил	-2212
▁compl	-2213
ars	-2214
ual	-2215
▁глу	-2216
▁офи	-2217
▁сооб	-2218
▁such	-2219
▁says	-2220
▁Есть	-2221
▁ap	-2222
▁Dad	-2223
▁Have	-2224
▁i	-2225
▁6	-2226
▁Май	-2227
▁Госпо	-2228
▁ради	-2229
att	-2230
ятно	-2231
▁можете	-2232
▁помощ	-2233
вле	-2234
шки	-2235
▁Of	-2236
шие	-2237
▁будут	-2238
▁lost	-2239
▁Его	-2240
▁tom	-2241
пить	-2242
ровать	-2243
сла	-2244
▁shit	-2245
▁беспо	-2246
▁sign	-2247
▁чувству	-2248
aut	-2249
бота	-2250
▁работу	-2251
▁дом	-2252
▁die	-2253
▁conf	-2254
▁pass	-2255
▁soon	-2256
▁break	-2257
лагода	-2258
▁ки	-2259
точно	-2260
▁точно	-2261
ением	-2262
эм	-2263
▁Джо	-2264
▁Un	-2265
▁завтра	-2266
▁минут	-2267
vers	-2268
▁wanna	-2269
▁мою	-2270
ден	-2271
▁each	-2272
стно	-2273
▁нее	-2274
▁means	-2275
▁probably	-2276
▁ти	-2277
▁встреча	-2278
▁вра	-2279
▁говорит	-2280
▁ready	-2281
▁death	-2282
▁иг	-2283
торы	-2284
▁конечно	-2285
дут	-2286
▁pick	-2287
orn	-2288
▁вами	-2289
▁неде	-2290
▁sk	-2291
▁Итак	-2292
▁согла	-2293
▁inv	-2294
шение	-2295
дж	-2296
▁вообще	-2297
▁Бы	-2298
pe	-2299
zy	-2300
▁resp	-2301
aul	-2302
чку	-2303
▁tri	-2304
▁gave	-2305
▁inter	-2306
▁De	-2307
▁возь	-2308
▁pres	-2309
пом	-2310
▁туда	-2311
▁ob	-2312
▁сме	-2313
▁плохо	-2314
▁Ле	-2315
▁ново	-2316
▁#	-2317
▁способ	-2318
ates	-2319
rist	-2320
▁poss	-2321
лл	-2322
▁inc	-2323
ску	-2324
▁повер	-2325
▁забы	-2326
ru	-2327
▁Sorry	-2328
▁самы	-2329
ению	-2330
чера	-2331
▁read	-2332
мина	-2333
ним	-2334
▁интере	-2335
ork	-2336
▁могли	-2337
▁hum	-2338
стве	-2339
▁фо	-2340
ired	-2341
льчи	-2342
ками	-2343
pr	-2344
▁Like	-2345
▁более	-2346
▁num	-2347
▁supposed	-2348
utes	-2349
▁отс	-2350
частли	-2351
▁sound	-2352
▁Me	-2353
▁ret	-2354
▁See	-2355
▁Вам	-2356
▁Wait	-2357
▁настоя	-2358
▁def	-2359
▁Лу	-2360
чный	-2361
▁Мой	-2362
▁everyone	-2363
▁hurt	-2364
▁door	-2365
нок	-2366
правля	-2367
▁Пока	-2368
▁ад	-2369
▁един	-2370
vent	-2371
erest	-2372
рей	-2373
▁prot	-2374
▁комна	-2375
▁mess	-2376
кан	-2377
▁body	-2378
▁eas	-2379
лан	-2380
▁семь	-2381
▁reason	-2382
sw	-2383
ump	-2384
сов	-2385
▁expl	-2386
ared	-2387
▁поч	-2388
▁момен	-2389
▁gotta	-2390
▁убе	-2391
вым	-2392
ale	-2393
▁провер	-2394
вых	-2395
onder	-2396
amp	-2397
▁sy	-2398
▁тер	-2399
▁пора	-2400
▁hands	-2401
▁этих	-2402
▁Возможно	-2403
▁спасибо	-2404
нил	-2405
▁ше	-2406
llow	-2407
iously	-2408
▁kids	-2409
▁ут	-2410
▁tomorrow	-2411
▁knows	-2412
cess	-2413
▁Car	-2414
▁совсем	-2415
▁sex	-2416
▁нужна	-2417
▁Ме	-2418
▁gun	-2419
▁bro	-2420
▁телеф	-2421
▁куда	-2422
aughter	-2423
▁taking	-2424
ята	-2425
▁Tell	-2426
▁9	-2427
▁уверен	-2428
щей	-2429
▁нужен	-2430
ющий	-2431
▁потеря	-2432
enc	-2433
▁смы	-2434
▁мама	-2435
пера	-2436
▁коман	-2437
сить	-2438
чешь	-2439
▁поло	-2440
hip	-2441
▁ужас	-2442
▁perf	-2443
▁расска	-2444
dd	-2445
▁jo	-2446
▁поэтому	-2447
app	-2448
▁law	-2449
ван	-2450
▁asked	-2451
ank	-2452
тия	-2453
▁хотите	-2454
▁Ло	-2455
▁disc	-2456
▁имя	-2457
▁fact	-2458
band	-2459
▁жаль	-2460
▁кем	-2461
▁minutes	-2462
▁With	-2463
жал	-2464
▁ev	-2465
▁shot	-2466
▁true	-2467
▁ear	-2468
▁оши	-2469
▁отсюда	-2470
▁говоря	-2471
ned	-2472
▁совер	-2473
▁которая	-2474
ньше	-2475
▁chance	-2476
▁book	-2477
▁нами	-2478
рок	-2479
лле	-2480
▁никто	-2481
▁high	-2482
▁beaut	-2483
▁beg	-2484
led	-2485
lic	-2486
▁мат	-2487
дой	-2488
als	-2489
▁тра	-2490
▁Значит	-2491
щее	-2492
▁Will	-2493
▁бли	-2494
cuse	-2495
▁обы	-2496
ского	-2497
▁19	-2498
▁могут	-2499
▁ос	-2500
▁moment	-2501
▁exactly	-2502
▁making	-2503
▁least	-2504
▁hit	-2505
ets	-2506
....	-2507
▁Sp	-2508
▁своего	-2509
зе	-2510
▁Ди	-2511
▁всю	-2512
▁года	-2513
▁продол	-2514
▁makes	-2515
▁между	-2516
▁закончи	-2517
▁hot	-2518
▁different	-2519
▁моло	-2520
▁взя	-2521
son	-2522
ках	-2523
▁8	-2524
usband	-2525
▁fig	-2526
▁change	-2527
▁гра	-2528
▁умер	-2529
▁yes	-2530
cer	-2531
▁Мак	-2532
▁уни	-2533
цев	-2534
▁Кар	-2535
▁spec	-2536
atc	-2537
от	-2538
▁твои	-2539
▁speak	-2540
бро	-2541
▁Ah	-2542
▁ули	-2543
ross	-2544
▁Ничего	-2545
пло	-2546
▁hours	-2547
ised	-2548
▁trust	-2549
▁ри	-2550
ster	-2551
▁Ага	-2552
▁заня	-2553
▁week	-2554
▁кла	-2555
стя	-2556
▁$	-2557
more	-2558
слу	-2559
ween	-2560
▁смогу	-2561
еты	-2562
рд	-2563
стрети	-2564
▁police	-2565
▁against	-2566
▁Мэ	-2567
▁aw	-2568
▁Сейчас	-2569
▁interest	-2570
iful	-2571
▁Z	-2572
шей	-2573
▁ак	-2574
вут	-2575
▁Hi	-2576
▁Пи	-2577
▁swe	-2578
▁Здесь	-2579
чение	-2580
▁другой	-2581
нес	-2582
▁import	-2583
▁серь	-2584
▁question	-2585
▁det	-2586
yes	-2587
▁wonder	-2588
▁OK	-2589
▁young	-2590
▁inside	-2591
▁друга	-2592
▁side	-2593
▁eat	-2594
▁7	-2595
ding	-2596
▁вещи	-2597
unch	-2598
▁bed	-2599
▁наши	-2600
▁Мистер	-2601
▁дня	-2602
▁встрети	-2603
▁использо	-2604
▁безо	-2605
▁раньше	-2606
▁думала	-2607
▁um	-2608
▁призна	-2609
▁будто	-2610
▁worry	-2611
▁именно	-2612
чать	-2613
▁close	-2614
ред	-2615
▁story	-2616
ete	-2617
▁измени	-2618
OU	-2619
▁весь	-2620
▁поя	-2621
▁clear	-2622
▁TH	-2623
rop	-2624
▁party	-2625
olog	-2626
▁виду	-2627
▁power	-2628
▁husband	-2629
ront	-2630
▁coll	-2631
▁cons	-2632
▁вос	-2633
кти	-2634
▁looks	-2635
▁cut	-2636
кро	-2637
▁Q	-2638
uss	-2639
▁cor	-2640
▁Доб	-2641
▁слуша	-2642
▁счастли	-2643
▁times	-2644
ention	-2645
▁Bl	-2646
▁Ab	-2647
▁похо	-2648
вают	-2649
▁человека	-2650
лов	-2651
▁pain	-2652
▁Fran	-2653
▁Меня	-2654
▁равно	-2655
▁Ar	-2656
льный	-2657
iet	-2658
▁gets	-2659
▁answ	-2660
▁30	-2661
ов	-2662
▁...	-2663
▁серд	-2664
ток	-2665
ская	-2666
▁light	-2667
дов	-2668
▁этому	-2669
шку	-2670
йдет	-2671
its	-2672
▁Gr	-2673
▁Зачем	-2674
▁большо	-2675
ху	-2676
йдем	-2677
чен	-2678
▁later	-2679
land	-2680
▁daughter	-2681
sel	-2682
▁Take	-2683
▁ор	-2684
▁могла	-2685
▁пот	-2686
▁able	-2687
▁Christ	-2688
▁15	-2689
▁Um	-2690
▁мальчи	-2691
▁побе	-2692
▁глаза	-2693
▁вели	-2694
ction	-2695
▁sent	-2696
▁видеть	-2697
чат	-2698
▁cop	-2699
ude	-2700
▁Там	-2701
етесь	-2702
▁truth	-2703
▁important	-2704
ited	-2705
?"	-2706
vie	-2707
▁месте	-2708
▁каждый	-2709
▁between	-2710
▁говорю	-2711
ital	-2712
▁inst	-2713
▁мать	-2714
▁Похоже	-2715
raid	-2716
any	-2717
▁которую	-2718
ун	-2719
▁luck	-2720
▁fire	-2721
▁кар	-2722
ene	-2723
▁учи	-2724
щение	-2725
▁поста	-2726
▁office	-2727
▁единствен	-2728
▁Для	-2729
ject	-2730
▁started	-2731
▁друзья	-2732
▁Скажи	-2733
hind	-2734
▁захо	-2735
▁four	-2736
яза	-2737
eal	-2738
чала	-2739
▁л	-2740
▁Listen	-2741
цей	-2742
держи	-2743
▁спроси	-2744
льзя	-2745
▁пару	-2746
▁telling	-2747
нер	-2748
▁five	-2749
by	-2750
нишь	-2751
▁crazy	-2752
▁сама	-2753
ung	-2754
▁free	-2755
дем	-2756
ames	-2757
▁ря	-2758
лить	-2759
▁full	-2760
▁sister	-2761
▁идти	-2762
▁заме	-2763
▁убить	-2764
▁comes	-2765
▁важно	-2766
▁начина	-2767
▁После	-2768
ета	-2769
▁долго	-2770
вую	-2771
▁anymore	-2772
бор	-2773
unt	-2774
▁eyes	-2775
▁зам	-2776
▁дево	-2777
▁своих	-2778
▁Mom	-2779
▁reg	-2780
зда	-2781
▁дви	-2782
▁follow	-2783
брать	-2784
▁Af	-2785
▁Кэ	-2786
▁причи	-2787
rol	-2788
▁secret	-2789
▁норма	-2790
▁Dan	-2791
▁huh	-2792
▁died	-2793
▁half	-2794
▁преступ	-2795
io	-2796
▁авто	-2797
▁попа	-2798
▁tried	-2799
aid	-2800
ек	-2801
▁sing	-2802
▁Даже	-2803
▁behind	-2804
ногда	-2805
▁часть	-2806
▁Моя	-2807
▁beautiful	-2808
щем	-2809
щего	-2810
▁Оста	-2811
▁afraid	-2812
▁protect	-2813
▁couple	-2814
▁New	-2815
▁pat	-2816
inner	-2817
ники	-2818
▁mem	-2819
▁its	-2820
▁чём	-2821
▁Ба	-2822
▁lear	-2823
▁Somet	-2824
лагаю	-2825
▁имею	-2826
▁Le	-2827
нул	-2828
▁wish	-2829
▁тя	-2830
енави	-2831
▁возвра	-2832
лая	-2833
▁спас	-2834
▁Mrs	-2835
▁сколько	-2836
▁собой	-2837
▁жить	-2838
дет	-2839
▁Простите	-2840
▁фото	-2841
▁safe	-2842
▁send	-2843
ane	-2844
доро	-2845
дил	-2846
▁Ц	-2847
▁trou	-2848
▁test	-2849
▁скоро	-2850
рить	-2851
▁needs	-2852
▁Разве	-2853
щения	-2854
ole	-2855
▁His	-2856
▁стать	-2857
▁med	-2858
▁John	-2859
▁случае	-2860
▁bar	-2861
▁Am	-2862
▁water	-2863
сит	-2864
▁запи	-2865
▁мам	-2866
▁pull	-2867
ought	-2868
ina	-2869
▁знаем	-2870
▁чувство	-2871
▁уго	-2872
ваем	-2873
▁Тво	-2874
▁months	-2875
▁number	-2876
▁смерти	-2877
▁сла	-2878
aster	-2879
▁Этот	-2880
▁ю	-2881
дний	-2882
▁неко	-2883
▁town	-2884
▁though	-2885
▁безопас	-2886
▁спра	-2887
▁vis	-2888
▁forg	-2889
▁fe	-2890
▁dream	-2891
inc	-2892
▁Джи	-2893
ush	-2894
▁детей	-2895
ric	-2896
▁bra	-2897
▁Sc	-2898
▁married	-2899
ница	-2900
▁слова	-2901
head	-2902
▁отца	-2903
▁уг	-2904
aken	-2905
▁отправи	-2906
тим	-2907
тон	-2908
▁уста	-2909
▁parent	-2910
▁Прав	-2911
фа	-2912
▁minute	-2913
шёл	-2914
▁Gu	-2915
▁вопрос	-2916
хра	-2917
▁12	-2918
сил	-2919
▁dra	-2920
▁lead	-2921
ким	-2922
▁показа	-2923
▁Джон	-2924
vest	-2925
▁dep	-2926
▁watch	-2927
обра	-2928
▁pri	-2929
rought	-2930
▁кли	-2931
▁whatever	-2932
▁такая	-2933
говари	-2934
▁объяс	-2935
щая	-2936
▁парня	-2937
▁скажу	-2938
тем	-2939
ётся	-2940
▁сказали	-2941
▁спе	-2942
most	-2943
▁жена	-2944
▁жерт	-2945
ents	-2946
▁неё	-2947
ically	-2948
▁нашли	-2949
ertain	-2950
▁front	-2951
▁нашей	-2952
▁собираюсь	-2953
unk	-2954
▁достаточно	-2955
▁лег	-2956
▁довер	-2957
▁кни	-2958
▁попро	-2959
ery	-2960
чает	-2961
▁Им	-2962
▁иди	-2963
жить	-2964
▁fore	-2965
▁Give	-2966
ую	-2967
ract	-2968
щий	-2969
▁вижу	-2970
ссис	-2971
ваешь	-2972
дна	-2973
iate	-2974
▁твою	-2975
▁murder	-2976
▁goes	-2977
ёшь	-2978
▁шо	-2979
▁ху	-2980
▁Har	-2981
,"	-2982
▁мир	-2983
me	-2984
льные	-2985
ony	-2986
rap	-2987
йду	-2988
▁cap	-2989
▁нау	-2990
вого	-2991
ждения	-2992
▁build	-2993
▁сделала	-2994
▁Правда	-2995
li	-2996
osp	-2997
▁оно	-2998
not	-2999
▁связа	-3000
▁answer	-3001
▁tou	-3002
▁ква	-3003
▁внут	-3004
▁team	-3005
▁ext	-3006
ватит	-3007
форма	-3008
ined	-3009
▁stre	-3010
ured	-3011
▁видела	-3012
upid	-3013
▁shoot	-3014
▁произошло	-3015
▁знала	-3016
▁похоже	-3017
gest	-3018
▁brought	-3019
жения	-3020
драв	-3021
▁женщина	-3022
ener	-3023
▁Which	-3024
▁mine	-3025
▁Nothing	-3026
▁увидеть	-3027
▁нес	-3028
ton	-3029
ом	-3030
дож	-3031
ерин	-3032
idence	-3033
▁рядом	-3034
▁одного	-3035
▁посту	-3036
▁обяза	-3037
▁вся	-3038
▁fall	-3039
▁тю	-3040
▁говоришь	-3041
▁ins	-3042
▁готов	-3043
▁past	-3044
▁мерт	-3045
▁Com	-3046
▁аг	-3047
▁stud	-3048
outh	-3049
▁wear	-3050
aj	-3051
ective	-3052
▁quite	-3053
▁зем	-3054
▁пойти	-3055
▁Stop	-3056
▁Поэтому	-3057
▁твоего	-3058
▁сна	-3059
▁ind	-3060
▁Miss	-3061
▁Se	-3062
▁гор	-3063
▁Пу	-3064
▁sweet	-3065
artment	-3066
▁написа	-3067
▁Дэ	-3068
cause	-3069
iving	-3070
▁предпо	-3071
ield	-3072
▁самое	-3073
ER	-3074
▁game	-3075
▁родите	-3076
ts	-3077
воз	-3078
▁вой	-3079
▁зовут	-3080
▁children	-3081
▁waiting	-3082
ёрт	-3083
▁Ре	-3084
вание	-3085
▁less	-3086
▁ребята	-3087
ай	-3088
▁опас	-3089
пыта	-3090
▁Пере	-3091
дам	-3092
▁somebody	-3093
▁убил	-3094
▁случай	-3095
▁Does	-3096
▁бан	-3097
▁buy	-3098
▁Посмотри	-3099
▁aren	-3100
▁посмотри	-3101
▁news	-3102
▁такие	-3103
▁leg	-3104
ience	-3105
idd	-3106
▁сын	-3107
лия	-3108
▁дене	-3109
▁expect	-3110
▁кре	-3111
▁Char	-3112
▁дву	-3113
стой	-3114
lo	-3115
▁vict	-3116
▁понял	-3117
гать	-3118
▁girls	-3119
еры	-3120
▁Ти	-3121
come	-3122
▁fav	-3123
iec	-3124
гна	-3125
тят	-3126
рко	-3127
▁моих	-3128
лич	-3129
▁Давайте	-3130
▁line	-3131
▁говорила	-3132
▁стре	-3133
▁хоть	-3134
▁Jack	-3135
▁ребен	-3136
oll	-3137
раб	-3138
лез	-3139
ента	-3140
▁Really	-3141
▁понимаешь	-3142
,000	-3143
ган	-3144
?!	-3145
▁прости	-3146
▁record	-3147
ехать	-3148
▁Вер	-3149
ой	-3150
▁ваши	-3151
▁насчет	-3152
▁Иди	-3153
еди	-3154
▁Хочешь	-3155
сса	-3156
ging	-3157
▁either	-3158
нию	-3159
kes	-3160
vice	-3161
▁смотри	-3162
▁свобо	-3163
▁Would	-3164
▁тому	-3165
▁sim	-3166
▁hate	-3167
▁Tw	-3168
стью	-3169
▁clean	-3170
▁вашей	-3171
▁почти	-3172
▁air	-3173
дете	-3174
▁кри	-3175
▁компа	-3176
ures	-3177
▁sub	-3178
▁сол	-3179
▁вернуться	-3180
▁ры	-3181
▁узнать	-3182
oke	-3183
ские	-3184
▁es	-3185
▁наз	-3186
▁perfect	-3187
ley	-3188
чером	-3189
▁оружи	-3190
▁руки	-3191
▁sn	-3192
▁вла	-3193
ote	-3194
гая	-3195
ел	-3196
▁мину	-3197
▁grand	-3198
▁называ	-3199
▁делает	-3200
пря	-3201
▁dog	-3202
▁попроси	-3203
co	-3204
▁Tom	-3205
▁Our	-3206
тен	-3207
▁dist	-3208
▁add	-3209
▁easy	-3210
▁приходи	-3211
br	-3212
▁своим	-3213
дание	-3214
▁суще	-3215
теля	-3216
▁pict	-3217
пере	-3218
▁Очень	-3219
лек	-3220
▁Доктор	-3221
раз	-3222
▁отве	-3223
▁прово	-3224
▁stupid	-3225
▁которой	-3226
▁dest	-3227
кус	-3228
▁women	-3229
▁yours	-3230
▁слышал	-3231
▁offic	-3232
ок	-3233
▁быстро	-3234
▁win	-3235
▁outside	-3236
▁мужчи	-3237
▁сможет	-3238
▁брат	-3239
▁ог	-3240
▁alive	-3241
▁mill	-3242
ников	-3243
▁Нас	-3244
▁забо	-3245
▁mist	-3246
▁помощь	-3247
sh	-3248
▁находи	-3249
du	-3250
▁Рас	-3251
▁смог	-3252
▁милли	-3253
▁моим	-3254
▁class	-3255
ics	-3256
to	-3257
▁работать	-3258
eter	-3259
▁краси	-3260
▁ele	-3261
▁Ста	-3262
▁вчера	-3263
▁обеща	-3264
▁уб	-3265
ler	-3266
▁sort	-3267
cle	-3268
▁которого	-3269
▁save	-3270
из	-3271
вается	-3272
gr	-3273
right	-3274
▁пригла	-3275
нный	-3276
▁parents	-3277
▁устро	-3278
▁Су	-3279
ney	-3280
▁одной	-3281
▁trouble	-3282
▁скажи	-3283
ines	-3284
▁вроде	-3285
▁ненави	-3286
IN	-3287
▁свет	-3288
fort	-3289
▁таким	-3290
meric	-3291
▁вечером	-3292
воль	-3293
▁жела	-3294
▁прода	-3295
ished	-3296
▁Вас	-3297
▁Excuse	-3298
▁информа	-3299
che	-3300
itting	-3301
▁Га	-3302
▁seems	-3303
▁order	-3304
▁six	-3305
▁Кри	-3306
▁human	-3307
ility	-3308
▁проблемы	-3309
▁первый	-3310
▁attack	-3311
▁report	-3312
рый	-3313
▁ночью	-3314
▁каж	-3315
▁стал	-3316
▁денег	-3317
▁Per	-3318
pping	-3319
зом	-3320
дят	-3321
▁Che	-3322
▁Was	-3323
▁сильно	-3324
▁также	-3325
▁gra	-3326
▁пон	-3327
▁forget	-3328
рее	-3329
▁нач	-3330
▁ску	-3331
▁00	-3332
▁hang	-3333
▁black	-3334
▁mag	-3335
▁fil	-3336
▁taken	-3337
▁Бу	-3338
логи	-3339
шен	-3340
▁Pro	-3341
▁bas	-3342
▁волну	-3343
ized	-3344
ледова	-3345
▁секу	-3346
▁Man	-3347
▁разговари	-3348
▁иска	-3349
▁вто	-3350
▁exper	-3351
▁running	-3352
▁lives	-3353
▁living	-3354
▁пожа	-3355
стей	-3356
▁изве	-3357
графи	-3358
▁Нико	-3359
▁dinner	-3360
▁feeling	-3361
▁госпо	-3362
▁Her	-3363
▁mil	-3364
▁These	-3365
▁city	-3366
▁неу	-3367
нит	-3368
room	-3369
ative	-3370
▁опера	-3371
▁верно	-3372
▁доктор	-3373
▁return	-3374
▁момент	-3375
▁ошиб	-3376
▁вечерин	-3377
лушайте	-3378
▁мое	-3379
▁машину	-3380
▁himself	-3381
gan	-3382
▁ain	-3383
▁такого	-3384
▁almost	-3385
▁Americ	-3386
▁Никто	-3387
▁Ag	-3388
▁Even	-3389
sy	-3390
▁Cap	-3391
казал	-3392
▁опре	-3393
доб	-3394
ator	-3395
ault	-3396
▁fell	-3397
lcome	-3398
▁внима	-3399
▁Con	-3400
▁Бра	-3401
шно	-3402
▁тюрь	-3403
йтесь	-3404
▁wind	-3405
▁exc	-3406
▁нельзя	-3407
▁жив	-3408
ospital	-3409
▁Бар	-3410
▁Послушай	-3411
leas	-3412
▁surpr	-3413
▁проблема	-3414
▁тро	-3415
чной	-3416
▁Pr	-3417
▁Sam	-3418
▁зачем	-3419
▁asking	-3420
▁YOU	-3421
▁Ин	-3422
▁места	-3423
▁нужны	-3424
ik	-3425
▁Ne	-3426
вили	-3427
пуска	-3428
▁придется	-3429
men	-3430
ants	-3431
вания	-3432
▁inform	-3433
пар	-3434
лло	-3435
▁часов	-3436
▁номер	-3437
▁small	-3438
haps	-3439
▁Ха	-3440
▁dou	-3441
ленно	-3442
▁Се	-3443
дру	-3444
▁certain	-3445
сторо	-3446
▁оди	-3447
▁пои	-3448
▁колле	-3449
▁susp	-3450
рик	-3451
ided	-3452
туа	-3453
▁Mic	-3454
▁кому	-3455
▁Mm	-3456
▁invest	-3457
▁работает	-3458
▁Ан	-3459
вели	-3460
▁After	-3461
▁Pe	-3462
▁Подож	-3463
▁утром	-3464
▁лицо	-3465
▁Би	-3466
чество	-3467
▁бер	-3468
нется	-3469
▁Кла	-3470
вольно	-3471
▁подру	-3472
▁victim	-3473
▁недо	-3474
▁прекрас	-3475
ider	-3476
▁груп	-3477
пил	-3478
▁complete	-3479
дви	-3480
▁шту	-3481
▁fre	-3482
▁нормально	-3483
▁hair	-3484
anger	-3485
вом	-3486
▁imag	-3487
▁Дай	-3488
жит	-3489
▁Ad	-3490
▁ship	-3491
ards	-3492
irth	-3493
▁food	-3494
док	-3495
▁ref	-3496
▁Сколько	-3497
▁последний	-3498
▁слы	-3499
▁успе	-3500
▁Чтобы	-3501
▁осно	-3502
▁Сегодня	-3503
ум	-3504
▁control	-3505
▁права	-3506
▁Майк	-3507
▁Отлично	-3508
конец	-3509
▁съ	-3510
▁doctor	-3511
ствие	-3512
▁stra	-3513
ское	-3514
▁country	-3515
▁сделали	-3516
нял	-3517
▁ними	-3518
▁Su	-3519
▁одну	-3520
▁дверь	-3521
▁cannot	-3522
▁той	-3523
▁оказа	-3524
selves	-3525
▁матери	-3526
oon	-3527
мся	-3528
▁Ки	-3529
ters	-3530
▁special	-3531
▁Пер	-3532
лла	-3533
▁Можно	-3534
▁благода	-3535
▁пово	-3536
▁damn	-3537
▁Че	-3538
mp	-3539
ular	-3540
▁happens	-3541
тье	-3542
▁закры	-3543
▁promise	-3544
▁become	-3545
▁взять	-3546
▁уди	-3547
▁piec	-3548
▁Bar	-3549
▁виде	-3550
сло	-3551
ides	-3552
▁подоз	-3553
▁пов	-3554
вак	-3555
▁possible	-3556
te	-3557
▁возьми	-3558
▁seem	-3559
▁отношения	-3560
arth	-3561
▁ваша	-3562
▁aff	-3563
▁беспоко	-3564
▁meeting	-3565
▁оде	-3566
▁чувствую	-3567
▁принима	-3568
▁company	-3569
нись	-3570
▁оп	-3571
▁pap	-3572
▁высо	-3573
uring	-3574
▁изви	-3575
ровь	-3576
▁правильно	-3577
▁ды	-3578
onest	-3579
▁sick	-3580
ats	-3581
elt	-3582
▁имеет	-3583
▁меч	-3584
▁cool	-3585
▁Дол	-3586
спе	-3587
▁shouldn	-3588
▁lose	-3589
▁ночи	-3590
ян	-3591
▁переста	-3592
▁рассказать	-3593
пад	-3594
stem	-3595
▁ожи	-3596
▁mus	-3597
над	-3598
▁state	-3599
▁Смотри	-3600
▁работы	-3601
▁Tr	-3602
▁Наде	-3603
▁explain	-3604
▁lock	-3605
ury	-3606
кар	-3607
▁дней	-3608
▁город	-3609
▁drug	-3610
ствовать	-3611
iting	-3612
▁план	-3613
▁укра	-3614
пал	-3615
▁Фи	-3616
▁bull	-3617
▁hospital	-3618
▁ок	-3619
помина	-3620
▁along	-3621
urity	-3622
cc	-3623
▁trans	-3624
▁everybody	-3625
▁появи	-3626
▁мно	-3627
▁папа	-3628
▁нарко	-3629
▁останови	-3630
▁weeks	-3631
▁Sir	-3632
▁Извините	-3633
▁art	-3634
дель	-3635
ходя	-3636
▁необ	-3637
либо	-3638
чёт	-3639
торые	-3640
▁запла	-3641
ских	-3642
▁понять	-3643
нила	-3644
▁hor	-3645
▁Пар	-3646
▁дать	-3647
▁dress	-3648
eth	-3649
езжа	-3650
▁Навер	-3651
▁серьез	-3652
...?	-3653
▁оба	-3654
ones	-3655
рода	-3656
▁получить	-3657
▁дерь	-3658
▁wit	-3659
▁дальше	-3660
коло	-3661
нце	-3662
▁50	-3663
▁собствен	-3664
дания	-3665
▁Об	-3666
▁land	-3667
▁идея	-3668
▁tot	-3669
▁Sha	-3670
ёз	-3671
▁пси	-3672
▁филь	-3673
▁глав	-3674
тил	-3675
entle	-3676
▁позна	-3677
▁shall	-3678
▁аре	-3679
▁шанс	-3680
▁хотя	-3681
bs	-3682
▁ten	-3683
▁спраши	-3684
▁Qu	-3685
▁Нью	-3686
▁поза	-3687
▁Эн	-3688
ехали	-3689
▁leaving	-3690
▁adm	-3691
▁контро	-3692
rible	-3693
ept	-3694
▁watc	-3695
▁sell	-3696
▁ball	-3697
ision	-3698
▁sense	-3699
ced	-3700
▁какие	-3701
▁взгля	-3702
ten	-3703
▁наших	-3704
▁оч	-3705
▁Эта	-3706
▁возвраща	-3707
роятно	-3708
▁Got	-3709
▁нео	-3710
▁представля	-3711
▁говорят	-3712
ester	-3713
грам	-3714
льной	-3715
▁сердце	-3716
▁treat	-3717
ехал	-3718
▁зву	-3719
▁figure	-3720
ницу	-3721
▁drive	-3722
▁видели	-3723
▁выбра	-3724
вока	-3725
▁вне	-3726
▁known	-3727
нили	-3728
▁доме	-3729
▁lie	-3730
▁favor	-3731
мом	-3732
новить	-3733
сок	-3734
▁Ох	-3735
ствует	-3736
▁понрави	-3737
▁mad	-3738
▁мило	-3739
▁пять	-3740
▁свое	-3741
рия	-3742
▁которое	-3743
▁поме	-3744
▁ар	-3745
него	-3746
кло	-3747
питан	-3748
▁особ	-3749
▁сот	-3750
колько	-3751
щен	-3752
▁spend	-3753
▁prison	-3754
▁Под	-3755
ходить	-3756
▁разве	-3757
▁жу	-3758
▁system	-3759
▁сва	-3760
▁Sure	-3761
▁Ser	-3762
▁разре	-3763
▁entire	-3764
▁смысле	-3765
▁край	-3766
коми	-3767
шее	-3768
▁Вообще	-3769
▁Джу	-3770
▁созда	-3771
▁голову	-3772
▁weird	-3773
ken	-3774
▁birth	-3775
▁давно	-3776
цен	-3777
▁dire	-3778
▁near	-3779
▁Act	-3780
говор	-3781
ert	-3782
ключи	-3783
▁уйти	-3784
▁тыся	-3785
▁anyway	-3786
ities	-3787
▁Господи	-3788
реди	-3789
шенно	-3790
▁вечер	-3791
▁комп	-3792
▁осо	-3793
▁lady	-3794
тельный	-3795
▁девушка	-3796
мет	-3797
▁уверена	-3798
▁чита	-3799
мира	-3800
▁date	-3801
▁орга	-3802
▁danger	-3803
▁тол	-3804
▁обсу	-3805
▁allow	-3806
дра	-3807
▁Сто	-3808
▁Одна	-3809
▁boys	-3810
▁meant	-3811
гой	-3812
▁прине	-3813
▁ге	-3814
▁funny	-3815
▁телефон	-3816
▁наверное	-3817
ief	-3818
▁скры	-3819
▁key	-3820
▁rid	-3821
нные	-3822
▁кор	-3823
▁pur	-3824
▁throw	-3825
▁Чу	-3826
бора	-3827
льшо	-3828
▁тело	-3829
▁ru	-3830
вался	-3831
airs	-3832
▁небо	-3833
▁Ge	-3834
ially	-3835
▁questions	-3836
oor	-3837
▁секрет	-3838
▁quick	-3839
▁выяс	-3840
▁пара	-3841
▁дети	-3842
▁press	-3843
▁обна	-3844
▁прос	-3845
roy	-3846
рии	-3847
▁люб	-3848
▁Could	-3849
▁loc	-3850
▁год	-3851
▁близ	-3852
рэн	-3853
служи	-3854
▁вашего	-3855
▁May	-3856
▁fut	-3857
чения	-3858
▁мире	-3859
ges	-3860
ском	-3861
▁мас	-3862
▁нашего	-3863
шую	-3864
ержи	-3865
▁par	-3866
▁черт	-3867
▁дочь	-3868
▁выход	-3869
▁pub	-3870
king	-3871
▁сист	-3872
▁weren	-3873
тки	-3874
rie	-3875
▁прежде	-3876
▁клю	-3877
▁phot	-3878
▁worked	-3879
▁gre	-3880
ining	-3881
▁которых	-3882
димся	-3883
ues	-3884
▁top	-3885
▁сразу	-3886
▁foot	-3887
ностью	-3888
▁Джор	-3889
▁тор	-3890
ана	-3891
▁другом	-3892
вила	-3893
▁bel	-3894
нием	-3895
▁bitch	-3896
▁mark	-3897
▁Two	-3898
▁strong	-3899
▁pos	-3900
▁Надеюсь	-3901
▁кварти	-3902
▁longer	-3903
▁ce	-3904
▁уничто	-3905
ma	-3906
▁кур	-3907
▁prof	-3908
▁needed	-3909
gy	-3910
vern	-3911
▁моз	-3912
дили	-3913
oun	-3914
▁step	-3915
▁мисс	-3916
▁stran	-3917
▁Извини	-3918
гази	-3919
▁Знаете	-3920
▁пес	-3921
тельства	-3922
ift	-3923
▁пона	-3924
▁получа	-3925
AT	-3926
viously	-3927
▁обратно	-3928
▁18	-3929
rence	-3930
▁фор	-3931
дорово	-3932
▁услыша	-3933
▁ужи	-3934
▁glad	-3935
oul	-3936
▁Мама	-3937
▁важ	-3938
▁disapp	-3939
▁serious	-3940
ots	-3941
ктив	-3942
oose	-3943
▁ran	-3944
рон	-3945
▁нашел	-3946
емо	-3947
▁помню	-3948
▁шта	-3949
▁Ст	-3950
▁Чар	-3951
▁Эти	-3952
▁исче	-3953
▁shut	-3954
▁Куда	-3955
▁выи	-3956
▁felt	-3957
▁wed	-3958
етыре	-3959
▁приш	-3960
скую	-3961
сона	-3962
▁bag	-3963
.....	-3964
inal	-3965
▁замеча	-3966
▁состоя	-3967
▁ги	-3968
хва	-3969
▁пытался	-3970
▁sug	-3971
▁hey	-3972
▁зара	-3973
▁Ар	-3974
▁red	-3975
▁думаете	-3976
▁eye	-3977
▁Je	-3978
amer	-3979
fer	-3980
печат	-3981
bers	-3982
ection	-3983
▁живо	-3984
▁хотели	-3985
ked	-3986
льта	-3987
чные	-3988
▁worth	-3989
шать	-3990
▁вста	-3991
▁тяже	-3992
▁две	-3993
▁кры	-3994
▁Сан	-3995
iam	-3996
дает	-3997
▁подумал	-3998
▁дво	-3999
▁будете	-4000
▁Позво	-4001
▁Captain	-4002
▁cur	-4003
ead	-4004
кт	-4005
▁Ру	-4006
▁ам	-4007
бери	-4008
▁future	-4009
▁touch	-4010
ior	-4011
▁пришел	-4012
ific	-4013
тие	-4014
▁Wow	-4015
ложить	-4016
▁El	-4017
▁Кажется	-4018
▁super	-4019
▁самый	-4020
пать	-4021
зывать	-4022
енок	-4023
лять	-4024
▁найд	-4025
▁somewhere	-4026
▁Гар	-4027
▁большой	-4028
▁нару	-4029
▁relations	-4030
шить	-4031
▁kiss	-4032
▁следую	-4033
▁Эм	-4034
▁возра	-4035
fic	-4036
▁доб	-4037
▁часа	-4038
▁воло	-4039
▁Jes	-4040
▁turned	-4041
вобо	-4042
▁весе	-4043
тей	-4044
▁Pl	-4045
сили	-4046
▁100	-4047
▁лично	-4048
▁Кей	-4049
▁fast	-4050
▁дере	-4051
▁адвока	-4052
▁необходи	-4053
▁Надо	-4054
▁кораб	-4055
▁использу	-4056
ists	-4057
▁других	-4058
▁двух	-4059
▁пойду	-4060
▁поку	-4061
▁уме	-4062
рта	-4063
▁Еще	-4064
нки	-4065
▁дра	-4066
Cause	-4067
▁собра	-4068
леко	-4069
▁Ben	-4070
aces	-4071
▁finally	-4072
▁Ю	-4073
▁сделаю	-4074
ution	-4075
▁choice	-4076
ющие	-4077
▁Fuck	-4078
▁тр	-4079
▁By	-4080
▁hop	-4081
цион	-4082
▁столько	-4083
▁hon	-4084
▁calling	-4085
▁offer	-4086
▁думать	-4087
▁никаких	-4088
▁Нужно	-4089
▁сможем	-4090
нусь	-4091
nie	-4092
▁пути	-4093
▁ситуа	-4094
▁track	-4095
▁работе	-4096
▁weap	-4097
▁замети	-4098
▁сможешь	-4099
▁million	-4100
▁missing	-4101
зывает	-4102
▁seeing	-4103
дох	-4104
▁wall	-4105
▁магази	-4106
▁words	-4107
▁поверить	-4108
▁cell	-4109
▁evidence	-4110
наче	-4111
▁ahead	-4112
▁arrest	-4113
▁постоя	-4114
ктора	-4115
▁Прошу	-4116
ces	-4117
joy	-4118
ession	-4119
▁посмотреть	-4120
ched	-4121
ницы	-4122
▁рад	-4123
▁неве	-4124
▁какая	-4125
▁хотят	-4126
▁playing	-4127
ys	-4128
▁Джек	-4129
▁cry	-4130
uh	-4131
рит	-4132
▁уч	-4133
▁затем	-4134
▁хороший	-4135
ments	-4136
▁Mc	-4137
▁безопасности	-4138
▁другу	-4139
sol	-4140
▁утро	-4141
▁anybody	-4142
ково	-4143
▁пое	-4144
яв	-4145
тью	-4146
▁Кро	-4147
▁делал	-4148
кля	-4149
▁Something	-4150
▁box	-4151
▁угро	-4152
▁thanks	-4153
▁opp	-4154
▁Му	-4155
▁кроме	-4156
стру	-4157
круг	-4158
▁ребенка	-4159
чув	-4160
▁счет	-4161
▁задни	-4162
▁получил	-4163
rec	-4164
▁short	-4165
ency	-4166
тво	-4167
▁судь	-4168
umb	-4169
цов	-4170
чная	-4171
▁jud	-4172
!"	-4173
▁loved	-4174
▁дал	-4175
▁познакоми	-4176
▁мере	-4177
чек	-4178
▁straight	-4179
▁star	-4180
ected	-4181
лер	-4182
▁двига	-4183
▁ris	-4184
▁ясно	-4185
все	-4186
▁Хоро	-4187
▁сбе	-4188
▁given	-4189
чик	-4190
▁непри	-4191
▁scared	-4192
▁dark	-4193
▁boss	-4194
▁Пом	-4195
▁надеюсь	-4196
▁rather	-4197
тели	-4198
aus	-4199
зь	-4200
▁правду	-4201
ounds	-4202
стати	-4203
▁остаться	-4204
▁Everything	-4205
irt	-4206
▁sol	-4207
▁murd	-4208
ческий	-4209
▁ve	-4210
чеви	-4211
▁THE	-4212
orge	-4213
▁твое	-4214
oint	-4215
тк	-4216
▁Реб	-4217
▁слово	-4218
▁подоб	-4219
cl	-4220
вит	-4221
влека	-4222
лена	-4223
▁Могу	-4224
ries	-4225
▁новый	-4226
став	-4227
▁looked	-4228
цом	-4229
▁прошу	-4230
▁сами	-4231
▁z	-4232
▁Frank	-4233
uation	-4234
ант	-4235
▁Какой	-4236
▁11	-4237
▁мя	-4238
▁coff	-4239
емы	-4240
lex	-4241
▁приго	-4242
▁цен	-4243
▁разо	-4244
люсь	-4245
лит	-4246
▁Один	-4247
нт	-4248
зор	-4249
▁ваше	-4250
ником	-4251
▁Том	-4252
▁пойма	-4253
▁семья	-4254
▁investig	-4255
ям	-4256
▁Эми	-4257
▁concer	-4258
▁довольно	-4259
▁удо	-4260
ature	-4261
▁свидете	-4262
тера	-4263
▁bud	-4264
▁говорили	-4265
▁Actually	-4266
▁dear	-4267
▁sold	-4268
▁invol	-4269
▁любит	-4270
▁чтоб	-4271
▁honest	-4272
▁наконец	-4273
bed	-4274
▁dro	-4275
тый	-4276
▁list	-4277
▁Твой	-4278
▁поль	-4279
▁works	-4280
▁решил	-4281
▁giving	-4282
▁миссис	-4283
ape	-4284
рес	-4285
▁Луч	-4286
alt	-4287
aste	-4288
▁oper	-4289
▁Ste	-4290
жай	-4291
▁fix	-4292
▁Черт	-4293
ama	-4294
▁Lord	-4295
▁безу	-4296
▁стороны	-4297
ara	-4298
▁совет	-4299
▁мед	-4300
▁явля	-4301
▁information	-4302
ode	-4303
ows	-4304
казыва	-4305
▁отлично	-4306
▁деся	-4307
▁долла	-4308
▁building	-4309
▁озна	-4310
▁sometimes	-4311
▁Без	-4312
▁Ro	-4313
▁сом	-4314
▁takes	-4315
▁begin	-4316
▁другие	-4317
▁зада	-4318
▁наблю	-4319
сут	-4320
▁экс	-4321
стрее	-4322
AN	-4323
▁конце	-4324
▁людя	-4325
▁Ha	-4326
▁благо	-4327
▁priv	-4328
▁vo	-4329
hael	-4330
ze	-4331
▁esc	-4332
Йор	-4333
стера	-4334
▁Эд	-4335
▁court	-4336
▁er	-4337
▁changed	-4338
диться	-4339
▁шу	-4340
▁thinks	-4341
дравству	-4342
нение	-4343
▁предло	-4344
▁пришли	-4345
гие	-4346
▁вернулся	-4347
▁cold	-4348
▁gentle	-4349
▁killer	-4350
▁ува	-4351
▁хра	-4352
▁personal	-4353
▁security	-4354
▁Думаешь	-4355
bo	-4356
▁парни	-4357
esterday	-4358
iddle	-4359
▁creat	-4360
ball	-4361
▁lau	-4362
▁Only	-4363
▁squ	-4364
▁сти	-4365
▁bott	-4366
▁пришлось	-4367
▁eng	-4368
▁Откуда	-4369
ming	-4370
▁till	-4371
▁кам	-4372
▁wedding	-4373
льное	-4374
▁Mor	-4375
▁sto	-4376
сила	-4377
ьют	-4378
тащи	-4379
ждать	-4380
ссо	-4381
ремя	-4382
▁фак	-4383
▁честь	-4384
▁ord	-4385
▁смотреть	-4386
▁From	-4387
▁году	-4388
▁иногда	-4389
▁обычно	-4390
чил	-4391
▁ones	-4392
azing	-4393
▁ума	-4394
▁First	-4395
▁dem	-4396
▁выра	-4397
ph	-4398
▁piece	-4399
нали	-4400
▁catch	-4401
▁200	-4402
▁согласи	-4403
omb	-4404
▁одино	-4405
▁cent	-4406
inite	-4407
лай	-4408
elf	-4409
ема	-4410
▁гу	-4411
виду	-4412
▁hist	-4413
гов	-4414
▁исчез	-4415
чай	-4416
▁Буд	-4417
▁пись	-4418
▁worse	-4419
лены	-4420
хожу	-4421
ством	-4422
пита	-4423
▁breat	-4424
▁наша	-4425
ills	-4426
низ	-4427
▁начала	-4428
дали	-4429
▁опо	-4430
▁дев	-4431
▁Прекра	-4432
▁знали	-4433
lfriend	-4434
▁fail	-4435
▁stick	-4436
лой	-4437
alm	-4438
▁cover	-4439
▁пережи	-4440
gg	-4441
▁write	-4442
▁право	-4443
ris	-4444
шек	-4445
▁Jul	-4446
▁прези	-4447
▁god	-4448
▁patient	-4449
▁others	-4450
▁помога	-4451
▁сына	-4452
friend	-4453
▁фотографи	-4454
▁worried	-4455
нешь	-4456
aur	-4457
ссе	-4458
▁moving	-4459
oof	-4460
ющих	-4461
▁picture	-4462
▁happening	-4463
▁kept	-4464
▁Cha	-4465
▁sounds	-4466
▁grow	-4467
▁conn	-4468
▁destroy	-4469
▁Кон	-4470
ully	-4471
▁дете	-4472
▁никого	-4473
▁вернуть	-4474
▁Папа	-4475
▁мень	-4476
▁Put	-4477
▁Hold	-4478
▁learn	-4479
▁умира	-4480
▁decided	-4481
▁поможет	-4482
▁Спо	-4483
льных	-4484
▁стар	-4485
▁Джен	-4486
ages	-4487
мери	-4488
дала	-4489
доби	-4490
▁прия	-4491
gel	-4492
титься	-4493
▁client	-4494
eed	-4495
▁road	-4496
▁справи	-4497
▁Можешь	-4498
▁тай	-4499
solute	-4500
▁крови	-4501
сен	-4502
▁биз	-4503
▁Someone	-4504
▁музы	-4505
atur	-4506
ately	-4507
▁сту	-4508
▁song	-4509
▁дам	-4510
жь	-4511
▁eff	-4512
▁col	-4513
▁Сэр	-4514
▁People	-4515
▁accident	-4516
кую	-4517
▁Хар	-4518
кам	-4519
вен	-4520
▁ground	-4521
▁типа	-4522
▁пришла	-4523
ories	-4524
▁fault	-4525
▁сих	-4526
▁kick	-4527
ол	-4528
▁Gre	-4529
▁Call	-4530
▁ци	-4531
▁Бен	-4532
▁gener	-4533
▁honey	-4534
▁York	-4535
bt	-4536
iding	-4537
▁deep	-4538
itch	-4539
▁clos	-4540
ational	-4541
▁Rem	-4542
bye	-4543
▁norm	-4544
пыт	-4545
▁Jesus	-4546
▁свадь	-4547
▁coffee	-4548
▁Keep	-4549
▁cond	-4550
▁делаю	-4551
▁твоих	-4552
▁нашу	-4553
▁хи	-4554
▁white	-4555
▁Ше	-4556
▁pleas	-4557
▁Пошли	-4558
▁Mon	-4559
▁requ	-4560
▁какое	-4561
▁Подожди	-4562
али	-4563
▁семьи	-4564
aged	-4565
▁оружие	-4566
▁зай	-4567
▁станет	-4568
oh	-4569
циально	-4570
▁Чего	-4571
▁месяцев	-4572
дай	-4573
▁внутри	-4574
▁поез	-4575
▁разру	-4576
▁трудно	-4577
▁smell	-4578
▁писа	-4579
▁выглядит	-4580
▁следует	-4581
йо	-4582
шед	-4583
ятся	-4584
нице	-4585
unity	-4586
▁Nice	-4587
▁respons	-4588
▁бес	-4589
▁преду	-4590
▁ang	-4591
▁Ваша	-4592
▁четыре	-4593
▁будь	-4594
▁bur	-4595
дила	-4596
▁threat	-4597
гом	-4598
hose	-4599
▁ty	-4600
▁ши	-4601
▁fly	-4602
▁Doctor	-4603
▁образом	-4604
▁неза	-4605
▁beat	-4606
▁mention	-4607
▁conv	-4608
▁опять	-4609
ловать	-4610
ror	-4611
erve	-4612
adies	-4613
▁fair	-4614
The	-4615
▁пытаюсь	-4616
стить	-4617
▁таких	-4618
▁вокруг	-4619
▁твоим	-4620
amed	-4621
кси	-4622
▁огром	-4623
▁подозре	-4624
the	-4625
▁холо	-4626
▁заслужи	-4627
рован	-4628
▁broke	-4629
▁Fl	-4630
inger	-4631
▁Ке	-4632
▁секун	-4633
▁суд	-4634
▁Наверное	-4635
▁Ќ	-4636
▁забра	-4637
▁обла	-4638
▁Michael	-4639
▁сте	-4640
▁хватит	-4641
▁спросить	-4642
▁lawy	-4643
ky	-4644
▁угодно	-4645
▁единственный	-4646
▁иметь	-4647
▁music	-4648
▁странно	-4649
▁Сэм	-4650
▁camp	-4651
▁ха	-4652
▁Пред	-4653
▁Помо	-4654
ray	-4655
лад	-4656
▁caught	-4657
▁talked	-4658
mas	-4659
▁Great	-4660
телей	-4661
▁поздно	-4662
▁clot	-4663
▁Пол	-4664
▁нашла	-4665
▁Peter	-4666
▁использовать	-4667
▁ѕ	-4668
льная	-4669
▁спасти	-4670
▁Знаю	-4671
▁превра	-4672
iol	-4673
▁card	-4674
▁полицей	-4675
▁совершенно	-4676
лета	-4677
держа	-4678
▁prep	-4679
▁каждо	-4680
нен	-4681
вид	-4682
▁кофе	-4683
▁relationship	-4684
▁решение	-4685
▁попыта	-4686
▁mis	-4687
▁Jim	-4688
▁rad	-4689
▁хуже	-4690
▁govern	-4691
▁mistake	-4692
▁Dav	-4693
ilt	-4694
▁Бер	-4695
els	-4696
ume	-4697
▁using	-4698
▁любовь	-4699
▁ill	-4700
▁выигра	-4701
▁скажешь	-4702
▁40	-4703
ждение	-4704
LL	-4705
▁получ	-4706
▁хотим	-4707
▁apolog	-4708
▁Твоя	-4709
▁играть	-4710
шкой	-4711
▁ждать	-4712
▁crime	-4713
▁комнате	-4714
▁watching	-4715
дент	-4716
▁message	-4717
ях	-4718
▁street	-4719
▁зако	-4720
▁early	-4721
▁Ника	-4722
▁totally	-4723
лил	-4724
▁Ах	-4725
бить	-4726
▁хва	-4727
▁убийства	-4728
вери	-4729
▁часто	-4730
--	-4731
▁pack	-4732
чая	-4733
gn	-4734
рин	-4735
▁Кра	-4736
▁поки	-4737
▁lying	-4738
erv	-4739
чевидно	-4740
▁Эли	-4741
▁present	-4742
ae	-4743
▁профе	-4744
▁Никогда	-4745
▁руку	-4746
▁кровь	-4747
▁Держи	-4748
▁насто	-4749
view	-4750
▁cir	-4751
▁Три	-4752
▁дура	-4753
▁спать	-4754
▁выз	-4755
▁surv	-4756
▁En	-4757
▁ск	-4758
▁Those	-4759
▁contact	-4760
▁говорите	-4761
initely	-4762
▁вашу	-4763
▁mouth	-4764
▁proper	-4765
▁понадоби	-4766
▁Never	-4767
▁начать	-4768
пустить	-4769
key	-4770
▁Хотя	-4771
▁girlfriend	-4772
ians	-4773
▁respect	-4774
▁Бог	-4775
ровал	-4776
▁Здравству	-4777
лете	-4778
illy	-4779
того	-4780
▁fear	-4781
▁Коро	-4782
▁воспо	-4783
▁adv	-4784
▁Чем	-4785
▁уча	-4786
▁следующий	-4787
▁крайней	-4788
▁малы	-4789
лки	-4790
▁Mart	-4791
ляю	-4792
▁имени	-4793
▁непо	-4794
▁enjoy	-4795
▁div	-4796
▁станови	-4797
▁visit	-4798
▁lab	-4799
▁взял	-4800
▁пропа	-4801
▁suggest	-4802
вел	-4803
▁single	-4804
▁Eng	-4805
зульта	-4806
▁неделю	-4807
▁Col	-4808
cus	-4809
▁brain	-4810
▁Точно	-4811
▁amazing	-4812
▁nobody	-4813
▁мужчина	-4814
ai	-4815
дера	-4816
▁собираешься	-4817
hol	-4818
▁дорогая	-4819
▁части	-4820
▁школе	-4821
▁цер	-4822
▁yesterday	-4823
▁di	-4824
▁Фрэн	-4825
▁Em	-4826
▁писто	-4827
▁sad	-4828
▁посла	-4829
▁lucky	-4830
▁arri	-4831
▁изба	-4832
▁Very	-4833
▁park	-4834
▁completely	-4835
acy	-4836
▁Увер	-4837
▁Мои	-4838
▁здорово	-4839
▁sear	-4840
▁mot	-4841
жении	-4842
▁очере	-4843
ING	-4844
льным	-4845
ON	-4846
▁Ed	-4847
▁пле	-4848
▁заму	-4849
лка	-4850
▁путь	-4851
кли	-4852
реза	-4853
тельство	-4854
▁Люди	-4855
▁paper	-4856
▁полиции	-4857
▁apartment	-4858
▁обще	-4859
▁верн	-4860
RE	-4861
▁паль	-4862
нула	-4863
ices	-4864
iot	-4865
▁16	-4866
▁бога	-4867
▁поги	-4868
▁рада	-4869
▁Именно	-4870
▁ребенок	-4871
vo	-4872
мера	-4873
▁Say	-4874
кер	-4875
▁окру	-4876
рот	-4877
дка	-4878
▁drop	-4879
▁сосе	-4880
▁стои	-4881
▁чувак	-4882
▁долларов	-4883
ходите	-4884
▁знаком	-4885
set	-4886
▁25	-4887
мотря	-4888
рэ	-4889
ческой	-4890
▁паци	-4891
▁history	-4892
bor	-4893
▁доказа	-4894
pper	-4895
вший	-4896
▁чёр	-4897
▁далеко	-4898
eg	-4899
▁сестра	-4900
лые	-4901
▁bath	-4902
▁мало	-4903
▁Ду	-4904
▁contin	-4905
▁Понима	-4906
▁account	-4907
▁ann	-4908
▁sun	-4909
▁cross	-4910
▁позже	-4911
▁машина	-4912
und	-4913
work	-4914
▁огра	-4915
▁public	-4916
шке	-4917
фер	-4918
чей	-4919
▁верю	-4920
▁Ему	-4921
▁повто	-4922
▁age	-4923
▁situation	-4924
▁witness	-4925
▁Рей	-4926
▁придума	-4927
▁бума	-4928
▁новости	-4929
▁оставить	-4930
▁burn	-4931
hel	-4932
рил	-4933
▁Looks	-4934
▁машины	-4935
▁аресто	-4936
▁cost	-4937
ственное	-4938
▁прошлой	-4939
зови	-4940
▁идет	-4941
▁цвет	-4942
кумен	-4943
хе	-4944
ехала	-4945
▁Whatever	-4946
щать	-4947
▁14	-4948
solutely	-4949
▁насколько	-4950
iter	-4951
▁blow	-4952
▁мест	-4953
лок	-4954
▁ring	-4955
▁вид	-4956
▁table	-4957
▁клу	-4958
▁чет	-4959
▁вернусь	-4960
ov	-4961
▁¬	-4962
▁accept	-4963
▁Дэн	-4964
ёте	-4965
▁tre	-4966
▁полностью	-4967
▁fool	-4968
▁сим	-4969
▁жени	-4970
ajor	-4971
▁Тут	-4972
▁middle	-4973
▁steal	-4974
▁wearing	-4975
▁cook	-4976
▁знают	-4977
▁birthday	-4978
▁Mad	-4979
вар	-4980
▁psy	-4981
▁живот	-4982
▁продолжа	-4983
или	-4984
een	-4985
хов	-4986
▁Ок	-4987
▁Det	-4988
▁доч	-4989
▁показать	-4990
нения	-4991
▁rock	-4992
▁влю	-4993
▁feet	-4994
▁soc	-4995
▁Hmm	-4996
▁предо	-4997
▁стро	-4998
▁Ph	-4999
тт	-5000
друг	-5001
▁необходимо	-5002
твер	-5003
▁моё	-5004
▁оби	-5005
ниться	-5006
лег	-5007
▁чуть	-5008
▁сложно	-5009
roup	-5010
▁убили	-5011
▁возможность	-5012
илл	-5013
▁предупре	-5014
▁Фран	-5015
▁handle	-5016
рует	-5017
▁self	-5018
▁пове	-5019
▁pen	-5020
▁apprec	-5021
▁pot	-5022
▁гре	-5023
▁pract	-5024
щь	-5025
ands	-5026
гами	-5027
▁King	-5028
▁mach	-5029
▁машине	-5030
▁истории	-5031
гре	-5032
▁spent	-5033
▁event	-5034
arr	-5035
▁иначе	-5036
▁узнал	-5037
▁своими	-5038
▁думает	-5039
▁стара	-5040
нулся	-5041
erry	-5042
щие	-5043
▁teac	-5044
▁освобо	-5045
itive	-5046
▁Father	-5047
▁Мисс	-5048
▁слышала	-5049
жки	-5050
▁стран	-5051
▁tec	-5052
▁post	-5053
▁заклю	-5054
▁однажды	-5055
▁отли	-5056
циона	-5057
▁нему	-5058
▁camer	-5059
честве	-5060
▁mod	-5061
мс	-5062
▁людям	-5063
тья	-5064
▁двое	-5065
▁гря	-5066
▁hasn	-5067
▁imagine	-5068
irm	-5069
▁дерьмо	-5070
▁откуда	-5071
цем	-5072
▁cause	-5073
sc	-5074
▁Mike	-5075
вались	-5076
wards	-5077
▁suppose	-5078
fully	-5079
плохо	-5080
▁настолько	-5081
пример	-5082
▁около	-5083
▁Bo	-5084
orth	-5085
▁скорее	-5086
гал	-5087
▁terrible	-5088
▁boyfriend	-5089
▁voice	-5090
ствия	-5091
ус	-5092
зов	-5093
▁Pres	-5094
бсо	-5095
▁Иногда	-5096
▁самого	-5097
▁cas	-5098
▁друзей	-5099
▁ed	-5100
▁всей	-5101
▁welcome	-5102
▁bought	-5103
rid	-5104
▁вина	-5105
▁сначала	-5106
"...	-5107
▁anywhere	-5108
вляет	-5109
▁TO	-5110
бий	-5111
▁station	-5112
▁consider	-5113
▁прика	-5114
▁последние	-5115
ism	-5116
▁результа	-5117
▁Christmas	-5118
▁Амери	-5119
▁которым	-5120
▁Чи	-5121
▁Уви	-5122
▁приду	-5123
▁cre	-5124
▁Ой	-5125
▁Рай	-5126
▁све	-5127
▁support	-5128
▁сда	-5129
▁надея	-5130
▁моем	-5131
цией	-5132
▁ble	-5133
▁busy	-5134
▁form	-5135
димо	-5136
▁George	-5137
▁across	-5138
▁убийство	-5139
ческие	-5140
ald	-5141
тай	-5142
▁забрать	-5143
▁during	-5144
юр	-5145
▁готовы	-5146
▁постоянно	-5147
фо	-5148
▁dance	-5149
жка	-5150
▁movie	-5151
стран	-5152
▁недели	-5153
▁давайте	-5154
влю	-5155
лови	-5156
▁эк	-5157
нули	-5158
ander	-5159
бсолю	-5160
▁stri	-5161
гру	-5162
▁Bye	-5163
riage	-5164
енера	-5165
чного	-5166
▁rob	-5167
▁del	-5168
▁tem	-5169
▁Джим	-5170
▁floor	-5171
▁боже	-5172
перед	-5173
▁king	-5174
▁видишь	-5175
▁poor	-5176
▁обнаружи	-5177
▁охо	-5178
▁стол	-5179
▁marry	-5180
▁женщины	-5181
▁сум	-5182
▁мужи	-5183
▁val	-5184
▁ride	-5185
▁прекрасно	-5186
ns	-5187
▁Тебя	-5188
▁мор	-5189
тами	-5190
виться	-5191
▁человеком	-5192
▁Bet	-5193
▁Ё	-5194
стин	-5195
▁Лин	-5196
▁обви	-5197
▁спокой	-5198
▁мене	-5199
▁stopped	-5200
нан	-5201
надле	-5202
▁paid	-5203
▁Ваш	-5204
▁instead	-5205
▁Everyone	-5206
▁лучший	-5207
▁сери	-5208
чено	-5209
ching	-5210
вод	-5211
▁los	-5212
▁наше	-5213
▁bank	-5214
▁killing	-5215
▁doll	-5216
▁глупо	-5217
▁soul	-5218
▁store	-5219
▁pop	-5220
▁кост	-5221
▁forever	-5222
тая	-5223
▁Сдела	-5224
erc	-5225
rat	-5226
рения	-5227
▁neigh	-5228
лку	-5229
▁докумен	-5230
▁история	-5231
net	-5232
▁сообщи	-5233
ливо	-5234
▁sal	-5235
щих	-5236
циаль	-5237
▁ƒ	-5238
uter	-5239
▁другого	-5240
▁tur	-5241
ваете	-5242
стри	-5243
▁Isn	-5244
▁рождения	-5245
рк	-5246
рос	-5247
▁smart	-5248
▁конец	-5249
▁club	-5250
▁realize	-5251
▁sitting	-5252
IS	-5253
go	-5254
▁неда	-5255
▁evening	-5256
▁серьезно	-5257
▁интересно	-5258
▁города	-5259
▁осталось	-5260
▁делаете	-5261
▁17	-5262
бри	-5263
дон	-5264
тать	-5265
▁выс	-5266
▁прис	-5267
▁normal	-5268
тора	-5269
▁городе	-5270
▁Te	-5271
▁камер	-5272
▁принадле	-5273
▁сексу	-5274
▁ужасно	-5275
▁Lea	-5276
▁утра	-5277
▁привет	-5278
▁Какая	-5279
▁Пусть	-5280
ese	-5281
▁органи	-5282
iny	-5283
,...	-5284
▁round	-5285
▁помнишь	-5286
▁фа	-5287
▁anim	-5288
▁ваших	-5289
▁девочка	-5290
▁представить	-5291
▁Потом	-5292
▁Чарли	-5293
▁Sec	-5294
▁Аль	-5295
▁exam	-5296
▁inn	-5297
▁некоторые	-5298
line	-5299
▁iss	-5300
▁сдел	-5301
▁quiet	-5302
▁смерть	-5303
дный	-5304
▁Anyway	-5305
▁означает	-5306
леп	-5307
▁jump	-5308
жели	-5309
▁обвин	-5310
▁расследова	-5311
urch	-5312
▁missed	-5313
▁Ген	-5314
cri	-5315
▁Лучше	-5316
▁причина	-5317
шин	-5318
▁успо	-5319
▁tick	-5320
▁повез	-5321
▁dev	-5322
ption	-5323
▁добра	-5324
▁зави	-5325
ске	-5326
▁sil	-5327
▁calls	-5328
roud	-5329
▁приятель	-5330
rill	-5331
▁Bob	-5332
▁школу	-5333
▁remain	-5334
▁share	-5335
▁finish	-5336
▁наркоти	-5337
вайся	-5338
ffic	-5339
енни	-5340
▁rul	-5341
▁переда	-5342
▁Perhaps	-5343
▁минуту	-5344
▁сообщение	-5345
iant	-5346
▁Рэй	-5347
ently	-5348
▁похи	-5349
жим	-5350
▁uni	-5351
▁поводу	-5352
over	-5353
ement	-5354
▁clothes	-5355
яти	-5356
▁Уже	-5357
▁меньше	-5358
шил	-5359
▁остановить	-5360
▁Hen	-5361
▁сума	-5362
▁милая	-5363
tle	-5364
▁Джа	-5365
stairs	-5366
▁board	-5367
ереть	-5368
▁програм	-5369
▁шоу	-5370
gram	-5371
▁расстро	-5372
▁dangerous	-5373
▁каса	-5374
▁Было	-5375
▁Fine	-5376
▁charge	-5377
▁смотре	-5378
щую	-5379
▁игру	-5380
▁swear	-5381
▁Should	-5382
▁стала	-5383
▁свер	-5384
еме	-5385
пуск	-5386
▁никому	-5387
▁Help	-5388
▁lawyer	-5389
ила	-5390
лее	-5391
▁peace	-5392
▁прошлом	-5393
ches	-5394
▁сред	-5395
▁боя	-5396
▁член	-5397
страи	-5398
▁Comm	-5399
▁hide	-5400
▁interested	-5401
возможно	-5402
чке	-5403
гры	-5404
▁Nobody	-5405
▁шан	-5406
мотрю	-5407
енное	-5408
▁involved	-5409
бил	-5410
▁discuss	-5411
ager	-5412
▁screw	-5413
▁forward	-5414
ili	-5415
▁интер	-5416
▁forgive	-5417
▁вклю	-5418
▁moved	-5419
dden	-5420
▁Damn	-5421
▁Вели	-5422
ентов	-5423
▁belong	-5424
ege	-5425
used	-5426
▁rece	-5427
▁Ту	-5428
▁scene	-5429
▁роди	-5430
▁lunch	-5431
▁suspect	-5432
▁Ray	-5433
▁понимаете	-5434
▁eight	-5435
нгли	-5436
▁Max	-5437
▁любом	-5438
▁чувства	-5439
▁definitely	-5440
▁carry	-5441
▁field	-5442
▁Вин	-5443
▁стало	-5444
lish	-5445
чных	-5446
ission	-5447
▁чему	-5448
▁другое	-5449
▁мальчик	-5450
▁купить	-5451
▁Боб	-5452
▁агент	-5453
▁Дру	-5454
▁enem	-5455
▁язы	-5456
льного	-5457
▁выпол	-5458
▁sudden	-5459
▁Их	-5460
▁born	-5461
ana	-5462
▁уво	-5463
▁вспом	-5464
цать	-5465
▁мар	-5466
▁интерес	-5467
ails	-5468
▁space	-5469
▁элек	-5470
довать	-5471
▁поце	-5472
▁позабо	-5473
▁fill	-5474
▁tor	-5475
▁Мор	-5476
▁приз	-5477
▁Ещё	-5478
ified	-5479
ogn	-5480
мон	-5481
owers	-5482
▁Будь	-5483
▁agree	-5484
стов	-5485
▁coun	-5486
▁любишь	-5487
дки	-5488
▁ќ	-5489
дан	-5490
мя	-5491
гли	-5492
ify	-5493
▁force	-5494
фф	-5495
▁appro	-5496
ишь	-5497
▁hero	-5498
▁впер	-5499
▁ввиду	-5500
▁partner	-5501
матри	-5502
▁suck	-5503
▁Ги	-5504
ваюсь	-5505
▁делают	-5506
▁принять	-5507
▁Detective	-5508
ring	-5509
▁легко	-5510
беру	-5511
▁suc	-5512
▁короле	-5513
▁увидел	-5514
hard	-5515
▁cat	-5516
attle	-5517
пасть	-5518
▁Зем	-5519
▁скажет	-5520
▁своё	-5521
▁Какого	-5522
нуться	-5523
мед	-5524
▁Jen	-5525
▁About	-5526
read	-5527
▁бар	-5528
ходят	-5529
зер	-5530
▁cust	-5531
ев	-5532
тили	-5533
▁меди	-5534
▁лу	-5535
▁Make	-5536
▁viol	-5537
gue	-5538
▁13	-5539
▁pun	-5540
▁род	-5541
▁подтвер	-5542
▁diffic	-5543
▁историю	-5544
aim	-5545
▁tar	-5546
▁suit	-5547
дьми	-5548
хать	-5549
▁ident	-5550
uty	-5551
▁Stay	-5552
▁drunk	-5553
▁вести	-5554
▁готова	-5555
нка	-5556
▁saved	-5557
вни	-5558
▁sat	-5559
▁отказа	-5560
меня	-5561
▁train	-5562
OR	-5563
▁Й	-5564
▁выйти	-5565
▁полагаю	-5566
▁вопросы	-5567
rect	-5568
валась	-5569
▁последнее	-5570
▁Gl	-5571
теше	-5572
▁Alex	-5573
▁боюсь	-5574
▁спу	-5575
▁пошли	-5576
▁Каждый	-5577
▁Par	-5578
▁Whoa	-5579
▁prop	-5580
▁запа	-5581
▁proud	-5582
▁вдруг	-5583
▁подумала	-5584
пой	-5585
йдём	-5586
ears	-5587
жаю	-5588
▁телефо	-5589
▁pregn	-5590
▁Хан	-5591
▁agre	-5592
▁except	-5593
eral	-5594
▁неделе	-5595
▁обу	-5596
▁отцом	-5597
дия	-5598
нах	-5599
▁класс	-5600
▁научи	-5601
▁хорошая	-5602
▁пас	-5603
▁всему	-5604
▁Серь	-5605
▁проце	-5606
▁пример	-5607
ham	-5608
▁возду	-5609
zz	-5610
yle	-5611
EN	-5612
▁Два	-5613
▁полови	-5614
que	-5615
ложил	-5616
▁зу	-5617
▁Charlie	-5618
bert	-5619
▁occ	-5620
▁Sometimes	-5621
эт	-5622
▁потря	-5623
▁прибы	-5624
▁дай	-5625
▁родители	-5626
▁най	-5627
▁Ms	-5628
▁slow	-5629
▁ребён	-5630
▁конца	-5631
ерри	-5632
чаю	-5633
ination	-5634
aff	-5635
▁поняла	-5636
▁ищ	-5637
▁Remember	-5638
тит	-5639
▁Sm	-5640
▁Agent	-5641
▁либо	-5642
▁Говори	-5643
▁feels	-5644
вайте	-5645
▁подго	-5646
▁имеешь	-5647
жала	-5648
hood	-5649
▁position	-5650
▁вещь	-5651
лот	-5652
▁glass	-5653
▁хорош	-5654
bit	-5655
ступа	-5656
▁оставил	-5657
били	-5658
erman	-5659
▁уров	-5660
▁костю	-5661
▁hotel	-5662
▁address	-5663
▁провести	-5664
▁ir	-5665
▁позволить	-5666
ium	-5667
ored	-5668
лым	-5669
дар	-5670
▁Luc	-5671
▁Paul	-5672
▁government	-5673
▁Позволь	-5674
▁извест	-5675
ica	-5676
▁Ho	-5677
▁hung	-5678
▁сохра	-5679
▁unless	-5680
▁tired	-5681
▁удоволь	-5682
ис	-5683
▁gift	-5684
▁компании	-5685
жусь	-5686
▁ma	-5687
▁стан	-5688
▁pretend	-5689
▁24	-5690
▁simple	-5691
дже	-5692
arently	-5693
▁встретиться	-5694
▁Ее	-5695
▁бабу	-5696
▁Видишь	-5697
ским	-5698
▁Сле	-5699
тые	-5700
ций	-5701
ibly	-5702
▁горя	-5703
▁Ind	-5704
▁забыл	-5705
▁Ma	-5706
ius	-5707
▁Питер	-5708
▁р	-5709
джи	-5710
▁gen	-5711
▁тан	-5712
▁President	-5713
▁direct	-5714
▁Оно	-5715
▁людьми	-5716
▁Think	-5717
▁вместо	-5718
▁equ	-5719
▁амери	-5720
▁prove	-5721
▁напи	-5722
▁каким	-5723
▁hy	-5724
▁Cle	-5725
▁начал	-5726
▁appreciate	-5727
пор	-5728
▁oh	-5729
▁определ	-5730
▁известно	-5731
▁dam	-5732
казала	-5733
▁потерял	-5734
▁hund	-5735
▁group	-5736
нами	-5737
▁плани	-5738
▁проти	-5739
▁держать	-5740
▁сработа	-5741
▁remind	-5742
▁служ	-5743
▁deli	-5744
ka	-5745
▁upset	-5746
▁осторо	-5747
щаться	-5748
▁брата	-5749
▁пам	-5750
▁hundred	-5751
▁thous	-5752
▁месяца	-5753
▁Since	-5754
чал	-5755
▁vide	-5756
▁Алло	-5757
▁слыши	-5758
▁Больше	-5759
une	-5760
▁поддер	-5761
cum	-5762
▁Стив	-5763
тин	-5764
▁прощения	-5765
▁roll	-5766
▁сумас	-5767
▁Дело	-5768
▁Майкл	-5769
лё	-5770
▁работал	-5771
▁придётся	-5772
▁Дей	-5773
▁исс	-5774
▁прин	-5775
▁цент	-5776
БР	-5777
▁Генри	-5778
ering	-5779
▁draw	-5780
▁держи	-5781
▁второй	-5782
▁позвонить	-5783
▁magic	-5784
чным	-5785
▁Joe	-5786
▁Ваши	-5787
▁котором	-5788
▁trick	-5789
▁More	-5790
▁насчёт	-5791
статочно	-5792
hys	-5793
▁видео	-5794
▁Хватит	-5795
▁Стра	-5796
кин	-5797
ived	-5798
▁Once	-5799
▁grab	-5800
▁звез	-5801
▁Доброе	-5802
▁Three	-5803
▁extra	-5804
▁таком	-5805
ecially	-5806
▁женщин	-5807
▁Поня	-5808
▁мира	-5809
тельная	-5810
▁ћ	-5811
▁выбор	-5812
▁приня	-5813
iel	-5814
▁зака	-5815
▁мистера	-5816
▁trip	-5817
▁window	-5818
▁дя	-5819
▁Fin	-5820
▁problems	-5821
жку	-5822
зить	-5823
чон	-5824
▁standing	-5825
▁emb	-5826
▁recogn	-5827
бсолютно	-5828
▁kidding	-5829
▁marriage	-5830
▁бом	-5831
itche	-5832
▁зло	-5833
▁миллио	-5834
▁main	-5835
▁difficult	-5836
вли	-5837
сер	-5838
выми	-5839
лых	-5840
▁управля	-5841
▁arm	-5842
▁подож	-5843
▁broken	-5844
▁Didn	-5845
▁связи	-5846
▁комнату	-5847
▁wake	-5848
▁techn	-5849
▁beha	-5850
▁chick	-5851
▁truck	-5852
time	-5853
ляет	-5854
▁уходи	-5855
▁внимание	-5856
лон	-5857
..."	-5858
тка	-5859
▁bast	-5860
дии	-5861
▁ужин	-5862
▁Mary	-5863
▁Возь	-5864
uke	-5865
мм	-5866
▁пусть	-5867
▁laugh	-5868
ploy	-5869
▁Неу	-5870
▁сотру	-5871
▁сигна	-5872
▁attention	-5873
▁мыс	-5874
▁area	-5875
соеди	-5876
▁дан	-5877
▁Nick	-5878
▁сделаем	-5879
▁angry	-5880
жаться	-5881
годи	-5882
▁David	-5883
▁convers	-5884
▁ал	-5885
▁нер	-5886
▁travel	-5887
ал	-5888
литься	-5889
uel	-5890
▁поб	-5891
▁другим	-5892
▁умерла	-5893
▁cops	-5894
▁president	-5895
гло	-5896
рак	-5897
▁праз	-5898
com	-5899
▁убийца	-5900
ancy	-5901
▁seven	-5902
бин	-5903
▁Earth	-5904
uthor	-5905
▁одним	-5906
▁Ска	-5907
ising	-5908
▁Turn	-5909
oud	-5910
сят	-5911
▁heal	-5912
erm	-5913
пила	-5914
▁Сна	-5915
вете	-5916
▁none	-5917
▁James	-5918
▁doubt	-5919
▁привы	-5920
колеп	-5921
▁join	-5922
let	-5923
▁мужа	-5924
▁любви	-5925
gu	-5926
нев	-5927
▁putting	-5928
рна	-5929
▁погиб	-5930
лик	-5931
ires	-5932
койся	-5933
▁impress	-5934
тым	-5935
▁letter	-5936
▁винова	-5937
▁выпить	-5938
▁рассказал	-5939
▁plane	-5940
pa	-5941
▁within	-5942
▁реально	-5943
icated	-5944
▁больно	-5945
цер	-5946
▁excuse	-5947
▁strange	-5948
▁est	-5949
▁neck	-5950
▁service	-5951
uri	-5952
▁decision	-5953
aven	-5954
▁тяжело	-5955
▁Оли	-5956
▁Увидимся	-5957
▁выжи	-5958
стры	-5959
▁работаю	-5960
▁маленький	-5961
uts	-5962
▁практи	-5963
ровали	-5964
тах	-5965
йдёт	-5966
▁emp	-5967
ится	-5968
▁цель	-5969
▁потре	-5970
лили	-5971
▁knock	-5972
▁изу	-5973
▁карти	-5974
▁Ke	-5975
▁произ	-5976
▁умереть	-5977
аки	-5978
irty	-5979
▁газ	-5980
▁honor	-5981
▁неправи	-5982
▁Kn	-5983
▁Пря	-5984
▁путеше	-5985
▁private	-5986
ugg	-5987
▁holding	-5988
▁сп	-5989
риан	-5990
▁buddy	-5991
▁пистолет	-5992
▁weapon	-5993
▁elect	-5994
▁fat	-5995
▁назна	-5996
няет	-5997
▁Shut	-5998
▁выстре	-5999
aked	-6000
тельные	-6001
▁college	-6002
▁взры	-6003
▁Henry	-6004
▁снима	-6005
гите	-6006
хвати	-6007
▁partic	-6008
бовать	-6009
▁моему	-6010
▁парнем	-6011
▁starting	-6012
▁хвата	-6013
▁никакого	-6014
лянусь	-6015
▁полно	-6016
тел	-6017
▁Здравствуйте	-6018
▁fur	-6019
▁machine	-6020
▁пожаловать	-6021
▁Min	-6022
ograp	-6023
▁Ваше	-6024
▁посте	-6025
▁охра	-6026
het	-6027
▁искать	-6028
▁interesting	-6029
year	-6030
▁бол	-6031
▁careful	-6032
how	-6033
▁предложение	-6034
▁сни	-6035
▁времен	-6036
нику	-6037
nal	-6038
▁энер	-6039
▁forgot	-6040
▁surprise	-6041
чную	-6042
▁Роб	-6043
▁Pre	-6044
▁является	-6045
▁Er	-6046
▁стороне	-6047
▁Её	-6048
▁честно	-6049
▁spir	-6050
▁ан	-6051
▁ant	-6052
▁figured	-6053
▁случится	-6054
▁преступления	-6055
▁gentlemen	-6056
lebr	-6057
мите	-6058
▁stuck	-6059
▁bother	-6060
▁fighting	-6061
кре	-6062
▁распо	-6063
orce	-6064
▁быв	-6065
▁счас	-6066
▁ФБР	-6067
▁seconds	-6068
▁заб	-6069
▁Shit	-6070
▁boat	-6071
roll	-6072
▁Спокой	-6073
жале	-6074
▁wonderful	-6075
▁мет	-6076
hmm	-6077
▁level	-6078
▁проверить	-6079
▁Миссис	-6080
ческая	-6081
ena	-6082
▁любов	-6083
▁low	-6084
▁Lou	-6085
▁парт	-6086
AR	-6087
cell	-6088
ording	-6089
kend	-6090
▁Last	-6091
▁target	-6092
▁program	-6093
▁стары	-6094
▁herself	-6095
▁worst	-6096
вьте	-6097
▁risk	-6098
▁берем	-6099
▁невозможно	-6100
▁испол	-6101
▁слома	-6102
▁пят	-6103
▁почув	-6104
rib	-6105
cent	-6106
de	-6107
▁feelings	-6108
чел	-6109
▁лекар	-6110
▁ste	-6111
цени	-6112
▁named	-6113
гии	-6114
BI	-6115
▁Поли	-6116
▁bill	-6117
▁семью	-6118
▁Ric	-6119
▁Sar	-6120
▁быстрее	-6121
ат	-6122
даю	-6123
▁lar	-6124
▁разу	-6125
▁drag	-6126
▁fac	-6127
▁тела	-6128
esides	-6129
vin	-6130
▁innoc	-6131
▁planet	-6132
▁собирался	-6133
enty	-6134
пута	-6135
▁Мам	-6136
▁block	-6137
▁шесть	-6138
жден	-6139
▁Boy	-6140
▁радо	-6141
▁пройти	-6142
▁American	-6143
читы	-6144
▁hoping	-6145
▁намного	-6146
▁Пе	-6147
▁своем	-6148
▁посмотрим	-6149
duct	-6150
▁нрав	-6151
▁Pat	-6152
ibility	-6153
▁серьёз	-6154
▁computer	-6155
▁Благода	-6156
▁Оу	-6157
▁Уол	-6158
▁гро	-6159
▁улице	-6160
лож	-6161
aint	-6162
▁выглядишь	-6163
▁Sim	-6164
▁gold	-6165
▁blue	-6166
▁всеми	-6167
resh	-6168
шает	-6169
▁Бро	-6170
▁Отец	-6171
▁Ей	-6172
раздо	-6173
▁сторону	-6174
▁Mother	-6175
▁большая	-6176
гах	-6177
ern	-6178
▁Huh	-6179
▁lived	-6180
▁собирается	-6181
▁Ай	-6182
▁фе	-6183
▁Anything	-6184
▁подумать	-6185
▁cash	-6186
▁seat	-6187
0.	-6188
▁доверя	-6189
▁willing	-6190
▁TV	-6191
▁мол	-6192
▁защитить	-6193
щаю	-6194
noon	-6195
port	-6196
▁comfort	-6197
▁чест	-6198
▁выбира	-6199
uten	-6200
коль	-6201
▁App	-6202
con	-6203
oring	-6204
▁Грей	-6205
rian	-6206
▁силь	-6207
▁liked	-6208
▁access	-6209
▁Rob	-6210
клады	-6211
▁находится	-6212
▁Послушайте	-6213
▁sens	-6214
утбо	-6215
▁dying	-6216
▁likes	-6217
По	-6218
▁восста	-6219
▁weekend	-6220
▁ноги	-6221
▁дости	-6222
▁курсе	-6223
▁Кроме	-6224
дец	-6225
▁walking	-6226
▁связь	-6227
▁уро	-6228
▁Хочу	-6229
▁Danny	-6230
▁настро	-6231
▁officer	-6232
▁finished	-6233
▁правила	-6234
yl	-6235
▁Верно	-6236
▁любой	-6237
рис	-6238
▁суде	-6239
▁вытащи	-6240
ino	-6241
▁пож	-6242
▁психо	-6243
бку	-6244
▁семей	-6245
нюю	-6246
▁Still	-6247
▁недель	-6248
таки	-6249
кет	-6250
▁Слушайте	-6251
рах	-6252
▁ice	-6253
otion	-6254
▁AN	-6255
ческих	-6256
гер	-6257
▁ото	-6258
▁cred	-6259
lier	-6260
нести	-6261
house	-6262
▁caus	-6263
arling	-6264
▁lay	-6265
▁туа	-6266
иться	-6267
hole	-6268
обе	-6269
пуга	-6270
▁Рожде	-6271
▁celebr	-6272
▁Red	-6273
▁шут	-6274
▁pregnant	-6275
▁игры	-6276
▁тысяч	-6277
▁Полагаю	-6278
▁exist	-6279
▁Mag	-6280
▁drugs	-6281
▁judge	-6282
▁wrote	-6283
▁Пойдем	-6284
▁леди	-6285
▁руках	-6286
▁попробу	-6287
▁понятия	-6288
▁fr	-6289
▁Try	-6290
ki	-6291
oop	-6292
▁keeping	-6293
▁Дон	-6294
▁loves	-6295
▁поко	-6296
▁требу	-6297
▁Кстати	-6298
icide	-6299
you	-6300
▁месяц	-6301
▁относи	-6302
▁мысли	-6303
ulous	-6304
▁приве	-6305
▁perhaps	-6306
▁прикры	-6307
▁поддержи	-6308
verse	-6309
▁зад	-6310
телем	-6311
▁upon	-6312
▁suff	-6313
▁воды	-6314
▁sleeping	-6315
▁хотелось	-6316
▁помощи	-6317
▁Свя	-6318
▁Тот	-6319
▁piss	-6320
▁разобра	-6321
дина	-6322
мов	-6323
▁Co	-6324
▁Ooh	-6325
rench	-6326
стань	-6327
▁third	-6328
▁среди	-6329
▁приятно	-6330
ера	-6331
mmer	-6332
▁сумасшед	-6333
▁whether	-6334
hen	-6335
iced	-6336
щему	-6337
lin	-6338
▁прийти	-6339
▁cab	-6340
▁нашим	-6341
▁самая	-6342
▁learned	-6343
▁решили	-6344
▁gay	-6345
▁Mark	-6346
▁Джордж	-6347
▁helping	-6348
▁driving	-6349
▁Сер	-6350
▁Everybody	-6351
▁прош	-6352
▁стоя	-6353
лья	-6354
чное	-6355
▁мечта	-6356
▁полити	-6357
▁bunch	-6358
▁bomb	-6359
▁crap	-6360
▁твоё	-6361
▁пресле	-6362
ened	-6363
▁спря	-6364
▁капитан	-6365
▁здо	-6366
iff	-6367
▁Бри	-6368
▁America	-6369
дной	-6370
▁earth	-6371
ул	-6372
▁Russ	-6373
▁чуде	-6374
ими	-6375
ives	-6376
▁Должно	-6377
▁certainly	-6378
▁удиви	-6379
▁Welcome	-6380
баты	-6381
чкой	-6382
ый	-6383
▁улы	-6384
вление	-6385
▁пыталась	-6386
пли	-6387
▁обма	-6388
▁choose	-6389
▁бизнес	-6390
▁дорогой	-6391
лье	-6392
▁понадобится	-6393
фу	-6394
нему	-6395
▁rules	-6396
▁ca	-6397
▁Помнишь	-6398
▁wood	-6399
хом	-6400
▁мини	-6401
▁соба	-6402
▁секунду	-6403
▁сотрудни	-6404
▁afternoon	-6405
por	-6406
нной	-6407
льд	-6408
▁prec	-6409
▁mir	-6410
▁Един	-6411
▁голове	-6412
шем	-6413
▁вашим	-6414
▁Before	-6415
льшой	-6416
▁pray	-6417
▁Ведь	-6418
itted	-6419
▁семье	-6420
▁owe	-6421
▁впечат	-6422
твори	-6423
▁idiot	-6424
▁often	-6425
▁video	-6426
▁Через	-6427
лении	-6428
ющим	-6429
▁зас	-6430
▁phys	-6431
▁отлич	-6432
ED	-6433
▁еду	-6434
▁Мэри	-6435
джа	-6436
▁стали	-6437
ners	-6438
▁пытается	-6439
▁wondering	-6440
-1	-6441
ES	-6442
▁jail	-6443
▁глаз	-6444
▁text	-6445
▁своему	-6446
atic	-6447
utenant	-6448
▁Тай	-6449
▁hadn	-6450
▁объяснить	-6451
эл	-6452
▁бывает	-6453
влен	-6454
▁Лон	-6455
▁выпи	-6456
ossible	-6457
▁Зо	-6458
▁неплохо	-6459
▁поле	-6460
тельной	-6461
▁особенно	-6462
▁решила	-6463
▁упа	-6464
▁lovely	-6465
▁experience	-6466
вки	-6467
▁сц	-6468
▁const	-6469
ственный	-6470
▁заставить	-6471
▁Jane	-6472
▁prov	-6473
▁какого	-6474
▁список	-6475
няка	-6476
сл	-6477
дку	-6478
тишь	-6479
▁получится	-6480
вим	-6481
▁окон	-6482
▁сидеть	-6483
пери	-6484
▁вопросов	-6485
▁Tod	-6486
▁Ник	-6487
тельное	-6488
▁Фе	-6489
▁зап	-6490
▁школы	-6491
▁возьму	-6492
▁Дэнни	-6493
rey	-6494
alent	-6495
ls	-6496
▁кос	-6497
ien	-6498
▁пошел	-6499
▁teacher	-6500
gery	-6501
▁buck	-6502
▁finger	-6503
▁одном	-6504
rif	-6505
дри	-6506
▁имел	-6507
▁claim	-6508
▁favorite	-6509
ulations	-6510
▁гораздо	-6511
▁иду	-6512
▁bear	-6513
▁match	-6514
▁футбо	-6515
▁obviously	-6516
них	-6517
▁dig	-6518
ises	-6519
▁rese	-6520
▁host	-6521
▁incl	-6522
▁ез	-6523
▁necess	-6524
▁Расска	-6525
▁Гово	-6526
▁bird	-6527
▁ladies	-6528
лец	-6529
▁guest	-6530
▁spot	-6531
▁organ	-6532
▁mission	-6533
щим	-6534
сный	-6535
▁найду	-6536
ваются	-6537
▁perform	-6538
▁заниматься	-6539
▁кино	-6540
▁feed	-6541
зывал	-6542
▁staying	-6543
▁FBI	-6544
▁skin	-6545
▁ощу	-6546
▁каза	-6547
▁свидание	-6548
ясь	-6549
urs	-6550
▁Sw	-6551
▁crim	-6552
▁Сначала	-6553
▁настоящий	-6554
цами	-6555
ances	-6556
тых	-6557
▁друзьями	-6558
essor	-6559
itten	-6560
▁opport	-6561
чие	-6562
всегда	-6563
▁stole	-6564
▁обязательно	-6565
▁течение	-6566
avy	-6567
▁names	-6568
▁нужда	-6569
▁общем	-6570
▁themselves	-6571
▁соз	-6572
▁allowed	-6573
▁вон	-6574
ступи	-6575
▁mass	-6576
▁тран	-6577
жает	-6578
моему	-6579
▁result	-6580
za	-6581
▁lim	-6582
▁shop	-6583
▁picked	-6584
▁hiding	-6585
▁conversation	-6586
cha	-6587
чер	-6588
лекс	-6589
▁Pol	-6590
▁guard	-6591
▁уверены	-6592
лями	-6593
нике	-6594
▁считаю	-6595
ерью	-6596
стом	-6597
▁разгово	-6598
▁interview	-6599
rog	-6600
aith	-6601
▁fit	-6602
▁Daddy	-6603
▁убь	-6604
един	-6605
▁коль	-6606
mediate	-6607
▁вет	-6608
eared	-6609
▁чертов	-6610
▁$1	-6611
nel	-6612
лую	-6613
▁солда	-6614
▁супер	-6615
fet	-6616
▁wine	-6617
мент	-6618
▁decide	-6619
▁ресто	-6620
жали	-6621
▁повезло	-6622
сю	-6623
ppy	-6624
▁Зак	-6625
▁опла	-6626
▁Leave	-6627
анта	-6628
iment	-6629
▁становится	-6630
▁детектив	-6631
▁ого	-6632
▁помощью	-6633
мая	-6634
rer	-6635
туда	-6636
▁Капитан	-6637
▁доктора	-6638
▁admit	-6639
▁Carl	-6640
▁Grand	-6641
▁seriously	-6642
▁immediate	-6643
▁calm	-6644
▁Завтра	-6645
▁хр	-6646
ква	-6647
▁Big	-6648
▁замуж	-6649
ilty	-6650
▁horse	-6651
▁такую	-6652
▁менее	-6653
▁роман	-6654
par	-6655
bing	-6656
ended	-6657
▁showed	-6658
▁van	-6659
▁подарок	-6660
ids	-6661
тона	-6662
▁дорогу	-6663
▁promised	-6664
▁сомне	-6665
AS	-6666
osh	-6667
щик	-6668
▁пришёл	-6669
бби	-6670
▁blame	-6671
▁сро	-6672
▁пья	-6673
night	-6674
▁Чёрт	-6675
▁постро	-6676
wise	-6677
▁gar	-6678
▁силы	-6679
▁доба	-6680
▁речь	-6681
чок	-6682
▁Тем	-6683
▁вниз	-6684
▁замо	-6685
▁болез	-6686
▁золо	-6687
▁Сай	-6688
▁самой	-6689
рию	-6690
ческого	-6691
▁became	-6692
▁хорошие	-6693
▁Ry	-6694
▁нём	-6695
▁Ok	-6696
astic	-6697
▁Рича	-6698
▁арми	-6699
▁парней	-6700
▁success	-6701
▁американ	-6702
itor	-6703
▁Ясно	-6704
▁покон	-6705
▁преда	-6706
▁подозреваем	-6707
мит	-6708
▁War	-6709
▁hook	-6710
▁отда	-6711
▁сила	-6712
хода	-6713
▁cup	-6714
▁vill	-6715
▁focus	-6716
вном	-6717
рез	-6718
esome	-6719
▁жену	-6720
▁девчон	-6721
▁услышать	-6722
кать	-6723
мены	-6724
ствую	-6725
▁sac	-6726
▁ублю	-6727
▁кол	-6728
вяза	-6729
▁вашем	-6730
▁Ted	-6731
влять	-6732
▁Доро	-6733
▁заба	-6734
ral	-6735
▁church	-6736
▁тюрьме	-6737
▁момента	-6738
саю	-6739
▁Макс	-6740
▁bathroom	-6741
arch	-6742
uro	-6743
▁получили	-6744
▁X	-6745
idge	-6746
гает	-6747
▁hall	-6748
▁fish	-6749
няя	-6750
рами	-6751
▁твоем	-6752
▁usually	-6753
▁могло	-6754
▁исследова	-6755
сия	-6756
▁Вз	-6757
стан	-6758
▁информацию	-6759
▁немед	-6760
▁корабль	-6761
пустил	-6762
▁innocent	-6763
▁исправи	-6764
oe	-6765
▁medical	-6766
кими	-6767
llen	-6768
IT	-6769
▁фильм	-6770
▁стреля	-6771
▁подро	-6772
▁Тома	-6773
жей	-6774
▁босс	-6775
▁miles	-6776
▁глубо	-6777
пь	-6778
мей	-6779
▁большое	-6780
▁tea	-6781
▁собы	-6782
▁tough	-6783
▁весело	-6784
дись	-6785
▁ушла	-6786
▁чт	-6787
▁Джейн	-6788
▁вернулась	-6789
ческое	-6790
▁словно	-6791
▁идиот	-6792
▁нашем	-6793
▁День	-6794
▁Уил	-6795
дится	-6796
fortun	-6797
ishing	-6798
▁deserve	-6799
▁сможете	-6800
olly	-6801
▁eating	-6802
▁состоянии	-6803
жела	-6804
▁присоеди	-6805
▁чувствуешь	-6806
чий	-6807
▁яй	-6808
▁Поз	-6809
▁завер	-6810
▁звучит	-6811
▁neg	-6812
▁концов	-6813
▁компьют	-6814
aced	-6815
▁sle	-6816
▁Добро	-6817
▁memory	-6818
amb	-6819
▁hol	-6820
▁passed	-6821
▁further	-6822
▁Has	-6823
enn	-6824
чена	-6825
юрпри	-6826
▁фу	-6827
▁correct	-6828
overed	-6829
ector	-6830
навли	-6831
▁заяв	-6832
ственность	-6833
▁surprised	-6834
iles	-6835
дная	-6836
▁tele	-6837
▁huge	-6838
ткнись	-6839
▁pulled	-6840
▁делали	-6841
▁прокля	-6842
▁aut	-6843
▁жесто	-6844
нят	-6845
▁Гла	-6846
▁голос	-6847
▁notice	-6848
▁Richard	-6849
▁beginning	-6850
▁Кру	-6851
ached	-6852
▁ourselves	-6853
▁ката	-6854
yn	-6855
▁пы	-6856
роят	-6857
▁jack	-6858
▁вещей	-6859
▁Cor	-6860
▁den	-6861
▁murdered	-6862
ongrat	-6863
▁какую	-6864
▁этими	-6865
▁locked	-6866
.,	-6867
вало	-6868
itary	-6869
▁вкус	-6870
▁противо	-6871
▁изменить	-6872
▁отправля	-6873
▁побо	-6874
▁op	-6875
чества	-6876
▁добро	-6877
▁search	-6878
▁Cal	-6879
▁попасть	-6880
▁Сам	-6881
▁встречу	-6882
▁Гарри	-6883
▁девушку	-6884
▁каждого	-6885
▁трав	-6886
▁books	-6887
▁Уи	-6888
жный	-6889
▁fired	-6890
ask	-6891
▁Bab	-6892
▁лоша	-6893
▁ушел	-6894
▁Всегда	-6895
rief	-6896
inary	-6897
▁буты	-6898
▁investigation	-6899
дро	-6900
▁будущее	-6901
нешься	-6902
ints	-6903
▁rich	-6904
▁assist	-6905
▁девушки	-6906
▁ас	-6907
▁ways	-6908
▁Daniel	-6909
▁absolutely	-6910
▁Lie	-6911
▁code	-6912
▁секс	-6913
▁Боль	-6914
▁поса	-6915
▁pleasure	-6916
▁gives	-6917
ountain	-6918
вку	-6919
нге	-6920
▁polit	-6921
▁милый	-6922
▁turns	-6923
▁побы	-6924
▁счастлив	-6925
▁file	-6926
lt	-6927
сах	-6928
дают	-6929
тура	-6930
mb	-6931
гих	-6932
▁teach	-6933
▁делаем	-6934
▁сделает	-6935
▁difference	-6936
itchen	-6937
▁Обе	-6938
▁гости	-6939
ology	-6940
важно	-6941
▁Time	-6942
▁Сара	-6943
▁ошиба	-6944
▁разговор	-6945
пись	-6946
▁избе	-6947
▁Прямо	-6948
▁первым	-6949
▁придет	-6950
▁встречи	-6951
uly	-6952
льник	-6953
▁контроли	-6954
▁четвер	-6955
▁понятно	-6956
▁подальше	-6957
▁cow	-6958
▁Matt	-6959
▁Park	-6960
▁рано	-6961
мый	-6962
▁Брай	-6963
OM	-6964
▁бля	-6965
▁дире	-6966
▁остро	-6967
дитель	-6968
▁process	-6969
▁абсолютно	-6970
▁Ev	-6971
▁joke	-6972
▁trial	-6973
▁Ребята	-6974
▁письмо	-6975
еру	-6976
▁helped	-6977
хран	-6978
грать	-6979
▁полицию	-6980
▁выбора	-6981
▁author	-6982
полне	-6983
aly	-6984
пен	-6985
▁earlier	-6986
▁детка	-6987
▁Сли	-6988
▁type	-6989
▁вечеринку	-6990
velop	-6991
▁мужик	-6992
▁сожале	-6993
▁професси	-6994
▁небе	-6995
▁медици	-6996
▁Somebody	-6997
▁=	-6998
нём	-6999
▁dude	-7000
▁утвер	-7001
▁bloody	-7002
жные	-7003
▁влюб	-7004
▁остальные	-7005
мое	-7006
▁потра	-7007
йди	-7008
▁делу	-7009
▁Love	-7010
▁Стой	-7011
▁Amy	-7012
▁repl	-7013
▁слышали	-7014
▁ап	-7015
▁gas	-7016
▁evil	-7017
▁ide	-7018
▁анали	-7019
лд	-7020
▁нож	-7021
▁plans	-7022
▁shoes	-7023
бь	-7024
▁listening	-7025
НК	-7026
▁tour	-7027
▁делала	-7028
hop	-7029
▁WH	-7030
▁реш	-7031
You	-7032
▁ока	-7033
енти	-7034
▁Всем	-7035
▁Back	-7036
▁French	-7037
бом	-7038
▁хозя	-7039
▁оттуда	-7040
▁первой	-7041
чим	-7042
rick	-7043
▁weak	-7044
▁knowing	-7045
▁выяснить	-7046
NA	-7047
▁вез	-7048
▁emer	-7049
вро	-7050
▁доступ	-7051
▁женщину	-7052
▁минутку	-7053
sha	-7054
▁пошла	-7055
▁Челове	-7056
▁несчаст	-7057
▁вечно	-7058
▁band	-7059
awn	-7060
▁шлю	-7061
▁surgery	-7062
▁искус	-7063
▁guilty	-7064
▁стоило	-7065
sec	-7066
▁vac	-7067
▁сты	-7068
▁sake	-7069
▁называется	-7070
тур	-7071
▁cute	-7072
▁полиция	-7073
▁думали	-7074
▁волнуйся	-7075
▁геро	-7076
биться	-7077
▁bastard	-7078
▁employ	-7079
ex	-7080
▁Bur	-7081
po	-7082
▁camera	-7083
▁хочется	-7084
▁бак	-7085
▁common	-7086
▁великолеп	-7087
achel	-7088
▁Chief	-7089
▁0	-7090
канчи	-7091
▁секунд	-7092
▁немедленно	-7093
▁очевидно	-7094
рачи	-7095
▁расста	-7096
▁IT	-7097
▁боро	-7098
там	-7099
няться	-7100
▁gotten	-7101
▁reach	-7102
▁impossible	-7103
▁Можете	-7104
▁услови	-7105
anda	-7106
▁напа	-7107
▁любил	-7108
▁верить	-7109
▁пойдем	-7110
▁касается	-7111
везти	-7112
▁chair	-7113
▁crack	-7114
▁близко	-7115
▁sea	-7116
писать	-7117
▁волосы	-7118
гги	-7119
ену	-7120
wood	-7121
▁bigger	-7122
▁положи	-7123
▁Chan	-7124
▁карь	-7125
ляр	-7126
нулась	-7127
▁кух	-7128
▁fresh	-7129
▁tree	-7130
▁yell	-7131
▁сожал	-7132
▁страш	-7133
▁responsible	-7134
▁beer	-7135
▁Какие	-7136
▁удалось	-7137
fast	-7138
▁dump	-7139
▁lied	-7140
▁новую	-7141
▁Aw	-7142
icle	-7143
▁качестве	-7144
ker	-7145
▁Наш	-7146
▁Джули	-7147
пан	-7148
▁получила	-7149
щай	-7150
▁объя	-7151
▁".	-7152
▁obs	-7153
▁neighbor	-7154
▁drinking	-7155
▁паро	-7156
though	-7157
▁задницу	-7158
OW	-7159
▁съе	-7160
▁pictures	-7161
▁push	-7162
борато	-7163
▁неуда	-7164
▁воен	-7165
▁попробовать	-7166
range	-7167
▁agent	-7168
▁Этого	-7169
ствовал	-7170
▁существует	-7171
▁гряз	-7172
интере	-7173
host	-7174
▁jour	-7175
▁hom	-7176
▁Open	-7177
▁дочери	-7178
▁контра	-7179
▁президен	-7180
▁впервые	-7181
andon	-7182
▁пригото	-7183
▁planning	-7184
разу	-7185
▁созна	-7186
▁записи	-7187
▁принес	-7188
▁Honey	-7189
шинство	-7190
▁позволи	-7191
▁summer	-7192
light	-7193
▁исклю	-7194
▁seemed	-7195
▁жизнью	-7196
▁opportunity	-7197
▁Hon	-7198
▁пры	-7199
heart	-7200
▁годы	-7201
▁женой	-7202
▁навсегда	-7203
▁случайно	-7204
▁Move	-7205
ule	-7206
▁Next	-7207
▁отнош	-7208
▁другую	-7209
дёт	-7210
стря	-7211
▁hungry	-7212
▁смогла	-7213
ille	-7214
▁фун	-7215
▁обещаю	-7216
▁вероятно	-7217
▁черта	-7218
▁design	-7219
▁десять	-7220
▁начали	-7221
▁перес	-7222
▁планет	-7223
ooper	-7224
▁fort	-7225
▁Элли	-7226
asy	-7227
сей	-7228
▁слышать	-7229
енты	-7230
▁apart	-7231
▁присут	-7232
▁Ap	-7233
рят	-7234
riff	-7235
вших	-7236
▁egg	-7237
тится	-7238
▁нашёл	-7239
▁master	-7240
▁нового	-7241
тру	-7242
▁imm	-7243
вре	-7244
▁Ant	-7245
▁Нем	-7246
▁orig	-7247
▁defend	-7248
▁Лей	-7249
iew	-7250
▁hi	-7251
▁бор	-7252
▁суб	-7253
▁ключ	-7254
чарова	-7255
▁medic	-7256
▁English	-7257
▁Уда	-7258
▁пап	-7259
▁офис	-7260
рай	-7261
▁quickly	-7262
▁получилось	-7263
▁познакомиться	-7264
ergy	-7265
чник	-7266
▁ходить	-7267
▁hole	-7268
▁Unless	-7269
▁smo	-7270
▁Lond	-7271
▁Кен	-7272
▁повре	-7273
дди	-7274
▁price	-7275
▁свидания	-7276
жо	-7277
гия	-7278
льную	-7279
▁continue	-7280
▁броса	-7281
▁reading	-7282
▁Неужели	-7283
▁detective	-7284
▁дали	-7285
▁бой	-7286
▁shar	-7287
andy	-7288
▁mid	-7289
▁пти	-7290
▁купил	-7291
езно	-7292
прос	-7293
тный	-7294
▁круто	-7295
▁realized	-7296
▁!	-7297
цио	-7298
aire	-7299
▁Неко	-7300
▁60	-7301
▁тюрьму	-7302
▁Окей	-7303
▁ya	-7304
рика	-7305
▁Del	-7306
▁crew	-7307
аме	-7308
▁недавно	-7309
щает	-7310
▁попросил	-7311
▁Сло	-7312
▁обоих	-7313
rupt	-7314
тила	-7315
▁project	-7316
▁hun	-7317
▁mate	-7318
▁неправильно	-7319
▁records	-7320
ёд	-7321
жнее	-7322
шему	-7323
▁намер	-7324
▁army	-7325
▁платье	-7326
▁22	-7327
▁смешно	-7328
▁оставаться	-7329
кова	-7330
▁эмо	-7331
▁Уверен	-7332
▁Vict	-7333
ллер	-7334
тии	-7335
▁дала	-7336
▁tight	-7337
▁неиз	-7338
▁Gener	-7339
▁прибли	-7340
▁writing	-7341
лях	-7342
arrass	-7343
▁очередь	-7344
ффе	-7345
▁Фрэнк	-7346
▁считает	-7347
duce	-7348
▁kitchen	-7349
▁доверять	-7350
▁base	-7351
▁покупа	-7352
▁чувствовать	-7353
▁взяли	-7354
▁walked	-7355
▁following	-7356
тали	-7357
antic	-7358
▁cast	-7359
▁живет	-7360
▁пожи	-7361
▁Спокойной	-7362
▁миллионов	-7363
cher	-7364
▁крова	-7365
▁German	-7366
ero	-7367
▁dirty	-7368
▁лица	-7369
▁blind	-7370
▁восто	-7371
бло	-7372
▁осу	-7373
▁Adam	-7374
▁Lady	-7375
▁смогли	-7376
ca	-7377
еми	-7378
elie	-7379
rant	-7380
▁Ого	-7381
▁Продол	-7382
▁ребёнка	-7383
сье	-7384
▁Согла	-7385
▁делай	-7386
▁распро	-7387
▁напомина	-7388
▁pus	-7389
▁Кор	-7390
▁Жи	-7391
лено	-7392
▁advice	-7393
5.	-7394
▁показания	-7395
кви	-7396
▁enc	-7397
▁intro	-7398
кки	-7399
менить	-7400
кур	-7401
▁Моло	-7402
нам	-7403
reme	-7404
крой	-7405
▁Que	-7406
▁взор	-7407
тельным	-7408
▁poison	-7409
▁команда	-7410
▁Over	-7411
▁Harry	-7412
▁каком	-7413
▁London	-7414
ata	-7415
aret	-7416
▁credit	-7417
▁Мер	-7418
▁final	-7419
▁войны	-7420
▁отдел	-7421
▁поехать	-7422
▁Аг	-7423
ответ	-7424
▁пози	-7425
▁double	-7426
▁escape	-7427
OT	-7428
▁наста	-7429
ference	-7430
▁двери	-7431
▁Thom	-7432
▁tells	-7433
▁думают	-7434
VE	-7435
йл	-7436
жной	-7437
▁прие	-7438
▁Ух	-7439
▁danc	-7440
▁21	-7441
▁Боюсь	-7442
▁мертв	-7443
▁letting	-7444
▁Inter	-7445
▁pal	-7446
▁ДНК	-7447
gress	-7448
▁услу	-7449
▁помогу	-7450
▁hearing	-7451
ted	-7452
скор	-7453
▁embarrass	-7454
хая	-7455
▁Guys	-7456
▁Прави	-7457
▁понравится	-7458
off	-7459
▁scr	-7460
▁неви	-7461
▁карто	-7462
▁film	-7463
▁поро	-7464
▁local	-7465
▁apologize	-7466
▁rent	-7467
▁Бога	-7468
ivil	-7469
▁quit	-7470
▁поговорим	-7471
gency	-7472
▁коло	-7473
▁коли	-7474
▁чёрт	-7475
▁Однажды	-7476
▁родителей	-7477
два	-7478
▁avo	-7479
▁esp	-7480
▁Step	-7481
▁faith	-7482
▁автобу	-7483
рам	-7484
well	-7485
нди	-7486
▁Ow	-7487
▁Хи	-7488
▁посо	-7489
▁участ	-7490
▁spirit	-7491
▁дни	-7492
▁quar	-7493
▁теря	-7494
▁руково	-7495
вей	-7496
▁ban	-7497
▁ехать	-7498
▁новые	-7499
▁жертвы	-7500
vious	-7501
▁battle	-7502
▁view	-7503
▁каких	-7504
▁Алекс	-7505
▁Ty	-7506
▁House	-7507
▁Sarah	-7508
мини	-7509
▁Eric	-7510
▁сожалению	-7511
▁друж	-7512
▁freak	-7513
▁смысл	-7514
▁просил	-7515
▁Слишком	-7516
col	-7517
льшое	-7518
▁жены	-7519
▁раза	-7520
лого	-7521
▁бле	-7522
rel	-7523
▁Лор	-7524
ствием	-7525
▁closed	-7526
▁empty	-7527
▁amb	-7528
▁похоро	-7529
▁неприят	-7530
▁waste	-7531
ruct	-7532
мента	-7533
▁мамой	-7534
▁descri	-7535
▁узнала	-7536
▁twice	-7537
▁свидетель	-7538
gin	-7539
▁физи	-7540
зит	-7541
лят	-7542
▁fed	-7543
▁свете	-7544
▁гражда	-7545
▁West	-7546
▁ненавижу	-7547
ply	-7548
▁бри	-7549
рать	-7550
▁Кас	-7551
▁arms	-7552
▁договори	-7553
▁лаборато	-7554
▁Sit	-7555
▁мусо	-7556
▁застре	-7557
▁bringing	-7558
▁ho	-7559
mail	-7560
▁Want	-7561
▁terror	-7562
моби	-7563
▁note	-7564
▁department	-7565
аку	-7566
дко	-7567
▁Sl	-7568
▁Most	-7569
▁Время	-7570
▁Little	-7571
▁приехал	-7572
▁contract	-7573
empt	-7574
▁единственная	-7575
▁радио	-7576
yal	-7577
reet	-7578
▁Son	-7579
▁Эмили	-7580
▁Джимми	-7581
вол	-7582
▁Ком	-7583
▁Happ	-7584
▁Серьезно	-7585
xic	-7586
▁spoke	-7587
▁соста	-7588
▁мужчины	-7589
▁warm	-7590
▁aware	-7591
▁played	-7592
▁устраи	-7593
шеб	-7594
▁keeps	-7595
▁забыть	-7596
▁Скажите	-7597
▁заняться	-7598
▁мёрт	-7599
▁inj	-7600
▁Хотите	-7601
▁пользу	-7602
▁собираемся	-7603
▁Кл	-7604
gers	-7605
семь	-7606
▁Хе	-7607
iety	-7608
▁purp	-7609
▁одол	-7610
▁посе	-7611
ervous	-7612
▁enemy	-7613
▁Джона	-7614
▁времена	-7615
чусь	-7616
▁Phil	-7617
эль	-7618
▁пр	-7619
▁маме	-7620
ишься	-7621
▁City	-7622
atural	-7623
▁напря	-7624
мена	-7625
▁sour	-7626
▁itself	-7627
▁Lieutenant	-7628
ipe	-7629
▁капита	-7630
▁Ша	-7631
▁Sant	-7632
▁losing	-7633
▁places	-7634
нья	-7635
▁Mo	-7636
▁позвоню	-7637
имся	-7638
▁vir	-7639
▁Обы	-7640
творя	-7641
▁чудо	-7642
▁wound	-7643
▁flight	-7644
▁Гер	-7645
▁ран	-7646
▁фер	-7647
▁Jimmy	-7648
▁built	-7649
▁Дайте	-7650
▁prefer	-7651
▁особен	-7652
▁Ча	-7653
▁сопро	-7654
▁suddenly	-7655
▁bene	-7656
▁уезжа	-7657
▁career	-7658
ased	-7659
▁Фло	-7660
▁проку	-7661
cy	-7662
▁aud	-7663
▁Carol	-7664
▁нечто	-7665
▁corner	-7666
aded	-7667
ждую	-7668
▁ign	-7669
▁насла	-7670
▁опу	-7671
▁photo	-7672
▁зая	-7673
▁чере	-7674
пно	-7675
▁fant	-7676
▁Watch	-7677
▁хватает	-7678
▁предлага	-7679
▁сексуаль	-7680
чены	-7681
▁bare	-7682
▁Check	-7683
▁restaur	-7684
ongratulations	-7685
▁измен	-7686
▁Нельзя	-7687
▁убивать	-7688
▁Bill	-7689
тенант	-7690
▁хорошее	-7691
▁pressure	-7692
▁доказать	-7693
ET	-7694
▁финан	-7695
▁особо	-7696
▁dreams	-7697
▁захочешь	-7698
▁immediately	-7699
▁Ху	-7700
▁Out	-7701
версит	-7702
▁develop	-7703
▁Полу	-7704
▁вечера	-7705
▁Никаких	-7706
▁held	-7707
▁дога	-7708
▁island	-7709
nes	-7710
шими	-7711
▁послушай	-7712
▁маленькая	-7713
▁Будет	-7714
▁захва	-7715
▁лучшее	-7716
oman	-7717
▁und	-7718
▁bod	-7719
▁узнает	-7720
▁следова	-7721
▁speaking	-7722
▁taste	-7723
▁нечего	-7724
бот	-7725
▁kidna	-7726
▁pants	-7727
50	-7728
▁vol	-7729
▁вперед	-7730
▁полага	-7731
▁sand	-7732
▁acting	-7733
▁energy	-7734
▁постара	-7735
вка	-7736
ades	-7737
▁сексом	-7738
▁Расскажи	-7739
вос	-7740
▁эй	-7741
iculous	-7742
▁Поверь	-7743
лог	-7744
▁Wor	-7745
▁spo	-7746
▁Сью	-7747
geant	-7748
▁позвонил	-7749
мыш	-7750
▁трени	-7751
▁найдем	-7752
▁Gar	-7753
sing	-7754
жено	-7755
кому	-7756
шите	-7757
▁забира	-7758
▁подождать	-7759
▁Зву	-7760
▁вза	-7761
▁дел	-7762
onel	-7763
▁минуты	-7764
▁weapons	-7765
стон	-7766
▁duty	-7767
▁request	-7768
▁nervous	-7769
▁сне	-7770
▁hurry	-7771
"!	-7772
▁checked	-7773
▁прове	-7774
ays	-7775
▁Фо	-7776
▁pan	-7777
▁guns	-7778
▁малыш	-7779
▁прися	-7780
▁инстру	-7781
▁полез	-7782
▁dating	-7783
▁успоко	-7784
рка	-7785
▁ur	-7786
▁выну	-7787
▁major	-7788
▁Джеймс	-7789
ведливо	-7790
▁orders	-7791
ботать	-7792
▁старый	-7793
▁spl	-7794
val	-7795
льз	-7796
▁маму	-7797
▁commun	-7798
▁сделаешь	-7799
сами	-7800
▁шпи	-7801
▁останется	-7802
бан	-7803
▁odd	-7804
▁rom	-7805
▁дороги	-7806
▁звонил	-7807
itz	-7808
▁живу	-7809
▁Doesn	-7810
▁boo	-7811
чается	-7812
▁intell	-7813
▁Hur	-7814
▁Black	-7815
дю	-7816
▁fem	-7817
ences	-7818
▁посы	-7819
▁Погоди	-7820
▁General	-7821
lect	-7822
▁подожди	-7823
▁Jeff	-7824
rag	-7825
▁bullet	-7826
▁видите	-7827
▁Probably	-7828
▁Ob	-7829
▁High	-7830
▁cous	-7831
▁bottle	-7832
▁becom	-7833
▁darling	-7834
жат	-7835
рат	-7836
shit	-7837
iling	-7838
▁целый	-7839
▁выше	-7840
▁сюрпри	-7841
▁Сла	-7842
ealous	-7843
▁Paris	-7844
▁Какое	-7845
▁раскры	-7846
▁dropped	-7847
▁магазин	-7848
▁заставля	-7849
▁necessary	-7850
▁безум	-7851
▁Интере	-7852
▁испыта	-7853
▁некото	-7854
▁слушай	-7855
▁finding	-7856
▁noticed	-7857
mon	-7858
тик	-7859
тль	-7860
▁serv	-7861
▁White	-7862
ых	-7863
ссии	-7864
▁делом	-7865
▁беремен	-7866
▁upstairs	-7867
льном	-7868
bb	-7869
▁Чер	-7870
▁clearly	-7871
▁лей	-7872
▁sight	-7873
▁¶	-7874
vis	-7875
▁desk	-7876
▁scream	-7877
urse	-7878
редо	-7879
▁рот	-7880
▁godd	-7881
ett	-7882
▁бере	-7883
▁горо	-7884
▁Besides	-7885
ceed	-7886
▁Too	-7887
▁soft	-7888
▁удар	-7889
▁Sounds	-7890
ёнок	-7891
▁whose	-7892
▁написал	-7893
▁Kat	-7894
▁пить	-7895
▁Scott	-7896
▁самых	-7897
▁Cr	-7898
like	-7899
▁charac	-7900
▁рассказала	-7901
рядок	-7902
▁nine	-7903
▁никакой	-7904
▁расскажу	-7905
▁воспомина	-7906
▁bow	-7907
▁onto	-7908
▁wild	-7909
▁Кейт	-7910
dom	-7911
▁прогу	-7912
▁слышу	-7913
няли	-7914
▁race	-7915
▁radio	-7916
▁breakfast	-7917
▁Were	-7918
▁господин	-7919
yond	-7920
рому	-7921
▁Ryan	-7922
▁Попро	-7923
▁Скоро	-7924
▁оправ	-7925
▁повы	-7926
▁нравятся	-7927
sed	-7928
ису	-7929
долго	-7930
▁пото	-7931
▁генера	-7932
▁заметил	-7933
цеп	-7934
▁insp	-7935
▁pock	-7936
▁адвокат	-7937
падение	-7938
▁agreed	-7939
нской	-7940
▁идёт	-7941
▁повед	-7942
▁easier	-7943
▁твоему	-7944
▁possibly	-7945
▁profession	-7946
влечь	-7947
▁узнали	-7948
дке	-7949
тий	-7950
гарет	-7951
▁separ	-7952
▁Mmm	-7953
▁мамы	-7954
жнему	-7955
▁above	-7956
▁knife	-7957
▁звонок	-7958
▁dare	-7959
▁regret	-7960
▁позволь	-7961
шнего	-7962
▁Rick	-7963
▁Гу	-7964
▁талан	-7965
▁beyond	-7966
▁everywhere	-7967
rate	-7968
▁hanging	-7969
▁numbers	-7970
▁raise	-7971
▁sever	-7972
▁возьм	-7973
▁Пора	-7974
▁пообе	-7975
▁направ	-7976
▁неболь	-7977
▁головы	-7978
▁никуда	-7979
▁ще	-7980
льких	-7981
▁деть	-7982
▁incred	-7983
ект	-7984
▁билет	-7985
▁Ell	-7986
▁Мон	-7987
▁gang	-7988
▁shooting	-7989
▁thousand	-7990
▁Show	-7991
▁hello	-7992
▁captain	-7993
▁команду	-7994
▁жало	-7995
▁Except	-7996
▁вполне	-7997
▁прочита	-7998
чо	-7999
▁мысль	-8000
imate	-8001
▁matters	-8002
arden	-8003
▁Dep	-8004
idden	-8005
▁crying	-8006
день	-8007
▁фран	-8008
▁отправ	-8009
▁arrived	-8010
▁стану	-8011
▁William	-8012
back	-8013
жных	-8014
essed	-8015
▁Stan	-8016
▁крас	-8017
▁книгу	-8018
▁custom	-8019
ями	-8020
▁мужчин	-8021
▁Seriously	-8022
▁воск	-8023
▁simply	-8024
▁поиска	-8025
▁восполь	-8026
▁react	-8027
▁taught	-8028
▁многое	-8029
▁Jud	-8030
▁вышел	-8031
▁rout	-8032
▁срав	-8033
симо	-8034
▁больницу	-8035
рори	-8036
▁запо	-8037
▁похож	-8038
▁appear	-8039
мар	-8040
▁ok	-8041
▁коп	-8042
▁студ	-8043
▁разби	-8044
▁market	-8045
▁Dar	-8046
▁Mum	-8047
▁част	-8048
тился	-8049
▁детьми	-8050
▁попросить	-8051
▁ль	-8052
lock	-8053
esty	-8054
▁Tra	-8055
▁green	-8056
▁closer	-8057
ндже	-8058
ленной	-8059
af	-8060
▁€.	-8061
вок	-8062
▁fake	-8063
жна	-8064
▁Jan	-8065
▁command	-8066
▁civil	-8067
▁некоторы	-8068
▁Эл	-8069
▁Kill	-8070
вайтесь	-8071
▁продолжать	-8072
▁Рад	-8073
▁Today	-8074
▁Until	-8075
▁девочки	-8076
дное	-8077
▁мэм	-8078
▁perm	-8079
▁слов	-8080
▁стой	-8081
▁открыть	-8082
▁DNA	-8083
iers	-8084
▁худ	-8085
▁thr	-8086
ko	-8087
▁due	-8088
▁поднима	-8089
do	-8090
aine	-8091
▁мнение	-8092
▁condition	-8093
мин	-8094
ному	-8095
▁отвра	-8096
▁жертва	-8097
▁ног	-8098
▁сос	-8099
ality	-8100
▁nose	-8101
▁никак	-8102
дник	-8103
пати	-8104
▁pet	-8105
▁awesome	-8106
жил	-8107
низу	-8108
▁кана	-8109
▁наверняка	-8110
сило	-8111
▁Emily	-8112
▁study	-8113
▁Fred	-8114
▁Uncle	-8115
▁привлека	-8116
▁осозна	-8117
asc	-8118
field	-8119
▁врач	-8120
ration	-8121
▁появля	-8122
▁powerful	-8123
▁Подождите	-8124
▁шка	-8125
▁excited	-8126
den	-8127
▁bottom	-8128
▁shows	-8129
▁взяла	-8130
▁разум	-8131
▁спосо	-8132
▁бас	-8133
▁джен	-8134
▁обед	-8135
▁чисто	-8136
▁стране	-8137
▁больнице	-8138
мати	-8139
▁голова	-8140
▁купи	-8141
делить	-8142
▁ended	-8143
▁Чувак	-8144
▁получается	-8145
шит	-8146
▁Ши	-8147
▁печа	-8148
▁activ	-8149
жант	-8150
usion	-8151
▁новая	-8152
book	-8153
▁юри	-8154
▁Кэро	-8155
▁разобраться	-8156
▁Шар	-8157
itude	-8158
▁stab	-8159
▁Возьми	-8160
▁например	-8161
▁существо	-8162
▁фотографии	-8163
сажи	-8164
▁господа	-8165
su	-8166
вании	-8167
▁необы	-8168
▁neither	-8169
▁$2	-8170
жены	-8171
кции	-8172
▁Ман	-8173
▁Jess	-8174
▁cock	-8175
▁relax	-8176
▁Добрый	-8177
▁arrested	-8178
▁Yep	-8179
▁черто	-8180
▁кстати	-8181
ческую	-8182
убий	-8183
держать	-8184
olen	-8185
▁pig	-8186
orney	-8187
▁nature	-8188
ваешься	-8189
▁Немного	-8190
no	-8191
▁таб	-8192
▁закончится	-8193
▁AND	-8194
1.	-8195
Йорк	-8196
джер	-8197
▁Ken	-8198
ждает	-8199
▁Under	-8200
EA	-8201
▁еди	-8202
▁plant	-8203
▁попал	-8204
▁especially	-8205
ato	-8206
ите	-8207
▁psyc	-8208
▁Ros	-8209
дения	-8210
▁Сюда	-8211
▁speed	-8212
▁betray	-8213
▁somehow	-8214
▁автомоби	-8215
US	-8216
iring	-8217
▁забыла	-8218
▁слушать	-8219
▁пя	-8220
▁Run	-8221
▁streng	-8222
▁забудь	-8223
▁команды	-8224
▁00.	-8225
▁страшно	-8226
▁particular	-8227
▁OF	-8228
▁Гре	-8229
▁Angel	-8230
▁smoke	-8231
▁criminal	-8232
arm	-8233
isa	-8234
▁legs	-8235
olf	-8236
крет	-8237
рито	-8238
▁Тре	-8239
дного	-8240
▁champ	-8241
▁Подума	-8242
zen	-8243
эро	-8244
▁bell	-8245
▁bodies	-8246
▁подруга	-8247
зан	-8248
▁отка	-8249
▁выйдет	-8250
▁victims	-8251
▁убедиться	-8252
▁fol	-8253
▁земле	-8254
▁дороге	-8255
▁женщиной	-8256
▁Сте	-8257
▁забер	-8258
▁значи	-8259
▁профессиона	-8260
▁500	-8261
ходил	-8262
енности	-8263
▁замечательно	-8264
бб	-8265
ads	-8266
▁Дэвид	-8267
▁обеспе	-8268
ses	-8269
▁докто	-8270
▁убийстве	-8271
пети	-8272
порт	-8273
▁uncle	-8274
▁paying	-8275
ель	-8276
▁новое	-8277
▁рассла	-8278
▁следующей	-8279
▁разбира	-8280
▁breath	-8281
▁Ричард	-8282
▁Wil	-8283
▁Пап	-8284
▁fund	-8285
▁concerned	-8286
min	-8287
▁Мари	-8288
▁bleed	-8289
▁ridiculous	-8290
▁tow	-8291
▁Aren	-8292
▁позволю	-8293
ux	-8294
ram	-8295
дные	-8296
руют	-8297
▁шаг	-8298
▁занят	-8299
▁research	-8300
fuck	-8301
▁планы	-8302
hew	-8303
рел	-8304
▁tran	-8305
▁Парень	-8306
▁слышишь	-8307
мах	-8308
▁эм	-8309
▁among	-8310
▁управ	-8311
fortunately	-8312
дём	-8313
▁Lau	-8314
▁Wal	-8315
▁подходя	-8316
▁Nor	-8317
▁assume	-8318
▁круп	-8319
▁military	-8320
▁Ради	-8321
▁волнова	-8322
гон	-8323
▁чь	-8324
ipped	-8325
▁Five	-8326
▁длин	-8327
▁говорим	-8328
vey	-8329
venge	-8330
▁внимания	-8331
ees	-8332
▁сре	-8333
ental	-8334
▁myster	-8335
▁Rep	-8336
inion	-8337
▁образ	-8338
▁вернется	-8339
гай	-8340
ledge	-8341
стрет	-8342
▁loss	-8343
▁вышла	-8344
▁дерев	-8345
▁written	-8346
gie	-8347
▁ѕо	-8348
▁Bre	-8349
▁аль	-8350
▁прият	-8351
▁Bu	-8352
▁Find	-8353
▁Лили	-8354
▁Jake	-8355
incess	-8356
▁object	-8357
ford	-8358
ston	-8359
▁lies	-8360
▁препо	-8361
▁влия	-8362
▁jealous	-8363
▁президент	-8364
лома	-8365
▁цели	-8366
▁compet	-8367
тре	-8368
▁Nat	-8369
▁мон	-8370
▁cal	-8371
▁направля	-8372
▁Иису	-8373
▁отсле	-8374
▁Понимаешь	-8375
icy	-8376
▁уто	-8377
▁rule	-8378
▁кров	-8379
лением	-8380
▁Прези	-8381
▁грузови	-8382
3.	-8383
думы	-8384
▁harm	-8385
▁leaves	-8386
▁emotion	-8387
duc	-8388
вный	-8389
▁merc	-8390
▁Пари	-8391
▁сердца	-8392
ita	-8393
▁sam	-8394
▁Жен	-8395
▁stories	-8396
▁квартиру	-8397
▁Дэй	-8398
▁Твои	-8399
ground	-8400
▁Bring	-8401
▁любят	-8402
▁awful	-8403
▁заканчи	-8404
ина	-8405
▁Фор	-8406
дцать	-8407
▁присла	-8408
▁Понятно	-8409
▁благодаря	-8410
▁restaurant	-8411
sen	-8412
рки	-8413
▁иск	-8414
▁action	-8415
▁includ	-8416
▁адрес	-8417
▁восхи	-8418
▁purpose	-8419
▁whoa	-8420
▁уехать	-8421
▁Некоторые	-8422
▁опасности	-8423
▁танце	-8424
▁practice	-8425
▁закончить	-8426
рев	-8427
▁мер	-8428
▁сил	-8429
lyn	-8430
▁Happy	-8431
▁красо	-8432
▁электро	-8433
▁народ	-8434
▁..	-8435
сите	-8436
▁Ham	-8437
▁port	-8438
писы	-8439
▁Sus	-8440
▁firm	-8441
▁sched	-8442
▁asleep	-8443
▁документы	-8444
эк	-8445
▁accom	-8446
▁survive	-8447
▁pu	-8448
▁eh	-8449
ounce	-8450
ential	-8451
iation	-8452
▁интересу	-8453
ША	-8454
▁heaven	-8455
рё	-8456
▁ждет	-8457
▁shock	-8458
▁Много	-8459
eech	-8460
▁тон	-8461
▁stage	-8462
▁dollars	-8463
▁daddy	-8464
▁invited	-8465
▁девя	-8466
▁хорошим	-8467
льф	-8468
рук	-8469
inct	-8470
▁ата	-8471
▁изна	-8472
▁subject	-8473
▁Dou	-8474
▁Hall	-8475
▁персона	-8476
▁emergency	-8477
otten	-8478
▁repres	-8479
▁снаружи	-8480
плы	-8481
ссор	-8482
▁Gab	-8483
▁Prof	-8484
ванием	-8485
▁встречаться	-8486
ading	-8487
▁избавиться	-8488
▁тео	-8489
▁Other	-8490
ID	-8491
▁tape	-8492
▁покое	-8493
▁Victor	-8494
▁бросил	-8495
▁Предста	-8496
▁Заткнись	-8497
AY	-8498
▁Ис	-8499
▁Bea	-8500
▁rub	-8501
▁ver	-8502
▁whoever	-8503
дую	-8504
стая	-8505
▁tax	-8506
летки	-8507
▁деду	-8508
▁весьма	-8509
роваться	-8510
▁двигаться	-8511
▁незна	-8512
шили	-8513
▁авари	-8514
шал	-8515
тти	-8516
▁убью	-8517
▁откро	-8518
▁stolen	-8519
интересо	-8520
▁Swe	-8521
ped	-8522
чили	-8523
▁prepared	-8524
erk	-8525
▁la	-8526
▁прино	-8527
2.	-8528
теле	-8529
▁поу	-8530
▁пого	-8531
ajesty	-8532
▁slept	-8533
▁several	-8534
▁прокуро	-8535
▁ј	-8536
▁Dude	-8537
▁large	-8538
тельных	-8539
▁driver	-8540
▁starts	-8541
▁Например	-8542
хие	-8543
шель	-8544
шний	-8545
ору	-8546
цент	-8547
▁Суд	-8548
▁каби	-8549
▁плохой	-8550
▁recently	-8551
elly	-8552
▁Гри	-8553
▁лес	-8554
дании	-8555
праши	-8556
▁Queen	-8557
▁smile	-8558
▁truly	-8559
▁вампи	-8560
▁vamp	-8561
▁effect	-8562
▁клиент	-8563
▁считаешь	-8564
рица	-8565
▁Али	-8566
vered	-8567
жество	-8568
▁Exactly	-8569
▁сильнее	-8570
шись	-8571
▁Mal	-8572
▁бесс	-8573
▁роль	-8574
ровала	-8575
▁любить	-8576
▁turning	-8577
▁увидишь	-8578
▁Полиция	-8579
ruction	-8580
зон	-8581
▁обсудить	-8582
▁damage	-8583
кор	-8584
▁Mil	-8585
▁dry	-8586
▁pers	-8587
▁первого	-8588
hold	-8589
▁реа	-8590
судар	-8591
▁dumb	-8592
▁обез	-8593
▁публи	-8594
▁ребят	-8595
▁использовал	-8596
зм	-8597
▁Уэ	-8598
емон	-8599
▁эффе	-8600
▁книги	-8601
▁Rachel	-8602
▁animal	-8603
▁Ор	-8604
ites	-8605
дняя	-8606
▁Mur	-8607
▁идут	-8608
лс	-8609
чти	-8610
ends	-8611
▁cars	-8612
пустите	-8613
▁мета	-8614
father	-8615
зоваться	-8616
▁justice	-8617
angu	-8618
▁отды	-8619
iction	-8620
▁снять	-8621
atest	-8622
▁path	-8623
▁отцу	-8624
▁покажу	-8625
▁brothers	-8626
▁Звучит	-8627
GH	-8628
▁коми	-8629
▁mix	-8630
▁Всего	-8631
▁рекла	-8632
▁Очевидно	-8633
▁операции	-8634
▁возможности	-8635
▁рук	-8636
▁afford	-8637
▁произво	-8638
▁Хей	-8639
▁моём	-8640
▁Ol	-8641
▁телеви	-8642
▁США	-8643
▁каждую	-8644
пов	-8645
▁Bro	-8646
▁диа	-8647
▁Тони	-8648
▁взрос	-8649
▁отвер	-8650
▁прием	-8651
▁приходится	-8652
вана	-8653
▁трех	-8654
▁обраща	-8655
aker	-8656
▁мен	-8657
▁destroyed	-8658
▁45	-8659
IC	-8660
энди	-8661
▁Mac	-8662
▁shirt	-8663
▁secrets	-8664
люс	-8665
фри	-8666
кров	-8667
▁Steve	-8668
▁журна	-8669
▁застря	-8670
меется	-8671
никами	-8672
▁твори	-8673
▁увидела	-8674
▁серьёзно	-8675
жище	-8676
▁туалет	-8677
▁соответ	-8678
▁Fo	-8679
▁разговаривать	-8680
▁Эдди	-8681
▁отдать	-8682
▁спросил	-8683
йт	-8684
▁HE	-8685
нера	-8686
фици	-8687
▁новой	-8688
▁убила	-8689
Не	-8690
▁Затем	-8691
верх	-8692
board	-8693
▁Must	-8694
▁суда	-8695
▁ghost	-8696
▁Int	-8697
▁пришло	-8698
▁Another	-8699
▁отпечат	-8700
▁log	-8701
▁Син	-8702
▁риско	-8703
▁упомина	-8704
нологи	-8705
нность	-8706
▁запом	-8707
▁большие	-8708
▁strength	-8709
reen	-8710
енько	-8711
▁борь	-8712
▁ситуации	-8713
▁Acc	-8714
▁comb	-8715
▁threw	-8716
▁Pret	-8717
▁оставля	-8718
▁недостаточно	-8719
▁reb	-8720
▁sen	-8721
▁ищу	-8722
▁Honor	-8723
▁amount	-8724
▁провед	-8725
коно	-8726
▁lately	-8727
▁спаса	-8728
▁Сы	-8729
▁Ран	-8730
▁помог	-8731
▁сынок	-8732
пустили	-8733
уди	-8734
цам	-8735
▁IN	-8736
дование	-8737
▁attract	-8738
енность	-8739
▁Господин	-8740
form	-8741
▁Tim	-8742
▁пусты	-8743
▁клянусь	-8744
▁землю	-8745
▁connection	-8746
тое	-8747
▁Jon	-8748
▁cand	-8749
▁контак	-8750
▁потеряла	-8751
▁hig	-8752
▁keys	-8753
▁WE	-8754
▁Star	-8755
▁Guess	-8756
▁Джерри	-8757
▁horrible	-8758
сан	-8759
▁Sy	-8760
▁Emm	-8761
почка	-8762
▁Grace	-8763
▁вышло	-8764
▁самые	-8765
▁abandon	-8766
ilar	-8767
rank	-8768
▁fle	-8769
▁chief	-8770
▁получше	-8771
▁Бей	-8772
▁cousin	-8773
▁такими	-8774
▁остался	-8775
▁плевать	-8776
▁скажите	-8777
▁followed	-8778
▁Тор	-8779
▁всём	-8780
▁Джесси	-8781
orts	-8782
суль	-8783
▁Martin	-8784
▁Gra	-8785
asons	-8786
ending	-8787
▁террори	-8788
▁exec	-8789
▁pool	-8790
▁выпуск	-8791
прежнему	-8792
▁goddamn	-8793
кал	-8794
таться	-8795
ano	-8796
▁Talk	-8797
▁Попробу	-8798
▁написано	-8799
▁заво	-8800
▁веришь	-8801
сишь	-8802
▁силу	-8803
▁shame	-8804
▁social	-8805
▁постра	-8806
▁девушкой	-8807
mond	-8808
izing	-8809
плю	-8810
▁Four	-8811
▁psych	-8812
▁достать	-8813
▁притворя	-8814
althy	-8815
сим	-8816
щина	-8817
orter	-8818
▁пиро	-8819
itions	-8820
▁plenty	-8821
LE	-8822
▁heads	-8823
▁разво	-8824
▁theory	-8825
▁attempt	-8826
▁challen	-8827
пле	-8828
▁проя	-8829
cellent	-8830
▁Thomas	-8831
▁подвер	-8832
▁ответить	-8833
▁butt	-8834
жением	-8835
▁самым	-8836
▁likely	-8837
▁частью	-8838
▁душе	-8839
дравляю	-8840
▁потрясаю	-8841
▁принести	-8842
▁пля	-8843
▁saving	-8844
▁ошибку	-8845
▁примерно	-8846
▁sending	-8847
шила	-8848
ницей	-8849
▁факт	-8850
▁университ	-8851
▁Lee	-8852
▁изо	-8853
▁отде	-8854
▁ju	-8855
▁сове	-8856
▁сделку	-8857
▁исправить	-8858
гам	-8859
лина	-8860
▁Тру	-8861
▁spell	-8862
▁Bra	-8863
▁led	-8864
▁Скорее	-8865
▁первая	-8866
▁chicken	-8867
▁сожалею	-8868
▁fan	-8869
▁дав	-8870
цуз	-8871
▁доказательства	-8872
▁Kim	-8873
▁Tony	-8874
▁Offic	-8875
▁заболе	-8876
бет	-8877
дор	-8878
▁issue	-8879
▁mountain	-8880
▁bust	-8881
▁rain	-8882
▁воду	-8883
тельного	-8884
▁Посмотрите	-8885
▁Hel	-8886
▁жду	-8887
▁settle	-8888
▁поняли	-8889
▁волнует	-8890
▁Jap	-8891
рение	-8892
▁Anna	-8893
▁vote	-8894
дитесь	-8895
▁older	-8896
▁ближе	-8897
▁перево	-8898
▁проверя	-8899
▁взглянуть	-8900
▁health	-8901
▁scient	-8902
▁соглас	-8903
▁выходит	-8904
▁believed	-8905
▁recognize	-8906
эрри	-8907
▁Hal	-8908
▁Street	-8909
▁пытались	-8910
▁принимать	-8911
зай	-8912
рур	-8913
▁contain	-8914
▁Наши	-8915
▁liter	-8916
▁manage	-8917
▁наказа	-8918
▁operation	-8919
ёмся	-8920
▁mum	-8921
▁работ	-8922
▁память	-8923
▁comfortable	-8924
▁умо	-8925
▁Энди	-8926
▁бизне	-8927
▁ван	-8928
▁кольцо	-8929
▁послуша	-8930
▁обвинения	-8931
▁пь	-8932
▁вку	-8933
▁lord	-8934
▁волшеб	-8935
▁оставила	-8936
▁Насколько	-8937
▁Сол	-8938
ender	-8939
▁Cast	-8940
▁expen	-8941
▁teeth	-8942
лайн	-8943
▁многие	-8944
▁телефону	-8945
▁компьютер	-8946
▁Mel	-8947
▁отра	-8948
▁пери	-8949
▁Thing	-8950
▁Apparently	-8951
▁уничтожить	-8952
бов	-8953
вард	-8954
▁cream	-8955
▁deser	-8956
▁weight	-8957
▁детекти	-8958
▁greatest	-8959
▁офисе	-8960
▁предложить	-8961
▁Сэ	-8962
▁Day	-8963
▁вну	-8964
▁рай	-8965
▁cake	-8966
▁meat	-8967
▁wast	-8968
▁посколь	-8969
▁80	-8970
▁San	-8971
▁current	-8972
щал	-8973
face	-8974
▁towards	-8975
▁BE	-8976
fety	-8977
клад	-8978
▁cos	-8979
▁реаль	-8980
ременно	-8981
▁имеете	-8982
▁хорошего	-8983
▁Луи	-8984
▁реак	-8985
▁failed	-8986
▁передать	-8987
vere	-8988
вишь	-8989
▁Дете	-8990
▁млад	-8991
▁столк	-8992
ген	-8993
chan	-8994
▁copy	-8995
▁коле	-8996
▁angel	-8997
▁games	-8998
▁ребёнок	-8999
рий	-9000
▁Гото	-9001
▁англи	-9002
▁внизу	-9003
▁беспла	-9004
▁подходит	-9005
вной	-9006
▁винов	-9007
▁ничто	-9008
▁THAT	-9009
валось	-9010
ствуют	-9011
▁информация	-9012
rit	-9013
▁кош	-9014
лился	-9015
▁Билли	-9016
▁Томми	-9017
ходим	-9018
ette	-9019
▁сон	-9020
▁Chris	-9021
▁матерью	-9022
▁остальных	-9023
▁Алек	-9024
▁members	-9025
▁suicide	-9026
▁пойм	-9027
▁While	-9028
▁appoint	-9029
now	-9030
▁Вон	-9031
▁Идем	-9032
▁student	-9033
лк	-9034
рети	-9035
ivers	-9036
▁moon	-9037
▁аэро	-9038
▁понравилось	-9039
bec	-9040
▁av	-9041
мить	-9042
▁разы	-9043
▁cases	-9044
▁разви	-9045
ulation	-9046
▁внутрь	-9047
▁позволя	-9048
▁location	-9049
▁None	-9050
▁перезво	-9051
тли	-9052
жным	-9053
▁proof	-9054
▁извини	-9055
▁Фин	-9056
▁дро	-9057
icate	-9058
▁часы	-9059
▁Дженни	-9060
▁изобра	-9061
▁похожи	-9062
▁последни	-9063
▁Cra	-9064
▁имена	-9065
▁огонь	-9066
▁village	-9067
▁intellig	-9068
▁training	-9069
▁Интересно	-9070
▁Ron	-9071
▁выбро	-9072
▁попыт	-9073
▁Хорошая	-9074
бка	-9075
▁Ге	-9076
iver	-9077
▁engine	-9078
▁забрал	-9079
▁задума	-9080
▁потеряли	-9081
▁принадлежит	-9082
ваны	-9083
▁Dam	-9084
ashed	-9085
▁stat	-9086
редото	-9087
▁universe	-9088
urt	-9089
▁dick	-9090
▁моро	-9091
▁therap	-9092
▁большую	-9093
▁Holy	-9094
▁мозг	-9095
▁костюм	-9096
▁ситуация	-9097
▁попу	-9098
▁страны	-9099
▁рассказыва	-9100
▁Frid	-9101
▁Tommy	-9102
▁cancer	-9103
▁группы	-9104
▁natural	-9105
iest	-9106
▁сосед	-9107
▁spread	-9108
kin	-9109
▁swim	-9110
▁музыка	-9111
asure	-9112
▁голу	-9113
▁восемь	-9114
▁пересе	-9115
▁Ѕ	-9116
▁Гор	-9117
▁био	-9118
▁копи	-9119
▁многих	-9120
▁одному	-9121
▁смотрю	-9122
▁выходные	-9123
acle	-9124
▁получишь	-9125
▁disappoint	-9126
uct	-9127
▁Ад	-9128
▁Эр	-9129
▁hired	-9130
▁пожар	-9131
▁обстоя	-9132
▁бросить	-9133
▁спокойно	-9134
▁Марк	-9135
▁Наша	-9136
▁serve	-9137
▁Lo	-9138
▁рем	-9139
▁оскор	-9140
▁biggest	-9141
▁character	-9142
▁23	-9143
▁deliver	-9144
▁complicated	-9145
fit	-9146
лён	-9147
чила	-9148
isc	-9149
ste	-9150
жида	-9151
▁beach	-9152
▁пойдет	-9153
▁disappear	-9154
ari	-9155
edom	-9156
довал	-9157
строй	-9158
▁shower	-9159
▁selling	-9160
sey	-9161
бур	-9162
stit	-9163
asion	-9164
▁конф	-9165
ressed	-9166
▁barely	-9167
▁устрой	-9168
▁dogs	-9169
▁Jerry	-9170
▁Robert	-9171
▁Смотрите	-9172
▁Yo	-9173
▁Long	-9174
лип	-9175
ples	-9176
днее	-9177
▁Посмотрим	-9178
▁запас	-9179
▁учиты	-9180
▁caused	-9181
▁знакомы	-9182
▁добраться	-9183
зой	-9184
стях	-9185
▁награ	-9186
▁первое	-9187
▁opinion	-9188
▁определенно	-9189
lan	-9190
▁Уж	-9191
▁Cat	-9192
▁Gir	-9193
▁vers	-9194
▁засе	-9195
ingers	-9196
▁ключи	-9197
7.	-9198
жете	-9199
▁Brit	-9200
▁Cent	-9201
▁веща	-9202
▁втор	-9203
▁ideas	-9204
тельств	-9205
▁любила	-9206
vol	-9207
ету	-9208
сюду	-9209
▁дядя	-9210
▁рода	-9211
▁Однако	-9212
▁Roy	-9213
▁abs	-9214
▁другая	-9215
▁идеаль	-9216
▁convinc	-9217
▁meaning	-9218
▁ends	-9219
▁Марти	-9220
▁согласен	-9221
▁details	-9222
▁science	-9223
▁painting	-9224
тал	-9225
▁rum	-9226
▁пах	-9227
▁forced	-9228
▁причины	-9229
▁увидимся	-9230
▁90	-9231
hand	-9232
чали	-9233
ставить	-9234
▁sexual	-9235
▁stayed	-9236
▁одежду	-9237
▁charges	-9238
▁transfer	-9239
▁Сем	-9240
▁чай	-9241
▁Andy	-9242
▁asshole	-9243
▁Человек	-9244
▁останавли	-9245
▁работаешь	-9246
boy	-9247
стями	-9248
▁Кларк	-9249
▁двоих	-9250
▁опреде	-9251
▁побери	-9252
▁решить	-9253
▁monster	-9254
тую	-9255
▁психи	-9256
▁зага	-9257
urious	-9258
▁queen	-9259
▁приходит	-9260
▁discovered	-9261
▁подгото	-9262
▁created	-9263
▁собиралась	-9264
оз	-9265
▁Фа	-9266
▁files	-9267
▁молоды	-9268
rilliant	-9269
▁счастлива	-9270
▁вре	-9271
▁другими	-9272
лам	-9273
▁террито	-9274
▁Позвольте	-9275
▁Ал	-9276
▁Win	-9277
▁Mill	-9278
ago	-9279
▁Оп	-9280
йдешь	-9281
▁chem	-9282
▁farm	-9283
▁плем	-9284
▁Better	-9285
▁Ladies	-9286
мети	-9287
▁Japan	-9288
▁проте	-9289
пыты	-9290
▁non	-9291
▁наве	-9292
читься	-9293
9.	-9294
stood	-9295
▁illeg	-9296
▁net	-9297
▁legal	-9298
▁данные	-9299
стретимся	-9300
▁компания	-9301
▁помогает	-9302
▁perfectly	-9303
▁выглядеть	-9304
▁мн	-9305
▁grown	-9306
зви	-9307
▁жил	-9308
▁Josh	-9309
▁приво	-9310
▁insane	-9311
▁photograp	-9312
UT	-9313
оу	-9314
▁sky	-9315
▁manager	-9316
▁Professor	-9317
▁заинтересо	-9318
▁Бл	-9319
ctors	-9320
сыпа	-9321
▁разница	-9322
▁Rog	-9323
▁lic	-9324
▁блядь	-9325
▁правы	-9326
▁invent	-9327
чении	-9328
▁page	-9329
▁пору	-9330
▁Brian	-9331
▁Выгля	-9332
▁священ	-9333
ips	-9334
▁langu	-9335
▁photos	-9336
▁писать	-9337
▁отчет	-9338
▁джентль	-9339
▁появился	-9340
вест	-9341
▁Энд	-9342
▁Lily	-9343
▁capt	-9344
▁Фред	-9345
▁Sil	-9346
▁staff	-9347
▁легче	-9348
▁оказался	-9349
▁лест	-9350
ension	-9351
▁South	-9352
▁assum	-9353
▁balls	-9354
▁cards	-9355
▁повторя	-9356
▁родствен	-9357
трин	-9358
▁heavy	-9359
▁кажды	-9360
for	-9361
lor	-9362
down	-9363
лений	-9364
▁Вчера	-9365
▁проду	-9366
▁украл	-9367
▁Помогите	-9368
▁кло	-9369
▁crow	-9370
▁идем	-9371
▁chest	-9372
▁бь	-9373
▁напар	-9374
▁устроить	-9375
под	-9376
голо	-9377
▁North	-9378
▁Trust	-9379
▁баксов	-9380
▁работала	-9381
тку	-9382
тоя	-9383
гляды	-9384
гнуть	-9385
▁extreme	-9386
▁release	-9387
▁deb	-9388
йдите	-9389
▁Успо	-9390
▁свали	-9391
▁следы	-9392
вис	-9393
вите	-9394
▁Lind	-9395
▁roof	-9396
▁Видите	-9397
atherine	-9398
▁гал	-9399
▁настоящее	-9400
bl	-9401
under	-9402
▁цело	-9403
▁stock	-9404
▁papers	-9405
▁speech	-9406
▁Without	-9407
▁transp	-9408
▁поскольку	-9409
нё	-9410
дие	-9411
нин	-9412
фон	-9413
▁Sch	-9414
cious	-9415
▁краса	-9416
▁увижу	-9417
▁проигра	-9418
▁выда	-9419
▁тихо	-9420
▁удоб	-9421
▁отсут	-9422
▁responsibility	-9423
▁вов	-9424
▁смотрел	-9425
▁patients	-9426
▁ребенком	-9427
ils	-9428
▁бю	-9429
▁Вау	-9430
зации	-9431
▁member	-9432
▁поблагода	-9433
▁расследование	-9434
erer	-9435
▁lift	-9436
▁Адам	-9437
▁руба	-9438
▁IS	-9439
мана	-9440
▁Coll	-9441
▁signed	-9442
▁умру	-9443
▁create	-9444
▁dressed	-9445
ффи	-9446
▁bi	-9447
sive	-9448
▁size	-9449
▁attacked	-9450
▁breaking	-9451
▁души	-9452
omm	-9453
▁клуб	-9454
▁собираетесь	-9455
дами	-9456
ропи	-9457
aper	-9458
▁Mer	-9459
▁Kate	-9460
▁двер	-9461
▁двумя	-9462
▁переб	-9463
▁hardly	-9464
▁thoughts	-9465
▁рука	-9466
▁государ	-9467
тельность	-9468
▁tort	-9469
▁темно	-9470
▁простите	-9471
▁Сим	-9472
▁риск	-9473
▁Franc	-9474
▁color	-9475
▁circum	-9476
чё	-9477
▁Jew	-9478
▁кори	-9479
▁statement	-9480
▁safety	-9481
▁Charles	-9482
гию	-9483
▁€,	-9484
вшие	-9485
aturday	-9486
▁красивая	-9487
▁Hanna	-9488
▁Прекрати	-9489
нку	-9490
What	-9491
▁шеф	-9492
aring	-9493
▁знак	-9494
▁animals	-9495
▁главный	-9496
▁official	-9497
Ко	-9498
▁Хэ	-9499
▁heat	-9500
▁opened	-9501
▁Осторо	-9502
▁помогать	-9503
▁чертовски	-9504
▁sword	-9505
▁desper	-9506
▁nearly	-9507
▁которому	-9508
4.	-9509
парта	-9510
▁United	-9511
▁Дам	-9512
▁Sund	-9513
▁мимо	-9514
▁Sweet	-9515
вец	-9516
elle	-9517
iliar	-9518
▁mater	-9519
▁flowers	-9520
▁Приятно	-9521
▁Sergeant	-9522
▁поменя	-9523
▁Although	-9524
бки	-9525
блем	-9526
▁Leon	-9527
▁арен	-9528
▁лета	-9529
▁мадам	-9530
▁Majesty	-9531
▁dealing	-9532
▁почи	-9533
чением	-9534
▁Hurry	-9535
▁delic	-9536
fl	-9537
▁внеза	-9538
ann	-9539
omed	-9540
вшись	-9541
▁flying	-9542
▁участи	-9543
▁ито	-9544
▁идеи	-9545
переди	-9546
риться	-9547
▁Работа	-9548
▁федера	-9549
▁property	-9550
▁Джер	-9551
▁насле	-9552
▁Claire	-9553
▁песню	-9554
▁talent	-9555
▁платить	-9556
вью	-9557
▁эт	-9558
муще	-9559
▁cig	-9560
la	-9561
нете	-9562
▁Ким	-9563
вшего	-9564
▁fucked	-9565
▁тысячи	-9566
гас	-9567
thur	-9568
▁Бет	-9569
▁sees	-9570
▁Буду	-9571
▁bullshit	-9572
▁Previously	-9573
тери	-9574
▁Кого	-9575
▁разра	-9576
▁Master	-9577
▁signal	-9578
▁сообщить	-9579
IA	-9580
resp	-9581
▁Sho	-9582
▁clim	-9583
▁Chuck	-9584
▁bedroom	-9585
▁apparently	-9586
▁disappeared	-9587
бые	-9588
aren	-9589
urance	-9590
▁запись	-9591
зии	-9592
▁Хм	-9593
▁Вся	-9594
▁Бобби	-9595
▁крово	-9596
6.	-9597
8.	-9598
▁фир	-9599
order	-9600
▁раст	-9601
▁глазах	-9602
▁практически	-9603
▁Сов	-9604
▁Покажи	-9605
cil	-9606
льям	-9607
▁300	-9608
▁Кан	-9609
▁Лео	-9610
▁issues	-9611
▁вернулись	-9612
▁Ly	-9613
▁total	-9614
ization	-9615
ложение	-9616
▁записа	-9617
▁nowhere	-9618
▁поступа	-9619
▁Рождество	-9620
▁Walk	-9621
▁disp	-9622
▁отдох	-9623
▁commit	-9624
▁famous	-9625
▁funeral	-9626
▁помните	-9627
umber	-9628
слуши	-9629
▁Анна	-9630
▁вдох	-9631
▁света	-9632
▁читать	-9633
▁lap	-9634
▁resc	-9635
▁site	-9636
▁stom	-9637
▁showing	-9638
erg	-9639
▁dise	-9640
▁боли	-9641
▁штука	-9642
▁подписа	-9643
▁казалось	-9644
▁tiny	-9645
настоя	-9646
▁офицер	-9647
▁небольшой	-9648
эйн	-9649
▁Shall	-9650
▁Their	-9651
▁столь	-9652
РУ	-9653
мочка	-9654
▁испорти	-9655
▁отказыва	-9656
▁удовольствием	-9657
▁Особ	-9658
▁fellow	-9659
▁Ос	-9660
ators	-9661
▁Кристи	-9662
▁специально	-9663
▁Congratulations	-9664
▁Ван	-9665
▁grad	-9666
▁зайти	-9667
▁fuckin	-9668
▁справиться	-9669
ada	-9670
▁Гей	-9671
▁пяти	-9672
▁river	-9673
▁Always	-9674
▁bright	-9675
▁example	-9676
▁expected	-9677
печа	-9678
▁Вме	-9679
▁bucks	-9680
▁блин	-9681
▁finds	-9682
▁смотря	-9683
шина	-9684
▁Лар	-9685
▁Нор	-9686
▁thro	-9687
▁маленькой	-9688
енси	-9689
вился	-9690
▁акти	-9691
▁едва	-9692
▁оружия	-9693
itty	-9694
стую	-9695
▁map	-9696
▁такси	-9697
ilities	-9698
▁алкого	-9699
▁ошибка	-9700
rem	-9701
▁bug	-9702
▁flat	-9703
▁brief	-9704
▁Colonel	-9705
▁справля	-9706
шет	-9707
▁зер	-9708
▁storm	-9709
▁ME	-9710
▁tun	-9711
▁дает	-9712
▁Райан	-9713
▁войти	-9714
▁напом	-9715
▁разде	-9716
▁represent	-9717
▁информации	-9718
▁предпочита	-9719
зен	-9720
▁determ	-9721
▁лучшая	-9722
▁первую	-9723
▁воскрес	-9724
дным	-9725
▁гром	-9726
icious	-9727
▁model	-9728
▁stars	-9729
▁pieces	-9730
▁кредит	-9731
▁пожела	-9732
▁проник	-9733
▁отврати	-9734
▁предполага	-9735
тс	-9736
oms	-9737
▁Отве	-9738
▁креп	-9739
▁Count	-9740
▁фанта	-9741
▁attorney	-9742
▁способен	-9743
▁случиться	-9744
▁Пла	-9745
▁идио	-9746
mother	-9747
нулись	-9748
▁опозда	-9749
▁полный	-9750
▁квартире	-9751
нос	-9752
▁добры	-9753
▁карма	-9754
ственная	-9755
ствии	-9756
▁Hang	-9757
▁выго	-9758
▁кучу	-9759
▁Mexic	-9760
▁behav	-9761
▁demon	-9762
▁потерять	-9763
▁.	-9764
▁Аа	-9765
▁днем	-9766
▁кусо	-9767
▁связан	-9768
▁divorce	-9769
▁единственное	-9770
law	-9771
▁Up	-9772
зывали	-9773
▁Агент	-9774
▁видно	-9775
▁убира	-9776
▁кле	-9777
▁hack	-9778
▁ложь	-9779
▁запах	-9780
▁Вашинг	-9781
▁covered	-9782
▁й	-9783
mit	-9784
▁фон	-9785
▁Обычно	-9786
▁кончено	-9787
▁следовало	-9788
ейс	-9789
aves	-9790
▁Att	-9791
▁дурац	-9792
▁решения	-9793
▁mentioned	-9794
▁пытаешься	-9795
▁sweetheart	-9796
▁HA	-9797
▁Вто	-9798
▁Кин	-9799
▁гри	-9800
inese	-9801
менты	-9802
порта	-9803
▁буква	-9804
▁приехали	-9805
▁напу	-9806
▁Clear	-9807
▁avoid	-9808
▁sna	-9809
▁milk	-9810
▁брак	-9811
вная	-9812
ening	-9813
▁группа	-9814
ilies	-9815
▁Крис	-9816
▁Энни	-9817
oph	-9818
бок	-9819
▁Пра	-9820
ентом	-9821
▁lots	-9822
▁pocket	-9823
▁opening	-9824
▁уходить	-9825
▁Van	-9826
▁infl	-9827
▁смысла	-9828
▁Nic	-9829
▁Был	-9830
▁дока	-9831
▁треть	-9832
▁Тер	-9833
hetic	-9834
▁внутрен	-9835
▁захочет	-9836
▁беспокой	-9837
▁выбраться	-9838
▁Esp	-9839
стоит	-9840
▁pill	-9841
▁глупы	-9842
▁причин	-9843
▁романти	-9844
вов	-9845
▁repe	-9846
▁даст	-9847
▁chose	-9848
▁distract	-9849
ковь	-9850
▁Also	-9851
▁смеш	-9852
▁rough	-9853
▁woods	-9854
мым	-9855
▁Reg	-9856
полни	-9857
▁Стэн	-9858
▁Благодарю	-9859
▁отправить	-9860
нке	-9861
▁deg	-9862
▁reasons	-9863
▁received	-9864
▁опыт	-9865
▁community	-9866
▁Sen	-9867
▁Бан	-9868
▁Police	-9869
▁lights	-9870
кция	-9871
▁ours	-9872
▁трево	-9873
▁обсужда	-9874
▁Jac	-9875
▁уте	-9876
комен	-9877
нности	-9878
▁Stand	-9879
▁based	-9880
▁микро	-9881
▁написать	-9882
ued	-9883
жин	-9884
vies	-9885
▁mic	-9886
▁buried	-9887
▁сестры	-9888
▁Останови	-9889
ashion	-9890
▁Friday	-9891
▁States	-9892
▁results	-9893
▁Saturday	-9894
of	-9895
Да	-9896
ucky	-9897
дился	-9898
▁вино	-9899
▁взгляд	-9900
▁человеку	-9901
▁бит	-9902
▁Euro	-9903
▁loud	-9904
▁пала	-9905
▁слабо	-9906
▁ticket	-9907
мор	-9908
▁ближай	-9909
▁сигнал	-9910
▁чувствовал	-9911
▁Лос	-9912
▁Bobby	-9913
▁запре	-9914
▁безуми	-9915
▁скажем	-9916
▁Дорогая	-9917
▁закончил	-9918
настоящему	-9919
▁заплатить	-9920
ами	-9921
▁испыты	-9922
▁команде	-9923
▁memories	-9924
▁сохранить	-9925
▁фай	-9926
▁сюрприз	-9927
▁временем	-9928
▁ответственность	-9929
▁Cy	-9930
йоне	-9931
▁Kar	-9932
▁бое	-9933
ремен	-9934
▁Hope	-9935
▁cult	-9936
▁Эрик	-9937
▁окно	-9938
▁официально	-9939
обо	-9940
ланд	-9941
▁opt	-9942
▁спор	-9943
▁explos	-9944
▁кабинет	-9945
▁организо	-9946
▁Сти	-9947
▁мел	-9948
▁низ	-9949
istic	-9950
лера	-9951
▁Дет	-9952
ulate	-9953
▁ны	-9954
▁жал	-9955
▁непро	-9956
▁королев	-9957
▁уровень	-9958
▁According	-9959
ненно	-9960
▁loose	-9961
▁borrow	-9962
дво	-9963
▁ep	-9964
▁clock	-9965
▁новость	-9966
▁телефона	-9967
▁Absolutely	-9968
гка	-9969
just	-9970
▁Des	-9971
▁вверх	-9972
▁заставил	-9973
жена	-9974
▁умр	-9975
▁Pretty	-9976
▁expecting	-9977
ont	-9978
▁ся	-9979
ссия	-9980
▁Муж	-9981
▁mood	-9982
▁pred	-9983
▁лову	-9984
▁язык	-9985
▁source	-9986
▁привез	-9987
▁hunt	-9988
▁займ	-9989
делать	-9990
▁Англи	-9991
▁harder	-9992
▁стоять	-9993
▁виноват	-9994
▁мальчика	-9995
▁lone	-9996
▁след	-9997
▁Такое	-9998
▁разные	-9999
кта	-10000
vert	-10001
▁Rose	-10002
▁Billy	-10003
▁владе	-10004
▁сцена	-10005
▁Alright	-10006
▁Kevin	-10007
▁своём	-10008
рус	-10009
▁toil	-10010
▁folks	-10011
▁letters	-10012
▁несмотря	-10013
дая	-10014
▁cart	-10015
▁affair	-10016
▁молодой	-10017
▁которыми	-10018
▁закончили	-10019
скому	-10020
▁link	-10021
▁remem	-10022
▁здание	-10023
▁обещал	-10024
▁называть	-10025
▁91	-10026
▁Chi	-10027
▁Карл	-10028
▁прото	-10029
▁releas	-10030
▁наркотики	-10031
▁нескольких	-10032
▁oil	-10033
▁wis	-10034
мотрел	-10035
▁лицом	-10036
▁получит	-10037
chie	-10038
зная	-10039
▁mail	-10040
▁яйца	-10041
▁brings	-10042
▁ordered	-10043
▁работают	-10044
▁Ёто	-10045
▁центре	-10046
▁продать	-10047
кола	-10048
▁ино	-10049
▁шля	-10050
▁Оставь	-10051
▁поверь	-10052
▁трубку	-10053
It	-10054
▁ON	-10055
using	-10056
▁знамени	-10057
▁Детектив	-10058
чики	-10059
▁offered	-10060
ruit	-10061
рила	-10062
▁jury	-10063
▁Богу	-10064
▁Софи	-10065
говорю	-10066
▁Господа	-10067
▁вечеринка	-10068
▁neighborhood	-10069
ril	-10070
зды	-10071
▁ими	-10072
icted	-10073
▁Удачи	-10074
▁Вперед	-10075
▁началь	-10076
▁familiar	-10077
▁двой	-10078
▁моими	-10079
▁покры	-10080
▁вашему	-10081
▁самолет	-10082
▁состояние	-10083
▁посмотрите	-10084
▁professional	-10085
уи	-10086
дию	-10087
▁Дэние	-10088
▁клиента	-10089
▁docum	-10090
▁Things	-10091
▁Пойдём	-10092
ия	-10093
вёл	-10094
ateful	-10095
▁enter	-10096
▁слегка	-10097
▁поймать	-10098
▁убедить	-10099
мос	-10100
▁Med	-10101
▁female	-10102
▁headed	-10103
▁Кэтрин	-10104
▁вовремя	-10105
▁количество	-10106
what	-10107
▁pin	-10108
▁Сделай	-10109
▁center	-10110
▁Morning	-10111
рили	-10112
▁Hol	-10113
▁русс	-10114
▁возле	-10115
▁leader	-10116
▁Видимо	-10117
▁Стивен	-10118
▁играет	-10119
▁каждой	-10120
uce	-10121
циали	-10122
▁chat	-10123
▁Tomorrow	-10124
▁беременна	-10125
▁дворе	-10126
▁screwed	-10127
▁система	-10128
▁Дю	-10129
▁Plus	-10130
▁спустя	-10131
▁answers	-10132
▁Особенно	-10133
▁передума	-10134
▁поставить	-10135
▁Винс	-10136
▁мертва	-10137
▁номера	-10138
▁planned	-10139
▁Хотел	-10140
▁мусор	-10141
▁посети	-10142
▁разных	-10143
▁general	-10144
▁невероятно	-10145
жны	-10146
▁веду	-10147
▁Arthur	-10148
▁привести	-10149
лям	-10150
шаю	-10151
▁зе	-10152
iled	-10153
▁Major	-10154
▁Пойду	-10155
ailable	-10156
▁Джонни	-10157
▁Emma	-10158
▁naked	-10159
▁систему	-10160
▁защищать	-10161
тыми	-10162
едине	-10163
▁dies	-10164
▁ждал	-10165
кса	-10166
▁Da	-10167
клон	-10168
казали	-10169
▁выбрал	-10170
ъя	-10171
eez	-10172
зил	-10173
▁Cam	-10174
▁продви	-10175
▁признать	-10176
дует	-10177
▁Rome	-10178
нитесь	-10179
▁Annie	-10180
▁ограни	-10181
da	-10182
бую	-10183
▁unit	-10184
▁hurts	-10185
▁Officer	-10186
▁000	-10187
ческим	-10188
▁strike	-10189
gly	-10190
тием	-10191
▁199	-10192
▁Hot	-10193
▁заве	-10194
▁охран	-10195
▁узнаю	-10196
atching	-10197
▁buying	-10198
▁capable	-10199
▁freedom	-10200
▁families	-10201
оте	-10202
aura	-10203
▁головой	-10204
▁кровать	-10205
вятся	-10206
▁Клэр	-10207
▁жене	-10208
▁протя	-10209
▁сделай	-10210
▁связано	-10211
▁returned	-10212
▁according	-10213
▁Hy	-10214
дных	-10215
▁kinda	-10216
▁кончи	-10217
▁самоубий	-10218
▁ищем	-10219
▁офице	-10220
▁Должен	-10221
▁главное	-10222
▁назвать	-10223
▁сходить	-10224
жная	-10225
▁faster	-10226
▁бежать	-10227
▁arrange	-10228
▁sweetie	-10229
▁circumst	-10230
▁называют	-10231
inn	-10232
чко	-10233
ache	-10234
▁Jam	-10235
▁original	-10236
▁сработает	-10237
▁lines	-10238
▁опасно	-10239
▁желание	-10240
▁Йо	-10241
ival	-10242
▁еды	-10243
▁фур	-10244
▁Дела	-10245
▁Господь	-10246
▁комната	-10247
кол	-10248
вное	-10249
▁старые	-10250
▁breathe	-10251
▁heading	-10252
▁Перестань	-10253
мут	-10254
▁DO	-10255
▁Анд	-10256
▁Жаль	-10257
▁Walter	-10258
▁murderer	-10259
▁неприятности	-10260
ella	-10261
▁нос	-10262
▁лучших	-10263
▁церкви	-10264
▁выбрать	-10265
▁наслажда	-10266
▁tie	-10267
▁Пять	-10268
▁points	-10269
▁Chinese	-10270
▁рестора	-10271
▁complain	-10272
▁usual	-10273
▁concern	-10274
▁скажете	-10275
esh	-10276
ini	-10277
онни	-10278
▁видимо	-10279
▁останов	-10280
▁учитель	-10281
itiz	-10282
▁суп	-10283
▁одни	-10284
▁голосо	-10285
▁наверху	-10286
▁учитывая	-10287
лии	-10288
бель	-10289
▁ука	-10290
▁гаран	-10291
▁Edd	-10292
▁постели	-10293
▁сказано	-10294
▁ссо	-10295
▁искал	-10296
▁важное	-10297
enny	-10298
▁спаль	-10299
▁воспри	-10300
▁начнем	-10301
▁dancing	-10302
ступить	-10303
▁власти	-10304
▁смогут	-10305
▁прошлое	-10306
▁хими	-10307
▁north	-10308
▁камеры	-10309
▁regular	-10310
▁настоящая	-10311
▁Six	-10312
▁Слу	-10313
▁Говорят	-10314
▁считать	-10315
itation	-10316
▁France	-10317
▁fingers	-10318
▁football	-10319
▁ть	-10320
etch	-10321
,.....	-10322
▁корот	-10323
▁принял	-10324
▁env	-10325
▁лаг	-10326
▁очи	-10327
рогой	-10328
▁Ross	-10329
▁моги	-10330
▁Короле	-10331
берусь	-10332
▁прошла	-10333
▁рассказывать	-10334
iner	-10335
▁Гру	-10336
▁спал	-10337
▁Louis	-10338
▁отдал	-10339
▁movies	-10340
▁назвал	-10341
▁электри	-10342
уз	-10343
Йорке	-10344
▁Dean	-10345
▁явно	-10346
▁кварта	-10347
And	-10348
▁Lar	-10349
▁вовсе	-10350
iley	-10351
▁trad	-10352
▁достой	-10353
▁collect	-10354
▁работой	-10355
▁Поздравляю	-10356
mate	-10357
▁везде	-10358
▁спусти	-10359
▁вспомнить	-10360
▁Жиз	-10361
▁Хол	-10362
▁ruin	-10363
▁имен	-10364
▁Патри	-10365
сколько	-10366
▁дважды	-10367
говорить	-10368
▁забрали	-10369
▁остались	-10370
▁миру	-10371
▁запол	-10372
▁большим	-10373
▁симпати	-10374
ERE	-10375
▁Fed	-10376
▁уга	-10377
▁Люси	-10378
▁земли	-10379
▁мужем	-10380
▁Morgan	-10381
▁Sunday	-10382
▁ruined	-10383
▁changes	-10384
тела	-10385
▁жут	-10386
▁male	-10387
▁море	-10388
▁нака	-10389
▁нервни	-10390
▁обвиня	-10391
▁воспоминания	-10392
▁ула	-10393
▁степ	-10394
▁campa	-10395
▁площа	-10396
▁sooner	-10397
▁Честно	-10398
▁пак	-10399
▁whom	-10400
▁тест	-10401
ленный	-10402
▁doors	-10403
▁silly	-10404
▁wheel	-10405
▁cheese	-10406
▁connect	-10407
▁Президент	-10408
пая	-10409
▁fancy	-10410
▁кровью	-10411
▁прекрасный	-10412
вее	-10413
▁Im	-10414
▁Res	-10415
▁mult	-10416
▁шери	-10417
▁falling	-10418
▁soldiers	-10419
вляю	-10420
▁Way	-10421
▁вру	-10422
▁Vinc	-10423
▁хирур	-10424
▁давать	-10425
▁задать	-10426
▁пожени	-10427
va	-10428
▁итоге	-10429
▁Brother	-10430
▁начинается	-10431
▁Шон	-10432
▁cares	-10433
▁справ	-10434
▁подготов	-10435
▁технологи	-10436
▁опа	-10437
▁escap	-10438
▁Слава	-10439
▁грудь	-10440
▁покой	-10441
▁учени	-10442
▁начало	-10443
▁идеально	-10444
rific	-10445
▁Clark	-10446
▁сбежать	-10447
▁смотрите	-10448
GHT	-10449
kins	-10450
зывай	-10451
▁поми	-10452
▁Милая	-10453
iod	-10454
тельную	-10455
▁похожа	-10456
▁romantic	-10457
iform	-10458
▁лучшие	-10459
▁сосредото	-10460
II	-10461
▁'.	-10462
▁хле	-10463
icked	-10464
ropri	-10465
▁sneak	-10466
▁introduce	-10467
▁Кали	-10468
▁зале	-10469
▁detail	-10470
▁exchan	-10471
▁зрения	-10472
▁печень	-10473
▁девушек	-10474
▁встретил	-10475
▁значения	-10476
▁brilliant	-10477
▁заявление	-10478
▁eld	-10479
▁сми	-10480
стров	-10481
▁Mama	-10482
▁holid	-10483
ьер	-10484
▁Bon	-10485
▁Spec	-10486
▁loyal	-10487
▁Будем	-10488
▁hidden	-10489
бей	-10490
▁Def	-10491
▁Sal	-10492
▁Dire	-10493
стером	-10494
▁экспери	-10495
пей	-10496
▁Sur	-10497
▁Speak	-10498
arant	-10499
▁Baby	-10500
▁Мэй	-10501
▁долг	-10502
▁began	-10503
▁Слыша	-10504
▁growing	-10505
▁Большое	-10506
▁Eli	-10507
▁Мно	-10508
ipp	-10509
asty	-10510
▁ate	-10511
▁вода	-10512
▁split	-10513
▁warrant	-10514
▁language	-10515
We	-10516
ос	-10517
place	-10518
ument	-10519
▁Убира	-10520
▁привед	-10521
рыв	-10522
liver	-10523
▁война	-10524
▁beauty	-10525
▁obvious	-10526
▁начинает	-10527
▁forgotten	-10528
▁knowledge	-10529
гому	-10530
▁veh	-10531
▁вари	-10532
▁одоб	-10533
▁doctors	-10534
▁stomach	-10535
▁комнаты	-10536
▁остается	-10537
▁gy	-10538
▁Had	-10539
▁Santa	-10540
▁повсюду	-10541
ila	-10542
вия	-10543
▁Off	-10544
▁snow	-10545
▁Ready	-10546
▁stone	-10547
▁мозга	-10548
▁стари	-10549
▁рассчиты	-10550
▁Прекрасно	-10551
▁пиц	-10552
▁подчи	-10553
▁Брайан	-10554
▁работали	-10555
▁sou	-10556
▁Кам	-10557
▁Хэн	-10558
▁Chic	-10559
▁jobs	-10560
▁Super	-10561
▁войну	-10562
▁кусок	-10563
▁assign	-10564
▁online	-10565
▁наедине	-10566
пок	-10567
▁Part	-10568
▁Повер	-10569
▁инспе	-10570
▁новых	-10571
▁England	-10572
▁reality	-10573
▁уе	-10574
лится	-10575
▁Джефф	-10576
▁имела	-10577
▁Поехали	-10578
▁198	-10579
▁gate	-10580
▁rare	-10581
▁Кому	-10582
▁фами	-10583
▁беспокоит	-10584
гала	-10585
▁Ash	-10586
▁grew	-10587
▁Дан	-10588
iance	-10589
▁runs	-10590
▁спро	-10591
▁досто	-10592
▁Europe	-10593
▁оконча	-10594
▁будущем	-10595
▁приехала	-10596
▁произойдет	-10597
uk	-10598
▁рак	-10599
bered	-10600
▁обща	-10601
▁State	-10602
▁paint	-10603
▁запер	-10604
▁Forget	-10605
▁провел	-10606
▁дайте	-10607
▁песня	-10608
▁nights	-10609
▁Це	-10610
▁сор	-10611
▁soldier	-10612
▁благодар	-10613
▁предложи	-10614
▁расскажи	-10615
▁результаты	-10616
usting	-10617
▁ought	-10618
▁Почти	-10619
▁ограб	-10620
браться	-10621
▁Johnny	-10622
▁assistant	-10623
ппи	-10624
▁солнце	-10625
▁Goodbye	-10626
креп	-10627
▁parts	-10628
▁boring	-10629
▁drinks	-10630
▁unc	-10631
▁Luke	-10632
▁Young	-10633
новение	-10634
▁pissed	-10635
▁неправ	-10636
▁Russian	-10637
▁гля	-10638
izza	-10639
▁ЦРУ	-10640
ville	-10641
▁Eddie	-10642
▁basically	-10643
▁позвонила	-10644
▁Dec	-10645
▁adult	-10646
▁bridge	-10647
▁strugg	-10648
▁defense	-10649
▁компанию	-10650
,..	-10651
▁Пло	-10652
▁Comp	-10653
▁raised	-10654
▁отношение	-10655
oted	-10656
▁alco	-10657
▁анти	-10658
▁побли	-10659
▁развед	-10660
▁Наконец	-10661
geon	-10662
▁заку	-10663
▁порт	-10664
▁Anyone	-10665
хой	-10666
▁pair	-10667
▁wash	-10668
▁managed	-10669
▁watched	-10670
▁Хороший	-10671
▁material	-10672
рим	-10673
▁Gib	-10674
щении	-10675
▁данных	-10676
▁каково	-10677
▁cameras	-10678
▁Проблем	-10679
▁смотришь	-10680
imp	-10681
▁ow	-10682
▁Pet	-10683
▁гей	-10684
▁воро	-10685
▁invite	-10686
▁защиты	-10687
▁Уилл	-10688
xy	-10689
▁Офи	-10690
holog	-10691
▁Norm	-10692
▁whis	-10693
▁куча	-10694
▁impro	-10695
▁Понял	-10696
▁отдела	-10697
▁кровати	-10698
▁campaign	-10699
mo	-10700
бит	-10701
cient	-10702
▁exact	-10703
▁witch	-10704
▁письма	-10705
▁Уверена	-10706
▁некоторое	-10707
▁встречались	-10708
▁боишься	-10709
▁простран	-10710
новь	-10711
▁Again	-10712
▁Alice	-10713
▁описа	-10714
▁шутка	-10715
▁Either	-10716
▁former	-10717
▁лучшим	-10718
▁переры	-10719
▁раздра	-10720
▁неважно	-10721
▁cy	-10722
▁Дар	-10723
▁принце	-10724
юз	-10725
cel	-10726
▁La	-10727
▁Cont	-10728
▁Hard	-10729
▁creep	-10730
▁извин	-10731
▁форме	-10732
▁treatment	-10733
▁лекарства	-10734
▁попросила	-10735
▁преступление	-10736
ждь	-10737
antage	-10738
▁fought	-10739
▁король	-10740
пку	-10741
хар	-10742
возь	-10743
▁лиф	-10744
▁рез	-10745
дайте	-10746
▁Брен	-10747
▁сыном	-10748
▁бороться	-10749
▁уши	-10750
ровки	-10751
▁Билл	-10752
▁зажи	-10753
iamond	-10754
ковник	-10755
▁devil	-10756
▁пошёл	-10757
▁траха	-10758
▁streets	-10759
▁ситуацию	-10760
▁сексуально	-10761
▁Пит	-10762
▁видит	-10763
▁Oliver	-10764
▁глазами	-10765
▁операцию	-10766
мум	-10767
ссу	-10768
▁desp	-10769
▁trail	-10770
▁зарабаты	-10771
ственности	-10772
▁яр	-10773
▁Mat	-10774
▁Ugh	-10775
нится	-10776
▁bone	-10777
▁изоб	-10778
▁улыба	-10779
▁garden	-10780
▁Cass	-10781
▁Ever	-10782
другому	-10783
▁genius	-10784
▁kicked	-10785
▁обстоятельства	-10786
▁rac	-10787
▁shad	-10788
▁прем	-10789
▁brave	-10790
▁возник	-10791
▁просить	-10792
LD	-10793
▁Li	-10794
вина	-10795
▁Ver	-10796
ленные	-10797
▁высоко	-10798
▁приказ	-10799
сел	-10800
▁East	-10801
▁нена	-10802
▁осве	-10803
▁trade	-10804
мые	-10805
▁Леди	-10806
▁баре	-10807
▁демо	-10808
▁неле	-10809
▁полю	-10810
▁фана	-10811
▁невин	-10812
No	-10813
▁tab	-10814
▁ждут	-10815
▁канди	-10816
▁Первый	-10817
рэй	-10818
рапи	-10819
таль	-10820
▁201	-10821
▁рей	-10822
▁есте	-10823
▁проще	-10824
▁Francis	-10825
▁convince	-10826
iana	-10827
......	-10828
▁брать	-10829
▁идешь	-10830
▁перво	-10831
▁neighb	-10832
▁personally	-10833
лыми	-10834
няла	-10835
▁дья	-10836
▁bite	-10837
▁reve	-10838
▁душу	-10839
▁засу	-10840
▁south	-10841
▁Идите	-10842
▁Secret	-10843
▁illegal	-10844
▁кандида	-10845
жина	-10846
▁имеют	-10847
▁черту	-10848
▁burned	-10849
▁солдат	-10850
▁сомневаюсь	-10851
▁возвращаться	-10852
▁Тех	-10853
▁cure	-10854
▁моби	-10855
ication	-10856
▁появится	-10857
гно	-10858
▁However	-10859
▁прошлый	-10860
▁свадьбу	-10861
▁сделано	-10862
▁incident	-10863
рена	-10864
форд	-10865
крови	-10866
▁Fire	-10867
▁teen	-10868
▁Весь	-10869
▁Готов	-10870
▁device	-10871
▁вообра	-10872
▁послал	-10873
▁руками	-10874
bre	-10875
▁Фу	-10876
emon	-10877
▁bal	-10878
▁assoc	-10879
▁terms	-10880
▁взрыв	-10881
▁форму	-10882
▁Enough	-10883
▁filled	-10884
▁circ	-10885
▁nurse	-10886
▁нелов	-10887
▁устал	-10888
няюсь	-10889
▁мето	-10890
▁одина	-10891
▁незакон	-10892
ga	-10893
бая	-10894
unny	-10895
тана	-10896
▁Old	-10897
rated	-10898
▁поблагодарить	-10899
hin	-10900
▁Же	-10901
▁crowd	-10902
▁Marsha	-10903
▁вариан	-10904
▁handsome	-10905
hem	-10906
вета	-10907
▁sin	-10908
▁положение	-10909
▁доби	-10910
▁сним	-10911
▁счёт	-10912
▁ублюдок	-10913
▁изнасило	-10914
▁поступил	-10915
isf	-10916
omy	-10917
гаю	-10918
▁выки	-10919
▁смея	-10920
▁drove	-10921
▁тради	-10922
▁просты	-10923
ственные	-10924
▁адвоката	-10925
▁заставляет	-10926
▁контролировать	-10927
▁Shh	-10928
▁Greg	-10929
▁data	-10930
первых	-10931
▁Робин	-10932
▁нибудь	-10933
▁цы	-10934
нное	-10935
▁бал	-10936
скать	-10937
▁trig	-10938
▁rights	-10939
▁Прошло	-10940
▁Роберт	-10941
▁основном	-10942
▁собственной	-10943
лах	-10944
▁Ter	-10945
жного	-10946
чаешь	-10947
▁отпу	-10948
▁Roger	-10949
▁relie	-10950
▁станешь	-10951
▁physical	-10952
▁значение	-10953
▁Разу	-10954
▁жива	-10955
aching	-10956
▁relig	-10957
▁играл	-10958
▁Забудь	-10959
▁goodbye	-10960
▁respond	-10961
▁students	-10962
omin	-10963
▁nor	-10964
▁Джин	-10965
блиоте	-10966
▁секса	-10967
▁большинство	-10968
лёт	-10969
▁SH	-10970
▁Night	-10971
▁линии	-10972
▁lonely	-10973
▁граждан	-10974
▁любовью	-10975
▁хорошей	-10976
▁committed	-10977
▁куль	-10978
▁домаш	-10979
▁наверх	-10980
▁просила	-10981
ик	-10982
▁зано	-10983
▁мело	-10984
▁picking	-10985
▁GO	-10986
▁US	-10987
▁Ber	-10988
▁Кли	-10989
▁нор	-10990
волю	-10991
ardon	-10992
▁уехал	-10993
▁Здорово	-10994
▁checking	-10995
▁действия	-10996
ниц	-10997
phan	-10998
ктов	-10999
▁эго	-11000
▁express	-11001
▁отличный	-11002
▁70	-11003
▁ер	-11004
руешь	-11005
▁выво	-11006
▁воору	-11007
▁отклю	-11008
▁образо	-11009
▁Thought	-11010
▁singing	-11011
▁officers	-11012
ждая	-11013
▁tap	-11014
▁Мое	-11015
▁Life	-11016
▁поне	-11017
▁камеру	-11018
itter	-11019
▁рады	-11020
▁поезд	-11021
▁действовать	-11022
▁tear	-11023
▁класса	-11024
▁alright	-11025
▁remains	-11026
▁зависит	-11027
▁показыва	-11028
▁Commander	-11029
▁insurance	-11030
пон	-11031
▁period	-11032
▁данный	-11033
▁скучаю	-11034
▁вытащить	-11035
▁понимает	-11036
▁проводить	-11037
мыс	-11038
aled	-11039
▁мощ	-11040
▁предложил	-11041
▁плен	-11042
▁Между	-11043
▁судеб	-11044
▁подели	-11045
▁оставлю	-11046
▁плохого	-11047
PS	-11048
пти	-11049
iple	-11050
ware	-11051
енье	-11052
▁Ней	-11053
лению	-11054
▁звали	-11055
▁сестру	-11056
▁confirm	-11057
▁available	-11058
pes	-11059
сист	-11060
▁Шта	-11061
▁init	-11062
▁кури	-11063
▁наро	-11064
▁пита	-11065
▁babies	-11066
▁disease	-11067
туи	-11068
▁48	-11069
▁Гра	-11070
▁Хью	-11071
▁копа	-11072
▁наси	-11073
▁easily	-11074
▁positive	-11075
рюк	-11076
вато	-11077
рный	-11078
▁пун	-11079
▁учас	-11080
▁Скотт	-11081
▁throat	-11082
▁носить	-11083
▁колледж	-11084
AC	-11085
kn	-11086
нная	-11087
▁unt	-11088
▁Дети	-11089
▁crash	-11090
▁посвя	-11091
▁некоторых	-11092
▁ору	-11093
▁представи	-11094
uries	-11095
▁убит	-11096
▁посыла	-11097
▁системы	-11098
▁motherfuck	-11099
ya	-11100
▁Eve	-11101
▁плох	-11102
▁financ	-11103
▁узнаем	-11104
▁medicine	-11105
▁including	-11106
▁прекратить	-11107
org	-11108
▁Kir	-11109
▁находя	-11110
▁Клянусь	-11111
▁задержа	-11112
▁стрелять	-11113
тина	-11114
▁каз	-11115
▁Убий	-11116
нджеле	-11117
ческом	-11118
рование	-11119
▁otherwise	-11120
▁Правильно	-11121
ffe	-11122
мок	-11123
▁hyp	-11124
▁сож	-11125
▁увели	-11126
▁англий	-11127
▁просле	-11128
▁возража	-11129
▁занимается	-11130
ops	-11131
нта	-11132
▁Cut	-11133
▁woke	-11134
▁oppos	-11135
▁Отлич	-11136
▁живут	-11137
▁actual	-11138
▁appears	-11139
▁rat	-11140
▁жили	-11141
▁отре	-11142
▁distur	-11143
▁punish	-11144
▁подста	-11145
▁получу	-11146
▁сбежал	-11147
▁вариант	-11148
▁конкрет	-11149
▁progress	-11150
гну	-11151
▁ход	-11152
▁tall	-11153
▁Одно	-11154
▁пиво	-11155
▁Sister	-11156
▁hous	-11157
▁Впер	-11158
▁изменя	-11159
▁свадьбы	-11160
bon	-11161
арь	-11162
вуд	-11163
ждаю	-11164
▁bon	-11165
▁Flor	-11166
▁Same	-11167
▁ценю	-11168
▁Такой	-11169
▁перео	-11170
▁recomm	-11171
▁35	-11172
▁Simon	-11173
▁позади	-11174
▁решать	-11175
▁следить	-11176
▁bleeding	-11177
▁da	-11178
ертво	-11179
▁обой	-11180
▁Опять	-11181
▁вновь	-11182
▁выступ	-11183
▁honestly	-11184
fect	-11185
▁mut	-11186
sters	-11187
▁прико	-11188
▁мастер	-11189
▁healthy	-11190
▁маленькие	-11191
look	-11192
веди	-11193
помя	-11194
▁Far	-11195
▁Неб	-11196
▁наи	-11197
ственной	-11198
▁giant	-11199
▁grant	-11200
▁custody	-11201
▁Leo	-11202
▁Both	-11203
▁рели	-11204
▁порядок	-11205
thy	-11206
▁mob	-11207
▁Иначе	-11208
▁любим	-11209
▁мужчиной	-11210
▁надеялся	-11211
▁bike	-11212
▁ugly	-11213
▁север	-11214
▁бумаги	-11215
▁музыку	-11216
▁clients	-11217
▁enemies	-11218
▁осталась	-11219
▁победить	-11220
▁представляешь	-11221
ols	-11222
зма	-11223
▁ушли	-11224
▁bless	-11225
▁медицин	-11226
▁услышал	-11227
▁nar	-11228
▁wet	-11229
▁Шел	-11230
▁assault	-11231
▁Gold	-11232
твоему	-11233
▁Малень	-11234
▁здоров	-11235
▁звонила	-11236
▁проститу	-11237
гс	-11238
▁душ	-11239
▁наме	-11240
▁owner	-11241
▁сидел	-11242
▁downstairs	-11243
▁остановиться	-11244
▁pil	-11245
▁Cour	-11246
▁Ранее	-11247
▁останусь	-11248
▁eventually	-11249
isted	-11250
veill	-11251
споко	-11252
тором	-11253
▁выру	-11254
▁запу	-11255
▁score	-11256
▁uniform	-11257
▁stealing	-11258
▁оставили	-11259
▁держаться	-11260
▁permission	-11261
бами	-11262
▁Лэн	-11263
▁бесе	-11264
деться	-11265
▁Jason	-11266
▁shift	-11267
▁guarant	-11268
▁праздни	-11269
пора	-11270
тной	-11271
▁приехать	-11272
дак	-11273
▁Mu	-11274
▁Фил	-11275
▁Лондо	-11276
▁поступ	-11277
▁airport	-11278
▁направи	-11279
▁извиниться	-11280
▁Pal	-11281
▁Start	-11282
▁напад	-11283
▁предпри	-11284
▁Di	-11285
вето	-11286
▁joy	-11287
▁ори	-11288
▁внезапно	-11289
Ты	-11290
rig	-11291
aging	-11292
▁Know	-11293
▁Вста	-11294
▁уйду	-11295
▁Afric	-11296
▁powers	-11297
мби	-11298
пки	-11299
зать	-11300
ился	-11301
▁услы	-11302
▁pills	-11303
▁терпе	-11304
▁slight	-11305
▁parking	-11306
▁schedule	-11307
бол	-11308
▁эпи	-11309
▁Jean	-11310
▁Pete	-11311
▁fate	-11312
▁term	-11313
▁Джейк	-11314
▁магазине	-11315
▁connected	-11316
▁protection	-11317
пель	-11318
▁lack	-11319
кономи	-11320
▁вечеринке	-11321
няется	-11322
▁Поста	-11323
▁jacket	-11324
▁обязан	-11325
▁страну	-11326
▁оке	-11327
▁Уолтер	-11328
▁ат	-11329
hips	-11330
▁Jer	-11331
aches	-11332
▁value	-11333
▁вызвать	-11334
IM	-11335
▁Haw	-11336
▁fal	-11337
▁stood	-11338
iat	-11339
зин	-11340
стил	-11341
▁блю	-11342
▁Barb	-11343
▁Eliz	-11344
▁grave	-11345
▁lesson	-11346
▁27	-11347
hell	-11348
▁пови	-11349
▁кости	-11350
▁миллион	-11351
▁потребу	-11352
▁incredible	-11353
▁президента	-11354
▁Tur	-11355
▁Обо	-11356
▁adop	-11357
▁Чика	-11358
▁Эбби	-11359
▁труп	-11360
▁фаль	-11361
▁plate	-11362
▁расши	-11363
▁prosec	-11364
▁семьей	-11365
▁тюрьмы	-11366
▁Chicago	-11367
▁интервью	-11368
▁Гэ	-11369
лево	-11370
стный	-11371
▁зато	-11372
▁игро	-11373
▁expert	-11374
▁провали	-11375
▁convinced	-11376
cean	-11377
▁Дин	-11378
ревно	-11379
▁Заме	-11380
▁World	-11381
▁надое	-11382
▁оцени	-11383
▁убрать	-11384
hod	-11385
вёз	-11386
▁напо	-11387
▁patter	-11388
зия	-11389
▁bang	-11390
▁mayor	-11391
цах	-11392
acon	-11393
пала	-11394
▁изде	-11395
isions	-11396
▁наверно	-11397
▁связаться	-11398
▁беспокоиться	-11399
але	-11400
чном	-11401
▁Чув	-11402
рости	-11403
▁mort	-11404
▁миль	-11405
▁короля	-11406
▁revenge	-11407
▁француз	-11408
▁отправил	-11409
нар	-11410
▁Вла	-11411
пустила	-11412
▁придёт	-11413
▁подобное	-11414
▁остальное	-11415
▁поступить	-11416
1,	-11417
agn	-11418
▁Рэ	-11419
стка	-11420
тика	-11421
▁Фер	-11422
hered	-11423
ферен	-11424
▁walls	-11425
▁догада	-11426
▁общего	-11427
▁собирались	-11428
кала	-11429
льными	-11430
▁десяти	-11431
▁районе	-11432
▁создать	-11433
▁grateful	-11434
▁released	-11435
▁Especially	-11436
нных	-11437
▁ears	-11438
▁Любо	-11439
▁точки	-11440
▁agents	-11441
▁дерьма	-11442
▁опозна	-11443
▁Tonight	-11444
▁бабушка	-11445
▁собрать	-11446
▁миллиона	-11447
▁попытаться	-11448
▁справедливо	-11449
кл	-11450
стся	-11451
▁Dis	-11452
▁Две	-11453
▁детям	-11454
▁чудес	-11455
▁подроб	-11456
▁cigaret	-11457
bur	-11458
van	-11459
▁Tob	-11460
▁код	-11461
▁хво	-11462
▁хло	-11463
▁Case	-11464
▁разме	-11465
▁Которы	-11466
▁нравишься	-11467
ними	-11468
▁Pri	-11469
▁flo	-11470
▁прожи	-11471
▁Carter	-11472
▁Держись	-11473
▁celebrate	-11474
▁вечеринки	-11475
▁встретились	-11476
rad	-11477
ьше	-11478
зация	-11479
▁свед	-11480
▁стри	-11481
▁Barry	-11482
▁Взгля	-11483
▁требо	-11484
▁испуга	-11485
▁прошли	-11486
▁exciting	-11487
ссы	-11488
туры	-11489
▁Val	-11490
▁spy	-11491
▁Таким	-11492
▁жениться	-11493
▁поговорю	-11494
rict	-11495
▁Зво	-11496
▁coat	-11497
▁ухожу	-11498
▁toilet	-11499
▁побыть	-11500
▁списке	-11501
без	-11502
▁Ba	-11503
▁Air	-11504
▁McC	-11505
▁McG	-11506
▁муд	-11507
▁усы	-11508
phone	-11509
▁Jones	-11510
▁умрет	-11511
▁старик	-11512
▁убивал	-11513
▁Jackson	-11514
▁warning	-11515
▁жо	-11516
▁ищет	-11517
▁reached	-11518
▁spending	-11519
▁ST	-11520
▁Rel	-11521
▁pee	-11522
▁noise	-11523
▁жертв	-11524
▁поехали	-11525
▁1,	-11526
▁Nope	-11527
▁стер	-11528
▁Грейс	-11529
▁плохая	-11530
▁плохие	-11531
▁conside	-11532
▁счастью	-11533
▁laughing	-11534
▁thousands	-11535
ias	-11536
▁Испо	-11537
▁stress	-11538
▁Совсем	-11539
тировать	-11540
▁tickets	-11541
▁changing	-11542
▁partners	-11543
▁sexy	-11544
▁ногу	-11545
▁твоём	-11546
▁взлома	-11547
▁нашему	-11548
▁превос	-11549
▁ресторан	-11550
▁considered	-11551
ube	-11552
гро	-11553
▁выр	-11554
abeth	-11555
▁gather	-11556
▁горжусь	-11557
зем	-11558
▁disg	-11559
▁слад	-11560
▁перей	-11561
▁journey	-11562
▁Уо	-11563
▁fright	-11564
▁перене	-11565
▁финансо	-11566
жий	-11567
дыду	-11568
емый	-11569
тяги	-11570
▁traum	-11571
▁стрем	-11572
▁Уильям	-11573
▁возрасте	-11574
▁direction	-11575
ket	-11576
еном	-11577
▁role	-11578
▁чрез	-11579
▁китай	-11580
▁temper	-11581
▁license	-11582
▁выиграть	-11583
▁приходить	-11584
Это	-11585
▁Мм	-11586
▁Шей	-11587
ровка	-11588
▁спит	-11589
▁citiz	-11590
▁любое	-11591
▁улики	-11592
▁Prince	-11593
▁прошел	-11594
▁Быстрее	-11595
▁животных	-11596
▁обнаружили	-11597
rett	-11598
▁197	-11599
▁Соб	-11600
тером	-11601
▁Home	-11602
▁gain	-11603
▁tong	-11604
▁кисло	-11605
▁volunt	-11606
▁Мартин	-11607
▁любого	-11608
gl	-11609
▁Судя	-11610
▁срок	-11611
ленная	-11612
▁Томас	-11613
▁торго	-11614
▁передо	-11615
veillance	-11616
▁national	-11617
▁Unfortunately	-11618
жают	-11619
▁шах	-11620
▁упал	-11621
▁product	-11622
▁пойдешь	-11623
▁behavior	-11624
▁carrying	-11625
▁throwing	-11626
atory	-11627
▁бассей	-11628
▁глубоко	-11629
▁душа	-11630
▁столе	-11631
▁репута	-11632
▁смотрит	-11633
▁мэ	-11634
ivia	-11635
руем	-11636
▁тяж	-11637
▁humans	-11638
▁Раньше	-11639
▁лучшего	-11640
ship	-11641
шишь	-11642
▁Hit	-11643
ваясь	-11644
▁упомя	-11645
▁Поговори	-11646
стый	-11647
▁Ask	-11648
▁pit	-11649
▁Bart	-11650
▁Mond	-11651
▁дому	-11652
▁учеб	-11653
против	-11654
▁имеем	-11655
▁accompl	-11656
▁впереди	-11657
где	-11658
пят	-11659
жима	-11660
монд	-11661
▁cheap	-11662
▁герой	-11663
▁favour	-11664
▁распла	-11665
▁society	-11666
▁Po	-11667
▁Ten	-11668
▁incre	-11669
▁counter	-11670
казывается	-11671
hal	-11672
▁Bad	-11673
▁Gun	-11674
▁Tor	-11675
▁Forg	-11676
▁Гран	-11677
▁самому	-11678
▁advantage	-11679
вера	-11680
скими	-11681
▁Alan	-11682
▁Shan	-11683
▁anti	-11684
▁bond	-11685
▁iron	-11686
▁nuts	-11687
▁Стар	-11688
▁suffer	-11689
▁думаем	-11690
▁предна	-11691
gen	-11692
▁Уор	-11693
▁bound	-11694
▁жертву	-11695
▁замеша	-11696
▁считают	-11697
▁избежать	-11698
пля	-11699
пара	-11700
▁Dun	-11701
▁Лай	-11702
colate	-11703
▁shape	-11704
▁passion	-11705
▁завтрак	-11706
▁началось	-11707
▁literally	-11708
гар	-11709
▁дю	-11710
гина	-11711
зади	-11712
aries	-11713
▁выбо	-11714
▁парню	-11715
▁форма	-11716
▁стыдно	-11717
▁prepare	-11718
▁приготов	-11719
▁desperate	-11720
case	-11721
▁Дамы	-11722
▁scary	-11723
▁отеле	-11724
▁screen	-11725
▁опазды	-11726
▁treated	-11727
▁смертью	-11728
▁vacation	-11729
деб	-11730
▁hug	-11731
▁Дер	-11732
▁бог	-11733
▁Care	-11734
▁Lisa	-11735
▁pure	-11736
▁scar	-11737
▁Пыта	-11738
▁урок	-11739
▁bread	-11740
▁Келли	-11741
PD	-11742
▁Ear	-11743
▁Деб	-11744
▁ушёл	-11745
▁Light	-11746
▁Жизнь	-11747
▁indeed	-11748
▁полной	-11749
▁traffic	-11750
▁мужчину	-11751
бар	-11752
▁мяч	-11753
▁laid	-11754
▁signs	-11755
▁Настоя	-11756
▁звонить	-11757
▁tip	-11758
▁тур	-11759
▁Gentle	-11760
▁последней	-11761
▁правительство	-11762
huh	-11763
▁tim	-11764
▁ящи	-11765
▁tail	-11766
▁бага	-11767
▁faces	-11768
▁Брось	-11769
▁братом	-11770
▁пациент	-11771
▁directly	-11772
▁exchange	-11773
туру	-11774
▁еда	-11775
▁возмо	-11776
▁объяв	-11777
hington	-11778
▁Den	-11779
▁Кай	-11780
▁aunt	-11781
▁alter	-11782
▁навре	-11783
▁robber	-11784
▁клиентов	-11785
▁x	-11786
ras	-11787
мец	-11788
▁Et	-11789
рели	-11790
▁Кое	-11791
ёг	-11792
▁_	-11793
...!	-11794
▁tatt	-11795
▁разно	-11796
▁Andrew	-11797
▁срочно	-11798
▁pulling	-11799
▁половину	-11800
▁представляю	-11801
▁Sk	-11802
verage	-11803
▁player	-11804
▁надеяться	-11805
▁unf	-11806
▁знако	-11807
беремся	-11808
▁confir	-11809
▁здания	-11810
▁национа	-11811
▁√	-11812
вные	-11813
▁указа	-11814
▁чемпи	-11815
ropriate	-11816
▁curious	-11817
▁вспомина	-11818
hab	-11819
тник	-11820
▁бросила	-11821
▁Rock	-11822
▁Soon	-11823
▁едем	-11824
▁дополни	-11825
▁Достаточно	-11826
gar	-11827
omen	-11828
otic	-11829
▁Pap	-11830
▁сей	-11831
▁spare	-11832
▁очарова	-11833
жишь	-11834
▁Ass	-11835
▁eggs	-11836
▁rate	-11837
▁Дере	-11838
▁badly	-11839
▁prior	-11840
▁scare	-11841
▁сидит	-11842
▁higher	-11843
▁Думаете	-11844
▁director	-11845
▁confident	-11846
дах	-11847
▁Cons	-11848
▁счета	-11849
▁сигарет	-11850
▁surround	-11851
бля	-11852
буд	-11853
▁Vir	-11854
gment	-11855
енный	-11856
▁cabin	-11857
▁влюби	-11858
▁отчая	-11859
▁здоровь	-11860
▁confused	-11861
can	-11862
▁flu	-11863
▁Kind	-11864
▁банк	-11865
езжать	-11866
▁hated	-11867
▁Сказал	-11868
ствовала	-11869
▁урод	-11870
▁Также	-11871
▁secure	-11872
вят	-11873
▁Dor	-11874
▁Down	-11875
▁курс	-11876
▁окна	-11877
▁tests	-11878
▁испор	-11879
▁приста	-11880
▁оказаться	-11881
▁перестать	-11882
▁придумать	-11883
гей	-11884
кты	-11885
▁мг	-11886
▁bat	-11887
▁lad	-11888
дение	-11889
▁shots	-11890
▁Салли	-11891
▁центр	-11892
▁бло	-11893
ublic	-11894
▁спорт	-11895
▁изменилось	-11896
▁circumstances	-11897
gend	-11898
▁CIA	-11899
▁una	-11900
▁Дево	-11901
▁мечты	-11902
▁поеду	-11903
▁ужина	-11904
▁попала	-11905
▁принци	-11906
▁вернемся	-11907
дном	-11908
▁plus	-11909
▁pizza	-11910
временно	-11911
▁stronger	-11912
lev	-11913
жер	-11914
▁Hor	-11915
arily	-11916
▁Смер	-11917
▁фунтов	-11918
pet	-11919
▁Men	-11920
▁сму	-11921
▁garage	-11922
▁Возвра	-11923
▁expensive	-11924
▁сообщения	-11925
-2	-11926
шок	-11927
▁educ	-11928
▁неожида	-11929
▁специали	-11930
рета	-11931
▁sem	-11932
▁спер	-11933
▁настаи	-11934
▁рассказывал	-11935
кле	-11936
▁8:	-11937
▁Bud	-11938
▁хер	-11939
готов	-11940
rifice	-11941
▁Элиза	-11942
▁книга	-11943
▁Donna	-11944
▁Green	-11945
▁Парни	-11946
▁Перед	-11947
▁Следу	-11948
▁Honest	-11949
▁compan	-11950
▁встрече	-11951
▁транспо	-11952
▁Caroline	-11953
ucle	-11954
▁Mommy	-11955
▁харак	-11956
▁задание	-11957
▁операция	-11958
шко	-11959
чают	-11960
▁рекомен	-11961
uted	-11962
тони	-11963
▁Art	-11964
▁купила	-11965
▁помеша	-11966
▁Vincent	-11967
▁оказалось	-11968
outs	-11969
▁вину	-11970
▁цветы	-11971
▁прекрати	-11972
▁отпечатки	-11973
мую	-11974
▁Wall	-11975
▁libr	-11976
▁удив	-11977
▁ожидал	-11978
▁percent	-11979
▁автобус	-11980
▁technology	-11981
вот	-11982
сек	-11983
▁Wood	-11984
▁трети	-11985
▁занимался	-11986
▁закончилось	-11987
?.	-11988
▁Cho	-11989
▁Fel	-11990
ёшься	-11991
▁насе	-11992
▁grade	-11993
▁вызов	-11994
▁поверх	-11995
▁hunting	-11996
▁touched	-11997
▁пациента	-11998
▁tit	-11999
▁читал	-12000
▁regard	-12001
▁навести	-12002
▁позволил	-12003
▁появилась	-12004
▁беспокойся	-12005
▁crit	-12006
▁elev	-12007
atches	-12008
▁trace	-12009
▁старая	-12010
циальный	-12011
▁younger	-12012
▁безумие	-12013
▁партнер	-12014
▁предыду	-12015
▁отличная	-12016
▁gentleman	-12017
ivid	-12018
▁30.	-12019
▁Aah	-12020
▁Пет	-12021
▁мяг	-12022
манда	-12023
▁ведет	-12024
▁загля	-12025
▁пожертво	-12026
▁чувствует	-12027
ббс	-12028
▁Дра	-12029
▁Coun	-12030
▁Robin	-12031
▁image	-12032
▁moves	-12033
▁whore	-12034
▁Убери	-12035
▁кухне	-12036
▁butter	-12037
▁season	-12038
▁напуга	-12039
▁последняя	-12040
▁conference	-12041
▁Брэ	-12042
▁Спи	-12043
▁Чикаго	-12044
▁Whoever	-12045
▁Пау	-12046
▁счастливы	-12047
вор	-12048
born	-12049
▁Сви	-12050
▁Seems	-12051
▁leads	-12052
▁карты	-12053
▁reports	-12054
▁FOR	-12055
▁arg	-12056
йдёшь	-12057
▁подпи	-12058
▁transport	-12059
▁Washington	-12060
▁Здравствуй	-12061
▁собираются	-12062
lly	-12063
ряс	-12064
вень	-12065
лами	-12066
▁prim	-12067
▁выле	-12068
▁звук	-12069
▁waited	-12070
▁родился	-12071
▁придурок	-12072
▁пригласить	-12073
На	-12074
гали	-12075
▁Спе	-12076
▁миро	-12077
довлет	-12078
нилось	-12079
▁artist	-12080
▁protecting	-12081
льку	-12082
▁нен	-12083
Йорка	-12084
▁ходил	-12085
нда	-12086
▁bail	-12087
▁теми	-12088
▁Haven	-12089
▁перио	-12090
▁mistakes	-12091
боту	-12092
▁Aunt	-12093
▁wire	-12094
▁даль	-12095
▁beast	-12096
▁bones	-12097
▁prevent	-12098
▁Успокойся	-12099
▁распростра	-12100
вило	-12101
клина	-12102
▁drown	-12103
▁estab	-12104
▁немно	-12105
▁collea	-12106
▁убийцы	-12107
▁показал	-12108
▁≈	-12109
▁dust	-12110
ходишь	-12111
▁Ханна	-12112
▁установ	-12113
▁церковь	-12114
▁контроль	-12115
тоне	-12116
▁рыба	-12117
▁magaz	-12118
▁здоро	-12119
▁убийцу	-12120
▁vampire	-12121
▁посмотрю	-12122
▁Несколько	-12123
рисо	-12124
▁Сек	-12125
enced	-12126
▁вызо	-12127
▁жест	-12128
▁местах	-12129
▁footage	-12130
▁извините	-12131
▁прошлого	-12132
▁Nah	-12133
берна	-12134
elieve	-12135
▁уходит	-12136
▁центра	-12137
▁присматри	-12138
▁договорились	-12139
▁Ari	-12140
▁shr	-12141
▁puts	-12142
▁груди	-12143
duction	-12144
▁spring	-12145
▁удосто	-12146
▁покинуть	-12147
▁проходит	-12148
KE	-12149
▁Блин	-12150
▁annoy	-12151
▁intern	-12152
▁помоги	-12153
▁умирает	-12154
▁sentence	-12155
rek	-12156
unior	-12157
ushed	-12158
▁Might	-12159
▁sandw	-12160
▁sweat	-12161
▁Ребек	-12162
▁resist	-12163
▁дружище	-12164
▁appointment	-12165
лос	-12166
ходы	-12167
▁sugar	-12168
▁выдви	-12169
▁разоз	-12170
▁Рейчел	-12171
▁weather	-12172
▁Ћ	-12173
кри	-12174
▁Чак	-12175
▁ски	-12176
,000.	-12177
ститу	-12178
▁Blood	-12179
▁Elizabeth	-12180
iron	-12181
ковы	-12182
aming	-12183
▁Inst	-12184
▁пуль	-12185
тельна	-12186
▁женщине	-12187
▁деньгами	-12188
cial	-12189
mber	-12190
sell	-12191
▁Ммм	-12192
▁Pull	-12193
▁scan	-12194
▁смей	-12195
▁virus	-12196
▁пойдём	-12197
sequ	-12198
тики	-12199
▁Abby	-12200
▁Тоби	-12201
▁поси	-12202
▁Прежде	-12203
▁любимый	-12204
▁случается	-12205
▁чувствовала	-12206
мого	-12207
ament	-12208
▁заре	-12209
▁исти	-12210
▁сена	-12211
ability	-12212
▁demand	-12213
▁Ненави	-12214
▁незави	-12215
▁участок	-12216
▁entirely	-12217
веро	-12218
▁Doc	-12219
▁Деву	-12220
▁Евро	-12221
▁МакК	-12222
▁solve	-12223
▁Эндрю	-12224
▁cooper	-12225
▁установи	-12226
▁experiment	-12227
чих	-12228
▁верх	-12229
▁tattoo	-12230
▁ошибки	-12231
bage	-12232
oops	-12233
▁symb	-12234
▁улицу	-12235
▁priest	-12236
%.	-12237
жке	-12238
▁обру	-12239
▁Мария	-12240
▁сыгра	-12241
▁принесу	-12242
▁intelligence	-12243
aph	-12244
imin	-12245
uman	-12246
вига	-12247
▁Nik	-12248
▁Сво	-12249
▁вес	-12250
▁тет	-12251
▁acqu	-12252
▁кафе	-12253
▁вероят	-12254
▁лаборатории	-12255
вёр	-12256
▁Ir	-12257
play	-12258
била	-12259
чика	-12260
▁Глу	-12261
▁Feel	-12262
жается	-12263
▁Laura	-12264
▁собака	-12265
▁отвечать	-12266
▁использует	-12267
He	-12268
▁Bel	-12269
▁Han	-12270
▁Hay	-12271
▁gal	-12272
▁Вен	-12273
▁Мит	-12274
чники	-12275
▁Holly	-12276
▁Fucking	-12277
▁танцевать	-12278
▁отношениях	-12279
▁полицейский	-12280
ёс	-12281
izz	-12282
вяз	-12283
лика	-12284
▁Veg	-12285
▁ess	-12286
▁liar	-12287
▁meal	-12288
▁Оска	-12289
ковать	-12290
▁Found	-12291
▁управлять	-12292
▁surveillance	-12293
▁разор	-12294
▁штаны	-12295
▁nation	-12296
▁начинаю	-12297
▁whenever	-12298
▁присоединиться	-12299
aud	-12300
▁Ange	-12301
▁вело	-12302
▁заго	-12303
▁пива	-12304
▁убор	-12305
▁целью	-12306
▁satisf	-12307
▁переме	-12308
▁плохое	-12309
▁процесс	-12310
▁энергии	-12311
▁принесла	-12312
▁занимаюсь	-12313
▁лейтенант	-12314
▁Ac	-12315
▁Rec	-12316
▁fro	-12317
▁дух	-12318
▁Insp	-12319
▁blew	-12320
▁реги	-12321
▁April	-12322
▁motor	-12323
utation	-12324
▁убивает	-12325
▁эмоциона	-12326
▁emotional	-12327
▁заботиться	-12328
▁ы	-12329
ula	-12330
▁Won	-12331
▁fif	-12332
ристи	-12333
▁Work	-12334
▁Мило	-12335
▁troub	-12336
пускать	-12337
▁Который	-12338
▁предоста	-12339
▁устала	-12340
▁Дорогой	-12341
▁колледже	-12342
▁challenge	-12343
▁отношений	-12344
▁Брю	-12345
вится	-12346
▁Sean	-12347
▁облег	-12348
▁belongs	-12349
▁grandfather	-12350
aylor	-12351
▁maid	-12352
▁cheer	-12353
▁лекарство	-12354
▁удовольствие	-12355
▁Squ	-12356
holic	-12357
жений	-12358
▁Хоть	-12359
▁princ	-12360
▁новым	-12361
▁бур	-12362
▁зар	-12363
▁добы	-12364
▁серде	-12365
▁службы	-12366
▁выиграл	-12367
тельности	-12368
▁political	-12369
▁Продолжай	-12370
▁Eh	-12371
ходе	-12372
▁grandmother	-12373
леть	-12374
нным	-12375
▁mal	-12376
▁лесу	-12377
vision	-12378
▁леген	-12379
▁девочек	-12380
▁сержант	-12381
▁presence	-12382
зал	-12383
хал	-12384
циа	-12385
▁Вол	-12386
▁reck	-12387
▁ждёт	-12388
▁federal	-12389
▁fortune	-12390
▁remo	-12391
▁rush	-12392
▁aside	-12393
▁setting	-12394
▁причине	-12395
▁Вероятно	-12396
▁невероят	-12397
▁suffering	-12398
▁Шу	-12399
iforn	-12400
▁Спас	-12401
▁false	-12402
▁events	-12403
▁отстой	-12404
Мо	-12405
▁Смо	-12406
▁реша	-12407
▁British	-12408
▁happiness	-12409
▁jew	-12410
▁зуб	-12411
▁мак	-12412
▁bags	-12413
▁spin	-12414
▁Tyler	-12415
▁billion	-12416
▁Счастли	-12417
▁potential	-12418
▁sacrifice	-12419
▁Law	-12420
енных	-12421
▁fully	-12422
▁налич	-12423
▁приходил	-12424
▁считаете	-12425
▁yourselves	-12426
дн	-12427
▁Тэ	-12428
▁Marg	-12429
датель	-12430
оборот	-12431
▁Ricky	-12432
▁lower	-12433
▁власть	-12434
ственного	-12435
кун	-12436
ange	-12437
▁Хло	-12438
▁лиш	-12439
кнуть	-12440
▁WHAT	-12441
▁взво	-12442
▁мёртв	-12443
надцать	-12444
▁Понимаю	-12445
▁identity	-12446
▁Согласно	-12447
otte	-12448
ёзно	-12449
▁hire	-12450
▁Быть	-12451
▁spoken	-12452
▁Помоги	-12453
▁Предпо	-12454
▁надела	-12455
mar	-12456
oot	-12457
буду	-12458
дную	-12459
▁Dev	-12460
▁Sand	-12461
▁внеш	-12462
▁coinc	-12463
▁toast	-12464
▁выклю	-12465
vy	-12466
▁дамы	-12467
▁круг	-12468
▁посме	-12469
▁option	-12470
▁важнее	-12471
▁Нач	-12472
▁едет	-12473
Анджеле	-12474
?..	-12475
лаз	-12476
еной	-12477
▁Дом	-12478
▁Мей	-12479
force	-12480
▁Dave	-12481
▁меха	-12482
▁болезнь	-12483
ox	-12484
▁гос	-12485
▁defe	-12486
▁summ	-12487
▁trap	-12488
▁Идём	-12489
▁анге	-12490
▁армии	-12491
▁served	-12492
▁Gentlemen	-12493
▁буквально	-12494
аса	-12495
▁Ra	-12496
фика	-12497
▁Тед	-12498
рования	-12499
▁understood	-12500
няю	-12501
▁'?	-12502
мену	-12503
нков	-12504
ломет	-12505
▁Кото	-12506
▁вось	-12507
▁Susan	-12508
▁blank	-12509
▁патру	-12510
▁сотни	-12511
▁wanting	-12512
▁миллиар	-12513
▁Величество	-12514
eng	-12515
fle	-12516
top	-12517
чало	-12518
мость	-12519
▁alien	-12520
▁слухи	-12521
▁каждом	-12522
▁отрица	-12523
▁радостью	-12524
▁циф	-12525
▁impl	-12526
▁Вроде	-12527
▁Second	-12528
▁фальши	-12529
▁breathing	-12530
▁пригласил	-12531
isher	-12532
▁hors	-12533
▁вряд	-12534
▁нелег	-12535
▁дольше	-12536
▁правде	-12537
рнали	-12538
▁лице	-12539
▁produc	-12540
▁нашими	-12541
▁chances	-12542
▁Christian	-12543
яю	-12544
дны	-12545
▁ау	-12546
сипе	-12547
▁Пей	-12548
▁Mind	-12549
ходила	-12550
▁fixed	-12551
▁guests	-12552
▁каждое	-12553
▁камень	-12554
▁foreign	-12555
▁перегово	-12556
▁исследования	-12557
gs	-12558
Ма	-12559
ida	-12560
жней	-12561
щины	-12562
▁экза	-12563
▁живёт	-12564
▁pushed	-12565
▁классе	-12566
▁племян	-12567
▁библиоте	-12568
▁показалось	-12569
дца	-12570
icks	-12571
жите	-12572
▁Cos	-12573
▁Ган	-12574
▁Gary	-12575
▁warn	-12576
▁trash	-12577
▁сообщ	-12578
▁switch	-12579
▁mystery	-12580
▁distance	-12581
▁понедель	-12582
iece	-12583
▁Ram	-12584
utter	-12585
вычай	-12586
▁Kore	-12587
ченный	-12588
▁братья	-12589
▁звонки	-12590
▁шутишь	-12591
▁другому	-12592
▁медленно	-12593
▁tradition	-12594
▁Разумеется	-12595
нца	-12596
▁шум	-12597
▁лежит	-12598
onsense	-12599
▁Начина	-12600
▁одержи	-12601
▁понимать	-12602
▁extremely	-12603
▁использовали	-12604
гант	-12605
▁Jay	-12606
▁гара	-12607
▁зубы	-12608
▁Olivia	-12609
▁первом	-12610
▁glasses	-12611
▁предпоч	-12612
мат	-12613
лему	-12614
▁Бру	-12615
▁лжи	-12616
▁edge	-12617
▁доми	-12618
▁тему	-12619
▁engage	-12620
▁чудови	-12621
ии	-12622
▁Мед	-12623
▁гне	-12624
гнать	-12625
енные	-12626
▁decl	-12627
▁обору	-12628
▁propos	-12629
▁включая	-12630
▁заработа	-12631
вшей	-12632
▁Нес	-12633
▁Conn	-12634
▁occur	-12635
▁Люблю	-12636
▁violence	-12637
▁бесполез	-12638
▁находиться	-12639
▁Мин	-12640
▁ано	-12641
▁жила	-12642
▁concl	-12643
▁Барри	-12644
▁помол	-12645
▁mostly	-12646
▁востор	-12647
▁пропал	-12648
▁provide	-12649
▁shopping	-12650
▁отдохнуть	-12651
сис	-12652
▁али	-12653
▁начну	-12654
▁узнают	-12655
▁engaged	-12656
▁задержи	-12657
▁работаем	-12658
▁заслуживает	-12659
вица	-12660
▁Шеф	-12661
▁clin	-12662
▁gall	-12663
▁роли	-12664
ipping	-12665
▁подска	-12666
▁similar	-12667
00.	-12668
▁Elena	-12669
▁revol	-12670
▁прока	-12671
▁tongue	-12672
▁vision	-12673
▁старше	-12674
▁церемо	-12675
▁Special	-12676
▁vehicle	-12677
▁Ren	-12678
hamed	-12679
▁sett	-12680
romise	-12681
▁Monday	-12682
▁recall	-12683
▁Картер	-12684
▁памяти	-12685
▁учиться	-12686
▁Отличная	-12687
▁одиночку	-12688
▁interrupt	-12689
▁предлагаю	-12690
▁Guy	-12691
▁вор	-12692
▁Lucy	-12693
▁Кэти	-12694
▁Being	-12695
▁Charl	-12696
▁пытаясь	-12697
Th	-12698
oned	-12699
▁эфи	-12700
▁уско	-12701
▁дорого	-12702
▁совпадение	-12703
▁bee	-12704
пании	-12705
▁Hank	-12706
▁Poor	-12707
▁горе	-12708
▁танцу	-12709
▁правило	-12710
▁cleaning	-12711
ona	-12712
▁pa	-12713
▁gym	-12714
▁Эмма	-12715
▁achie	-12716
▁trees	-12717
▁совме	-12718
▁спала	-12719
тически	-12720
▁поступи	-12721
▁станции	-12722
ТО	-12723
gle	-12724
wor	-12725
▁Ум	-12726
▁Энн	-12727
▁сука	-12728
лишься	-12729
▁убьет	-12730
▁хороша	-12731
▁Minister	-12732
▁competition	-12733
▁Mir	-12734
ipment	-12735
ходили	-12736
▁Grant	-12737
▁Patrick	-12738
▁miracle	-12739
право	-12740
▁Easy	-12741
▁Karen	-12742
▁anger	-12743
▁улицы	-12744
met	-12745
дну	-12746
даний	-12747
▁Gray	-12748
▁дыха	-12749
▁вмеши	-12750
ifornia	-12751
▁третий	-12752
▁руке	-12753
▁отста	-12754
▁occasion	-12755
▁specific	-12756
▁fantastic	-12757
▁волноваться	-12758
вшая	-12759
▁uns	-12760
▁Интер	-12761
▁кабин	-12762
▁experi	-12763
▁занята	-12764
▁Forgive	-12765
▁невинов	-12766
▁abandoned	-12767
▁перестань	-12768
OS	-12769
фан	-12770
uses	-12771
▁Силь	-12772
▁трое	-12773
▁dozen	-12774
▁призра	-12775
▁becomes	-12776
▁burning	-12777
▁guessing	-12778
фом	-12779
часа	-12780
щите	-12781
▁Met	-12782
жался	-12783
▁Shar	-12784
▁петь	-12785
▁Откры	-12786
▁forest	-12787
▁Многие	-12788
▁разоча	-12789
▁passing	-12790
▁electric	-12791
▁Элизабет	-12792
▁спрашиваю	-12793
▁зла	-12794
▁awake	-12795
▁clever	-12796
▁estate	-12797
▁приезжа	-12798
▁провели	-12799
▁поможешь	-12800
dra	-12801
сии	-12802
▁бук	-12803
▁упо	-12804
▁YOUR	-12805
▁jerk	-12806
▁scen	-12807
▁brand	-12808
▁Санта	-12809
▁Супер	-12810
▁красиво	-12811
▁basement	-12812
▁bom	-12813
▁Тим	-12814
▁Хай	-12815
▁Mean	-12816
▁tied	-12817
▁твер	-12818
щается	-12819
▁alarm	-12820
▁uncom	-12821
▁Castle	-12822
▁closet	-12823
▁highly	-12824
▁Оливер	-12825
▁считал	-12826
▁удастся	-12827
▁9:	-12828
бься	-12829
▁опе	-12830
▁chap	-12831
тились	-12832
▁notes	-12833
▁Такие	-12834
▁увидит	-12835
▁moments	-12836
бл	-12837
lim	-12838
стили	-12839
▁Sher	-12840
▁unus	-12841
▁преи	-12842
▁Jenny	-12843
▁Кевин	-12844
▁рукой	-12845
▁equipment	-12846
ifts	-12847
▁Los	-12848
▁тип	-12849
▁nail	-12850
▁экспер	-12851
ek	-12852
aze	-12853
нией	-12854
▁sed	-12855
▁Play	-12856
вления	-12857
▁brown	-12858
▁домом	-12859
▁думай	-12860
▁отель	-12861
▁подра	-12862
▁агента	-12863
▁выигры	-12864
▁becoming	-12865
пка	-12866
▁бара	-12867
▁игре	-12868
▁ниже	-12869
▁поесть	-12870
▁расскажешь	-12871
AM	-12872
нился	-12873
▁Dear	-12874
▁punch	-12875
▁ships	-12876
▁залож	-12877
▁proced	-12878
▁выжить	-12879
Oh	-12880
ппа	-12881
▁32	-12882
▁Хэй	-12883
баный	-12884
чными	-12885
▁broad	-12886
▁страх	-12887
▁diamond	-12888
▁quarter	-12889
▁trigger	-12890
▁расстоя	-12891
▁separate	-12892
▁таблетки	-12893
▁Тей	-12894
▁Seven	-12895
▁Леона	-12896
▁штата	-12897
▁ancient	-12898
▁Калифор	-12899
▁ID	-12900
ural	-12901
▁шам	-12902
▁рису	-12903
atives	-12904
▁Лорен	-12905
▁Steven	-12906
▁negot	-12907
▁newsp	-12908
▁любую	-12909
▁мозги	-12910
▁сесть	-12911
▁staring	-12912
▁пытаемся	-12913
▁подобного	-12914
▁встретимся	-12915
▁Час	-12916
▁занятия	-12917
▁Серьёзно	-12918
▁профессор	-12919
▁rap	-12920
omeday	-12921
▁Норма	-12922
▁corpor	-12923
▁pounds	-12924
▁холоди	-12925
▁договор	-12926
▁отвечает	-12927
▁пытаются	-12928
▁chocolate	-12929
▁поведение	-12930
вным	-12931
▁Cool	-12932
▁Бере	-12933
▁Брат	-12934
▁сбро	-12935
▁rescue	-12936
▁группу	-12937
вершенно	-12938
▁univers	-12939
▁Inspector	-12940
мых	-12941
▁Yet	-12942
antly	-12943
▁нали	-12944
▁desert	-12945
▁конкур	-12946
▁твоими	-12947
▁Believe	-12948
▁murders	-12949
▁корабля	-12950
▁Kr	-12951
вале	-12952
мона	-12953
чнее	-12954
чется	-12955
ждении	-12956
▁Счита	-12957
▁skills	-12958
▁trapped	-12959
▁Кэролайн	-12960
▁2.	-12961
▁28	-12962
▁ult	-12963
▁Fore	-12964
предел	-12965
▁attend	-12966
▁планете	-12967
▁Fe	-12968
miss	-12969
ссию	-12970
▁улуч	-12971
▁Повто	-12972
▁воздух	-12973
▁remembered	-12974
сию	-12975
▁умею	-12976
▁style	-12977
▁песни	-12978
▁уволь	-12979
▁remove	-12980
▁square	-12981
▁мертвы	-12982
▁Obviously	-12983
ани	-12984
▁1.	-12985
▁Лиз	-12986
vable	-12987
▁Неве	-12988
▁схва	-12989
▁lover	-12990
▁kissed	-12991
▁Морган	-12992
▁ответы	-12993
▁парков	-12994
▁схвати	-12995
▁километ	-12996
▁совершил	-12997
eds	-12998
remy	-12999
acher	-13000
▁influ	-13001
▁записы	-13002
▁Молодец	-13003
▁источник	-13004
▁excellent	-13005
▁financial	-13006
▁Последний	-13007
▁удивительно	-13008
▁Sun	-13009
▁flag	-13010
▁сзади	-13011
▁ashamed	-13012
▁courage	-13013
▁получите	-13014
▁стараюсь	-13015
▁photograph	-13016
▁Уай	-13017
ensive	-13018
тилась	-13019
▁Артур	-13020
▁Maggie	-13021
▁forces	-13022
▁защища	-13023
▁откров	-13024
▁желания	-13025
▁Mus	-13026
▁helps	-13027
▁преле	-13028
▁молодо	-13029
▁больницы	-13030
▁велосипе	-13031
▁witnesses	-13032
lig	-13033
тные	-13034
чишь	-13035
▁10:	-13036
▁Узна	-13037
ходило	-13038
▁Maria	-13039
▁войне	-13040
▁демон	-13041
▁ванной	-13042
▁занять	-13043
▁Джереми	-13044
▁Выглядит	-13045
▁Ненавижу	-13046
диви	-13047
▁уве	-13048
▁Можем	-13049
▁Harvey	-13050
▁Генера	-13051
▁trusted	-13052
▁возраста	-13053
ждал	-13054
▁Blue	-13055
▁оцен	-13056
▁breast	-13057
▁creature	-13058
зок	-13059
▁AT	-13060
▁мм	-13061
cing	-13062
брал	-13063
слов	-13064
▁клет	-13065
▁Викто	-13066
▁медсе	-13067
▁Мальчи	-13068
▁popular	-13069
▁связаны	-13070
die	-13071
mark	-13072
▁гло	-13073
дство	-13074
▁Bull	-13075
▁бывший	-13076
▁встать	-13077
▁девять	-13078
▁кошмар	-13079
▁судьба	-13080
▁century	-13081
▁version	-13082
▁Отпусти	-13083
люб	-13084
adem	-13085
нгел	-13086
▁Hom	-13087
▁Лан	-13088
▁Card	-13089
▁репети	-13090
▁здоровье	-13091
▁мошен	-13092
▁useful	-13093
▁именем	-13094
▁замужем	-13095
▁узнаешь	-13096
▁название	-13097
▁согласился	-13098
ros	-13099
▁Зи	-13100
▁двор	-13101
▁спину	-13102
▁зарпла	-13103
▁ability	-13104
▁confess	-13105
▁проблему	-13106
▁Кем	-13107
▁даю	-13108
▁кок	-13109
нений	-13110
▁багаж	-13111
▁выста	-13112
▁оказалась	-13113
ums	-13114
мотр	-13115
▁row	-13116
▁Пор	-13117
▁cris	-13118
ulance	-13119
▁судья	-13120
▁увидите	-13121
▁properly	-13122
▁получает	-13123
ствительно	-13124
ъез	-13125
▁7:	-13126
бовал	-13127
▁иску	-13128
▁steps	-13129
▁policy	-13130
▁silver	-13131
▁множество	-13132
гни	-13133
agne	-13134
known	-13135
▁шести	-13136
▁Садись	-13137
▁держит	-13138
▁counsel	-13139
▁поймали	-13140
▁LA	-13141
ishop	-13142
overy	-13143
▁Anne	-13144
▁Jose	-13145
▁Север	-13146
▁разбу	-13147
▁сокра	-13148
▁Wouldn	-13149
▁button	-13150
▁заполу	-13151
▁MY	-13152
▁Tre	-13153
▁тка	-13154
▁зная	-13155
▁ocean	-13156
ongress	-13157
▁обнару	-13158
▁escaped	-13159
▁найдешь	-13160
▁route	-13161
▁Coming	-13162
▁заплатил	-13163
▁предупредить	-13164
гий	-13165
▁Мир	-13166
▁Тан	-13167
▁мона	-13168
▁спиной	-13169
▁предела	-13170
cast	-13171
берт	-13172
▁Joey	-13173
▁wond	-13174
uclear	-13175
▁Taylor	-13176
▁детали	-13177
▁субботу	-13178
▁положить	-13179
30	-13180
ым	-13181
дли	-13182
illa	-13183
▁Гло	-13184
▁ябло	-13185
▁hates	-13186
▁готово	-13187
▁ударил	-13188
▁beating	-13189
▁пожалуй	-13190
▁princess	-13191
▁decisions	-13192
поз	-13193
itar	-13194
reck	-13195
▁дур	-13196
форми	-13197
▁дово	-13198
▁Jacob	-13199
▁вскры	-13200
▁legend	-13201
gent	-13202
кцию	-13203
▁san	-13204
никам	-13205
▁приро	-13206
▁recent	-13207
▁поисках	-13208
▁незнаком	-13209
▁threatened	-13210
шер	-13211
▁Lex	-13212
▁Aust	-13213
▁candy	-13214
▁худож	-13215
▁loving	-13216
▁Федера	-13217
▁Попробуй	-13218
▁вызывает	-13219
▁обнаружил	-13220
жие	-13221
лке	-13222
▁бух	-13223
▁еже	-13224
▁ерун	-13225
▁Джоан	-13226
▁убьют	-13227
▁поедем	-13228
▁уехала	-13229
▁Неважно	-13230
▁бояться	-13231
▁announce	-13232
▁midnight	-13233
▁Большинство	-13234
▁Бэ	-13235
вшим	-13236
▁Сон	-13237
▁вдо	-13238
kward	-13239
ridge	-13240
▁Sara	-13241
▁gods	-13242
▁print	-13243
▁stink	-13244
▁assass	-13245
▁Чарльз	-13246
▁пласти	-13247
▁journal	-13248
▁отвезти	-13249
▁привяза	-13250
▁shoulder	-13251
▁California	-13252
▁доказательств	-13253
юар	-13254
▁Кит	-13255
▁Люк	-13256
▁Пот	-13257
▁оборо	-13258
▁перем	-13259
▁decent	-13260
▁desire	-13261
▁сквозь	-13262
▁offering	-13263
▁позаботиться	-13264
перт	-13265
▁mat	-13266
▁ков	-13267
▁network	-13268
▁пятницу	-13269
тная	-13270
▁glo	-13271
cover	-13272
класс	-13273
▁Элис	-13274
▁поспо	-13275
▁неудоб	-13276
▁потрясающе	-13277
▁разговаривал	-13278
-4	-13279
▁Щ	-13280
стен	-13281
▁Rus	-13282
▁Объ	-13283
▁кно	-13284
▁Casey	-13285
▁пусто	-13286
▁постель	-13287
▁контракт	-13288
До	-13289
йка	-13290
▁Уин	-13291
чками	-13292
▁очки	-13293
пустим	-13294
▁Отдай	-13295
▁волос	-13296
▁расписа	-13297
▁словами	-13298
▁события	-13299
▁confession	-13300
reg	-13301
сная	-13302
ствуешь	-13303
▁спуска	-13304
ственным	-13305
▁therapy	-13306
▁Неплохо	-13307
▁страхов	-13308
▁Лейтенант	-13309
▁Department	-13310
▁Ак	-13311
belie	-13312
шками	-13313
▁Fort	-13314
▁review	-13315
▁Прокля	-13316
▁увидели	-13317
▁девчонка	-13318
етт	-13319
нутри	-13320
▁mere	-13321
▁rise	-13322
▁wide	-13323
▁Типа	-13324
▁целую	-13325
▁guards	-13326
▁mirror	-13327
▁обманы	-13328
▁попали	-13329
▁ненавидит	-13330
ev	-13331
VER	-13332
▁ев	-13333
сток	-13334
▁фра	-13335
illed	-13336
▁деше	-13337
▁компью	-13338
▁найдут	-13339
министра	-13340
▁удовлет	-13341
▁Director	-13342
ющего	-13343
▁Стре	-13344
▁карту	-13345
▁explan	-13346
▁millions	-13347
▁собственно	-13348
▁Kyle	-13349
▁Круто	-13350
▁зерка	-13351
▁идите	-13352
▁library	-13353
▁неприятно	-13354
кает	-13355
▁Roman	-13356
▁Довольно	-13357
▁написала	-13358
▁щ	-13359
scar	-13360
йдут	-13361
▁беско	-13362
▁Положи	-13363
▁вперёд	-13364
▁говорится	-13365
▁одновременно	-13366
▁Wr	-13367
▁Ат	-13368
keep	-13369
зости	-13370
▁вдво	-13371
▁выро	-13372
рованы	-13373
▁coach	-13374
▁brains	-13375
▁придут	-13376
бря	-13377
reek	-13378
▁wha	-13379
▁debt	-13380
▁wave	-13381
▁west	-13382
▁Отой	-13383
▁вред	-13384
▁talks	-13385
▁отвез	-13386
▁прось	-13387
▁фильма	-13388
▁посреди	-13389
▁Honestly	-13390
▁справлюсь	-13391
льзу	-13392
пьем	-13393
▁unp	-13394
stein	-13395
▁Stef	-13396
▁тупи	-13397
▁Jeremy	-13398
▁Четыре	-13399
▁забыли	-13400
▁секреты	-13401
▁Security	-13402
▁agreement	-13403
▁friendship	-13404
dle	-13405
пет	-13406
чён	-13407
логии	-13408
нного	-13409
▁Scot	-13410
▁Matthew	-13411
▁добиться	-13412
▁Понимаете	-13413
колад	-13414
▁craw	-13415
▁slip	-13416
▁Руки	-13417
▁affect	-13418
▁забавно	-13419
даешь	-13420
▁Fair	-13421
▁alcohol	-13422
▁соревно	-13423
▁холодно	-13424
▁Marshall	-13425
▁instruct	-13426
UR	-13427
хан	-13428
berg	-13429
▁jam	-13430
▁Подо	-13431
▁чушь	-13432
▁prints	-13433
▁Спроси	-13434
▁модель	-13435
▁украсть	-13436
▁экономи	-13437
▁сражаться	-13438
9,	-13439
▁Kl	-13440
▁уз	-13441
hest	-13442
▁fra	-13443
▁alib	-13444
▁школа	-13445
▁mental	-13446
▁обезья	-13447
рда	-13448
lies	-13449
mare	-13450
that	-13451
agger	-13452
ваний	-13453
▁zero	-13454
▁Стоп	-13455
▁затк	-13456
▁сцен	-13457
▁thief	-13458
▁пошло	-13459
▁Cheers	-13460
eaks	-13461
onse	-13462
iated	-13463
▁голоса	-13464
▁Leonard	-13465
▁Neither	-13466
▁нелегко	-13467
▁умирать	-13468
▁позвольте	-13469
▁disgusting	-13470
жили	-13471
▁196	-13472
▁Brad	-13473
▁Such	-13474
▁Larry	-13475
▁Though	-13476
▁Обещаю	-13477
▁judgment	-13478
▁директор	-13479
▁одолжение	-13480
▁прекрасная	-13481
сков	-13482
▁dece	-13483
▁Судь	-13484
▁Julia	-13485
▁sucks	-13486
▁завед	-13487
▁потен	-13488
▁объеди	-13489
▁собаку	-13490
▁провела	-13491
▁delicious	-13492
гают	-13493
лила	-13494
▁уку	-13495
телен	-13496
телями	-13497
▁Helen	-13498
▁effort	-13499
▁нахожу	-13500
▁Aye	-13501
▁Кейси	-13502
▁штуку	-13503
нимание	-13504
▁individ	-13505
▁sisters	-13506
▁недоста	-13507
▁перерыв	-13508
▁сестрой	-13509
▁deserves	-13510
▁searching	-13511
лим	-13512
▁брю	-13513
▁фла	-13514
usive	-13515
зопас	-13516
▁couch	-13517
▁assure	-13518
▁рассле	-13519
▁требует	-13520
▁рисковать	-13521
лор	-13522
зино	-13523
▁Drop	-13524
▁babe	-13525
▁soup	-13526
ляться	-13527
▁cloud	-13528
▁ордер	-13529
▁каждым	-13530
▁создал	-13531
▁девушке	-13532
▁stranger	-13533
.?	-13534
▁беру	-13535
▁flesh	-13536
▁Ларри	-13537
▁живой	-13538
▁живых	-13539
▁chosen	-13540
▁удержи	-13541
▁закрыть	-13542
5,	-13543
бах	-13544
▁Ta	-13545
стям	-13546
▁Кол	-13547
istan	-13548
▁lung	-13549
▁below	-13550
▁fruit	-13551
▁Снова	-13552
▁забро	-13553
▁Follow	-13554
▁достоин	-13555
▁жестоко	-13556
За	-13557
фли	-13558
▁tum	-13559
▁сго	-13560
▁porn	-13561
erable	-13562
▁Профе	-13563
▁unusual	-13564
▁мистером	-13565
▁Catherine	-13566
EC	-13567
зву	-13568
▁Ju	-13569
шено	-13570
щением	-13571
▁Quick	-13572
▁marks	-13573
▁земля	-13574
▁сукин	-13575
▁Открой	-13576
▁Осторожно	-13577
▁настоящие	-13578
▁considering	-13579
дий	-13580
гаешь	-13581
немся	-13582
▁Best	-13583
▁Kelly	-13584
▁solid	-13585
▁возбу	-13586
▁ничем	-13587
▁камера	-13588
▁parties	-13589
▁популяр	-13590
▁solution	-13591
▁reputation	-13592
▁отказаться	-13593
гим	-13594
▁Была	-13595
▁Мини	-13596
▁Almost	-13597
▁заключи	-13598
▁привело	-13599
▁распоря	-13600
▁счастье	-13601
▁обсуждать	-13602
▁successful	-13603
▁используют	-13604
▁Единственное	-13605
▁Bay	-13606
ющими	-13607
▁Death	-13608
▁разда	-13609
▁цвета	-13610
ждаться	-13611
ступать	-13612
▁joined	-13613
▁violent	-13614
▁будущего	-13615
▁грузовик	-13616
лоу	-13617
шены	-13618
alley	-13619
▁task	-13620
▁совра	-13621
▁messed	-13622
▁terrif	-13623
▁сопрово	-13624
ого	-13625
andom	-13626
ordin	-13627
▁tend	-13628
▁адре	-13629
▁sales	-13630
▁дождь	-13631
▁женат	-13632
▁клубе	-13633
▁совпа	-13634
▁resour	-13635
▁ответил	-13636
▁свободу	-13637
▁темпера	-13638
▁Проблема	-13639
▁научиться	-13640
▁наблюдения	-13641
▁потребуется	-13642
win	-13643
▁Sa	-13644
▁wise	-13645
▁Алан	-13646
▁пари	-13647
▁редко	-13648
▁надеть	-13649
▁перено	-13650
▁cutting	-13651
▁knocked	-13652
▁оружием	-13653
▁Internet	-13654
▁мальчики	-13655
▁средства	-13656
▁Otherwise	-13657
▁Mos	-13658
▁сня	-13659
▁depos	-13660
▁horses	-13661
▁Говорю	-13662
ironment	-13663
▁планеты	-13664
▁поднять	-13665
▁процеду	-13666
▁программу	-13667
ours	-13668
ulse	-13669
шена	-13670
▁Дэви	-13671
▁Крей	-13672
▁драго	-13673
▁замет	-13674
▁Проверь	-13675
ola	-13676
▁ded	-13677
▁Ада	-13678
▁прим	-13679
ленных	-13680
стоять	-13681
▁kills	-13682
▁верто	-13683
зительно	-13684
▁отвлека	-13685
▁приняли	-13686
▁hundreds	-13687
eer	-13688
пры	-13689
чия	-13690
▁ня	-13691
▁Said	-13692
▁dirt	-13693
▁chain	-13694
▁pleased	-13695
▁сомнения	-13696
▁благотвори	-13697
▁признаться	-13698
▁познакомились	-13699
зей	-13700
зовите	-13701
▁backup	-13702
▁боится	-13703
▁найдём	-13704
▁fashion	-13705
▁журнали	-13706
▁материа	-13707
▁precious	-13708
▁вернётся	-13709
▁чрезвычай	-13710
▁трё	-13711
▁чек	-13712
▁junk	-13713
▁моря	-13714
резать	-13715
▁Gibbs	-13716
▁curse	-13717
▁Харви	-13718
▁dumped	-13719
▁названием	-13720
▁отказался	-13721
пай	-13722
рал	-13723
сать	-13724
давно	-13725
▁Madam	-13726
▁blast	-13727
▁людях	-13728
▁неловко	-13729
▁придумал	-13730
▁2:	-13731
▁rot	-13732
alled	-13733
▁Лука	-13734
▁Molly	-13735
▁range	-13736
▁болит	-13737
▁slowly	-13738
▁сверху	-13739
ственных	-13740
▁начинать	-13741
▁поставил	-13742
cks	-13743
amin	-13744
▁пишу	-13745
лилась	-13746
▁riding	-13747
▁связыва	-13748
▁занимаешься	-13749
RI	-13750
дд	-13751
ador	-13752
чуть	-13753
▁водо	-13754
▁stake	-13755
▁houses	-13756
▁smells	-13757
▁крайне	-13758
▁teaching	-13759
rier	-13760
▁vul	-13761
ереди	-13762
▁lips	-13763
▁МакГ	-13764
▁Тихо	-13765
рована	-13766
▁squad	-13767
▁непре	-13768
▁crimes	-13769
▁stands	-13770
▁искрен	-13771
▁holiday	-13772
▁messages	-13773
AL	-13774
bey	-13775
сель	-13776
▁NOT	-13777
▁кот	-13778
дилась	-13779
▁shake	-13780
▁разоб	-13781
▁basket	-13782
▁phones	-13783
▁поцело	-13784
▁leading	-13785
▁authority	-13786
▁screaming	-13787
▁впечатление	-13788
син	-13789
▁36	-13790
rance	-13791
▁отор	-13792
▁skull	-13793
venture	-13794
▁пахнет	-13795
▁Оставьте	-13796
▁катастро	-13797
▁побольше	-13798
▁разрешения	-13799
hern	-13800
▁gig	-13801
▁штук	-13802
станов	-13803
▁nasty	-13804
▁брось	-13805
▁Sheriff	-13806
▁understanding	-13807
uf	-13808
iac	-13809
▁ох	-13810
ittee	-13811
▁liqu	-13812
▁углу	-13813
▁пенси	-13814
▁удачи	-13815
▁Amanda	-13816
▁Джейми	-13817
▁всякий	-13818
▁Странно	-13819
▁ощущение	-13820
▁ненадолго	-13821
▁отпустить	-13822
▁рассматри	-13823
▁собственный	-13824
вла	-13825
ься	-13826
▁ца	-13827
стки	-13828
▁Слы	-13829
▁Грин	-13830
▁Такая	-13831
▁reward	-13832
▁Замеча	-13833
▁robbery	-13834
▁предназна	-13835
edy	-13836
лость	-13837
▁игно	-13838
▁опро	-13839
▁tears	-13840
▁Земле	-13841
▁Совет	-13842
▁Mexico	-13843
▁воспользоваться	-13844
хэ	-13845
енд	-13846
iano	-13847
▁уси	-13848
▁qual	-13849
▁juice	-13850
▁вещах	-13851
▁стоят	-13852
▁repeat	-13853
ado	-13854
твор	-13855
▁коз	-13856
▁шар	-13857
▁nurs	-13858
гистри	-13859
▁birds	-13860
▁невер	-13861
новения	-13862
▁Cooper	-13863
▁Позвони	-13864
▁Japanese	-13865
▁страшного	-13866
OME	-13867
▁je	-13868
▁Бёр	-13869
ренер	-13870
▁Club	-13871
▁mama	-13872
▁armed	-13873
▁bored	-13874
▁bride	-13875
▁Island	-13876
▁подумали	-13877
▁несчастный	-13878
▁performance	-13879
▁disappointed	-13880
▁необходимости	-13881
▁Na	-13882
▁ген	-13883
▁sale	-13884
▁Ужас	-13885
▁союз	-13886
▁China	-13887
▁Краси	-13888
▁любез	-13889
▁cooking	-13890
▁receive	-13891
acks	-13892
essa	-13893
uate	-13894
джет	-13895
▁GPS	-13896
▁lob	-13897
▁Rich	-13898
▁tast	-13899
▁Малы	-13900
▁невы	-13901
вность	-13902
▁Денни	-13903
▁тепло	-13904
▁заметила	-13905
уп	-13906
issa	-13907
load	-13908
▁дне	-13909
▁anal	-13910
▁pump	-13911
▁Джош	-13912
▁Мэгги	-13913
▁Филип	-13914
ception	-13915
▁carried	-13916
▁выходить	-13917
▁преимуще	-13918
итя	-13919
▁бен	-13920
▁отом	-13921
▁exerc	-13922
▁flash	-13923
▁обмен	-13924
▁звонит	-13925
▁скучно	-13926
▁concent	-13927
▁surface	-13928
▁участие	-13929
▁ast	-13930
▁Jord	-13931
▁Papa	-13932
▁Спен	-13933
▁дают	-13934
▁маги	-13935
▁Oscar	-13936
▁шансы	-13937
▁первые	-13938
▁consequ	-13939
▁failure	-13940
▁владель	-13941
▁капитана	-13942
▁совершен	-13943
▁покончить	-13944
▁Мас	-13945
▁кабинете	-13946
▁интересует	-13947
▁веще	-13948
▁древ	-13949
▁regist	-13950
▁колени	-13951
2,	-13952
non	-13953
▁AS	-13954
▁CH	-13955
тельны	-13956
▁consp	-13957
▁swing	-13958
▁белый	-13959
▁духов	-13960
▁Church	-13961
▁новень	-13962
▁дочерью	-13963
▁исключи	-13964
▁просыпа	-13965
▁последнюю	-13966
виа	-13967
нель	-13968
▁Pick	-13969
▁Pier	-13970
▁corn	-13971
▁Молли	-13972
▁стены	-13973
▁however	-13974
▁квартиры	-13975
▁неизвест	-13976
▁вернешься	-13977
▁возвращается	-13978
рс	-13979
ваку	-13980
▁гар	-13981
▁item	-13982
▁Обра	-13983
▁подс	-13984
▁чемо	-13985
▁Jamie	-13986
▁blond	-13987
▁minds	-13988
▁извра	-13989
▁wounds	-13990
▁коктей	-13991
▁darkness	-13992
▁йо	-13993
▁ля	-13994
тное	-13995
▁pie	-13996
▁wra	-13997
▁Port	-13998
способ	-13999
▁outta	-14000
▁rooms	-14001
▁border	-14002
▁betrayed	-14003
▁officially	-14004
▁арестовали	-14005
▁Us	-14006
ianc	-14007
▁ple	-14008
▁Head	-14009
▁alert	-14010
▁Nathan	-14011
▁stairs	-14012
standing	-14013
▁сериале	-14014
тию	-14015
▁Ќо	-14016
clock	-14017
▁Твое	-14018
▁поду	-14019
▁Ethan	-14020
▁заблу	-14021
▁arrive	-14022
▁анализ	-14023
▁старой	-14024
▁выбрала	-14025
рых	-14026
▁$5	-14027
▁Ры	-14028
▁Les	-14029
▁май	-14030
▁хол	-14031
▁Dick	-14032
▁Высо	-14033
▁songs	-14034
▁factory	-14035
▁доверяю	-14036
▁кримина	-14037
▁guarantee	-14038
▁установить	-14039
▁2,	-14040
ownt	-14041
▁Face	-14042
раздел	-14043
▁Марша	-14044
▁горло	-14045
▁строи	-14046
▁умный	-14047
▁усили	-14048
▁игнори	-14049
▁package	-14050
▁контролем	-14051
ban	-14052
бере	-14053
▁зря	-14054
▁tank	-14055
телось	-14056
▁Rebec	-14057
▁Джонс	-14058
▁вызыва	-14059
▁помогла	-14060
▁готовить	-14061
▁спросила	-14062
▁Действительно	-14063
зья	-14064
amps	-14065
▁bid	-14066
чений	-14067
▁Bell	-14068
▁желу	-14069
▁индей	-14070
▁подня	-14071
▁приоб	-14072
▁Hannah	-14073
▁Собира	-14074
ales	-14075
etic	-14076
точку	-14077
▁rape	-14078
▁indust	-14079
▁Perfect	-14080
▁audience	-14081
▁Возвраща	-14082
▁встретила	-14083
При	-14084
спу	-14085
уса	-14086
▁6:	-14087
кона	-14088
▁гер	-14089
oting	-14090
ровку	-14091
▁kinds	-14092
▁столом	-14093
▁services	-14094
▁ambulance	-14095
▁оказались	-14096
▁устройство	-14097
▁explanation	-14098
▁исключением	-14099
зки	-14100
лив	-14101
льт	-14102
щер	-14103
pect	-14104
rane	-14105
ussy	-14106
▁bum	-14107
▁Кре	-14108
▁Мэн	-14109
▁сно	-14110
inting	-14111
▁media	-14112
▁Иисус	-14113
▁товари	-14114
▁разрешение	-14115
▁сумасшедший	-14116
бый	-14117
ifer	-14118
кцио	-14119
▁режи	-14120
▁Going	-14121
▁Мекси	-14122
▁проща	-14123
▁техни	-14124
▁займет	-14125
▁проект	-14126
▁awkward	-14127
▁opposite	-14128
▁possibility	-14129
▁путешествие	-14130
ulf	-14131
ллин	-14132
щены	-14133
▁Пас	-14134
▁mask	-14135
▁выку	-14136
▁мото	-14137
▁преу	-14138
▁refer	-14139
▁stays	-14140
▁Карен	-14141
▁транс	-14142
▁tempor	-14143
▁съесть	-14144
▁Jessica	-14145
▁conduct	-14146
▁захотел	-14147
▁Убирайся	-14148
CH	-14149
бя	-14150
bar	-14151
uit	-14152
▁Ang	-14153
▁Cop	-14154
жайте	-14155
▁exha	-14156
▁навы	-14157
▁шпио	-14158
▁ждала	-14159
▁hearts	-14160
▁thrown	-14161
▁greater	-14162
▁команди	-14163
▁содержа	-14164
▁последнего	-14165
loe	-14166
▁duck	-14167
▁проек	-14168
▁рожде	-14169
▁Америке	-14170
▁корпора	-14171
▁хороших	-14172
▁survived	-14173
жён	-14174
▁SO	-14175
iper	-14176
suit	-14177
года	-14178
санд	-14179
▁Sad	-14180
uable	-14181
ковые	-14182
▁заслу	-14183
▁напол	-14184
▁спишь	-14185
▁senior	-14186
▁Victoria	-14187
▁согласно	-14188
▁наблюдать	-14189
▁impression	-14190
.'	-14191
лат	-14192
▁Гон	-14193
▁bump	-14194
▁Звез	-14195
▁папой	-14196
▁собак	-14197
▁свадеб	-14198
fortable	-14199
▁carefully	-14200
▁confidence	-14201
▁26	-14202
вано	-14203
▁rude	-14204
▁seek	-14205
▁днев	-14206
▁экра	-14207
▁jumped	-14208
▁заберу	-14209
▁натвори	-14210
▁получим	-14211
▁правитель	-14212
▁спрашивать	-14213
ito	-14214
onn	-14215
ссом	-14216
▁Шери	-14217
читать	-14218
▁liber	-14219
▁подряд	-14220
▁Rebecca	-14221
▁сокрови	-14222
▁разберусь	-14223
▁сан	-14224
▁начн	-14225
uesday	-14226
▁Turns	-14227
▁castle	-14228
▁supply	-14229
▁поцелу	-14230
▁closing	-14231
▁извинения	-14232
▁определить	-14233
Что	-14234
зра	-14235
▁Hill	-14236
▁мора	-14237
▁Brook	-14238
▁Элисон	-14239
▁боялся	-14240
▁метров	-14241
hia	-14242
▁щи	-14243
гани	-14244
носи	-14245
▁веж	-14246
▁econ	-14247
▁Джейм	-14248
▁звоню	-14249
▁Howard	-14250
▁близки	-14251
▁отдыха	-14252
▁winning	-14253
▁корабле	-14254
▁entertain	-14255
▁LI	-14256
elia	-14257
▁Ари	-14258
▁фиг	-14259
ванию	-14260
мости	-14261
▁Заба	-14262
▁Child	-14263
▁Smith	-14264
▁юриди	-14265
▁fourth	-14266
▁require	-14267
▁скучать	-14268
▁prisoner	-14269
cho	-14270
бре	-14271
cend	-14272
рите	-14273
щена	-14274
▁копы	-14275
словно	-14276
тографи	-14277
▁Подумай	-14278
▁проголо	-14279
▁сегодняш	-14280
▁согласна	-14281
▁Единственный	-14282
▁Ву	-14283
▁conc	-14284
▁логи	-14285
▁роде	-14286
▁Close	-14287
▁guilt	-14288
▁mercy	-14289
▁Вопрос	-14290
▁besides	-14291
▁Charlotte	-14292
▁появились	-14293
▁свидетелей	-14294
away	-14295
▁Joan	-14296
▁алиби	-14297
▁верит	-14298
▁полчаса	-14299
▁пропустил	-14300
EL	-14301
jo	-14302
hatt	-14303
pson	-14304
ённо	-14305
▁Шер	-14306
icing	-14307
venue	-14308
▁сети	-14309
новятся	-14310
▁Virgin	-14311
▁подозри	-14312
▁treasure	-14313
▁nightmare	-14314
▁расстроен	-14315
лчи	-14316
делы	-14317
мусь	-14318
нями	-14319
шают	-14320
▁Ital	-14321
▁east	-14322
▁Голо	-14323
▁скло	-14324
▁фигу	-14325
довали	-14326
▁metal	-14327
▁глава	-14328
▁sometime	-14329
▁television	-14330
▁отправиться	-14331
неси	-14332
няют	-14333
▁дея	-14334
imony	-14335
▁Самое	-14336
▁method	-14337
▁Постой	-14338
▁friendly	-14339
йн	-14340
чис	-14341
▁3:	-14342
wife	-14343
даем	-14344
жись	-14345
▁nut	-14346
▁Toby	-14347
ashing	-14348
▁болен	-14349
▁порно	-14350
▁чёрта	-14351
arehouse	-14352
▁smoking	-14353
▁пропала	-14354
▁степени	-14355
▁давление	-14356
▁обвинение	-14357
▁coincidence	-14358
ОН	-14359
▁Уни	-14360
чиков	-14361
▁прояс	-14362
▁будьте	-14363
▁гостей	-14364
▁госпита	-14365
▁tracking	-14366
▁Ќе	-14367
лейн	-14368
щими	-14369
▁Новый	-14370
▁билеты	-14371
▁лучшей	-14372
▁Stephen	-14373
▁малышка	-14374
▁Princess	-14375
▁заметили	-14376
ял	-14377
мора	-14378
окну	-14379
шный	-14380
▁Хри	-14381
▁Soph	-14382
▁load	-14383
▁Класс	-14384
▁борту	-14385
▁хрень	-14386
▁batter	-14387
▁поиски	-14388
▁proceed	-14389
▁trained	-14390
▁контакт	-14391
▁approach	-14392
▁простить	-14393
▁individual	-14394
tes	-14395
жек	-14396
твра	-14397
▁хуй	-14398
чился	-14399
▁шкаф	-14400
▁Marty	-14401
▁Донна	-14402
▁истин	-14403
▁ignore	-14404
▁Быстро	-14405
▁Дэниел	-14406
▁тратить	-14407
▁личность	-14408
▁следующем	-14409
UST	-14410
роу	-14411
▁NO	-14412
asha	-14413
eted	-14414
▁Gord	-14415
▁thin	-14416
▁боти	-14417
▁личное	-14418
▁silence	-14419
▁детстве	-14420
▁правосу	-14421
▁delivery	-14422
праведливо	-14423
▁расследования	-14424
ые	-14425
▁Ohh	-14426
▁Rod	-14427
▁Calm	-14428
▁fallen	-14429
▁коридо	-14430
▁наружу	-14431
▁consult	-14432
▁removed	-14433
▁консуль	-14434
▁пристре	-14435
▁условия	-14436
нал	-14437
▁своя	-14438
▁tooth	-14439
▁рецеп	-14440
▁хрена	-14441
▁nuclear	-14442
▁захвати	-14443
▁meantime	-14444
▁встретить	-14445
▁маленькую	-14446
▁положении	-14447
azz	-14448
vell	-14449
▁деб	-14450
rison	-14451
▁Dale	-14452
▁facts	-14453
▁врать	-14454
▁refuse	-14455
▁Король	-14456
▁умеешь	-14457
▁современ	-14458
▁пациентов	-14459
▁KN	-14460
жкой	-14461
▁Бэй	-14462
▁goal	-14463
▁mole	-14464
▁Brown	-14465
▁reject	-14466
▁терять	-14467
▁надежда	-14468
▁wherever	-14469
▁странное	-14470
▁terrorist	-14471
box	-14472
isy	-14473
▁Fer	-14474
▁кара	-14475
▁трёх	-14476
▁стоял	-14477
▁random	-14478
▁словам	-14479
▁Anybody	-14480
▁занимались	-14481
usty	-14482
гана	-14483
гули	-14484
▁лето	-14485
▁поля	-14486
▁водой	-14487
▁winter	-14488
▁useless	-14489
▁большее	-14490
▁останешься	-14491
▁environment	-14492
ёк	-14493
bie	-14494
▁Doug	-14495
▁alibi	-14496
▁напал	-14497
▁палец	-14498
▁проче	-14499
▁serial	-14500
▁underw	-14501
▁unlike	-14502
▁найдет	-14503
▁выгляжу	-14504
▁господи	-14505
▁nonsense	-14506
пали	-14507
▁Сме	-14508
чника	-14509
▁Send	-14510
▁спец	-14511
ulated	-14512
▁Призна	-14513
▁reported	-14514
3,	-14515
7,	-14516
рои	-14517
филд	-14518
какие	-14519
▁shoe	-14520
▁ящик	-14521
▁силой	-14522
▁Будешь	-14523
▁Роджер	-14524
▁пальцы	-14525
▁hurting	-14526
язательно	-14527
▁интернет	-14528
▁единственным	-14529
▁Пой	-14530
allow	-14531
andal	-14532
▁архи	-14533
ivered	-14534
▁молод	-14535
▁Сестра	-14536
▁suspicious	-14537
▁400	-14538
▁Ali	-14539
▁Убе	-14540
▁Duke	-14541
▁Free	-14542
▁zone	-14543
▁скон	-14544
▁strate	-14545
▁выслуша	-14546
▁argument	-14547
▁facility	-14548
▁learning	-14549
▁reaction	-14550
одо	-14551
▁ves	-14552
▁deny	-14553
▁Мать	-14554
▁взро	-14555
▁вмеша	-14556
▁защиту	-14557
▁лошадь	-14558
▁открыл	-14559
▁Вставай	-14560
▁intention	-14561
▁доставить	-14562
nity	-14563
utor	-14564
летел	-14565
giving	-14566
▁River	-14567
▁eaten	-14568
▁Поско	-14569
▁месье	-14570
▁shield	-14571
▁studio	-14572
▁искали	-14573
▁pushing	-14574
▁believes	-14575
▁recommend	-14576
▁£	-14577
oom	-14578
▁Тя	-14579
agon	-14580
tery	-14581
▁var	-14582
▁Бля	-14583
ppers	-14584
▁eter	-14585
▁Игра	-14586
▁Фели	-14587
▁идём	-14588
▁yellow	-14589
▁отпуск	-14590
▁actions	-14591
▁девочку	-14592
▁пассажи	-14593
▁response	-14594
rial	-14595
граф	-14596
▁11:	-14597
▁Дик	-14598
рился	-14599
▁Liam	-14600
▁пьян	-14601
▁офици	-14602
▁Govern	-14603
▁класси	-14604
▁поиграть	-14605
▁волнуйтесь	-14606
рас	-14607
хло	-14608
zing	-14609
▁vag	-14610
▁прет	-14611
▁divor	-14612
▁живым	-14613
▁нанял	-14614
stitute	-14615
▁отправили	-14616
▁джентльмены	-14617
▁лицу	-14618
▁начи	-14619
▁Andre	-14620
▁Derek	-14621
▁Jenna	-14622
▁falls	-14623
тар	-14624
▁Зе	-14625
icia	-14626
▁Half	-14627
▁shel	-14628
▁Стойте	-14629
▁запута	-14630
▁Большой	-14631
▁болезни	-14632
▁спрашивал	-14633
▁одиночестве	-14634
sl	-14635
▁anx	-14636
ждены	-14637
▁loan	-14638
▁нови	-14639
▁candid	-14640
▁designed	-14641
bra	-14642
▁sail	-14643
▁зама	-14644
зиться	-14645
▁друже	-14646
▁замок	-14647
▁конфи	-14648
▁машин	-14649
▁группе	-14650
▁призем	-14651
▁Помните	-14652
▁объясняет	-14653
▁Мэм	-14654
▁лам	-14655
▁подъ	-14656
endent	-14657
▁Vegas	-14658
▁макси	-14659
▁величай	-14660
▁confirmed	-14661
▁встречался	-14662
ech	-14663
бым	-14664
ique	-14665
▁Кал	-14666
▁марш	-14667
▁сыну	-14668
▁fract	-14669
▁Instead	-14670
▁chasing	-14671
▁прибыли	-14672
▁небольшая	-14673
▁работаете	-14674
▁телевизор	-14675
mes	-14676
▁зме	-14677
дость	-14678
ваемся	-14679
▁Мишель	-14680
▁profile	-14681
▁Женщина	-14682
▁доктору	-14683
▁controll	-14684
▁наоборот	-14685
▁собрались	-14686
▁Fam	-14687
▁Ian	-14688
▁Rom	-14689
▁sink	-14690
▁пары	-14691
▁плюс	-14692
▁остров	-14693
▁pathetic	-14694
▁pretending	-14695
лел	-14696
май	-14697
▁лёг	-14698
▁Dark	-14699
▁mile	-14700
▁circle	-14701
▁дерево	-14702
▁Finally	-14703
▁системе	-14704
▁причиной	-14705
▁нуждается	-14706
▁счастливой	-14707
нц	-14708
▁Дя	-14709
▁зал	-14710
ained	-14711
▁Boss	-14712
▁arch	-14713
▁dome	-14714
▁Рада	-14715
▁нала	-14716
ступил	-14717
▁Хелен	-14718
▁dealer	-14719
▁любите	-14720
▁choices	-14721
▁смотрела	-14722
▁uncomfortable	-14723
был	-14724
▁Ог	-14725
ломи	-14726
нача	-14727
▁Бли	-14728
▁Кэм	-14729
эндви	-14730
▁ранее	-14731
▁intend	-14732
▁vessel	-14733
▁лагерь	-14734
▁отмети	-14735
▁options	-14736
▁Америки	-14737
▁свадьбе	-14738
▁предотвра	-14739
▁разочарова	-14740
жко	-14741
▁Emp	-14742
▁Spr	-14743
▁дли	-14744
▁цве	-14745
▁Lock	-14746
▁bars	-14747
lished	-14748
ктором	-14749
▁Wonder	-14750
▁неправда	-14751
▁secretary	-14752
▁подождите	-14753
энд	-14754
▁Ав	-14755
жное	-14756
▁10.	-14757
▁Рой	-14758
▁Фар	-14759
▁базе	-14760
▁knees	-14761
▁бутылку	-14762
▁accepted	-14763
▁операцион	-14764
▁участвовать	-14765
▁:	-14766
нную	-14767
поли	-14768
▁нев	-14769
йдете	-14770
▁-...	-14771
▁Beth	-14772
▁Clay	-14773
▁HAVE	-14774
▁выно	-14775
▁клуба	-14776
▁включи	-14777
▁нарисо	-14778
▁fingerpr	-14779
▁выглядят	-14780
▁красивый	-14781
▁праздник	-14782
wr	-14783
▁Him	-14784
▁агре	-14785
▁зате	-14786
▁кора	-14787
▁эгои	-14788
▁sides	-14789
▁Милый	-14790
▁Jordan	-14791
▁Будьте	-14792
▁водите	-14793
▁матема	-14794
▁способности	-14795
▁embarrassing	-14796
▁ке	-14797
▁Dri	-14798
▁Cole	-14799
▁Save	-14800
▁clue	-14801
▁мани	-14802
▁трах	-14803
igning	-14804
ounced	-14805
ursday	-14806
центри	-14807
▁загру	-14808
▁членов	-14809
▁crossed	-14810
▁torture	-14811
▁Джейсон	-14812
▁отключи	-14813
▁kidnapped	-14814
▁напоминает	-14815
шусь	-14816
▁Хмм	-14817
гнали	-14818
▁pink	-14819
▁здра	-14820
▁пост	-14821
▁упря	-14822
▁Джеки	-14823
▁нетер	-14824
▁agency	-14825
▁sports	-14826
▁дышать	-14827
▁развле	-14828
▁умерли	-14829
сомненно	-14830
▁section	-14831
▁развлека	-14832
IR	-14833
▁3.	-14834
aver	-14835
▁Marie	-14836
▁stret	-14837
▁погру	-14838
▁Friend	-14839
▁offense	-14840
▁нравилось	-14841
▁последствия	-14842
аря	-14843
▁symp	-14844
▁Лиза	-14845
▁достал	-14846
▁приклю	-14847
▁минимум	-14848
▁сильный	-14849
▁неожиданно	-14850
ldon	-14851
кови	-14852
ллиан	-14853
▁диск	-14854
▁реаги	-14855
ствовали	-14856
▁похорон	-14857
▁выбирать	-14858
▁последним	-14859
ENT	-14860
льда	-14861
usted	-14862
▁обре	-14863
▁крити	-14864
▁молит	-14865
▁плачу	-14866
orgeous	-14867
▁Adrian	-14868
▁Деньги	-14869
▁пойдёт	-14870
▁следов	-14871
▁шампан	-14872
▁pattern	-14873
▁хранить	-14874
▁stopping	-14875
▁приходят	-14876
▁странный	-14877
▁psycholog	-14878
▁воскресенье	-14879
0,	-14880
Мы	-14881
жая	-14882
inist	-14883
▁golf	-14884
▁розы	-14885
▁monkey	-14886
believable	-14887
лго	-14888
лял	-14889
решь	-14890
▁fab	-14891
▁Себ	-14892
▁Роуз	-14893
ордина	-14894
▁silent	-14895
▁оставь	-14896
▁cleared	-14897
▁contest	-14898
▁добавить	-14899
▁результат	-14900
▁background	-14901
кту	-14902
даль	-14903
▁Sol	-14904
▁bye	-14905
oston	-14906
тятся	-14907
▁Вижу	-14908
▁Само	-14909
▁мясо	-14910
▁скор	-14911
▁shout	-14912
▁Каким	-14913
▁богат	-14914
дновать	-14915
▁Carrie	-14916
▁Wilson	-14917
▁Шарлот	-14918
▁Looking	-14919
атр	-14920
пев	-14921
▁бейс	-14922
▁молча	-14923
▁сумку	-14924
▁Valent	-14925
▁trauma	-14926
▁Англии	-14927
▁garbage	-14928
▁событий	-14929
▁identify	-14930
▁заставила	-14931
▁надеялась	-14932
▁Ca	-14933
▁лы	-14934
▁Fre	-14935
▁Лоу	-14936
▁Span	-14937
▁Damon	-14938
▁novel	-14939
▁Juliet	-14940
▁motherfucker	-14941
▁investigating	-14942
ghan	-14943
▁Naz	-14944
ерьмо	-14945
шении	-14946
▁Wend	-14947
▁кожа	-14948
▁миром	-14949
▁поймал	-14950
▁Tuesday	-14951
▁шоколад	-14952
▁прослуши	-14953
▁поддержки	-14954
▁прикрытием	-14955
▁embarrassed	-14956
ктом	-14957
▁Liz	-14958
▁Camp	-14959
action	-14960
▁manip	-14961
▁suffe	-14962
▁Вален	-14963
▁парке	-14964
▁стату	-14965
▁collap	-14966
ervation	-14967
▁National	-14968
▁магазина	-14969
▁childhood	-14970
'.	-14971
пс	-14972
ули	-14973
▁яи	-14974
нься	-14975
летом	-14976
▁Dead	-14977
▁Теле	-14978
▁напле	-14979
▁просит	-14980
▁attitude	-14981
▁позабочусь	-14982
▁внимательно	-14983
гг	-14984
▁hmm	-14985
icles	-14986
▁Tran	-14987
▁Дэни	-14988
▁laund	-14989
▁surre	-14990
▁Более	-14991
▁писал	-14992
▁стрель	-14993
▁помощник	-14994
▁изменился	-14995
ЕН	-14996
ньте	-14997
орма	-14998
▁ner	-14999
▁пау	-15000
торов	-15001
▁ment	-15002
▁toss	-15003
▁Judge	-15004
▁страна	-15005
▁depends	-15006
▁сыграть	-15007
▁инспектор	-15008
ysis	-15009
дёшь	-15010
▁pha	-15011
илась	-15012
нутся	-15013
▁Need	-15014
▁bury	-15015
▁fasc	-15016
▁вышли	-15017
▁заказ	-15018
▁ремон	-15019
▁заняты	-15020
▁здании	-15021
▁терапи	-15022
ological	-15023
▁charged	-15024
▁плакать	-15025
▁приедет	-15026
▁activity	-15027
фт	-15028
apt	-15029
пуль	-15030
▁WAS	-15031
кадем	-15032
▁днём	-15033
▁элем	-15034
нитель	-15035
▁crush	-15036
▁ходит	-15037
▁Stefan	-15038
▁council	-15039
▁windows	-15040
▁продолжить	-15041
▁чувствуете	-15042
nda	-15043
рку	-15044
мере	-15045
чиво	-15046
▁THIS	-15047
itched	-15048
▁Земли	-15049
▁живешь	-15050
▁заново	-15051
▁повесе	-15052
▁украли	-15053
onscious	-15054
▁massive	-15055
▁проверю	-15056
▁ужасный	-15057
▁собственного	-15058
ok	-15059
ллс	-15060
stal	-15061
енец	-15062
стят	-15063
▁Ами	-15064
планет	-15065
▁плана	-15066
▁чёрто	-15067
looking	-15068
▁wasting	-15069
▁завести	-15070
▁позвонили	-15071
▁произойти	-15072
жье	-15073
гнал	-15074
▁Aud	-15075
iable	-15076
prise	-15077
▁100%	-15078
▁Girl	-15079
▁Вами	-15080
▁writer	-15081
▁закона	-15082
▁департа	-15083
▁представление	-15084
gic	-15085
ights	-15086
стная	-15087
▁forb	-15088
▁laws	-15089
▁исте	-15090
▁Hands	-15091
▁forth	-15092
▁stalk	-15093
▁Шесть	-15094
▁шанса	-15095
▁заберем	-15096
▁подстре	-15097
▁cheating	-15098
▁document	-15099
▁самостоя	-15100
▁протяжении	-15101
ima	-15102
нор	-15103
▁акт	-15104
▁flow	-15105
▁мерз	-15106
▁Номер	-15107
▁Сержант	-15108
▁границы	-15109
▁любимая	-15110
▁magazine	-15111
▁ordinary	-15112
▁благодарен	-15113
▁родителями	-15114
▁Mont	-15115
▁Const	-15116
▁соеди	-15117
▁стене	-15118
▁стену	-15119
▁Sophie	-15120
▁winner	-15121
▁процен	-15122
▁replace	-15123
▁беспокоюсь	-15124
▁typ	-15125
▁Prot	-15126
▁Number	-15127
▁modern	-15128
▁wallet	-15129
▁Слышал	-15130
▁professor	-15131
ams	-15132
▁3-	-15133
▁Хам	-15134
▁ана	-15135
десят	-15136
▁dish	-15137
▁Barney	-15138
▁commer	-15139
▁coward	-15140
▁hitting	-15141
▁очереди	-15142
▁discover	-15143
▁животное	-15144
▁огромное	-15145
war	-15146
шта	-15147
▁ќн	-15148
жало	-15149
▁Kid	-15150
▁акку	-15151
▁горы	-15152
▁отеля	-15153
▁серий	-15154
▁пройдет	-15155
▁половина	-15156
▁проверил	-15157
▁наркотиков	-15158
чами	-15159
▁Tri	-15160
▁Хэнк	-15161
▁warri	-15162
▁Богом	-15163
▁визит	-15164
▁графи	-15165
▁носит	-15166
▁умеет	-15167
▁Рассла	-15168
▁complex	-15169
▁заключен	-15170
▁общаться	-15171
▁impressed	-15172
▁Поскольку	-15173
ups	-15174
anny	-15175
onym	-15176
лакти	-15177
▁muse	-15178
▁заду	-15179
▁fianc	-15180
▁ищешь	-15181
▁искала	-15182
▁соблаз	-15183
▁трогай	-15184
▁пальцев	-15185
▁контроля	-15186
▁разговора	-15187
ij	-15188
Ка	-15189
▁Шо	-15190
▁Gil	-15191
anced	-15192
▁Роза	-15193
▁инте	-15194
▁цену	-15195
coming	-15196
▁пробе	-15197
▁Лондон	-15198
▁восхити	-15199
▁доктором	-15200
pse	-15201
▁Сю	-15202
otes	-15203
▁Ale	-15204
▁thy	-15205
нском	-15206
▁Безу	-15207
▁моти	-15208
▁cruel	-15209
▁верите	-15210
▁дедушка	-15211
▁согласны	-15212
▁разрушить	-15213
▁Pop	-15214
▁rip	-15215
▁дар	-15216
▁Этим	-15217
▁курт	-15218
кройте	-15219
▁Teddy	-15220
▁hoped	-15221
▁Елена	-15222
▁Кэрри	-15223
▁Стюар	-15224
▁warned	-15225
▁Тайлер	-15226
▁блестя	-15227
▁Наверно	-15228
▁sensitive	-15229
▁разговаривали	-15230
▁хит	-15231
▁шел	-15232
acing	-15233
ously	-15234
лнова	-15235
▁Wake	-15236
▁Росс	-15237
▁суме	-15238
▁цени	-15239
▁Africa	-15240
▁банков	-15241
▁Getting	-15242
▁accused	-15243
▁someday	-15244
▁succeed	-15245
▁мистеру	-15246
▁перевер	-15247
▁Americans	-15248
акс	-15249
▁ћы	-15250
толк	-15251
штей	-15252
▁дис	-15253
▁тря	-15254
легче	-15255
▁chase	-15256
▁дорога	-15257
▁позволит	-15258
▁похороны	-15259
▁delivered	-15260
▁поддерживать	-15261
жон	-15262
rees	-15263
леку	-15264
▁Use	-15265
▁gro	-15266
▁Мал	-15267
личный	-15268
▁сверх	-15269
inating	-15270
▁Любовь	-15271
▁насили	-15272
▁обслужи	-15273
▁accounts	-15274
▁королева	-15275
▁paperwork	-15276
рец	-15277
▁Бил	-15278
▁tent	-15279
▁apology	-15280
▁выбрали	-15281
▁острове	-15282
▁виновата	-15283
opo	-15284
stic	-15285
uary	-15286
▁Atl	-15287
▁мыш	-15288
▁lake	-15289
▁ядер	-15290
▁Drink	-15291
▁Quinn	-15292
▁motive	-15293
▁судить	-15294
▁capital	-15295
▁systems	-15296
▁Говорит	-15297
▁препода	-15298
▁4:	-15299
rell	-15300
▁Lat	-15301
▁раны	-15302
спубли	-15303
▁frank	-15304
▁Гиббс	-15305
▁Терри	-15306
▁подве	-15307
▁series	-15308
▁помогли	-15309
▁freaking	-15310
лое	-15311
▁аб	-15312
щено	-15313
▁Исто	-15314
▁выта	-15315
▁скром	-15316
▁Jackie	-15317
▁selfish	-15318
▁species	-15319
▁Франции	-15320
▁champagne	-15321
динг	-15322
▁sav	-15323
▁уха	-15324
▁Hand	-15325
▁frag	-15326
руется	-15327
▁arran	-15328
▁дурак	-15329
▁шлюха	-15330
▁shadow	-15331
▁месяце	-15332
▁торопи	-15333
▁article	-15334
▁Thursday	-15335
▁elevator	-15336
кен	-15337
anks	-15338
bell	-15339
холь	-15340
▁суть	-15341
▁съем	-15342
▁Enjoy	-15343
▁комму	-15344
▁покля	-15345
▁honour	-15346
▁бессмыс	-15347
▁надолго	-15348
▁Speaking	-15349
▁общества	-15350
▁impressive	-15351
▁правительства	-15352
фей	-15353
жечь	-15354
рони	-15355
▁Ала	-15356
stone	-15357
▁вход	-15358
▁Париж	-15359
▁профи	-15360
▁сучка	-15361
▁Прощай	-15362
▁lawyers	-15363
▁resident	-15364
▁suffered	-15365
▁Благодаря	-15366
IGHT	-15367
oria	-15368
рени	-15369
▁asks	-15370
atched	-15371
дились	-15372
▁drill	-15373
▁lifet	-15374
▁выпла	-15375
▁сцену	-15376
▁автомобиль	-15377
▁почувствовать	-15378
ане	-15379
▁pilot	-15380
▁stops	-15381
▁самую	-15382
▁силах	-15383
▁важный	-15384
▁пользо	-15385
▁Shouldn	-15386
▁простой	-15387
▁слышите	-15388
▁sandwich	-15389
▁valuable	-15390
▁телевизо	-15391
▁расстались	-15392
▁пользоваться	-15393
езд	-15394
▁et	-15395
зами	-15396
дочку	-15397
даться	-15398
▁plays	-15399
▁purse	-15400
▁вырос	-15401
▁запад	-15402
▁офиса	-15403
▁potato	-15404
▁образе	-15405
▁оскорб	-15406
▁побере	-15407
▁ходила	-15408
▁огромный	-15409
AD	-15410
iger	-15411
забо	-15412
▁Ann	-15413
▁crown	-15414
▁flower	-15415
▁мотоци	-15416
▁помнить	-15417
▁ужасное	-15418
защи	-15419
▁wow	-15420
helle	-15421
▁Been	-15422
▁Бери	-15423
▁спут	-15424
▁кризи	-15425
▁штуки	-15426
▁отстав	-15427
▁поцелуй	-15428
▁пытаться	-15429
▁великолепно	-15430
сай	-15431
ффа	-15432
ющая	-15433
▁bes	-15434
▁тща	-15435
▁Land	-15436
▁стес	-15437
▁Найди	-15438
▁ранен	-15439
▁intent	-15440
▁remote	-15441
▁goodness	-15442
▁customers	-15443
▁возможное	-15444
▁маленьким	-15445
▁зарегистри	-15446
▁встречалась	-15447
leg	-15448
пел	-15449
▁3,	-15450
▁Many	-15451
ющийся	-15452
▁прочь	-15453
▁thrill	-15454
▁полном	-15455
▁привле	-15456
▁губерна	-15457
▁II	-15458
жную	-15459
▁Вра	-15460
▁Нил	-15461
▁Рон	-15462
▁Each	-15463
живать	-15464
▁глуби	-15465
▁запро	-15466
▁упала	-15467
▁жертвой	-15468
▁заклина	-15469
ader	-15470
▁Бор	-15471
ьтесь	-15472
▁визи	-15473
тивный	-15474
▁выйду	-15475
▁сереб	-15476
▁чокну	-15477
▁encour	-15478
▁Саймон	-15479
▁старых	-15480
▁explosion	-15481
swe	-15482
▁Tex	-15483
рится	-15484
рость	-15485
▁prem	-15486
▁protoc	-15487
▁sample	-15488
▁фургон	-15489
▁попытка	-15490
▁смотрели	-15491
▁следовать	-15492
чете	-15493
▁баш	-15494
стами	-15495
▁Imag	-15496
▁вспы	-15497
▁несо	-15498
▁широ	-15499
▁Relax	-15500
▁Marcus	-15501
▁crisis	-15502
▁полное	-15503
▁вынужден	-15504
Но	-15505
▁5.	-15506
дело	-15507
сыла	-15508
▁End	-15509
▁рисо	-15510
▁штат	-15511
ватель	-15512
▁Закон	-15513
▁Сьюзан	-15514
▁страте	-15515
▁обычный	-15516
▁counting	-15517
▁maintain	-15518
▁misunder	-15519
▁заслужил	-15520
▁личности	-15521
▁позволяет	-15522
гут	-15523
▁ию	-15524
point	-15525
pting	-15526
▁Bern	-15527
▁ward	-15528
▁пулю	-15529
▁наибо	-15530
▁Miller	-15531
зировать	-15532
▁движение	-15533
дивительно	-15534
▁настоящим	-15535
▁родителям	-15536
OD	-15537
▁Sat	-15538
▁pow	-15539
▁рав	-15540
ждена	-15541
▁Брэн	-15542
▁века	-15543
▁крем	-15544
▁чаще	-15545
разуме	-15546
▁Camer	-15547
▁Chloe	-15548
▁wreck	-15549
▁Барни	-15550
▁монет	-15551
▁motion	-15552
▁сторон	-15553
▁Джексон	-15554
▁приняла	-15555
▁сердцем	-15556
▁водитель	-15557
оне	-15558
▁dea	-15559
▁nap	-15560
▁Цен	-15561
▁позо	-15562
▁Booth	-15563
▁книге	-15564
▁Короче	-15565
▁добрый	-15566
▁продал	-15567
ordinary	-15568
▁advance	-15569
▁bullets	-15570
▁digging	-15571
▁plastic	-15572
▁обязаны	-15573
▁позвони	-15574
▁свадьба	-15575
▁заговори	-15576
▁оставлять	-15577
gir	-15578
▁Ball	-15579
▁Owen	-15580
▁math	-15581
▁wore	-15582
▁вины	-15583
▁Women	-15584
▁cared	-15585
▁сража	-15586
▁Вперёд	-15587
▁держал	-15588
▁сделают	-15589
▁chemical	-15590
ANT	-15591
зку	-15592
▁Lu	-15593
osis	-15594
▁Alf	-15595
▁Alp	-15596
▁Log	-15597
neath	-15598
▁Френ	-15599
▁дожд	-15600
▁выбер	-15601
▁желез	-15602
▁риску	-15603
▁Boston	-15604
▁Couldn	-15605
▁prince	-15606
▁Патрик	-15607
▁второго	-15608
▁нападение	-15609
лию	-15610
ases	-15611
кера	-15612
▁mer	-15613
▁Sing	-15614
▁охот	-15615
вности	-15616
▁косми	-15617
▁хрено	-15618
▁insult	-15619
▁скрыть	-15620
▁футбол	-15621
▁leaders	-15622
▁потряса	-15623
ora	-15624
пот	-15625
▁194	-15626
▁Wed	-15627
▁wid	-15628
ureau	-15629
▁Meet	-15630
▁yard	-15631
▁delay	-15632
▁допро	-15633
▁пробу	-15634
▁pardon	-15635
▁perman	-15636
▁стакан	-15637
▁закончим	-15638
▁расстраи	-15639
▁находятся	-15640
▁incredibly	-15641
▁арестовать	-15642
лота	-15643
стые	-15644
▁Мэт	-15645
▁ешь	-15646
▁Pass	-15647
▁судя	-15648
ushing	-15649
▁cells	-15650
▁обеда	-15651
▁ending	-15652
▁struct	-15653
▁Дерьмо	-15654
▁сбежала	-15655
▁захотите	-15656
▁answering	-15657
▁продавать	-15658
▁сработало	-15659
▁счастливым	-15660
mpt	-15661
▁вь	-15662
емой	-15663
▁жел	-15664
тации	-15665
▁sons	-15666
гаться	-15667
▁pride	-15668
▁лидер	-15669
▁стиле	-15670
▁эваку	-15671
ваетесь	-15672
▁делами	-15673
▁costume	-15674
▁выступа	-15675
▁виделись	-15676
▁поработать	-15677
cra	-15678
ares	-15679
road	-15680
дино	-15681
▁учё	-15682
▁Беги	-15683
▁опоз	-15684
▁сись	-15685
▁units	-15686
▁Подни	-15687
▁mechan	-15688
▁symbol	-15689
▁гигант	-15690
▁черный	-15691
▁дождаться	-15692
▁почувствовал	-15693
вшую	-15694
▁Эшли	-15695
▁борт	-15696
▁apply	-15697
▁Давно	-15698
imately	-15699
▁секунды	-15700
▁маленьких	-15701
▁5:	-15702
▁Ся	-15703
▁tag	-15704
чению	-15705
▁Пара	-15706
▁богу	-15707
▁скла	-15708
[...]
