<unk>	0
<s>	0
</s>	0
▁t	-0
ou	-1
▁a	-2
re	-3
▁d	-4
on	-5
▁s	-6
▁p	-7
es	-8
en	-9
in	-10
er	-11
is	-12
▁l	-13
▁m	-14
▁c	-15
he	-16
an	-17
it	-18
▁I	-19
▁w	-20
ll	-21
qu	-22
▁n	-23
▁f	-24
▁b	-25
at	-26
as	-27
▁y	-28
ar	-29
or	-30
▁v	-31
▁you	-32
▁de	-33
▁qu	-34
▁the	-35
▁h	-36
et	-37
▁g	-38
▁T	-39
om	-40
ing	-41
▁to	-42
un	-43
▁th	-44
ve	-45
est	-46
▁J	-47
ent	-48
ais	-49
▁?	-50
▁j	-51
us	-52
ai	-53
eu	-54
▁C	-55
le	-56
ot	-57
our	-58
▁A	-59
▁o	-60
ous	-61
▁M	-62
▁S	-63
te	-64
..	-65
▁un	-66
nd	-67
▁que	-68
oi	-69
▁W	-70
▁pas	-71
...	-72
▁O	-73
ri	-74
ow	-75
▁le	-76
il	-77
ce	-78
me	-79
▁me	-80
▁re	-81
▁Je	-82
ait	-83
▁in	-84
▁ne	-85
al	-86
ay	-87
se	-88
ut	-89
▁Y	-90
▁D	-91
▁L	-92
▁la	-93
▁H	-94
▁on	-95
ant	-96
▁N	-97
ro	-98
▁of	-99
ed	-100
out	-101
▁be	-102
▁E	-103
▁he	-104
▁it	-105
▁P	-106
▁su	-107
▁B	-108
▁e	-109
ion	-110
ic	-111
hat	-112
lle	-113
▁à	-114
▁!	-115
id	-116
ac	-117
▁that	-118
▁en	-119
gh	-120
ir	-121
▁tu	-122
▁and	-123
ad	-124
▁je	-125
▁k	-126
▁do	-127
am	-128
im	-129
ver	-130
▁ch	-131
▁com	-132
▁et	-133
▁we	-134
ie	-135
▁is	-136
▁pour	-137
ment	-138
ch	-139
▁r	-140
▁You	-141
ke	-142
and	-143
▁se	-144
ét	-145
ld	-146
ien	-147
ave	-148
ill	-149
oo	-150
ain	-151
▁tr	-152
▁Tu	-153
au	-154
ght	-155
▁les	-156
▁te	-157
▁for	-158
▁pl	-159
pp	-160
ont	-161
▁ce	-162
▁par	-163
onn	-164
os	-165
ag	-166
eux	-167
ans	-168
▁G	-169
▁est	-170
▁an	-171
▁li	-172
▁R	-173
res	-174
▁st	-175
▁une	-176
▁not	-177
▁as	-178
▁Il	-179
el	-180
ol	-181
eur	-182
ter	-183
all	-184
▁vous	-185
ui	-186
▁V	-187
ons	-188
av	-189
ur	-190
▁was	-191
ça	-192
▁kn	-193
ust	-194
▁ça	-195
▁your	-196
▁des	-197
▁Q	-198
ith	-199
▁this	-200
▁my	-201
▁He	-202
▁The	-203
▁have	-204
end	-205
if	-206
▁We	-207
▁know	-208
tre	-209
▁F	-210
ard	-211
▁wh	-212
▁go	-213
▁Qu	-214
▁all	-215
ould	-216
ct	-217
▁with	-218
ers	-219
oir	-220
ab	-221
up	-222
▁ri	-223
▁don	-224
ome	-225
▁It	-226
que	-227
▁can	-228
▁ave	-229
▁mon	-230
▁so	-231
▁are	-232
ort	-233
▁dé	-234
▁dans	-235
▁"	-236
▁What	-237
▁at	-238
ess	-239
aire	-240
ly	-241
ore	-242
▁pr	-243
▁au	-244
ère	-245
her	-246
▁qui	-247
ne	-248
ire	-249
▁pro	-250
ose	-251
▁what	-252
▁ét	-253
▁si	-254
▁ab	-255
▁Oh	-256
▁sh	-257
ap	-258
op	-259
▁Et	-260
hing	-261
ure	-262
▁il	-263
ation	-264
▁suis	-265
ang	-266
▁du	-267
ée	-268
▁Th	-269
▁sur	-270
▁ma	-271
▁get	-272
▁av	-273
ens	-274
▁just	-275
▁On	-276
▁And	-277
ck	-278
de	-279
▁avec	-280
ci	-281
▁out	-282
▁like	-283
▁U	-284
▁fr	-285
use	-286
▁ar	-287
être	-288
▁fait	-289
ul	-290
▁bien	-291
ack	-292
ah	-293
▁here	-294
app	-295
st	-296
ig	-297
▁plus	-298
▁up	-299
ord	-300
és	-301
oin	-302
▁nous	-303
ink	-304
ist	-305
mp	-306
▁No	-307
▁him	-308
eut	-309
ood	-310
rai	-311
▁about	-312
ook	-313
ry	-314
ine	-315
▁Wh	-316
▁mais	-317
▁al	-318
ois	-319
ff	-320
▁ex	-321
one	-322
▁tout	-323
▁ta	-324
▁did	-325
▁sais	-326
ong	-327
▁right	-328
ight	-329
▁K	-330
ès	-331
▁her	-332
▁faire	-333
▁got	-334
ind	-335
pe	-336
are	-337
▁there	-338
age	-339
mb	-340
ive	-341
▁but	-342
ici	-343
od	-344
▁want	-345
ors	-346
ally	-347
▁pre	-348
oy	-349
▁think	-350
ue	-351
▁quel	-352
▁That	-353
▁veux	-354
▁Le	-355
si	-356
▁fe	-357
▁one	-358
▁am	-359
▁ser	-360
▁moi	-361
ite	-362
▁no	-363
ate	-364
ame	-365
▁part	-366
eah	-367
▁any	-368
▁Non	-369
▁va	-370
art	-371
▁Vous	-372
ette	-373
▁they	-374
ez	-375
che	-376
ven	-377
▁man	-378
▁dire	-379
▁dit	-380
▁see	-381
▁con	-382
▁comp	-383
▁é	-384
▁us	-385
▁comme	-386
ime	-387
▁ou	-388
▁gr	-389
▁wor	-390
▁Mais	-391
▁Oui	-392
ance	-393
ace	-394
▁will	-395
ice	-396
um	-397
ide	-398
▁if	-399
ille	-400
▁dis	-401
onne	-402
ier	-403
aut	-404
▁she	-405
nt	-406
▁gu	-407
▁But	-408
▁some	-409
▁es	-410
other	-411
ours	-412
▁1	-413
ge	-414
imp	-415
▁ré	-416
▁toi	-417
▁peux	-418
▁from	-419
▁Yeah	-420
ouv	-421
ten	-422
▁Ok	-423
▁Ch	-424
ra	-425
▁tou	-426
here	-427
onna	-428
uis	-429
▁là	-430
ast	-431
ble	-432
iv	-433
▁-	-434
ars	-435
ank	-436
▁who	-437
▁dev	-438
▁his	-439
▁Well	-440
▁now	-441
▁ever	-442
▁Com	-443
▁So	-444
▁cl	-445
▁som	-446
▁mar	-447
▁would	-448
▁jus	-449
elle	-450
▁sa	-451
▁say	-452
ove	-453
able	-454
▁son	-455
▁sont	-456
▁ton	-457
▁res	-458
▁back	-459
▁app	-460
▁Pour	-461
ound	-462
▁peut	-463
▁or	-464
ep	-465
moi	-466
▁off	-467
quoi	-468
▁ag	-469
king	-470
oup	-471
▁going	-472
ase	-473
ux	-474
▁être	-475
▁vais	-476
ted	-477
ause	-478
otre	-479
▁lui	-480
Ça	-481
▁time	-482
▁chose	-483
▁ici	-484
▁gonna	-485
oul	-486
▁Ça	-487
▁were	-488
ond	-489
▁br	-490
▁vrai	-491
était	-492
▁cont	-493
fe	-494
own	-495
êt	-496
▁bl	-497
▁Hey	-498
bl	-499
▁Ce	-500
mes	-501
▁need	-502
way	-503
▁Al	-504
▁them	-505
vous	-506
▁look	-507
▁che	-508
ass	-509
▁La	-510
iens	-511
▁ent	-512
▁cette	-513
pr	-514
éri	-515
▁could	-516
iss	-517
▁had	-518
▁been	-519
ainten	-520
cc	-521
▁Don	-522
tu	-523
be	-524
uck	-525
▁good	-526
itt	-527
ick	-528
▁Ne	-529
▁She	-530
aintenant	-531
ils	-532
▁Elle	-533
▁'	-534
ér	-535
▁thing	-536
▁All	-537
ouve	-538
▁co	-539
aid	-540
▁This	-541
▁pe	-542
▁juste	-543
ions	-544
ête	-545
▁Si	-546
ner	-547
ense	-548
ies	-549
▁Ou	-550
▁too	-551
▁quoi	-552
▁tell	-553
ique	-554
une	-555
▁Re	-556
thing	-557
▁our	-558
ité	-559
▁cr	-560
ême	-561
ert	-562
ob	-563
▁Un	-564
▁when	-565
▁They	-566
mps	-567
mand	-568
act	-569
ak	-570
▁Les	-571
▁How	-572
▁En	-573
▁come	-574
▁aut	-575
▁était	-576
rais	-577
▁per	-578
▁att	-579
▁parl	-580
▁every	-581
▁Do	-582
ussi	-583
▁jam	-584
▁pers	-585
▁int	-586
▁pens	-587
▁somet	-588
▁Yes	-589
▁elle	-590
▁votre	-591
▁tal	-592
▁Ils	-593
▁ver	-594
orte	-595
▁take	-596
▁has	-597
ost	-598
ough	-599
ise	-600
▁pass	-601
llez	-602
cause	-603
▁quand	-604
ade	-605
erci	-606
▁didn	-607
▁way	-608
▁how	-609
ach	-610
▁non	-611
▁été	-612
▁fais	-613
▁let	-614
▁down	-615
▁If	-616
▁by	-617
▁2	-618
rois	-619
▁imp	-620
▁St	-621
▁De	-622
▁jamais	-623
▁sp	-624
ient	-625
▁happ	-626
eurs	-627
▁ro	-628
air	-629
éc	-630
▁something	-631
rait	-632
gard	-633
ress	-634
▁fin	-635
▁really	-636
▁over	-637
▁ont	-638
▁more	-639
▁aussi	-640
▁rien	-641
▁peu	-642
▁quelque	-643
ail	-644
▁Pourquoi	-645
▁sec	-646
reat	-647
▁call	-648
ud	-649
ich	-650
▁long	-651
▁make	-652
▁Why	-653
mer	-654
00	-655
ence	-656
▁There	-657
▁bes	-658
▁min	-659
▁bon	-660
sel	-661
▁voir	-662
▁vie	-663
og	-664
pl	-665
▁tous	-666
ittle	-667
▁should	-668
ann	-669
uit	-670
▁guy	-671
▁Okay	-672
ople	-673
ile	-674
acc	-675
▁sc	-676
ity	-677
▁ret	-678
cher	-679
▁deux	-680
ière	-681
▁besoin	-682
▁Nous	-683
uh	-684
▁Be	-685
ody	-686
les	-687
▁Come	-688
▁Ouais	-689
▁temps	-690
▁sû	-691
jours	-692
▁quelqu	-693
▁mean	-694
▁dois	-695
▁maintenant	-696
▁Mr	-697
▁love	-698
▁never	-699
▁then	-700
▁pu	-701
▁day	-702
tt	-703
▁little	-704
orm	-705
ought	-706
▁cour	-707
oc	-708
▁seu	-709
▁sav	-710
ange	-711
▁ces	-712
▁Par	-713
anc	-714
ale	-715
▁toujours	-716
ern	-717
▁comm	-718
▁fl	-719
▁An	-720
▁car	-721
rop	-722
red	-723
▁Sh	-724
▁pet	-725
orry	-726
▁pense	-727
wo	-728
oute	-729
▁Let	-730
rend	-731
▁people	-732
▁does	-733
ip	-734
▁arri	-735
▁vraiment	-736
lease	-737
ese	-738
▁work	-739
▁très	-740
▁mal	-741
▁même	-742
aiss	-743
▁said	-744
▁grand	-745
▁où	-746
▁avez	-747
att	-748
iz	-749
ren	-750
rer	-751
ouver	-752
▁Is	-753
▁In	-754
aient	-755
▁fer	-756
ends	-757
▁only	-758
▁Alors	-759
▁hom	-760
▁prend	-761
▁trav	-762
▁mom	-763
▁Tr	-764
mm	-765
▁Thank	-766
▁My	-767
▁sûr	-768
uch	-769
▁bet	-770
ree	-771
én	-772
▁fam	-773
▁ven	-774
ting	-775
ake	-776
▁fois	-777
él	-778
▁mat	-779
êtes	-780
▁pos	-781
▁demand	-782
ants	-783
▁kill	-784
▁eu	-785
▁Bien	-786
▁ok	-787
▁Comment	-788
▁Merci	-789
▁ad	-790
self	-791
aux	-792
▁ye	-793
ieu	-794
ia	-795
▁very	-796
▁voul	-797
ool	-798
▁dr	-799
▁hel	-800
▁fem	-801
ép	-802
uc	-803
ieux	-804
aine	-805
per	-806
▁Pas	-807
▁again	-808
aisse	-809
▁mes	-810
▁monde	-811
ish	-812
▁ph	-813
▁notre	-814
▁af	-815
we	-816
core	-817
▁sort	-818
▁Allez	-819
▁doing	-820
▁ils	-821
▁put	-822
gn	-823
▁dés	-824
▁Now	-825
▁Que	-826
▁Se	-827
▁where	-828
▁even	-829
ées	-830
▁jour	-831
▁Mar	-832
▁help	-833
▁supp	-834
▁Who	-835
lie	-836
ôt	-837
th	-838
▁find	-839
ident	-840
▁into	-841
▁ter	-842
▁much	-843
▁und	-844
▁avoir	-845
irst	-846
▁two	-847
ather	-848
▁Not	-849
▁fri	-850
accord	-851
▁vas	-852
▁why	-853
▁ans	-854
▁enf	-855
je	-856
pt	-857
ey	-858
▁ass	-859
▁ren	-860
olé	-861
▁Ah	-862
oire	-863
▁Just	-864
ction	-865
vers	-866
ath	-867
irl	-868
▁Tout	-869
ning	-870
jour	-871
▁Look	-872
▁talk	-873
anger	-874
".	-875
▁rec	-876
fore	-877
▁Mon	-878
body	-879
▁feel	-880
arg	-881
▁avait	-882
ady	-883
▁happen	-884
ations	-885
▁donn	-886
iè	-887
▁parler	-888
▁déc	-889
▁beau	-890
▁aller	-891
aybe	-892
oth	-893
▁bu	-894
▁dif	-895
ves	-896
▁mont	-897
▁wr	-898
▁because	-899
wn	-900
aî	-901
▁encore	-902
ros	-903
▁met	-904
▁life	-905
▁3	-906
▁place	-907
mber	-908
pect	-909
▁di	-910
."	-911
day	-912
ins	-913
▁vu	-914
▁conn	-915
oint	-916
▁acc	-917
▁prop	-918
▁êtes	-919
▁TH	-920
▁give	-921
omb	-922
ock	-923
eep	-924
oit	-925
ég	-926
▁still	-927
▁Ar	-928
▁try	-929
▁Quoi	-930
▁Jo	-931
▁night	-932
lles	-933
▁God	-934
▁other	-935
▁end	-936
ute	-937
▁pol	-938
▁nouve	-939
arr	-940
▁mort	-941
▁anything	-942
▁coup	-943
▁moment	-944
ole	-945
▁pay	-946
▁sure	-947
▁sorry	-948
▁thought	-949
▁okay	-950
▁their	-951
▁Dieu	-952
iqu	-953
▁Ex	-954
▁than	-955
▁Where	-956
coup	-957
▁cou	-958
old	-959
▁girl	-960
▁Fr	-961
▁before	-962
amp	-963
enc	-964
iez	-965
▁first	-966
▁cons	-967
OU	-968
onsi	-969
ign	-970
éd	-971
▁Où	-972
▁pri	-973
▁act	-974
▁avant	-975
▁quest	-976
ict	-977
la	-978
▁ins	-979
▁regard	-980
▁pris	-981
▁Are	-982
ild	-983
ouse	-984
▁new	-985
▁well	-986
ER	-987
ft	-988
get	-989
près	-990
toi	-991
man	-992
▁these	-993
▁#	-994
▁crois	-995
▁conf	-996
▁Ma	-997
▁pouv	-998
▁éc	-999
▁dep	-1000
▁home	-1001
ré	-1002
vent	-1003
▁père	-1004
▁hand	-1005
▁veut	-1006
int	-1007
▁parce	-1008
ains	-1009
▁cor	-1010
▁thr	-1011
▁kid	-1012
▁Qui	-1013
▁aur	-1014
▁petit	-1015
▁femme	-1016
▁voi	-1017
▁cher	-1018
ex	-1019
▁doit	-1020
▁rev	-1021
▁away	-1022
▁tri	-1023
ug	-1024
▁gens	-1025
▁Bon	-1026
mble	-1027
▁Quel	-1028
▁laiss	-1029
▁Une	-1030
ett	-1031
▁As	-1032
roit	-1033
ets	-1034
▁must	-1035
▁after	-1036
ition	-1037
▁vois	-1038
min	-1039
ways	-1040
▁told	-1041
▁rep	-1042
▁fuck	-1043
▁won	-1044
▁beaucoup	-1045
ante	-1046
étais	-1047
▁Good	-1048
▁trop	-1049
ote	-1050
▁last	-1051
▁ess	-1052
▁leur	-1053
ater	-1054
là	-1055
▁ask	-1056
ily	-1057
▁autre	-1058
▁keep	-1059
▁aux	-1060
▁Your	-1061
ret	-1062
avez	-1063
ème	-1064
▁rem	-1065
▁alors	-1066
my	-1067
▁dern	-1068
onsieur	-1069
▁gars	-1070
▁personne	-1071
▁name	-1072
▁plan	-1073
▁Sal	-1074
▁things	-1075
oses	-1076
▁fille	-1077
▁ses	-1078
▁puis	-1079
▁pourquoi	-1080
atch	-1081
▁comment	-1082
▁better	-1083
▁years	-1084
▁vis	-1085
▁Can	-1086
du	-1087
vé	-1088
aime	-1089
▁Br	-1090
▁chance	-1091
▁soir	-1092
▁Did	-1093
ures	-1094
▁point	-1095
▁Get	-1096
ory	-1097
AN	-1098
▁Go	-1099
▁belie	-1100
IN	-1101
▁rais	-1102
▁im	-1103
▁Quand	-1104
oll	-1105
▁those	-1106
▁spe	-1107
asse	-1108
▁maison	-1109
▁sans	-1110
▁homme	-1111
▁sent	-1112
▁Au	-1113
▁great	-1114
▁lot	-1115
▁always	-1116
▁wait	-1117
ié	-1118
▁ai	-1119
▁around	-1120
jà	-1121
▁When	-1122
rent	-1123
çon	-1124
ike	-1125
▁care	-1126
ris	-1127
▁aff	-1128
avais	-1129
ary	-1130
▁arr	-1131
▁made	-1132
lez	-1133
▁prem	-1134
ell	-1135
▁kind	-1136
▁Dr	-1137
▁déjà	-1138
▁real	-1139
ince	-1140
▁show	-1141
erst	-1142
▁sera	-1143
▁boy	-1144
endant	-1145
▁dét	-1146
▁sau	-1147
▁choses	-1148
▁passe	-1149
▁mieux	-1150
▁inv	-1151
▁id	-1152
rez	-1153
ek	-1154
▁tes	-1155
▁doesn	-1156
▁trouv	-1157
itu	-1158
▁big	-1159
▁hav	-1160
▁old	-1161
▁5	-1162
agn	-1163
▁sou	-1164
ye	-1165
▁voit	-1166
▁soit	-1167
▁believe	-1168
anted	-1169
imes	-1170
autre	-1171
▁nom	-1172
▁mère	-1173
▁seule	-1174
▁nothing	-1175
▁rest	-1176
ub	-1177
▁jou	-1178
▁Att	-1179
▁ann	-1180
ms	-1181
iste	-1182
▁vou	-1183
▁prom	-1184
sez	-1185
▁guys	-1186
roy	-1187
▁Très	-1188
isten	-1189
tement	-1190
▁chez	-1191
▁bus	-1192
endre	-1193
ult	-1194
▁money	-1195
▁please	-1196
ful	-1197
▁probl	-1198
▁inc	-1199
oins	-1200
ian	-1201
▁prendre	-1202
▁mor	-1203
▁suppose	-1204
▁rend	-1205
ler	-1206
▁passé	-1207
rends	-1208
ope	-1209
▁après	-1210
xt	-1211
▁Gr	-1212
▁travai	-1213
dy	-1214
▁everything	-1215
ention	-1216
▁dir	-1217
▁play	-1218
▁sir	-1219
illes	-1220
▁trouver	-1221
ib	-1222
▁wanted	-1223
▁gen	-1224
cuse	-1225
▁rép	-1226
▁bad	-1227
▁inf	-1228
ger	-1229
▁For	-1230
▁through	-1231
aît	-1232
▁gl	-1233
▁nuit	-1234
▁depuis	-1235
ious	-1236
▁diff	-1237
▁pap	-1238
enn	-1239
arri	-1240
▁wom	-1241
▁cap	-1242
ats	-1243
▁el	-1244
▁toute	-1245
▁Uh	-1246
▁OK	-1247
▁sign	-1248
▁gard	-1249
ov	-1250
▁compl	-1251
▁pres	-1252
ated	-1253
▁4	-1254
▁seul	-1255
▁Salut	-1256
▁sy	-1257
aman	-1258
▁bo	-1259
▁men	-1260
erstand	-1261
▁Then	-1262
▁being	-1263
ull	-1264
▁Eh	-1265
ents	-1266
▁Des	-1267
utes	-1268
▁faut	-1269
endu	-1270
▁stay	-1271
rn	-1272
▁hear	-1273
▁own	-1274
erre	-1275
▁mer	-1276
▁Maintenant	-1277
▁might	-1278
▁head	-1279
▁done	-1280
ually	-1281
kes	-1282
▁Regard	-1283
▁pat	-1284
arl	-1285
▁Pr	-1286
▁bou	-1287
▁Cl	-1288
bre	-1289
▁pourrait	-1290
▁avons	-1291
az	-1292
main	-1293
very	-1294
▁house	-1295
▁left	-1296
▁run	-1297
▁leave	-1298
▁vos	-1299
▁env	-1300
▁question	-1301
sible	-1302
igh	-1303
▁course	-1304
▁Me	-1305
▁mari	-1306
ache	-1307
era	-1308
▁bit	-1309
▁op	-1310
▁sm	-1311
▁Donc	-1312
▁police	-1313
AT	-1314
member	-1315
▁understand	-1316
ial	-1317
ely	-1318
▁happened	-1319
▁pré	-1320
▁cri	-1321
▁came	-1322
▁fun	-1323
▁inter	-1324
arm	-1325
▁minutes	-1326
érie	-1327
▁stop	-1328
▁essay	-1329
▁sens	-1330
▁found	-1331
▁Comme	-1332
▁ord	-1333
▁import	-1334
▁ob	-1335
urt	-1336
auv	-1337
▁mot	-1338
aires	-1339
son	-1340
▁coming	-1341
▁cas	-1342
avoir	-1343
▁appel	-1344
▁world	-1345
▁Z	-1346
ph	-1347
oot	-1348
llo	-1349
arent	-1350
▁uh	-1351
ments	-1352
éb	-1353
▁oui	-1354
▁str	-1355
ché	-1356
▁someone	-1357
ON	-1358
▁fil	-1359
▁savoir	-1360
▁prof	-1361
▁wrong	-1362
ife	-1363
▁désolé	-1364
▁Maybe	-1365
▁moins	-1366
▁mis	-1367
▁father	-1368
▁hum	-1369
▁To	-1370
▁expl	-1371
▁dead	-1372
▁sommes	-1373
▁nos	-1374
▁travail	-1375
▁YOU	-1376
argent	-1377
▁else	-1378
▁Please	-1379
▁week	-1380
ta	-1381
io	-1382
aby	-1383
ces	-1384
▁*	-1385
▁dou	-1386
▁voulais	-1387
▁plaît	-1388
hn	-1389
▁meet	-1390
aque	-1391
▁raison	-1392
▁mec	-1393
ches	-1394
esp	-1395
▁same	-1396
ider	-1397
▁Laisse	-1398
▁ac	-1399
▁rel	-1400
▁gar	-1401
▁Parce	-1402
▁enough	-1403
▁partir	-1404
▁job	-1405
▁cle	-1406
▁miss	-1407
▁trois	-1408
▁talking	-1409
▁retour	-1410
▁conc	-1411
util	-1412
▁prob	-1413
row	-1414
▁mess	-1415
▁serv	-1416
▁peur	-1417
▁sal	-1418
▁getting	-1419
▁truc	-1420
▁viv	-1421
▁another	-1422
semble	-1423
▁isn	-1424
ps	-1425
▁É	-1426
▁mother	-1427
▁cert	-1428
hui	-1429
▁trying	-1430
▁Here	-1431
▁start	-1432
▁Peut	-1433
▁trans	-1434
iers	-1435
▁friend	-1436
▁second	-1437
ages	-1438
▁emp	-1439
ever	-1440
▁tour	-1441
rap	-1442
rit	-1443
sed	-1444
ane	-1445
ical	-1446
▁viens	-1447
cept	-1448
uff	-1449
ccup	-1450
▁THE	-1451
▁vol	-1452
▁Pl	-1453
▁three	-1454
aught	-1455
▁monsieur	-1456
lui	-1457
▁cet	-1458
▁looking	-1459
▁live	-1460
▁mill	-1461
anna	-1462
▁bre	-1463
000	-1464
▁meill	-1465
▁fils	-1466
tr	-1467
▁John	-1468
▁room	-1469
▁heure	-1470
jourd	-1471
▁Every	-1472
▁liv	-1473
▁problème	-1474
▁trouvé	-1475
▁minute	-1476
▁renc	-1477
▁went	-1478
▁hard	-1479
▁dû	-1480
▁devrais	-1481
▁comb	-1482
▁Regarde	-1483
▁may	-1484
ott	-1485
aud	-1486
▁Because	-1487
ating	-1488
RE	-1489
▁family	-1490
▁Vrai	-1491
ouvez	-1492
▁fa	-1493
▁souv	-1494
ied	-1495
▁tête	-1496
▁face	-1497
▁wasn	-1498
▁kne	-1499
▁best	-1500
▁Bl	-1501
▁which	-1502
▁gén	-1503
▁famille	-1504
▁bonne	-1505
▁turn	-1506
▁sl	-1507
ente	-1508
▁mind	-1509
▁tuer	-1510
aie	-1511
▁hell	-1512
coute	-1513
▁sang	-1514
▁Will	-1515
ash	-1516
endez	-1517
amn	-1518
▁dép	-1519
▁Vraiment	-1520
arn	-1521
▁ide	-1522
qui	-1523
▁person	-1524
vez	-1525
▁saw	-1526
alk	-1527
LL	-1528
▁quelques	-1529
▁yourself	-1530
▁auc	-1531
llement	-1532
▁Excuse	-1533
▁move	-1534
▁toget	-1535
▁together	-1536
ister	-1537
olog	-1538
ark	-1539
ital	-1540
▁ca	-1541
▁today	-1542
▁penses	-1543
▁remember	-1544
ings	-1545
▁important	-1546
▁sortir	-1547
ton	-1548
orn	-1549
▁assez	-1550
▁child	-1551
▁sait	-1552
ried	-1553
▁rencont	-1554
▁jusqu	-1555
▁rapp	-1556
▁Or	-1557
▁train	-1558
▁tomb	-1559
ène	-1560
▁sex	-1561
▁fine	-1562
oss	-1563
▁inte	-1564
▁enfants	-1565
▁voiture	-1566
cle	-1567
▁nu	-1568
uss	-1569
iness	-1570
cial	-1571
▁contr	-1572
▁Right	-1573
▁jours	-1574
▁dec	-1575
▁allez	-1576
▁pendant	-1577
▁reste	-1578
▁nice	-1579
▁yeah	-1580
▁donc	-1581
▁sous	-1582
▁prés	-1583
▁Hello	-1584
▁next	-1585
gg	-1586
ctor	-1587
▁Jack	-1588
▁Dis	-1589
nous	-1590
▁proble	-1591
▁tél	-1592
▁eff	-1593
ason	-1594
▁baby	-1595
▁serait	-1596
ready	-1597
▁disc	-1598
▁One	-1599
▁10	-1600
éch	-1601
▁gent	-1602
▁exp	-1603
▁porte	-1604
▁phot	-1605
omp	-1606
gr	-1607
▁entre	-1608
▁Ab	-1609
▁laisser	-1610
▁thank	-1611
venir	-1612
▁maybe	-1613
aul	-1614
ork	-1615
so	-1616
▁Ste	-1617
▁sch	-1618
▁pensais	-1619
▁parent	-1620
ras	-1621
▁woman	-1622
ts	-1623
▁tard	-1624
▁cond	-1625
▁mus	-1626
▁commenc	-1627
▁knew	-1628
rist	-1629
▁swe	-1630
led	-1631
▁ami	-1632
▁journ	-1633
▁wouldn	-1634
▁already	-1635
▁many	-1636
▁disp	-1637
▁seen	-1638
▁tom	-1639
▁i	-1640
ower	-1641
tty	-1642
gent	-1643
▁voy	-1644
▁Thanks	-1645
▁Est	-1646
orter	-1647
orrow	-1648
▁dernière	-1649
▁ste	-1650
▁contre	-1651
dre	-1652
ames	-1653
▁passer	-1654
▁dur	-1655
ix	-1656
▁used	-1657
▁$	-1658
▁Mer	-1659
▁mur	-1660
▁change	-1661
dd	-1662
entre	-1663
▁donner	-1664
▁whole	-1665
▁took	-1666
come	-1667
▁matter	-1668
▁travaill	-1669
▁Bonjour	-1670
iser	-1671
▁star	-1672
▁cal	-1673
leep	-1674
▁most	-1675
gl	-1676
by	-1677
▁toutes	-1678
▁under	-1679
▁heard	-1680
AR	-1681
▁port	-1682
▁col	-1683
cteur	-1684
▁without	-1685
EN	-1686
▁ple	-1687
ues	-1688
▁Hi	-1689
▁Ton	-1690
▁resp	-1691
▁20	-1692
ression	-1693
▁Arr	-1694
urn	-1695
▁ref	-1696
ards	-1697
▁contin	-1698
este	-1699
▁Any	-1700
em	-1701
▁idea	-1702
ty	-1703
▁parle	-1704
ém	-1705
▁wanna	-1706
▁venir	-1707
ébé	-1708
▁bat	-1709
▁Am	-1710
▁entendu	-1711
iot	-1712
êter	-1713
▁fac	-1714
▁called	-1715
aw	-1716
▁cop	-1717
▁deal	-1718
▁morning	-1719
ung	-1720
▁gros	-1721
▁cam	-1722
▁guess	-1723
▁nouveau	-1724
opp	-1725
▁hist	-1726
▁use	-1727
▁Dés	-1728
ina	-1729
▁killed	-1730
▁aujourd	-1731
ates	-1732
▁trou	-1733
▁devrait	-1734
▁New	-1735
iques	-1736
ared	-1737
▁fucking	-1738
auvais	-1739
ener	-1740
ny	-1741
▁Dad	-1742
▁bas	-1743
▁Dans	-1744
▁wife	-1745
aff	-1746
gan	-1747
▁super	-1748
▁rester	-1749
▁pourrais	-1750
▁comprends	-1751
▁chang	-1752
▁mag	-1753
▁word	-1754
zy	-1755
til	-1756
ôle	-1757
▁ago	-1758
▁petite	-1759
▁Jus	-1760
▁shit	-1761
▁voulez	-1762
▁ty	-1763
▁main	-1764
▁secret	-1765
▁friends	-1766
▁days	-1767
▁Some	-1768
▁school	-1769
ule	-1770
▁Wait	-1771
med	-1772
▁déb	-1773
▁Sam	-1774
▁vient	-1775
▁gotta	-1776
▁parents	-1777
▁stup	-1778
▁façon	-1779
▁char	-1780
▁bri	-1781
▁possible	-1782
▁bar	-1783
ley	-1784
hed	-1785
ream	-1786
▁Of	-1787
OR	-1788
ING	-1789
▁tire	-1790
▁hon	-1791
▁myself	-1792
its	-1793
▁connais	-1794
▁Car	-1795
▁sol	-1796
▁four	-1797
ible	-1798
▁personn	-1799
▁few	-1800
iend	-1801
▁Arrête	-1802
ys	-1803
▁beaut	-1804
ron	-1805
erve	-1806
aurais	-1807
ably	-1808
▁mil	-1809
▁fight	-1810
▁simp	-1811
▁Have	-1812
▁bring	-1813
temps	-1814
ric	-1815
▁arrive	-1816
▁pretty	-1817
▁saying	-1818
rew	-1819
▁déf	-1820
▁chercher	-1821
oh	-1822
▁...	-1823
ird	-1824
▁ten	-1825
▁dess	-1826
▁sac	-1827
▁yet	-1828
ik	-1829
▁Pet	-1830
▁mauvais	-1831
▁dri	-1832
▁util	-1833
aimer	-1834
▁inst	-1835
▁côt	-1836
▁heart	-1837
▁Tom	-1838
cl	-1839
ness	-1840
ites	-1841
▁stand	-1842
▁while	-1843
▁laisse	-1844
▁business	-1845
▁prêt	-1846
▁ville	-1847
▁open	-1848
▁dont	-1849
▁6	-1850
eau	-1851
▁test	-1852
▁bébé	-1853
ature	-1854
rendre	-1855
▁TO	-1856
der	-1857
▁Es	-1858
bas	-1859
▁vict	-1860
▁count	-1861
ES	-1862
▁endroit	-1863
▁Votre	-1864
▁Voi	-1865
▁ensemble	-1866
▁watch	-1867
▁cause	-1868
▁hein	-1869
ng	-1870
▁vers	-1871
▁Sc	-1872
▁po	-1873
sh	-1874
iel	-1875
ances	-1876
▁diffe	-1877
▁haven	-1878
▁listen	-1879
▁dad	-1880
▁genre	-1881
▁gone	-1882
ines	-1883
▁Take	-1884
▁ép	-1885
▁See	-1886
▁pouvez	-1887
▁problem	-1888
▁mour	-1889
isé	-1890
ager	-1891
▁case	-1892
▁propos	-1893
▁revoir	-1894
▁hold	-1895
▁Sorry	-1896
▁cra	-1897
▁ind	-1898
▁partie	-1899
pital	-1900
rir	-1901
ding	-1902
▁ain	-1903
▁rés	-1904
appelle	-1905
▁vi	-1906
ience	-1907
▁Man	-1908
▁Christ	-1909
▁wants	-1910
ivers	-1911
▁six	-1912
IS	-1913
veill	-1914
▁aim	-1915
▁Hé	-1916
▁dist	-1917
less	-1918
▁both	-1919
▁fini	-1920
▁voilà	-1921
▁frère	-1922
▁mettre	-1923
▁Ge	-1924
▁autres	-1925
▁tonight	-1926
▁alone	-1927
▁ready	-1928
▁savais	-1929
▁brother	-1930
▁hommes	-1931
▁actually	-1932
▁drink	-1933
▁prison	-1934
▁such	-1935
▁once	-1936
▁Char	-1937
▁until	-1938
▁hope	-1939
▁die	-1940
ateur	-1941
▁Pro	-1942
iter	-1943
▁Tell	-1944
▁arrivé	-1945
▁Allons	-1946
gne	-1947
▁couldn	-1948
▁amis	-1949
▁check	-1950
ken	-1951
ount	-1952
▁plait	-1953
where	-1954
▁Che	-1955
▁sk	-1956
vel	-1957
ision	-1958
onder	-1959
▁mois	-1960
▁At	-1961
ber	-1962
▁sleep	-1963
▁demain	-1964
▁Like	-1965
rible	-1966
▁idée	-1967
▁anyone	-1968
▁ir	-1969
▁donné	-1970
▁étais	-1971
▁tra	-1972
▁soon	-1973
▁since	-1974
▁parf	-1975
▁says	-1976
eure	-1977
▁Sp	-1978
rest	-1979
▁Du	-1980
uth	-1981
▁dro	-1982
ying	-1983
orth	-1984
▁Attendez	-1985
▁App	-1986
▁choi	-1987
▁happy	-1988
▁Har	-1989
▁lost	-1990
ques	-1991
▁month	-1992
▁tué	-1993
éro	-1994
▁vont	-1995
▁also	-1996
als	-1997
▁high	-1998
▁beh	-1999
▁longtemps	-2000
▁With	-2001
els	-2002
▁fire	-2003
▁fou	-2004
▁tant	-2005
▁z	-2006
▁blood	-2007
▁cool	-2008
idé	-2009
▁stuff	-2010
▁Stop	-2011
▁Cap	-2012
nes	-2013
▁pouvoir	-2014
inc	-2015
▁Désolé	-2016
▁19	-2017
▁ap	-2018
▁far	-2019
▁Ph	-2020
▁break	-2021
▁exact	-2022
riez	-2023
▁dest	-2024
▁fall	-2025
oke	-2026
▁leurs	-2027
▁demande	-2028
▁Viens	-2029
▁fai	-2030
▁year	-2031
aster	-2032
▁thinking	-2033
▁having	-2034
▁ris	-2035
▁8	-2036
iance	-2037
▁corps	-2038
▁El	-2039
▁première	-2040
▁ju	-2041
▁Fais	-2042
▁sus	-2043
▁worry	-2044
▁souviens	-2045
▁Frank	-2046
▁Mm	-2047
▁close	-2048
▁aurait	-2049
▁surpr	-2050
▁Pap	-2051
▁eas	-2052
▁sw	-2053
ution	-2054
▁bro	-2055
emp	-2056
▁Ave	-2057
▁hor	-2058
▁matin	-2059
▁AN	-2060
▁premier	-2061
ither	-2062
▁9	-2063
▁working	-2064
ics	-2065
▁savez	-2066
▁hurt	-2067
▁perdu	-2068
▁ment	-2069
▁cham	-2070
▁tomorrow	-2071
▁heures	-2072
tes	-2073
▁phone	-2074
aider	-2075
▁fact	-2076
▁venu	-2077
▁demander	-2078
▁côté	-2079
ienne	-2080
rence	-2081
▁papa	-2082
▁Avec	-2083
▁pain	-2084
▁merci	-2085
▁7	-2086
oon	-2087
▁Cette	-2088
▁read	-2089
▁yes	-2090
alf	-2091
▁each	-2092
▁Miss	-2093
amour	-2094
▁publ	-2095
▁gun	-2096
éph	-2097
▁certain	-2098
▁hands	-2099
▁maman	-2100
▁dirait	-2101
▁walk	-2102
iner	-2103
iful	-2104
quer	-2105
ara	-2106
erri	-2107
▁Pe	-2108
▁diffé	-2109
sol	-2110
▁suff	-2111
▁15	-2112
▁hot	-2113
▁door	-2114
▁mad	-2115
onde	-2116
▁demandé	-2117
▁prends	-2118
▁Mom	-2119
▁kids	-2120
ush	-2121
▁death	-2122
▁Put	-2123
▁vite	-2124
▁gave	-2125
▁prot	-2126
▁boul	-2127
▁art	-2128
▁parlé	-2129
land	-2130
▁yeux	-2131
▁exc	-2132
▁Gu	-2133
▁étaient	-2134
▁true	-2135
nent	-2136
heure	-2137
cer	-2138
▁Rob	-2139
itch	-2140
unch	-2141
iment	-2142
écur	-2143
aimerais	-2144
érer	-2145
▁shot	-2146
▁Listen	-2147
▁Pers	-2148
ize	-2149
▁sub	-2150
lex	-2151
▁front	-2152
oney	-2153
▁Ad	-2154
▁means	-2155
uire	-2156
ollow	-2157
▁save	-2158
qué	-2159
aughter	-2160
yes	-2161
▁reg	-2162
fl	-2163
▁simple	-2164
▁fut	-2165
▁questions	-2166
agne	-2167
▁Juste	-2168
ene	-2169
▁knows	-2170
▁Af	-2171
und	-2172
omme	-2173
œur	-2174
▁huh	-2175
▁rentre	-2176
ères	-2177
▁mov	-2178
▁attention	-2179
ureau	-2180
▁seulement	-2181
▁sound	-2182
▁sing	-2183
même	-2184
▁fort	-2185
▁droit	-2186
▁set	-2187
wer	-2188
▁pick	-2189
▁ram	-2190
▁camp	-2191
▁sois	-2192
orge	-2193
sy	-2194
ettes	-2195
▁Wow	-2196
▁inform	-2197
mi	-2198
quipe	-2199
band	-2200
▁wonder	-2201
▁supposed	-2202
▁30	-2203
▁Plus	-2204
arre	-2205
▁cin	-2206
▁eux	-2207
eth	-2208
▁regarde	-2209
▁eat	-2210
▁dém	-2211
▁plais	-2212
▁chaque	-2213
▁body	-2214
▁late	-2215
fect	-2216
oid	-2217
OM	-2218
▁Son	-2219
▁probably	-2220
▁aw	-2221
IT	-2222
▁fig	-2223
▁Papa	-2224
omet	-2225
▁taking	-2226
▁Rien	-2227
▁type	-2228
ual	-2229
▁doll	-2230
▁everyone	-2231
▁oubl	-2232
▁Merde	-2233
ru	-2234
▁def	-2235
▁Mad	-2236
ok	-2237
▁emb	-2238
▁Maman	-2239
enf	-2240
ney	-2241
ape	-2242
▁proch	-2243
▁À	-2244
▁later	-2245
▁different	-2246
▁réc	-2247
▁crazy	-2248
▁Give	-2249
atre	-2250
▁sécur	-2251
▁couple	-2252
▁light	-2253
▁parti	-2254
jet	-2255
▁Moi	-2256
▁vieux	-2257
▁Jim	-2258
▁Dan	-2259
ma	-2260
▁Per	-2261
▁ev	-2262
autres	-2263
▁croy	-2264
more	-2265
quiè	-2266
▁Va	-2267
▁meur	-2268
▁sem	-2269
▁ball	-2270
▁celui	-2271
head	-2272
AS	-2273
ipp	-2274
▁¶	-2275
▁voud	-2276
▁power	-2277
▁hit	-2278
cted	-2279
olée	-2280
▁inside	-2281
▁film	-2282
ester	-2283
ablement	-2284
▁asked	-2285
▁luck	-2286
unk	-2287
▁book	-2288
▁bed	-2289
▁against	-2290
▁Bill	-2291
espère	-2292
▁reason	-2293
▁cut	-2294
▁bless	-2295
raid	-2296
hab	-2297
arly	-2298
importe	-2299
ession	-2300
▁Fl	-2301
▁prote	-2302
iver	-2303
usband	-2304
ives	-2305
érif	-2306
éré	-2307
▁bag	-2308
oser	-2309
▁Cal	-2310
▁Monsieur	-2311
omm	-2312
ides	-2313
▁colle	-2314
▁téléph	-2315
▁Personne	-2316
▁makes	-2317
▁perm	-2318
iff	-2319
▁Mc	-2320
▁lo	-2321
ète	-2322
ery	-2323
▁eyes	-2324
érité	-2325
reux	-2326
▁tellement	-2327
▁Um	-2328
ael	-2329
itude	-2330
▁rad	-2331
▁Dav	-2332
▁beautiful	-2333
▁rê	-2334
ission	-2335
▁making	-2336
▁suiv	-2337
▁wish	-2338
appe	-2339
arrive	-2340
rol	-2341
▁bureau	-2342
▁boulot	-2343
▁least	-2344
asser	-2345
ward	-2346
▁faites	-2347
▁moy	-2348
▁water	-2349
▁piè	-2350
▁occup	-2351
▁command	-2352
▁cent	-2353
side	-2354
▁garçon	-2355
▁daughter	-2356
▁law	-2357
▁merde	-2358
ween	-2359
▁table	-2360
tain	-2361
ee	-2362
outh	-2363
▁trouve	-2364
oyer	-2365
▁conv	-2366
ject	-2367
hors	-2368
▁Really	-2369
▁Mme	-2370
▁chambre	-2371
▁mine	-2372
▁young	-2373
ross	-2374
▁div	-2375
▁val	-2376
venu	-2377
▁Was	-2378
▁chérie	-2379
arth	-2380
▁proc	-2381
▁esp	-2382
▁voulait	-2383
▁war	-2384
▁Ben	-2385
▁allons	-2386
▁Pre	-2387
▁dos	-2388
▁sold	-2389
▁mourir	-2390
ED	-2391
▁loin	-2392
▁times	-2393
off	-2394
gin	-2395
uer	-2396
▁desc	-2397
▁aider	-2398
▁filles	-2399
▁années	-2400
▁Écoute	-2401
▁side	-2402
▁norm	-2403
▁surv	-2404
gie	-2405
▁sour	-2406
▁lead	-2407
▁situ	-2408
▁husband	-2409
▁hours	-2410
iller	-2411
▁commun	-2412
▁looks	-2413
▁tomber	-2414
▁croire	-2415
tres	-2416
▁client	-2417
▁nouvelle	-2418
uses	-2419
▁Bob	-2420
▁cela	-2421
▁exactly	-2422
▁stud	-2423
▁préf	-2424
any	-2425
▁Nothing	-2426
▁His	-2427
▁story	-2428
▁bord	-2429
▁five	-2430
▁devant	-2431
▁afraid	-2432
▁lib	-2433
▁Ta	-2434
▁danger	-2435
ica	-2436
▁avais	-2437
nez	-2438
hip	-2439
▁Mich	-2440
▁Bar	-2441
▁pensé	-2442
▁sécurité	-2443
▁forg	-2444
▁femmes	-2445
▁meilleur	-2446
▁Mrs	-2447
▁mé	-2448
▁Her	-2449
idence	-2450
▁Vas	-2451
▁comes	-2452
▁Ser	-2453
▁Te	-2454
▁aucun	-2455
▁Quelqu	-2456
▁force	-2457
érieur	-2458
agine	-2459
▁jouer	-2460
ield	-2461
âche	-2462
▁cul	-2463
oud	-2464
ET	-2465
ters	-2466
uri	-2467
▁Cel	-2468
▁appelé	-2469
ieurs	-2470
▁loc	-2471
▁idiot	-2472
▁dessus	-2473
▁pays	-2474
fri	-2475
rant	-2476
▁party	-2477
▁gets	-2478
▁Whoa	-2479
▁half	-2480
iously	-2481
▁quit	-2482
▁font	-2483
▁del	-2484
▁air	-2485
inner	-2486
▁sister	-2487
▁feu	-2488
▁jeune	-2489
dic	-2490
mbl	-2491
▁Ces	-2492
▁coin	-2493
▁propre	-2494
acher	-2495
▁service	-2496
ités	-2497
▁semaine	-2498
▁started	-2499
men	-2500
ited	-2501
▁leg	-2502
▁donne	-2503
▁confiance	-2504
▁speak	-2505
OW	-2506
uite	-2507
most	-2508
▁suite	-2509
actement	-2510
▁retr	-2511
▁journée	-2512
▁figure	-2513
ox	-2514
aps	-2515
▁num	-2516
bles	-2517
▁message	-2518
aute	-2519
▁Puis	-2520
mé	-2521
▁dream	-2522
▁Ca	-2523
▁its	-2524
▁town	-2525
ama	-2526
▁follow	-2527
▁Sir	-2528
▁Sure	-2529
▁manger	-2530
té	-2531
▁able	-2532
▁patient	-2533
▁WH	-2534
mment	-2535
▁jeu	-2536
▁viol	-2537
ules	-2538
inquiè	-2539
▁between	-2540
▁vivre	-2541
▁Col	-2542
▁Somet	-2543
▁York	-2544
▁news	-2545
fort	-2546
▁shoot	-2547
▁penser	-2548
▁fre	-2549
▁truth	-2550
▁Quelle	-2551
▁vérité	-2552
▁chef	-2553
▁sn	-2554
ved	-2555
ific	-2556
▁Bonne	-2557
go	-2558
▁euh	-2559
▁married	-2560
▁Hmm	-2561
▁12	-2562
▁enfant	-2563
▁év	-2564
ctive	-2565
▁full	-2566
▁trouble	-2567
▁dispar	-2568
homme	-2569
▁number	-2570
▁combien	-2571
ately	-2572
▁rac	-2573
▁pull	-2574
èg	-2575
▁imm	-2576
▁tot	-2577
OT	-2578
▁hey	-2579
▁belle	-2580
▁compte	-2581
▁anymore	-2582
▁goes	-2583
▁behind	-2584
▁temp	-2585
▁Toi	-2586
usement	-2587
▁game	-2588
ste	-2589
▁travers	-2590
amin	-2591
▁mo	-2592
ables	-2593
▁sweet	-2594
▁aucune	-2595
ront	-2596
urs	-2597
▁laissé	-2598
▁essayé	-2599
▁Ed	-2600
alement	-2601
▁waiting	-2602
▁situation	-2603
▁veu	-2604
▁telling	-2605
▁trait	-2606
ative	-2607
▁réal	-2608
▁May	-2609
▁dog	-2610
▁terre	-2611
▁respect	-2612
▁sorte	-2613
▁tried	-2614
▁office	-2615
▁ache	-2616
▁IT	-2617
▁Hel	-2618
iles	-2619
▁guerre	-2620
▁Bri	-2621
▁Av	-2622
unt	-2623
▁dehors	-2624
▁accident	-2625
iam	-2626
▁grande	-2627
▁moyen	-2628
▁eng	-2629
uel	-2630
ève	-2631
▁Ann	-2632
▁jet	-2633
aving	-2634
▁peuvent	-2635
lo	-2636
▁esc	-2637
▁Amer	-2638
▁Would	-2639
▁easy	-2640
▁coll	-2641
▁fout	-2642
▁aura	-2643
▁Donne	-2644
user	-2645
lect	-2646
▁â	-2647
others	-2648
▁presque	-2649
aking	-2650
errière	-2651
▁Michael	-2652
▁died	-2653
ator	-2654
range	-2655
▁près	-2656
▁send	-2657
▁mains	-2658
▁garder	-2659
iche	-2660
▁anim	-2661
▁forget	-2662
occup	-2663
▁Ecoute	-2664
▁devoir	-2665
▁prin	-2666
utôt	-2667
▁hab	-2668
▁fav	-2669
▁facile	-2670
▁ferais	-2671
▁regarder	-2672
ises	-2673
▁chois	-2674
▁team	-2675
▁trust	-2676
eler	-2677
LE	-2678
▁putain	-2679
▁téléphone	-2680
enny	-2681
▁mariage	-2682
iré	-2683
▁children	-2684
▁Mor	-2685
▁bel	-2686
ling	-2687
ha	-2688
▁travailler	-2689
itaine	-2690
▁fête	-2691
▁Gre	-2692
▁Même	-2693
▁cir	-2694
VE	-2695
▁Mes	-2696
aide	-2697
vert	-2698
cu	-2699
▁Euh	-2700
▁arriver	-2701
▁affaires	-2702
▁somebody	-2703
▁sit	-2704
▁brought	-2705
aring	-2706
▁touch	-2707
▁months	-2708
▁mod	-2709
▁crime	-2710
▁changer	-2711
abord	-2712
ze	-2713
▁win	-2714
chn	-2715
▁girls	-2716
▁transf	-2717
iving	-2718
été	-2719
▁Does	-2720
▁free	-2721
▁Tiens	-2722
▁answer	-2723
▁bal	-2724
ball	-2725
▁public	-2726
▁lit	-2727
onnaî	-2728
▁Mike	-2729
isse	-2730
né	-2731
▁though	-2732
arch	-2733
▁needs	-2734
▁complet	-2735
oie	-2736
ots	-2737
▁Cont	-2738
▁contact	-2739
tez	-2740
▁champ	-2741
▁Sup	-2742
vre	-2743
aise	-2744
rée	-2745
▁quite	-2746
év	-2747
▁doi	-2748
ières	-2749
▁Sur	-2750
anny	-2751
▁clean	-2752
▁million	-2753
▁line	-2754
▁Prends	-2755
▁dernier	-2756
▁histoire	-2757
▁photo	-2758
venue	-2759
▁éch	-2760
▁record	-2761
▁dorm	-2762
▁Grand	-2763
IC	-2764
ised	-2765
▁Our	-2766
oyé	-2767
▁dollars	-2768
▁base	-2769
inquiète	-2770
ième	-2771
ury	-2772
avait	-2773
▁Fuck	-2774
rif	-2775
▁pouvais	-2776
▁Charlie	-2777
▁personnes	-2778
▁ang	-2779
mon	-2780
▁hate	-2781
ana	-2782
▁cré	-2783
▁Jes	-2784
▁alive	-2785
▁derrière	-2786
hô	-2787
co	-2788
aller	-2789
▁pie	-2790
lin	-2791
école	-2792
▁aren	-2793
▁yours	-2794
not	-2795
▁past	-2796
urg	-2797
▁terr	-2798
lé	-2799
▁Sa	-2800
▁cinq	-2801
▁serai	-2802
▁country	-2803
idd	-2804
▁ress	-2805
lement	-2806
▁buy	-2807
▁learn	-2808
▁haut	-2809
▁marche	-2810
▁rou	-2811
anté	-2812
▁safe	-2813
▁cours	-2814
▁attend	-2815
▁ait	-2816
▁build	-2817
▁ru	-2818
▁damn	-2819
nement	-2820
▁stupid	-2821
▁biz	-2822
iquer	-2823
▁class	-2824
▁black	-2825
▁méd	-2826
ky	-2827
▁psy	-2828
▁Mlle	-2829
ume	-2830
▁devons	-2831
▁ext	-2832
anche	-2833
,000	-2834
▁These	-2835
▁pied	-2836
ague	-2837
▁David	-2838
▁numéro	-2839
ks	-2840
ari	-2841
▁Comb	-2842
▁AND	-2843
",	-2844
▁soi	-2845
▁whatever	-2846
▁50	-2847
▁press	-2848
▁parles	-2849
▁ni	-2850
▁um	-2851
enez	-2852
▁chemin	-2853
▁Jul	-2854
▁commencé	-2855
▁adm	-2856
atri	-2857
▁parfait	-2858
val	-2859
▁doctor	-2860
cient	-2861
▁George	-2862
▁Ha	-2863
▁Après	-2864
▁court	-2865
épare	-2866
onner	-2867
▁fell	-2868
amb	-2869
▁pot	-2870
friend	-2871
▁compris	-2872
▁quatre	-2873
gram	-2874
▁hang	-2875
enant	-2876
irer	-2877
cé	-2878
▁répond	-2879
AY	-2880
ones	-2881
itting	-2882
ospital	-2883
▁human	-2884
▁order	-2885
▁almost	-2886
▁mach	-2887
▁Ke	-2888
▁coff	-2889
èmes	-2890
▁Joe	-2891
airs	-2892
ows	-2893
▁00	-2894
▁Dep	-2895
▁Even	-2896
ossible	-2897
ior	-2898
▁either	-2899
▁women	-2900
▁sugg	-2901
aille	-2902
▁route	-2903
▁opp	-2904
ished	-2905
agner	-2906
prit	-2907
aces	-2908
▁interes	-2909
▁rent	-2910
▁affaire	-2911
▁Deux	-2912
ched	-2913
▁clear	-2914
ettre	-2915
▁foot	-2916
▁After	-2917
resse	-2918
▁priv	-2919
▁perfect	-2920
yn	-2921
çons	-2922
▁semble	-2923
▁Ray	-2924
▁allé	-2925
ray	-2926
gu	-2927
▁présent	-2928
▁everybody	-2929
▁Got	-2930
cell	-2931
fé	-2932
▁attack	-2933
▁désolée	-2934
ails	-2935
▁probablement	-2936
▁importe	-2937
▁visage	-2938
rie	-2939
▁ceux	-2940
▁wind	-2941
▁conse	-2942
▁Alex	-2943
▁fant	-2944
▁fond	-2945
▁OF	-2946
▁form	-2947
▁mist	-2948
▁Voilà	-2949
▁Mal	-2950
action	-2951
aven	-2952
▁fat	-2953
▁Which	-2954
îner	-2955
▁100	-2956
▁Super	-2957
▁cell	-2958
▁land	-2959
▁sick	-2960
▁rap	-2961
▁Mart	-2962
▁heureux	-2963
urry	-2964
▁outside	-2965
ving	-2966
▁arrêt	-2967
▁club	-2968
▁fore	-2969
iant	-2970
▁appe	-2971
ouvert	-2972
ientôt	-2973
▁devez	-2974
raient	-2975
▁morte	-2976
▁nour	-2977
US	-2978
▁return	-2979
▁invest	-2980
aint	-2981
▁commence	-2982
▁add	-2983
▁perd	-2984
ifique	-2985
▁hier	-2986
rons	-2987
▁IN	-2988
▁Combien	-2989
▁date	-2990
artment	-2991
▁lab	-2992
oor	-2993
▁boys	-2994
▁frapp	-2995
,"	-2996
orts	-2997
▁montrer	-2998
▁terrible	-2999
▁bull	-3000
▁bill	-3001
▁along	-3002
▁vue	-3003
icile	-3004
▁plutôt	-3005
irm	-3006
▁sel	-3007
cul	-3008
éress	-3009
▁cens	-3010
cip	-3011
▁food	-3012
▁running	-3013
▁ship	-3014
▁faux	-3015
EA	-3016
oupe	-3017
▁become	-3018
ault	-3019
▁feeling	-3020
ility	-3021
▁bout	-3022
env	-3023
▁lose	-3024
uter	-3025
▁lives	-3026
▁top	-3027
çu	-3028
▁living	-3029
▁dinner	-3030
▁spé	-3031
▁Rich	-3032
UT	-3033
▁Maj	-3034
room	-3035
▁lég	-3036
▁red	-3037
mpl	-3038
lent	-3039
▁Hen	-3040
▁ve	-3041
▁drôle	-3042
▁seems	-3043
▁hair	-3044
▁ferai	-3045
rib	-3046
▁offic	-3047
....	-3048
▁gentle	-3049
▁city	-3050
iennent	-3051
▁sil	-3052
ief	-3053
▁WE	-3054
▁différent	-3055
▁vérif	-3056
of	-3057
hy	-3058
▁position	-3059
▁fix	-3060
▁Ang	-3061
▁psych	-3062
▁Two	-3063
ony	-3064
▁Lord	-3065
eutenant	-3066
erai	-3067
▁seconde	-3068
▁garde	-3069
▁special	-3070
▁hospital	-3071
▁cre	-3072
▁exactement	-3073
▁Wal	-3074
▁Gl	-3075
▁choix	-3076
▁mission	-3077
▁000	-3078
▁Lou	-3079
oe	-3080
▁gagn	-3081
▁inn	-3082
ational	-3083
gue	-3084
▁Peter	-3085
▁cherche	-3086
▁hour	-3087
tel	-3088
selves	-3089
▁murder	-3090
ison	-3091
hist	-3092
aim	-3093
▁Dou	-3094
▁join	-3095
acle	-3096
▁batt	-3097
▁Tous	-3098
ically	-3099
▁taken	-3100
key	-3101
llig	-3102
vin	-3103
▁Ind	-3104
▁normal	-3105
▁travaille	-3106
▁connaiss	-3107
▁techn	-3108
osh	-3109
yle	-3110
▁tre	-3111
▁emm	-3112
▁écoute	-3113
▁pan	-3114
▁bitch	-3115
▁puiss	-3116
▁pois	-3117
▁boss	-3118
▁fo	-3119
antes	-3120
▁connaî	-3121
▁Hold	-3122
▁shall	-3123
▁jol	-3124
▁band	-3125
▁Paul	-3126
▁commencer	-3127
▁adv	-3128
rat	-3129
ération	-3130
▁Con	-3131
irth	-3132
▁souff	-3133
▁bizarre	-3134
▁himself	-3135
▁Max	-3136
▁control	-3137
emm	-3138
right	-3139
▁polit	-3140
▁funny	-3141
▁lady	-3142
▁organ	-3143
uk	-3144
urer	-3145
▁nature	-3146
▁entrer	-3147
▁preu	-3148
▁rece	-3149
▁promise	-3150
euf	-3151
▁ahead	-3152
ser	-3153
▁pote	-3154
▁tort	-3155
alle	-3156
illage	-3157
▁allait	-3158
▁essayer	-3159
▁suspect	-3160
▁cry	-3161
gy	-3162
roche	-3163
▁thé	-3164
hmm	-3165
▁chien	-3166
▁aband	-3167
▁THAT	-3168
▁happens	-3169
istes	-3170
▁favor	-3171
▁oh	-3172
▁sauver	-3173
▁recher	-3174
▁strong	-3175
cin	-3176
▁quick	-3177
▁HE	-3178
ax	-3179
▁program	-3180
elt	-3181
▁Fin	-3182
▁plein	-3183
▁18	-3184
▁serais	-3185
▁tw	-3186
▁arm	-3187
arrêter	-3188
akes	-3189
▁ant	-3190
oun	-3191
▁By	-3192
▁faute	-3193
iven	-3194
▁cannot	-3195
▁génial	-3196
▁ban	-3197
▁Could	-3198
▁asking	-3199
▁rendre	-3200
▁Mary	-3201
▁constr	-3202
▁arrêter	-3203
haps	-3204
▁nouvelles	-3205
uy	-3206
ized	-3207
▁soci	-3208
▁expect	-3209
▁Li	-3210
▁less	-3211
▁coeur	-3212
init	-3213
▁Pard	-3214
▁dear	-3215
ât	-3216
▁retard	-3217
aines	-3218
▁lim	-3219
▁pous	-3220
▁puisse	-3221
▁quelle	-3222
inst	-3223
▁stre	-3224
ept	-3225
ode	-3226
▁ha	-3227
ograp	-3228
▁surprise	-3229
lev	-3230
▁marché	-3231
cep	-3232
auche	-3233
▁problèmes	-3234
▁impossible	-3235
rès	-3236
▁dites	-3237
bye	-3238
▁lock	-3239
▁Cor	-3240
▁seem	-3241
▁rob	-3242
▁pop	-3243
▁tôt	-3244
▁Pres	-3245
▁protég	-3246
seau	-3247
olly	-3248
tant	-3249
▁él	-3250
▁Great	-3251
ement	-3252
▁drive	-3253
igneur	-3254
attend	-3255
▁fera	-3256
ili	-3257
▁card	-3258
▁bientôt	-3259
di	-3260
▁shut	-3261
▁box	-3262
▁tas	-3263
▁grave	-3264
▁lieu	-3265
ounds	-3266
▁sense	-3267
▁perdre	-3268
▁ident	-3269
▁comprendre	-3270
▁sell	-3271
oose	-3272
▁Keep	-3273
▁magn	-3274
fléch	-3275
▁cuis	-3276
▁cab	-3277
GH	-3278
▁Quelque	-3279
▁BE	-3280
▁stri	-3281
▁serious	-3282
▁Nick	-3283
▁mons	-3284
▁shouldn	-3285
▁verre	-3286
▁honn	-3287
onel	-3288
tern	-3289
▁rég	-3290
▁payer	-3291
▁small	-3292
essaie	-3293
▁meeting	-3294
▁cœur	-3295
éric	-3296
▁pard	-3297
▁docteur	-3298
ERE	-3299
aill	-3300
adore	-3301
▁leaving	-3302
▁difficile	-3303
▁prochaine	-3304
ican	-3305
▁trucs	-3306
Je	-3307
▁Notre	-3308
▁rencontrer	-3309
port	-3310
▁anyway	-3311
intérieur	-3312
▁aime	-3313
▁millions	-3314
▁autant	-3315
▁glad	-3316
▁retourner	-3317
▁fast	-3318
▁veulent	-3319
ided	-3320
▁scared	-3321
suite	-3322
▁worth	-3323
orme	-3324
▁soul	-3325
▁Everything	-3326
ered	-3327
eds	-3328
▁coul	-3329
▁chat	-3330
▁écrit	-3331
aître	-3332
erry	-3333
vern	-3334
▁bud	-3335
ID	-3336
▁catch	-3337
▁mir	-3338
▁Sm	-3339
▁James	-3340
▁Ooh	-3341
âte	-3342
▁peine	-3343
▁Sar	-3344
yl	-3345
ices	-3346
form	-3347
▁relations	-3348
het	-3349
ira	-3350
ple	-3351
▁Nice	-3352
▁Attends	-3353
▁birth	-3354
▁bois	-3355
▁Very	-3356
raight	-3357
▁appris	-3358
▁rentrer	-3359
maines	-3360
af	-3361
veille	-3362
▁Huh	-3363
éral	-3364
▁company	-3365
▁semaines	-3366
▁Captain	-3367
"?	-3368
artement	-3369
eng	-3370
▁state	-3371
▁début	-3372
▁treat	-3373
▁ON	-3374
▁match	-3375
▁accept	-3376
▁protect	-3377
▁continue	-3378
▁Carl	-3379
bs	-3380
yez	-3381
▁livre	-3382
▁aide	-3383
▁sûre	-3384
▁conne	-3385
▁Laissez	-3386
aves	-3387
▁X	-3388
▁pire	-3389
érieux	-3390
▁gentil	-3391
équ	-3392
▁pièce	-3393
▁known	-3394
▁bott	-3395
▁Luc	-3396
▁weeks	-3397
▁meilleure	-3398
▁innoc	-3399
urity	-3400
histoire	-3401
▁future	-3402
used	-3403
▁hors	-3404
assé	-3405
▁thanks	-3406
▁Act	-3407
▁dîner	-3408
▁vir	-3409
▁Bye	-3410
ists	-3411
▁information	-3412
eral	-3413
▁HA	-3414
▁lum	-3415
▁charge	-3416
▁key	-3417
joy	-3418
▁From	-3419
▁anybody	-3420
▁visit	-3421
▁pouvait	-3422
▁gagner	-3423
▁respons	-3424
avons	-3425
ètement	-3426
onnes	-3427
▁Cert	-3428
AC	-3429
▁attendre	-3430
▁Jesus	-3431
▁méde	-3432
▁Henry	-3433
vie	-3434
▁Angel	-3435
▁oublié	-3436
▁hy	-3437
andy	-3438
▁station	-3439
veux	-3440
▁succ	-3441
▁MAN	-3442
ino	-3443
ences	-3444
rou	-3445
▁intellig	-3446
▁pun	-3447
▁mention	-3448
▁calme	-3449
▁Say	-3450
essus	-3451
▁explain	-3452
▁ill	-3453
▁erre	-3454
ka	-3455
▁symp	-3456
▁drug	-3457
▁marcher	-3458
▁Voici	-3459
▁honey	-3460
▁Cr	-3461
ced	-3462
ular	-3463
ities	-3464
▁convers	-3465
outer	-3466
▁Matt	-3467
ires	-3468
ouvrir	-3469
▁vide	-3470
▁déteste	-3471
ël	-3472
▁photos	-3473
▁faisait	-3474
▁Mont	-3475
▁cold	-3476
▁bi	-3477
atur	-3478
royable	-3479
ena	-3480
oles	-3481
ral	-3482
▁throw	-3483
▁Call	-3484
▁..	-3485
▁absol	-3486
oubl	-3487
ené	-3488
rog	-3489
▁gre	-3490
▁croyais	-3491
▁voyage	-3492
▁felt	-3493
▁Only	-3494
▁journal	-3495
▁Mmm	-3496
▁11	-3497
▁lie	-3498
▁meurtre	-3499
▁ferme	-3500
itions	-3501
▁argent	-3502
▁noir	-3503
▁syst	-3504
▁longer	-3505
za	-3506
AL	-3507
ige	-3508
▁étiez	-3509
▁eye	-3510
▁memb	-3511
▁combat	-3512
emb	-3513
raw	-3514
▁syste	-3515
▁entire	-3516
▁changé	-3517
AM	-3518
apon	-3519
otte	-3520
▁ME	-3521
▁dark	-3522
▁attends	-3523
▁King	-3524
▁amie	-3525
▁arriv	-3526
▁music	-3527
▁termin	-3528
▁rock	-3529
▁playing	-3530
▁plaisir	-3531
▁gouver	-3532
▁café	-3533
▁équipe	-3534
▁Phil	-3535
▁wed	-3536
BI	-3537
▁prov	-3538
expl	-3539
▁god	-3540
▁battre	-3541
▁cru	-3542
▁arrête	-3543
com	-3544
▁chant	-3545
▁Bro	-3546
ully	-3547
▁Auc	-3548
uits	-3549
▁dél	-3550
▁exper	-3551
▁jud	-3552
▁fous	-3553
▁envoyé	-3554
ugh	-3555
▁Sans	-3556
êche	-3557
ilité	-3558
▁requ	-3559
▁gri	-3560
?"	-3561
▁empl	-3562
▁détr	-3563
▁morts	-3564
▁Something	-3565
▁tran	-3566
▁worked	-3567
▁Ow	-3568
agin	-3569
▁charg	-3570
▁rom	-3571
▁diri	-3572
▁Min	-3573
▁pren	-3574
ift	-3575
▁report	-3576
ades	-3577
▁rendez	-3578
▁weird	-3579
sc	-3580
▁pai	-3581
▁rue	-3582
▁bomb	-3583
▁straight	-3584
usé	-3585
▁cha	-3586
▁partic	-3587
▁fly	-3588
▁pur	-3589
▁wall	-3590
IM	-3591
▁ran	-3592
zz	-3593
▁words	-3594
▁beat	-3595
▁Ry	-3596
▁200	-3597
impression	-3598
dge	-3599
jeun	-3600
▁dance	-3601
ency	-3602
aches	-3603
mell	-3604
▁Never	-3605
▁stupide	-3606
otion	-3607
▁Shut	-3608
▁diffic	-3609
ls	-3610
ering	-3611
▁song	-3612
▁seras	-3613
▁maj	-3614
onse	-3615
▁bras	-3616
éra	-3617
▁étud	-3618
▁Jam	-3619
ocat	-3620
▁Robert	-3621
▁pil	-3622
LD	-3623
▁Co	-3624
ete	-3625
▁destin	-3626
▁First	-3627
unes	-3628
▁soeur	-3629
▁meant	-3630
▁Depuis	-3631
UR	-3632
▁calling	-3633
ateau	-3634
inter	-3635
▁begin	-3636
▁loved	-3637
ges	-3638
▁Lau	-3639
▁machine	-3640
tures	-3641
▁Lu	-3642
▁Big	-3643
▁looked	-3644
▁restau	-3645
▁rempl	-3646
▁?"	-3647
▁eh	-3648
▁short	-3649
ked	-3650
▁porter	-3651
oque	-3652
▁courant	-3653
▁post	-3654
▁rapport	-3655
aged	-3656
▁réun	-3657
▁Peu	-3658
▁sentir	-3659
▁ST	-3660
▁Fine	-3661
▁radio	-3662
▁groupe	-3663
▁em	-3664
▁direct	-3665
▁profess	-3666
▁règ	-3667
▁pensez	-3668
ses	-3669
▁25	-3670
icture	-3671
▁spend	-3672
▁finally	-3673
▁malade	-3674
asses	-3675
ories	-3676
▁allow	-3677
▁destroy	-3678
rup	-3679
abb	-3680
▁till	-3681
▁hop	-3682
ita	-3683
▁med	-3684
▁weren	-3685
▁mét	-3686
▁}	-3687
agé	-3688
▁Damn	-3689
iqué	-3690
▁remar	-3691
▁réfléch	-3692
atique	-3693
▁Pol	-3694
asion	-3695
▁récup	-3696
▁agent	-3697
▁quitt	-3698
▁changed	-3699
▁concern	-3700
▁offici	-3701
▁amour	-3702
▁white	-3703
▁road	-3704
▁gamin	-3705
▁forgot	-3706
▁cél	-3707
▁turned	-3708
▁takes	-3709
▁SH	-3710
▁pal	-3711
▁finir	-3712
▁saut	-3713
▁choice	-3714
▁breat	-3715
▁cade	-3716
▁ressemble	-3717
▁capitaine	-3718
▁carte	-3719
The	-3720
▁others	-3721
▁rencontré	-3722
▁Help	-3723
▁prod	-3724
▁victim	-3725
ump	-3726
▁piece	-3727
dered	-3728
équipe	-3729
▁Parf	-3730
▁appro	-3731
▁devenir	-3732
▁circ	-3733
▁brû	-3734
oci	-3735
▁40	-3736
riture	-3737
▁arme	-3738
▁ligne	-3739
▁Encore	-3740
br	-3741
▁prév	-3742
cement	-3743
▁Red	-3744
hor	-3745
asure	-3746
▁Fait	-3747
▁patron	-3748
▁appeler	-3749
oes	-3750
▁creat	-3751
ded	-3752
iting	-3753
usion	-3754
▁autour	-3755
▁cat	-3756
abl	-3757
rés	-3758
▁Excusez	-3759
▁cheveux	-3760
▁People	-3761
▁somewhere	-3762
▁sérieux	-3763
▁vit	-3764
▁Emm	-3765
▁bais	-3766
▁prix	-3767
acy	-3768
▁civ	-3769
▁salle	-3770
▁enn	-3771
▁vend	-3772
inte	-3773
ortez	-3774
▁viend	-3775
bor	-3776
▁Danny	-3777
▁seeing	-3778
▁DO	-3779
▁ridic	-3780
▁sorti	-3781
ancer	-3782
▁ride	-3783
▁picture	-3784
▁wel	-3785
inger	-3786
allais	-3787
▁Putain	-3788
quel	-3789
▁Father	-3790
lu	-3791
▁Mark	-3792
▁fool	-3793
▁mang	-3794
▁dormir	-3795
cy	-3796
▁Madame	-3797
▁Bo	-3798
▁anc	-3799
▁bur	-3800
▁needed	-3801
▁pic	-3802
▁cook	-3803
▁madame	-3804
aissez	-3805
▁crimin	-3806
▁cous	-3807
▁rather	-3808
▁reconn	-3809
▁Tony	-3810
ium	-3811
▁Those	-3812
▁Sch	-3813
▁Ant	-3814
▁mem	-3815
▁sun	-3816
où	-3817
ker	-3818
ales	-3819
ased	-3820
azing	-3821
▁Harry	-3822
▁fon	-3823
ety	-3824
▁partout	-3825
▁Ell	-3826
isme	-3827
▁Noël	-3828
appeler	-3829
raî	-3830
oux	-3831
▁tirer	-3832
▁rat	-3833
▁roi	-3834
▁lang	-3835
hum	-3836
▁given	-3837
lever	-3838
▁sout	-3839
essay	-3840
▁intéress	-3841
▁fault	-3842
▁censé	-3843
▁mér	-3844
hôpital	-3845
▁giving	-3846
▁mots	-3847
esterday	-3848
▁Gard	-3849
▁série	-3850
▁nobody	-3851
rang	-3852
▁group	-3853
épar	-3854
▁suic	-3855
▁Bre	-3856
▁ones	-3857
▁sujet	-3858
▁IS	-3859
▁complètement	-3860
▁invol	-3861
▁Arrêtez	-3862
▁Jane	-3863
alth	-3864
▁Off	-3865
▁excuse	-3866
ster	-3867
▁cur	-3868
▁feet	-3869
▁sole	-3870
▁corre	-3871
mas	-3872
▁stopp	-3873
iron	-3874
▁sat	-3875
▁Avez	-3876
▁Sec	-3877
▁quitter	-3878
▁mauvaise	-3879
OO	-3880
▁moving	-3881
▁possi	-3882
▁horrible	-3883
KE	-3884
ired	-3885
▁write	-3886
▁gay	-3887
bes	-3888
▁16	-3889
▁devenu	-3890
istre	-3891
ication	-3892
▁atte	-3893
▁Boy	-3894
▁Pardon	-3895
▁Allô	-3896
▁mouth	-3897
▁Hol	-3898
▁Paris	-3899
▁spect	-3900
▁Jimmy	-3901
▁aurais	-3902
nel	-3903
▁vac	-3904
▁disent	-3905
▁Su	-3906
▁sembl	-3907
oph	-3908
▁Sim	-3909
erm	-3910
▁conversation	-3911
wood	-3912
▁lar	-3913
▁oper	-3914
▁dress	-3915
iddle	-3916
▁cos	-3917
▁happening	-3918
▁Stay	-3919
▁dossi	-3920
ald	-3921
ortun	-3922
▁smell	-3923
inn	-3924
▁FBI	-3925
▁système	-3926
▁rej	-3927
▁village	-3928
jeuner	-3929
▁continuer	-3930
▁impl	-3931
élic	-3932
▁toil	-3933
rions	-3934
▁décl	-3935
ript	-3936
▁missing	-3937
oop	-3938
▁track	-3939
▁amb	-3940
▁personal	-3941
▁Em	-3942
▁milit	-3943
▁works	-3944
▁spécial	-3945
reg	-3946
▁wedding	-3947
▁voudrais	-3948
èce	-3949
Cause	-3950
▁agree	-3951
▁amou	-3952
▁deb	-3953
▁rêve	-3954
▁Sarah	-3955
▁surveill	-3956
▁double	-3957
▁coffee	-3958
▁ferait	-3959
olf	-3960
▁Beau	-3961
iction	-3962
▁chans	-3963
gner	-3964
▁divor	-3965
ect	-3966
uge	-3967
▁kiss	-3968
▁bank	-3969
▁reçu	-3970
▁protéger	-3971
onné	-3972
▁deep	-3973
▁dég	-3974
▁Kim	-3975
▁contrôle	-3976
to	-3977
▁maî	-3978
▁décidé	-3979
▁ira	-3980
▁drop	-3981
▁Dev	-3982
▁Del	-3983
▁Lond	-3984
▁ém	-3985
▁doute	-3986
▁Mag	-3987
utely	-3988
ram	-3989
▁scène	-3990
ument	-3991
entends	-3992
▁honest	-3993
▁list	-3994
▁compagn	-3995
▁paper	-3996
▁revenir	-3997
iversaire	-3998
aj	-3999
▁souvenir	-4000
▁system	-4001
AD	-4002
ured	-4003
▁building	-4004
▁moit	-4005
▁step	-4006
▁Kn	-4007
0.	-4008
▁ya	-4009
▁Ess	-4010
dessus	-4011
▁pauv	-4012
▁tick	-4013
▁worried	-4014
▁profession	-4015
oires	-4016
mar	-4017
▁Shit	-4018
▁dig	-4019
▁pack	-4020
prise	-4021
▁govern	-4022
habitude	-4023
tte	-4024
▁boire	-4025
après	-4026
▁Ol	-4027
▁Actually	-4028
viously	-4029
▁montre	-4030
▁rapide	-4031
▁gang	-4032
bo	-4033
▁pou	-4034
▁regret	-4035
▁evidence	-4036
▁worse	-4037
▁Fred	-4038
ressed	-4039
arling	-4040
▁ring	-4041
▁lucky	-4042
▁code	-4043
▁mass	-4044
▁suggest	-4045
▁chaud	-4046
▁envie	-4047
▁dix	-4048
▁pare	-4049
▁libre	-4050
GHT	-4051
▁Ro	-4052
des	-4053
▁kept	-4054
▁14	-4055
▁pi	-4056
isc	-4057
ills	-4058
▁Nobody	-4059
▁avaient	-4060
▁Sil	-4061
▁liste	-4062
▁Là	-4063
▁present	-4064
▁musique	-4065
éros	-4066
▁street	-4067
▁celle	-4068
par	-4069
▁Deb	-4070
ki	-4071
▁Ev	-4072
éter	-4073
▁spir	-4074
▁moitié	-4075
▁San	-4076
▁voix	-4077
▁colère	-4078
▁boî	-4079
▁near	-4080
▁erreur	-4081
▁tiens	-4082
ingue	-4083
▁poor	-4084
▁responsi	-4085
▁log	-4086
▁=	-4087
▁lad	-4088
▁Ram	-4089
▁Ici	-4090
▁Isn	-4091
▁mets	-4092
▁enjoy	-4093
ket	-4094
▁signal	-4095
▁pouvons	-4096
▁vaut	-4097
let	-4098
▁sale	-4099
ya	-4100
▁Fer	-4101
▁movie	-4102
▁tax	-4103
▁prie	-4104
▁17	-4105
▁watching	-4106
rom	-4107
quelle	-4108
▁vaisseau	-4109
▁wit	-4110
ordin	-4111
▁savait	-4112
▁grow	-4113
▁préc	-4114
▁Hein	-4115
▁cover	-4116
▁produ	-4117
▁early	-4118
ception	-4119
▁manque	-4120
osé	-4121
▁Someone	-4122
▁voulu	-4123
▁Richard	-4124
▁decided	-4125
the	-4126
▁Cela	-4127
▁kidding	-4128
▁blow	-4129
IR	-4130
rire	-4131
ettez	-4132
▁suffit	-4133
▁princip	-4134
▁marry	-4135
▁seront	-4136
▁suit	-4137
isation	-4138
▁dange	-4139
▁Mac	-4140
▁sad	-4141
▁tent	-4142
▁honor	-4143
pris	-4144
▁born	-4145
▁caught	-4146
for	-4147
▁arrêté	-4148
▁Aah	-4149
▁Jeff	-4150
▁accord	-4151
▁tranqu	-4152
▁William	-4153
▁squ	-4154
CH	-4155
▁stick	-4156
▁Make	-4157
▁notice	-4158
▁CH	-4159
ae	-4160
...?	-4161
▁possib	-4162
êcher	-4163
▁security	-4164
êtements	-4165
▁investig	-4166
▁whoa	-4167
▁sometimes	-4168
▁Sun	-4169
▁Reste	-4170
▁reviend	-4171
▁nourriture	-4172
▁Spe	-4173
itive	-4174
cks	-4175
▁mas	-4176
▁Seigneur	-4177
▁réveill	-4178
uts	-4179
pped	-4180
▁ble	-4181
ombre	-4182
▁cloth	-4183
▁ign	-4184
▁Tod	-4185
ousand	-4186
▁Entre	-4187
▁petits	-4188
▁mistake	-4189
yer	-4190
▁extra	-4191
acer	-4192
▁Billy	-4193
▁attrap	-4194
▁Val	-4195
▁evening	-4196
▁thinks	-4197
▁welcome	-4198
SE	-4199
▁année	-4200
▁drag	-4201
iate	-4202
▁24	-4203
▁Engl	-4204
▁disparu	-4205
▁parfois	-4206
urch	-4207
▁lumière	-4208
itz	-4209
▁mens	-4210
▁heureuse	-4211
irt	-4212
agit	-4213
▁aud	-4214
▁sounds	-4215
▁joue	-4216
idi	-4217
▁volé	-4218
▁discuss	-4219
▁difficult	-4220
▁trip	-4221
▁dom	-4222
▁ed	-4223
▁cart	-4224
▁chap	-4225
pir	-4226
▁tap	-4227
ilt	-4228
▁poi	-4229
▁dérange	-4230
▁bath	-4231
▁Whatever	-4232
▁laquelle	-4233
Un	-4234
▁cherch	-4235
umb	-4236
▁Lee	-4237
▁bateau	-4238
pecteur	-4239
appy	-4240
▁burn	-4241
▁Steve	-4242
▁souvent	-4243
arry	-4244
IE	-4245
▁king	-4246
fer	-4247
igu	-4248
aurai	-4249
▁lying	-4250
▁bordel	-4251
▁utiliser	-4252
▁kick	-4253
▁Lieutenant	-4254
▁Dites	-4255
▁peace	-4256
▁quiet	-4257
ainement	-4258
▁cost	-4259
▁poss	-4260
▁broke	-4261
▁Ty	-4262
▁West	-4263
▁busy	-4264
affaire	-4265
▁soleil	-4266
▁talked	-4267
▁floor	-4268
▁More	-4269
▁Scott	-4270
▁self	-4271
▁apolog	-4272
▁pute	-4273
▁er	-4274
work	-4275
▁yesterday	-4276
▁appre	-4277
erman	-4278
han	-4279
▁ground	-4280
▁Lis	-4281
▁prep	-4282
con	-4283
ged	-4284
▁prépare	-4285
erie	-4286
▁Prof	-4287
▁capable	-4288
▁ner	-4289
aly	-4290
▁Mother	-4291
▁signif	-4292
▁fiche	-4293
▁devait	-4294
▁Ret	-4295
erne	-4296
▁ensuite	-4297
▁Remember	-4298
▁fol	-4299
▁Lâche	-4300
▁devais	-4301
ifs	-4302
set	-4303
fully	-4304
▁ruin	-4305
▁wear	-4306
icle	-4307
▁plup	-4308
▁Pri	-4309
▁Johnny	-4310
▁restaurant	-4311
undred	-4312
▁plupart	-4313
▁rév	-4314
initely	-4315
itation	-4316
▁single	-4317
▁folle	-4318
▁sors	-4319
overed	-4320
▁Père	-4321
▁ouais	-4322
▁voice	-4323
--	-4324
▁Cle	-4325
▁jump	-4326
▁sœur	-4327
owers	-4328
▁brill	-4329
▁handle	-4330
▁tur	-4331
▁Jess	-4332
▁cerve	-4333
▁Faites	-4334
usse	-4335
▁amazing	-4336
▁reviens	-4337
▁TV	-4338
arsh	-4339
▁Adam	-4340
▁Rog	-4341
▁gentlemen	-4342
exp	-4343
▁van	-4344
place	-4345
ût	-4346
▁aimes	-4347
▁scient	-4348
▁fasse	-4349
ops	-4350
rier	-4351
▁demi	-4352
aren	-4353
▁opt	-4354
▁propri	-4355
▁obl	-4356
▁offer	-4357
▁pars	-4358
▁tired	-4359
▁incroyable	-4360
assin	-4361
▁Looks	-4362
▁Kat	-4363
▁Sl	-4364
▁innocent	-4365
▁Absol	-4366
▁Everyone	-4367
tenir	-4368
▁birthday	-4369
▁Fe	-4370
▁Three	-4371
▁content	-4372
▁Ag	-4373
▁WHAT	-4374
▁Agent	-4375
▁Think	-4376
▁occ	-4377
▁finish	-4378
ration	-4379
▁using	-4380
▁Op	-4381
▁trad	-4382
▁terror	-4383
▁support	-4384
osing	-4385
▁About	-4386
ètres	-4387
ism	-4388
mère	-4389
VER	-4390
elles	-4391
▁Christmas	-4392
▁completely	-4393
▁fair	-4394
stairs	-4395
▁doul	-4396
▁réponse	-4397
▁aimer	-4398
▁doivent	-4399
▁relationship	-4400
ension	-4401
▁voici	-4402
▁enfin	-4403
▁chau	-4404
▁blanc	-4405
erv	-4406
▁Tim	-4407
▁cig	-4408
▁Majest	-4409
iments	-4410
▁laugh	-4411
▁middle	-4412
apped	-4413
▁threat	-4414
aqu	-4415
eries	-4416
▁Jake	-4417
▁assist	-4418
▁instant	-4419
▁Daniel	-4420
▁racont	-4421
abe	-4422
▁Cet	-4423
▁tém	-4424
▁pract	-4425
▁13	-4426
▁belong	-4427
▁bât	-4428
▁magas	-4429
arrête	-4430
▁fi	-4431
wards	-4432
▁thousand	-4433
avis	-4434
prés	-4435
▁choc	-4436
▁gold	-4437
▁wonderful	-4438
▁Seu	-4439
▁soin	-4440
▁clothes	-4441
abri	-4442
ries	-4443
▁Ros	-4444
▁brain	-4445
ius	-4446
▁Wel	-4447
▁Ted	-4448
▁totally	-4449
you	-4450
erson	-4451
▁pieds	-4452
riage	-4453
▁chem	-4454
ata	-4455
▁peuple	-4456
▁exist	-4457
▁Esp	-4458
▁Daddy	-4459
▁entendre	-4460
ddie	-4461
âce	-4462
▁Celui	-4463
▁gagné	-4464
▁plans	-4465
▁froid	-4466
▁imagine	-4467
▁anywhere	-4468
▁hasn	-4469
ateurs	-4470
ranger	-4471
▁justice	-4472
illy	-4473
▁rouge	-4474
▁invent	-4475
▁tiré	-4476
▁0	-4477
avy	-4478
ancy	-4479
▁Rick	-4480
▁lu	-4481
▁Cam	-4482
▁Leave	-4483
aché	-4484
ored	-4485
view	-4486
▁bast	-4487
▁across	-4488
▁Jan	-4489
▁méch	-4490
▁resse	-4491
▁cadeau	-4492
fin	-4493
alking	-4494
▁vent	-4495
▁swear	-4496
indre	-4497
▁killer	-4498
auf	-4499
érique	-4500
▁Chérie	-4501
▁Vict	-4502
cellent	-4503
▁age	-4504
▁abs	-4505
ctions	-4506
▁carry	-4507
▁American	-4508
enty	-4509
▁surviv	-4510
urb	-4511
▁har	-4512
▁cheval	-4513
▁neuf	-4514
▁paid	-4515
▁local	-4516
▁armes	-4517
ran	-4518
▁kidn	-4519
▁sexy	-4520
▁relation	-4521
▁pen	-4522
▁history	-4523
cent	-4524
▁Eric	-4525
▁roll	-4526
▁Cong	-4527
esprit	-4528
achel	-4529
▁Mur	-4530
▁forme	-4531
▁forever	-4532
cte	-4533
cier	-4534
▁dem	-4535
▁elles	-4536
▁hide	-4537
▁paix	-4538
▁slow	-4539
dedans	-4540
▁président	-4541
gar	-4542
uie	-4543
▁Hon	-4544
well	-4545
▁Pat	-4546
▁Didn	-4547
▁Bel	-4548
uir	-4549
ging	-4550
▁faim	-4551
II	-4552
idée	-4553
attrap	-4554
arriver	-4555
▁Carol	-4556
père	-4557
▁ordin	-4558
▁nég	-4559
▁tue	-4560
▁Rom	-4561
▁doub	-4562
dans	-4563
▁jeunes	-4564
avant	-4565
ograph	-4566
▁soirée	-4567
▁Everybody	-4568
▁Sw	-4569
onnie	-4570
▁Black	-4571
▁smart	-4572
occuper	-4573
rey	-4574
▁trib	-4575
▁Contin	-4576
face	-4577
▁Ryan	-4578
▁bons	-4579
▁fill	-4580
▁trave	-4581
▁gauche	-4582
▁neigh	-4583
▁hundred	-4584
▁Voy	-4585
▁centre	-4586
▁fear	-4587
▁qual	-4588
▁Doctor	-4589
▁compagnie	-4590
▁balle	-4591
▁vraie	-4592
▁appreci	-4593
▁sand	-4594
éner	-4595
▁Move	-4596
orer	-4597
▁iss	-4598
▁boîte	-4599
▁chick	-4600
▁classe	-4601
▁fonction	-4602
▁round	-4603
▁voler	-4604
▁Mel	-4605
acter	-4606
êmes	-4607
▁Love	-4608
▁gouvernement	-4609
inon	-4610
resp	-4611
▁zone	-4612
▁appelle	-4613
cée	-4614
eff	-4615
▁Tommy	-4616
▁quart	-4617
▁garçons	-4618
ias	-4619
▁wearing	-4620
ENT	-4621
na	-4622
aurait	-4623
▁hung	-4624
▁juge	-4625
▁Trois	-4626
▁Chris	-4627
▁lunch	-4628
▁dangerous	-4629
▁Should	-4630
▁retrouver	-4631
▁ouv	-4632
ago	-4633
▁plann	-4634
▁venue	-4635
imm	-4636
▁chauss	-4637
iding	-4638
▁cit	-4639
▁tenir	-4640
oli	-4641
met	-4642
▁cong	-4643
bres	-4644
▁promis	-4645
ico	-4646
▁Try	-4647
▁Sortez	-4648
arer	-4649
▁Sy	-4650
▁Part	-4651
▁capt	-4652
cre	-4653
▁bought	-4654
▁sacrif	-4655
▁touche	-4656
▁vivant	-4657
▁space	-4658
univers	-4659
▁Rep	-4660
▁voyez	-4661
▁killing	-4662
▁Franc	-4663
▁scene	-4664
▁poser	-4665
exc	-4666
▁secrets	-4667
ogn	-4668
▁opportun	-4669
▁recomm	-4670
▁Pal	-4671
▁during	-4672
▁eight	-4673
▁loi	-4674
▁mign	-4675
▁Watch	-4676
▁magnifique	-4677
▁bouge	-4678
▁Stre	-4679
▁ainsi	-4680
▁utilis	-4681
▁saved	-4682
▁Ré	-4683
IA	-4684
▁Bobby	-4685
▁vieille	-4686
"...	-4687
aked	-4688
▁intern	-4689
▁apartment	-4690
▁état	-4691
▁event	-4692
▁field	-4693
▁careful	-4694
dden	-4695
arme	-4696
▁City	-4697
▁strange	-4698
read	-4699
▁lire	-4700
▁grat	-4701
▁FOR	-4702
▁suivre	-4703
▁victime	-4704
▁jure	-4705
▁share	-4706
▁truck	-4707
utile	-4708
▁traî	-4709
▁Avant	-4710
▁Comm	-4711
▁steal	-4712
▁account	-4713
▁dise	-4714
▁néc	-4715
▁Anyway	-4716
athan	-4717
inal	-4718
▁President	-4719
uro	-4720
bert	-4721
▁commit	-4722
▁Eddie	-4723
▁Welcome	-4724
▁milieu	-4725
▁det	-4726
hait	-4727
NA	-4728
▁GO	-4729
▁Bet	-4730
▁cross	-4731
▁board	-4732
▁chanson	-4733
▁utilisé	-4734
levé	-4735
▁fier	-4736
enne	-4737
▁final	-4738
▁tir	-4739
▁sitting	-4740
ada	-4741
..."	-4742
▁orig	-4743
▁cow	-4744
▁fen	-4745
▁flics	-4746
▁Chaque	-4747
▁realize	-4748
EM	-4749
tead	-4750
line	-4751
uty	-4752
▁tueur	-4753
▁dirais	-4754
ulations	-4755
▁concent	-4756
▁stopped	-4757
▁Ap	-4758
▁général	-4759
▁dan	-4760
▁messieurs	-4761
▁Parfois	-4762
avi	-4763
ège	-4764
▁Yo	-4765
▁hall	-4766
▁Cons	-4767
▁susp	-4768
▁acheté	-4769
hood	-4770
▁honnête	-4771
▁search	-4772
da	-4773
▁cust	-4774
▁coun	-4775
▁Since	-4776
▁march	-4777
▁spent	-4778
olution	-4779
▁Martin	-4780
ILL	-4781
▁Perhaps	-4782
▁professeur	-4783
▁Earth	-4784
▁vêtements	-4785
▁animal	-4786
▁points	-4787
resh	-4788
imagine	-4789
▁laissez	-4790
▁area	-4791
▁stat	-4792
▁Sus	-4793
▁boat	-4794
itations	-4795
time	-4796
▁clients	-4797
▁clair	-4798
▁Aw	-4799
▁oblig	-4800
▁proud	-4801
▁interested	-4802
▁missed	-4803
IGHT	-4804
▁joué	-4805
ano	-4806
▁Acc	-4807
▁magasin	-4808
▁major	-4809
▁government	-4810
▁améric	-4811
▁War	-4812
▁bonnes	-4813
▁Vi	-4814
▁Sher	-4815
▁Colonel	-4816
▁Jud	-4817
▁disappe	-4818
▁Stan	-4819
cially	-4820
▁enqu	-4821
▁Prés	-4822
▁doig	-4823
▁meurt	-4824
▁imagin	-4825
▁viennent	-4826
amed	-4827
▁buddy	-4828
▁convain	-4829
▁condition	-4830
ora	-4831
ande	-4832
▁extr	-4833
▁personnel	-4834
▁Mil	-4835
▁tranquille	-4836
▁dès	-4837
▁Rose	-4838
▁Charles	-4839
▁hotel	-4840
▁Beaucoup	-4841
ION	-4842
▁médecin	-4843
année	-4844
▁letter	-4845
▁sudden	-4846
rupt	-4847
ips	-4848
▁DE	-4849
▁faisais	-4850
▁clé	-4851
▁instead	-4852
▁fum	-4853
▁seven	-4854
▁sauv	-4855
▁cousin	-4856
▁Prob	-4857
▁dangereux	-4858
hether	-4859
née	-4860
▁Ins	-4861
▁sup	-4862
▁télé	-4863
▁consider	-4864
▁THIS	-4865
ulation	-4866
cess	-4867
▁dedans	-4868
▁Terre	-4869
▁tough	-4870
acé	-4871
▁Bou	-4872
▁screw	-4873
▁enc	-4874
▁wake	-4875
▁autor	-4876
▁morce	-4877
sieds	-4878
▁calls	-4879
▁nécess	-4880
over	-4881
▁décision	-4882
▁plane	-4883
▁mien	-4884
▁acheter	-4885
▁NO	-4886
ford	-4887
onnez	-4888
érêt	-4889
aimes	-4890
▁teach	-4891
▁problems	-4892
▁Over	-4893
▁Sometimes	-4894
▁girlfriend	-4895
▁lettre	-4896
ST	-4897
âcher	-4898
▁Command	-4899
▁préfère	-4900
▁blue	-4901
▁oncle	-4902
▁Sant	-4903
▁enter	-4904
▁blague	-4905
▁prochain	-4906
▁nav	-4907
aison	-4908
▁moved	-4909
▁forward	-4910
awn	-4911
▁effet	-4912
▁Tur	-4913
éf	-4914
▁bén	-4915
lly	-4916
illé	-4917
▁Back	-4918
▁souhait	-4919
▁Long	-4920
▁diable	-4921
▁vouloir	-4922
▁Amy	-4923
▁vérifier	-4924
leur	-4925
▁Once	-4926
▁marriage	-4927
orté	-4928
▁mange	-4929
▁beg	-4930
▁Regardez	-4931
▁monter	-4932
anch	-4933
▁accep	-4934
aign	-4935
▁Out	-4936
▁Joy	-4937
▁kil	-4938
▁quitté	-4939
▁involved	-4940
▁Dég	-4941
▁Jusqu	-4942
itié	-4943
▁avocat	-4944
▁file	-4945
œu	-4946
▁Bienvenue	-4947
▁recherche	-4948
▁plusieurs	-4949
house	-4950
▁path	-4951
onneur	-4952
anç	-4953
▁broken	-4954
roll	-4955
▁pleu	-4956
▁ice	-4957
▁reven	-4958
▁exam	-4959
écu	-4960
▁Ob	-4961
esses	-4962
▁visite	-4963
.,	-4964
▁SO	-4965
▁store	-4966
▁vidé	-4967
▁conneries	-4968
▁miles	-4969
▁parten	-4970
fs	-4971
▁Hy	-4972
apper	-4973
▁pret	-4974
▁chair	-4975
▁preuve	-4976
▁cuisine	-4977
▁livres	-4978
▁fighting	-4979
▁America	-4980
▁cerveau	-4981
ified	-4982
rench	-4983
▁earth	-4984
▁witness	-4985
isf	-4986
▁Ve	-4987
▁civil	-4988
▁Pendant	-4989
▁Tou	-4990
▁réussi	-4991
▁déjeuner	-4992
▁Roy	-4993
▁bouche	-4994
▁horse	-4995
aï	-4996
▁Thom	-4997
bon	-4998
▁calm	-4999
étaire	-5000
▁Hurry	-5001
ify	-5002
ville	-5003
▁talent	-5004
èle	-5005
▁drunk	-5006
reuse	-5007
▁Walter	-5008
▁definitely	-5009
▁knock	-5010
▁Lind	-5011
▁experience	-5012
lax	-5013
▁Fri	-5014
▁Continue	-5015
EL	-5016
▁Gén	-5017
appel	-5018
▁nerve	-5019
endroit	-5020
▁LA	-5021
▁courage	-5022
lla	-5023
▁fish	-5024
▁spectacle	-5025
▁risque	-5026
ANT	-5027
▁ly	-5028
▁Kell	-5029
▁cash	-5030
▁window	-5031
▁secondes	-5032
▁dim	-5033
▁Still	-5034
▁fan	-5035
ami	-5036
âteau	-5037
▁pant	-5038
rodu	-5039
▁prove	-5040
osse	-5041
▁upset	-5042
▁standing	-5043
▁pours	-5044
▁cigare	-5045
▁partner	-5046
▁jolie	-5047
▁nulle	-5048
▁pourra	-5049
▁impression	-5050
ôme	-5051
▁LI	-5052
▁poste	-5053
lève	-5054
▁vin	-5055
▁rich	-5056
▁inj	-5057
▁note	-5058
▁payé	-5059
▁médic	-5060
▁ramener	-5061
asy	-5062
étique	-5063
ived	-5064
▁blessé	-5065
▁triste	-5066
▁tit	-5067
▁Dép	-5068
▁rum	-5069
▁aimé	-5070
▁déch	-5071
entendre	-5072
▁gener	-5073
OME	-5074
▁lay	-5075
▁cacher	-5076
▁connaître	-5077
mis	-5078
ooper	-5079
▁ladies	-5080
▁devriez	-5081
▁action	-5082
▁occupé	-5083
▁White	-5084
▁dame	-5085
▁lawyer	-5086
▁én	-5087
▁essaie	-5088
▁portes	-5089
▁docu	-5090
huh	-5091
▁Jon	-5092
▁pray	-5093
▁arrest	-5094
▁boyfriend	-5095
bie	-5096
irez	-5097
noon	-5098
▁finished	-5099
▁découvert	-5100
▁Whoo	-5101
▁Louis	-5102
hew	-5103
▁Ham	-5104
▁crit	-5105
▁nett	-5106
▁Kevin	-5107
▁Claire	-5108
réc	-5109
▁Chin	-5110
▁21	-5111
mbler	-5112
urance	-5113
▁Master	-5114
ini	-5115
▁Open	-5116
hington	-5117
▁représ	-5118
▁tombe	-5119
▁Mex	-5120
gment	-5121
▁coucher	-5122
ouvre	-5123
▁spot	-5124
▁bird	-5125
▁connaît	-5126
aies	-5127
ulous	-5128
▁droite	-5129
▁vendre	-5130
ende	-5131
▁gas	-5132
▁salope	-5133
▁foutre	-5134
▁sept	-5135
▁serve	-5136
▁Sit	-5137
▁assis	-5138
pecially	-5139
▁grands	-5140
▁darling	-5141
▁employ	-5142
IL	-5143
▁sé	-5144
▁Ét	-5145
▁auras	-5146
▁magic	-5147
▁ouvert	-5148
▁Van	-5149
▁mic	-5150
emple	-5151
▁activ	-5152
▁secours	-5153
ril	-5154
▁KN	-5155
▁master	-5156
▁règles	-5157
▁Rachel	-5158
▁Ter	-5159
pected	-5160
▁choisi	-5161
▁conseil	-5162
▁cand	-5163
ologie	-5164
▁pier	-5165
▁seat	-5166
host	-5167
▁low	-5168
▁Victor	-5169
▁Anything	-5170
▁cro	-5171
▁disais	-5172
▁cops	-5173
▁environ	-5174
astic	-5175
attends	-5176
▁feels	-5177
▁within	-5178
ament	-5179
▁Mets	-5180
instant	-5181
▁preuves	-5182
▁baiser	-5183
▁anniversaire	-5184
▁ALL	-5185
outes	-5186
▁récupérer	-5187
▁Has	-5188
armée	-5189
▁dam	-5190
▁gift	-5191
sey	-5192
▁bour	-5193
▁disait	-5194
▁jail	-5195
▁nive	-5196
▁Gener	-5197
▁Jerry	-5198
▁curi	-5199
▁angry	-5200
uelle	-5201
▁race	-5202
▁Street	-5203
▁camion	-5204
▁seconds	-5205
icier	-5206
▁Honey	-5207
UST	-5208
▁MY	-5209
▁Last	-5210
▁decision	-5211
▁sor	-5212
▁poul	-5213
ho	-5214
▁bec	-5215
▁interesting	-5216
tout	-5217
den	-5218
dames	-5219
▁Sors	-5220
▁libert	-5221
osition	-5222
You	-5223
▁âge	-5224
▁recogn	-5225
igne	-5226
aremment	-5227
gas	-5228
▁embarr	-5229
▁drogue	-5230
▁apprendre	-5231
▁réunion	-5232
▁deuxième	-5233
▁Bu	-5234
▁Before	-5235
▁grosse	-5236
boy	-5237
mond	-5238
▁danse	-5239
▁lived	-5240
▁Washington	-5241
▁president	-5242
▁appreciate	-5243
▁dieu	-5244
▁doubt	-5245
gnant	-5246
▁Turn	-5247
▁Roger	-5248
cut	-5249
▁mou	-5250
oindre	-5251
▁mett	-5252
▁Thomas	-5253
▁nation	-5254
▁host	-5255
▁block	-5256
▁embr	-5257
▁buck	-5258
inv	-5259
▁cad	-5260
▁malad	-5261
▁equ	-5262
▁hurry	-5263
rin	-5264
▁jeter	-5265
RO	-5266
how	-5267
▁Six	-5268
ham	-5269
▁starting	-5270
▁vamp	-5271
▁dépl	-5272
érience	-5273
▁blind	-5274
abilité	-5275
▁Comp	-5276
▁Wor	-5277
cious	-5278
ordre	-5279
▁poison	-5280
▁Larry	-5281
▁Anna	-5282
▁health	-5283
▁flic	-5284
▁guest	-5285
▁instru	-5286
▁lovely	-5287
▁ressent	-5288
▁remind	-5289
▁terrain	-5290
irai	-5291
▁WAS	-5292
ology	-5293
▁sett	-5294
▁weapon	-5295
veilleux	-5296
▁fus	-5297
▁sim	-5298
TER	-5299
▁roy	-5300
▁aviez	-5301
▁parie	-5302
▁loves	-5303
uré	-5304
▁Tant	-5305
▁liked	-5306
▁étrange	-5307
▁cele	-5308
▁named	-5309
▁signe	-5310
▁certainly	-5311
acun	-5312
ombe	-5313
▁large	-5314
▁profond	-5315
do	-5316
5.	-5317
lyn	-5318
▁Président	-5319
cie	-5320
esse	-5321
ompl	-5322
▁likes	-5323
▁unless	-5324
▁holding	-5325
▁particul	-5326
▁signifie	-5327
▁afternoon	-5328
▁bother	-5329
▁private	-5330
aker	-5331
▁pauvre	-5332
ef	-5333
▁retrouv	-5334
▁Sk	-5335
ares	-5336
uler	-5337
▁Ju	-5338
▁stuck	-5339
▁perform	-5340
▁Gar	-5341
▁neck	-5342
▁immed	-5343
▁source	-5344
▁YOUR	-5345
▁500	-5346
idez	-5347
▁fit	-5348
lor	-5349
▁rappelle	-5350
▁none	-5351
▁soup	-5352
▁Rome	-5353
▁hô	-5354
▁Prom	-5355
▁upon	-5356
▁science	-5357
agement	-5358
vis	-5359
▁soient	-5360
▁Grace	-5361
▁venez	-5362
▁Dire	-5363
▁certains	-5364
inion	-5365
▁sortie	-5366
onge	-5367
▁DON	-5368
▁vot	-5369
▁tend	-5370
ga	-5371
cture	-5372
▁savent	-5373
▁couvert	-5374
▁direction	-5375
▁level	-5376
▁Jean	-5377
▁Lady	-5378
▁walking	-5379
▁cancer	-5380
▁Tri	-5381
▁dirige	-5382
▁ciel	-5383
▁explos	-5384
airement	-5385
▁gal	-5386
▁comfort	-5387
▁officer	-5388
▁Tw	-5389
rière	-5390
▁evil	-5391
▁Dégage	-5392
▁Capitaine	-5393
hole	-5394
tume	-5395
1.	-5396
▁ur	-5397
▁Cool	-5398
▁address	-5399
▁deserve	-5400
▁admit	-5401
▁tromp	-5402
▁France	-5403
▁étions	-5404
▁Swe	-5405
▁Next	-5406
▁General	-5407
▁US	-5408
▁Brian	-5409
vi	-5410
▁responsable	-5411
ancé	-5412
ened	-5413
▁Und	-5414
▁robe	-5415
import	-5416
▁worst	-5417
cool	-5418
velopp	-5419
▁Exact	-5420
▁débarr	-5421
▁Kate	-5422
▁dirai	-5423
▁dying	-5424
▁often	-5425
oise	-5426
▁simplement	-5427
sique	-5428
ji	-5429
▁Vite	-5430
▁rare	-5431
▁condu	-5432
▁sauvé	-5433
▁fatigu	-5434
▁college	-5435
▁solution	-5436
lley	-5437
▁toilettes	-5438
▁wrote	-5439
▁relax	-5440
ensive	-5441
▁appart	-5442
▁NOT	-5443
▁rain	-5444
▁dossier	-5445
▁douleur	-5446
cue	-5447
▁SE	-5448
▁vote	-5449
inqui	-5450
▁dude	-5451
▁rêves	-5452
▁cup	-5453
▁Uncle	-5454
▁patients	-5455
night	-5456
▁honte	-5457
▁Profess	-5458
▁loy	-5459
▁crap	-5460
▁Aucun	-5461
▁spl	-5462
▁enne	-5463
▁planète	-5464
▁pretend	-5465
emmener	-5466
▁Dave	-5467
▁sake	-5468
▁imméd	-5469
▁Pete	-5470
▁cult	-5471
▁crack	-5472
▁tombé	-5473
issement	-5474
▁Mec	-5475
▁Park	-5476
wise	-5477
2.	-5478
▁Sel	-5479
▁cast	-5480
▁élect	-5481
ores	-5482
▁Little	-5483
▁forces	-5484
tective	-5485
eil	-5486
▁tel	-5487
asseoir	-5488
▁sauf	-5489
isions	-5490
▁chère	-5491
▁satisf	-5492
▁bastard	-5493
▁Tes	-5494
▁Im	-5495
▁Jac	-5496
▁Police	-5497
▁Somebody	-5498
wich	-5499
oué	-5500
uls	-5501
▁Conn	-5502
▁risk	-5503
▁planet	-5504
▁Cour	-5505
▁Time	-5506
▁ordres	-5507
TH	-5508
▁joke	-5509
▁regardé	-5510
▁volont	-5511
▁cred	-5512
▁owe	-5513
▁difference	-5514
▁High	-5515
field	-5516
▁vert	-5517
urope	-5518
▁godd	-5519
▁enfer	-5520
▁NE	-5521
▁Compris	-5522
▁connard	-5523
▁ge	-5524
▁habit	-5525
▁except	-5526
▁revenu	-5527
▁propres	-5528
▁devient	-5529
▁héros	-5530
▁success	-5531
▁rules	-5532
▁Ass	-5533
▁maître	-5534
▁promised	-5535
gal	-5536
rid	-5537
▁text	-5538
▁contrô	-5539
▁guard	-5540
▁prêts	-5541
▁associ	-5542
▁humain	-5543
aissance	-5544
▁rid	-5545
▁piss	-5546
▁page	-5547
▁became	-5548
Le	-5549
▁II	-5550
▁surtout	-5551
▁pleasure	-5552
cter	-5553
▁confir	-5554
▁promets	-5555
▁plain	-5556
▁hol	-5557
▁putting	-5558
▁Check	-5559
▁conduire	-5560
▁découvrir	-5561
▁third	-5562
▁interview	-5563
élicitations	-5564
oring	-5565
ITH	-5566
▁Aut	-5567
▁Star	-5568
▁draw	-5569
▁targ	-5570
▁résult	-5571
▁whether	-5572
▁Andy	-5573
▁60	-5574
icious	-5575
▁inqui	-5576
▁Ye	-5577
▁HAVE	-5578
▁Way	-5579
▁continu	-5580
ouser	-5581
▁ennuis	-5582
▁assassin	-5583
▁expert	-5584
▁Ber	-5585
atic	-5586
▁nez	-5587
▁Cent	-5588
▁jack	-5589
▁shop	-5590
▁driving	-5591
Am	-5592
▁ow	-5593
mine	-5594
▁inde	-5595
lant	-5596
▁Hall	-5597
▁cute	-5598
year	-5599
▁Ms	-5600
▁spr	-5601
▁camera	-5602
▁frapper	-5603
▁reb	-5604
ourne	-5605
.....	-5606
iny	-5607
▁Enfin	-5608
▁fenêtre	-5609
agon	-5610
▁chocol	-5611
▁esprit	-5612
▁charm	-5613
dom	-5614
ained	-5615
▁Show	-5616
▁hungry	-5617
▁House	-5618
▁Tais	-5619
▁romant	-5620
ract	-5621
An	-5622
▁gam	-5623
▁équ	-5624
▁KNOW	-5625
▁suicide	-5626
▁Di	-5627
▁proche	-5628
▁ele	-5629
arently	-5630
▁celebr	-5631
▁site	-5632
▁comprend	-5633
▁beginning	-5634
eding	-5635
▁bain	-5636
▁push	-5637
▁necess	-5638
▁grâce	-5639
▁croyez	-5640
iquement	-5641
▁access	-5642
▁pensait	-5643
▁Too	-5644
oiselle	-5645
once	-5646
ratulations	-5647
▁Sn	-5648
fast	-5649
▁travaillé	-5650
▁hun	-5651
ently	-5652
▁bleu	-5653
▁ach	-5654
▁Jason	-5655
enir	-5656
▁sleeping	-5657
lli	-5658
agent	-5659
ouer	-5660
▁contente	-5661
▁skin	-5662
▁relig	-5663
▁derniers	-5664
RI	-5665
▁nombre	-5666
▁ador	-5667
▁trom	-5668
▁figured	-5669
ubl	-5670
▁costume	-5671
▁programme	-5672
RA	-5673
▁voie	-5674
▁effray	-5675
▁willing	-5676
▁forgive	-5677
hôtel	-5678
▁computer	-5679
avo	-5680
vey	-5681
▁English	-5682
▁appartement	-5683
▁Ver	-5684
▁parc	-5685
▁Toutes	-5686
▁staying	-5687
▁por	-5688
ifier	-5689
▁Stu	-5690
▁tun	-5691
▁Josh	-5692
▁Steph	-5693
heur	-5694
▁présenter	-5695
▁army	-5696
▁dipl	-5697
▁places	-5698
▁prouver	-5699
fuck	-5700
▁Rock	-5701
▁quar	-5702
▁niveau	-5703
▁remerci	-5704
UN	-5705
astique	-5706
▁meilleurs	-5707
▁tim	-5708
▁sache	-5709
ctement	-5710
▁elect	-5711
rice	-5712
èque	-5713
érit	-5714
▁typ	-5715
▁éner	-5716
▁Assieds	-5717
▁phys	-5718
▁picked	-5719
gle	-5720
▁warm	-5721
▁Patri	-5722
▁Entrez	-5723
▁marier	-5724
▁learned	-5725
▁Elles	-5726
▁pleine	-5727
ero	-5728
▁Mess	-5729
ander	-5730
ommes	-5731
▁ourselves	-5732
▁amoureux	-5733
reed	-5734
▁wine	-5735
▁appl	-5736
▁bite	-5737
▁rencontre	-5738
▁sentiment	-5739
▁bonjour	-5740
issez	-5741
▁Chief	-5742
▁connaissez	-5743
▁Ly	-5744
▁McC	-5745
▁coû	-5746
▁reach	-5747
ja	-5748
▁Bur	-5749
▁Pouvez	-5750
▁object	-5751
▁Want	-5752
▁bière	-5753
merg	-5754
▁church	-5755
▁sum	-5756
▁ence	-5757
▁ouver	-5758
▁style	-5759
▁Baby	-5760
▁weak	-5761
▁perhaps	-5762
▁hi	-5763
▁cass	-5764
▁French	-5765
shit	-5766
▁apporté	-5767
▁jug	-5768
▁passion	-5769
▁sport	-5770
▁pensent	-5771
▁Bud	-5772
▁Clark	-5773
▁répondre	-5774
▁wood	-5775
▁écl	-5776
▁feelings	-5777
▁tight	-5778
▁pig	-5779
▁diam	-5780
▁trick	-5781
ropri	-5782
▁bunch	-5783
▁Doc	-5784
appell	-5785
▁Calme	-5786
▁listening	-5787
▁ceci	-5788
oncer	-5789
▁Dete	-5790
▁corresp	-5791
oyez	-5792
▁Bes	-5793
hi	-5794
▁trah	-5795
▁Bat	-5796
▁banque	-5797
▁Lisa	-5798
▁Voyons	-5799
▁chances	-5800
iale	-5801
▁net	-5802
▁cache	-5803
▁gives	-5804
cles	-5805
ended	-5806
récie	-5807
eule	-5808
▁étrang	-5809
▁directeur	-5810
▁merveilleux	-5811
iennes	-5812
▁choisir	-5813
▁films	-5814
▁peau	-5815
▁prét	-5816
▁restes	-5817
▁themselves	-5818
▁suck	-5819
▁vision	-5820
▁bow	-5821
▁mignon	-5822
▁Four	-5823
urther	-5824
Ar	-5825
▁Russi	-5826
ym	-5827
atif	-5828
ached	-5829
heart	-5830
▁Today	-5831
assurer	-5832
▁Five	-5833
voir	-5834
▁huit	-5835
▁arrière	-5836
▁huge	-5837
▁permission	-5838
back	-5839
pper	-5840
▁Gri	-5841
▁hyp	-5842
▁eating	-5843
▁escape	-5844
▁frappé	-5845
ror	-5846
ément	-5847
▁hadn	-5848
▁pont	-5849
▁dreams	-5850
▁pareil	-5851
encer	-5852
▁Simon	-5853
▁glace	-5854
▁sauter	-5855
▁passed	-5856
▁yell	-5857
▁Bring	-5858
▁secr	-5859
▁unif	-5860
▁Holly	-5861
▁blame	-5862
itchen	-5863
▁famil	-5864
▁sea	-5865
▁coute	-5866
▁herself	-5867
▁sûrement	-5868
uce	-5869
▁tree	-5870
▁result	-5871
AND	-5872
ènes	-5873
▁Jenn	-5874
▁judge	-5875
▁drugs	-5876
▁quickly	-5877
issent	-5878
▁names	-5879
▁Greg	-5880
▁hole	-5881
▁cy	-5882
oking	-5883
▁moments	-5884
Tu	-5885
ttes	-5886
hel	-5887
▁pourraient	-5888
▁prête	-5889
▁rendu	-5890
thur	-5891
atherine	-5892
abeth	-5893
▁correct	-5894
alous	-5895
▁vies	-5896
▁divorce	-5897
▁Sauf	-5898
esome	-5899
▁bombe	-5900
▁football	-5901
mande	-5902
▁absolutely	-5903
▁correspond	-5904
▁piz	-5905
▁Brit	-5906
▁Chic	-5907
▁Marc	-5908
▁lune	-5909
▁consid	-5910
▁Run	-5911
rocher	-5912
▁faith	-5913
▁mount	-5914
▁Cy	-5915
▁ours	-5916
ila	-5917
kin	-5918
▁riv	-5919
emy	-5920
▁22	-5921
osed	-5922
▁Vir	-5923
▁fail	-5924
▁Alright	-5925
▁Ot	-5926
▁pourriez	-5927
▁parole	-5928
▁Norm	-5929
▁sympa	-5930
▁Smith	-5931
▁video	-5932
▁chanter	-5933
▁pregnant	-5934
▁immédiate	-5935
▁tea	-5936
▁fresh	-5937
iately	-5938
▁mangé	-5939
▁shoes	-5940
▁Sois	-5941
▁Francis	-5942
▁longue	-5943
rel	-5944
ners	-5945
▁oeil	-5946
ishing	-5947
▁futur	-5948
arrière	-5949
▁foc	-5950
▁danser	-5951
▁mérite	-5952
ola	-5953
▁connu	-5954
▁enemy	-5955
▁Hit	-5956
▁Mus	-5957
▁author	-5958
▁Kyle	-5959
▁stole	-5960
▁coupable	-5961
▁Cher	-5962
ader	-5963
ucky	-5964
▁arms	-5965
OULD	-5966
▁choose	-5967
▁hoping	-5968
!"	-5969
▁decide	-5970
▁$1	-5971
▁santé	-5972
▁surpris	-5973
▁Dar	-5974
▁Dor	-5975
▁cer	-5976
Oh	-5977
▁Inc	-5978
▁pét	-5979
▁agents	-5980
▁protection	-5981
geant	-5982
▁toucher	-5983
▁bathroom	-5984
asc	-5985
icip	-5986
ilty	-5987
▁Rel	-5988
▁beer	-5989
▁dare	-5990
▁tape	-5991
▁helping	-5992
kins	-5993
▁seuls	-5994
▁menti	-5995
alité	-5996
▁savons	-5997
▁amus	-5998
▁serez	-5999
opt	-6000
orie	-6001
▁lic	-6002
alys	-6003
▁hook	-6004
▁poursui	-6005
anda	-6006
atte	-6007
▁favorite	-6008
▁taille	-6009
rique	-6010
▁myst	-6011
▁Emily	-6012
▁lè	-6013
CT	-6014
▁price	-6015
▁locked	-6016
▁clim	-6017
▁témoin	-6018
▁Cin	-6019
▁taxi	-6020
▁dirty	-6021
rod	-6022
▁bear	-6023
▁lors	-6024
mbers	-6025
▁Ugh	-6026
▁intelligent	-6027
onds	-6028
itten	-6029
▁Hell	-6030
▁harm	-6031
▁prévu	-6032
velop	-6033
▁né	-6034
▁grab	-6035
▁fired	-6036
▁Happy	-6037
▁lieutenant	-6038
▁Ohh	-6039
époque	-6040
▁Detective	-6041
▁silence	-6042
▁Kill	-6043
▁AT	-6044
▁trace	-6045
aron	-6046
▁battle	-6047
▁flight	-6048
▁enceinte	-6049
▁dernières	-6050
▁apart	-6051
▁allowed	-6052
▁hat	-6053
▁faud	-6054
▁Certains	-6055
▁Attention	-6056
▁Luke	-6057
▁société	-6058
▁péri	-6059
▁WITH	-6060
▁books	-6061
▁medic	-6062
▁procès	-6063
▁partenaire	-6064
▁den	-6065
▁obs	-6066
utation	-6067
▁Carter	-6068
▁jury	-6069
▁dingue	-6070
▁spirit	-6071
▁wondering	-6072
itty	-6073
icate	-6074
▁orders	-6075
▁hello	-6076
▁CAN	-6077
▁saf	-6078
▁atta	-6079
▁uncle	-6080
CE	-6081
▁liqu	-6082
▁Aucune	-6083
xim	-6084
ample	-6085
▁'.	-6086
▁Lib	-6087
▁rends	-6088
▁bigger	-6089
▁social	-6090
▁keeping	-6091
▁dent	-6092
ext	-6093
▁mob	-6094
acon	-6095
▁rub	-6096
▁interest	-6097
▁pir	-6098
▁avis	-6099
▁gueule	-6100
▁earl	-6101
▁informations	-6102
eter	-6103
onom	-6104
▁ways	-6105
▁poign	-6106
▁Haw	-6107
▁projet	-6108
▁egg	-6109
ésus	-6110
ifié	-6111
▁contract	-6112
èner	-6113
▁Liz	-6114
▁pén	-6115
▁rese	-6116
▁différence	-6117
▁sexe	-6118
▁terrif	-6119
inf	-6120
▁duty	-6121
atoire	-6122
▁design	-6123
▁frères	-6124
▁pictures	-6125
can	-6126
ians	-6127
light	-6128
▁Saint	-6129
cs	-6130
iforn	-6131
▁goddamn	-6132
▁violence	-6133
▁chaussures	-6134
▁Venez	-6135
▁Chicago	-6136
▁opinion	-6137
icated	-6138
▁weekend	-6139
▁Marsh	-6140
▁boute	-6141
▁refuse	-6142
adm	-6143
tit	-6144
▁Lad	-6145
▁Charl	-6146
▁helped	-6147
▁Kelly	-6148
▁liberté	-6149
▁tourner	-6150
▁détruire	-6151
isant	-6152
▁wild	-6153
aband	-6154
▁prise	-6155
▁ordre	-6156
▁showed	-6157
▁parad	-6158
▁seriously	-6159
▁!"	-6160
▁Imp	-6161
▁Ken	-6162
PP	-6163
auté	-6164
▁presse	-6165
▁politique	-6166
▁further	-6167
▁Leon	-6168
▁cabin	-6169
▁memory	-6170
▁Aren	-6171
▁servir	-6172
oned	-6173
▁Ench	-6174
▁tests	-6175
▁immediately	-6176
illa	-6177
▁Guys	-6178
▁hero	-6179
CK	-6180
▁Dun	-6181
▁tor	-6182
omer	-6183
▁Rest	-6184
▁amené	-6185
▁ray	-6186
▁guns	-6187
▁pression	-6188
▁sandwich	-6189
▁nose	-6190
▁ARE	-6191
▁aies	-6192
▁stage	-6193
-1	-6194
▁enreg	-6195
▁monte	-6196
got	-6197
oids	-6198
▁Jose	-6199
▁rôle	-6200
▁stock	-6201
▁German	-6202
▁jambes	-6203
▁nécessaire	-6204
▁project	-6205
▁Emma	-6206
aimais	-6207
▁green	-6208
▁23	-6209
▁Bern	-6210
▁mouve	-6211
▁acting	-6212
▁Tay	-6213
issed	-6214
▁Rép	-6215
▁ore	-6216
▁incl	-6217
▁magaz	-6218
hin	-6219
▁Ses	-6220
▁Essaie	-6221
▁remarqué	-6222
gez	-6223
▁âme	-6224
nelle	-6225
▁target	-6226
▁accompl	-6227
▁Yep	-6228
▁Forget	-6229
moiselle	-6230
ALL	-6231
iana	-6232
▁Ash	-6233
▁closed	-6234
▁oublier	-6235
▁gaz	-6236
▁lun	-6237
▁glass	-6238
ède	-6239
ommage	-6240
▁plant	-6241
LY	-6242
ivre	-6243
▁détest	-6244
▁JUST	-6245
▁surface	-6246
▁quartier	-6247
mit	-6248
Al	-6249
alon	-6250
midi	-6251
▁Sand	-6252
▁Major	-6253
▁parlez	-6254
▁Aujourd	-6255
▁teacher	-6256
▁'?	-6257
▁vacances	-6258
▁everywhere	-6259
espace	-6260
oublie	-6261
▁Barb	-6262
▁Annie	-6263
▁waste	-6264
▁fortune	-6265
▁surveillance	-6266
▁ener	-6267
▁entend	-6268
▁Jackson	-6269
▁kitchen	-6270
ito	-6271
▁LE	-6272
▁Bons	-6273
▁déclar	-6274
▁lequel	-6275
▁Dam	-6276
▁sle	-6277
gress	-6278
otter	-6279
▁London	-6280
▁responsible	-6281
▁Jésus	-6282
▁terminé	-6283
▁drinking	-6284
verse	-6285
50	-6286
▁aidé	-6287
▁marre	-6288
▁nouveaux	-6289
▁Alan	-6290
▁reine	-6291
▁hiding	-6292
▁Seulement	-6293
▁Eliz	-6294
▁Garde	-6295
▁pardon	-6296
▁stress	-6297
utiliser	-6298
▁manager	-6299
▁medical	-6300
▁pose	-6301
fortun	-6302
▁compt	-6303
▁venus	-6304
▁neighbor	-6305
▁troisième	-6306
iné	-6307
▁Hank	-6308
ulaire	-6309
▁exemple	-6310
▁played	-6311
moire	-6312
▁Chuck	-6313
▁effect	-6314
law	-6315
▁cock	-6316
▁Exactement	-6317
arc	-6318
▁Jer	-6319
▁bête	-6320
▁clin	-6321
alie	-6322
▁immédiatement	-6323
▁mid	-6324
eless	-6325
uction	-6326
anie	-6327
▁Cast	-6328
▁Nos	-6329
▁réel	-6330
▁guilty	-6331
▁gagne	-6332
eze	-6333
▁whis	-6334
▁Hum	-6335
▁crew	-6336
▁legs	-6337
▁usually	-6338
▁natur	-6339
▁Jamais	-6340
▁gotten	-6341
▁Brad	-6342
aching	-6343
▁sight	-6344
▁sentiments	-6345
alt	-6346
▁MA	-6347
▁writing	-6348
▁shooting	-6349
▁invité	-6350
▁Besides	-6351
▁taste	-6352
▁km	-6353
▁Den	-6354
▁boo	-6355
enses	-6356
▁South	-6357
▁mètres	-6358
▁tru	-6359
▁marié	-6360
▁bullet	-6361
▁arrivée	-6362
▁introdu	-6363
▁speaking	-6364
ko	-6365
jets	-6366
▁notes	-6367
▁dure	-6368
opping	-6369
▁Exactly	-6370
▁dents	-6371
▁frais	-6372
▁Nor	-6373
avion	-6374
cil	-6375
▁Dick	-6376
▁distance	-6377
▁common	-6378
rate	-6379
▁arres	-6380
▁murdered	-6381
RY	-6382
▁faits	-6383
pping	-6384
▁seemed	-6385
▁Goodbye	-6386
▁Up	-6387
▁Jun	-6388
apons	-6389
▁fich	-6390
▁plat	-6391
▁Arthur	-6392
▁miracle	-6393
gery	-6394
inct	-6395
▁joy	-6396
▁chev	-6397
▁petites	-6398
▁obviously	-6399
▁Prince	-6400
▁bouger	-6401
▁surprised	-6402
▁AS	-6403
▁phy	-6404
▁Most	-6405
▁Toute	-6406
▁ing	-6407
▁monstre	-6408
7.	-6409
ender	-6410
▁tourne	-6411
▁complete	-6412
▁remercier	-6413
▁Rod	-6414
▁Prem	-6415
œil	-6416
▁Trop	-6417
▁départ	-6418
▁market	-6419
▁Docteur	-6420
▁rire	-6421
▁bruit	-6422
▁convince	-6423
OL	-6424
▁soyez	-6425
▁tourn	-6426
▁lycée	-6427
▁occuper	-6428
▁upstairs	-6429
▁tient	-6430
▁copine	-6431
apprécie	-6432
▁prince	-6433
rine	-6434
▁Girl	-6435
▁aill	-6436
▁Maria	-6437
▁Bonsoir	-6438
▁Californ	-6439
ints	-6440
▁built	-6441
▁$.	-6442
▁total	-6443
▁tradition	-6444
▁Day	-6445
▁Maître	-6446
▁partis	-6447
▁arrived	-6448
▁AB	-6449
▁Env	-6450
mergency	-6451
▁empty	-6452
▁verra	-6453
aph	-6454
alent	-6455
ledge	-6456
▁potent	-6457
▁énorme	-6458
bel	-6459
erty	-6460
▁démén	-6461
▁Er	-6462
▁Lucy	-6463
▁Maggie	-6464
▁leader	-6465
▁parking	-6466
▁prisonn	-6467
▁ferm	-6468
▁smoke	-6469
▁vidéo	-6470
▁nervous	-6471
▁carrière	-6472
▁os	-6473
▁Doesn	-6474
université	-6475
▁Crois	-6476
▁losing	-6477
▁planning	-6478
▁Dude	-6479
enfant	-6480
▁Parle	-6481
▁twice	-6482
▁garage	-6483
▁opportunity	-6484
venez	-6485
▁color	-6486
ièrement	-6487
por	-6488
▁foi	-6489
ipped	-6490
▁coups	-6491
▁smile	-6492
▁Another	-6493
▁pressure	-6494
▁Félicitations	-6495
reng	-6496
attendais	-6497
▁Were	-6498
▁jeté	-6499
iger	-6500
excuser	-6501
▁té	-6502
▁oise	-6503
redi	-6504
▁symb	-6505
▁champion	-6506
▁Han	-6507
glais	-6508
▁becom	-6509
▁pouss	-6510
▁Appelle	-6511
▁earlier	-6512
▁cassé	-6513
▁finger	-6514
▁remain	-6515
▁ridicule	-6516
▁meu	-6517
▁noms	-6518
▁following	-6519
▁Ron	-6520
uring	-6521
▁mult	-6522
▁Ain	-6523
▁sche	-6524
▁moon	-6525
▁dépend	-6526
ancing	-6527
▁crying	-6528
▁itself	-6529
▁keeps	-6530
cca	-6531
zen	-6532
▁Los	-6533
▁Pier	-6534
▁closer	-6535
▁pulled	-6536
▁request	-6537
▁tien	-6538
bri	-6539
▁Jenny	-6540
nc	-6541
run	-6542
▁réfléchir	-6543
aper	-6544
ennis	-6545
▁consc	-6546
▁tar	-6547
▁allée	-6548
umes	-6549
▁GET	-6550
▁Find	-6551
▁riche	-6552
▁servi	-6553
urgence	-6554
zo	-6555
▁CIA	-6556
▁Joey	-6557
▁Brown	-6558
▁Espèce	-6559
▁fuckin	-6560
▁reading	-6561
▁réalisé	-6562
ato	-6563
abil	-6564
▁Must	-6565
▁chacun	-6566
▁military	-6567
▁lis	-6568
▁Sean	-6569
▁Wood	-6570
▁turns	-6571
▁Marie	-6572
▁prépar	-6573
▁Green	-6574
▁lâche	-6575
▁services	-6576
ieuse	-6577
▁retourne	-6578
▁transport	-6579
▁ghost	-6580
▁écrire	-6581
reur	-6582
▁Tor	-6583
▁ash	-6584
▁deg	-6585
▁Alice	-6586
▁wound	-6587
odes	-6588
quis	-6589
▁Ferme	-6590
▁Miche	-6591
▁bloody	-6592
▁captain	-6593
▁regardez	-6594
▁Walk	-6595
ription	-6596
▁Désolée	-6597
▁conduis	-6598
▁intérêt	-6599
ference	-6600
▁fleurs	-6601
▁proper	-6602
▁Count	-6603
▁300	-6604
▁Lily	-6605
▁roul	-6606
▁Young	-6607
▁island	-6608
▁manqué	-6609
▁Intern	-6610
▁voudrait	-6611
etty	-6612
▁Demain	-6613
▁dév	-6614
▁spoke	-6615
▁rappeler	-6616
ieve	-6617
though	-6618
ARD	-6619
▁Dean	-6620
▁breakfast	-6621
▁fave	-6622
▁poin	-6623
▁forte	-6624
▁Europe	-6625
▁energy	-6626
down	-6627
reen	-6628
inture	-6629
▁couteau	-6630
▁remettre	-6631
ardin	-6632
▁humains	-6633
▁morceau	-6634
▁dump	-6635
edy	-6636
▁chall	-6637
▁foutu	-6638
▁médec	-6639
▁beauté	-6640
▁tribun	-6641
▁walked	-6642
▁supporter	-6643
ibles	-6644
âch	-6645
▁concl	-6646
▁virus	-6647
▁défense	-6648
▁Kid	-6649
▁mecs	-6650
▁due	-6651
▁sud	-6652
▁avions	-6653
île	-6654
apan	-6655
▁vain	-6656
▁préparer	-6657
ech	-6658
org	-6659
espér	-6660
▁tells	-6661
▁maladie	-6662
▁trouves	-6663
riv	-6664
▁Gib	-6665
▁hur	-6666
▁whe	-6667
▁purp	-6668
▁above	-6669
▁ticket	-6670
▁pleurer	-6671
dé	-6672
lder	-6673
▁held	-6674
mat	-6675
ivement	-6676
▁arrivent	-6677
elez	-6678
haut	-6679
▁mate	-6680
▁étoi	-6681
▁Sweet	-6682
expliquer	-6683
▁descendre	-6684
▁load	-6685
▁renv	-6686
▁compét	-6687
▁arrange	-6688
▁faisons	-6689
▁Leo	-6690
ffe	-6691
▁Nik	-6692
▁joli	-6693
illon	-6694
▁trial	-6695
oms	-6696
,...	-6697
▁gorge	-6698
▁unique	-6699
▁Nathan	-6700
▁alright	-6701
▁Gold	-6702
▁bande	-6703
▁80	-6704
yond	-6705
▁Unt	-6706
▁pure	-6707
▁image	-6708
▁Prenez	-6709
mail	-6710
▁knowing	-6711
▁Tre	-6712
▁view	-6713
▁stars	-6714
▁Taylor	-6715
▁credit	-6716
▁corner	-6717
▁weapons	-6718
▁bare	-6719
▁North	-6720
▁Sounds	-6721
va	-6722
ida	-6723
▁réd	-6724
▁nine	-6725
▁papier	-6726
▁Doucement	-6727
icer	-6728
▁hearing	-6729
▁brothers	-6730
▁Harr	-6731
▁Dépêche	-6732
intes	-6733
odies	-6734
▁nord	-6735
▁univers	-6736
▁piég	-6737
▁assure	-6738
▁colonel	-6739
▁ressens	-6740
▁breath	-6741
▁couper	-6742
▁famili	-6743
▁Hot	-6744
▁Mama	-6745
▁apologize	-6746
▁caméra	-6747
▁develop	-6748
▁Congratulations	-6749
ACK	-6750
esc	-6751
▁Dix	-6752
▁Nat	-6753
▁Wil	-6754
▁tante	-6755
▁Mi	-6756
▁incred	-6757
ands	-6758
▁spéci	-6759
cel	-6760
arp	-6761
ètes	-6762
▁cartes	-6763
▁incident	-6764
oue	-6765
seyez	-6766
▁Susan	-6767
▁career	-6768
▁streng	-6769
Unis	-6770
ivid	-6771
vres	-6772
▁BUT	-6773
▁principal	-6774
▁investigation	-6775
▁mix	-6776
renez	-6777
▁soud	-6778
▁Barry	-6779
▁Bravo	-6780
attraper	-6781
▁Med	-6782
occupe	-6783
▁Londres	-6784
▁retrait	-6785
▁Enchanté	-6786
▁strength	-6787
apt	-6788
cia	-6789
▁Cut	-6790
▁Laura	-6791
▁kidnapp	-6792
▁records	-6793
ending	-6794
▁touché	-6795
8.	-6796
▁Ross	-6797
▁summer	-6798
▁pert	-6799
cies	-6800
itor	-6801
▁Robin	-6802
▁école	-6803
▁fermer	-6804
▁Better	-6805
▁pourras	-6806
▁Eve	-6807
▁excited	-6808
▁Sud	-6809
usted	-6810
▁charges	-6811
incess	-6812
▁asshole	-6813
▁Mo	-6814
▁bene	-6815
▁Kr	-6816
▁telle	-6817
▁Jones	-6818
▁manière	-6819
▁Hor	-6820
▁courir	-6821
▁entier	-6822
▁ridiculous	-6823
istol	-6824
▁folks	-6825
▁pizza	-6826
3.	-6827
enge	-6828
▁Gary	-6829
▁daddy	-6830
▁gérer	-6831
▁myster	-6832
▁hanging	-6833
▁attendez	-6834
▁ought	-6835
usc	-6836
▁Vos	-6837
▁candid	-6838
iano	-6839
▁Fel	-6840
▁park	-6841
▁appar	-6842
inquiéter	-6843
▁partager	-6844
4.	-6845
OP	-6846
ords	-6847
▁clo	-6848
▁among	-6849
▁separ	-6850
▁concert	-6851
▁suddenly	-6852
9.	-6853
▁certaines	-6854
▁gê	-6855
▁bra	-6856
▁envoyer	-6857
▁powerful	-6858
iés	-6859
▁Ê	-6860
▁Tob	-6861
enfer	-6862
▁Beck	-6863
▁argu	-6864
▁arch	-6865
▁larg	-6866
▁Stand	-6867
▁histoires	-6868
heureusement	-6869
iston	-6870
▁Bart	-6871
▁national	-6872
aginer	-6873
ulance	-6874
▁prost	-6875
▁adult	-6876
▁réuss	-6877
urse	-6878
▁offre	-6879
▁bottle	-6880
▁Tex	-6881
▁alle	-6882
▁lever	-6883
▁animaux	-6884
▁Ouv	-6885
▁paie	-6886
▁prenez	-6887
▁Probably	-6888
▁victimes	-6889
rente	-6890
▁Vinc	-6891
▁pants	-6892
▁Jay	-6893
▁shows	-6894
▁Debout	-6895
▁conscience	-6896
▁magie	-6897
ilar	-6898
▁Rev	-6899
▁Sen	-6900
▁jui	-6901
▁sacré	-6902
die	-6903
▁aj	-6904
▁dick	-6905
▁somme	-6906
▁mentir	-6907
▁espèce	-6908
▁necessary	-6909
▁Dét	-6910
ushed	-6911
▁Mort	-6912
▁UN	-6913
▁Chut	-6914
vention	-6915
▁Shh	-6916
▁study	-6917
▁OH	-6918
ifer	-6919
▁flat	-6920
▁malin	-6921
jection	-6922
▁survive	-6923
oving	-6924
▁shock	-6925
▁Holy	-6926
▁advice	-6927
▁intéressant	-6928
acheter	-6929
▁Karen	-6930
▁knife	-6931
▁mêmes	-6932
▁raisons	-6933
hic	-6934
berg	-6935
eras	-6936
like	-6937
▁Morgan	-6938
▁practice	-6939
▁gentleman	-6940
▁mise	-6941
▁spec	-6942
▁Shall	-6943
▁Sinon	-6944
▁pièces	-6945
ications	-6946
appelles	-6947
oiré	-6948
▁prefer	-6949
▁Jew	-6950
▁chief	-6951
▁fle	-6952
▁vécu	-6953
▁regardes	-6954
▁ressembl	-6955
▁demandais	-6956
book	-6957
agues	-6958
▁menace	-6959
apprendre	-6960
▁Emp	-6961
isée	-6962
▁Bref	-6963
▁shame	-6964
énergie	-6965
▁heaven	-6966
▁lap	-6967
asing	-6968
vious	-6969
êtres	-6970
ançais	-6971
▁gentille	-6972
istan	-6973
▁Sing	-6974
▁Wall	-6975
▁research	-6976
▁responsib	-6977
▁Elizabeth	-6978
ude	-6979
gest	-6980
▁Dom	-6981
▁OUT	-6982
▁nuc	-6983
erial	-6984
▁Japan	-6985
▁raise	-6986
▁asleep	-6987
▁embarrass	-6988
▁méchant	-6989
▁portable	-6990
▁représent	-6991
onie	-6992
▁sen	-6993
▁cach	-6994
▁dumb	-6995
▁entr	-6996
cile	-6997
ureur	-6998
▁radi	-6999
▁Ir	-7000
▁Hang	-7001
▁freak	-7002
▁process	-7003
▁Ahh	-7004
cesse	-7005
▁rang	-7006
▁Queen	-7007
▁voitures	-7008
La	-7009
ays	-7010
ousse	-7011
▁mand	-7012
icking	-7013
neur	-7014
iaque	-7015
▁avion	-7016
▁cible	-7017
▁engine	-7018
▁greatest	-7019
Th	-7020
igner	-7021
ordon	-7022
veral	-7023
▁Prêt	-7024
▁témoi	-7025
▁tribunal	-7026
▁ailleurs	-7027
pa	-7028
▁Flor	-7029
▁données	-7030
▁expliquer	-7031
▁loup	-7032
▁couleur	-7033
6.	-7034
▁lif	-7035
▁battu	-7036
yg	-7037
▁lait	-7038
▁plac	-7039
▁brave	-7040
▁stories	-7041
▁Lui	-7042
arrêt	-7043
▁whose	-7044
▁parties	-7045
▁Apparemment	-7046
▁ah	-7047
▁McG	-7048
onstr	-7049
▁pock	-7050
▁Unless	-7051
▁dropped	-7052
▁mémoire	-7053
écoute	-7054
It	-7055
▁♫	-7056
▁soft	-7057
▁obser	-7058
gs	-7059
âché	-7060
▁permis	-7061
▁repres	-7062
▁contrat	-7063
▁Sara	-7064
▁aware	-7065
▁leaves	-7066
▁Brother	-7067
▁Howard	-7068
▁poisson	-7069
▁rule	-7070
▁chicken	-7071
ification	-7072
▁Cinq	-7073
éresse	-7074
▁Until	-7075
▁détails	-7076
▁sépar	-7077
▁fallait	-7078
▁numbers	-7079
▁soldats	-7080
ceed	-7081
iper	-7082
▁Cri	-7083
▁Made	-7084
▁Magn	-7085
▁selon	-7086
▁written	-7087
▁demandes	-7088
OUT	-7089
▁Nic	-7090
▁awful	-7091
ado	-7092
▁siè	-7093
▁THEY	-7094
▁faite	-7095
▁bottom	-7096
▁Toujours	-7097
▁sacrifice	-7098
OS	-7099
And	-7100
▁lied	-7101
▁gardes	-7102
no	-7103
bed	-7104
▁Andrew	-7105
▁gé	-7106
▁mart	-7107
▁rentré	-7108
▁chal	-7109
▁Julia	-7110
col	-7111
▁goût	-7112
▁compren	-7113
▁department	-7114
▁Absolument	-7115
▁Law	-7116
ucation	-7117
▁ouvrir	-7118
▁scream	-7119
▁commandant	-7120
▁ho	-7121
▁toast	-7122
▁couverture	-7123
▁Art	-7124
▁Bull	-7125
▁Jesse	-7126
▁croit	-7127
▁influ	-7128
▁succès	-7129
▁surgery	-7130
▁dry	-7131
▁Cass	-7132
amuser	-7133
▁mille	-7134
▁clés	-7135
itesse	-7136
▁finan	-7137
▁Except	-7138
▁chauff	-7139
idden	-7140
▁entraî	-7141
embr	-7142
édit	-7143
▁Hann	-7144
▁Soph	-7145
▁vieil	-7146
▁matters	-7147
▁realized	-7148
aled	-7149
ctors	-7150
▁capac	-7151
FF	-7152
ué	-7153
▁mi	-7154
manda	-7155
▁keys	-7156
▁Majesté	-7157
▁Absolutely	-7158
etch	-7159
▁Gal	-7160
▁scr	-7161
essayer	-7162
▁Ari	-7163
▁sky	-7164
▁obtenir	-7165
mo	-7166
▁Hope	-7167
▁feed	-7168
▁suppl	-7169
▁checked	-7170
▁Port	-7171
ds	-7172
▁bab	-7173
▁odd	-7174
▁lien	-7175
▁Ready	-7176
▁entré	-7177
aura	-7178
nant	-7179
▁warn	-7180
▁Fre	-7181
▁transp	-7182
▁Ni	-7183
▁RE	-7184
▁romp	-7185
▁simply	-7186
bell	-7187
What	-7188
alcool	-7189
▁mariée	-7190
▁bringing	-7191
▁Vegas	-7192
▁pause	-7193
▁Angeles	-7194
▁Ho	-7195
iants	-7196
▁jardin	-7197
▁taught	-7198
▁réparer	-7199
▁Iv	-7200
oman	-7201
▁vul	-7202
▁Gent	-7203
▁câ	-7204
▁rot	-7205
▁racc	-7206
▁letting	-7207
▁excellent	-7208
▁Vol	-7209
▁trau	-7210
▁plenty	-7211
▁subject	-7212
▁fourn	-7213
ination	-7214
uellement	-7215
▁Cole	-7216
▁clos	-7217
▁prior	-7218
oix	-7219
ona	-7220
▁Rec	-7221
▁beyond	-7222
▁chiens	-7223
▁emergency	-7224
▁speed	-7225
▁Écoutez	-7226
égl	-7227
▁mut	-7228
autor	-7229
ening	-7230
▁Ouvrez	-7231
▁version	-7232
▁enquête	-7233
ELL	-7234
▁Beth	-7235
▁heavy	-7236
▁United	-7237
▁compet	-7238
▁concerned	-7239
▁Aidez	-7240
▁importante	-7241
▁Ren	-7242
▁famous	-7243
▁déter	-7244
▁river	-7245
▁venait	-7246
▁Morning	-7247
icy	-7248
rite	-7249
▁LIKE	-7250
▁mode	-7251
▁issue	-7252
ulte	-7253
teau	-7254
board	-7255
entraî	-7256
▁balls	-7257
▁campagne	-7258
▁attendant	-7259
▁Santa	-7260
▁suivi	-7261
▁parlait	-7262
GE	-7263
oved	-7264
▁wat	-7265
illez	-7266
▁Hard	-7267
▁occasion	-7268
▁bouteille	-7269
▁character	-7270
aval	-7271
▁lat	-7272
▁extre	-7273
▁confident	-7274
▁certainement	-7275
olen	-7276
▁faible	-7277
▁Thing	-7278
▁afford	-7279
▁bodies	-7280
▁lies	-7281
▁pool	-7282
▁SU	-7283
▁crow	-7284
▁coach	-7285
▁étant	-7286
▁studio	-7287
▁transform	-7288
anks	-7289
▁init	-7290
honneur	-7291
▁chapeau	-7292
▁développ	-7293
▁possibly	-7294
rill	-7295
état	-7296
▁Fils	-7297
father	-7298
▁bataille	-7299
▁préféré	-7300
▁sweetheart	-7301
▁debout	-7302
▁meat	-7303
▁surp	-7304
▁devraient	-7305
▁Talk	-7306
▁THERE	-7307
▁piste	-7308
vée	-7309
ground	-7310
▁souvenirs	-7311
▁Silence	-7312
▁Same	-7313
▁idées	-7314
▁Sol	-7315
imate	-7316
▁chéri	-7317
erstood	-7318
▁manquer	-7319
▁Bad	-7320
▁uns	-7321
issant	-7322
▁flying	-7323
erk	-7324
▁2:	-7325
aser	-7326
▁Jord	-7327
▁Tomorrow	-7328
▁din	-7329
▁location	-7330
▁Ladies	-7331
▁assistant	-7332
occ	-7333
ula	-7334
▁Id	-7335
oirs	-7336
▁réalité	-7337
owe	-7338
▁arrested	-7339
itée	-7340
▁00.	-7341
attle	-7342
▁fucked	-7343
▁Majesty	-7344
▁purpose	-7345
▁cars	-7346
▁fellow	-7347
▁présente	-7348
omi	-7349
accep	-7350
▁disapp	-7351
▁Russ	-7352
▁grad	-7353
▁appear	-7354
▁paying	-7355
▁arranger	-7356
isode	-7357
▁Know	-7358
▁feras	-7359
▁attemp	-7360
▁papers	-7361
▁awesome	-7362
▁noticed	-7363
itter	-7364
▁Heure	-7365
▁starts	-7366
▁actions	-7367
▁prepared	-7368
▁mél	-7369
▁États	-7370
▁déranger	-7371
▁HERE	-7372
▁recherches	-7373
▁dogs	-7374
▁arrang	-7375
▁training	-7376
ba	-7377
▁exe	-7378
▁voulons	-7379
iverse	-7380
▁crise	-7381
▁jambe	-7382
▁Oliver	-7383
èbre	-7384
using	-7385
▁rede	-7386
ére	-7387
ancée	-7388
▁crét	-7389
▁Other	-7390
▁Donnez	-7391
▁remont	-7392
▁discuter	-7393
▁especially	-7394
▁MO	-7395
▁easier	-7396
ormer	-7397
▁fake	-7398
espoir	-7399
▁repas	-7400
cipl	-7401
▁Cou	-7402
aki	-7403
▁Hill	-7404
▁neither	-7405
importance	-7406
▁Seriously	-7407
▁45	-7408
▁Helen	-7409
▁soldat	-7410
▁revient	-7411
▁motherfuck	-7412
rek	-7413
èrent	-7414
▁pilot	-7415
▁spread	-7416
▁Marg	-7417
iée	-7418
athy	-7419
ômes	-7420
▁onto	-7421
aments	-7422
▁Guess	-7423
▁loyal	-7424
▁milliers	-7425
▁rav	-7426
▁beach	-7427
▁empre	-7428
▁absolument	-7429
osc	-7430
sons	-7431
▁Had	-7432
oublier	-7433
▁lights	-7434
édé	-7435
auras	-7436
▁jealous	-7437
▁UP	-7438
onte	-7439
▁farm	-7440
▁coffre	-7441
▁coincé	-7442
▁faveur	-7443
▁Vincent	-7444
▁Mesdames	-7445
▁créer	-7446
▁discours	-7447
▁collection	-7448
LA	-7449
▁cake	-7450
▁individ	-7451
iest	-7452
▁East	-7453
▁salaud	-7454
iat	-7455
ura	-7456
▁couché	-7457
▁montré	-7458
èche	-7459
▁membre	-7460
▁régler	-7461
▁transm	-7462
ONE	-7463
▁labo	-7464
▁bullshit	-7465
▁size	-7466
ization	-7467
▁traces	-7468
érieusement	-7469
▁débarrasser	-7470
icon	-7471
▁tele	-7472
▁trag	-7473
▁general	-7474
▁reç	-7475
▁games	-7476
▁révél	-7477
▁Excellent	-7478
▁grav	-7479
uns	-7480
▁ég	-7481
érée	-7482
▁Sui	-7483
▁détruit	-7484
▁original	-7485
▁90	-7486
▁truly	-7487
envoyer	-7488
▁grandi	-7489
▁includ	-7490
mos	-7491
▁éte	-7492
▁excuses	-7493
▁monster	-7494
eté	-7495
▁bucks	-7496
▁article	-7497
▁flowers	-7498
▁Int	-7499
▁fed	-7500
▁lots	-7501
▁Imagine	-7502
▁Dé	-7503
entend	-7504
ètre	-7505
areil	-7506
▁compter	-7507
▁@	-7508
ogan	-7509
▁Gen	-7510
▁Julie	-7511
▁changes	-7512
▁amoureuse	-7513
▁destroyed	-7514
▁Abby	-7515
▁chasse	-7516
▁comporte	-7517
▁devrions	-7518
▁comfortable	-7519
issa	-7520
▁SHE	-7521
▁attaque	-7522
▁Mum	-7523
atrice	-7524
▁micro	-7525
▁somehow	-7526
▁travel	-7527
▁Hay	-7528
icide	-7529
ruction	-7530
▁Harvey	-7531
▁Jin	-7532
▁pin	-7533
▁chir	-7534
just	-7535
▁pantalon	-7536
romp	-7537
▁Their	-7538
▁aurez	-7539
▁plaisante	-7540
▁tab	-7541
itaire	-7542
▁coupe	-7543
▁deter	-7544
fection	-7545
▁Patrick	-7546
ols	-7547
oto	-7548
▁recr	-7549
▁papiers	-7550
▁animals	-7551
▁natural	-7552
▁Jackie	-7553
▁Without	-7554
▁Anne	-7555
église	-7556
raction	-7557
▁viande	-7558
intention	-7559
▁painting	-7560
▁doucement	-7561
▁coupé	-7562
▁décider	-7563
▁messages	-7564
cis	-7565
▁nouvel	-7566
▁criminal	-7567
quet	-7568
▁milk	-7569
▁Donna	-7570
▁Amanda	-7571
▁biggest	-7572
▁student	-7573
▁AL	-7574
anne	-7575
onny	-7576
▁Def	-7577
▁Chef	-7578
▁allais	-7579
▁gâteau	-7580
▁descend	-7581
▁Surt	-7582
ushing	-7583
▁invited	-7584
▁Pense	-7585
del	-7586
tenu	-7587
▁While	-7588
▁langue	-7589
▁finding	-7590
▁dossiers	-7591
▁Monte	-7592
▁artist	-7593
▁Cas	-7594
tered	-7595
▁honneur	-7596
▁Down	-7597
▁territ	-7598
▁emotion	-7599
▁nerveux	-7600
▁Nu	-7601
▁Rad	-7602
▁fab	-7603
▁None	-7604
▁commerci	-7605
▁Old	-7606
▁lut	-7607
orney	-7608
▁Bruce	-7609
▁bonheur	-7610
▁operation	-7611
▁copy	-7612
▁allum	-7613
▁teeth	-7614
▁States	-7615
fortunately	-7616
▁loss	-7617
attendre	-7618
▁écouter	-7619
▁rate	-7620
▁lettres	-7621
▁directement	-7622
▁freed	-7623
▁membres	-7624
▁crimes	-7625
▁pistol	-7626
▁install	-7627
▁butt	-7628
▁disg	-7629
▁caché	-7630
▁driver	-7631
▁Sérieusement	-7632
▁gym	-7633
▁Essay	-7634
▁older	-7635
▁salut	-7636
▁Surtout	-7637
▁viendra	-7638
▁Professor	-7639
▁rejoindre	-7640
▁vitesse	-7641
In	-7642
▁desk	-7643
▁lour	-7644
▁spell	-7645
▁conduit	-7646
ador	-7647
asty	-7648
▁Hal	-7649
▁rose	-7650
▁sourire	-7651
▁Always	-7652
▁Mir	-7653
▁RIGHT	-7654
▁Savez	-7655
▁aveug	-7656
▁grown	-7657
▁Ten	-7658
▁Trust	-7659
▁comprom	-7660
ulé	-7661
âtre	-7662
▁Amen	-7663
▁manip	-7664
▁shirt	-7665
▁vampire	-7666
▁MAR	-7667
▁frag	-7668
▁appré	-7669
▁doigts	-7670
eue	-7671
▁Kir	-7672
oster	-7673
▁Génial	-7674
▁valeur	-7675
ima	-7676
▁whom	-7677
▁Enough	-7678
▁affect	-7679
▁clearly	-7680
nam	-7681
pector	-7682
▁confirm	-7683
▁physique	-7684
We	-7685
wers	-7686
▁Aust	-7687
▁Fire	-7688
▁manqu	-7689
▁vendu	-7690
▁chaî	-7691
▁repe	-7692
ailles	-7693
▁Virgin	-7694
▁1,	-7695
▁hâte	-7696
▁Mommy	-7697
▁plage	-7698
étaient	-7699
EST	-7700
tle	-7701
▁Ac	-7702
lock	-7703
ilson	-7704
▁jeux	-7705
▁cards	-7706
▁collect	-7707
▁Charlotte	-7708
win	-7709
▁Mu	-7710
▁Gil	-7711
▁Men	-7712
acted	-7713
asons	-7714
▁strike	-7715
▁section	-7716
▁interrog	-7717
▁opération	-7718
OOK	-7719
▁batter	-7720
▁weight	-7721
▁photograph	-7722
▁Joli	-7723
▁lord	-7724
INK	-7725
▁Na	-7726
▁Chinese	-7727
▁believed	-7728
▁propriétaire	-7729
▁ug	-7730
aham	-7731
▁Nom	-7732
▁respe	-7733
▁assign	-7734
▁raté	-7735
▁ended	-7736
▁heads	-7737
▁Cos	-7738
▁jal	-7739
▁Oubl	-7740
▁silly	-7741
▁Cooper	-7742
▁sert	-7743
▁ideas	-7744
▁Ecoutez	-7745
▁passage	-7746
▁Chlo	-7747
▁expérience	-7748
ivia	-7749
▁adore	-7750
▁chest	-7751
▁Pretty	-7752
ellement	-7753
kn	-7754
▁BO	-7755
derer	-7756
▁anti	-7757
▁chin	-7758
▁coinc	-7759
▁sorci	-7760
▁stolen	-7761
▁distrib	-7762
▁pourtant	-7763
▁rout	-7764
▁envoy	-7765
▁Continuez	-7766
▁Won	-7767
▁culture	-7768
fit	-7769
ival	-7770
▁Cat	-7771
▁mail	-7772
échapper	-7773
▁complex	-7774
sp	-7775
▁nor	-7776
▁dating	-7777
▁fing	-7778
▁pitié	-7779
rict	-7780
uation	-7781
oom	-7782
tat	-7783
▁math	-7784
▁threw	-7785
▁marrant	-7786
▁magazine	-7787
▁Tyler	-7788
▁crash	-7789
▁betray	-7790
▁extreme	-7791
▁several	-7792
▁transfer	-7793
▁démission	-7794
▁Nouve	-7795
lection	-7796
▁damage	-7797
▁towards	-7798
oren	-7799
▁guéri	-7800
▁nettoyer	-7801
gnes	-7802
oigne	-7803
▁Jacob	-7804
▁Johnson	-7805
chi	-7806
▁Trans	-7807
▁ciném	-7808
Amérique	-7809
▁responsibility	-7810
oncé	-7811
▁Molly	-7812
▁allés	-7813
▁privé	-7814
épouser	-7815
▁assume	-7816
Il	-7817
▁lac	-7818
orted	-7819
atures	-7820
▁naissance	-7821
▁Texas	-7822
▁failed	-7823
▁option	-7824
▁champagne	-7825
▁rapidement	-7826
▁plate	-7827
▁Joyeux	-7828
▁agreed	-7829
▁contrôler	-7830
outs	-7831
merde	-7832
▁bright	-7833
▁mouvement	-7834
▁FR	-7835
▁couch	-7836
▁Albert	-7837
▁retraite	-7838
▁Jen	-7839
▁Easy	-7840
▁sword	-7841
▁AD	-7842
▁cream	-7843
▁balles	-7844
▁mark	-7845
▁Honor	-7846
▁Os	-7847
ators	-7848
▁tiss	-7849
aining	-7850
▁poids	-7851
▁Life	-7852
▁roof	-7853
▁Jordan	-7854
▁members	-7855
▁finalement	-7856
pent	-7857
▁Hm	-7858
▁permettre	-7859
▁Mic	-7860
▁cér	-7861
▁fal	-7862
ashed	-7863
▁porn	-7864
▁piège	-7865
Ch	-7866
▁san	-7867
ascin	-7868
▁Coll	-7869
▁release	-7870
aver	-7871
▁proof	-7872
▁document	-7873
▁officier	-7874
HER	-7875
▁Mettez	-7876
▁lately	-7877
▁pill	-7878
▁parmi	-7879
▁Sunday	-7880
▁laisses	-7881
IG	-7882
▁Far	-7883
▁golf	-7884
▁poche	-7885
▁current	-7886
▁totalement	-7887
▁hurts	-7888
▁sales	-7889
▁marque	-7890
azz	-7891
▁Ask	-7892
▁Case	-7893
▁forcé	-7894
▁pierre	-7895
▁Messieurs	-7896
▁aid	-7897
▁impro	-7898
cemment	-7899
▁envers	-7900
▁bâtiment	-7901
▁changement	-7902
▁beauty	-7903
rus	-7904
▁DNA	-7905
▁mel	-7906
▁nuts	-7907
▁Marcus	-7908
▁Sav	-7909
▁déte	-7910
▁failli	-7911
▁conditions	-7912
He	-7913
▁Rebe	-7914
▁clown	-7915
istance	-7916
imin	-7917
▁rasse	-7918
▁Joseph	-7919
▁grandes	-7920
▁breaking	-7921
▁Catherine	-7922
ring	-7923
▁toit	-7924
minist	-7925
▁autom	-7926
▁moral	-7927
▁douche	-7928
fle	-7929
▁Dès	-7930
▁Reg	-7931
▁wash	-7932
arante	-7933
▁fermé	-7934
▁cheese	-7935
▁create	-7936
aume	-7937
cieux	-7938
▁meurs	-7939
▁dressed	-7940
bum	-7941
▁dégo	-7942
▁Sergeant	-7943
bur	-7944
ielle	-7945
▁amount	-7946
▁shower	-7947
intéresse	-7948
ani	-7949
oudre	-7950
▁chiff	-7951
▁flipp	-7952
▁Island	-7953
▁positive	-7954
▁recognize	-7955
tein	-7956
▁gosse	-7957
uté	-7958
▁earn	-7959
▁résultats	-7960
auc	-7961
▁vus	-7962
▁Jamie	-7963
▁doors	-7964
▁pleur	-7965
▁écout	-7966
▁Montre	-7967
▁fasses	-7968
▁Jessica	-7969
▁created	-7970
▁enlever	-7971
▁cigarette	-7972
▁\	-7973
▁rig	-7974
▁tuée	-7975
amment	-7976
▁Grant	-7977
▁augment	-7978
ming	-7979
▁côtés	-7980
▁storm	-7981
▁sending	-7982
▁retrouve	-7983
▁retrouvé	-7984
▁désir	-7985
▁victims	-7986
▁ult	-7987
mbles	-7988
▁Quick	-7989
▁lance	-7990
▁bridge	-7991
mbre	-7992
mont	-7993
▁heat	-7994
▁ther	-7995
▁garant	-7996
▁turning	-7997
▁perfectly	-7998
PS	-7999
▁Marty	-8000
▁deven	-8001
▁meaning	-8002
iley	-8003
▁Sat	-8004
▁dén	-8005
allez	-8006
atell	-8007
erais	-8008
▁Quatre	-8009
▁Commander	-8010
▁ambulance	-8011
oston	-8012
▁riches	-8013
▁parfaite	-8014
▁$2	-8015
OUN	-8016
▁Bell	-8017
▁World	-8018
▁perte	-8019
▁opened	-8020
▁ordered	-8021
▁soldiers	-8022
ipe	-8023
▁Blue	-8024
▁Suis	-8025
change	-8026
▁slept	-8027
oust	-8028
▁aille	-8029
▁doigt	-8030
onnement	-8031
▁Prépare	-8032
▁DID	-8033
▁sne	-8034
▁chim	-8035
▁focus	-8036
▁stayed	-8037
▁nowhere	-8038
▁soutien	-8039
▁received	-8040
▁universe	-8041
▁contraire	-8042
enqu	-8043
▁cruel	-8044
▁former	-8045
▁parts	-8046
▁rivière	-8047
▁Simp	-8048
▁panne	-8049
▁forced	-8050
▁poulet	-8051
ingo	-8052
▁chass	-8053
▁shopping	-8054
▁mai	-8055
▁Satur	-8056
▁speech	-8057
▁paradis	-8058
▁WELL	-8059
▁hack	-8060
▁saches	-8061
No	-8062
▁Calm	-8063
▁borrow	-8064
▁médicaments	-8065
▁ep	-8066
▁Ever	-8067
usting	-8068
▁boule	-8069
▁loose	-8070
▁Attrap	-8071
▁Friday	-8072
▁verras	-8073
▁tickets	-8074
▁Caroline	-8075
▁construit	-8076
▁clairement	-8077
▁Doug	-8078
▁Souv	-8079
▁Appelez	-8080
▁sergent	-8081
▁Pop	-8082
▁sees	-8083
▁langu	-8084
aped	-8085
▁flu	-8086
▁snow	-8087
empêcher	-8088
OOD	-8089
ala	-8090
aret	-8091
chan	-8092
▁Res	-8093
▁Sum	-8094
▁breathe	-8095
▁semblant	-8096
▁discussion	-8097
isted	-8098
▁créé	-8099
▁barely	-8100
▁familiar	-8101
UL	-8102
▁Both	-8103
otions	-8104
▁sexual	-8105
▁présence	-8106
▁Bas	-8107
enser	-8108
▁Aunt	-8109
▁beaux	-8110
▁devil	-8111
▁member	-8112
▁quitte	-8113
unny	-8114
▁Play	-8115
▁reve	-8116
▁flash	-8117
▁queen	-8118
▁represent	-8119
ATE	-8120
▁brut	-8121
angers	-8122
▁Katie	-8123
▁staff	-8124
▁casser	-8125
▁humaine	-8126
▁mauvaises	-8127
▁Spr	-8128
▁chevaux	-8129
vable	-8130
▁liter	-8131
empl	-8132
▁ends	-8133
▁Wilson	-8134
▁cinéma	-8135
▁enlevé	-8136
▁fiston	-8137
▁deliver	-8138
▁soldier	-8139
▁vouliez	-8140
ituel	-8141
▁Gordon	-8142
▁images	-8143
culez	-8144
▁perds	-8145
▁70	-8146
▁AR	-8147
▁remer	-8148
▁Squ	-8149
▁Anton	-8150
▁insist	-8151
▁pieces	-8152
▁cabinet	-8153
cha	-8154
▁hardly	-8155
▁Officer	-8156
▁discovered	-8157
awa	-8158
▁rét	-8159
écile	-8160
▁north	-8161
▁apporter	-8162
▁property	-8163
oqu	-8164
▁queue	-8165
wh	-8166
▁Parker	-8167
▁procureur	-8168
IST	-8169
ashion	-8170
▁senti	-8171
▁parlais	-8172
▁construire	-8173
érop	-8174
▁Lew	-8175
▁vél	-8176
▁inqu	-8177
▁tempor	-8178
Ne	-8179
izing	-8180
▁réveillé	-8181
▁reconnaiss	-8182
▁Linda	-8183
▁State	-8184
▁dancing	-8185
▁attitude	-8186
round	-8187
▁calcul	-8188
▁fantôme	-8189
▁followed	-8190
▁tie	-8191
▁Boston	-8192
▁retire	-8193
▁travailles	-8194
▁phil	-8195
▁différentes	-8196
▁Hun	-8197
▁Mau	-8198
▁vérifié	-8199
xi	-8200
euble	-8201
▁bell	-8202
▁accus	-8203
▁Things	-8204
▁emmené	-8205
▁pousser	-8206
▁Nord	-8207
▁fest	-8208
▁brief	-8209
▁resté	-8210
▁subst	-8211
▁voulaient	-8212
anner	-8213
▁saura	-8214
▁heading	-8215
▁Die	-8216
iendra	-8217
▁réveille	-8218
▁rencontrés	-8219
▁Aug	-8220
▁Hong	-8221
érable	-8222
▁Night	-8223
▁basket	-8224
▁expecting	-8225
▁Pass	-8226
mother	-8227
▁salon	-8228
▁example	-8229
▁accepter	-8230
▁oil	-8231
▁Gabri	-8232
▁attendu	-8233
rale	-8234
▁Met	-8235
illée	-8236
ouses	-8237
▁tableau	-8238
▁utilise	-8239
hib	-8240
glet	-8241
teen	-8242
wing	-8243
▁trés	-8244
▁bague	-8245
▁commen	-8246
▁temple	-8247
▁attrapé	-8248
▁condamn	-8249
ESS	-8250
▁Mars	-8251
▁loud	-8252
▁piano	-8253
▁forgotten	-8254
ME	-8255
▁RO	-8256
cker	-8257
▁Lance	-8258
▁escal	-8259
▁pleure	-8260
ao	-8261
âme	-8262
▁WANT	-8263
▁cris	-8264
▁ench	-8265
▁Derek	-8266
▁Edward	-8267
hetic	-8268
organ	-8269
▁firm	-8270
▁Again	-8271
▁genoux	-8272
▁violent	-8273
adow	-8274
▁Clay	-8275
réable	-8276
▁buried	-8277
▁Matthew	-8278
▁mê	-8279
▁Kenn	-8280
▁Sally	-8281
▁Frankie	-8282
▁produit	-8283
essa	-8284
▁COM	-8285
▁américain	-8286
▁Air	-8287
▁Betty	-8288
▁disant	-8289
▁likely	-8290
▁serons	-8291
▁accepté	-8292
▁anglais	-8293
▁selling	-8294
▁Christian	-8295
ori	-8296
delà	-8297
▁Care	-8298
▁régl	-8299
enfants	-8300
▁Fucking	-8301
▁faisant	-8302
▁Internet	-8303
▁progress	-8304
OUS	-8305
avenir	-8306
▁tunnel	-8307
▁vienne	-8308
▁extraordin	-8309
▁tox	-8310
▁cares	-8311
▁cases	-8312
▁insane	-8313
▁movies	-8314
▁whoever	-8315
▁dira	-8316
▁ugly	-8317
▁fruit	-8318
▁faster	-8319
▁princesse	-8320
▁Gi	-8321
▁prud	-8322
▁céléb	-8323
idemment	-8324
▁Bay	-8325
▁gif	-8326
ueill	-8327
▁bran	-8328
▁invite	-8329
▁lancer	-8330
▁volonté	-8331
IND	-8332
uise	-8333
▁suc	-8334
▁Fort	-8335
▁gardé	-8336
▁rough	-8337
▁schedu	-8338
▁adorable	-8339
raft	-8340
▁sin	-8341
▁legal	-8342
▁robot	-8343
▁Miam	-8344
▁entreprise	-8345
▁Ky	-8346
▁Ze	-8347
oulez	-8348
▁sinon	-8349
▁shérif	-8350
▁1:	-8351
▁JO	-8352
▁bang	-8353
▁dommage	-8354
▁falling	-8355
▁facilement	-8356
AB	-8357
▁Stone	-8358
▁south	-8359
▁signer	-8360
▁certaine	-8361
?!	-8362
▁ay	-8363
asha	-8364
icieux	-8365
inform	-8366
▁joindre	-8367
osez	-8368
▁unc	-8369
▁Avance	-8370
▁signed	-8371
▁chemise	-8372
▁dish	-8373
▁lines	-8374
▁appropri	-8375
onely	-8376
espérais	-8377
ôtre	-8378
▁Woo	-8379
omach	-8380
▁haute	-8381
▁brings	-8382
▁Demande	-8383
▁Reculez	-8384
▁covered	-8385
▁NOW	-8386
▁noire	-8387
▁trade	-8388
▁connect	-8389
EAH	-8390
emmène	-8391
▁quant	-8392
▁parlant	-8393
▁attacked	-8394
aule	-8395
▁pub	-8396
▁cage	-8397
▁Terry	-8398
▁équip	-8399
▁announ	-8400
▁desper	-8401
▁letters	-8402
▁Lucas	-8403
▁Miller	-8404
▁idiots	-8405
▁Pull	-8406
▁coch	-8407
▁sauce	-8408
▁Tonight	-8409
▁sweetie	-8410
▁connection	-8411
onst	-8412
▁Wend	-8413
atives	-8414
▁model	-8415
iring	-8416
enfuir	-8417
▁Wayne	-8418
irmière	-8419
▁chaise	-8420
▁célèbre	-8421
▁disappeared	-8422
▁Div	-8423
▁Jere	-8424
rouille	-8425
▁tombée	-8426
gleterre	-8427
▁Marshall	-8428
▁expected	-8429
▁murderer	-8430
▁abandonné	-8431
On	-8432
fr	-8433
▁GOT	-8434
appart	-8435
entrer	-8436
▁armée	-8437
▁began	-8438
▁cauche	-8439
▁circum	-8440
▁detective	-8441
▁différents	-8442
ss	-8443
▁IF	-8444
▁CON	-8445
▁reme	-8446
issons	-8447
attaque	-8448
▁laisserai	-8449
amm	-8450
rive	-8451
▁encour	-8452
▁ouverte	-8453
nie	-8454
▁avoid	-8455
▁hired	-8456
extérieur	-8457
▁reviendra	-8458
30	-8459
acte	-8460
▁Pick	-8461
écouter	-8462
▁reposer	-8463
▁commander	-8464
agan	-8465
▁bye	-8466
▁rats	-8467
▁claim	-8468
▁urgent	-8469
▁théorie	-8470
fia	-8471
▁Sid	-8472
▁joint	-8473
▁Secret	-8474
▁center	-8475
intéress	-8476
▁Apparently	-8477
Qu	-8478
▁ense	-8479
▁recently	-8480
▁bail	-8481
▁pair	-8482
▁viré	-8483
▁strip	-8484
▁Raj	-8485
▁Club	-8486
▁paqu	-8487
▁profit	-8488
▁mum	-8489
▁caused	-8490
▁donnes	-8491
lée	-8492
▁Rub	-8493
ublic	-8494
▁ABOUT	-8495
▁details	-8496
▁féd	-8497
oient	-8498
érence	-8499
▁perman	-8500
▁satell	-8501
▁returned	-8502
▁Angela	-8503
arrivera	-8504
occasion	-8505
▁commiss	-8506
▁affe	-8507
▁remb	-8508
entrée	-8509
▁grill	-8510
▁naked	-8511
▁venge	-8512
▁freedom	-8513
bit	-8514
iod	-8515
▁ministre	-8516
affe	-8517
▁led	-8518
▁prim	-8519
▁génie	-8520
▁funeral	-8521
▁showing	-8522
▁fatiguée	-8523
eum	-8524
▁199	-8525
▁conte	-8526
▁ennuy	-8527
▁comptes	-8528
▁replace	-8529
load	-8530
▁Sub	-8531
ungle	-8532
▁safety	-8533
▁settle	-8534
▁Saturday	-8535
▁parfaitement	-8536
▁collèg	-8537
OUR	-8538
▁cô	-8539
mons	-8540
▁Alle	-8541
▁Boss	-8542
▁indust	-8543
▁mariés	-8544
édie	-8545
▁YEAH	-8546
éroport	-8547
▁seigneur	-8548
▁SP	-8549
▁Relax	-8550
▁usual	-8551
▁fesses	-8552
▁nearly	-8553
▁Although	-8554
▁community	-8555
ensé	-8556
érap	-8557
▁pratique	-8558
ionn	-8559
▁types	-8560
▁documents	-8561
▁connaissais	-8562
▁AM	-8563
▁Tam	-8564
▁confl	-8565
▁virer	-8566
eures	-8567
envoie	-8568
▁Brand	-8569
▁outta	-8570
▁rever	-8571
▁Gentle	-8572
%.	-8573
oria	-8574
ointment	-8575
▁récemment	-8576
vant	-8577
▁clock	-8578
▁const	-8579
▁maire	-8580
▁écras	-8581
▁interd	-8582
ibi	-8583
▁sain	-8584
▁joues	-8585
oos	-8586
▁Sad	-8587
▁mood	-8588
▁Trouve	-8589
▁éviter	-8590
iko	-8591
roc	-8592
arge	-8593
ibat	-8594
agnes	-8595
▁Afric	-8596
▁Voulez	-8597
▁neighborhood	-8598
2,	-8599
yth	-8600
▁Blood	-8601
▁paint	-8602
▁invités	-8603
▁Ji	-8604
rase	-8605
▁Carri	-8606
▁cents	-8607
▁Steven	-8608
▁sépare	-8609
▁However	-8610
▁empêcher	-8611
▁traverser	-8612
▁neu	-8613
▁excl	-8614
cteurs	-8615
▁Brook	-8616
▁kinda	-8617
▁impress	-8618
▁35	-8619
▁Ra	-8620
iral	-8621
▁strug	-8622
érieure	-8623
▁Hannah	-8624
▁pocket	-8625
▁évident	-8626
▁comprenez	-8627
▁Aud	-8628
▁crétin	-8629
▁concerne	-8630
inspecteur	-8631
abs	-8632
artha	-8633
▁therap	-8634
▁sentence	-8635
gé	-8636
roch	-8637
▁ear	-8638
▁fate	-8639
▁Faire	-8640
▁traff	-8641
▁Leonard	-8642
jo	-8643
orp	-8644
▁Face	-8645
▁baiss	-8646
▁split	-8647
▁Accord	-8648
▁Asseyez	-8649
▁stomach	-8650
▁détermin	-8651
▁travaillait	-8652
▁Mond	-8653
▁ille	-8654
aution	-8655
▁Andre	-8656
▁Selon	-8657
▁Start	-8658
▁unit	-8659
▁horses	-8660
opération	-8661
what	-8662
▁wet	-8663
▁laid	-8664
▁dollar	-8665
▁disappear	-8666
▁signature	-8667
éde	-8668
▁doux	-8669
▁Carlos	-8670
▁priest	-8671
▁_	-8672
▁27	-8673
iane	-8674
isés	-8675
scar	-8676
▁Alf	-8677
▁dies	-8678
▁Aussi	-8679
▁frappe	-8680
▁convaincre	-8681
▁responsabilité	-8682
▁capital	-8683
▁students	-8684
▁performance	-8685
▁joie	-8686
▁règle	-8687
hem	-8688
▁desp	-8689
▁traversé	-8690
▁complicated	-8691
lan	-8692
okes	-8693
érés	-8694
▁mandat	-8695
▁matéri	-8696
▁Rebecca	-8697
▁reasons	-8698
▁cure	-8699
rage	-8700
aging	-8701
atter	-8702
▁goin	-8703
▁Anyone	-8704
cean	-8705
▁punch	-8706
▁England	-8707
pha	-8708
éder	-8709
armes	-8710
▁dort	-8711
▁rele	-8712
ources	-8713
▁Ricky	-8714
oner	-8715
▁ancien	-8716
▁balance	-8717
▁results	-8718
▁streets	-8719
▁traitement	-8720
obby	-8721
▁Eli	-8722
acles	-8723
essed	-8724
▁Gray	-8725
▁Mill	-8726
▁Light	-8727
▁barre	-8728
ailable	-8729
▁laughing	-8730
▁raconter	-8731
▁réveiller	-8732
nels	-8733
▁REA	-8734
worth	-8735
▁cadav	-8736
▁score	-8737
▁effort	-8738
INE	-8739
▁198	-8740
giving	-8741
▁Assez	-8742
▁empreintes	-8743
ERS	-8744
zie	-8745
▁pit	-8746
▁pomp	-8747
▁auraient	-8748
eron	-8749
hand	-8750
rick	-8751
▁Belle	-8752
▁Russe	-8753
▁faudra	-8754
erc	-8755
▁2.	-8756
ottes	-8757
▁goodbye	-8758
▁écoutez	-8759
gré	-8760
▁vé	-8761
mêmes	-8762
▁Barn	-8763
▁meth	-8764
▁négoci	-8765
En	-8766
tan	-8767
▁acqu	-8768
▁Miami	-8769
▁theory	-8770
▁conséqu	-8771
itant	-8772
▁finds	-8773
▁Améric	-8774
▁intention	-8775
▁hôtel	-8776
▁disturb	-8777
ali	-8778
▁fans	-8779
▁gate	-8780
▁instinct	-8781
▁Lex	-8782
erves	-8783
▁thro	-8784
▁tong	-8785
▁Reviens	-8786
▁Pan	-8787
▁singing	-8788
▁Souviens	-8789
▁professional	-8790
udes	-8791
▁ramène	-8792
▁Ensuite	-8793
▁language	-8794
ffer	-8795
▁vole	-8796
▁relie	-8797
▁attraper	-8798
bons	-8799
▁laver	-8800
onsense	-8801
▁Enlève	-8802
▁harder	-8803
▁reality	-8804
▁pouvoirs	-8805
▁spéciale	-8806
phy	-8807
▁Us	-8808
▁grew	-8809
▁engagé	-8810
▁fright	-8811
▁billets	-8812
▁challenge	-8813
▁1.	-8814
phone	-8815
▁Camp	-8816
emmerde	-8817
▁thoughts	-8818
apé	-8819
▁Rand	-8820
▁HER	-8821
human	-8822
▁vélo	-8823
▁inspecteur	-8824
▁particular	-8825
▁HIM	-8826
▁April	-8827
▁Justin	-8828
▁prendra	-8829
▁suspects	-8830
▁statement	-8831
sec	-8832
▁Cop	-8833
▁Head	-8834
▁Sous	-8835
▁mainten	-8836
▁réfléchi	-8837
▁introduce	-8838
▁Kar	-8839
▁droits	-8840
▁headed	-8841
▁lonely	-8842
▁answers	-8843
▁machines	-8844
itif	-8845
rong	-8846
▁Earl	-8847
ifiques	-8848
▁drinks	-8849
▁Parfait	-8850
▁bedroom	-8851
▁séd	-8852
▁Nate	-8853
▁analys	-8854
▁memories	-8855
▁Bébé	-8856
▁Chez	-8857
▁dors	-8858
▁gren	-8859
▁manif	-8860
▁specific	-8861
▁abandonner	-8862
ingt	-8863
éche	-8864
▁defe	-8865
▁stone	-8866
UM	-8867
gger	-8868
▁Atlant	-8869
▁désert	-8870
▁punish	-8871
▁propriété	-8872
▁ham	-8873
▁avance	-8874
▁parlent	-8875
san	-8876
▁Heh	-8877
▁WHO	-8878
abbed	-8879
▁lève	-8880
▁fascin	-8881
▁ruined	-8882
▁inutile	-8883
▁tromper	-8884
ca	-8885
isible	-8886
▁labor	-8887
▁étoiles	-8888
iling	-8889
▁Nina	-8890
▁warr	-8891
▁alien	-8892
▁season	-8893
▁appelez	-8894
▁iron	-8895
▁seins	-8896
▁hasard	-8897
édiction	-8898
▁flingue	-8899
▁incredible	-8900
rad	-8901
▁sab	-8902
bling	-8903
▁crier	-8904
▁nights	-8905
bing	-8906
ateful	-8907
▁récomp	-8908
▁offered	-8909
aka	-8910
▁Mind	-8911
▁élevé	-8912
▁reconnaî	-8913
▁comportement	-8914
▁Éc	-8915
▁Follow	-8916
▁puisses	-8917
▁audience	-8918
▁recevoir	-8919
▁fonctionne	-8920
utch	-8921
▁Fall	-8922
▁endroits	-8923
▁material	-8924
ju	-8925
hal	-8926
▁Roman	-8927
▁neighb	-8928
essayais	-8929
▁guarante	-8930
ua	-8931
imer	-8932
▁Haven	-8933
▁circul	-8934
▁WOR	-8935
▁gro	-8936
ernité	-8937
▁barbe	-8938
▁female	-8939
▁proches	-8940
rim	-8941
▁Rem	-8942
ailed	-8943
▁kilom	-8944
▁Valent	-8945
éralement	-8946
▁mensonge	-8947
RES	-8948
▁siège	-8949
▁growing	-8950
▁Nope	-8951
▁nurse	-8952
▁pluie	-8953
▁mentioned	-8954
▁personally	-8955
ohol	-8956
▁pron	-8957
▁stru	-8958
▁Santé	-8959
▁British	-8960
▁Pai	-8961
▁nomb	-8962
▁consult	-8963
▁TA	-8964
▁guit	-8965
hommes	-8966
▁ouvre	-8967
▁gâcher	-8968
▁ignore	-8969
▁arrivés	-8970
▁trouvera	-8971
▁militaire	-8972
mel	-8973
▁forêt	-8974
▁Barbara	-8975
▁contrib	-8976
▁bid	-8977
arrow	-8978
▁Todd	-8979
▁Restez	-8980
▁compar	-8981
▁merveille	-8982
▁ja	-8983
▁œu	-8984
ario	-8985
▁célibat	-8986
▁témoins	-8987
▁ate	-8988
ician	-8989
onses	-8990
▁Buck	-8991
▁tiny	-8992
▁loser	-8993
▁Sister	-8994
▁issues	-8995
▁planned	-8996
▁victoire	-8997
▁map	-8998
▁runs	-8999
▁trail	-9000
▁vrais	-9001
▁appell	-9002
▁déclen	-9003
▁advance	-9004
▁Martha	-9005
▁adresse	-9006
▁fingers	-9007
▁opening	-9008
▁baseball	-9009
▁Hollywood	-9010
▁Gus	-9011
▁weather	-9012
▁Nah	-9013
▁tro	-9014
▁doin	-9015
▁atter	-9016
▁script	-9017
▁criminel	-9018
▁ONE	-9019
cohol	-9020
▁data	-9021
▁éche	-9022
excuse	-9023
▁croir	-9024
▁Olivia	-9025
▁privée	-9026
▁obvious	-9027
▁trouvée	-9028
▁uniform	-9029
▁downstairs	-9030
DY	-9031
▁Déc	-9032
▁dealing	-9033
▁imaginer	-9034
▁u	-9035
▁Ie	-9036
▁Ital	-9037
▁sach	-9038
▁Blake	-9039
▁based	-9040
▁dormi	-9041
▁jacket	-9042
▁offert	-9043
▁échapp	-9044
▁amusant	-9045
▁puissant	-9046
▁According	-9047
▁pardonner	-9048
▁begg	-9049
▁mienne	-9050
▁logique	-9051
▁picking	-9052
UE	-9053
▁EN	-9054
▁End	-9055
▁Guy	-9056
▁tat	-9057
▁lift	-9058
▁litt	-9059
▁brisé	-9060
▁illég	-9061
▁recom	-9062
▁aiment	-9063
▁arrivera	-9064
asant	-9065
▁files	-9066
▁persu	-9067
ouss	-9068
▁ignor	-9069
▁rights	-9070
▁remercie	-9071
▁construction	-9072
éroï	-9073
▁Also	-9074
ointed	-9075
▁milli	-9076
▁noble	-9077
▁entends	-9078
▁torture	-9079
anniversaire	-9080
ART	-9081
▁Randy	-9082
▁wheel	-9083
▁discipl	-9084
▁cardiaque	-9085
oqué	-9086
▁Japon	-9087
▁saving	-9088
▁circumst	-9089
▁journaux	-9090
▁Francisco	-9091
▁confession	-9092
augh	-9093
▁male	-9094
▁devenue	-9095
▁traiter	-9096
ota	-9097
▁folie	-9098
▁utile	-9099
▁véhic	-9100
pour	-9101
icans	-9102
▁Isab	-9103
piration	-9104
▁HOW	-9105
▁inconn	-9106
▁defense	-9107
▁doctors	-9108
▁medicine	-9109
▁résoudre	-9110
5,	-9111
rut	-9112
▁goû	-9113
▁bloc	-9114
▁Lewis	-9115
▁Teddy	-9116
▁camér	-9117
▁chaleur	-9118
▁percent	-9119
▁chocolat	-9120
▁lt	-9121
▁rée	-9122
▁tenu	-9123
▁finie	-9124
▁couilles	-9125
▁Sign	-9126
▁camar	-9127
▁suggère	-9128
▁warning	-9129
▁',	-9130
▁OR	-9131
▁Bert	-9132
▁rush	-9133
▁sooner	-9134
▁Malheureusement	-9135
▁jobs	-9136
▁pile	-9137
▁noise	-9138
▁burned	-9139
▁easily	-9140
▁vengeance	-9141
▁director	-9142
1,	-9143
▁enem	-9144
▁ordinateur	-9145
érons	-9146
▁Toby	-9147
▁diss	-9148
▁advant	-9149
▁économ	-9150
▁Stephen	-9151
ylan	-9152
umble	-9153
▁guide	-9154
▁samedi	-9155
▁centaines	-9156
▁intelligence	-9157
etic	-9158
▁rues	-9159
▁scare	-9160
▁crédit	-9161
▁réponses	-9162
nger	-9163
oken	-9164
ossi	-9165
▁Pay	-9166
▁Davis	-9167
▁Honneur	-9168
▁Jennifer	-9169
▁handsome	-9170
▁survivre	-9171
▁sérieusement	-9172
ardi	-9173
icia	-9174
look	-9175
▁leçon	-9176
▁agress	-9177
aéroport	-9178
▁particip	-9179
▁romantic	-9180
▁ears	-9181
▁THINK	-9182
▁angel	-9183
▁shots	-9184
▁Pac	-9185
▁journey	-9186
▁Quelques	-9187
▁exception	-9188
▁west	-9189
▁sortez	-9190
▁merc	-9191
▁River	-9192
▁Plutôt	-9193
▁Williams	-9194
▁ID	-9195
▁aup	-9196
lling	-9197
endent	-9198
▁Walker	-9199
▁hidden	-9200
▁period	-9201
feu	-9202
▁Ali	-9203
▁Lang	-9204
▁Poor	-9205
▁Miles	-9206
▁filled	-9207
▁commercial	-9208
amis	-9209
born	-9210
▁lesson	-9211
▁moyens	-9212
▁origin	-9213
▁powers	-9214
orr	-9215
▁eggs	-9216
▁couche	-9217
▁respirer	-9218
▁197	-9219
▁gig	-9220
▁junk	-9221
▁creep	-9222
▁lèvres	-9223
▁essaies	-9224
▁license	-9225
▁trouverai	-9226
ICE	-9227
▁PL	-9228
▁ll	-9229
▁Ethan	-9230
▁holid	-9231
▁indeed	-9232
▁siècle	-9233
entement	-9234
▁Margaret	-9235
▁thousands	-9236
▁Bal	-9237
▁mama	-9238
▁Kenny	-9239
▁favour	-9240
▁mental	-9241
▁voleur	-9242
▁Russian	-9243
bli	-9244
âge	-9245
▁yo	-9246
vere	-9247
itable	-9248
▁maxim	-9249
▁neige	-9250
▁fought	-9251
▁temper	-9252
▁dimanche	-9253
oign	-9254
▁coat	-9255
▁screwed	-9256
▁Michelle	-9257
otch	-9258
▁Préc	-9259
▁link	-9260
▁Sophie	-9261
▁buying	-9262
mate	-9263
▁crâ	-9264
▁Mason	-9265
▁Vince	-9266
▁nommé	-9267
▁français	-9268
appartement	-9269
▁od	-9270
▁wow	-9271
isher	-9272
▁Stup	-9273
▁Work	-9274
▁citiz	-9275
▁shape	-9276
▁Gentlemen	-9277
▁connaissance	-9278
▁CO	-9279
hold	-9280
▁cave	-9281
▁tact	-9282
▁vice	-9283
▁woods	-9284
oln	-9285
uki	-9286
▁Ba	-9287
▁Nancy	-9288
▁stink	-9289
▁.	-9290
alog	-9291
▁Ian	-9292
▁vom	-9293
▁LOOK	-9294
▁manage	-9295
▁paquet	-9296
▁entière	-9297
▁watched	-9298
▁Sort	-9299
▁Gibbs	-9300
▁electric	-9301
▁committed	-9302
▁Da	-9303
▁Rou	-9304
iconque	-9305
iellement	-9306
▁mountain	-9307
▁semblait	-9308
▁brilliant	-9309
▁LO	-9310
mark	-9311
rich	-9312
▁Gun	-9313
▁Pauv	-9314
▁bike	-9315
rences	-9316
▁accès	-9317
ologique	-9318
▁Amérique	-9319
▁knowledge	-9320
rain	-9321
▁Serv	-9322
▁jungle	-9323
▁cellule	-9324
▁available	-9325
Les	-9326
▁Kent	-9327
▁synd	-9328
▁scand	-9329
▁Carrie	-9330
▁brûler	-9331
▁sombre	-9332
▁premiers	-9333
aken	-9334
isez	-9335
▁ANY	-9336
ishop	-9337
▁poit	-9338
▁trap	-9339
▁genius	-9340
▁passes	-9341
▁trompe	-9342
▁vaisse	-9343
▁répondu	-9344
▁intelligente	-9345
▁Aye	-9346
années	-9347
▁oppos	-9348
▁veste	-9349
▁ennemi	-9350
▁ventre	-9351
▁plaisantes	-9352
enu	-9353
oyd	-9354
rét	-9355
athol	-9356
▁Desc	-9357
▁Roll	-9358
▁traité	-9359
approche	-9360
▁exploser	-9361
tee	-9362
▁SA	-9363
▁lou	-9364
onges	-9365
▁reached	-9366
▁happiness	-9367
▁mesure	-9368
abor	-9369
▁Rentre	-9370
▁chante	-9371
▁deviens	-9372
▁explosion	-9373
pet	-9374
▁Vic	-9375
▁tip	-9376
aling	-9377
▁Fant	-9378
▁casse	-9379
▁blanche	-9380
▁couloir	-9381
▁reprendre	-9382
▁fif	-9383
▁afin	-9384
▁exéc	-9385
▁meurtres	-9386
laus	-9387
▁Tot	-9388
▁Casey	-9389
▁Jeremy	-9390
▁Junior	-9391
▁belles	-9392
▁enemies	-9393
hony	-9394
▁Sue	-9395
avance	-9396
▁Logan	-9397
▁pensées	-9398
▁cherches	-9399
▁prévenir	-9400
omen	-9401
▁méc	-9402
▁Dylan	-9403
▁infos	-9404
▁dealer	-9405
▁confess	-9406
▁sembler	-9407
▁sympt	-9408
▁Lâchez	-9409
▁auriez	-9410
▁babies	-9411
▁Kind	-9412
▁sail	-9413
▁étage	-9414
▁réseau	-9415
▁reporter	-9416
▁according	-9417
cho	-9418
▁imb	-9419
▁COME	-9420
▁Linc	-9421
▁diagn	-9422
▁pounds	-9423
▁revenge	-9424
▁oreilles	-9425
▁seraient	-9426
▁26	-9427
▁Ts	-9428
çant	-9429
ouille	-9430
alph	-9431
ghan	-9432
▁Ruth	-9433
▁Inter	-9434
▁fancy	-9435
▁voisin	-9436
▁agréable	-9437
▁attorney	-9438
▁lunettes	-9439
anim	-9440
▁combin	-9441
▁souris	-9442
▁bleeding	-9443
▁familles	-9444
▁mène	-9445
▁ennemis	-9446
play	-9447
▁Oscar	-9448
▁offrir	-9449
▁protoc	-9450
▁Faisons	-9451
▁official	-9452
▁Tellement	-9453
▁Boo	-9454
▁Home	-9455
▁terme	-9456
▁expensive	-9457
▁commission	-9458
hm	-9459
ashi	-9460
icked	-9461
utter	-9462
▁Elena	-9463
▁Oublie	-9464
▁butter	-9465
▁envoie	-9466
▁kicked	-9467
▁physical	-9468
▁Especially	-9469
▁GU	-9470
irty	-9471
▁Wes	-9472
glise	-9473
▁Ouvre	-9474
▁refusé	-9475
▁maisons	-9476
▁pourrai	-9477
▁technologie	-9478
ibre	-9479
irais	-9480
istic	-9481
▁Shin	-9482
▁families	-9483
▁cigarettes	-9484
▁production	-9485
▁scientifique	-9486
hered	-9487
▁Frère	-9488
▁faces	-9489
▁player	-9490
▁raised	-9491
▁airport	-9492
▁celebrate	-9493
▁Thanksgiving	-9494
▁pros	-9495
▁Penny	-9496
▁Cheers	-9497
▁switch	-9498
▁moindre	-9499
▁society	-9500
▁contacter	-9501
▁évé	-9502
▁démon	-9503
▁calmer	-9504
▁mobile	-9505
▁obligé	-9506
▁traîner	-9507
▁prennent	-9508
▁appartient	-9509
▁Wy	-9510
ivez	-9511
agers	-9512
chose	-9513
▁Expl	-9514
▁Riley	-9515
▁sweat	-9516
érations	-9517
▁passera	-9518
▁influence	-9519
ussy	-9520
▁Ern	-9521
▁Leur	-9522
▁Coming	-9523
▁aimait	-9524
▁sommeil	-9525
dict	-9526
▁Dur	-9527
▁Burn	-9528
▁Dear	-9529
▁coop	-9530
▁fréqu	-9531
▁sauve	-9532
▁poitrine	-9533
▁compliqué	-9534
reek	-9535
angle	-9536
▁méth	-9537
▁douce	-9538
▁walls	-9539
▁passée	-9540
atty	-9541
▁Bor	-9542
▁Fed	-9543
▁hug	-9544
▁Tina	-9545
▁shel	-9546
▁répar	-9547
▁higher	-9548
▁humans	-9549
▁courses	-9550
▁malheure	-9551
ev	-9552
▁hé	-9553
quin	-9554
▁Sab	-9555
▁Tal	-9556
▁Land	-9557
▁flag	-9558
▁album	-9559
▁brace	-9560
▁newsp	-9561
▁steak	-9562
enquête	-9563
▁Mexico	-9564
▁partage	-9565
▁yourselves	-9566
olo	-9567
OMAN	-9568
ébés	-9569
rement	-9570
▁craint	-9571
▁intent	-9572
▁inquiet	-9573
osses	-9574
▁Holl	-9575
▁Owen	-9576
▁Under	-9577
▁Perfect	-9578
▁regular	-9579
▁meurtrier	-9580
give	-9581
rough	-9582
▁fric	-9583
▁avert	-9584
▁Yu	-9585
▁Rud	-9586
▁impliqué	-9587
nés	-9588
▁48	-9589
anou	-9590
▁bij	-9591
▁flo	-9592
opher	-9593
▁Shoot	-9594
▁Julian	-9595
▁exciting	-9596
wel	-9597
rian	-9598
▁fro	-9599
▁lux	-9600
onnée	-9601
▁Wake	-9602
▁cheap	-9603
appelait	-9604
expérience	-9605
9,	-9606
undi	-9607
▁FEM	-9608
▁Gro	-9609
▁mén	-9610
▁Mount	-9611
▁bread	-9612
▁National	-9613
▁défendre	-9614
mn	-9615
00,	-9616
▁Ball	-9617
▁badge	-9618
▁stood	-9619
▁puisque	-9620
▁échange	-9621
▁vacation	-9622
▁insurance	-9623
pro	-9624
▁WILL	-9625
▁swim	-9626
▁bébés	-9627
▁attract	-9628
ICK	-9629
▁caméras	-9630
AP	-9631
kyo	-9632
▁91	-9633
rimer	-9634
▁bond	-9635
▁tués	-9636
usions	-9637
▁repos	-9638
▁2,	-9639
▁Bus	-9640
▁cere	-9641
▁lamp	-9642
▁Beaut	-9643
▁spare	-9644
ases	-9645
▁Supp	-9646
▁dégoû	-9647
ruption	-9648
▁pissed	-9649
▁Believe	-9650
▁otherwise	-9651
aro	-9652
▁ben	-9653
▁obst	-9654
▁zomb	-9655
▁Coach	-9656
▁rense	-9657
▁lâcher	-9658
▁carrying	-9659
fic	-9660
oine	-9661
èves	-9662
▁Kay	-9663
▁pisc	-9664
▁rage	-9665
▁Tenez	-9666
▁owner	-9667
▁Second	-9668
▁approche	-9669
case	-9670
▁chaîne	-9671
▁expéri	-9672
utilise	-9673
▁guests	-9674
▁communication	-9675
▁BR	-9676
▁éd	-9677
▁pel	-9678
▁réf	-9679
▁Passe	-9680
▁trees	-9681
aujourd	-9682
▁espoir	-9683
▁aveugle	-9684
▁blessures	-9685
▁Incroyable	-9686
▁Ak	-9687
itez	-9688
▁sam	-9689
▁Kong	-9690
▁alcohol	-9691
▁younger	-9692
El	-9693
▁bêt	-9694
▁Harold	-9695
▁routine	-9696
rees	-9697
▁fid	-9698
▁Sammy	-9699
▁officers	-9700
▁Probablement	-9701
èse	-9702
▁28	-9703
otes	-9704
avior	-9705
▁appears	-9706
▁retirer	-9707
▁Lo	-9708
erte	-9709
oler	-9710
▁bol	-9711
▁apprend	-9712
▁checking	-9713
▁plaisant	-9714
▁description	-9715
aises	-9716
▁Thor	-9717
enlever	-9718
▁saison	-9719
▁religion	-9720
usty	-9721
ulate	-9722
▁tail	-9723
▁appels	-9724
endemain	-9725
▁belongs	-9726
▁options	-9727
▁enregist	-9728
▁montagne	-9729
▁SOME	-9730
▁wire	-9731
lément	-9732
▁absur	-9733
▁donnez	-9734
▁Thought	-9735
▁vendredi	-9736
▁treatment	-9737
ynam	-9738
▁Navy	-9739
▁blew	-9740
▁lear	-9741
▁brown	-9742
ilities	-9743
êtement	-9744
aa	-9745
▁coc	-9746
▁meal	-9747
▁custom	-9748
▁pulling	-9749
▁souffle	-9750
▁campaign	-9751
▁département	-9752
▁Aff	-9753
▁dete	-9754
▁drove	-9755
▁affair	-9756
▁emmener	-9757
▁possession	-9758
▁Ia	-9759
eday	-9760
▁Drop	-9761
▁Keith	-9762
▁Monica	-9763
▁apparently	-9764
▁mademoiselle	-9765
ggy	-9766
▁201	-9767
▁scar	-9768
▁Petit	-9769
▁incre	-9770
▁Central	-9771
▁express	-9772
▁médecins	-9773
▁py	-9774
herbe	-9775
▁Road	-9776
▁terms	-9777
▁établ	-9778
▁waited	-9779
apporter	-9780
déjeuner	-9781
▁glasses	-9782
▁quarter	-9783
▁lendemain	-9784
▁insult	-9785
▁Général	-9786
▁burning	-9787
▁counter	-9788
▁disease	-9789
▁traffic	-9790
▁surround	-9791
▁technique	-9792
érant	-9793
▁range	-9794
▁witch	-9795
onc	-9796
▁Hans	-9797
▁Juli	-9798
▁whore	-9799
▁liaison	-9800
▁survécu	-9801
▁advantage	-9802
▁fantastic	-9803
ANK	-9804
umer	-9805
ware	-9806
▁aunt	-9807
▁Quinn	-9808
▁manteau	-9809
▁morceaux	-9810
▁196	-9811
ôtres	-9812
itution	-9813
▁robber	-9814
▁tongue	-9815
▁prepare	-9816
▁risques	-9817
LLY	-9818
▁Benn	-9819
▁Lock	-9820
▁role	-9821
▁minim	-9822
▁signé	-9823
▁Harris	-9824
▁political	-9825
AIN	-9826
▁Ira	-9827
▁Yan	-9828
othèque	-9829
▁managed	-9830
lon	-9831
▁Bow	-9832
ageux	-9833
hicle	-9834
▁dram	-9835
▁insp	-9836
▁maid	-9837
▁humili	-9838
▁warrant	-9839
▁mesdames	-9840
▁pistolet	-9841
iece	-9842
▁nig	-9843
▁furi	-9844
▁rejet	-9845
avaient	-9846
▁deviner	-9847
▁blessure	-9848
▁including	-9849
ITT	-9850
éan	-9851
▁Rh	-9852
▁Soon	-9853
▁Tokyo	-9854
▁massac	-9855
▁pauvres	-9856
END	-9857
naire	-9858
▁Godd	-9859
assure	-9860
▁citoy	-9861
▁Wonder	-9862
▁circonst	-9863
▁confused	-9864
▁rip	-9865
ether	-9866
prits	-9867
▁Ceux	-9868
▁Church	-9869
▁Presque	-9870
▁surveiller	-9871
▁destruction	-9872
icks	-9873
▁accomp	-9874
▁Syd	-9875
oween	-9876
▁bone	-9877
▁chèque	-9878
▁rappel	-9879
▁150	-9880
ington	-9881
▁fixed	-9882
▁copain	-9883
▁souvenez	-9884
acks	-9885
aude	-9886
ourn	-9887
▁poup	-9888
▁histor	-9889
▁slight	-9890
▁thérap	-9891
affaires	-9892
▁essayait	-9893
▁poignard	-9894
▁motherfucker	-9895
▁Such	-9896
▁cheer	-9897
▁suffer	-9898
▁toilet	-9899
▁fromage	-9900
écl	-9901
▁jerk	-9902
▁fabri	-9903
errement	-9904
▁basically	-9905
▁Viv	-9906
▁behavior	-9907
under	-9908
▁Army	-9909
▁Wendy	-9910
▁spring	-9911
▁international	-9912
▁ivre	-9913
estion	-9914
raîner	-9915
▁solid	-9916
▁occupe	-9917
▁Raymond	-9918
▁propose	-9919
agi	-9920
▁Ay	-9921
▁Bry	-9922
▁pills	-9923
▁scary	-9924
adresse	-9925
▁custody	-9926
▁fiancée	-9927
▁tension	-9928
▁instructions	-9929
igan	-9930
▁30.	-9931
▁Peux	-9932
▁spéc	-9933
▁Berlin	-9934
▁Pauvre	-9935
▁restez	-9936
▁communauté	-9937
▁remp	-9938
▁Clear	-9939
▁Hitler	-9940
▁Anybody	-9941
▁théâtre	-9942
ordinateur	-9943
initivement	-9944
ika	-9945
▁Him	-9946
▁nut	-9947
annel	-9948
▁alarm	-9949
▁Mickey	-9950
▁ramené	-9951
▁cherché	-9952
▁illegal	-9953
▁libérer	-9954
▁Mah	-9955
▁Syl	-9956
▁Inte	-9957
▁sher	-9958
idered	-9959
▁fuite	-9960
▁moves	-9961
▁Either	-9962
▁stable	-9963
▁époque	-9964
▁conférence	-9965
colm	-9966
antha	-9967
▁Arch	-9968
▁product	-9969
éli	-9970
▁bâ	-9971
iétez	-9972
▁rude	-9973
▁vest	-9974
▁Indian	-9975
▁normale	-9976
▁appointment	-9977
omac	-9978
▁Jui	-9979
icien	-9980
▁broad	-9981
▁réaliser	-9982
assed	-9983
belie	-9984
▁Conf	-9985
▁Lois	-9986
▁taire	-9987
▁boring	-9988
▁transformer	-9989
▁pul	-9990
uries	-9991
▁Bang	-9992
▁murs	-9993
ennemi	-9994
▁Lucky	-9995
▁arbre	-9996
▁leads	-9997
▁sugar	-9998
▁château	-9999
▁3.	-10000
▁TR	-10001
erait	-10002
▁Dale	-10003
▁diplom	-10004
▁Russell	-10005
▁commande	-10006
lam	-10007
euse	-10008
▁Mot	-10009
▁Carm	-10010
▁Court	-10011
▁grade	-10012
▁jette	-10013
ological	-10014
iac	-10015
HING	-10016
conom	-10017
▁Enter	-10018
▁badly	-10019
▁budget	-10020
▁ancient	-10021
UD	-10022
▁giant	-10023
▁value	-10024
intérêt	-10025
▁touched	-10026
▁Inspecteur	-10027
▁invitation	-10028
00.	-10029
,000.	-10030
▁dign	-10031
▁Aaron	-10032
▁forest	-10033
▁continues	-10034
▁inquiétez	-10035
▁Chi	-10036
▁mun	-10037
aries	-10038
sière	-10039
▁Dennis	-10040
▁liquide	-10041
▁mystery	-10042
attention	-10043
▁DA	-10044
▁bars	-10045
▁purs	-10046
▁Rends	-10047
▁cloud	-10048
▁throat	-10049
▁passait	-10050
rob	-10051
érez	-10052
▁194	-10053
▁côte	-10054
▁tank	-10055
▁marks	-10056
▁thief	-10057
▁Forgive	-10058
▁population	-10059
▁reviendrai	-10060
-2	-10061
▁Cub	-10062
▁Feel	-10063
▁porté	-10064
▁healthy	-10065
▁smoking	-10066
▁vehicle	-10067
avec	-10068
uels	-10069
▁Mat	-10070
▁spy	-10071
▁Dead	-10072
issait	-10073
ability	-10074
▁canapé	-10075
levision	-10076
anchement	-10077
▁cherchez	-10078
▁donnerai	-10079
▁grateful	-10080
▁Mit	-10081
▁Naz	-10082
ouill	-10083
▁Shawn	-10084
▁device	-10085
▁habitu	-10086
identité	-10087
▁remains	-10088
embrasser	-10089
ulf	-10090
▁sage	-10091
▁screen	-10092
▁vivent	-10093
▁presence	-10094
Et	-10095
UCK	-10096
▁Pau	-10097
▁cooper	-10098
▁EX	-10099
uste	-10100
État	-10101
▁neg	-10102
arson	-10103
ignore	-10104
▁Bible	-10105
▁Almost	-10106
▁Sheriff	-10107
▁portait	-10108
CA	-10109
AST	-10110
ums	-10111
▁Bra	-10112
▁Crai	-10113
▁porc	-10114
▁pages	-10115
▁connected	-10116
▁déclaration	-10117
▁Bai	-10118
enait	-10119
▁Chan	-10120
▁EVER	-10121
▁royal	-10122
▁signs	-10123
▁Suivez	-10124
▁cambri	-10125
▁débrou	-10126
▁minuit	-10127
▁Malcolm	-10128
▁piscine	-10129
armac	-10130
▁Neither	-10131
▁ashamed	-10132
▁vampires	-10133
▁dra	-10134
▁avoc	-10135
▁Monday	-10136
▁couvrir	-10137
▁ennuyeux	-10138
▁Certainement	-10139
All	-10140
▁Bab	-10141
▁Win	-10142
▁Gene	-10143
▁vill	-10144
▁télév	-10145
▁supplie	-10146
▁Heureusement	-10147
▁billet	-10148
▁attaqué	-10149
▁efforts	-10150
▁gosses	-10151
▁pilote	-10152
▁Sky	-10153
aimait	-10154
▁Barney	-10155
▁existe	-10156
PD	-10157
▁36	-10158
▁cu	-10159
▁tall	-10160
▁chaos	-10161
▁monté	-10162
▁swing	-10163
▁épous	-10164
▁Travis	-10165
▁géniale	-10166
▁circumstances	-10167
wan	-10168
sect	-10169
onger	-10170
owing	-10171
unité	-10172
▁WOMAN	-10173
▁Lincoln	-10174
▁curious	-10175
▁profiter	-10176
▁existence	-10177
▁enregistre	-10178
rs	-10179
bage	-10180
▁flam	-10181
▁Philip	-10182
▁Promis	-10183
▁nourrir	-10184
una	-10185
cast	-10186
girl	-10187
lesh	-10188
essai	-10189
▁June	-10190
▁Ravi	-10191
▁puts	-10192
▁Might	-10193
▁Seven	-10194
▁awake	-10195
▁sortes	-10196
▁directly	-10197
▁schedule	-10198
▁£	-10199
oil	-10200
itan	-10201
▁Mick	-10202
ipping	-10203
▁Disons	-10204
accepter	-10205
▁puissance	-10206
▁Send	-10207
▁Number	-10208
▁Wouldn	-10209
▁trésor	-10210
▁mistakes	-10211
▁Las	-10212
▁Step	-10213
▁tied	-10214
▁trous	-10215
émie	-10216
▁Nap	-10217
ality	-10218
etnam	-10219
▁Seems	-10220
▁nuits	-10221
▁commis	-10222
▁garden	-10223
▁venger	-10224
arranger	-10225
▁throwing	-10226
▁promotion	-10227
ancs	-10228
▁rabb	-10229
▁modern	-10230
▁Japanese	-10231
▁concours	-10232
▁suffering	-10233
▁ox	-10234
otic	-10235
▁pee	-10236
annon	-10237
▁cann	-10238
▁Death	-10239
▁chier	-10240
▁cadeaux	-10241
▁oiseaux	-10242
▁satellite	-10243
▁considered	-10244
▁kilomètres	-10245
▁Ko	-10246
▁Diane	-10247
▁crowd	-10248
▁titre	-10249
▁border	-10250
▁gather	-10251
▁paraît	-10252
▁médical	-10253
IVE	-10254
ders	-10255
▁gall	-10256
▁frust	-10257
▁negot	-10258
▁phase	-10259
▁Grandma	-10260
▁étranger	-10261
▁convinced	-10262
IME	-10263
hier	-10264
▁Water	-10265
▁diriger	-10266
▁fantastique	-10267
don	-10268
▁Sau	-10269
▁Joan	-10270
▁Util	-10271
▁lois	-10272
▁maud	-10273
▁drown	-10274
▁dragon	-10275
▁respond	-10276
▁saurais	-10277
▁treated	-10278
▁Jonathan	-10279
▁remonter	-10280
tesse	-10281
▁Card	-10282
▁coma	-10283
▁China	-10284
▁Quels	-10285
▁false	-10286
▁résol	-10287
▁shake	-10288
▁Castle	-10289
▁dispute	-10290
▁reports	-10291
▁patience	-10292
▁released	-10293
▁souhaite	-10294
▁stronger	-10295
▁chauffeur	-10296
▁understood	-10297
▁sons	-10298
▁below	-10299
▁soupe	-10300
▁ralent	-10301
▁concept	-10302
adorerais	-10303
▁promesse	-10304
exam	-10305
othy	-10306
arily	-10307
▁Mean	-10308
▁Save	-10309
▁kilos	-10310
▁profil	-10311
▁pourrions	-10312
▁McK	-10313
▁ens	-10314
▁Coup	-10315
▁lack	-10316
▁ryth	-10317
▁bound	-10318
▁vente	-10319
▁philos	-10320
▁essayez	-10321
hoo	-10322
ios	-10323
gins	-10324
orde	-10325
▁SEE	-10326
ATION	-10327
elson	-10328
▁Fair	-10329
▁Whit	-10330
▁alibi	-10331
▁actual	-10332
▁defend	-10333
▁desire	-10334
▁Quelles	-10335
▁période	-10336
▁district	-10337
pse	-10338
▁beast	-10339
▁lover	-10340
▁imagination	-10341
that	-10342
avère	-10343
retch	-10344
▁elev	-10345
▁gods	-10346
▁grie	-10347
▁unus	-10348
▁Child	-10349
▁Close	-10350
▁briser	-10351
▁espion	-10352
▁guerri	-10353
▁Spencer	-10354
▁changing	-10355
▁Gw	-10356
inson	-10357
▁Kang	-10358
▁Griff	-10359
▁sommet	-10360
▁exchange	-10361
▁technology	-10362
▁personnellement	-10363
▁Dra	-10364
▁Emb	-10365
enture	-10366
▁foule	-10367
▁Morris	-10368
▁région	-10369
▁pattern	-10370
▁partners	-10371
▁montagnes	-10372
hern	-10373
vais	-10374
▁Walt	-10375
▁woke	-10376
▁Inspector	-10377
▁Otherwise	-10378
4,	-10379
rov	-10380
Pour	-10381
orig	-10382
▁Duke	-10383
▁Fran	-10384
▁Mère	-10385
▁rise	-10386
arence	-10387
▁ocean	-10388
▁libéré	-10389
▁leaders	-10390
▁charmant	-10391
▁chocolate	-10392
▁California	-10393
upt	-10394
▁Roi	-10395
allée	-10396
▁Narr	-10397
▁Viol	-10398
▁asse	-10399
▁carn	-10400
▁slip	-10401
▁gliss	-10402
▁rescue	-10403
▁Franklin	-10404
▁Previously	-10405
bey	-10406
rien	-10407
▁Cep	-10408
▁lion	-10409
▁birds	-10410
▁becoming	-10411
▁Ent	-10412
▁jume	-10413
▁aient	-10414
▁anony	-10415
▁bones	-10416
▁Courez	-10417
AG	-10418
ati	-10419
ading	-10420
▁lips	-10421
▁mere	-10422
amener	-10423
▁concentrer	-10424
▁32	-10425
iture	-10426
▁tear	-10427
▁Being	-10428
▁loving	-10429
▁becomes	-10430
▁Minister	-10431
▁Mitch	-10432
▁Samantha	-10433
3,	-10434
gies	-10435
▁Ven	-10436
ouest	-10437
▁Curt	-10438
vation	-10439
▁Champ	-10440
▁aside	-10441
▁mercy	-10442
▁Louise	-10443
▁altern	-10444
▁découv	-10445
▁essent	-10446
▁voient	-10447
▁breathing	-10448
▁Unfortunately	-10449
▁ot	-10450
rand	-10451
unte	-10452
▁caf	-10453
▁tum	-10454
iteur	-10455
▁Coun	-10456
▁Inde	-10457
▁laws	-10458
▁Point	-10459
▁blank	-10460
énateur	-10461
▁examin	-10462
▁dessert	-10463
▁trouvez	-10464
▁extremely	-10465
▁Kore	-10466
▁ange	-10467
▁lower	-10468
▁dessous	-10469
ples	-10470
▁Sin	-10471
rosse	-10472
▁mall	-10473
▁Brend	-10474
▁Phill	-10475
▁moteur	-10476
▁erreurs	-10477
▁Director	-10478
▁Victoria	-10479
▁invisible	-10480
7,	-10481
▁Kh	-10482
▁Fam	-10483
▁Mid	-10484
oquer	-10485
▁Ceci	-10486
▁Dong	-10487
▁spin	-10488
▁escaped	-10489
▁division	-10490
▁réaction	-10491
Don	-10492
mann	-10493
▁Jas	-10494
▁coûte	-10495
▁finit	-10496
▁trash	-10497
▁Special	-10498
▁sauvage	-10499
éraux	-10500
▁GOOD	-10501
▁Gall	-10502
▁Soit	-10503
▁chou	-10504
ribles	-10505
▁Madam	-10506
▁Ralph	-10507
▁Gloria	-10508
▁avenir	-10509
▁modèle	-10510
édemment	-10511
▁cauchemar	-10512
▁[	-10513
box	-10514
▁alt	-10515
èbres	-10516
▁mord	-10517
enseur	-10518
ipment	-10519
▁Kitty	-10520
▁brand	-10521
▁fonds	-10522
▁squad	-10523
▁blonde	-10524
▁essaye	-10525
▁hunting	-10526
▁rapports	-10527
hés	-10528
vest	-10529
mbered	-10530
▁Going	-10531
▁occur	-10532
▁faibles	-10533
▁magique	-10534
IP	-10535
▁tuy	-10536
▁deli	-10537
▁Mieux	-10538
▁corde	-10539
▁ships	-10540
▁larmes	-10541
▁audition	-10542
▁brillant	-10543
▁frontière	-10544
▁experiment	-10545
chell	-10546
ocrat	-10547
▁Ford	-10548
▁wave	-10549
▁joueur	-10550
▁square	-10551
▁différente	-10552
▁Ple	-10553
▁escl	-10554
érature	-10555
▁Anthony	-10556
burg	-10557
▁00:	-10558
clock	-10559
rated	-10560
▁Nich	-10561
▁adulte	-10562
▁conven	-10563
▁oiseau	-10564
▁terres	-10565
▁connait	-10566
▁tournée	-10567
▁combattre	-10568
▁friendship	-10569
▁poursuivre	-10570
▁réputation	-10571
iber	-10572
resa	-10573
▁Ale	-10574
▁edge	-10575
▁tempête	-10576
▁mensonges	-10577
▁disparaître	-10578
▁grandfather	-10579
▁(	-10580
onz	-10581
▁CD	-10582
cing	-10583
▁Liam	-10584
▁bump	-10585
▁teen	-10586
avocat	-10587
▁Ellen	-10588
▁secure	-10589
▁silver	-10590
▁prevent	-10591
▁romantique	-10592
▁grandmother	-10593
ICH	-10594
stal	-10595
▁vari	-10596
▁exerc	-10597
▁Jersey	-10598
▁arrives	-10599
▁cameras	-10600
▁connaissait	-10601
away	-10602
▁sinc	-10603
▁sisters	-10604
▁Nad	-10605
versé	-10606
▁Kirk	-10607
▁Pierre	-10608
▁arbres	-10609
▁répète	-10610
▁appelée	-10611
▁résultat	-10612
ORT	-10613
▁CL	-10614
aisy	-10615
osen	-10616
existe	-10617
▁decent	-10618
▁feront	-10619
▁foreign	-10620
▁inventé	-10621
▁placard	-10622
▁argument	-10623
▁prisonnier	-10624
▁competition	-10625
eks	-10626
▁3:	-10627
▁gel	-10628
▁ayez	-10629
▁Chang	-10630
▁Megan	-10631
▁popular	-10632
▁standard	-10633
▁©	-10634
tto	-10635
émin	-10636
▁summ	-10637
▁shift	-10638
essence	-10639
▁eventually	-10640
▁particulier	-10641
▁Mademoiselle	-10642
▁Lyn	-10643
▁Tak	-10644
quent	-10645
▁demon	-10646
▁Virginia	-10647
▁pump	-10648
▁bouton	-10649
▁esprits	-10650
▁desperate	-10651
add	-10652
▁pé	-10653
mare	-10654
▁intim	-10655
▁piégé	-10656
▁tasse	-10657
▁online	-10658
▁Blanche	-10659
▁Sergent	-10660
▁parlons	-10661
▁Cependant	-10662
apes	-10663
pton	-10664
uffy	-10665
▁Hier	-10666
▁Isra	-10667
▁fuir	-10668
▁mérit	-10669
▁solve	-10670
▁procéd	-10671
▁cherchais	-10672
▁Professeur	-10673
▁Précédemment	-10674
ooth	-10675
rary	-10676
ridge	-10677
▁Hugh	-10678
▁dirt	-10679
▁lesb	-10680
▁motor	-10681
▁conclu	-10682
▁hearts	-10683
▁trapped	-10684
▁stealing	-10685
▁Californie	-10686
say	-10687
anes	-10688
▁Lat	-10689
▁Êtes	-10690
▁motel	-10691
▁attent	-10692
▁réserv	-10693
▁Déf	-10694
▁bats	-10695
▁liar	-10696
onnant	-10697
▁sports	-10698
▁convaincu	-10699
olis	-10700
▁babe	-10701
▁bags	-10702
▁sucre	-10703
▁nonsense	-10704
▁sensible	-10705
▁sorcière	-10706
REN	-10707
lymp	-10708
▁Cond	-10709
▁analy	-10710
▁Détends	-10711
SA	-10712
écrire	-10713
▁establ	-10714
▁excité	-10715
▁prêtre	-10716
humanité	-10717
▁grosses	-10718
De	-10719
▁Hom	-10720
▁nul	-10721
anceux	-10722
▁motiv	-10723
▁rater	-10724
▁rompu	-10725
▁oublie	-10726
▁traite	-10727
▁century	-10728
▁winning	-10729
▁demandez	-10730
▁television	-10731
ONG	-10732
▁unf	-10733
▁refer	-10734
▁Honest	-10735
▁Murphy	-10736
▁honestly	-10737
▁prisoner	-10738
▁equipment	-10739
uf	-10740
▁Zoe	-10741
▁tatt	-10742
▁Sandy	-10743
▁angle	-10744
▁domest	-10745
▁repart	-10746
accident	-10747
▁émotion	-10748
▁creature	-10749
▁circonstances	-10750
ams	-10751
▁OFF	-10752
▁fleur	-10753
▁falloir	-10754
▁Pen	-10755
tense	-10756
▁WOULD	-10757
▁obtenu	-10758
▁slowly	-10759
▁supposé	-10760
▁voisins	-10761
ïnc	-10762
▁QU	-10763
levez	-10764
▁hunt	-10765
▁Quiet	-10766
▁nuclé	-10767
▁Batman	-10768
▁Réveille	-10769
▁constant	-10770
arma	-10771
inda	-10772
vait	-10773
▁Ori	-10774
ining	-10775
▁Paige	-10776
▁virgin	-10777
▁winter	-10778
▁Gabriel	-10779
▁princess	-10780
oter	-10781
▁urg	-10782
arres	-10783
ondez	-10784
rance	-10785
▁Real	-10786
▁mener	-10787
▁timing	-10788
▁bonbons	-10789
▁delicious	-10790
arts	-10791
▁coi	-10792
ormed	-10793
▁rand	-10794
▁bibli	-10795
▁sonne	-10796
▁brains	-10797
uil	-10798
▁400	-10799
▁pip	-10800
▁Lane	-10801
▁Mass	-10802
▁Prin	-10803
......	-10804
▁strat	-10805
▁billion	-10806
▁trusted	-10807
▁véhicule	-10808
▁whenever	-10809
believable	-10810
ockey	-10811
▁Evan	-10812
▁Faut	-10813
▁Mosc	-10814
▁Chand	-10815
▁flesh	-10816
▁rythme	-10817
▁pouviez	-10818
▁Security	-10819
NE	-10820
▁LET	-10821
▁eld	-10822
▁Fitz	-10823
▁Seth	-10824
▁button	-10825
▁Premier	-10826
▁conference	-10827
arrett	-10828
explos	-10829
ronter	-10830
▁Vérif	-10831
▁passing	-10832
▁pleased	-10833
▁Cro	-10834
irait	-10835
▁Tara	-10836
▁Force	-10837
▁hated	-10838
▁pêche	-10839
▁vieill	-10840
▁blesser	-10841
▁impliqu	-10842
▁Préparez	-10843
▁conseiller	-10844
0,	-10845
▁da	-10846
exist	-10847
utions	-10848
▁Claud	-10849
▁plomb	-10850
▁Tourne	-10851
▁served	-10852
▁staring	-10853
▁photograp	-10854
onica	-10855
▁Grey	-10856
▁adop	-10857
▁Nelson	-10858
▁dérang	-10859
▁reward	-10860
▁absence	-10861
▁souffrir	-10862
▁structure	-10863
sa	-10864
▁PR	-10865
▁fug	-10866
▁Jill	-10867
▁cord	-10868
▁crème	-10869
▁sauté	-10870
nements	-10871
▁quiconque	-10872
▁journaliste	-10873
ONNA	-10874
▁astr	-10875
▁clan	-10876
anning	-10877
▁Homer	-10878
▁bride	-10879
▁vache	-10880
▁Termin	-10881
▁lecture	-10882
▁policier	-10883
▁bienvenue	-10884
▁courageux	-10885
car	-10886
▁Bi	-10887
gage	-10888
énom	-10889
offre	-10890
ormes	-10891
▁brûlé	-10892
▁provide	-10893
▁pa	-10894
itute	-10895
▁rooms	-10896
▁rempli	-10897
▁rembours	-10898
▁Lin	-10899
▁Mas	-10900
▁desert	-10901
▁franch	-10902
▁sacrée	-10903
▁atteint	-10904
▁midnight	-10905
▁shoulder	-10906
▁carefully	-10907
▁recommencer	-10908
VEN	-10909
sen	-10910
keep	-10911
rants	-10912
asp	-10913
étud	-10914
▁tex	-10915
▁Stef	-10916
▁dieux	-10917
▁dozen	-10918
▁sharp	-10919
▁compan	-10920
USE	-10921
▁Zh	-10922
umed	-10923
▁Idiot	-10924
▁anger	-10925
▁fusil	-10926
▁riding	-10927
▁protest	-10928
▁étudiants	-10929
▁personnage	-10930
iro	-10931
arks	-10932
ownt	-10933
▁Fat	-10934
▁row	-10935
▁sai	-10936
activ	-10937
▁Yang	-10938
▁Colle	-10939
▁warri	-10940
▁sortis	-10941
▁témoign	-10942
▁découver	-10943
▁peinture	-10944
oma	-10945
geon	-10946
▁Use	-10947
▁sed	-10948
ipper	-10949
▁Need	-10950
▁tube	-10951
▁ward	-10952
▁écriv	-10953
▁Bougez	-10954
▁suppos	-10955
▁disgusting	-10956
entraînement	-10957
▁§	-10958
IRE	-10959
odka	-10960
ueux	-10961
▁FEMME	-10962
▁chute	-10963
▁saviez	-10964
▁retourné	-10965
▁Magnifique	-10966
enée	-10967
▁Exp	-10968
▁verrai	-10969
▁réponds	-10970
▁cleaning	-10971
DER	-10972
gers	-10973
▁Rent	-10974
▁dust	-10975
▁Govern	-10976
▁mirror	-10977
▁caution	-10978
▁cookies	-10979
▁extrême	-10980
▁menteur	-10981
▁recommand	-10982
▁apparemment	-10983
▁adj	-10984
▁mac	-10985
stead	-10986
▁déce	-10987
▁fund	-10988
▁Grâce	-10989
▁roses	-10990
▁Ronnie	-10991
▁fausse	-10992
▁beating	-10993
▁plainte	-10994
▁literally	-10995
iva	-10996
▁pâ	-10997
icles	-10998
▁Rita	-10999
▁acte	-11000
▁paye	-11001
▁causé	-11002
▁Bishop	-11003
▁corpor	-11004
▁suffis	-11005
▁contest	-11006
▁descends	-11007
▁lumières	-11008
nth	-11009
assi	-11010
▁intr	-11011
▁lame	-11012
athers	-11013
▁Buddy	-11014
▁drogu	-11015
▁caract	-11016
▁pensons	-11017
▁Americans	-11018
ggie	-11019
▁HIS	-11020
▁cac	-11021
▁zoo	-11022
élect	-11023
▁Allen	-11024
▁songs	-11025
▁guards	-11026
Or	-11027
iew	-11028
oty	-11029
acey	-11030
▁bust	-11031
▁reck	-11032
▁crâne	-11033
▁bougez	-11034
▁échoué	-11035
▁attempt	-11036
▁unusual	-11037
▁stranger	-11038
▁successful	-11039
rot	-11040
▁Fox	-11041
▁wid	-11042
▁clever	-11043
▁Finally	-11044
▁Looking	-11045
▁chansons	-11046
▁secrétaire	-11047
▁Fu	-11048
▁Said	-11049
▁hire	-11050
▁raid	-11051
▁Chine	-11052
▁fumer	-11053
▁sneak	-11054
èrement	-11055
▁winner	-11056
▁useless	-11057
▁goodness	-11058
▁pardonne	-11059
▁Liv	-11060
estre	-11061
known	-11062
▁Zach	-11063
▁Drink	-11064
▁GONNA	-11065
▁Bonnie	-11066
▁Dragon	-11067
▁spoken	-11068
▁énervé	-11069
éte	-11070
▁Eva	-11071
▁Sac	-11072
▁ber	-11073
▁Judy	-11074
▁engaged	-11075
▁faudrait	-11076
▁Pa	-11077
ribe	-11078
▁Seb	-11079
▁Honn	-11080
▁Vick	-11081
▁maqu	-11082
▁durant	-11083
▁remove	-11084
▁préparé	-11085
▁atteindre	-11086
▁Each	-11087
▁lourd	-11088
▁superbe	-11089
ags	-11090
oyle	-11091
atory	-11092
▁corn	-11093
▁punk	-11094
▁coïnc	-11095
▁knees	-11096
▁mayor	-11097
▁maîtres	-11098
EP	-11099
▁abat	-11100
▁valu	-11101
hattan	-11102
▁enfui	-11103
▁presc	-11104
▁steps	-11105
▁tours	-11106
▁dispon	-11107
▁portée	-11108
▁yellow	-11109
war	-11110
lear	-11111
▁Fif	-11112
▁Juan	-11113
▁Moon	-11114
▁lent	-11115
▁annoy	-11116
▁Ashley	-11117
▁limite	-11118
▁Vietnam	-11119
▁Christine	-11120
arde	-11121
▁Sou	-11122
▁Best	-11123
ertain	-11124
érateur	-11125
▁Eun	-11126
▁PRO	-11127
▁gout	-11128
▁pupp	-11129
▁foyer	-11130
▁fully	-11131
▁singe	-11132
▁sucks	-11133
▁breast	-11134
▁nombreux	-11135
▁stupides	-11136
▁chè	-11137
▁œil	-11138
usive	-11139
▁kinds	-11140
▁divers	-11141
▁symbol	-11142
▁créature	-11143
▁importance	-11144
din	-11145
bler	-11146
oked	-11147
opper	-11148
▁Techn	-11149
▁galax	-11150
▁tears	-11151
fortable	-11152
▁Whoever	-11153
▁intense	-11154
▁salaire	-11155
▁déplacer	-11156
▁explique	-11157
▁emotional	-11158
▁difficiles	-11159
▁révolution	-11160
éo	-11161
amie	-11162
▁dict	-11163
▁amener	-11164
▁chaude	-11165
▁highly	-11166
▁perdue	-11167
▁tienne	-11168
▁tourné	-11169
▁Stanley	-11170
▁raconte	-11171
ouvé	-11172
▁Ast	-11173
▁unh	-11174
ights	-11175
▁Trav	-11176
▁canon	-11177
▁etern	-11178
▁August	-11179
▁Avancez	-11180
▁chirurg	-11181
▁Princess	-11182
▁basement	-11183
▁darkness	-11184
▁Beautiful	-11185
▁étrangers	-11186
ids	-11187
pre	-11188
illed	-11189
▁sque	-11190
▁Chloe	-11191
▁alert	-11192
▁cockt	-11193
▁prime	-11194
▁Debbie	-11195
▁Retourne	-11196
▁hundreds	-11197
scur	-11198
▁Pam	-11199
▁BACK	-11200
▁Clar	-11201
▁Tour	-11202
▁brûl	-11203
▁marsh	-11204
▁Certain	-11205
▁Bren	-11206
▁Half	-11207
▁Couldn	-11208
registre	-11209
▁massive	-11210
▁precious	-11211
road	-11212
▁CAR	-11213
ariat	-11214
iable	-11215
▁Hale	-11216
▁Ivan	-11217
▁repl	-11218
oigner	-11219
▁vague	-11220
▁Harper	-11221
▁endorm	-11222
▁phrase	-11223
▁counsel	-11224
▁separate	-11225
▁deviennent	-11226
gles	-11227
gues	-11228
▁Top	-11229
isses	-11230
▁Gina	-11231
▁wide	-11232
▁Alpha	-11233
▁cérém	-11234
▁épuis	-11235
▁flower	-11236
▁signes	-11237
dam	-11238
idiot	-11239
▁Clara	-11240
▁bored	-11241
▁récon	-11242
▁censés	-11243
▁detail	-11244
lim	-11245
ugs	-11246
imet	-11247
▁Burt	-11248
▁Phoe	-11249
▁Resp	-11250
▁pipe	-11251
aiment	-11252
imagin	-11253
▁enfoiré	-11254
assurance	-11255
▁cassette	-11256
▁vieilles	-11257
▁remplacer	-11258
▁Benj	-11259
▁Team	-11260
iences	-11261
▁Excell	-11262
▁central	-11263
▁parlera	-11264
ardo	-11265
pher	-11266
▁Dal	-11267
▁midi	-11268
▁Daisy	-11269
▁dispos	-11270
▁Darling	-11271
▁depends	-11272
▁exploit	-11273
▁répéter	-11274
▁Amb	-11275
▁Ele	-11276
▁Yet	-11277
▁posé	-11278
▁achet	-11279
▁arrog	-11280
▁candy	-11281
▁intend	-11282
▁monkey	-11283
▁vivait	-11284
▁matériel	-11285
▁guarantee	-11286
▁processus	-11287
dog	-11288
OUND	-11289
iler	-11290
aming	-11291
océan	-11292
▁wise	-11293
▁Craig	-11294
▁Jenna	-11295
▁tatou	-11296
▁Dehors	-11297
▁enfermé	-11298
▁permett	-11299
▁similar	-11300
enger	-11301
ookie	-11302
▁Chap	-11303
▁Maya	-11304
▁poll	-11305
▁fantas	-11306
▁prenne	-11307
▁ability	-11308
pte	-11309
gypt	-11310
▁Ned	-11311
▁Tracy	-11312
▁feriez	-11313
▁repeat	-11314
▁venant	-11315
▁méchants	-11316
▁prisonniers	-11317
Re	-11318
équip	-11319
▁1000	-11320
▁lake	-11321
▁surf	-11322
onnable	-11323
▁fiancé	-11324
▁sheriff	-11325
▁spending	-11326
ivan	-11327
oral	-11328
▁ath	-11329
ising	-11330
▁Compl	-11331
▁Diana	-11332
▁Warren	-11333
▁infect	-11334
▁palais	-11335
▁skills	-11336
▁hitting	-11337
▁serpent	-11338
▁suffisant	-11339
▁engagement	-11340
ller	-11341
▁scen	-11342
▁India	-11343
▁Audrey	-11344
▁disput	-11345
▁trigger	-11346
▁essayant	-11347
▁Department	-11348
▁SAY	-11349
▁Sex	-11350
shirt	-11351
▁Hand	-11352
▁hits	-11353
▁préd	-11354
▁Palmer	-11355
▁explan	-11356
▁orange	-11357
▁Puisque	-11358
▁regrette	-11359
▁screaming	-11360
▁célibataire	-11361
mands	-11362
▁Times	-11363
▁gross	-11364
▁lundi	-11365
▁minor	-11366
▁aliens	-11367
▁estate	-11368
▁stairs	-11369
▁chasing	-11370
▁meurent	-11371
▁chiffres	-11372
▁Aux	-11373
▁Been	-11374
▁Lake	-11375
▁Meet	-11376
▁juré	-11377
▁panc	-11378
▁Connor	-11379
âts	-11380
▁Adm	-11381
agger	-11382
▁hates	-11383
▁react	-11384
▁sable	-11385
duction	-11386
▁Elliot	-11387
▁Many	-11388
▁debt	-11389
▁Patron	-11390
▁casino	-11391
▁chinois	-11392
▁cutting	-11393
▁représente	-11394
▁understanding	-11395
▁Add	-11396
▁voc	-11397
ainte	-11398
ilton	-11399
▁Karl	-11400
▁caval	-11401
▁Though	-11402
▁jaloux	-11403
▁Natalie	-11404
▁wanting	-11405
▁abandoned	-11406
▁compliment	-11407
▁proposition	-11408
Is	-11409
uin	-11410
olas	-11411
osau	-11412
yard	-11413
▁idé	-11414
avier	-11415
endie	-11416
étage	-11417
▁Found	-11418
▁venais	-11419
▁contain	-11420
▁sentais	-11421
▁meilleures	-11422
▁Left	-11423
▁devras	-11424
▁poussé	-11425
▁fashion	-11426
▁Christopher	-11427
▁dî	-11428
...!	-11429
oide	-11430
allow	-11431
roger	-11432
▁agir	-11433
▁horn	-11434
▁blancs	-11435
▁pousse	-11436
▁administ	-11437
abandonner	-11438
▁searching	-11439
bar	-11440
▁Hands	-11441
▁fract	-11442
▁saint	-11443
▁miroir	-11444
▁mostly	-11445
▁fatigué	-11446
▁gardien	-11447
▁receive	-11448
▁profondément	-11449
▁glo	-11450
▁adopt	-11451
▁conce	-11452
▁metal	-11453
▁closet	-11454
▁hôpital	-11455
▁maximum	-11456
▁royaume	-11457
▁scratch	-11458
roph	-11459
▁Mia	-11460
▁Pil	-11461
▁soda	-11462
▁juice	-11463
▁strict	-11464
pes	-11465
irts	-11466
rome	-11467
▁Pic	-11468
▁Free	-11469
▁diab	-11470
▁east	-11471
▁inhab	-11472
▁Change	-11473
habiller	-11474
▁identity	-11475
aya	-11476
▁Arn	-11477
attes	-11478
mante	-11479
▁decl	-11480
▁doué	-11481
▁chain	-11482
▁polici	-11483
▁Grandpa	-11484
▁Justice	-11485
▁carried	-11486
▁leading	-11487
▁victory	-11488
ban	-11489
▁Whe	-11490
▁île	-11491
oupes	-11492
âches	-11493
▁Diego	-11494
▁amène	-11495
▁armed	-11496
▁rayon	-11497
▁tapis	-11498
▁Canada	-11499
▁cadavre	-11500
▁factory	-11501
▁setting	-11502
▁suivant	-11503
▁allaient	-11504
eufs	-11505
▁Vis	-11506
▁Coupe	-11507
▁devra	-11508
▁fallen	-11509
▁Kennedy	-11510
▁nightmare	-11511
ns	-11512
AME	-11513
kel	-11514
▁Ll	-11515
▁Dark	-11516
▁Wolf	-11517
▁boom	-11518
▁miel	-11519
▁zéro	-11520
accomp	-11521
▁GOING	-11522
▁conseils	-11523
wa	-11524
athe	-11525
▁lié	-11526
anish	-11527
chant	-11528
▁Dest	-11529
▁Phoebe	-11530
▁ballon	-11531
▁policy	-11532
▁federal	-11533
▁rentrée	-11534
▁pouvaient	-11535
▁remembered	-11536
▁GR	-11537
uate	-11538
▁Bureau	-11539
▁soudain	-11540
8,	-11541
ela	-11542
▁bav	-11543
▁hmm	-11544
gling	-11545
▁Hart	-11546
▁nurs	-11547
▁Oncle	-11548
▁curse	-11549
▁madam	-11550
▁Nicole	-11551
▁chosen	-11552
▁dessin	-11553
▁wishes	-11554
▁rencard	-11555
▁agreement	-11556
uz	-11557
▁Ans	-11558
▁brit	-11559
▁Jules	-11560
▁poker	-11561
▁aurons	-11562
▁choisis	-11563
▁volunte	-11564
▁prendrai	-11565
▁téléphon	-11566
▁commencent	-11567
▁Ger	-11568
berry	-11569
▁Aide	-11570
▁Ward	-11571
▁pity	-11572
▁effic	-11573
▁helps	-11574
▁fruits	-11575
▁donnent	-11576
▁détective	-11577
6,	-11578
eror	-11579
▁paire	-11580
▁tâche	-11581
▁stands	-11582
▁gratuit	-11583
▁renfort	-11584
▁FROM	-11585
▁Lion	-11586
▁Tuez	-11587
▁ravi	-11588
▁sink	-11589
offrir	-11590
rossed	-11591
▁Woman	-11592
▁bâtard	-11593
▁joined	-11594
officier	-11595
▁determin	-11596
▁authority	-11597
▁10.	-11598
▁Break	-11599
▁haine	-11600
▁couvre	-11601
▁legend	-11602
▁failure	-11603
issements	-11604
▁portrait	-11605
▁thy	-11606
astre	-11607
▁boit	-11608
apping	-11609
▁Ainsi	-11610
▁aimez	-11611
▁minds	-11612
▁Norman	-11613
▁forcer	-11614
▁confort	-11615
▁contacts	-11616
▁médecine	-11617
icat	-11618
icing	-11619
riers	-11620
▁mile	-11621
▁entrep	-11622
▁Content	-11623
▁network	-11624
▁épouser	-11625
▁Halloween	-11626
ORE	-11627
but	-11628
tin	-11629
via	-11630
chée	-11631
▁Sept	-11632
▁Sydney	-11633
▁causer	-11634
▁pushed	-11635
▁Dégagez	-11636
▁arrêtez	-11637
▁cooking	-11638
▁dépêche	-11639
Est	-11640
▁3,	-11641
▁amp	-11642
▁jur	-11643
▁Hunter	-11644
▁commer	-11645
▁décisions	-11646
▁Américains	-11647
uiss	-11648
▁OKAY	-11649
▁dece	-11650
▁chips	-11651
▁geste	-11652
▁tooth	-11653
atiques	-11654
▁entrée	-11655
▁réalis	-11656
▁remplir	-11657
▁échappé	-11658
▁effrayant	-11659
▁regretter	-11660
▁craw	-11661
▁Shane	-11662
▁fière	-11663
▁Willie	-11664
▁campus	-11665
▁incroy	-11666
▁artiste	-11667
▁knocked	-11668
▁américaine	-11669
craft	-11670
▁Geor	-11671
▁seek	-11672
▁recall	-11673
▁tennis	-11674
▁Pourriez	-11675
▁délicieux	-11676
zed	-11677
▁AG	-11678
rial	-11679
érale	-11680
▁barr	-11681
▁zero	-11682
▁facts	-11683
▁miser	-11684
▁enlève	-11685
▁guérir	-11686
ailleurs	-11687
▁approach	-11688
▁troubles	-11689
▁confidence	-11690
▁récompense	-11691
▁télévision	-11692
▁Inst	-11693
▁Mange	-11694
▁believes	-11695
▁sometime	-11696
My	-11697
mma	-11698
▁PE	-11699
mony	-11700
aviez	-11701
▁Troy	-11702
ashing	-11703
▁gangs	-11704
▁moust	-11705
▁Africa	-11706
▁printemps	-11707
▁eaten	-11708
▁lapin	-11709
▁senior	-11710
▁termes	-11711
▁voyons	-11712
▁ordinary	-11713
▁Manhattan	-11714
iki	-11715
▁cess	-11716
▁term	-11717
▁Domin	-11718
▁atmos	-11719
▁gâché	-11720
ogether	-11721
▁celles	-11722
▁smells	-11723
▁strate	-11724
▁ceinture	-11725
▁fantômes	-11726
entreprise	-11727
BER	-11728
▁mm	-11729
▁Meg	-11730
andra	-11731
▁clue	-11732
▁pride	-11733
▁trompé	-11734
▁signific	-11735
Hey	-11736
ella	-11737
olie	-11738
▁sty	-11739
▁degr	-11740
acteur	-11741
▁Soyez	-11742
▁lieux	-11743
écoutes	-11744
▁Heather	-11745
▁domaine	-11746
▁treasure	-11747
▁interrupt	-11748
▁lentement	-11749
OWN	-11750
▁Fil	-11751
▁Tae	-11752
▁Tan	-11753
▁vil	-11754
arter	-11755
▁Wild	-11756
▁soirs	-11757
▁épouse	-11758
▁raconté	-11759
▁gouverneur	-11760
▁reputation	-11761
hon	-11762
mée	-11763
▁jun	-11764
esday	-11765
étude	-11766
▁WERE	-11767
▁tente	-11768
▁Alicia	-11769
▁auprès	-11770
▁respir	-11771
▁garbage	-11772
▁Honnêtement	-11773
▁Sug	-11774
▁Neil	-11775
▁culp	-11776
▁mini	-11777
▁surn	-11778
▁Être	-11779
▁Chase	-11780
▁vérit	-11781
iendrai	-11782
▁joking	-11783
▁kissed	-11784
▁whisky	-11785
▁holiday	-11786
▁perturb	-11787
▁prostitu	-11788
▁om	-11789
▁Sha	-11790
▁tau	-11791
ereur	-11792
ierge	-11793
ective	-11794
▁tenue	-11795
▁Lauren	-11796
▁compass	-11797
▁protecting	-11798
St	-11799
aily	-11800
▁Eat	-11801
▁Mun	-11802
▁pla	-11803
usses	-11804
▁WHEN	-11805
▁goal	-11806
▁fémin	-11807
▁Bailey	-11808
▁Maison	-11809
▁lignes	-11810
▁series	-11811
▁attendent	-11812
▁professionnel	-11813
ANG	-11814
iao	-11815
▁5.	-11816
uyer	-11817
▁pige	-11818
▁Eight	-11819
▁Money	-11820
▁emmén	-11821
▁gâche	-11822
▁refus	-11823
▁cloche	-11824
▁coward	-11825
▁Mitchell	-11826
▁professor	-11827
▁ressembler	-11828
gor	-11829
▁Finn	-11830
▁crai	-11831
▁gare	-11832
▁mout	-11833
▁neut	-11834
▁Cross	-11835
▁youth	-11836
▁Silver	-11837
▁couver	-11838
▁cuisin	-11839
▁deserves	-11840
▁entirely	-11841
▁friendly	-11842
▁marchera	-11843
▁properly	-11844
▁cérémonie	-11845
reu	-11846
▁Ep	-11847
▁Noah	-11848
▁Girls	-11849
▁réglé	-11850
dia	-11851
oga	-11852
opes	-11853
▁Bau	-11854
▁soy	-11855
▁géné	-11856
ancien	-11857
effond	-11858
▁Beach	-11859
▁castle	-11860
▁cuisiner	-11861
▁advent	-11862
▁Careful	-11863
'.	-11864
alo	-11865
zer	-11866
▁Ki	-11867
▁défi	-11868
▁Later	-11869
▁incap	-11870
▁manne	-11871
▁empire	-11872
▁impact	-11873
▁SC	-11874
lying	-11875
prises	-11876
▁Sebast	-11877
▁bêtises	-11878
▁marchand	-11879
appellerai	-11880
arian	-11881
▁News	-11882
▁dynam	-11883
▁impat	-11884
▁partici	-11885
▁workers	-11886
▁produits	-11887
ups	-11888
rise	-11889
ural	-11890
itual	-11891
stone	-11892
▁Bois	-11893
▁Sale	-11894
▁dises	-11895
▁shout	-11896
▁silent	-11897
▁Baissez	-11898
▁naturel	-11899
▁troupes	-11900
▁premières	-11901
▁rail	-11902
▁rehe	-11903
ursday	-11904
▁blast	-11905
▁noirs	-11906
▁Montez	-11907
▁School	-11908
▁houses	-11909
▁messed	-11910
▁devoirs	-11911
▁8:	-11912
rimé	-11913
anges	-11914
sessed	-11915
▁Carla	-11916
▁Janet	-11917
▁kills	-11918
▁econom	-11919
▁launch	-11920
▁respecter	-11921
ADN	-11922
▁42	-11923
▁Felix	-11924
▁distr	-11925
▁Donald	-11926
▁jumped	-11927
▁seriez	-11928
▁Réfléch	-11929
▁pushing	-11930
▁refaire	-11931
▁ancienne	-11932
▁plu	-11933
appré	-11934
▁talks	-11935
▁froide	-11936
▁chariot	-11937
▁pharmac	-11938
▁Veronica	-11939
FE	-11940
jah	-11941
obil	-11942
obile	-11943
▁Dana	-11944
▁Wade	-11945
▁gain	-11946
▁hill	-11947
▁plays	-11948
▁russe	-11949
▁soucie	-11950
▁Instead	-11951
▁anciens	-11952
▁secrète	-11953
▁homicide	-11954
▁jugement	-11955
li	-11956
▁fass	-11957
▁multi	-11958
▁nager	-11959
▁attaqu	-11960
▁auront	-11961
▁Cameron	-11962
▁collier	-11963
▁passent	-11964
▁complain	-11965
até	-11966
upp	-11967
▁Kal	-11968
▁LES	-11969
leton	-11970
▁Lana	-11971
resses	-11972
▁détour	-11973
▁however	-11974
▁laissée	-11975
▁pilules	-11976
▁découvre	-11977
▁mountains	-11978
▁travaillent	-11979
ova	-11980
with	-11981
levés	-11982
▁Conc	-11983
▁blur	-11984
▁jaune	-11985
▁empois	-11986
▁incons	-11987
▁qualité	-11988
▁windows	-11989
▁certific	-11990
▁disappointed	-11991
ldon	-11992
▁cot	-11993
▁web	-11994
ucted	-11995
water	-11996
▁Full	-11997
▁Nora	-11998
▁task	-11999
▁lancé	-12000
▁Alfred	-12001
▁useful	-12002
▁limites	-12003
▁wasting	-12004
▁Obviously	-12005
▁interromp	-12006
aga	-12007
▁na	-12008
ined	-12009
magne	-12010
▁rêvé	-12011
▁Fight	-12012
▁rocks	-12013
▁répét	-12014
▁thrown	-12015
▁package	-12016
▁capacité	-12017
▁wherever	-12018
▁potential	-12019
chau	-12020
▁Shir	-12021
▁hérit	-12022
▁métier	-12023
▁combatt	-12024
▁retenir	-12025
▁someday	-12026
▁souffre	-12027
▁embarrassing	-12028
lee	-12029
oard	-12030
▁menu	-12031
▁Enjoy	-12032
▁masque	-12033
▁disaster	-12034
▁teaching	-12035
Angleterre	-12036
▁intéressé	-12037
▁personnelle	-12038
▁possibility	-12039
▁élim	-12040
arrest	-12041
ologue	-12042
▁fumée	-12043
▁Allison	-12044
▁pierres	-12045
▁festival	-12046
▁bibliothèque	-12047
▁ke	-12048
▁las	-12049
ènera	-12050
▁épée	-12051
retien	-12052
▁COULD	-12053
▁nasty	-12054
▁County	-12055
▁dégâts	-12056
▁répand	-12057
▁possède	-12058
lig	-12059
tery	-12060
▁Feu	-12061
▁rentres	-12062
▁Benjamin	-12063
▁learning	-12064
ironnement	-12065
reck	-12066
etime	-12067
▁navig	-12068
▁têtes	-12069
▁refuge	-12070
▁Collins	-12071
▁chasser	-12072
▁critique	-12073
▁excitant	-12074
agir	-12075
isha	-12076
▁Daw	-12077
▁TIME	-12078
▁puzz	-12079
runter	-12080
▁Damon	-12081
▁Manny	-12082
▁dates	-12083
▁potes	-12084
▁Getting	-12085
▁hurting	-12086
▁reported	-12087
lons	-12088
osis	-12089
riss	-12090
ruti	-12091
▁Luci	-12092
▁bury	-12093
anches	-12094
▁Cliff	-12095
▁bénéf	-12096
▁forth	-12097
▁soins	-12098
▁vital	-12099
atrième	-12100
▁finale	-12101
▁risquer	-12102
▁désastre	-12103
▁offering	-12104
bro	-12105
▁péd	-12106
▁Croy	-12107
▁boucl	-12108
▁cochon	-12109
▁veille	-12110
▁murders	-12111
▁bracelet	-12112
agg	-12113
ees	-12114
wor	-12115
This	-12116
eland	-12117
▁Hous	-12118
▁congé	-12119
▁events	-12120
▁Mexique	-12121
▁réussir	-12122
▁trained	-12123
▁dégoûtant	-12124
▁faisaient	-12125
ône	-12126
▁buff	-12127
▁taux	-12128
▁Guard	-12129
▁crains	-12130
▁divine	-12131
▁writer	-12132
▁Italian	-12133
▁trouvent	-12134
▁CR	-12135
rect	-12136
rina	-12137
▁Tar	-12138
▁Mine	-12139
▁banc	-12140
▁vacc	-12141
▁Colin	-12142
▁Occup	-12143
▁falls	-12144
▁fella	-12145
▁péché	-12146
▁Holmes	-12147
▁casier	-12148
▁fourth	-12149
▁manques	-12150
▁Soo	-12151
▁Hors	-12152
▁deny	-12153
▁exha	-12154
▁sacs	-12155
looking	-12156
▁étudier	-12157
▁decisions	-12158
▁Det	-12159
assez	-12160
▁Stew	-12161
▁holy	-12162
▁Stark	-12163
▁dames	-12164
ologist	-12165
▁jouait	-12166
▁malgré	-12167
▁ménage	-12168
▁fishing	-12169
▁matière	-12170
▁mystère	-12171
▁reconnu	-12172
▁sortent	-12173
▁Alexander	-12174
▁recommend	-12175
▁merveilleuse	-12176
hen	-12177
▁Rig	-12178
▁Brid	-12179
▁Celle	-12180
obtenir	-12181
▁Devine	-12182
▁emmène	-12183
▁employés	-12184
▁sérieuse	-12185
▁ressembles	-12186
▁ressemblait	-12187
rik	-12188
umi	-12189
vens	-12190
▁Fem	-12191
▁aig	-12192
▁hyd	-12193
roché	-12194
▁100%	-12195
▁rope	-12196
▁torn	-12197
prints	-12198
▁filth	-12199
▁unité	-12200
▁Lequel	-12201
▁Retour	-12202
▁poupée	-12203
▁échant	-12204
▁gagnant	-12205
▁robbery	-12206
▁vivants	-12207
▁officiers	-12208
▁Commandant	-12209
bow	-12210
▁Dex	-12211
▁Nav	-12212
▁Rid	-12213
▁Fore	-12214
▁Ellie	-12215
▁débar	-12216
▁forts	-12217
▁stays	-12218
▁humble	-12219
▁destiny	-12220
▁muscles	-12221
▁threatened	-12222
anni	-12223
jack	-12224
arest	-12225
▁Passez	-12226
▁Turner	-12227
▁produc	-12228
▁trauma	-12229
▁verrou	-12230
▁bagarre	-12231
▁clinique	-12232
▁monstres	-12233
▁convention	-12234
rett	-12235
vard	-12236
▁Goo	-12237
odeur	-12238
▁Wasn	-12239
▁Nicky	-12240
▁Assure	-12241
▁motion	-12242
▁nettoy	-12243
▁Tuesday	-12244
▁vivante	-12245
▁expression	-12246
▁suspicious	-12247
indy	-12248
itime	-12249
▁belt	-12250
▁thin	-12251
▁Curtis	-12252
▁Leslie	-12253
▁designed	-12254
▁explanation	-12255
cal	-12256
uke	-12257
oted	-12258
atifs	-12259
essel	-12260
▁détru	-12261
▁grace	-12262
▁bijoux	-12263
▁désesp	-12264
▁gloire	-12265
▁Bientôt	-12266
▁Goddamn	-12267
▁prévenu	-12268
▁Thursday	-12269
As	-12270
kh	-12271
▁Ax	-12272
illet	-12273
llect	-12274
▁poet	-12275
▁circle	-12276
▁capture	-12277
▁réserve	-12278
important	-12279
▁bastards	-12280
▁conduite	-12281
enregistre	-12282
▁escaliers	-12283
▁compétition	-12284
▁Dois	-12285
▁pari	-12286
▁tord	-12287
▁Satan	-12288
▁skull	-12289
▁inquiè	-12290
▁Germany	-12291
▁pourrez	-12292
▁selfish	-12293
▁stratég	-12294
▁poussière	-12295
▁vaisseaux	-12296
▁Dog	-12297
▁nap	-12298
▁Kurt	-12299
▁douée	-12300
▁media	-12301
▁Pensez	-12302
▁troops	-12303
▁psychop	-12304
▁séparer	-12305
▁publique	-12306
BO	-12307
ALK	-12308
goï	-12309
iante	-12310
▁Math	-12311
▁deck	-12312
illons	-12313
oureux	-12314
▁japon	-12315
▁mécan	-12316
▁tirez	-12317
▁honour	-12318
émission	-12319
▁besides	-12320
▁Brooklyn	-12321
gre	-12322
veu	-12323
dire	-12324
opped	-12325
▁Slow	-12326
▁cing	-12327
▁partez	-12328
▁donnera	-12329
▁nuclear	-12330
▁prudent	-12331
▁confront	-12332
▁judgment	-12333
▁criminels	-12334
▁witnesses	-12335
aze	-12336
▁asks	-12337
▁couv	-12338
▁drap	-12339
▁lung	-12340
▁myth	-12341
▁Burke	-12342
▁saute	-12343
▁Emmenez	-12344
▁enterré	-12345
▁greater	-12346
▁library	-12347
▁lorsque	-12348
▁pathetic	-12349
▁effective	-12350
mme	-12351
oeil	-12352
▁dor	-12353
▁nin	-12354
levée	-12355
▁thor	-12356
allait	-12357
coming	-12358
▁Booth	-12359
▁finis	-12360
▁juger	-12361
▁souci	-12362
▁Graham	-12363
▁botter	-12364
▁mettez	-12365
▁shadow	-12366
titution	-12367
▁Melissa	-12368
▁marques	-12369
▁plateau	-12370
▁trouvés	-12371
abandonne	-12372
▁reconnais	-12373
aks	-12374
▁YES	-12375
▁Grab	-12376
uelles	-12377
▁frank	-12378
▁Mulder	-12379
▁Seattle	-12380
▁succeed	-12381
▁therapy	-12382
▁delivery	-12383
▁extrater	-12384
▁portefeu	-12385
▁étudiant	-12386
agu	-12387
▁BL	-12388
amus	-12389
aube	-12390
foot	-12391
▁Pad	-12392
▁Saw	-12393
istry	-12394
▁Plan	-12395
▁True	-12396
ercice	-12397
▁Lloyd	-12398
▁Amenez	-12399
▁disque	-12400
▁précis	-12401
▁smooth	-12402
▁Mauvais	-12403
▁annivers	-12404
▁revolution	-12405
-4	-12406
Si	-12407
tion	-12408
▁Arm	-12409
▁Drew	-12410
▁lutte	-12411
▁radar	-12412
▁Spanish	-12413
▁manifest	-12414
▁commences	-12415
▁impressed	-12416
▁°	-12417
Ind	-12418
▁riz	-12419
▁Beat	-12420
▁Perm	-12421
▁bisc	-12422
▁forb	-12423
▁mask	-12424
▁stim	-12425
▁Power	-12426
assique	-12427
owntown	-12428
▁brutal	-12429
▁kidnapped	-12430
arrestation	-12431
▁intentions	-12432
ocr	-12433
ria	-12434
ctob	-12435
razy	-12436
eline	-12437
overy	-12438
▁douz	-12439
▁pitch	-12440
▁pussy	-12441
▁accent	-12442
▁consul	-12443
▁coûter	-12444
▁milliards	-12445
▁newspaper	-12446
▁principale	-12447
▁coincidence	-12448
▁Set	-12449
▁Promise	-12450
▁consequ	-12451
entraîner	-12452
▁reaction	-12453
▁survived	-12454
▁rappelles	-12455
aku	-12456
aste	-12457
reau	-12458
▁soph	-12459
▁yard	-12460
▁sides	-12461
▁votes	-12462
pective	-12463
▁closing	-12464
ghanistan	-12465
▁trouveras	-12466
mph	-12467
▁$5	-12468
ulsion	-12469
▁Miranda	-12470
▁massage	-12471
▁émission	-12472
▁coïncidence	-12473
▁TM	-12474
yers	-12475
▁vig	-12476
point	-12477
âchée	-12478
▁Glad	-12479
▁Stri	-12480
▁britann	-12481
▁politics	-12482
▁scientifiques	-12483
ôts	-12484
etta	-12485
▁Wed	-12486
▁beur	-12487
▁stade	-12488
▁Twenty	-12489
▁misund	-12490
▁respire	-12491
▁tremble	-12492
▁opposite	-12493
▁Ped	-12494
▁pow	-12495
▁Year	-12496
▁décor	-12497
▁trunk	-12498
▁Antonio	-12499
▁Vanessa	-12500
▁systems	-12501
▁Pourtant	-12502
How	-12503
▁Web	-12504
▁vib	-12505
▁BEEN	-12506
▁Rain	-12507
▁sync	-12508
▁avocats	-12509
▁autorisé	-12510
▁conclusion	-12511
▁Zo	-12512
ayer	-12513
lynn	-12514
▁HAD	-12515
urgie	-12516
▁2000	-12517
imming	-12518
▁THING	-12519
▁Double	-12520
▁talents	-12521
ibly	-12522
lled	-12523
osex	-12524
▁Cry	-12525
onnées	-12526
▁panic	-12527
quelles	-12528
▁Hector	-12529
▁Stuart	-12530
▁éterne	-12531
▁gorgeous	-12532
▁parlerai	-12533
▁Sebastian	-12534
▁Its	-12535
▁Num	-12536
uteur	-12537
▁Pris	-12538
▁Snow	-12539
▁glac	-12540
▁shoe	-12541
▁Posez	-12542
▁chron	-12543
▁wings	-12544
▁pisser	-12545
▁prints	-12546
▁statue	-12547
▁attaché	-12548
▁crossed	-12549
▁restera	-12550
▁cambriol	-12551
▁surveille	-12552
amer	-12553
iait	-12554
ichi	-12555
usine	-12556
▁Dist	-12557
▁coke	-12558
▁Gotta	-12559
▁bacon	-12560
▁ranch	-12561
▁Croyez	-12562
▁method	-12563
▁regardais	-12564
.!	-12565
ANS	-12566
ilé	-12567
new	-12568
oies	-12569
éant	-12570
▁Jae	-12571
▁anx	-12572
▁Room	-12573
▁décide	-12574
▁troupe	-12575
▁Simpson	-12576
▁Honestly	-12577
WAY	-12578
issi	-12579
▁loan	-12580
onnaie	-12581
▁Baker	-12582
▁Georg	-12583
▁Judge	-12584
▁WHERE	-12585
▁novel	-12586
▁union	-12587
▁permet	-12588
▁appréci	-12589
▁projets	-12590
▁Certainly	-12591
▁populaire	-12592
▁Ur	-12593
iels	-12594
ouris	-12595
▁Jung	-12596
arents	-12597
▁EVERY	-12598
▁stake	-12599
▁Frappe	-12600
▁fellas	-12601
▁collègues	-12602
▁kidnapping	-12603
eta	-12604
och	-12605
▁Post	-12606
▁chag	-12607
▁Piper	-12608
▁Quite	-12609
▁delay	-12610
▁aboard	-12611
▁accusé	-12612
▁supply	-12613
▁panique	-12614
▁prétend	-12615
▁stopping	-12616
▁FE	-12617
▁Vu	-12618
▁Brun	-12619
▁Tess	-12620
▁durs	-12621
ivered	-12622
▁Contr	-12623
▁voyais	-12624
appropri	-12625
▁offense	-12626
▁appelles	-12627
▁possibilité	-12628
▁9:	-12629
lace	-12630
odge	-12631
olds	-12632
ouff	-12633
▁Bast	-12634
▁rein	-12635
▁Whose	-12636
▁print	-12637
▁attach	-12638
▁plastic	-12639
▁rumeurs	-12640
aler	-12641
▁Dig	-12642
▁boi	-12643
onnect	-12644
▁actor	-12645
▁brûle	-12646
chester	-12647
▁marine	-12648
▁précéd	-12649
▁recent	-12650
▁degrees	-12651
▁formation	-12652
aded	-12653
ston	-12654
ièvre	-12655
▁caus	-12656
▁exec	-12657
▁volant	-12658
▁accused	-12659
▁Attrapez	-12660
▁struggle	-12661
▁sensitive	-12662
▁malheureux	-12663
▁destination	-12664
▁environment	-12665
▁yö	-12666
accus	-12667
▁Crow	-12668
▁mixed	-12669
▁Freddy	-12670
▁mechan	-12671
▁précip	-12672
▁review	-12673
▁Houston	-12674
▁urgence	-12675
▁interdit	-12676
▁permanent	-12677
adel	-12678
avin	-12679
rade	-12680
▁Boys	-12681
▁Main	-12682
▁thee	-12683
▁copie	-12684
▁préfére	-12685
▁Commence	-12686
▁procédure	-12687
▁semblerait	-12688
obl	-12689
That	-12690
ship	-12691
écout	-12692
▁réser	-12693
▁thrill	-12694
▁traîne	-12695
▁déposer	-12696
▁partons	-12697
▁species	-12698
▁soutenir	-12699
▁Katherine	-12700
▁terrorist	-12701
obs	-12702
wear	-12703
▁enth	-12704
▁égoï	-12705
allons	-12706
▁Broad	-12707
▁chats	-12708
étiques	-12709
▁resist	-12710
▁surely	-12711
▁tentative	-12712
If	-12713
dle	-12714
ulp	-12715
▁""	-12716
▁WHY	-12717
▁freez	-12718
▁parte	-12719
▁Wallace	-12720
▁curieux	-12721
▁voyager	-12722
tour	-12723
▁mol	-12724
cover	-12725
ribly	-12726
▁Cham	-12727
▁Perry	-12728
▁déguis	-12729
onscious	-12730
▁essaient	-12731
▁facility	-12732
▁forgiven	-12733
▁précieux	-12734
▁customers	-12735
▁rattraper	-12736
▁réception	-12737
▁véritable	-12738
ASE	-12739
▁Ja	-12740
fire	-12741
▁HEY	-12742
▁Len	-12743
▁bét	-12744
▁Seul	-12745
▁TELL	-12746
▁Avenue	-12747
▁comité	-12748
▁démons	-12749
▁rouges	-12750
▁assault	-12751
▁vérifie	-12752
▁accepted	-12753
▁uniforme	-12754
▁secretary	-12755
NY	-12756
▁4.	-12757
▁récol	-12758
▁warned	-12759
▁Brandon	-12760
▁Company	-12761
▁grandir	-12762
▁kingdom	-12763
▁counting	-12764
▁cherchent	-12765
▁MR	-12766
▁lé	-12767
▁DEA	-12768
opard	-12769
▁Quant	-12770
▁Sleep	-12771
▁suffered	-12772
▁désespéré	-12773
▁miserable	-12774
.?	-12775
cr	-12776
ACE	-12777
vor	-12778
▁UH	-12779
▁Hend	-12780
▁isol	-12781
▁amies	-12782
▁crush	-12783
▁rival	-12784
▁units	-12785
▁Sharon	-12786
▁définitivement	-12787
▁Pak	-12788
kward	-12789
▁Hear	-12790
▁soif	-12791
enlève	-12792
▁Hotel	-12793
rection	-12794
▁Answer	-12795
▁Richie	-12796
▁agency	-12797
▁latest	-12798
▁écouté	-12799
▁movement	-12800
IV	-12801
aah	-12802
ango	-12803
aved	-12804
▁THEM	-12805
▁patch	-12806
▁tarte	-12807
▁vodka	-12808
▁plaque	-12809
▁classes	-12810
▁footage	-12811
▁sources	-12812
▁attaquer	-12813
▁imbécile	-12814
▁inquiète	-12815
▁savaient	-12816
rées	-12817
▁Kan	-12818
▁tig	-12819
aline	-12820
▁sûrs	-12821
▁insul	-12822
▁active	-12823
▁assise	-12824
▁defeat	-12825
▁psychi	-12826
▁gentils	-12827
▁theater	-12828
▁chanceux	-12829
▁courrier	-12830
aquer	-12831
▁gosh	-12832
▁prec	-12833
▁Rouge	-12834
▁Duncan	-12835
▁Grande	-12836
▁nôtres	-12837
▁traumat	-12838
▁Lawrence	-12839
▁telephone	-12840
▁BY	-12841
▁Dw	-12842
▁vo	-12843
▁Loc	-12844
▁eau	-12845
enter	-12846
▁Reid	-12847
▁rape	-12848
▁Royal	-12849
▁Thomp	-12850
▁chase	-12851
▁REALLY	-12852
▁bagages	-12853
▁bullets	-12854
▁rejoint	-12855
▁revenue	-12856
▁betrayed	-12857
▁revienne	-12858
▁childhood	-12859
▁ol	-12860
obal	-12861
verage	-12862
▁Benny	-12863
▁Wanna	-12864
▁capit	-12865
▁stops	-12866
élicopt	-12867
▁Connie	-12868
▁nettoi	-12869
▁épousé	-12870
▁settled	-12871
▁sexuelle	-12872
▁territoire	-12873
appl	-12874
quez	-12875
▁Tai	-12876
▁gon	-12877
▁NEED	-12878
▁Shaw	-12879
▁cogn	-12880
▁dawn	-12881
▁chrét	-12882
▁colon	-12883
▁Rodney	-12884
▁éclair	-12885
▁Speaking	-12886
▁semblent	-12887
▁Sû	-12888
agée	-12889
ocks	-12890
▁GPS	-12891
▁Rex	-12892
▁Boyd	-12893
▁Pink	-12894
ricité	-12895
▁comté	-12896
▁moche	-12897
▁Stefan	-12898
▁toward	-12899
▁Senator	-12900
▁langage	-12901
roe	-12902
▁Bh	-12903
▁Ice	-12904
▁Isa	-12905
▁pes	-12906
▁Mack	-12907
▁frat	-12908
▁barri	-12909
▁grass	-12910
▁paran	-12911
▁prize	-12912
▁verres	-12913
explosion	-12914
van	-12915
olan	-12916
▁Sep	-12917
▁blâ	-12918
▁wolf	-12919
▁Drive	-12920
▁Lydia	-12921
▁Sonny	-12922
▁backup	-12923
▁soucis	-12924
▁archite	-12925
▁bizarres	-12926
▁chemical	-12927
▁poissons	-12928
▁terminée	-12929
URE	-12930
tra	-12931
aleb	-12932
ayez	-12933
dale	-12934
walk	-12935
▁Ban	-12936
▁bot	-12937
▁doc	-12938
▁hid	-12939
▁Kids	-12940
▁indic	-12941
▁visiter	-12942
▁laissera	-12943
▁également	-12944
▁opportunité	-12945
ongé	-12946
uming	-12947
▁Reed	-12948
origine	-12949
▁wounds	-12950
▁cherchait	-12951
▁considering	-12952
mic	-12953
▁Hu	-12954
azar	-12955
impl	-12956
▁Vin	-12957
▁pink	-12958
ennuis	-12959
▁Charm	-12960
▁Drake	-12961
▁mines	-12962
▁progr	-12963
▁Essayez	-12964
▁apporte	-12965
▁refused	-12966
▁surprises	-12967
nan	-12968
umph	-12969
œuvre	-12970
▁Herr	-12971
▁Sovi	-12972
▁perp	-12973
▁salt	-12974
cedure	-12975
▁mondi	-12976
▁étape	-12977
arrivée	-12978
immeuble	-12979
▁session	-12980
▁assassiné	-12981
▁électrique	-12982
▁embarrassed	-12983
▁reconnaître	-12984
▁ET	-12985
nell	-12986
▁bub	-12987
atson	-12988
ously	-12989
▁Chen	-12990
▁lave	-12991
jected	-12992
▁climb	-12993
▁golden	-12994
▁portefeuille	-12995
▁31	-12996
▁bug	-12997
enver	-12998
▁Amber	-12999
▁thick	-13000
▁dumped	-13001
▁phones	-13002
▁hauteur	-13003
▁pension	-13004
▁removed	-13005
▁corrected	-13006
▁financial	-13007
▁arrangement	-13008
bury	-13009
çait	-13010
▁Mall	-13011
▁Pope	-13012
▁wing	-13013
▁wins	-13014
redith	-13015
▁Autre	-13016
▁Throw	-13017
▁odeur	-13018
▁slave	-13019
▁chargé	-13020
▁shield	-13021
▁tattoo	-13022
▁council	-13023
▁education	-13024
obé	-13025
▁Aj	-13026
▁10:	-13027
▁asc	-13028
▁scan	-13029
▁muscle	-13030
▁unlike	-13031
▁wealth	-13032
▁Austral	-13033
▁assurer	-13034
▁coordin	-13035
▁croient	-13036
▁entered	-13037
▁function	-13038
▁nationale	-13039
umn	-13040
▁PA	-13041
▁GRE	-13042
▁Sang	-13043
▁exit	-13044
▁sages	-13045
▁arrangé	-13046
▁paroles	-13047
▁proceed	-13048
▁suivante	-13049
mage	-13050
▁OUR	-13051
▁orch	-13052
render	-13053
▁progrès	-13054
▁regardent	-13055
▁7:	-13056
▁Moo	-13057
▁nep	-13058
▁TAKE	-13059
ailler	-13060
▁Conse	-13061
▁Spring	-13062
▁copies	-13063
▁disons	-13064
▁foolish	-13065
▁monnaie	-13066
▁mérites	-13067
▁putains	-13068
▁refuser	-13069
▁sortira	-13070
▁studying	-13071
aco	-13072
▁pât	-13073
▁Boom	-13074
▁Pars	-13075
▁Adams	-13076
▁crisis	-13077
▁escort	-13078
étranger	-13079
▁remarqu	-13080
▁commandé	-13081
▁supporte	-13082
▁circulation	-13083
bu	-13084
ñor	-13085
▁Suz	-13086
hiver	-13087
▁Hunt	-13088
ateaux	-13089
▁coord	-13090
▁séance	-13091
▁Univers	-13092
▁minimum	-13093
▁wounded	-13094
▁préférée	-13095
▁évidemment	-13096
▁75	-13097
▁MI	-13098
▁Cab	-13099
▁Jar	-13100
▁shr	-13101
▁..."	-13102
▁Wind	-13103
▁digne	-13104
▁appren	-13105
▁morgue	-13106
▁passés	-13107
▁études	-13108
▁digging	-13109
▁profile	-13110
atteindre	-13111
▁diagnost	-13112
▁punishment	-13113
▁littéralement	-13114
fish	-13115
▁vaud	-13116
▁grandma	-13117
▁elevator	-13118
▁sensation	-13119
▁pom	-13120
mates	-13121
▁arts	-13122
▁feux	-13123
▁Winst	-13124
▁homes	-13125
▁uncom	-13126
▁vingt	-13127
▁concur	-13128
▁pommes	-13129
▁relative	-13130
about	-13131
uster	-13132
▁Diff	-13133
▁Germ	-13134
▁Shan	-13135
▁cran	-13136
▁crav	-13137
▁déçu	-13138
▁aidez	-13139
▁fever	-13140
ueillir	-13141
▁Pierce	-13142
▁motive	-13143
avantage	-13144
▁détester	-13145
▁préfères	-13146
▁delivered	-13147
▁prisoners	-13148
▁regardait	-13149
▁supplément	-13150
▁officiellement	-13151
vons	-13152
▁Mik	-13153
▁mit	-13154
ansas	-13155
image	-13156
ourse	-13157
phere	-13158
▁oxyg	-13159
ambass	-13160
▁codes	-13161
▁guilt	-13162
▁objets	-13163
▁cleaned	-13164
▁sympath	-13165
▁ceremony	-13166
▁cheating	-13167
▁negative	-13168
▁connaissent	-13169
amène	-13170
astes	-13171
▁Name	-13172
▁dout	-13173
▁foul	-13174
▁tais	-13175
▁coast	-13176
▁coiff	-13177
▁trahi	-13178
▁halluc	-13179
▁verrez	-13180
▁musical	-13181
▁appareil	-13182
▁essayons	-13183
▁reconstr	-13184
▁entièrement	-13185
IDE	-13186
enda	-13187
hent	-13188
quar	-13189
▁VER	-13190
annie	-13191
inent	-13192
▁Khan	-13193
▁spat	-13194
reamed	-13195
▁Women	-13196
▁conqu	-13197
▁sanct	-13198
▁pensée	-13199
▁tireur	-13200
▁admettre	-13201
▁chambres	-13202
▁diamants	-13203
▁probable	-13204
now	-13205
rité	-13206
▁SOM	-13207
▁Bond	-13208
▁Brooke	-13209
▁voudra	-13210
▁Sheldon	-13211
▁panneau	-13212
eul	-13213
ésar	-13214
anter	-13215
secut	-13216
▁aéri	-13217
▁duck	-13218
▁uses	-13219
▁pressé	-13220
▁revenus	-13221
▁sociale	-13222
▁addition	-13223
▁détendre	-13224
▁procedure	-13225
BE	-13226
bi	-13227
▁Enf	-13228
▁Wol	-13229
▁Vers	-13230
▁réfé	-13231
▁wore	-13232
oignez	-13233
▁masse	-13234
▁compos	-13235
▁repose	-13236
▁bateaux	-13237
▁blagues	-13238
▁require	-13239
▁servant	-13240
▁Thompson	-13241
▁response	-13242
▁Certaines	-13243
▁plastique	-13244
▁background	-13245
AH	-13246
▁Kl	-13247
igue	-13248
▁BOY	-13249
▁vap	-13250
▁cells	-13251
▁penny	-13252
▁snake	-13253
▁serial	-13254
▁livrais	-13255
▁guessing	-13256
▁regardant	-13257
uko	-13258
▁Az	-13259
OUGH	-13260
▁dat	-13261
allas	-13262
▁assi	-13263
▁chop	-13264
iciens	-13265
ortion	-13266
▁Crane	-13267
▁glory	-13268
ouilles	-13269
▁Heaven	-13270
▁random	-13271
▁Lindsay	-13272
▁fragile	-13273
▁controll	-13274
▁disparition	-13275
oly	-13276
▁Dub	-13277
▁lip	-13278
amuse	-13279
phère	-13280
▁Book	-13281
▁furn	-13282
▁info	-13283
▁serré	-13284
railles	-13285
▁navire	-13286
▁voyait	-13287
▁quality	-13288
appellent	-13289
▁Anderson	-13290
▁someplace	-13291
BLE	-13292
isa	-13293
izz	-13294
infl	-13295
▁obt	-13296
▁conj	-13297
belles	-13298
▁régul	-13299
appelez	-13300
▁Nouvelle	-13301
▁sénateur	-13302
appartient	-13303
Ou	-13304
pherd	-13305
▁Marco	-13306
▁bâton	-13307
▁loyer	-13308
▁Watson	-13309
▁cabane	-13310
▁guitar	-13311
▁apology	-13312
▁identify	-13313
▁classique	-13314
ih	-13315
IRL	-13316
▁Fro	-13317
▁raf	-13318
▁Bird	-13319
▁gest	-13320
▁veget	-13321
▁menacé	-13322
▁pirate	-13323
▁tenait	-13324
▁wallet	-13325
▁abandon	-13326
▁chagrin	-13327
▁arranged	-13328
▁enregistré	-13329
rira	-13330
rure	-13331
▁Som	-13332
ortex	-13333
▁Rory	-13334
▁argue	-13335
▁nôtre	-13336
▁spons	-13337
▁fabric	-13338
▁prouve	-13339
▁remède	-13340
▁conduct	-13341
▁lifetime	-13342
▁créatures	-13343
▁témoigner	-13344
ads	-13345
inge	-13346
wife	-13347
▁vag	-13348
belle	-13349
▁OVER	-13350
▁thou	-13351
▁Amuse	-13352
▁Cindy	-13353
▁Gonna	-13354
▁porno	-13355
▁Having	-13356
▁adoles	-13357
▁contrar	-13358
▁painful	-13359
▁touchez	-13360
▁Meredith	-13361
▁Superman	-13362
▁alliance	-13363
▁gratuite	-13364
▁Narrateur	-13365
▁attractive	-13366
oko	-13367
▁6:	-13368
▁CA	-13369
ablo	-13370
▁Bol	-13371
▁Cob	-13372
▁Lut	-13373
▁Wat	-13374
▁glor	-13375
▁tuyau	-13376
attrape	-13377
▁degree	-13378
▁nephew	-13379
▁awkward	-13380
▁cleared	-13381
▁respecte	-13382
ec	-13383
EAR	-13384
sier	-13385
▁Arab	-13386
▁insc	-13387
▁multip	-13388
étit	-13389
▁ADN	-13390
▁Fal	-13391
idité	-13392
order	-13393
▁Code	-13394
▁Reyn	-13395
▁bunk	-13396
▁rack	-13397
accept	-13398
▁March	-13399
▁courte	-13400
▁proven	-13401
▁charged	-13402
▁privile	-13403
▁jeunesse	-13404
▁correctement	-13405
agle	-13406
émor	-13407
▁Hug	-13408
▁Inf	-13409
▁Nam	-13410
▁ped	-13411
▁var	-13412
imony	-13413
▁Till	-13414
▁rice	-13415
▁scén	-13416
▁ailes	-13417
▁irait	-13418
▁Summer	-13419
▁curios	-13420
▁status	-13421
▁visages	-13422
▁missiles	-13423
▁creatures	-13424
▁infection	-13425
▁satisfait	-13426
▁SW	-13427
▁mr	-13428
cipe	-13429
▁Cha	-13430
▁Kel	-13431
▁chip	-13432
▁Yanke	-13433
▁bluff	-13434
▁Garcia	-13435
▁vessel	-13436
▁renforts	-13437
▁practically	-13438
▁personnalité	-13439
But	-13440
roid	-13441
èges	-13442
▁Coc	-13443
▁mud	-13444
▁dose	-13445
▁fraud	-13446
▁behalf	-13447
▁cabine	-13448
▁pointe	-13449
▁wasted	-13450
▁Winston	-13451
▁achieve	-13452
▁adultes	-13453
▁lawyers	-13454
▁trouverez	-13455
▁travaillais	-13456
imi	-13457
▁4:	-13458
wick	-13459
▁rab	-13460
▁ras	-13461
phine	-13462
verly	-13463
▁Cand	-13464
▁Cart	-13465
▁guts	-13466
▁bleus	-13467
▁shove	-13468
▁tracks	-13469
▁conserv	-13470
▁cellules	-13471
▁charming	-13472
▁citizens	-13473
▁reconnaissance	-13474
imb	-13475
oya	-13476
▁gut	-13477
achez	-13478
ouche	-13479
▁Corn	-13480
▁Lore	-13481
▁Marge	-13482
▁télép	-13483
▁Autant	-13484
▁Bernard	-13485
▁ajouter	-13486
▁Deuxième	-13487
▁confirmed	-13488
▁supérieur	-13489
hee	-13490
igo	-13491
ially	-13492
▁orph	-13493
énerve	-13494
▁Laiss	-13495
▁Olymp	-13496
▁jokes	-13497
▁seats	-13498
▁bottes	-13499
▁degrés	-13500
▁emploi	-13501
▁réchau	-13502
▁verdict	-13503
ascenseur	-13504
▁résister	-13505
▁raisonnable	-13506
hh	-13507
ISH	-13508
leg	-13509
neu	-13510
oen	-13511
▁PD	-13512
▁Flash	-13513
▁Flynn	-13514
▁bills	-13515
▁envah	-13516
▁patri	-13517
▁Service	-13518
▁Terminé	-13519
▁Trouvez	-13520
▁initial	-13521
▁autorités	-13522
MAN	-13523
rena	-13524
writ	-13525
▁Str	-13526
▁Copy	-13527
▁Dutch	-13528
▁boots	-13529
▁cheat	-13530
▁fêter	-13531
▁liens	-13532
▁ferons	-13533
▁tables	-13534
▁villes	-13535
▁charity	-13536
▁conspir	-13537
▁renvoyer	-13538
▁SM	-13539
igné	-13540
▁Tra	-13541
envie	-13542
while	-13543
▁Sull	-13544
▁Zack	-13545
▁sers	-13546
istant	-13547
▁Speak	-13548
▁fêtes	-13549
▁optim	-13550
▁begins	-13551
▁junior	-13552
▁livrer	-13553
▁Shouldn	-13554
▁beloved	-13555
▁changent	-13556
▁discover	-13557
▁valuable	-13558
▁autrement	-13559
▁conséquences	-13560
mid	-13561
ésie	-13562
▁Bir	-13563
▁Hop	-13564
▁Key	-13565
▁cub	-13566
▁lav	-13567
▁guér	-13568
▁tabl	-13569
▁McGee	-13570
▁decor	-13571
▁shown	-13572
▁fusill	-13573
▁aliment	-13574
▁fouiller	-13575
▁meantime	-13576
▁impressive	-13577
▁pretending	-13578
▁explication	-13579
ggs	-13580
mie	-13581
▁Asi	-13582
▁puce	-13583
▁Avery	-13584
▁Rosie	-13585
▁absor	-13586
▁baise	-13587
▁damned	-13588
▁diriez	-13589
▁pétrin	-13590
▁restent	-13591
▁maintain	-13592
▁racontes	-13593
eup	-13594
aims	-13595
ibal	-13596
undry	-13597
▁Luis	-13598
▁Terri	-13599
▁clubs	-13600
▁title	-13601
▁breaks	-13602
▁palace	-13603
appareil	-13604
▁choices	-13605
▁ordonné	-13606
▁couleurs	-13607
pit	-13608
▁Hoo	-13609
ademy	-13610
ènent	-13611
▁Fern	-13612
▁Mach	-13613
▁Doyle	-13614
▁ingén	-13615
▁remis	-13616
▁défaut	-13617
▁entrez	-13618
▁valait	-13619
quarters	-13620
éloigner	-13621
▁Madison	-13622
▁creuser	-13623
▁immeuble	-13624
▁Directeur	-13625
▁compassion	-13626
▁reasonable	-13627
vy	-13628
ahu	-13629
▁fuel	-13630
▁Aller	-13631
▁Merry	-13632
▁cimet	-13633
▁drama	-13634
▁revol	-13635
▁Alison	-13636
▁Commun	-13637
▁advers	-13638
▁beurre	-13639
▁légende	-13640
▁équipes	-13641
▁minister	-13642
▁intellect	-13643
▁neighbors	-13644
▁Hob	-13645
▁bum	-13646
rolog	-13647
stand	-13648
▁Shel	-13649
▁mété	-13650
▁sœurs	-13651
▁Parlez	-13652
▁Reggie	-13653
▁twenty	-13654
▁Environ	-13655
▁pervers	-13656
▁voleurs	-13657
approcher	-13658
▁officially	-13659
AK	-13660
iped	-13661
▁Fle	-13662
▁Yam	-13663
▁tag	-13664
aucun	-13665
▁fierté	-13666
▁touching	-13667
gun	-13668
yon	-13669
▁EM	-13670
ATOR	-13671
wered	-13672
▁Cost	-13673
▁Ruby	-13674
▁nail	-13675
éviter	-13676
▁Rocky	-13677
▁belly	-13678
▁bleue	-13679
▁Adrian	-13680
▁Family	-13681
▁bombes	-13682
▁hockey	-13683
▁avancer	-13684
▁séparés	-13685
▁Valentine	-13686
▁individual	-13687
ouch	-13688
▁195	-13689
▁Ach	-13690
▁ital	-13691
▁Blair	-13692
▁Isaac	-13693
▁Place	-13694
▁canal	-13695
▁Marine	-13696
▁trompes	-13697
▁downtown	-13698
▁entrance	-13699
▁internet	-13700
▁ressentir	-13701
ISS	-13702
uez	-13703
tent	-13704
▁00,	-13705
▁Bank	-13706
▁heav	-13707
▁levé	-13708
▁Wyatt	-13709
▁couru	-13710
▁fièvre	-13711
▁sample	-13712
▁Réponds	-13713
▁ressort	-13714
▁cocktail	-13715
▁efficace	-13716
▁thérapie	-13717
▁confirmer	-13718
▁concernant	-13719
▁infirmière	-13720
▁nombreuses	-13721
uct	-13722
▁Év	-13723
▁Fig	-13724
▁rhy	-13725
▁Kath	-13726
▁Sold	-13727
icient	-13728
▁incon	-13729
▁sabot	-13730
▁Tucker	-13731
▁causes	-13732
▁nothin	-13733
▁commandement	-13734
▁WAY	-13735
aussi	-13736
otton	-13737
▁GIRL	-13738
▁Much	-13739
▁bous	-13740
▁tenté	-13741
▁Numéro	-13742
▁ailles	-13743
▁Altesse	-13744
▁Dommage	-13745
▁Stevens	-13746
nellement	-13747
▁dropping	-13748
▁pareille	-13749
▁somethin	-13750
▁violation	-13751
▁university	-13752
CI	-13753
rud	-13754
sch	-13755
▁Oz	-13756
fois	-13757
▁shy	-13758
▁Chad	-13759
▁Prep	-13760
▁gear	-13761
urning	-13762
▁Klaus	-13763
▁Wells	-13764
▁elder	-13765
▁limit	-13766
▁walks	-13767
▁mortel	-13768
▁solide	-13769
▁trafic	-13770
▁superst	-13771
▁costumes	-13772
▁récupéré	-13773
▁perspective	-13774
▁kit	-13775
iation	-13776
▁scrap	-13777
▁shell	-13778
▁suits	-13779
▁manges	-13780
▁Pardonne	-13781
▁quatrième	-13782
▁disponible	-13783
▁inappropri	-13784
▁terroriste	-13785
▁Cad	-13786
▁Dém	-13787
▁syn	-13788
relle	-13789
▁hamb	-13790
▁mustn	-13791
▁wreck	-13792
▁Beverly	-13793
▁joueurs	-13794
▁tracking	-13795
▁génération	-13796
▁organization	-13797
ued	-13798
▁CE	-13799
▁PH	-13800
udge	-13801
▁Kai	-13802
▁SOMET	-13803
▁costs	-13804
▁tremp	-13805
▁Trying	-13806
▁comédie	-13807
▁serment	-13808
▁homework	-13809
▁Surveille	-13810
▁chirurgie	-13811
dis	-13812
hyd	-13813
anth	-13814
rime	-13815
charg	-13816
ignor	-13817
▁Bomb	-13818
▁solo	-13819
▁Naomi	-13820
▁Party	-13821
▁Patty	-13822
▁paras	-13823
▁tower	-13824
▁Scotty	-13825
▁Valley	-13826
▁parfum	-13827
▁bowling	-13828
▁matinée	-13829
▁étonnant	-13830
avan	-13831
ieur	-13832
▁hip	-13833
orage	-13834
▁plot	-13835
essaye	-13836
▁essai	-13837
▁vôtre	-13838
▁allerg	-13839
▁entour	-13840
▁vidéos	-13841
▁diplôme	-13842
attendrai	-13843
▁freaking	-13844
▁conscious	-13845
▁extrêmement	-13846
▁malédiction	-13847
▁Cir	-13848
▁déd	-13849
▁enl	-13850
ients	-13851
iquée	-13852
▁Read	-13853
▁owns	-13854
▁Ghost	-13855
▁purse	-13856
▁Envoyez	-13857
▁devenus	-13858
▁dinosau	-13859
▁malades	-13860
▁fenêtres	-13861
▁suicider	-13862
▁justement	-13863
▁5:	-13864
▁Ath	-13865
▁Ire	-13866
entes	-13867
▁Craw	-13868
▁Prot	-13869
▁buzz	-13870
icians	-13871
▁Caleb	-13872
▁boxes	-13873
▁dedic	-13874
▁alcool	-13875
▁poudre	-13876
▁Freddie	-13877
▁anniversary	-13878
.'	-13879
icop	-13880
▁fau	-13881
▁clinic	-13882
▁effets	-13883
▁enquêt	-13884
▁formid	-13885
▁outfit	-13886
▁routes	-13887
▁activity	-13888
▁elderman	-13889
▁swimming	-13890
▁participer	-13891
▁ressources	-13892
ooh	-13893
arte	-13894
sile	-13895
▁800	-13896
▁Vois	-13897
▁drank	-13898
▁mommy	-13899
▁Shakes	-13900
▁jolies	-13901
▁rumeur	-13902
▁occupée	-13903
hou	-13904
anas	-13905
roul	-13906
▁12.	-13907
▁Lay	-13908
huile	-13909
▁boue	-13910
▁Crazy	-13911
▁enjoyed	-13912
▁measure	-13913
▁commerce	-13914
▁déménager	-13915
▁transformé	-13916
▁extraordinary	-13917
nic	-13918
▁JE	-13919
agen	-13920
▁Mak	-13921
▁perf	-13922
▁Mikey	-13923
▁attir	-13924
▁blown	-13925
▁carré	-13926
▁depos	-13927
▁Dallas	-13928
▁Porter	-13929
▁Reagan	-13930
▁saigne	-13931
▁Philipp	-13932
▁tendance	-13933
▁Ai	-13934
bird	-13935
iffe	-13936
oule	-13937
▁MAY	-13938
▁Nine	-13939
resser	-13940
▁Bauer	-13941
▁Prime	-13942
▁roule	-13943
▁Carmen	-13944
▁cercle	-13945
▁sexuel	-13946
▁soyons	-13947
▁transl	-13948
▁traître	-13949
▁Harrison	-13950
▁Surprise	-13951
▁aimerait	-13952
▁describe	-13953
▁election	-13954
▁émotions	-13955
▁identifié	-13956
▁Understand	-13957
▁particularly	-13958
Man	-13959
bal	-13960
dies	-13961
mans	-13962
▁Déb	-13963
▁stro	-13964
▁pound	-13965
▁Bennett	-13966
▁blowing	-13967
▁unknown	-13968
▁identité	-13969
▁viendrai	-13970
▁gratitude	-13971
▁Commission	-13972
▁température	-13973
▁DV	-13974
icial	-13975
opsie	-13976
▁Voir	-13977
▁gaffe	-13978
▁catast	-13979
▁divert	-13980
▁pattes	-13981
▁tricks	-13982
ignements	-13983
▁Highness	-13984
▁nucléaire	-13985
▁discipline	-13986
▁surrounded	-13987
▁témoignage	-13988
▁uncomfortable	-13989
TO	-13990
▁Yi	-13991
arez	-13992
▁Cly	-13993
▁pud	-13994
▁wis	-13995
▁Deep	-13996
▁Union	-13997
▁Indeed	-13998
▁Mister	-13999
▁examen	-14000
▁consent	-14001
▁recover	-14002
▁découverte	-14003
▁malheureusement	-14004
ohn	-14005
uary	-14006
▁Cur	-14007
▁mak	-14008
▁toy	-14009
▁noix	-14010
▁hoped	-14011
instein	-14012
▁Trevor	-14013
▁ending	-14014
▁loaded	-14015
abilités	-14016
▁protège	-14017
vêtements	-14018
▁produire	-14019
▁suggestion	-14020
vet	-14021
▁Ul	-14022
▁Mig	-14023
▁bay	-14024
icted	-14025
▁Kiss	-14026
▁Vern	-14027
▁beef	-14028
apprend	-14029
oreille	-14030
▁Barnes	-14031
▁Jewish	-14032
▁shared	-14033
▁valise	-14034
▁blessés	-14035
▁spirits	-14036
▁utilisant	-14037
information	-14038
▁incredibly	-14039
jou	-14040
▁$,	-14041
appr	-14042
west	-14043
word	-14044
▁wipe	-14045
ettons	-14046
iquent	-14047
▁Demand	-14048
▁décoll	-14049
▁fermée	-14050
▁fusion	-14051
▁speaks	-14052
▁sophist	-14053
▁customer	-14054
▁mondiale	-14055
▁rencontrée	-14056
▁29	-14057
▁37	-14058
▁Hab	-14059
▁cend	-14060
ormais	-14061
▁Makes	-14062
▁crown	-14063
▁domin	-14064
▁fence	-14065
▁frame	-14066
▁logic	-14067
▁Chacun	-14068
▁detect	-14069
▁handic	-14070
▁église	-14071
▁invitée	-14072
▁prenait	-14073
▁exercise	-14074
▁generous	-14075
▁organisé	-14076
ignons	-14077
▁biens	-14078
▁grimp	-14079
▁struck	-14080
Pourquoi	-14081
▁dépassé	-14082
▁divorced	-14083
▁promener	-14084
▁disparaît	-14085
▁événements	-14086
shot	-14087
▁nic	-14088
peare	-14089
▁Gang	-14090
▁Turk	-14091
▁barg	-14092
▁cout	-14093
▁égal	-14094
▁admir	-14095
▁indép	-14096
▁tires	-14097
▁Denise	-14098
▁Stella	-14099
▁Stupid	-14100
▁busted	-14101
▁drapeau	-14102
▁moderne	-14103
80	-14104
rd	-14105
low	-14106
▁Ka	-14107
ôles	-14108
accès	-14109
▁neur	-14110
▁Chloé	-14111
▁laser	-14112
▁Dwight	-14113
▁devine	-14114
▁earned	-14115
▁rouler	-14116
▁élèves	-14117
▁inspect	-14118
ouc	-14119
▁20.	-14120
▁Dee	-14121
▁Low	-14122
adelph	-14123
▁THANK	-14124
▁pénis	-14125
▁bavard	-14126
▁couches	-14127
▁missile	-14128
▁HO	-14129
▁Wu	-14130
▁fur	-14131
celer	-14132
uthor	-14133
▁DOWN	-14134
▁Jump	-14135
▁Kara	-14136
▁atom	-14137
▁sien	-14138
▁unde	-14139
▁burst	-14140
▁pique	-14141
▁Columb	-14142
▁viennes	-14143
▁enjoying	-14144
▁resident	-14145
▁x	-14146
ûte	-14147
▁4,	-14148
▁CALL	-14149
▁Joel	-14150
▁stub	-14151
▁Egypt	-14152
▁géant	-14153
▁perde	-14154
▁flotte	-14155
▁risqué	-14156
▁couples	-14157
▁groupes	-14158
▁romance	-14159
▁governor	-14160
▁traverse	-14161
TY	-14162
Why	-14163
ahl	-14164
▁Lil	-14165
▁Pur	-14166
▁rug	-14167
▁MORE	-14168
▁Neal	-14169
▁Angie	-14170
▁Crist	-14171
▁César	-14172
▁Krist	-14173
▁diner	-14174
▁hopes	-14175
▁patrol	-14176
▁placed	-14177
▁reçois	-14178
▁ressenti	-14179
▁wondered	-14180
▁radiation	-14181
▁generation	-14182
▁culpabilité	-14183
yo	-14184
▁34	-14185
iaux	-14186
iote	-14187
▁mig	-14188
ignez	-14189
▁fraî	-14190
▁Funny	-14191
essions	-14192
▁Gardez	-14193
▁scotch	-14194
▁Florida	-14195
▁begging	-14196
▁considé	-14197
▁injured	-14198
▁Governor	-14199
▁reconnaissant	-14200
aye	-14201
▁DR	-14202
lier	-14203
oppy	-14204
neath	-14205
▁Bear	-14206
▁Lamb	-14207
▁Sent	-14208
▁bapt	-14209
▁crie	-14210
▁wand	-14211
▁Blanc	-14212
▁shine	-14213
▁voies	-14214
▁stabil	-14215
▁effects	-14216
▁travaillez	-14217
▁terroristes	-14218
ARR	-14219
fils	-14220
èles	-14221
▁nue	-14222
▁Goth	-14223
▁auto	-14224
▁clot	-14225
▁core	-14226
▁evac	-14227
▁flir	-14228
▁narc	-14229
▁bonus	-14230
▁equal	-14231
▁souls	-14232
▁Russie	-14233
loge	-14234
pack	-14235
èver	-14236
▁Rox	-14237
▁bio	-14238
▁naz	-14239
irent	-14240
▁Song	-14241
▁mast	-14242
▁blond	-14243
▁indep	-14244
▁deeply	-14245
▁infirm	-14246
▁rounds	-14247
▁Grayson	-14248
▁Shirley	-14249
▁interne	-14250
▁swallow	-14251
▁demonstr	-14252
▁viendrais	-14253
▁underneath	-14254
▁Afghanistan	-14255
-3	-14256
ems	-14257
osa	-14258
adeur	-14259
▁pend	-14260
▁durer	-14261
▁Harvard	-14262
▁Through	-14263
▁drawing	-14264
inquiètes	-14265
▁frightened	-14266
ASS	-14267
orne	-14268
quée	-14269
▁Cru	-14270
▁vic	-14271
▁Hung	-14272
▁Lors	-14273
▁récl	-14274
▁trac	-14275
▁Baisse	-14276
▁perfor	-14277
▁attirer	-14278
arrin	-14279
▁Dawn	-14280
avions	-14281
▁musée	-14282
▁pires	-14283
istered	-14284
éliorer	-14285
▁engage	-14286
▁insect	-14287
▁severe	-14288
imaginer	-14289
▁besoins	-14290
▁fantasy	-14291
▁réalise	-14292
▁veuille	-14293
▁aventure	-14294
▁condamné	-14295
▁trahison	-14296
▁protected	-14297
▁Esc	-14298
▁ooh	-14299
▁twe	-14300
ingle	-14301
▁Dame	-14302
alarme	-14303
▁Arnold	-14304
▁Russia	-14305
▁disting	-14306
▁kissing	-14307
▁Officier	-14308
▁puissent	-14309
▁embrasser	-14310
▁commissaire	-14311
uma	-14312
▁Po	-14313
illing	-14314
sitter	-14315
▁Tante	-14316
▁grant	-14317
▁Samuel	-14318
▁adorer	-14319
▁champs	-14320
▁régime	-14321
▁adjoint	-14322
▁attacks	-14323
▁numéros	-14324
▁Sullivan	-14325
▁answering	-14326
▁conducteur	-14327
opsy	-14328
▁Jet	-14329
▁shh	-14330
juana	-14331
▁Carr	-14332
▁Hyun	-14333
▁Test	-14334
▁hipp	-14335
ournal	-14336
▁Prote	-14337
▁ayant	-14338
▁stylo	-14339
▁Penses	-14340
▁Teresa	-14341
▁hostage	-14342
▁related	-14343
▁touches	-14344
▁Objection	-14345
Be	-14346
iona	-14347
▁Fab	-14348
▁Yup	-14349
ITTLE	-14350
alled	-14351
▁bowl	-14352
▁odds	-14353
▁roman	-14354
▁baisser	-14355
▁beneath	-14356
▁surgeon	-14357
▁dreaming	-14358
▁britannique	-14359
burn	-14360
▁dil	-14361
icity	-14362
▁mole	-14363
ènerai	-14364
▁chers	-14365
▁fallu	-14366
inviter	-14367
▁Israel	-14368
▁perdus	-14369
▁annonce	-14370
▁Descends	-14371
▁descendu	-14372
▁intérêts	-14373
▁AC	-14374
▁yöu	-14375
atoes	-14376
▁Brick	-14377
▁apple	-14378
▁estim	-14379
▁annulé	-14380
▁beside	-14381
▁sauvet	-14382
▁circuit	-14383
▁neutral	-14384
▁pirates	-14385
▁Shakespeare	-14386
Sh	-14387
gen	-14388
▁Dim	-14389
▁Ahem	-14390
▁Gwen	-14391
▁Kane	-14392
▁MAKE	-14393
▁THEN	-14394
▁Town	-14395
▁alley	-14396
▁soupç	-14397
▁tuera	-14398
▁mister	-14399
▁strang	-14400
▁Roberts	-14401
▁quarant	-14402
▁sounded	-14403
▁testify	-14404
▁yelling	-14405
▁embrassé	-14406
▁cimetière	-14407
▁committee	-14408
▁remarquer	-14409
▁Philadelph	-14410
gade	-14411
itary	-14412
▁Balt	-14413
▁Iron	-14414
nesday	-14415
▁Glenn	-14416
▁cargo	-14417
▁fairy	-14418
▁overd	-14419
▁vends	-14420
▁Foster	-14421
▁acteur	-14422
▁rompre	-14423
▁sacred	-14424
▁traged	-14425
▁trains	-14426
ographie	-14427
▁manières	-14428
▁pleasant	-14429
▁territory	-14430
▁mouvements	-14431
▁changements	-14432
▁transferred	-14433
réh	-14434
▁Ép	-14435
llie	-14436
▁193	-14437
▁Imb	-14438
▁Neg	-14439
▁Raf	-14440
amine	-14441
intég	-14442
▁Fish	-14443
▁armé	-14444
▁infl	-14445
accusé	-14446
▁Mayor	-14447
▁aspir	-14448
▁crain	-14449
▁mardi	-14450
▁Carson	-14451
▁Floren	-14452
▁Monroe	-14453
▁blocks	-14454
▁resign	-14455
▁résolu	-14456
▁tenter	-14457
▁jalouse	-14458
▁déménagé	-14459
▁terribly	-14460
▁determined	-14461
iti	-14462
apers	-14463
écras	-14464
▁Bush	-14465
▁holds	-14466
▁LITTLE	-14467
lligence	-14468
▁Frances	-14469
▁Germans	-14470
▁tristes	-14471
▁unhappy	-14472
▁captured	-14473
▁plaindre	-14474
▁veuilles	-14475
cket	-14476
ollo	-14477
ousy	-14478
ueil	-14479
étés	-14480
▁bip	-14481
écris	-14482
▁prép	-14483
▁Italy	-14484
▁Sasha	-14485
▁Tirez	-14486
▁diras	-14487
▁rêver	-14488
▁splend	-14489
▁survie	-14490
▁explosé	-14491
▁smiling	-14492
▁considéré	-14493
▁positions	-14494
▁solitaire	-14495
dent	-14496
▁HEL	-14497
▁Kry	-14498
▁flew	-14499
▁flow	-14500
▁évac	-14501
isseur	-14502
▁gifts	-14503
▁placé	-14504
accepte	-14505
▁unités	-14506
▁étudié	-14507
▁Floride	-14508
▁deviend	-14509
▁observe	-14510
▁Chandler	-14511
▁Division	-14512
▁Espérons	-14513
▁listened	-14514
▁Allemands	-14515
▁Impossible	-14516
sur	-14517
ando	-14518
▁Cre	-14519
▁Nan	-14520
▁Psy	-14521
isent	-14522
mails	-14523
rimin	-14524
▁Choi	-14525
▁clar	-14526
▁dope	-14527
▁heal	-14528
▁Lenny	-14529
▁Leurs	-14530
▁jeudi	-14531
▁neveu	-14532
▁Brenda	-14533
▁astron	-14534
▁Claudia	-14535
▁assumed	-14536
▁compréh	-14537
▁parcour	-14538
▁rehears	-14539
▁camarade	-14540
▁Pardonnez	-14541
▁Secretary	-14542
▁mentionné	-14543
vo	-14544
épée	-14545
▁Ald	-14546
▁Hur	-14547
▁TOO	-14548
chons	-14549
▁Rabb	-14550
▁quot	-14551
▁smug	-14552
auriez	-14553
levant	-14554
▁Corpor	-14555
▁claims	-14556
▁humeur	-14557
▁packed	-14558
▁tueurs	-14559
▁helicop	-14560
▁charmante	-14561
▁fusillade	-14562
oof	-14563
▁7.	-14564
bers	-14565
ovan	-14566
▁600	-14567
▁Leg	-14568
▁Moh	-14569
OTHER	-14570
queur	-14571
▁Mona	-14572
▁Pose	-14573
▁amen	-14574
▁actes	-14575
▁penis	-14576
▁proph	-14577
▁foutue	-14578
▁médias	-14579
▁zombie	-14580
▁éteint	-14581
▁Attrape	-14582
▁financi	-14583
▁although	-14584
électricité	-14585
LO	-14586
non	-14587
elve	-14588
itut	-14589
kind	-14590
ossip	-14591
▁Coff	-14592
▁agit	-14593
▁Pablo	-14594
▁bosse	-14595
▁exter	-14596
▁lobby	-14597
▁therm	-14598
▁beaten	-14599
▁elimin	-14600
▁suivez	-14601
▁vraies	-14602
▁étoile	-14603
▁Friends	-14604
▁bombard	-14605
▁déplace	-14606
▁shelter	-14607
▁barbecue	-14608
▁Yesterday	-14609
▁formidable	-14610
▁personality	-14611
eda	-14612
jin	-14613
èter	-14614
▁Ign	-14615
THING	-14616
▁Yosh	-14617
▁guid	-14618
▁muff	-14619
▁scol	-14620
▁sein	-14621
▁tuez	-14622
▁Becky	-14623
▁Chick	-14624
respect	-14625
▁Commen	-14626
▁Sheila	-14627
▁remise	-14628
équipage	-14629
▁mettent	-14630
▁humanity	-14631
▁weakness	-14632
aws	-14633
gon	-14634
▁Ox	-14635
▁SD	-14636
▁11:	-14637
▁NSA	-14638
▁Uhh	-14639
▁ast	-14640
▁rag	-14641
▁câlin	-14642
▁dette	-14643
▁expos	-14644
▁jurid	-14645
▁wives	-14646
▁Darrin	-14647
▁Robbie	-14648
▁ancest	-14649
▁bouill	-14650
▁détail	-14651
▁remark	-14652
▁sentez	-14653
▁timide	-14654
▁Council	-14655
▁Facebook	-14656
▁allemand	-14657
▁boutique	-14658
▁citoyens	-14659
▁complexe	-14660
▁examiner	-14661
▁réfléchis	-14662
▁AF	-14663
▁DJ	-14664
▁Pi	-14665
assy	-14666
▁Buzz	-14667
▁Rosa	-14668
▁fume	-14669
▁prol	-14670
▁Dougl	-14671
▁Field	-14672
▁Manuel	-14673
▁tester	-14674
▁Campbell	-14675
▁articles	-14676
▁normally	-14677
▁interests	-14678
▁maîtresse	-14679
▁corruption	-14680
phe	-14681
hett	-14682
midt	-14683
▁Biz	-14684
▁pod	-14685
▁ski	-14686
▁Penn	-14687
ingues	-14688
▁Clyde	-14689
▁steel	-14690
▁êtres	-14691
▁Petite	-14692
▁caisse	-14693
▁vierge	-14694
▁associé	-14695
▁blessée	-14696
▁loyalty	-14697
▁players	-14698
▁warrior	-14699
▁chasseur	-14700
▁innocents	-14701
Emp	-14702
oni	-14703
▁"'	-14704
amel	-14705
▁GUY	-14706
▁MON	-14707
▁Noir	-14708
▁Vera	-14709
imeter	-14710
▁Chéri	-14711
▁cared	-14712
▁débat	-14713
▁ferez	-14714
▁fifth	-14715
▁inher	-14716
▁memor	-14717
▁métal	-14718
▁sheep	-14719
▁tries	-14720
▁cathol	-14721
▁puzzle	-14722
arehouse	-14723
▁Journal	-14724
▁laundry	-14725
▁valises	-14726
▁égoïste	-14727
▁collègue	-14728
▁informed	-14729
▁confusion	-14730
▁compétences	-14731
-5	-14732
fu	-14733
hyp	-14734
avor	-14735
▁Goa	-14736
▁Hub	-14737
▁diz	-14738
arbre	-14739
▁fauf	-14740
▁mené	-14741
▁Nikki	-14742
▁benef	-14743
▁mafia	-14744
énèbres	-14745
▁Bridge	-14746
▁excell	-14747
▁gênant	-14748
▁colline	-14749
▁ouverts	-14750
▁reminds	-14751
▁réduire	-14752
▁Français	-14753
▁accounts	-14754
▁champions	-14755
▁incapable	-14756
▁magazines	-14757
▁dernièrement	-14758
omy	-14759
▁Él	-14760
▁caps	-14761
▁âmes	-14762
▁Bouge	-14763
▁comin	-14764
▁cycle	-14765
▁moque	-14766
▁raped	-14767
▁sweep	-14768
isément	-14769
▁rappell	-14770
▁underwear	-14771
▁Commençons	-14772
▁pathétique	-14773
▁situations	-14774
▁soudainement	-14775
ench	-14776
▁Aid	-14777
cuted	-14778
union	-14779
▁Dern	-14780
▁chic	-14781
▁cuir	-14782
▁sauc	-14783
▁Woody	-14784
▁bombs	-14785
▁poing	-14786
scurité	-14787
▁Fisher	-14788
▁camping	-14789
▁croyait	-14790
▁describ	-14791
▁changera	-14792
▁nerveuse	-14793
▁psychiat	-14794
▁utilisent	-14795
ulu	-14796
▁Oi	-14797
fall	-14798
appar	-14799
▁Lève	-14800
▁nest	-14801
ouvons	-14802
▁Small	-14803
▁anges	-14804
▁Square	-14805
▁museum	-14806
▁Station	-14807
PH	-14808
anor	-14809
corn	-14810
ilda	-14811
role	-14812
▁der	-14813
aules	-14814
▁Grac	-14815
▁Quit	-14816
▁blah	-14817
▁foie	-14818
▁rupt	-14819
▁Fiona	-14820
▁Knock	-14821
▁Lester	-14822
▁branch	-14823
▁talkin	-14824
▁bénisse	-14825
▁traitor	-14826
▁answered	-14827
▁developed	-14828
▁transfert	-14829
ni	-14830
ALLY	-14831
acht	-14832
angé	-14833
avel	-14834
enson	-14835
itate	-14836
▁Erica	-14837
▁liver	-14838
▁tenez	-14839
▁boîtes	-14840
▁thirst	-14841
assassin	-14842
▁Randall	-14843
▁brouill	-14844
▁annoying	-14845
▁visiting	-14846
▁alternative	-14847
IF	-14848
▁PO	-14849
▁Unh	-14850
▁Caes	-14851
▁pneu	-14852
iteurs	-14853
▁await	-14854
▁inclu	-14855
▁teams	-14856
▁mighty	-14857
▁venons	-14858
▁schools	-14859
▁confirmé	-14860
▁officiel	-14861
▁reception	-14862
▁combinaison	-14863
▁honnêtement	-14864
ACH	-14865
gus	-14866
life	-14867
▁Temp	-14868
▁jazz	-14869
▁rond	-14870
▁Paula	-14871
▁Spain	-14872
▁frigo	-14873
▁spray	-14874
▁Empire	-14875
▁frozen	-14876
▁prises	-14877
▁pensiez	-14878
▁realise	-14879
▁Première	-14880
▁continent	-14881
▁Hud	-14882
▁eue	-14883
CAUSE	-14884
quels	-14885
▁Lena	-14886
▁hood	-14887
asures	-14888
▁Group	-14889
▁chiot	-14890
▁dimin	-14891
▁objet	-14892
▁censée	-14893
▁telles	-14894
▁déclaré	-14895
▁semblez	-14896
▁Congress	-14897
▁misunderstand	-14898
▁unfortunately	-14899
▁Ec	-14900
▁KE	-14901
cade	-14902
ifie	-14903
▁Slo	-14904
▁cic	-14905
▁ego	-14906
▁los	-14907
▁fert	-14908
▁foss	-14909
Europe	-14910
▁immun	-14911
▁proté	-14912
▁voter	-14913
▁cartel	-14914
▁checks	-14915
▁Utilise	-14916
▁convert	-14917
▁messing	-14918
▁returning	-14919
▁scientist	-14920
▁américains	-14921
▁	-14922
▁Beh	-14923
reuve	-14924
▁dough	-14925
▁greet	-14926
▁intri	-14927
▁voyou	-14928
▁Emmène	-14929
▁Dorothy	-14930
▁dealers	-14931
▁appellent	-14932
▁forcément	-14933
▁prochaines	-14934
moon	-14935
▁Pig	-14936
▁Rudy	-14937
fected	-14938
humeur	-14939
▁Clint	-14940
▁Polly	-14941
▁gants	-14942
▁Conrad	-14943
▁cancel	-14944
▁espagn	-14945
▁finira	-14946
▁experts	-14947
▁grabbed	-14948
▁inconnu	-14949
▁slipped	-14950
installer	-14951
▁illusion	-14952
▁testimony	-14953
▁instrument	-14954
▁underground	-14955
uld	-14956
ilyn	-14957
▁Gab	-14958
▁SAM	-14959
adows	-14960
aides	-14961
▁ramp	-14962
▁Geoff	-14963
▁chefs	-14964
▁câble	-14965
▁drill	-14966
▁défin	-14967
▁mères	-14968
▁oeufs	-14969
▁poule	-14970
▁sorts	-14971
issante	-14972
▁collap	-14973
▁façons	-14974
▁gagnes	-14975
▁levels	-14976
▁authent	-14977
▁veiller	-14978
▁Florence	-14979
▁challeng	-14980
▁imagined	-14981
▁importantes	-14982
▁consequences	-14983
▁Fo	-14984
▁Lt	-14985
▁DVD	-14986
oenix	-14987
▁Prop	-14988
▁leak	-14989
▁Haley	-14990
▁Mince	-14991
▁Salaud	-14992
▁arrêtés	-14993
▁charité	-14994
▁feeding	-14995
▁distract	-14996
▁poubelle	-14997
▁defendant	-14998
Do	-14999
She	-15000
Nous	-15001
ignon	-15002
riger	-15003
▁Live	-15004
indust	-15005
istent	-15006
quette	-15007
itement	-15008
▁asseyez	-15009
▁terrific	-15010
▁communications	-15011
dad	-15012
fait	-15013
▁250	-15014
▁Dre	-15015
▁pac	-15016
ength	-15017
shine	-15018
▁Denny	-15019
▁coule	-15020
▁drain	-15021
▁trône	-15022
remment	-15023
▁Cassie	-15024
▁filthy	-15025
▁écrasé	-15026
▁détruis	-15027
▁illégal	-15028
▁siècles	-15029
▁supplies	-15030
▁caractère	-15031
▁obsession	-15032
▁importants	-15033
oxyg	-15034
▁Ies	-15035
échés	-15036
▁horm	-15037
▁hilar	-15038
▁salad	-15039
arrêtes	-15040
▁Bernie	-15041
▁Regina	-15042
▁ongles	-15043
▁crimine	-15044
▁manipul	-15045
▁proposé	-15046
▁légitime	-15047
élicoptère	-15048
▁mysterious	-15049
▁appropriate	-15050
▁investigating	-15051
IER	-15052
▁cm	-15053
▁Eug	-15054
▁Kaz	-15055
▁vét	-15056
uille	-15057
▁sear	-15058
▁firing	-15059
▁poster	-15060
▁helpful	-15061
▁ordures	-15062
▁énergie	-15063
▁miracles	-15064
▁Jefferson	-15065
▁Wednesday	-15066
▁expériment	-15067
▁accusations	-15068
ORD	-15069
esh	-15070
▁15.	-15071
▁Bub	-15072
▁Cow	-15073
▁DIDN	-15074
▁chor	-15075
ansion	-15076
▁Heart	-15077
▁Turns	-15078
▁abuse	-15079
▁basic	-15080
▁jewel	-15081
▁stamp	-15082
▁robbed	-15083
essaierai	-15084
▁complète	-15085
▁occurred	-15086
▁sauvages	-15087
▁sergeant	-15088
▁strategy	-15089
▁boulevers	-15090
▁connaisse	-15091
▁testament	-15092
enterrement	-15093
▁throughout	-15094
▁ressemblent	-15095
tor	-15096
▁6.	-15097
▁Saul	-15098
▁Says	-15099
▁prick	-15100
▁sends	-15101
issions	-15102
▁Center	-15103
▁gettin	-15104
▁ghosts	-15105
▁morale	-15106
opportun	-15107
▁Respire	-15108
▁recruit	-15109
▁détestes	-15110
accusation	-15111
▁différemment	-15112
MY	-15113
ègre	-15114
▁Sea	-15115
▁Band	-15116
▁Herc	-15117
▁Huit	-15118
▁WORK	-15119
▁unex	-15120
itness	-15121
▁envis	-15122
assador	-15123
▁behave	-15124
▁connex	-15125
▁cowboy	-15126
▁intact	-15127
▁restée	-15128
aughters	-15129
▁annuler	-15130
▁channel	-15131
▁facture	-15132
▁Rappelle	-15133
▁arrogant	-15134
▁continuez	-15135
fa	-15136
▁Pin	-15137
▁Jews	-15138
▁Mons	-15139
▁Oper	-15140
vérend	-15141
▁Femme	-15142
▁Peggy	-15143
▁brise	-15144
▁flood	-15145
▁Archer	-15146
▁pleuré	-15147
▁Douglas	-15148
▁Griffin	-15149
▁serving	-15150
▁mistaken	-15151
▁worrying	-15152
▁threatening	-15153
IO	-15154
▁mu	-15155
cope	-15156
uleux	-15157
▁plates	-15158
▁string	-15159
▁Western	-15160
▁highest	-15161
▁moyenne	-15162
▁mélange	-15163
ouverture	-15164
▁supervis	-15165
▁tatouage	-15166
▁recording	-15167
BS	-15168
oz	-15169
xic	-15170
▁TW	-15171
▁iv	-15172
ceau	-15173
ruct	-15174
▁tol	-15175
chent	-15176
estin	-15177
owski	-15178
▁Iraq	-15179
▁gasp	-15180
▁nick	-15181
achète	-15182
▁baisé	-15183
▁reten	-15184
ensible	-15185
estomac	-15186
ibilité	-15187
▁landed	-15188
▁tuerai	-15189
▁average	-15190
▁marches	-15191
▁quarters	-15192
▁livraison	-15193
Que	-15194
idy	-15195
sex	-15196
▁hes	-15197
▁céréb	-15198
▁léger	-15199
friends	-15200
▁Laurel	-15201
▁connue	-15202
▁enfuie	-15203
▁merely	-15204
▁oxygen	-15205
▁privil	-15206
▁applaud	-15207
▁rolling	-15208
▁présenté	-15209
▁policiers	-15210
▁organisation	-15211
▁Eff	-15212
▁Mis	-15213
▁pis	-15214
ivité	-15215
▁Kend	-15216
▁disag	-15217
▁infin	-15218
▁virtu	-15219
apporte	-15220
enstein	-15221
▁Nature	-15222
▁fâchée	-15223
▁libres	-15224
▁prayer	-15225
▁tendre	-15226
▁Inutile	-15227
▁benefit	-15228
▁ordinaire	-15229
▁Angleterre	-15230
▁IM	-15231
▁rh	-15232
MENT	-15233
OPLE	-15234
raph	-15235
▁Mod	-15236
aimed	-15237
intim	-15238
▁Ferr	-15239
▁Ment	-15240
▁Veux	-15241
▁aper	-15242
ichons	-15243
istère	-15244
▁toler	-15245
▁yards	-15246
▁beings	-15247
▁dégage	-15248
▁visual	-15249
▁despite	-15250
▁landing	-15251
▁soigner	-15252
▁Juliette	-15253
▁préférerais	-15254
AIT	-15255
rac	-15256
▁Fun	-15257
▁Hod	-15258
▁Nig	-15259
tease	-15260
▁TALK	-15261
▁wrap	-15262
▁Bruno	-15263
▁Hanna	-15264
▁Henri	-15265
▁fatal	-15266
▁amitié	-15267
▁calend	-15268
▁couler	-15269
▁parano	-15270
▁homosex	-15271
▁candidat	-15272
▁diamonds	-15273
▁mignonne	-15274
▁Bed	-15275
écart	-15276
▁VERY	-15277
veland	-15278
▁chatte	-15279
▁parier	-15280
▁lessons	-15281
▁souffert	-15282
▁rapproche	-15283
▁réellement	-15284
sea	-15285
▁Ew	-15286
▁cod	-15287
érait	-15288
▁Chel	-15289
▁Done	-15290
▁lamb	-15291
▁sack	-15292
▁sets	-15293
▁shed	-15294
examen	-15295
▁Greek	-15296
▁Harri	-15297
▁métro	-15298
▁verte	-15299
▁Andrea	-15300
▁During	-15301
▁PEOPLE	-15302
▁doutes	-15303
▁facing	-15304
▁gamins	-15305
▁locker	-15306
▁restait	-15307
▁guerrier	-15308
▁généreux	-15309
▁invented	-15310
▁tragédie	-15311
▁criminals	-15312
▁differently	-15313
▁franchement	-15314
▁impressionnant	-15315
▁Gee	-15316
▁obé	-15317
▁Lola	-15318
▁Mari	-15319
▁seal	-15320
▁Radio	-15321
aissent	-15322
▁Coupez	-15323
▁cercue	-15324
▁jouets	-15325
▁involve	-15326
éducation	-15327
▁religious	-15328
▁débrouiller	-15329
itre	-15330
▁Mai	-15331
▁PAR	-15332
inder	-15333
onent	-15334
raith	-15335
▁Lots	-15336
▁Told	-15337
▁cats	-15338
▁quad	-15339
▁eleph	-15340
engager	-15341
▁bourré	-15342
▁dettes	-15343
▁repair	-15344
▁sieste	-15345
▁tissue	-15346
▁enfance	-15347
▁fédéral	-15348
▁symbole	-15349
▁worries	-15350
autoroute	-15351
▁paraître	-15352
▁paperwork	-15353
▁partenaires	-15354
Ce	-15355
ppe	-15356
▁Vl	-15357
▁Ark	-15358
▁Gin	-15359
▁crée	-15360
aucher	-15361
unning	-15362
▁maths	-15363
▁thumb	-15364
[...]
