<unk>	0
<s>	0
</s>	0
▁t	-0
ou	-1
▁a	-2
re	-3
▁d	-4
on	-5
▁s	-6
▁p	-7
es	-8
en	-9
in	-10
er	-11
▁l	-12
▁c	-13
▁m	-14
is	-15
he	-16
an	-17
it	-18
▁I	-19
▁w	-20
ll	-21
▁f	-22
qu	-23
▁b	-24
at	-25
▁n	-26
as	-27
▁y	-28
▁v	-29
or	-30
ar	-31
▁you	-32
▁de	-33
▁the	-34
▁qu	-35
▁h	-36
et	-37
▁g	-38
▁to	-39
▁T	-40
om	-41
ve	-42
ing	-43
un	-44
est	-45
▁?	-46
ent	-47
▁th	-48
▁J	-49
ous	-50
ais	-51
▁j	-52
us	-53
ai	-54
le	-55
▁C	-56
ot	-57
eu	-58
our	-59
▁A	-60
▁o	-61
te	-62
oi	-63
▁un	-64
▁M	-65
..	-66
▁S	-67
▁pas	-68
▁W	-69
nd	-70
...	-71
ri	-72
▁que	-73
▁le	-74
ce	-75
▁me	-76
▁re	-77
ow	-78
il	-79
ait	-80
me	-81
▁O	-82
ut	-83
▁Je	-84
al	-85
▁in	-86
ay	-87
▁D	-88
▁Y	-89
se	-90
▁la	-91
▁L	-92
▁ne	-93
ant	-94
▁on	-95
ro	-96
lle	-97
▁E	-98
out	-99
▁H	-100
▁N	-101
▁of	-102
▁be	-103
▁e	-104
hat	-105
ion	-106
▁su	-107
▁P	-108
▁he	-109
ic	-110
id	-111
▁it	-112
▁B	-113
ed	-114
▁à	-115
ac	-116
▁!	-117
▁en	-118
▁ha	-119
ir	-120
im	-121
▁je	-122
▁k	-123
▁do	-124
▁and	-125
▁that	-126
ra	-127
ie	-128
gh	-129
▁You	-130
ver	-131
▁vous	-132
▁com	-133
▁ch	-134
▁et	-135
▁we	-136
▁se	-137
▁pour	-138
am	-139
ke	-140
ment	-141
ch	-142
▁tu	-143
onn	-144
and	-145
ét	-146
ol	-147
ien	-148
▁les	-149
▁for	-150
▁V	-151
au	-152
ad	-153
▁is	-154
▁par	-155
▁pl	-156
os	-157
▁r	-158
ill	-159
▁ce	-160
ont	-161
▁est	-162
pp	-163
▁an	-164
ght	-165
▁te	-166
ans	-167
oo	-168
ld	-169
ain	-170
ag	-171
▁Il	-172
res	-173
▁G	-174
▁li	-175
▁une	-176
▁Tu	-177
eux	-178
▁st	-179
▁R	-180
▁not	-181
▁The	-182
ur	-183
▁have	-184
ter	-185
▁was	-186
el	-187
ui	-188
▁your	-189
▁kn	-190
▁des	-191
▁tr	-192
ons	-193
▁my	-194
ith	-195
ça	-196
▁as	-197
▁ça	-198
eur	-199
all	-200
▁Q	-201
if	-202
▁don	-203
▁We	-204
▁He	-205
▁know	-206
end	-207
▁It	-208
êt	-209
▁this	-210
ard	-211
ct	-212
▁wh	-213
oir	-214
ers	-215
▁F	-216
▁with	-217
ust	-218
▁ri	-219
ble	-220
ould	-221
▁ave	-222
▁What	-223
▁Qu	-224
▁go	-225
▁all	-226
▁dé	-227
up	-228
▁pr	-229
ome	-230
que	-231
▁au	-232
▁can	-233
▁"	-234
ort	-235
ore	-236
▁On	-237
▁sa	-238
ée	-239
▁qui	-240
aire	-241
▁mon	-242
▁at	-243
▁dans	-244
her	-245
ess	-246
ère	-247
hing	-248
▁are	-249
ne	-250
▁du	-251
▁il	-252
▁pro	-253
▁so	-254
ig	-255
op	-256
▁Vous	-257
ire	-258
▁ab	-259
▁ét	-260
ation	-261
▁Et	-262
▁what	-263
ly	-264
▁av	-265
▁sur	-266
▁ma	-267
ure	-268
▁him	-269
▁suis	-270
▁sh	-271
ci	-272
ang	-273
▁Th	-274
ose	-275
use	-276
▁get	-277
▁fait	-278
ul	-279
▁avec	-280
st	-281
és	-282
▁plus	-283
de	-284
▁ta	-285
▁And	-286
▁like	-287
▁ar	-288
ist	-289
ack	-290
mp	-291
▁nous	-292
ens	-293
ink	-294
ck	-295
▁about	-296
▁U	-297
av	-298
être	-299
▁out	-300
▁here	-301
ine	-302
ood	-303
▁bien	-304
▁tout	-305
▁No	-306
ez	-307
▁want	-308
ord	-309
▁si	-310
▁ex	-311
▁fr	-312
▁mais	-313
oin	-314
▁Wh	-315
ff	-316
▁did	-317
pe	-318
one	-319
▁That	-320
ry	-321
eut	-322
▁al	-323
▁ca	-324
▁up	-325
ook	-326
rai	-327
▁just	-328
ois	-329
▁faire	-330
onna	-331
▁but	-332
ong	-333
ive	-334
▁va	-335
▁her	-336
ind	-337
ès	-338
▁moi	-339
ors	-340
si	-341
ue	-342
▁think	-343
ille	-344
ici	-345
ven	-346
age	-347
▁right	-348
▁Le	-349
▁ser	-350
▁pre	-351
▁K	-352
ight	-353
od	-354
nt	-355
▁gonna	-356
ite	-357
oy	-358
▁sais	-359
um	-360
▁any	-361
ate	-362
ally	-363
ette	-364
▁fe	-365
che	-366
▁there	-367
▁é	-368
▁comp	-369
ah	-370
▁one	-371
▁con	-372
▁part	-373
bl	-374
▁see	-375
art	-376
▁us	-377
▁Mais	-378
ime	-379
▁Oh	-380
▁got	-381
▁his	-382
▁wor	-383
aut	-384
ice	-385
▁dis	-386
▁quel	-387
▁But	-388
▁ou	-389
▁she	-390
ier	-391
▁ré	-392
▁am	-393
▁Non	-394
▁dit	-395
ance	-396
other	-397
▁veux	-398
▁1	-399
are	-400
▁man	-401
ide	-402
ge	-403
otre	-404
▁they	-405
▁tra	-406
ap	-407
onne	-408
kay	-409
▁if	-410
imp	-411
ab	-412
▁comme	-413
▁no	-414
ours	-415
▁Oui	-416
iv	-417
ouv	-418
▁gu	-419
▁dire	-420
▁là	-421
here	-422
▁from	-423
elle	-424
▁who	-425
ast	-426
▁son	-427
▁lui	-428
▁cl	-429
ank	-430
▁ever	-431
▁res	-432
▁mar	-433
ave	-434
uis	-435
▁dev	-436
▁back	-437
▁tou	-438
ted	-439
ace	-440
▁Pour	-441
▁some	-442
alk	-443
▁Ch	-444
▁Elle	-445
▁toi	-446
▁Com	-447
▁ag	-448
▁them	-449
▁She	-450
▁say	-451
▁were	-452
▁app	-453
▁Ç	-454
▁Ça	-455
▁cont	-456
▁will	-457
ove	-458
▁es	-459
quoi	-460
▁sont	-461
▁or	-462
▁time	-463
ux	-464
▁som	-465
fe	-466
vous	-467
▁would	-468
ars	-469
ca	-470
▁peut	-471
ep	-472
▁vou	-473
eah	-474
▁être	-475
▁cou	-476
▁peux	-477
ond	-478
thing	-479
▁La	-480
▁ici	-481
▁gr	-482
ass	-483
be	-484
▁ton	-485
ound	-486
▁vrai	-487
▁votre	-488
ten	-489
▁co	-490
▁che	-491
moi	-492
▁jus	-493
▁Si	-494
iss	-495
pr	-496
ouve	-497
▁Don	-498
▁need	-499
▁So	-500
▁off	-501
▁bl	-502
way	-503
▁vais	-504
mes	-505
cc	-506
▁cette	-507
▁too	-508
▁been	-509
▁quoi	-510
ase	-511
mb	-512
able	-513
▁look	-514
▁Yes	-515
▁ra	-516
▁ent	-517
▁good	-518
▁could	-519
▁Un	-520
▁Al	-521
ions	-522
▁Ce	-523
own	-524
▁They	-525
était	-526
itt	-527
▁Do	-528
▁had	-529
▁going	-530
ick	-531
▁didn	-532
▁br	-533
éri	-534
▁now	-535
▁elle	-536
ique	-537
▁chose	-538
▁Re	-539
▁Ne	-540
▁Yeah	-541
▁pe	-542
▁tell	-543
ner	-544
ér	-545
iens	-546
ies	-547
ête	-548
▁If	-549
ême	-550
act	-551
ité	-552
▁talk	-553
ak	-554
▁rien	-555
app	-556
▁every	-557
une	-558
ame	-559
▁our	-560
ett	-561
▁How	-562
▁En	-563
▁St	-564
▁take	-565
cou	-566
▁Les	-567
ob	-568
▁aut	-569
▁thing	-570
aid	-571
▁per	-572
▁when	-573
ost	-574
mand	-575
▁parl	-576
mps	-577
▁pass	-578
▁This	-579
▁All	-580
ient	-581
▁ver	-582
ussi	-583
▁Well	-584
▁2	-585
rais	-586
▁-	-587
ense	-588
▁main	-589
▁était	-590
ise	-591
cause	-592
▁att	-593
uck	-594
▁jam	-595
ils	-596
▁pers	-597
erci	-598
ach	-599
▁cro	-600
▁There	-601
per	-602
▁Ils	-603
▁work	-604
pl	-605
▁cr	-606
▁été	-607
ign	-608
▁avez	-609
▁fais	-610
▁imp	-611
▁int	-612
êtes	-613
ress	-614
▁juste	-615
orte	-616
▁Why	-617
tu	-618
ething	-619
▁way	-620
▁De	-621
▁come	-622
▁quand	-623
reat	-624
▁happ	-625
▁ro	-626
▁jamais	-627
tenant	-628
ough	-629
▁Nous	-630
ade	-631
ud	-632
▁fin	-633
▁voir	-634
ert	-635
éc	-636
▁has	-637
▁Pourquoi	-638
▁non	-639
ence	-640
▁aussi	-641
rait	-642
00	-643
▁Is	-644
orm	-645
▁long	-646
ile	-647
eurs	-648
llez	-649
▁make	-650
▁how	-651
▁ret	-652
▁by	-653
ittle	-654
▁Okay	-655
▁peu	-656
▁down	-657
▁sc	-658
air	-659
og	-660
lf	-661
▁sec	-662
▁does	-663
▁something	-664
uit	-665
▁cour	-666
▁more	-667
ail	-668
▁vie	-669
▁car	-670
▁Let	-671
cher	-672
▁should	-673
▁ont	-674
ity	-675
▁sp	-676
▁love	-677
rer	-678
▁tro	-679
att	-680
acc	-681
▁seu	-682
▁Come	-683
ich	-684
mer	-685
▁min	-686
▁pens	-687
ople	-688
▁sav	-689
▁little	-690
ière	-691
▁Be	-692
▁over	-693
▁really	-694
gard	-695
ale	-696
▁In	-697
▁bon	-698
▁deux	-699
▁Mr	-700
▁temps	-701
▁pet	-702
ought	-703
anc	-704
▁never	-705
▁tous	-706
▁êtes	-707
▁day	-708
oc	-709
wo	-710
iz	-711
▁arri	-712
▁An	-713
ange	-714
▁My	-715
▁guy	-716
pt	-717
▁même	-718
▁let	-719
▁Par	-720
▁mal	-721
▁Ou	-722
▁Thank	-723
▁Sh	-724
▁pu	-725
▁où	-726
▁bes	-727
▁Pas	-728
▁ad	-729
▁ces	-730
old	-731
▁Hey	-732
la	-733
▁ven	-734
▁quelqu	-735
riend	-736
orry	-737
▁voul	-738
jours	-739
uc	-740
ody	-741
rend	-742
▁bet	-743
iez	-744
ren	-745
▁quelque	-746
aiss	-747
ree	-748
▁fam	-749
ern	-750
core	-751
▁besoin	-752
▁people	-753
▁comm	-754
▁okay	-755
▁pos	-756
red	-757
▁sû	-758
ip	-759
▁vraiment	-760
én	-761
▁très	-762
▁hel	-763
ese	-764
▁toujours	-765
▁Merci	-766
sez	-767
él	-768
▁prend	-769
▁Not	-770
ôt	-771
▁doing	-772
▁find	-773
ia	-774
▁mes	-775
ît	-776
▁fl	-777
self	-778
▁demand	-779
▁dois	-780
ell	-781
▁und	-782
▁mean	-783
▁said	-784
▁Alors	-785
uch	-786
ép	-787
▁mom	-788
▁only	-789
▁Bien	-790
▁hom	-791
▁help	-792
ieux	-793
▁'	-794
▁fois	-795
ake	-796
ants	-797
▁ple	-798
▁again	-799
▁fer	-800
▁Que	-801
▁ph	-802
▁ass	-803
▁mat	-804
ident	-805
ann	-806
aient	-807
▁grand	-808
▁fem	-809
tt	-810
▁notre	-811
▁very	-812
ées	-813
▁trav	-814
▁ans	-815
▁Comment	-816
ather	-817
▁af	-818
▁Ex	-819
oire	-820
▁pense	-821
▁jour	-822
▁two	-823
vez	-824
ins	-825
▁avoir	-826
▁call	-827
ction	-828
▁anything	-829
▁Mar	-830
▁di	-831
▁eu	-832
▁ter	-833
▁ye	-834
ole	-835
▁encore	-836
▁maintenant	-837
ey	-838
les	-839
lie	-840
▁3	-841
".	-842
▁Mon	-843
ath	-844
▁trou	-845
irst	-846
aine	-847
ish	-848
▁where	-849
▁much	-850
aybe	-851
▁Look	-852
▁put	-853
▁rec	-854
▁acc	-855
▁because	-856
▁vu	-857
▁parler	-858
▁enf	-859
▁monde	-860
ady	-861
aux	-862
anger	-863
ves	-864
▁then	-865
▁sort	-866
▁Se	-867
th	-868
▁ils	-869
▁faut	-870
ations	-871
accord	-872
▁sou	-873
▁conn	-874
."	-875
▁bu	-876
je	-877
fore	-878
ting	-879
▁Who	-880
▁why	-881
we	-882
▁wr	-883
lez	-884
▁avait	-885
▁even	-886
▁Where	-887
▁Tout	-888
get	-889
▁aller	-890
▁Bon	-891
vers	-892
▁ask	-893
▁other	-894
▁Une	-895
▁bou	-896
ré	-897
▁dés	-898
▁crois	-899
▁friend	-900
▁night	-901
▁mont	-902
▁dr	-903
▁life	-904
▁pri	-905
▁feel	-906
▁Did	-907
jour	-908
▁sorry	-909
oth	-910
▁supp	-911
▁Are	-912
▁happen	-913
ème	-914
▁place	-915
▁donn	-916
iqu	-917
▁thought	-918
▁still	-919
▁pay	-920
ég	-921
▁pol	-922
ict	-923
▁Di	-924
▁rep	-925
▁quest	-926
rez	-927
▁give	-928
▁kid	-929
▁than	-930
là	-931
oit	-932
ute	-933
pect	-934
▁déc	-935
ouse	-936
▁Quoi	-937
▁dif	-938
▁nouve	-939
▁avant	-940
▁mort	-941
▁pris	-942
▁Good	-943
▁into	-944
▁beau	-945
▁try	-946
▁sûr	-947
▁gir	-948
▁God	-949
ets	-950
▁conf	-951
day	-952
▁cons	-953
éd	-954
▁Jo	-955
amp	-956
ning	-957
▁their	-958
▁doesn	-959
ts	-960
▁before	-961
lles	-962
ock	-963
gent	-964
▁Ma	-965
ex	-966
près	-967
▁petit	-968
▁end	-969
▁told	-970
ante	-971
▁Your	-972
▁trop	-973
▁first	-974
▁père	-975
▁sure	-976
▁aux	-977
eep	-978
mber	-979
body	-980
▁kill	-981
wn	-982
▁won	-983
▁moment	-984
uh	-985
▁pouv	-986
▁dep	-987
▁Can	-988
▁inv	-989
▁sans	-990
enc	-991
▁Ar	-992
ros	-993
▁sem	-994
▁doit	-995
▁Allez	-996
▁prop	-997
▁vas	-998
▁coup	-999
▁home	-1000
ug	-1001
▁ai	-1002
olé	-1003
▁veut	-1004
▁leur	-1005
ft	-1006
▁tri	-1007
▁cher	-1008
▁femme	-1009
arr	-1010
▁ses	-1011
▁As	-1012
▁new	-1013
▁Qui	-1014
▁away	-1015
▁Tr	-1016
▁ins	-1017
man	-1018
▁Où	-1019
ving	-1020
▁Fr	-1021
▁care	-1022
du	-1023
ote	-1024
▁cor	-1025
ild	-1026
▁everything	-1027
mm	-1028
▁soir	-1029
erst	-1030
▁rev	-1031
▁voi	-1032
min	-1033
▁must	-1034
▁hand	-1035
▁When	-1036
anted	-1037
▁alors	-1038
▁rem	-1039
▁nom	-1040
▁last	-1041
int	-1042
▁laiss	-1043
ily	-1044
étais	-1045
ition	-1046
▁lot	-1047
▁dou	-1048
bre	-1049
▁im	-1050
ool	-1051
▁regard	-1052
▁name	-1053
▁thr	-1054
▁girl	-1055
▁these	-1056
oint	-1057
ater	-1058
jà	-1059
cuse	-1060
▁better	-1061
coup	-1062
ways	-1063
▁plan	-1064
king	-1065
ince	-1066
▁act	-1067
▁autre	-1068
▁Now	-1069
▁after	-1070
▁sera	-1071
▁seule	-1072
ris	-1073
▁wanted	-1074
▁vois	-1075
▁gens	-1076
▁ren	-1077
ié	-1078
oll	-1079
▁fille	-1080
▁rais	-1081
ures	-1082
▁déjà	-1083
▁id	-1084
▁pourquoi	-1085
▁years	-1086
▁Quel	-1087
avais	-1088
ory	-1089
▁personne	-1090
▁dro	-1091
▁sent	-1092
▁Ouais	-1093
▁Go	-1094
▁comment	-1095
coute	-1096
ph	-1097
vé	-1098
iste	-1099
▁Just	-1100
▁wait	-1101
my	-1102
▁chez	-1103
▁keep	-1104
ret	-1105
▁rest	-1106
▁For	-1107
▁dern	-1108
▁5	-1109
asse	-1110
▁trouv	-1111
▁aff	-1112
ber	-1113
vent	-1114
▁vis	-1115
aime	-1116
▁arr	-1117
▁great	-1118
▁sau	-1119
erstand	-1120
▁always	-1121
▁chance	-1122
ary	-1123
▁prom	-1124
▁Dieu	-1125
▁Quand	-1126
▁belie	-1127
▁ess	-1128
▁nothing	-1129
▁mère	-1130
atch	-1131
▁Get	-1132
▁things	-1133
▁show	-1134
▁jou	-1135
▁puis	-1136
▁passe	-1137
▁éc	-1138
▁vos	-1139
▁beaucoup	-1140
▁mieux	-1141
ek	-1142
▁inf	-1143
oses	-1144
ger	-1145
▁made	-1146
itu	-1147
oins	-1148
ub	-1149
onsi	-1150
▁real	-1151
▁probl	-1152
▁rend	-1153
▁Car	-1154
▁rép	-1155
▁cra	-1156
rent	-1157
▁soit	-1158
ike	-1159
endre	-1160
▁4	-1161
iè	-1162
▁env	-1163
ler	-1164
▁dét	-1165
▁course	-1166
▁homme	-1167
aît	-1168
▁ann	-1169
imes	-1170
▁coming	-1171
▁Maybe	-1172
▁bad	-1173
▁well	-1174
sible	-1175
▁pré	-1176
▁tes	-1177
ated	-1178
▁parce	-1179
▁understand	-1180
▁Dr	-1181
▁money	-1182
▁voit	-1183
▁play	-1184
▁maison	-1185
▁wom	-1186
▁Ah	-1187
▁prem	-1188
▁Ca	-1189
agn	-1190
▁sy	-1191
▁après	-1192
ms	-1193
▁believe	-1194
▁Au	-1195
▁À	-1196
▁sign	-1197
▁old	-1198
▁stay	-1199
▁cas	-1200
toi	-1201
sem	-1202
ends	-1203
aill	-1204
ious	-1205
▁Des	-1206
▁depuis	-1207
▁char	-1208
utes	-1209
▁compl	-1210
ettre	-1211
▁big	-1212
▁spe	-1213
▁prendre	-1214
ache	-1215
▁house	-1216
▁inc	-1217
▁gen	-1218
aisse	-1219
endant	-1220
▁bus	-1221
▁passé	-1222
▁fun	-1223
autre	-1224
illes	-1225
▁pat	-1226
isten	-1227
era	-1228
▁Me	-1229
▁trouver	-1230
xt	-1231
▁aur	-1232
ian	-1233
▁left	-1234
▁inter	-1235
▁men	-1236
▁gl	-1237
▁came	-1238
▁comprend	-1239
▁choses	-1240
ents	-1241
llo	-1242
▁pres	-1243
avez	-1244
kes	-1245
▁around	-1246
▁question	-1247
▁mari	-1248
▁bo	-1249
ye	-1250
tement	-1251
▁talking	-1252
▁el	-1253
pit	-1254
▁ob	-1255
▁stop	-1256
▁found	-1257
▁savoir	-1258
▁pare	-1259
▁Sal	-1260
▁father	-1261
ful	-1262
ult	-1263
ps	-1264
▁gard	-1265
ny	-1266
▁those	-1267
▁mo	-1268
very	-1269
▁mor	-1270
ope	-1271
▁wrong	-1272
dy	-1273
▁avons	-1274
▁Excuse	-1275
▁expl	-1276
▁kind	-1277
▁import	-1278
çon	-1279
▁dir	-1280
▁Cl	-1281
▁op	-1282
ats	-1283
▁fil	-1284
▁leave	-1285
▁nuit	-1286
ention	-1287
▁diff	-1288
▁Then	-1289
▁rapp	-1290
▁seul	-1291
▁dead	-1292
▁hear	-1293
▁toute	-1294
di	-1295
▁pap	-1296
▁minutes	-1297
rn	-1298
▁cri	-1299
▁dem	-1300
▁truc	-1301
▁voulez	-1302
▁being	-1303
ouvez	-1304
▁police	-1305
▁point	-1306
erre	-1307
endu	-1308
▁miss	-1309
▁wasn	-1310
▁Pr	-1311
▁happened	-1312
▁boy	-1313
▁emp	-1314
▁done	-1315
▁To	-1316
igh	-1317
ife	-1318
▁enough	-1319
arri	-1320
▁fuck	-1321
▁sens	-1322
▁mer	-1323
ente	-1324
cept	-1325
▁mis	-1326
▁through	-1327
▁hum	-1328
son	-1329
▁voulais	-1330
▁mother	-1331
▁moins	-1332
▁sm	-1333
▁job	-1334
▁head	-1335
ché	-1336
▁donc	-1337
ib	-1338
lled	-1339
▁same	-1340
▁week	-1341
ider	-1342
▁someone	-1343
oot	-1344
ane	-1345
row	-1346
▁Z	-1347
▁rel	-1348
member	-1349
▁ord	-1350
az	-1351
▁nos	-1352
▁Comme	-1353
▁serv	-1354
ull	-1355
▁prés	-1356
▁mot	-1357
▁appel	-1358
▁oui	-1359
▁rent	-1360
onsieur	-1361
urt	-1362
▁raison	-1363
aman	-1364
▁É	-1365
ces	-1366
ments	-1367
avoir	-1368
auv	-1369
ches	-1370
▁ac	-1371
ains	-1372
▁looking	-1373
▁Est	-1374
aires	-1375
▁else	-1376
▁conc	-1377
sed	-1378
ial	-1379
semble	-1380
▁run	-1381
aque	-1382
▁mess	-1383
▁trying	-1384
▁live	-1385
▁room	-1386
oss	-1387
▁saw	-1388
▁gars	-1389
▁savez	-1390
▁world	-1391
▁tour	-1392
▁three	-1393
▁str	-1394
rit	-1395
ages	-1396
▁Voi	-1397
▁num	-1398
ually	-1399
▁prof	-1400
ating	-1401
▁pourrait	-1402
▁essay	-1403
gn	-1404
▁guys	-1405
▁suppose	-1406
▁own	-1407
▁Because	-1408
▁cle	-1409
hn	-1410
▁Regard	-1411
bles	-1412
iers	-1413
▁proble	-1414
esp	-1415
▁viv	-1416
▁second	-1417
▁Hello	-1418
000	-1419
▁allez	-1420
ely	-1421
▁meet	-1422
▁hard	-1423
▁sal	-1424
▁trans	-1425
aught	-1426
▁Every	-1427
▁bonne	-1428
llement	-1429
▁kne	-1430
▁dép	-1431
▁another	-1432
▁gra	-1433
▁tuer	-1434
▁ide	-1435
aud	-1436
▁cet	-1437
▁connais	-1438
▁family	-1439
venir	-1440
▁reste	-1441
ccup	-1442
▁famille	-1443
lé	-1444
▁fine	-1445
▁problème	-1446
▁trouvé	-1447
▁train	-1448
ried	-1449
▁sommes	-1450
▁best	-1451
▁sex	-1452
▁cop	-1453
▁cert	-1454
▁peur	-1455
▁ref	-1456
ical	-1457
mor	-1458
▁face	-1459
▁yourself	-1460
▁serait	-1461
▁partir	-1462
▁please	-1463
ton	-1464
▁Pl	-1465
▁meill	-1466
▁Or	-1467
▁went	-1468
aby	-1469
ied	-1470
▁Att	-1471
▁voy	-1472
▁wouldn	-1473
▁gar	-1474
▁comb	-1475
▁toget	-1476
▁together	-1477
▁Here	-1478
▁Gr	-1479
▁mill	-1480
éb	-1481
▁important	-1482
▁getting	-1483
lease	-1484
illed	-1485
nts	-1486
▁cela	-1487
▁Dés	-1488
omp	-1489
▁Donc	-1490
▁eff	-1491
lui	-1492
▁ty	-1493
olog	-1494
reak	-1495
▁dû	-1496
▁Salut	-1497
▁bar	-1498
▁John	-1499
ready	-1500
▁Of	-1501
ott	-1502
▁travail	-1503
▁sir	-1504
▁tête	-1505
ctor	-1506
▁might	-1507
▁start	-1508
▁sait	-1509
▁heure	-1510
▁took	-1511
its	-1512
itch	-1513
▁passer	-1514
▁quelques	-1515
▁auc	-1516
▁nice	-1517
▁viens	-1518
▁Br	-1519
▁Main	-1520
▁dec	-1521
▁disc	-1522
ister	-1523
▁entre	-1524
▁fils	-1525
▁super	-1526
uss	-1527
▁Ab	-1528
▁retour	-1529
▁isn	-1530
▁Peut	-1531
▁cal	-1532
▁without	-1533
▁mind	-1534
orn	-1535
hui	-1536
▁vol	-1537
▁already	-1538
▁contr	-1539
▁disp	-1540
▁tél	-1541
érie	-1542
ites	-1543
▁inte	-1544
▁10	-1545
▁rou	-1546
ène	-1547
▁seen	-1548
▁Eh	-1549
leep	-1550
zy	-1551
▁sous	-1552
▁trois	-1553
▁turn	-1554
qui	-1555
▁killed	-1556
ues	-1557
argent	-1558
▁beaut	-1559
▁mec	-1560
ark	-1561
▁knew	-1562
▁remember	-1563
▁sortir	-1564
men	-1565
ings	-1566
urs	-1567
▁woman	-1568
▁déb	-1569
▁gén	-1570
▁change	-1571
▁$	-1572
▁Parce	-1573
uff	-1574
▁sch	-1575
▁voiture	-1576
▁move	-1577
ork	-1578
ason	-1579
▁renc	-1580
arn	-1581
▁One	-1582
aul	-1583
▁child	-1584
▁Maintenant	-1585
▁sl	-1586
jourd	-1587
▁porte	-1588
▁jusqu	-1589
cial	-1590
iness	-1591
▁used	-1592
util	-1593
▁Dad	-1594
ash	-1595
▁Will	-1596
ever	-1597
▁mus	-1598
aurais	-1599
▁plaît	-1600
▁next	-1601
▁laisser	-1602
arm	-1603
dre	-1604
▁jours	-1605
▁pouvez	-1606
ved	-1607
gg	-1608
▁contre	-1609
▁Moi	-1610
▁sang	-1611
rist	-1612
▁assez	-1613
▁friends	-1614
▁Ok	-1615
▁Dans	-1616
ates	-1617
▁rester	-1618
▁20	-1619
▁cond	-1620
ule	-1621
▁toutes	-1622
▁idea	-1623
▁met	-1624
▁Jack	-1625
▁Ton	-1626
▁enfants	-1627
▁hell	-1628
▁simp	-1629
riez	-1630
▁Bl	-1631
vert	-1632
▁ten	-1633
▁person	-1634
▁possible	-1635
▁resp	-1636
▁Please	-1637
▁phot	-1638
ream	-1639
▁prob	-1640
▁New	-1641
come	-1642
▁venir	-1643
orter	-1644
nez	-1645
▁parents	-1646
▁under	-1647
▁swe	-1648
▁Bonjour	-1649
▁journ	-1650
arl	-1651
▁wife	-1652
▁tard	-1653
▁faites	-1654
▁gros	-1655
tre	-1656
ty	-1657
▁OK	-1658
▁Ste	-1659
io	-1660
▁wants	-1661
▁vict	-1662
▁thank	-1663
▁fa	-1664
ding	-1665
▁port	-1666
▁chang	-1667
▁minute	-1668
amn	-1669
▁tire	-1670
▁star	-1671
▁Dis	-1672
pital	-1673
▁petite	-1674
▁rencont	-1675
cle	-1676
▁baby	-1677
vel	-1678
▁parle	-1679
▁few	-1680
▁mur	-1681
tr	-1682
▁problem	-1683
ird	-1684
▁school	-1685
▁gent	-1686
ric	-1687
▁alone	-1688
▁pendant	-1689
▁Tell	-1690
▁dur	-1691
▁Stop	-1692
cteur	-1693
▁Sam	-1694
ina	-1695
▁fight	-1696
▁ago	-1697
▁Mom	-1698
▁today	-1699
▁sol	-1700
aie	-1701
roy	-1702
ém	-1703
▁hist	-1704
tty	-1705
ouver	-1706
▁ste	-1707
ras	-1708
▁Très	-1709
ower	-1710
▁Any	-1711
ared	-1712
more	-1713
▁ami	-1714
iser	-1715
▁At	-1716
▁6	-1717
▁col	-1718
ames	-1719
▁heard	-1720
▁Votre	-1721
ards	-1722
▁nouveau	-1723
▁vient	-1724
▁called	-1725
▁case	-1726
ines	-1727
ression	-1728
▁test	-1729
▁inst	-1730
ta	-1731
▁mé	-1732
▁souv	-1733
urn	-1734
▁devrais	-1735
ible	-1736
gan	-1737
êter	-1738
opp	-1739
▁cam	-1740
▁ris	-1741
sh	-1742
iques	-1743
▁With	-1744
▁fac	-1745
▁many	-1746
iful	-1747
▁autres	-1748
by	-1749
▁Take	-1750
▁contin	-1751
rew	-1752
til	-1753
▁travaill	-1754
▁déf	-1755
▁days	-1756
enn	-1757
▁use	-1758
▁four	-1759
▁Pro	-1760
▁may	-1761
▁deal	-1762
▁Wait	-1763
▁whole	-1764
ôle	-1765
ances	-1766
ix	-1767
▁ready	-1768
▁rés	-1769
iot	-1770
▁mag	-1771
▁bas	-1772
▁personn	-1773
▁sac	-1774
▁which	-1775
▁Hé	-1776
▁hon	-1777
iel	-1778
▁soon	-1779
iter	-1780
▁maybe	-1781
▁Really	-1782
▁Arr	-1783
▁ép	-1784
▁word	-1785
der	-1786
▁Tom	-1787
ys	-1788
▁exp	-1789
▁matter	-1790
▁donner	-1791
led	-1792
olée	-1793
▁comprends	-1794
▁ir	-1795
▁fall	-1796
▁open	-1797
so	-1798
▁ensemble	-1799
▁vers	-1800
gl	-1801
ley	-1802
nous	-1803
▁dernière	-1804
vie	-1805
temps	-1806
aille	-1807
▁drink	-1808
endez	-1809
▁Pet	-1810
inc	-1811
erve	-1812
▁partie	-1813
▁most	-1814
▁pensais	-1815
▁myself	-1816
▁croy	-1817
▁propos	-1818
▁hope	-1819
▁cause	-1820
entre	-1821
iller	-1822
▁mour	-1823
▁morning	-1824
▁vi	-1825
rir	-1826
▁choi	-1827
▁Du	-1828
éro	-1829
▁sleep	-1830
▁Es	-1831
▁fou	-1832
▁Some	-1833
▁mois	-1834
▁mil	-1835
ness	-1836
▁côt	-1837
▁dess	-1838
▁stup	-1839
auvais	-1840
▁since	-1841
▁commenc	-1842
▁simple	-1843
▁bring	-1844
▁prison	-1845
▁tué	-1846
▁watch	-1847
▁désolé	-1848
roit	-1849
▁heart	-1850
▁pouvoir	-1851
▁couldn	-1852
▁aurait	-1853
ques	-1854
▁brother	-1855
▁Hi	-1856
▁aim	-1857
▁Like	-1858
este	-1859
ably	-1860
▁while	-1861
jet	-1862
▁suff	-1863
▁Have	-1864
▁genre	-1865
▁type	-1866
▁die	-1867
▁idée	-1868
ution	-1869
▁count	-1870
▁parf	-1871
▁business	-1872
▁mettre	-1873
▁fire	-1874
▁anymore	-1875
▁entendu	-1876
▁listen	-1877
vre	-1878
ying	-1879
▁anyone	-1880
▁tonight	-1881
ature	-1882
▁Christ	-1883
▁ind	-1884
hed	-1885
iend	-1886
▁bri	-1887
▁voud	-1888
▁pretty	-1889
▁uh	-1890
▁until	-1891
▁break	-1892
▁Sc	-1893
ience	-1894
▁surpr	-1895
▁dri	-1896
▁month	-1897
▁dra	-1898
▁ap	-1899
▁aujourd	-1900
▁beautiful	-1901
▁haven	-1902
▁lost	-1903
▁Uh	-1904
appelle	-1905
▁happy	-1906
cl	-1907
▁retr	-1908
▁devrait	-1909
▁crazy	-1910
▁saying	-1911
▁Arrête	-1912
▁walk	-1913
▁dist	-1914
aines	-1915
▁po	-1916
▁demain	-1917
▁App	-1918
▁gone	-1919
▁tant	-1920
▁Char	-1921
▁gun	-1922
ik	-1923
where	-1924
aff	-1925
▁His	-1926
▁dest	-1927
▁Ave	-1928
ienne	-1929
▁chercher	-1930
▁thinking	-1931
ize	-1932
uth	-1933
▁shit	-1934
ron	-1935
▁vite	-1936
rible	-1937
▁béb	-1938
idé	-1939
▁says	-1940
aissez	-1941
dd	-1942
fect	-1943
▁phone	-1944
aimer	-1945
▁reg	-1946
▁check	-1947
▁Avec	-1948
▁amis	-1949
▁mauvais	-1950
▁Am	-1951
▁demande	-1952
tez	-1953
▁bra	-1954
ager	-1955
▁guess	-1956
▁prot	-1957
▁yet	-1958
quer	-1959
▁pourrais	-1960
▁Cette	-1961
▁ville	-1962
omb	-1963
▁19	-1964
▁six	-1965
▁vont	-1966
ollow	-1967
▁diffe	-1968
▁sus	-1969
less	-1970
▁gave	-1971
isé	-1972
cer	-1973
▁7	-1974
rest	-1975
aw	-1976
▁kids	-1977
ng	-1978
▁hein	-1979
▁hommes	-1980
emp	-1981
ision	-1982
ung	-1983
▁arrivé	-1984
▁Sp	-1985
oke	-1986
ivers	-1987
▁fini	-1988
▁dont	-1989
▁sk	-1990
▁working	-1991
iance	-1992
▁Thanks	-1993
▁frère	-1994
els	-1995
qué	-1996
orth	-1997
▁Rien	-1998
▁tomor	-1999
▁tomorrow	-2000
onder	-2001
▁parlé	-2002
▁fut	-2003
▁longtemps	-2004
▁ment	-2005
▁El	-2006
▁Viens	-2007
▁hor	-2008
▁Vrai	-2009
▁fra	-2010
head	-2011
▁prêt	-2012
▁8	-2013
▁worry	-2014
▁ju	-2015
▁Put	-2016
▁Ben	-2017
▁each	-2018
ken	-2019
▁inform	-2020
▁door	-2021
▁See	-2022
iner	-2023
▁secret	-2024
ateur	-2025
▁Voilà	-2026
éph	-2027
▁arrive	-2028
▁donné	-2029
▁far	-2030
▁savais	-2031
als	-2032
▁close	-2033
▁blood	-2034
▁Jus	-2035
▁Mer	-2036
▁year	-2037
▁pain	-2038
wer	-2039
▁having	-2040
ics	-2041
▁trouve	-2042
▁Che	-2043
▁matin	-2044
▁Vraiment	-2045
▁9	-2046
▁Désolé	-2047
▁pick	-2048
▁heures	-2049
▁Ph	-2050
▁taking	-2051
▁dad	-2052
▁cham	-2053
▁questions	-2054
▁30	-2055
▁façon	-2056
rière	-2057
▁plais	-2058
▁art	-2059
▁knows	-2060
aughter	-2061
▁leurs	-2062
▁publ	-2063
▁util	-2064
lex	-2065
ara	-2066
▁stand	-2067
nes	-2068
ela	-2069
sol	-2070
▁corps	-2071
▁high	-2072
▁prote	-2073
iment	-2074
▁Regarde	-2075
▁Ge	-2076
▁lo	-2077
▁Cap	-2078
▁read	-2079
▁supposed	-2080
▁death	-2081
▁Af	-2082
band	-2083
▁emb	-2084
▁Cal	-2085
▁sub	-2086
▁sw	-2087
▁Har	-2088
▁bébé	-2089
▁hands	-2090
▁Son	-2091
▁z	-2092
oney	-2093
ither	-2094
▁beh	-2095
▁gotta	-2096
▁camp	-2097
▁true	-2098
▁yeah	-2099
▁Pe	-2100
▁both	-2101
bas	-2102
▁front	-2103
▁eas	-2104
▁merci	-2105
▁conv	-2106
ram	-2107
▁perdu	-2108
▁côté	-2109
▁15	-2110
sy	-2111
▁seulement	-2112
▁fort	-2113
▁exact	-2114
lot	-2115
land	-2116
med	-2117
ene	-2118
▁client	-2119
▁monsieur	-2120
▁law	-2121
▁voilà	-2122
▁oubl	-2123
▁Give	-2124
▁Pers	-2125
▁aider	-2126
érer	-2127
aider	-2128
▁première	-2129
▁hold	-2130
▁hurt	-2131
▁late	-2132
▁réc	-2133
aster	-2134
▁vér	-2135
▁everyone	-2136
rence	-2137
yes	-2138
arre	-2139
▁Dan	-2140
ettes	-2141
▁suiv	-2142
eure	-2143
heure	-2144
▁Pre	-2145
agne	-2146
▁bro	-2147
▁Miss	-2148
▁eat	-2149
▁sûre	-2150
▁yeux	-2151
▁dém	-2152
▁Pap	-2153
▁body	-2154
usband	-2155
▁tellement	-2156
▁demander	-2157
ères	-2158
▁meur	-2159
▁norm	-2160
▁doll	-2161
▁hot	-2162
▁Sorry	-2163
onde	-2164
▁asked	-2165
▁év	-2166
uite	-2167
em	-2168
▁fucking	-2169
ener	-2170
▁Rob	-2171
raid	-2172
▁demandé	-2173
œur	-2174
▁also	-2175
tes	-2176
unch	-2177
uter	-2178
▁Ser	-2179
▁Nothing	-2180
leur	-2181
▁bless	-2182
ER	-2183
▁Plus	-2184
gu	-2185
▁leav	-2186
▁forg	-2187
ject	-2188
▁Frank	-2189
uire	-2190
▁Ad	-2191
ureau	-2192
▁fact	-2193
▁diffé	-2194
ual	-2195
ween	-2196
▁patient	-2197
▁film	-2198
▁rac	-2199
alf	-2200
▁chaque	-2201
▁penses	-2202
▁venu	-2203
ester	-2204
▁once	-2205
▁hours	-2206
▁esp	-2207
▁later	-2208
▁premier	-2209
▁exc	-2210
ives	-2211
▁rê	-2212
nent	-2213
ession	-2214
▁Som	-2215
▁}	-2216
▁bed	-2217
▁croire	-2218
▁danger	-2219
▁perm	-2220
rop	-2221
▁husband	-2222
▁suite	-2223
oid	-2224
▁revoir	-2225
▁ni	-2226
ides	-2227
▁préf	-2228
oup	-2229
oser	-2230
iff	-2231
▁ball	-2232
eth	-2233
omme	-2234
▁téléph	-2235
▁Te	-2236
uses	-2237
cted	-2238
enez	-2239
▁luck	-2240
▁daughter	-2241
▁ev	-2242
▁wonder	-2243
▁proc	-2244
▁batt	-2245
▁afraid	-2246
▁vieux	-2247
▁Écoute	-2248
eau	-2249
omm	-2250
▁waiting	-2251
ok	-2252
▁dos	-2253
rol	-2254
▁Fais	-2255
▁cool	-2256
ète	-2257
▁colle	-2258
▁droit	-2259
ru	-2260
▁devant	-2261
▁dirait	-2262
any	-2263
rant	-2264
▁Right	-2265
alement	-2266
▁celui	-2267
▁Gu	-2268
ush	-2269
▁laisse	-2270
ney	-2271
most	-2272
autres	-2273
▁étaient	-2274
▁Mc	-2275
unk	-2276
▁eux	-2277
fin	-2278
▁compte	-2279
ount	-2280
▁nouvelle	-2281
ître	-2282
dic	-2283
ission	-2284
▁message	-2285
▁follow	-2286
oyer	-2287
rie	-2288
▁Mad	-2289
▁Personne	-2290
aim	-2291
agine	-2292
▁yes	-2293
▁light	-2294
inner	-2295
▁eyes	-2296
▁five	-2297
▁Jim	-2298
▁book	-2299
▁mine	-2300
▁such	-2301
▁situ	-2302
▁party	-2303
▁voulait	-2304
ctive	-2305
▁cap	-2306
▁least	-2307
même	-2308
▁Dav	-2309
▁bag	-2310
ounds	-2311
▁stud	-2312
▁fig	-2313
mment	-2314
arrive	-2315
éra	-2316
▁shot	-2317
▁force	-2318
écur	-2319
▁étais	-2320
quipe	-2321
▁Mrs	-2322
▁Listen	-2323
▁idiot	-2324
others	-2325
▁papa	-2326
ael	-2327
▁boulot	-2328
utôt	-2329
▁reason	-2330
aimerais	-2331
▁prog	-2332
▁mourir	-2333
▁probably	-2334
▁against	-2335
enf	-2336
▁ain	-2337
▁Va	-2338
▁lead	-2339
veill	-2340
▁table	-2341
amour	-2342
▁cent	-2343
asser	-2344
▁maman	-2345
èg	-2346
▁stuff	-2347
▁bureau	-2348
ffe	-2349
▁Papa	-2350
▁Bar	-2351
▁Quelle	-2352
▁sold	-2353
éré	-2354
▁Per	-2355
▁means	-2356
▁parti	-2357
▁power	-2358
▁dispar	-2359
▁chambre	-2360
co	-2361
▁loin	-2362
▁allons	-2363
elles	-2364
reux	-2365
hors	-2366
iver	-2367
▁div	-2368
▁sour	-2369
orge	-2370
▁story	-2371
▁endroit	-2372
▁command	-2373
▁hit	-2374
▁jouer	-2375
▁hab	-2376
▁proch	-2377
ume	-2378
hip	-2379
espère	-2380
lo	-2381
idence	-2382
▁air	-2383
▁lib	-2384
▁donne	-2385
hab	-2386
▁sister	-2387
▁Mich	-2388
▁Maman	-2389
oie	-2390
▁Laisse	-2391
ités	-2392
▁Allons	-2393
▁commun	-2394
▁times	-2395
▁between	-2396
▁water	-2397
▁shoot	-2398
▁York	-2399
▁office	-2400
▁young	-2401
▁filles	-2402
▁truth	-2403
▁Ces	-2404
anna	-2405
▁able	-2406
▁desc	-2407
▁different	-2408
fort	-2409
ieurs	-2410
▁surv	-2411
▁présent	-2412
érif	-2413
▁cut	-2414
ls	-2415
▁...	-2416
▁side	-2417
,000	-2418
▁sing	-2419
▁fav	-2420
▁Ecoute	-2421
ited	-2422
▁makes	-2423
▁cul	-2424
resse	-2425
▁Monsieur	-2426
▁Puis	-2427
▁confiance	-2428
gie	-2429
oud	-2430
rée	-2431
ward	-2432
▁belle	-2433
▁coll	-2434
▁wish	-2435
aite	-2436
▁Ta	-2437
▁boss	-2438
vant	-2439
▁feu	-2440
▁war	-2441
itude	-2442
iously	-2443
▁vérité	-2444
go	-2445
▁making	-2446
▁dream	-2447
▁accident	-2448
▁sécur	-2449
▁married	-2450
▁regarde	-2451
▁cin	-2452
▁aucun	-2453
▁bat	-2454
▁Was	-2455
▁Does	-2456
occup	-2457
venu	-2458
side	-2459
▁*	-2460
▁piè	-2461
acher	-2462
▁viol	-2463
▁Mme	-2464
▁Jul	-2465
reet	-2466
▁arriver	-2467
ield	-2468
▁Bill	-2469
▁telling	-2470
▁trouble	-2471
ica	-2472
▁Pard	-2473
chez	-2474
▁game	-2475
▁semaine	-2476
▁service	-2477
gin	-2478
▁der	-2479
▁died	-2480
▁fout	-2481
▁années	-2482
▁Bra	-2483
ery	-2484
▁bit	-2485
▁font	-2486
▁femmes	-2487
▁occup	-2488
▁started	-2489
▁send	-2490
▁devez	-2491
▁meilleur	-2492
▁mad	-2493
▁ahead	-2494
ront	-2495
▁Col	-2496
▁Fl	-2497
outh	-2498
ters	-2499
▁number	-2500
▁pays	-2501
ges	-2502
▁12	-2503
▁tried	-2504
▁respect	-2505
▁situation	-2506
▁vivre	-2507
▁prends	-2508
und	-2509
user	-2510
▁Bob	-2511
▁months	-2512
▁imm	-2513
ste	-2514
ON	-2515
▁del	-2516
▁coin	-2517
▁aura	-2518
▁attention	-2519
ipp	-2520
▁set	-2521
▁answer	-2522
▁semble	-2523
▁veu	-2524
▁dessus	-2525
▁gets	-2526
▁merde	-2527
▁quit	-2528
▁clear	-2529
▁combien	-2530
venue	-2531
▁chois	-2532
▁huh	-2533
ossible	-2534
▁jeune	-2535
▁journée	-2536
importe	-2537
ana	-2538
▁enfant	-2539
▁leaving	-2540
urry	-2541
▁réal	-2542
▁bal	-2543
▁Our	-2544
▁touch	-2545
▁Ed	-2546
▁compris	-2547
atre	-2548
▁forget	-2549
▁manger	-2550
▁aucune	-2551
uri	-2552
ève	-2553
▁Même	-2554
▁almost	-2555
▁full	-2556
ox	-2557
ma	-2558
▁actually	-2559
▁ache	-2560
▁plutôt	-2561
té	-2562
▁sweet	-2563
etimes	-2564
vée	-2565
▁â	-2566
▁aw	-2567
▁team	-2568
uer	-2569
év	-2570
iquer	-2571
▁trust	-2572
▁contact	-2573
▁moy	-2574
▁Sup	-2575
▁changer	-2576
▁mariage	-2577
▁cha	-2578
▁près	-2579
▁looks	-2580
▁mod	-2581
lect	-2582
▁crime	-2583
▁Man	-2584
▁leg	-2585
ately	-2586
érieur	-2587
OU	-2588
gne	-2589
▁sois	-2590
▁speak	-2591
iving	-2592
▁certain	-2593
usement	-2594
▁town	-2595
▁chef	-2596
ator	-2597
▁appelé	-2598
▁news	-2599
▁Bonne	-2600
▁jeu	-2601
▁Toi	-2602
▁figure	-2603
▁favor	-2604
▁dehors	-2605
▁Mes	-2606
▁pou	-2607
▁doctor	-2608
▁exactly	-2609
▁girls	-2610
▁répond	-2611
▁mains	-2612
▁ru	-2613
rès	-2614
▁attack	-2615
▁buy	-2616
bs	-2617
été	-2618
ze	-2619
▁cir	-2620
ative	-2621
▁Cont	-2622
▁penser	-2623
▁Michael	-2624
eler	-2625
▁Bri	-2626
sel	-2627
ete	-2628
form	-2629
▁dollars	-2630
uel	-2631
▁attend	-2632
ov	-2633
▁bord	-2634
▁half	-2635
arth	-2636
▁00	-2637
▁comes	-2638
port	-2639
▁Dep	-2640
▁hate	-2641
cul	-2642
▁eng	-2643
▁free	-2644
anche	-2645
▁éch	-2646
IN	-2647
▁pensé	-2648
ific	-2649
▁histoire	-2650
▁mist	-2651
actement	-2652
rif	-2653
avait	-2654
▁Hel	-2655
▁souviens	-2656
▁prin	-2657
▁sécurité	-2658
▁téléphone	-2659
▁personnes	-2660
▁Juste	-2661
▁Après	-2662
▁stupid	-2663
▁temp	-2664
▁Sur	-2665
▁Amer	-2666
▁public	-2667
▁class	-2668
cell	-2669
ots	-2670
▁cours	-2671
▁dorm	-2672
▁win	-2673
iche	-2674
▁behind	-2675
▁These	-2676
ospital	-2677
▁pie	-2678
épare	-2679
▁dites	-2680
rendre	-2681
irm	-2682
off	-2683
né	-2684
yn	-2685
homme	-2686
▁press	-2687
▁invest	-2688
▁wear	-2689
iles	-2690
▁garçon	-2691
▁champ	-2692
▁Li	-2693
▁Great	-2694
▁désolée	-2695
▁bel	-2696
▁mach	-2697
▁Would	-2698
aide	-2699
▁record	-2700
▁tomber	-2701
▁alive	-2702
isse	-2703
▁ext	-2704
▁base	-2705
▁bull	-2706
▁dernier	-2707
igne	-2708
▁perfect	-2709
airs	-2710
▁learn	-2711
yez	-2712
▁interes	-2713
▁adm	-2714
▁dog	-2715
▁million	-2716
îner	-2717
AN	-2718
▁May	-2719
▁grande	-2720
▁psy	-2721
▁marche	-2722
▁promis	-2723
▁normal	-2724
▁lit	-2725
chn	-2726
▁fau	-2727
▁Her	-2728
▁easy	-2729
ES	-2730
▁radi	-2731
hô	-2732
▁needs	-2733
▁jet	-2734
▁Ann	-2735
ony	-2736
▁devoir	-2737
▁Gre	-2738
▁derrière	-2739
▁sn	-2740
▁form	-2741
▁Even	-2742
aces	-2743
▁sorte	-2744
▁Quelqu	-2745
▁laissé	-2746
▁After	-2747
▁doi	-2748
▁save	-2749
▁Ke	-2750
",	-2751
anny	-2752
▁soi	-2753
▁réf	-2754
▁Charlie	-2755
▁loc	-2756
▁guerre	-2757
alent	-2758
▁cell	-2759
ury	-2760
▁TH	-2761
▁avais	-2762
cé	-2763
bye	-2764
lin	-2765
vis	-2766
ault	-2767
unt	-2768
▁aren	-2769
atri	-2770
▁facile	-2771
urer	-2772
▁rég	-2773
▁méd	-2774
▁women	-2775
▁exper	-2776
oon	-2777
▁perd	-2778
▁Grand	-2779
▁clean	-2780
▁vir	-2781
▁sick	-2782
▁ress	-2783
▁Sa	-2784
▁ang	-2785
▁black	-2786
idd	-2787
▁dinner	-2788
aise	-2789
ball	-2790
▁brought	-2791
▁Super	-2792
▁plein	-2793
▁fête	-2794
▁pan	-2795
▁arrêt	-2796
▁garder	-2797
ones	-2798
oyé	-2799
▁biz	-2800
▁pied	-2801
▁couple	-2802
▁bout	-2803
EN	-2804
▁safe	-2805
▁vue	-2806
▁anim	-2807
ails	-2808
val	-2809
▁terre	-2810
▁morte	-2811
lement	-2812
arch	-2813
▁cré	-2814
▁Alex	-2815
▁pensez	-2816
irer	-2817
▁tot	-2818
▁#	-2819
▁Two	-2820
▁lives	-2821
▁fond	-2822
èmes	-2823
cu	-2824
▁Act	-2825
▁conna	-2826
agner	-2827
▁fix	-2828
▁aime	-2829
enant	-2830
▁country	-2831
lent	-2832
▁funny	-2833
▁goes	-2834
▁add	-2835
▁conse	-2836
▁recher	-2837
ode	-2838
urg	-2839
▁David	-2840
▁Mal	-2841
fer	-2842
▁ceux	-2843
rou	-2844
▁inside	-2845
suite	-2846
▁pot	-2847
▁children	-2848
▁yours	-2849
▁mission	-2850
bor	-2851
onner	-2852
▁regarder	-2853
ières	-2854
▁cost	-2855
▁propre	-2856
ray	-2857
▁Pardon	-2858
▁photo	-2859
▁travailler	-2860
▁build	-2861
amin	-2862
▁essayé	-2863
▁prie	-2864
▁serai	-2865
▁date	-2866
action	-2867
gue	-2868
▁Fait	-2869
▁past	-2870
▁50	-2871
▁affaires	-2872
▁val	-2873
▁hier	-2874
ison	-2875
▁ship	-2876
▁court	-2877
▁rentrer	-2878
▁ait	-2879
esse	-2880
▁club	-2881
▁asking	-2882
▁fat	-2883
▁tomb	-2884
▁hospital	-2885
ientôt	-2886
ows	-2887
▁voudrais	-2888
rends	-2889
ules	-2890
artment	-2891
▁caf	-2892
▁tir	-2893
cin	-2894
▁II	-2895
▁foot	-2896
▁Sans	-2897
▁lose	-2898
▁sit	-2899
▁Excusez	-2900
▁peine	-2901
▁Laissez	-2902
▁Mor	-2903
bo	-2904
▁impossible	-2905
ling	-2906
▁its	-2907
range	-2908
ky	-2909
▁inn	-2910
▁Fuck	-2911
▁protect	-2912
▁Con	-2913
▁opp	-2914
çu	-2915
▁red	-2916
▁line	-2917
▁Cela	-2918
▁él	-2919
tain	-2920
▁choix	-2921
,"	-2922
ror	-2923
▁bitch	-2924
▁affaire	-2925
▁surprise	-2926
teau	-2927
▁frapp	-2928
rap	-2929
▁Which	-2930
ili	-2931
alle	-2932
mpl	-2933
▁weird	-2934
▁souff	-2935
▁murder	-2936
▁Fin	-2937
▁presque	-2938
▁rapport	-2939
oe	-2940
▁route	-2941
ized	-2942
icile	-2943
▁order	-2944
ched	-2945
▁band	-2946
▁tort	-2947
▁ble	-2948
bien	-2949
▁rap	-2950
ari	-2951
▁By	-2952
▁psych	-2953
▁Gra	-2954
▁Regardez	-2955
▁numéro	-2956
▁Ray	-2957
cep	-2958
▁lieu	-2959
▁Sir	-2960
▁peuvent	-2961
▁protég	-2962
▁ve	-2963
enny	-2964
▁haut	-2965
▁sujet	-2966
▁cre	-2967
▁moyen	-2968
école	-2969
▁travers	-2970
ices	-2971
▁def	-2972
ior	-2973
▁less	-2974
▁control	-2975
▁accept	-2976
mé	-2977
▁connaiss	-2978
éress	-2979
aller	-2980
ises	-2981
room	-2982
rons	-2983
▁Merde	-2984
ha	-2985
▁Deux	-2986
▁Lou	-2987
▁Vas	-2988
▁Attendez	-2989
▁Ang	-2990
▁outside	-2991
▁envie	-2992
▁hair	-2993
▁termin	-2994
▁croyais	-2995
irth	-2996
▁aband	-2997
abord	-2998
▁suspect	-2999
▁terrible	-3000
▁jol	-3001
▁Mart	-3002
▁ident	-3003
▁commence	-3004
▁symp	-3005
▁George	-3006
▁étiez	-3007
rat	-3008
▁garde	-3009
▁promise	-3010
▁organ	-3011
▁100	-3012
vo	-3013
▁celle	-3014
eutenant	-3015
▁putain	-3016
rain	-3017
▁lég	-3018
▁Mike	-3019
▁human	-3020
▁himself	-3021
▁wind	-3022
oor	-3023
quiè	-3024
▁chérie	-3025
▁sauver	-3026
▁fant	-3027
vin	-3028
▁Nice	-3029
ira	-3030
▁shouldn	-3031
key	-3032
AT	-3033
équ	-3034
▁Rich	-3035
▁serais	-3036
▁fore	-3037
appe	-3038
BI	-3039
▁Wal	-3040
▁Joe	-3041
cient	-3042
▁serious	-3043
▁rendre	-3044
of	-3045
▁join	-3046
ouss	-3047
▁Hen	-3048
ague	-3049
▁i	-3050
▁pouvais	-3051
"?	-3052
▁sell	-3053
▁hour	-3054
▁report	-3055
▁bud	-3056
▁hang	-3057
tel	-3058
arly	-3059
▁Notre	-3060
IS	-3061
erai	-3062
▁land	-3063
▁Co	-3064
▁fera	-3065
▁Dites	-3066
▁charge	-3067
▁faisait	-3068
▁rece	-3069
ief	-3070
▁faute	-3071
iam	-3072
▁strong	-3073
▁Combien	-3074
▁devons	-3075
▁Gl	-3076
▁appro	-3077
let	-3078
ération	-3079
▁empl	-3080
▁travaille	-3081
abil	-3082
oles	-3083
prit	-3084
▁somebody	-3085
▁plaisir	-3086
▁preu	-3087
tern	-3088
▁Voici	-3089
▁autant	-3090
▁obs	-3091
▁bizarre	-3092
mi	-3093
▁relations	-3094
▁city	-3095
▁food	-3096
yl	-3097
ks	-3098
dge	-3099
▁become	-3100
▁scared	-3101
▁others	-3102
▁Auc	-3103
▁Elles	-3104
▁bill	-3105
▁wanna	-3106
ablement	-3107
▁ant	-3108
▁card	-3109
▁Isn	-3110
▁drug	-3111
▁pire	-3112
iant	-3113
▁fon	-3114
▁mons	-3115
yle	-3116
▁information	-3117
itting	-3118
aven	-3119
rib	-3120
▁ban	-3121
▁lock	-3122
inst	-3123
▁amie	-3124
▁rob	-3125
▁either	-3126
âche	-3127
▁spé	-3128
léch	-3129
▁conne	-3130
▁Ent	-3131
▁dél	-3132
▁veulent	-3133
ences	-3134
▁allait	-3135
▁Tous	-3136
▁méde	-3137
▁18	-3138
▁techn	-3139
▁Nobody	-3140
▁running	-3141
ales	-3142
iennent	-3143
▁trait	-3144
euf	-3145
▁Shut	-3146
▁Dou	-3147
▁Tra	-3148
▁tas	-3149
istes	-3150
▁sembl	-3151
▁problèmes	-3152
▁cry	-3153
ced	-3154
used	-3155
▁pois	-3156
▁heureux	-3157
▁Damn	-3158
▁bientôt	-3159
▁lim	-3160
▁arrêter	-3161
▁Max	-3162
▁soci	-3163
çons	-3164
▁coeur	-3165
ignore	-3166
▁quelle	-3167
▁voulu	-3168
agin	-3169
ished	-3170
▁innoc	-3171
▁top	-3172
ables	-3173
▁kidding	-3174
tant	-3175
ième	-3176
▁birth	-3177
▁taken	-3178
▁sil	-3179
▁special	-3180
▁Actually	-3181
AR	-3182
▁Peter	-3183
llig	-3184
▁Tou	-3185
▁sound	-3186
▁Everything	-3187
pes	-3188
▁Jam	-3189
adore	-3190
▁perdre	-3191
ât	-3192
▁ferai	-3193
▁voyez	-3194
▁vérif	-3195
▁Shit	-3196
▁happens	-3197
nement	-3198
▁polit	-3199
▁throw	-3200
▁Paul	-3201
yer	-3202
auche	-3203
▁montrer	-3204
ifique	-3205
▁grave	-3206
rog	-3207
▁payer	-3208
▁FBI	-3209
▁Call	-3210
▁trucs	-3211
▁worth	-3212
igneur	-3213
▁vit	-3214
outer	-3215
▁fast	-3216
▁loved	-3217
▁chemin	-3218
▁nature	-3219
▁cinq	-3220
▁explain	-3221
▁position	-3222
▁company	-3223
▁feeling	-3224
▁Cor	-3225
chant	-3226
▁living	-3227
▁vide	-3228
▁gagn	-3229
▁Faites	-3230
▁différent	-3231
▁Sar	-3232
▁emm	-3233
érieux	-3234
▁weeks	-3235
▁victim	-3236
▁box	-3237
ided	-3238
▁essayer	-3239
▁gentle	-3240
▁comprendre	-3241
▁pard	-3242
pped	-3243
▁sugg	-3244
ka	-3245
amb	-3246
▁calme	-3247
inte	-3248
▁destroy	-3249
▁offic	-3250
gy	-3251
▁drôle	-3252
ause	-3253
▁parles	-3254
▁Sm	-3255
urity	-3256
▁quatre	-3257
▁meeting	-3258
▁dég	-3259
▁Ind	-3260
illage	-3261
ists	-3262
▁cherche	-3263
▁cab	-3264
▁commencé	-3265
▁thé	-3266
▁nouvelles	-3267
inter	-3268
▁Lu	-3269
▁importe	-3270
éral	-3271
▁fre	-3272
ple	-3273
▁known	-3274
ican	-3275
▁retard	-3276
▁glad	-3277
▁courant	-3278
▁Pres	-3279
▁capt	-3280
▁arm	-3281
▁hy	-3282
▁erre	-3283
ffee	-3284
onnes	-3285
acle	-3286
▁puiss	-3287
▁chien	-3288
▁From	-3289
▁grou	-3290
▁Maj	-3291
oci	-3292
▁Bro	-3293
▁11	-3294
▁tre	-3295
▁shut	-3296
▁priv	-3297
▁elles	-3298
▁future	-3299
ational	-3300
blig	-3301
▁treat	-3302
▁aide	-3303
▁..	-3304
▁Nick	-3305
▁oublié	-3306
▁Ry	-3307
▁attendre	-3308
▁lar	-3309
▁agent	-3310
▁forgot	-3311
raient	-3312
oh	-3313
▁café	-3314
▁appris	-3315
▁return	-3316
▁difficile	-3317
orme	-3318
▁respons	-3319
▁exactement	-3320
▁weren	-3321
antes	-3322
elt	-3323
▁bi	-3324
▁Parf	-3325
▁honey	-3326
olly	-3327
▁doute	-3328
▁allé	-3329
▁honn	-3330
▁choice	-3331
▁ok	-3332
▁pun	-3333
▁mét	-3334
▁mir	-3335
▁retrouver	-3336
▁fai	-3337
hist	-3338
ires	-3339
▁music	-3340
▁magn	-3341
▁poin	-3342
▁Depuis	-3343
▁mér	-3344
▁écrit	-3345
▁meilleure	-3346
▁nu	-3347
▁fo	-3348
iqué	-3349
▁tent	-3350
▁Could	-3351
vern	-3352
quiète	-3353
▁Mont	-3354
▁cœur	-3355
▁sense	-3356
oun	-3357
▁lady	-3358
selves	-3359
éric	-3360
▁prochaine	-3361
▁whatever	-3362
▁state	-3363
▁syste	-3364
▁début	-3365
▁tôt	-3366
▁ferais	-3367
andy	-3368
▁appe	-3369
ettez	-3370
▁ainsi	-3371
▁verre	-3372
ically	-3373
▁fault	-3374
edding	-3375
onel	-3376
▁Looks	-3377
▁détr	-3378
▁écoute	-3379
▁meurtre	-3380
▁000	-3381
ept	-3382
rois	-3383
▁fell	-3384
▁semaines	-3385
par	-3386
▁jud	-3387
▁Ici	-3388
▁small	-3389
▁expect	-3390
▁pai	-3391
▁salle	-3392
▁changed	-3393
ities	-3394
▁spend	-3395
▁playing	-3396
oubl	-3397
▁cru	-3398
arrêter	-3399
▁règ	-3400
▁convers	-3401
cks	-3402
▁Tiens	-3403
lu	-3404
épar	-3405
▁key	-3406
▁Matt	-3407
▁millions	-3408
▁pren	-3409
▁entrer	-3410
▁bras	-3411
▁quick	-3412
veille	-3413
▁plait	-3414
ena	-3415
▁visage	-3416
▁damn	-3417
▁ridic	-3418
RE	-3419
erv	-3420
tres	-3421
▁catch	-3422
▁commencer	-3423
▁bomb	-3424
env	-3425
éch	-3426
▁Stay	-3427
▁ones	-3428
▁worked	-3429
▁cuis	-3430
▁Wow	-3431
▁stopp	-3432
▁prév	-3433
ino	-3434
▁chant	-3435
▁rendez	-3436
▁changé	-3437
▁gagner	-3438
osh	-3439
itions	-3440
▁succ	-3441
▁Captain	-3442
▁tran	-3443
▁drive	-3444
▁liv	-3445
▁hors	-3446
Je	-3447
▁dîner	-3448
▁eye	-3449
▁revenir	-3450
▁gentil	-3451
▁bott	-3452
▁lie	-3453
attend	-3454
▁restau	-3455
oose	-3456
oph	-3457
ged	-3458
▁Min	-3459
▁Henry	-3460
▁program	-3461
▁bois	-3462
▁seconde	-3463
ieu	-3464
▁docteur	-3465
▁Say	-3466
ki	-3467
otte	-3468
▁livre	-3469
▁photos	-3470
▁machine	-3471
ouvrir	-3472
za	-3473
ama	-3474
▁Là	-3475
▁200	-3476
▁gri	-3477
▁Venez	-3478
eral	-3479
essay	-3480
solute	-3481
▁movie	-3482
▁X	-3483
▁pop	-3484
▁réun	-3485
iven	-3486
▁pouvait	-3487
▁allow	-3488
erry	-3489
▁mention	-3490
▁worried	-3491
veux	-3492
▁soirée	-3493
▁med	-3494
uits	-3495
▁puisse	-3496
▁tw	-3497
▁marché	-3498
▁journal	-3499
ency	-3500
ressed	-3501
▁vend	-3502
▁James	-3503
▁wall	-3504
▁seems	-3505
▁station	-3506
▁récup	-3507
▁devenir	-3508
esterday	-3509
▁soul	-3510
▁malade	-3511
▁rempl	-3512
où	-3513
▁Carl	-3514
ël	-3515
▁Lau	-3516
▁Keep	-3517
▁sme	-3518
▁song	-3519
bil	-3520
▁Phil	-3521
▁Encore	-3522
▁Donne	-3523
ral	-3524
▁continue	-3525
aint	-3526
▁Luc	-3527
▁Lord	-3528
mon	-3529
▁pil	-3530
ugh	-3531
▁complet	-3532
▁stri	-3533
ift	-3534
expl	-3535
▁pull	-3536
▁pièce	-3537
▁visit	-3538
▁étud	-3539
▁post	-3540
ss	-3541
▁match	-3542
▁longer	-3543
▁manque	-3544
▁arrête	-3545
▁calling	-3546
▁esc	-3547
▁rej	-3548
▁offer	-3549
ocat	-3550
▁ran	-3551
▁rencontrer	-3552
▁Mary	-3553
▁dieu	-3554
▁suffit	-3555
het	-3556
▁wel	-3557
▁nour	-3558
▁envoyé	-3559
emb	-3560
▁Something	-3561
▁memb	-3562
▁finir	-3563
▁lum	-3564
après	-3565
▁morts	-3566
▁ira	-3567
▁racont	-3568
▁missing	-3569
rup	-3570
▁capit	-3571
▁reconn	-3572
▁Désolée	-3573
ross	-3574
▁radio	-3575
icture	-3576
▁finally	-3577
▁thinks	-3578
▁Sure	-3579
▁takes	-3580
▁équipe	-3581
▁prod	-3582
onse	-3583
▁dress	-3584
▁Someone	-3585
atique	-3586
▁vaut	-3587
ètement	-3588
▁réfléch	-3589
▁cade	-3590
asure	-3591
▁tar	-3592
usion	-3593
avons	-3594
▁Jane	-3595
▁devait	-3596
inger	-3597
▁chat	-3598
▁ill	-3599
▁piece	-3600
▁worse	-3601
▁syst	-3602
▁though	-3603
▁25	-3604
▁amb	-3605
▁coffee	-3606
▁ramen	-3607
▁gâ	-3608
▁fous	-3609
▁Danny	-3610
▁boire	-3611
▁surpris	-3612
▁intellig	-3613
abri	-3614
▁investig	-3615
assé	-3616
des	-3617
▁seem	-3618
▁série	-3619
onnez	-3620
icide	-3621
▁carte	-3622
▁wedding	-3623
▁protéger	-3624
▁euh	-3625
raight	-3626
▁weap	-3627
▁noir	-3628
▁picture	-3629
itive	-3630
▁ressemble	-3631
▁Cert	-3632
ancer	-3633
rés	-3634
▁horrible	-3635
▁ferme	-3636
raph	-3637
inon	-3638
▁retourner	-3639
▁Euh	-3640
▁list	-3641
▁mistake	-3642
▁dormir	-3643
▁destin	-3644
intérieur	-3645
▁rom	-3646
▁dossi	-3647
▁groupe	-3648
▁everybody	-3649
▁Very	-3650
▁breat	-3651
âce	-3652
▁cat	-3653
▁divor	-3654
▁pur	-3655
ateau	-3656
▁deb	-3657
▁dance	-3658
▁constr	-3659
asion	-3660
▁arme	-3661
▁génial	-3662
icul	-3663
▁40	-3664
▁dark	-3665
▁Ell	-3666
▁giving	-3667
▁write	-3668
otion	-3669
asses	-3670
hor	-3671
▁circ	-3672
▁words	-3673
▁Prends	-3674
▁Robert	-3675
▁felt	-3676
▁Enfin	-3677
ige	-3678
▁somewhere	-3679
rions	-3680
▁cold	-3681
▁em	-3682
usé	-3683
▁cous	-3684
▁ruin	-3685
▁Paris	-3686
seau	-3687
friend	-3688
▁along	-3689
ked	-3690
▁Ev	-3691
▁hop	-3692
▁honor	-3693
▁remar	-3694
?"	-3695
rets	-3696
▁rat	-3697
onné	-3698
histoire	-3699
▁First	-3700
▁intéress	-3701
▁suit	-3702
solutely	-3703
▁works	-3704
▁fi	-3705
....	-3706
abl	-3707
▁tick	-3708
▁venue	-3709
cy	-3710
▁white	-3711
▁Ant	-3712
com	-3713
mas	-3714
oes	-3715
▁watching	-3716
oyez	-3717
▁sat	-3718
OR	-3719
ired	-3720
▁lors	-3721
▁Sarah	-3722
isme	-3723
▁tiens	-3724
bes	-3725
▁excuse	-3726
▁requ	-3727
hôpital	-3728
▁gouver	-3729
The	-3730
▁rêve	-3731
▁anyway	-3732
▁partout	-3733
▁code	-3734
ception	-3735
▁system	-3736
▁parfait	-3737
▁welcome	-3738
▁People	-3739
▁tirer	-3740
▁regret	-3741
acy	-3742
▁Jes	-3743
▁Avez	-3744
▁short	-3745
▁Fer	-3746
▁Sch	-3747
▁oblig	-3748
iddle	-3749
▁Jimmy	-3750
▁looked	-3751
▁rue	-3752
▁enfin	-3753
nel	-3754
▁creat	-3755
▁fonction	-3756
lfriend	-3757
▁souvent	-3758
▁vac	-3759
▁talked	-3760
oux	-3761
▁Putain	-3762
▁Su	-3763
tenir	-3764
▁Pol	-3765
▁fle	-3766
▁capable	-3767
iendra	-3768
rier	-3769
▁gay	-3770
ium	-3771
▁Help	-3772
▁lang	-3773
▁THE	-3774
ax	-3775
▁Mlle	-3776
▁crimin	-3777
▁préc	-3778
▁Hol	-3779
▁bath	-3780
▁concern	-3781
erie	-3782
▁signal	-3783
akes	-3784
▁hur	-3785
hum	-3786
▁Tony	-3787
▁anc	-3788
▁repr	-3789
ita	-3790
▁adv	-3791
▁décl	-3792
▁TV	-3793
▁appeler	-3794
ker	-3795
▁meant	-3796
rom	-3797
assin	-3798
af	-3799
▁16	-3800
▁prix	-3801
▁reçu	-3802
quel	-3803
▁liste	-3804
▁lying	-3805
élic	-3806
ect	-3807
emm	-3808
▁kiss	-3809
▁rentre	-3810
▁ring	-3811
allais	-3812
▁oper	-3813
▁Agent	-3814
pir	-3815
▁Em	-3816
osé	-3817
auvre	-3818
▁poss	-3819
inquiète	-3820
▁beat	-3821
arling	-3822
▁Emm	-3823
▁mas	-3824
▁prépare	-3825
▁souvenir	-3826
▁San	-3827
aly	-3828
reg	-3829
▁civ	-3830
▁joue	-3831
▁rather	-3832
atur	-3833
▁direct	-3834
▁responsi	-3835
▁sûrement	-3836
▁Jesus	-3837
ingue	-3838
▁cens	-3839
etting	-3840
▁invol	-3841
▁argent	-3842
▁wit	-3843
▁Ol	-3844
ript	-3845
▁boys	-3846
▁marcher	-3847
▁smell	-3848
tures	-3849
▁King	-3850
▁milit	-3851
artement	-3852
▁Sec	-3853
aps	-3854
▁14	-3855
wood	-3856
iting	-3857
▁impl	-3858
joy	-3859
▁Mars	-3860
▁Madame	-3861
▁Goodbye	-3862
▁porter	-3863
▁voyage	-3864
▁brû	-3865
ication	-3866
▁evening	-3867
▁conversation	-3868
▁paper	-3869
▁turned	-3870
avant	-3871
▁Sim	-3872
hy	-3873
br	-3874
▁devriez	-3875
▁abs	-3876
▁fly	-3877
▁erreur	-3878
agit	-3879
▁tax	-3880
▁Hold	-3881
▁feet	-3882
▁Hurry	-3883
▁petits	-3884
▁support	-3885
▁killer	-3886
cellent	-3887
▁Make	-3888
▁Everybody	-3889
▁amour	-3890
▁Attends	-3891
▁diffic	-3892
▁nav	-3893
▁amou	-3894
ordin	-3895
jeun	-3896
▁cook	-3897
▁offici	-3898
inn	-3899
▁cach	-3900
▁souh	-3901
▁Quelque	-3902
essus	-3903
▁straight	-3904
▁cheveux	-3905
▁ém	-3906
▁Mm	-3907
▁ceci	-3908
utile	-3909
▁faux	-3910
stairs	-3911
▁Mark	-3912
▁lucky	-3913
▁Arrêtez	-3914
▁kick	-3915
▁sérieux	-3916
▁relationship	-3917
▁Bo	-3918
ument	-3919
▁pouvons	-3920
icle	-3921
▁Spe	-3922
alth	-3923
▁Gard	-3924
▁burn	-3925
▁mang	-3926
aqu	-3927
▁?"	-3928
▁Acc	-3929
▁croyez	-3930
▁quitt	-3931
▁profession	-3932
ades	-3933
▁dear	-3934
uge	-3935
▁instant	-3936
ded	-3937
▁Sau	-3938
▁ég	-3939
▁content	-3940
cée	-3941
▁decided	-3942
▁Um	-3943
▁file	-3944
▁hé	-3945
reen	-3946
▁cél	-3947
▁décou	-3948
▁appare	-3949
▁Del	-3950
▁contrôle	-3951
eds	-3952
▁battre	-3953
appeler	-3954
aking	-3955
▁det	-3956
▁bast	-3957
oires	-3958
▁govern	-3959
▁princi	-3960
▁sad	-3961
▁apolog	-3962
▁simplement	-3963
read	-3964
unes	-3965
▁Only	-3966
▁double	-3967
rire	-3968
▁diri	-3969
▁ensuite	-3970
▁yesterday	-3971
ald	-3972
ifie	-3973
▁déteste	-3974
agé	-3975
eng	-3976
▁cur	-3977
iversaire	-3978
zz	-3979
▁ram	-3980
▁Cr	-3981
olf	-3982
▁personal	-3983
▁needed	-3984
▁scène	-3985
0.	-3986
▁Sant	-3987
▁seeing	-3988
▁toil	-3989
▁anybody	-3990
▁rappelle	-3991
▁honest	-3992
▁moving	-3993
▁dange	-3994
▁broke	-3995
not	-3996
▁sale	-3997
ries	-3998
▁Those	-3999
▁tranqu	-4000
▁quite	-4001
▁reviens	-4002
ogn	-4003
oque	-4004
oop	-4005
▁evidence	-4006
lev	-4007
▁terror	-4008
▁voix	-4009
▁begin	-4010
royable	-4011
▁girlfriend	-4012
▁extra	-4013
▁poi	-4014
▁Seigneur	-4015
▁décidé	-4016
mbe	-4017
ham	-4018
▁agree	-4019
▁cover	-4020
êche	-4021
▁um	-4022
▁Daniel	-4023
▁réussi	-4024
▁17	-4025
usse	-4026
▁innocent	-4027
▁security	-4028
▁bais	-4029
▁seront	-4030
osing	-4031
▁blow	-4032
▁Cel	-4033
▁neigh	-4034
ills	-4035
isation	-4036
▁sometimes	-4037
▁Peu	-4038
▁Noël	-4039
▁Ha	-4040
▁mass	-4041
▁building	-4042
▁corre	-4043
▁threat	-4044
▁born	-4045
acer	-4046
orrow	-4047
▁arrêté	-4048
▁capitaine	-4049
bb	-4050
azing	-4051
▁road	-4052
▁risque	-4053
▁thanks	-4054
▁Richard	-4055
▁restaurant	-4056
▁montre	-4057
▁disparu	-4058
dered	-4059
▁fasse	-4060
▁mauvaise	-4061
iron	-4062
▁tém	-4063
▁seras	-4064
vi	-4065
▁rencontré	-4066
▁Lieutenant	-4067
▁autour	-4068
▁accord	-4069
dans	-4070
▁village	-4071
cement	-4072
▁connaissez	-4073
éf	-4074
ased	-4075
▁dès	-4076
ortun	-4077
▁Avant	-4078
▁sout	-4079
▁24	-4080
▁West	-4081
▁atte	-4082
IT	-4083
▁notice	-4084
▁quitter	-4085
▁soeur	-4086
▁Father	-4087
AS	-4088
essaie	-4089
▁Three	-4090
▁ner	-4091
▁track	-4092
ket	-4093
irez	-4094
▁Mac	-4095
▁log	-4096
dition	-4097
ograph	-4098
▁venez	-4099
▁complètement	-4100
▁boyfriend	-4101
▁musique	-4102
▁mens	-4103
▁mouth	-4104
rang	-4105
▁Ryan	-4106
iction	-4107
▁swear	-4108
▁Mag	-4109
▁street	-4110
▁sentir	-4111
▁Big	-4112
▁mett	-4113
▁smart	-4114
▁ferait	-4115
▁spécial	-4116
ifs	-4117
▁colère	-4118
isc	-4119
▁DE	-4120
▁système	-4121
▁belong	-4122
▁savait	-4123
▁sun	-4124
rey	-4125
ured	-4126
▁assist	-4127
▁justice	-4128
▁choc	-4129
▁marry	-4130
▁Angel	-4131
▁libre	-4132
▁tired	-4133
osse	-4134
▁Never	-4135
itz	-4136
▁rapide	-4137
affaire	-4138
irt	-4139
▁maj	-4140
▁dangerous	-4141
▁Whatever	-4142
▁birthday	-4143
prise	-4144
▁exist	-4145
▁mots	-4146
▁retrouv	-4147
▁cart	-4148
mar	-4149
▁faud	-4150
▁disappe	-4151
▁bank	-4152
▁finish	-4153
AL	-4154
lever	-4155
con	-4156
▁cerve	-4157
▁Jake	-4158
▁kept	-4159
place	-4160
▁trip	-4161
▁devais	-4162
▁dom	-4163
▁sœur	-4164
erne	-4165
▁ligne	-4166
▁plans	-4167
équipe	-4168
▁laugh	-4169
▁victime	-4170
▁Ty	-4171
▁Since	-4172
ety	-4173
▁Lis	-4174
▁Scott	-4175
▁Ess	-4176
▁scene	-4177
▁imagine	-4178
▁Christmas	-4179
uy	-4180
ué	-4181
▁bur	-4182
impression	-4183
▁calm	-4184
▁Kim	-4185
▁Red	-4186
▁entire	-4187
▁paix	-4188
▁stupide	-4189
▁king	-4190
▁disent	-4191
▁Sl	-4192
▁step	-4193
oindre	-4194
▁lawyer	-4195
▁surviv	-4196
▁produ	-4197
êcher	-4198
viously	-4199
ctions	-4200
arry	-4201
▁Steve	-4202
▁Pri	-4203
▁busy	-4204
▁Av	-4205
aurait	-4206
▁lu	-4207
▁bought	-4208
▁continuer	-4209
▁stick	-4210
ût	-4211
▁aimer	-4212
▁nombre	-4213
gner	-4214
▁tue	-4215
▁middle	-4216
owers	-4217
▁Jess	-4218
▁Faut	-4219
▁parfois	-4220
▁chans	-4221
▁possi	-4222
▁Sil	-4223
▁juge	-4224
▁Exact	-4225
▁More	-4226
▁group	-4227
▁Ret	-4228
▁patron	-4229
▁pourra	-4230
▁roi	-4231
roche	-4232
▁probablement	-4233
othes	-4234
view	-4235
▁present	-4236
ully	-4237
aged	-4238
uré	-4239
inf	-4240
▁pic	-4241
▁Op	-4242
▁wearing	-4243
aurai	-4244
▁sole	-4245
idi	-4246
▁hey	-4247
▁13	-4248
▁médecin	-4249
▁kidn	-4250
▁buddy	-4251
▁hide	-4252
▁Ted	-4253
▁particul	-4254
▁dix	-4255
▁nég	-4256
▁near	-4257
▁clients	-4258
idée	-4259
▁Lond	-4260
▁Jeff	-4261
▁Harry	-4262
▁sacrif	-4263
achel	-4264
ration	-4265
▁combat	-4266
èce	-4267
work	-4268
ico	-4269
▁Leave	-4270
▁Ro	-4271
▁rock	-4272
ism	-4273
ands	-4274
onsoir	-4275
▁disais	-4276
▁Anyway	-4277
▁store	-4278
jeuner	-4279
▁William	-4280
▁pi	-4281
ège	-4282
▁gang	-4283
cially	-4284
▁interested	-4285
iments	-4286
▁paid	-4287
▁steal	-4288
▁blanc	-4289
▁entendre	-4290
iding	-4291
▁opt	-4292
▁early	-4293
▁bateau	-4294
▁balle	-4295
▁Cam	-4296
aches	-4297
▁Sometimes	-4298
▁mê	-4299
▁parlez	-4300
ilt	-4301
▁Engl	-4302
▁voici	-4303
▁Prof	-4304
▁cig	-4305
▁moit	-4306
▁dedans	-4307
quête	-4308
ster	-4309
hole	-4310
▁pal	-4311
▁prête	-4312
▁pen	-4313
▁clair	-4314
erson	-4315
▁mets	-4316
▁poor	-4317
▁appre	-4318
raî	-4319
▁tur	-4320
▁doub	-4321
▁quart	-4322
▁chaud	-4323
▁Boy	-4324
▁Adam	-4325
▁Rep	-4326
athan	-4327
▁volé	-4328
▁Ie	-4329
▁careful	-4330
quelle	-4331
▁imagin	-4332
▁ouv	-4333
entends	-4334
▁suggest	-4335
▁deep	-4336
▁pote	-4337
▁Comm	-4338
▁saved	-4339
▁année	-4340
▁peace	-4341
▁Hon	-4342
▁spir	-4343
▁floor	-4344
ano	-4345
▁Tod	-4346
istre	-4347
▁cadeau	-4348
gr	-4349
▁pack	-4350
▁drunk	-4351
▁réponse	-4352
▁Sy	-4353
▁brain	-4354
▁plann	-4355
solument	-4356
▁squ	-4357
▁suivre	-4358
▁Cet	-4359
▁exam	-4360
▁er	-4361
itation	-4362
▁aviez	-4363
▁ur	-4364
▁voice	-4365
ump	-4366
lon	-4367
▁effet	-4368
▁cherch	-4369
▁Wel	-4370
▁chau	-4371
ify	-4372
▁given	-4373
▁sorti	-4374
appy	-4375
ateurs	-4376
▁Carol	-4377
▁caught	-4378
▁spect	-4379
▁chick	-4380
▁grow	-4381
▁compagn	-4382
itié	-4383
▁jump	-4384
▁tenir	-4385
▁Kat	-4386
▁vraie	-4387
hood	-4388
▁Seu	-4389
▁Und	-4390
venez	-4391
éter	-4392
▁moitié	-4393
▁avaient	-4394
▁Ag	-4395
▁ride	-4396
cre	-4397
▁Sun	-4398
▁Cong	-4399
▁Franc	-4400
pecteur	-4401
lly	-4402
▁hung	-4403
▁qual	-4404
▁proud	-4405
resp	-4406
▁doivent	-4407
▁poser	-4408
érêt	-4409
▁Ger	-4410
▁aurais	-4411
ension	-4412
indre	-4413
▁vidé	-4414
▁forme	-4415
▁enn	-4416
▁hasn	-4417
▁rév	-4418
▁disait	-4419
▁devenu	-4420
▁angry	-4421
▁surveill	-4422
▁Fred	-4423
▁Part	-4424
▁refuse	-4425
▁sand	-4426
▁gauche	-4427
▁pret	-4428
▁état	-4429
▁vouloir	-4430
▁apartment	-4431
▁0	-4432
▁connaît	-4433
▁Remember	-4434
▁About	-4435
▁board	-4436
▁gentlemen	-4437
cte	-4438
▁vent	-4439
mis	-4440
▁stopped	-4441
▁Écoutez	-4442
▁Appare	-4443
▁missed	-4444
ering	-4445
▁Ros	-4446
pecially	-4447
▁jure	-4448
▁completely	-4449
▁relation	-4450
urch	-4451
esseur	-4452
▁employ	-4453
▁intern	-4454
▁Ram	-4455
▁appelle	-4456
▁secrets	-4457
▁heureuse	-4458
▁problems	-4459
ata	-4460
▁bother	-4461
habitude	-4462
▁mou	-4463
▁cops	-4464
ape	-4465
▁dise	-4466
▁pouss	-4467
▁Sus	-4468
▁clothes	-4469
▁lire	-4470
▁spent	-4471
uir	-4472
▁amazing	-4473
▁discuss	-4474
dessus	-4475
▁Mel	-4476
▁self	-4477
eff	-4478
▁Vict	-4479
▁arrest	-4480
anch	-4481
▁screw	-4482
▁plusieurs	-4483
exc	-4484
bres	-4485
ortez	-4486
▁gagné	-4487
▁plane	-4488
overed	-4489
oyons	-4490
▁during	-4491
uts	-4492
▁Beau	-4493
▁faim	-4494
igner	-4495
▁har	-4496
▁Gén	-4497
▁fool	-4498
▁American	-4499
▁Amy	-4500
▁néc	-4501
▁laissez	-4502
▁teach	-4503
▁difficult	-4504
arriver	-4505
▁witness	-4506
aj	-4507
cent	-4508
▁Rom	-4509
▁Johnny	-4510
▁pract	-4511
▁pieds	-4512
▁convain	-4513
Un	-4514
▁armes	-4515
▁accep	-4516
▁meurt	-4517
"...	-4518
..."	-4519
écu	-4520
▁Off	-4521
riage	-4522
▁madame	-4523
▁Bonsoir	-4524
▁neuf	-4525
▁darling	-4526
▁recherche	-4527
▁cong	-4528
▁bât	-4529
tte	-4530
▁Command	-4531
▁Thom	-4532
tout	-4533
▁tit	-4534
▁using	-4535
▁susp	-4536
▁War	-4537
▁fum	-4538
ignor	-4539
arrête	-4540
▁Black	-4541
▁recomm	-4542
cier	-4543
▁till	-4544
amed	-4545
reed	-4546
▁fri	-4547
▁sexy	-4548
▁président	-4549
▁signifie	-4550
▁Didn	-4551
ories	-4552
▁ouais	-4553
▁tourn	-4554
met	-4555
exp	-4556
▁hall	-4557
tit	-4558
▁Ia	-4559
aign	-4560
▁sortie	-4561
▁occ	-4562
▁calls	-4563
occuper	-4564
cess	-4565
▁anywhere	-4566
▁Kn	-4567
inal	-4568
arer	-4569
▁grâce	-4570
ius	-4571
îte	-4572
▁préfère	-4573
▁age	-4574
▁Try	-4575
▁aimé	-4576
▁représ	-4577
▁forever	-4578
▁kidnapp	-4579
▁activ	-4580
▁avocat	-4581
▁lumière	-4582
▁cit	-4583
▁sport	-4584
▁Lee	-4585
▁Stan	-4586
▁bour	-4587
▁cheval	-4588
▁ly	-4589
▁vivant	-4590
▁Bou	-4591
▁cust	-4592
▁Mex	-4593
▁Van	-4594
▁City	-4595
▁tueur	-4596
▁manière	-4597
▁Celui	-4598
▁Honey	-4599
édi	-4600
▁Cle	-4601
▁tiré	-4602
han	-4603
ancy	-4604
▁van	-4605
▁Conn	-4606
esses	-4607
▁trib	-4608
▁Hmm	-4609
▁Turn	-4610
▁Tim	-4611
ené	-4612
▁sors	-4613
▁appreci	-4614
imagine	-4615
▁solution	-4616
▁Rick	-4617
▁President	-4618
enne	-4619
▁connaître	-4620
▁lab	-4621
▁chéri	-4622
▁wake	-4623
▁ordin	-4624
▁Majest	-4625
ias	-4626
illé	-4627
▁général	-4628
▁autor	-4629
▁Jan	-4630
▁Welcome	-4631
▁condition	-4632
▁avis	-4633
▁courage	-4634
▁enjoy	-4635
▁realize	-4636
acé	-4637
▁Capit	-4638
▁Anything	-4639
▁cross	-4640
▁hotel	-4641
▁local	-4642
▁doig	-4643
▁sounds	-4644
èle	-4645
▁charm	-4646
▁flics	-4647
▁recogn	-4648
▁visite	-4649
▁truck	-4650
▁tranquille	-4651
▁Prés	-4652
▁gold	-4653
▁rouge	-4654
▁utiliser	-4655
gar	-4656
▁bonnes	-4657
▁lou	-4658
set	-4659
cie	-4660
raper	-4661
sc	-4662
▁share	-4663
line	-4664
▁dig	-4665
▁orig	-4666
▁serez	-4667
▁demi	-4668
IA	-4669
uie	-4670
▁loves	-4671
▁president	-4672
▁loi	-4673
▁Prob	-4674
▁fatig	-4675
▁lunch	-4676
▁quiet	-4677
▁thous	-4678
gas	-4679
▁Fe	-4680
arme	-4681
▁classe	-4682
▁Ap	-4683
▁vamp	-4684
▁Billy	-4685
▁nécess	-4686
▁government	-4687
▁Bel	-4688
▁dangereux	-4689
tead	-4690
ulous	-4691
▁impression	-4692
▁Too	-4693
▁commit	-4694
▁gift	-4695
ular	-4696
ancé	-4697
▁Ter	-4698
▁Ve	-4699
▁jail	-4700
imin	-4701
rodu	-4702
fs	-4703
▁grosse	-4704
▁Tommy	-4705
▁prove	-4706
▁history	-4707
undred	-4708
▁certaine	-4709
▁mign	-4710
▁nett	-4711
▁embarr	-4712
▁sympa	-4713
▁ground	-4714
.,	-4715
lax	-4716
▁pourriez	-4717
▁serve	-4718
▁Vi	-4719
▁Think	-4720
▁gas	-4721
anç	-4722
▁lettre	-4723
▁soleil	-4724
urb	-4725
▁Trois	-4726
irai	-4727
▁bons	-4728
▁Hum	-4729
▁Pat	-4730
▁Lind	-4731
▁Prenez	-4732
▁talent	-4733
▁wonderful	-4734
▁Colonel	-4735
▁scient	-4736
▁boîte	-4737
▁acheter	-4738
▁sé	-4739
ulations	-4740
ago	-4741
▁dossier	-4742
▁décision	-4743
▁cousin	-4744
▁faisais	-4745
awn	-4746
ôme	-4747
▁slow	-4748
hington	-4749
acter	-4750
▁cerveau	-4751
▁mange	-4752
iquement	-4753
imm	-4754
▁Martin	-4755
▁stuck	-4756
haps	-4757
▁killing	-4758
▁pars	-4759
▁partner	-4760
inion	-4761
▁opportun	-4762
▁gam	-4763
urance	-4764
▁involved	-4765
isf	-4766
▁Sw	-4767
▁télé	-4768
▁lived	-4769
ddie	-4770
▁hurry	-4771
▁god	-4772
▁preuve	-4773
▁patients	-4774
shit	-4775
▁pauvre	-4776
▁chem	-4777
▁Rachel	-4778
LL	-4779
▁tromp	-4780
rupt	-4781
ooper	-4782
▁note	-4783
ville	-4784
▁fired	-4785
▁vaisseau	-4786
▁boat	-4787
▁Bobby	-4788
▁voler	-4789
gé	-4790
aison	-4791
▁fair	-4792
▁Should	-4793
aren	-4794
emple	-4795
▁Tant	-4796
ande	-4797
aître	-4798
▁Contin	-4799
▁én	-4800
▁laquelle	-4801
▁Sit	-4802
itations	-4803
acun	-4804
▁handle	-4805
▁Bravo	-4806
ified	-4807
▁field	-4808
▁gamin	-4809
ulation	-4810
▁associ	-4811
▁tombe	-4812
▁surtout	-4813
ops	-4814
▁fen	-4815
▁Last	-4816
aitement	-4817
▁instead	-4818
▁Rest	-4819
▁cow	-4820
lant	-4821
▁propri	-4822
▁ador	-4823
▁Washington	-4824
renez	-4825
▁drop	-4826
▁vieille	-4827
rice	-4828
▁Tur	-4829
▁Cons	-4830
▁joué	-4831
ora	-4832
▁gueu	-4833
uls	-4834
gment	-4835
▁coucher	-4836
▁cuisine	-4837
▁magnifique	-4838
▁Chris	-4839
▁happening	-4840
▁White	-4841
▁Pal	-4842
▁points	-4843
▁letter	-4844
▁poste	-4845
onte	-4846
▁Mur	-4847
▁Walter	-4848
▁Père	-4849
veiller	-4850
voir	-4851
▁fier	-4852
▁prov	-4853
▁vole	-4854
▁invent	-4855
riture	-4856
ran	-4857
dies	-4858
▁jolie	-4859
▁bouche	-4860
▁pours	-4861
▁chauss	-4862
illy	-4863
▁stat	-4864
▁fear	-4865
lla	-4866
▁grat	-4867
▁Sel	-4868
▁froid	-4869
▁ouvert	-4870
▁servir	-4871
uro	-4872
▁brill	-4873
▁habit	-4874
▁fan	-4875
▁coun	-4876
▁favorite	-4877
ifier	-4878
▁Sher	-4879
▁folle	-4880
...?	-4881
▁Dete	-4882
ips	-4883
time	-4884
▁Calm	-4885
▁pareil	-4886
▁ice	-4887
once	-4888
▁eight	-4889
▁Kell	-4890
▁acheté	-4891
▁triste	-4892
▁=	-4893
▁flic	-4894
ec	-4895
▁cacher	-4896
ouvre	-4897
▁seven	-4898
▁cancer	-4899
▁terminé	-4900
▁Dev	-4901
uté	-4902
sembl	-4903
▁enfer	-4904
▁chair	-4905
▁Comp	-4906
▁event	-4907
▁soyez	-4908
▁carry	-4909
anté	-4910
▁dirais	-4911
▁Bes	-4912
▁cad	-4913
▁prep	-4914
▁beg	-4915
pris	-4916
▁rich	-4917
érique	-4918
▁cand	-4919
▁Aut	-4920
esprit	-4921
▁rare	-4922
▁milieu	-4923
▁likes	-4924
▁pregn	-4925
▁améric	-4926
▁fighting	-4927
▁docu	-4928
▁host	-4929
▁reven	-4930
▁Ins	-4931
▁Ecoutez	-4932
▁clé	-4933
▁Everyone	-4934
uelle	-4935
▁crit	-4936
outes	-4937
dedans	-4938
▁asshole	-4939
▁choisi	-4940
IC	-4941
▁médic	-4942
▁listening	-4943
▁Street	-4944
▁doubt	-4945
▁cache	-4946
▁découvert	-4947
mère	-4948
▁fus	-4949
▁fallait	-4950
▁decision	-4951
▁foutre	-4952
appel	-4953
illez	-4954
▁pray	-4955
▁interesting	-4956
▁sup	-4957
▁secondes	-4958
ging	-4959
mine	-4960
▁Aucun	-4961
▁Gener	-4962
▁seconds	-4963
▁Over	-4964
▁Before	-4965
▁Ber	-4966
onneur	-4967
▁Claire	-4968
bert	-4969
▁Reste	-4970
▁$1	-4971
aked	-4972
▁Dire	-4973
▁bén	-4974
▁Doctor	-4975
▁fich	-4976
▁Rose	-4977
▁Louis	-4978
ami	-4979
▁Huh	-4980
▁Rog	-4981
rench	-4982
osition	-4983
▁animal	-4984
dden	-4985
ored	-4986
ranger	-4987
▁window	-4988
▁Mil	-4989
▁deg	-4990
▁centre	-4991
onge	-4992
▁rum	-4993
levé	-4994
ombe	-4995
reuse	-4996
▁address	-4997
▁Gar	-4998
▁arriv	-4999
▁soin	-5000
▁final	-5001
OM	-5002
astic	-5003
▁Grace	-5004
▁pretend	-5005
▁pleine	-5006
▁remind	-5007
▁Charles	-5008
uk	-5009
sey	-5010
eries	-5011
▁cele	-5012
▁hundred	-5013
▁Jamais	-5014
▁Bet	-5015
▁Jap	-5016
▁cigare	-5017
▁Got	-5018
▁Larry	-5019
▁gouvernement	-5020
wich	-5021
▁mecs	-5022
▁dan	-5023
▁droite	-5024
bec	-5025
host	-5026
uty	-5027
▁âge	-5028
▁zone	-5029
▁viennent	-5030
▁enc	-5031
▁appart	-5032
▁college	-5033
▁marriage	-5034
hi	-5035
▁Star	-5036
▁explos	-5037
▁pleasure	-5038
▁magas	-5039
olution	-5040
réc	-5041
▁oh	-5042
fully	-5043
ètres	-5044
ompl	-5045
▁monter	-5046
▁starting	-5047
▁responsable	-5048
▁anniversaire	-5049
instant	-5050
▁bastard	-5051
face	-5052
▁bathroom	-5053
▁attends	-5054
▁21	-5055
▁chanson	-5056
ousse	-5057
▁Kevin	-5058
▁knock	-5059
ford	-5060
▁owe	-5061
▁gener	-5062
▁concent	-5063
UR	-5064
ee	-5065
▁neck	-5066
▁mem	-5067
▁Earth	-5068
▁Aucune	-5069
▁Im	-5070
▁nive	-5071
▁proper	-5072
ordre	-5073
▁vendre	-5074
▁déjeuner	-5075
▁blue	-5076
▁stole	-5077
▁strange	-5078
Cause	-5079
house	-5080
▁Mother	-5081
▁consider	-5082
avy	-5083
lor	-5084
mond	-5085
▁Bye	-5086
ini	-5087
heur	-5088
▁Dem	-5089
▁pig	-5090
ura	-5091
▁personnel	-5092
▁freak	-5093
▁relax	-5094
▁Bienvenue	-5095
ntly	-5096
pis	-5097
▁dam	-5098
aimes	-5099
▁ressent	-5100
▁jeunes	-5101
the	-5102
▁Jud	-5103
▁neighbor	-5104
▁Eddie	-5105
▁instru	-5106
oncer	-5107
▁récupérer	-5108
▁Terre	-5109
▁Donnez	-5110
▁agents	-5111
▁Detective	-5112
▁access	-5113
▁master	-5114
▁incroyable	-5115
ived	-5116
▁Joy	-5117
▁hô	-5118
to	-5119
▁rid	-5120
▁nerve	-5121
▁broken	-5122
▁source	-5123
dit	-5124
resh	-5125
▁magic	-5126
▁search	-5127
cape	-5128
▁civil	-5129
▁cannot	-5130
oned	-5131
▁moved	-5132
geant	-5133
▁volont	-5134
ionn	-5135
rid	-5136
▁worst	-5137
▁assassin	-5138
▁promets	-5139
▁lun	-5140
cious	-5141
▁pier	-5142
▁march	-5143
5.	-5144
▁vin	-5145
▁Six	-5146
▁fol	-5147
▁Rome	-5148
▁sudden	-5149
▁transf	-5150
medi	-5151
quip	-5152
wise	-5153
uler	-5154
den	-5155
issez	-5156
▁Shall	-5157
▁gal	-5158
▁admit	-5159
▁gueule	-5160
▁America	-5161
▁Imp	-5162
▁Show	-5163
▁Mess	-5164
▁enne	-5165
▁Victor	-5166
▁interview	-5167
▁Chin	-5168
wards	-5169
▁piss	-5170
▁rules	-5171
▁libert	-5172
▁General	-5173
▁morce	-5174
êtements	-5175
ada	-5176
▁Esp	-5177
▁connu	-5178
▁promised	-5179
▁Next	-5180
▁compagnie	-5181
▁experience	-5182
▁payé	-5183
ya	-5184
tective	-5185
▁réunion	-5186
▁named	-5187
▁signe	-5188
▁health	-5189
▁voie	-5190
oise	-5191
▁path	-5192
▁peau	-5193
▁robe	-5194
cool	-5195
▁Mus	-5196
▁conseil	-5197
▁risk	-5198
▁shall	-5199
orer	-5200
éner	-5201
▁utilis	-5202
ril	-5203
▁Jon	-5204
▁déch	-5205
▁malad	-5206
gon	-5207
▁sor	-5208
▁environ	-5209
▁sauf	-5210
▁preuves	-5211
▁ramener	-5212
year	-5213
▁mic	-5214
▁hungry	-5215
▁Long	-5216
bon	-5217
▁fish	-5218
▁plup	-5219
▁Voyons	-5220
▁action	-5221
▁Barb	-5222
▁Président	-5223
▁rig	-5224
▁Eric	-5225
▁vot	-5226
▁Kate	-5227
▁dépl	-5228
▁drogue	-5229
▁plupart	-5230
▁sitting	-5231
▁22	-5232
▁tend	-5233
▁space	-5234
▁Absolutely	-5235
▁curi	-5236
▁fiche	-5237
▁cute	-5238
ologie	-5239
▁coff	-5240
▁blind	-5241
▁Toutes	-5242
▁page	-5243
▁devient	-5244
▁écl	-5245
agent	-5246
▁learned	-5247
▁honnête	-5248
na	-5249
▁Parfois	-5250
▁suicide	-5251
▁vote	-5252
▁certains	-5253
▁pant	-5254
▁blessé	-5255
ING	-5256
▁across	-5257
▁appreciate	-5258
▁disg	-5259
▁Pete	-5260
▁joke	-5261
▁Forget	-5262
oul	-5263
▁peuple	-5264
▁sleeping	-5265
▁prenez	-5266
TE	-5267
over	-5268
▁Roy	-5269
▁computer	-5270
œu	-5271
▁necess	-5272
père	-5273
ga	-5274
▁bordel	-5275
▁pén	-5276
▁Open	-5277
▁horse	-5278
▁résult	-5279
▁satisf	-5280
▁sache	-5281
lyn	-5282
▁comfort	-5283
▁tel	-5284
icated	-5285
▁nulle	-5286
▁single	-5287
well	-5288
▁weak	-5289
▁Capitaine	-5290
alys	-5291
▁loy	-5292
▁Carter	-5293
▁holding	-5294
got	-5295
alous	-5296
▁drugs	-5297
▁wrote	-5298
▁private	-5299
▁third	-5300
▁hiding	-5301
entendre	-5302
▁dérange	-5303
▁Patri	-5304
▁nobody	-5305
orté	-5306
ample	-5307
▁buck	-5308
▁péri	-5309
abilité	-5310
▁apprendre	-5311
▁Ju	-5312
aring	-5313
étaire	-5314
▁sauvé	-5315
▁Pendant	-5316
▁étrange	-5317
▁chocol	-5318
▁inj	-5319
▁upset	-5320
do	-5321
▁prochain	-5322
▁often	-5323
▁Once	-5324
▁savent	-5325
▁couvert	-5326
uez	-5327
▁Jean	-5328
▁Brian	-5329
▁hoping	-5330
▁coupable	-5331
itable	-5332
▁defin	-5333
ology	-5334
▁Ham	-5335
▁prévu	-5336
▁staying	-5337
attends	-5338
▁vérifier	-5339
▁celebr	-5340
▁pictures	-5341
ament	-5342
▁500	-5343
▁Park	-5344
▁honte	-5345
▁Jac	-5346
enty	-5347
▁army	-5348
▁spot	-5349
▁House	-5350
▁touche	-5351
▁messieurs	-5352
▁procès	-5353
▁quitté	-5354
▁départ	-5355
▁miles	-5356
elez	-5357
▁prise	-5358
pected	-5359
▁Chaque	-5360
▁Sauf	-5361
ores	-5362
▁Allô	-5363
▁Jason	-5364
▁héros	-5365
bel	-5366
▁blame	-5367
▁target	-5368
▁liked	-5369
▁effort	-5370
▁opinion	-5371
▁Ni	-5372
▁Vos	-5373
▁Prom	-5374
▁ence	-5375
▁jeter	-5376
▁divorce	-5377
▁Hall	-5378
sique	-5379
▁Cent	-5380
▁romant	-5381
▁enter	-5382
▁YOU	-5383
ensive	-5384
▁Marsh	-5385
▁règles	-5386
▁ele	-5387
▁France	-5388
année	-5389
ae	-5390
▁Russi	-5391
▁feelings	-5392
dom	-5393
▁video	-5394
▁ordres	-5395
▁Besides	-5396
▁bre	-5397
▁Lui	-5398
▁judge	-5399
▁contract	-5400
▁convince	-5401
▁pute	-5402
▁blague	-5403
▁arrivée	-5404
field	-5405
▁level	-5406
▁Watch	-5407
▁garçons	-5408
▁cult	-5409
▁extr	-5410
▁répondre	-5411
abb	-5412
ples	-5413
▁Luke	-5414
▁guns	-5415
▁grands	-5416
ubl	-5417
▁ciel	-5418
▁prêts	-5419
▁Trop	-5420
▁Tw	-5421
▁tough	-5422
▁société	-5423
▁Tri	-5424
▁except	-5425
▁object	-5426
▁dying	-5427
▁princip	-5428
ilty	-5429
cture	-5430
▁pose	-5431
▁bouge	-5432
▁cash	-5433
ailles	-5434
▁guard	-5435
▁élect	-5436
heart	-5437
duc	-5438
▁mien	-5439
▁projet	-5440
encer	-5441
▁cast	-5442
▁roll	-5443
▁présente	-5444
▁os	-5445
▁nez	-5446
▁spl	-5447
▁Jusqu	-5448
▁major	-5449
▁essaie	-5450
▁tient	-5451
occupe	-5452
▁Cour	-5453
▁étions	-5454
▁utilisé	-5455
ef	-5456
▁Clark	-5457
▁regardez	-5458
icious	-5459
▁dirty	-5460
▁dirai	-5461
▁danse	-5462
▁prouver	-5463
▁area	-5464
agement	-5465
▁decide	-5466
▁ignore	-5467
▁pregnant	-5468
▁réuss	-5469
icip	-5470
itely	-5471
▁Simon	-5472
▁apologize	-5473
▁menti	-5474
▁Norm	-5475
▁sle	-5476
univers	-5477
▁camera	-5478
▁souhait	-5479
▁totally	-5480
ract	-5481
▁Four	-5482
umb	-5483
▁lâ	-5484
▁croit	-5485
érience	-5486
onnie	-5487
▁parc	-5488
▁French	-5489
▁kil	-5490
rique	-5491
▁allowed	-5492
▁site	-5493
▁Intern	-5494
▁Bre	-5495
▁draw	-5496
aï	-5497
▁immedi	-5498
▁science	-5499
ratulations	-5500
▁hyp	-5501
▁niveau	-5502
▁scream	-5503
pper	-5504
▁coups	-5505
▁race	-5506
illeurs	-5507
▁Police	-5508
▁Aren	-5509
▁skin	-5510
▁beer	-5511
▁weapon	-5512
▁helping	-5513
▁amoureux	-5514
▁wondering	-5515
moire	-5516
▁none	-5517
respond	-5518
▁forward	-5519
▁direction	-5520
gery	-5521
▁Ver	-5522
▁Love	-5523
essor	-5524
▁Jerry	-5525
▁choose	-5526
alité	-5527
etty	-5528
▁Val	-5529
AD	-5530
▁hadn	-5531
▁savons	-5532
inv	-5533
ére	-5534
ered	-5535
idez	-5536
▁prét	-5537
▁sept	-5538
▁débarr	-5539
▁terrain	-5540
▁everywhere	-5541
velopp	-5542
▁choisir	-5543
▁weekend	-5544
Le	-5545
▁surprised	-5546
▁Tes	-5547
▁Deb	-5548
▁memory	-5549
▁relig	-5550
▁nourriture	-5551
▁portes	-5552
boy	-5553
▁account	-5554
▁willing	-5555
oiselle	-5556
da	-5557
▁contrô	-5558
▁bullshit	-5559
import	-5560
▁viend	-5561
▁difference	-5562
▁parole	-5563
▁témoin	-5564
armée	-5565
▁Ot	-5566
▁censé	-5567
▁rôle	-5568
▁livres	-5569
erait	-5570
noon	-5571
▁Wor	-5572
▁planet	-5573
▁copine	-5574
▁intérêt	-5575
icier	-5576
▁Whoa	-5577
▁guilty	-5578
enir	-5579
▁Anna	-5580
▁forces	-5581
▁Ly	-5582
étique	-5583
▁humain	-5584
▁Dép	-5585
▁block	-5586
▁lycée	-5587
▁Another	-5588
!"	-5589
▁CIA	-5590
▁jury	-5591
▁00.	-5592
▁rencontre	-5593
▁piz	-5594
▁apart	-5595
▁vidéo	-5596
▁revenu	-5597
▁cred	-5598
▁dipl	-5599
▁mise	-5600
▁arres	-5601
▁correspond	-5602
▁hole	-5603
▁forgive	-5604
▁Ses	-5605
▁lic	-5606
cter	-5607
▁sim	-5608
▁Cher	-5609
▁Emily	-5610
hew	-5611
▁Holly	-5612
▁toilettes	-5613
▁!"	-5614
▁Jenn	-5615
▁travel	-5616
▁gê	-5617
▁meilleurs	-5618
▁marier	-5619
for	-5620
law	-5621
élicitations	-5622
bility	-5623
▁Still	-5624
▁Josh	-5625
▁aimes	-5626
▁Docteur	-5627
▁beginning	-5628
▁Kyle	-5629
rocher	-5630
▁Sk	-5631
▁inqui	-5632
▁rêves	-5633
ji	-5634
▁nation	-5635
▁stress	-5636
▁responsible	-5637
▁coû	-5638
▁iss	-5639
fortun	-5640
▁elect	-5641
▁Thomas	-5642
▁tun	-5643
▁sett	-5644
▁sandwich	-5645
▁investigation	-5646
hôtel	-5647
2.	-5648
atic	-5649
ément	-5650
▁Lisa	-5651
▁diable	-5652
▁proche	-5653
▁Cool	-5654
▁herself	-5655
▁evil	-5656
▁chances	-5657
▁putting	-5658
▁atta	-5659
▁derniers	-5660
▁Chic	-5661
▁High	-5662
▁compt	-5663
▁enceinte	-5664
▁sexe	-5665
▁éner	-5666
merg	-5667
▁Five	-5668
▁Except	-5669
▁planète	-5670
▁guest	-5671
mmer	-5672
▁Master	-5673
▁arrière	-5674
▁deserve	-5675
oli	-5676
▁Nos	-5677
▁bird	-5678
▁maître	-5679
▁Francis	-5680
▁officer	-5681
▁remerci	-5682
1.	-5683
▁fit	-5684
uce	-5685
ttes	-5686
▁parten	-5687
▁walking	-5688
aves	-5689
▁Daddy	-5690
eras	-5691
▁Way	-5692
▁longue	-5693
astique	-5694
▁Vite	-5695
▁Happy	-5696
▁bière	-5697
▁helped	-5698
ède	-5699
▁fric	-5700
▁escape	-5701
▁price	-5702
▁conduire	-5703
▁author	-5704
aissance	-5705
▁magasin	-5706
issement	-5707
▁surveillance	-5708
▁AN	-5709
▁cabin	-5710
▁immédi	-5711
▁ressembl	-5712
airement	-5713
▁suck	-5714
▁orders	-5715
eter	-5716
▁tape	-5717
abe	-5718
▁hun	-5719
peau	-5720
▁Marc	-5721
▁effect	-5722
asy	-5723
▁Rép	-5724
▁secr	-5725
▁gives	-5726
eless	-5727
urope	-5728
▁accompl	-5729
▁Dra	-5730
▁Find	-5731
▁wine	-5732
verte	-5733
▁English	-5734
▁silence	-5735
▁afternoon	-5736
issed	-5737
▁project	-5738
▁verra	-5739
LE	-5740
▁dent	-5741
▁condu	-5742
▁bombe	-5743
▁baiser	-5744
▁dingue	-5745
▁soup	-5746
▁driving	-5747
Ar	-5748
▁Ob	-5749
▁Ré	-5750
iale	-5751
▁travaillé	-5752
▁McC	-5753
▁découvrir	-5754
▁jug	-5755
▁Dég	-5756
▁den	-5757
▁names	-5758
reng	-5759
récie	-5760
▁image	-5761
▁oublier	-5762
▁allée	-5763
atoire	-5764
▁tombé	-5765
▁programme	-5766
came	-5767
▁Gri	-5768
▁alle	-5769
▁protection	-5770
▁sake	-5771
atif	-5772
cles	-5773
▁places	-5774
oring	-5775
utation	-5776
atherine	-5777
rel	-5778
▁assis	-5779
▁prépar	-5780
▁confirm	-5781
onds	-5782
itty	-5783
▁oncle	-5784
▁23	-5785
aker	-5786
aper	-5787
▁dreams	-5788
▁finger	-5789
▁petites	-5790
▁rappeler	-5791
▁dure	-5792
jets	-5793
▁ene	-5794
▁douleur	-5795
▁ther	-5796
▁Ferme	-5797
▁prefer	-5798
▁fenêtre	-5799
▁toucher	-5800
arc	-5801
▁Cy	-5802
▁TO	-5803
ènes	-5804
▁arms	-5805
▁low	-5806
▁taxi	-5807
▁enemy	-5808
▁upstairs	-5809
▁bunch	-5810
ero	-5811
▁feels	-5812
xim	-5813
▁passion	-5814
▁réveill	-5815
apt	-5816
▁presse	-5817
▁Bu	-5818
▁Bur	-5819
▁push	-5820
▁bullet	-5821
▁Steph	-5822
▁servi	-5823
▁tests	-5824
▁foc	-5825
issent	-5826
dames	-5827
usted	-5828
▁exemple	-5829
You	-5830
▁tor	-5831
ility	-5832
▁bare	-5833
▁contente	-5834
opt	-5835
▁Nathan	-5836
œil	-5837
▁Swe	-5838
atement	-5839
▁ridiculous	-5840
▁Bring	-5841
ctement	-5842
▁sauv	-5843
▁eating	-5844
▁dév	-5845
▁esprit	-5846
▁mérite	-5847
▁60	-5848
▁Bud	-5849
▁rendu	-5850
▁figured	-5851
▁violence	-5852
▁vêtements	-5853
▁quartier	-5854
alt	-5855
▁présenter	-5856
▁tree	-5857
▁Chicago	-5858
▁offre	-5859
ifié	-5860
▁plant	-5861
▁wood	-5862
▁Hy	-5863
▁Ass	-5864
▁ailleurs	-5865
▁fill	-5866
▁ladies	-5867
▁Perfect	-5868
▁concert	-5869
▁réalité	-5870
▁gy	-5871
▁hat	-5872
iforn	-5873
▁became	-5874
idemment	-5875
ièrement	-5876
▁diam	-5877
▁occupé	-5878
ened	-5879
▁Uncle	-5880
▁asleep	-5881
ext	-5882
lève	-5883
▁warn	-5884
▁roy	-5885
▁pardon	-5886
▁liqu	-5887
▁Chuck	-5888
▁discuter	-5889
ults	-5890
▁lied	-5891
▁plain	-5892
▁ourselves	-5893
▁transm	-5894
▁Smith	-5895
rin	-5896
▁secours	-5897
▁LA	-5898
▁hero	-5899
▁bow	-5900
▁cup	-5901
▁clin	-5902
▁consc	-5903
▁reb	-5904
thur	-5905
▁quar	-5906
itchen	-5907
▁round	-5908
èque	-5909
▁unif	-5910
▁finished	-5911
▁Dar	-5912
▁Marie	-5913
▁Sinon	-5914
▁advice	-5915
▁cy	-5916
▁seuls	-5917
▁yell	-5918
▁bruit	-5919
▁closed	-5920
▁books	-5921
▁style	-5922
▁permission	-5923
avis	-5924
hether	-5925
▁deuxième	-5926
▁tea	-5927
▁Without	-5928
▁sentiment	-5929
▁Probably	-5930
ement	-5931
▁Out	-5932
▁vision	-5933
bers	-5934
▁Den	-5935
▁cer	-5936
▁rire	-5937
redi	-5938
▁Exactly	-5939
▁chacun	-5940
▁expliquer	-5941
▁locked	-5942
▁teacher	-5943
▁transform	-5944
▁earth	-5945
ners	-5946
ended	-5947
▁Dave	-5948
▁ridicule	-5949
▁Little	-5950
▁introdu	-5951
▁excellent	-5952
cel	-5953
iny	-5954
▁Hom	-5955
écoute	-5956
▁soient	-5957
An	-5958
ila	-5959
▁Dun	-5960
▁shoes	-5961
▁unless	-5962
▁détruire	-5963
éresse	-5964
aylor	-5965
▁famil	-5966
▁poign	-5967
▁warm	-5968
usting	-5969
▁dame	-5970
▁somme	-5971
▁faith	-5972
▁costume	-5973
▁entend	-5974
mée	-5975
▁virus	-5976
▁drinking	-5977
▁vies	-5978
▁venus	-5979
▁poison	-5980
▁remettre	-5981
▁paraît	-5982
▁Essay	-5983
▁empty	-5984
▁camion	-5985
▁sauter	-5986
mail	-5987
▁fail	-5988
imb	-5989
odes	-5990
▁gaz	-5991
▁Sand	-5992
▁faudra	-5993
▁garage	-5994
US	-5995
▁plat	-5996
▁Annie	-5997
▁Vir	-5998
gez	-5999
▁Greg	-6000
▁Saint	-6001
▁crack	-6002
▁keeping	-6003
▁tourner	-6004
▁Seriously	-6005
gle	-6006
▁standing	-6007
50	-6008
▁Ê	-6009
▁Hein	-6010
▁Lady	-6011
▁Miche	-6012
▁spectacle	-6013
aron	-6014
▁magaz	-6015
NA	-6016
reur	-6017
▁enreg	-6018
orie	-6019
▁pét	-6020
▁Charl	-6021
▁appl	-6022
▁Ms	-6023
▁huge	-6024
▁banque	-6025
▁sentiments	-6026
▁Dam	-6027
▁dim	-6028
▁futur	-6029
▁whis	-6030
ja	-6031
▁showed	-6032
▁Unt	-6033
icate	-6034
right	-6035
▁bête	-6036
▁étrang	-6037
▁préparer	-6038
▁bite	-6039
essed	-6040
▁confir	-6041
▁Env	-6042
▁renv	-6043
▁trom	-6044
mergency	-6045
▁poursui	-6046
eding	-6047
pping	-6048
▁sinon	-6049
▁Aujourd	-6050
vey	-6051
▁pir	-6052
▁revient	-6053
hel	-6054
▁liberté	-6055
▁retrouvé	-6056
fl	-6057
ians	-6058
▁jack	-6059
▁comprenez	-6060
▁Dor	-6061
▁ours	-6062
▁pont	-6063
▁success	-6064
▁seat	-6065
▁distance	-6066
erstood	-6067
▁Bat	-6068
▁films	-6069
▁Parfait	-6070
▁Californ	-6071
▁Cast	-6072
▁wound	-6073
▁mignon	-6074
▁boo	-6075
▁Susan	-6076
▁leader	-6077
hol	-6078
▁phys	-6079
▁Trust	-6080
▁remer	-6081
▁pressure	-6082
▁embr	-6083
▁retrouve	-6084
▁parie	-6085
▁Emma	-6086
▁Joey	-6087
▁passed	-6088
▁faisons	-6089
rine	-6090
▁Andy	-6091
▁symb	-6092
▁nouveaux	-6093
▁retourne	-6094
ENT	-6095
▁dare	-6096
▁perform	-6097
▁hello	-6098
▁medical	-6099
▁following	-6100
▁furt	-6101
▁Chief	-6102
▁mangé	-6103
▁copain	-6104
▁Attention	-6105
kins	-6106
▁trace	-6107
▁moments	-6108
▁Sean	-6109
atural	-6110
▁nervous	-6111
▁surgery	-6112
▁trial	-6113
▁Demand	-6114
▁conneries	-6115
▁Has	-6116
▁Back	-6117
▁Ensuite	-6118
▁conscience	-6119
érée	-6120
▁Day	-6121
seyez	-6122
▁assure	-6123
▁portable	-6124
▁Lad	-6125
intes	-6126
▁Today	-6127
oids	-6128
onie	-6129
night	-6130
▁Were	-6131
▁bain	-6132
▁Toute	-6133
▁church	-6134
inqui	-6135
rength	-6136
▁forte	-6137
▁Unless	-6138
▁pression	-6139
fast	-6140
ulance	-6141
▁usually	-6142
▁themselves	-6143
▁appartement	-6144
rage	-6145
▁joy	-6146
ommage	-6147
▁ash	-6148
▁nécessaire	-6149
gal	-6150
▁sea	-6151
▁crap	-6152
▁losing	-6153
▁doct	-6154
▁vain	-6155
▁boute	-6156
▁ow	-6157
illa	-6158
▁Hank	-6159
▁joli	-6160
▁fortune	-6161
▁lis	-6162
▁Holy	-6163
▁Sois	-6164
▁smoke	-6165
vention	-6166
tat	-6167
▁social	-6168
▁Entre	-6169
▁large	-6170
▁Ow	-6171
▁Liz	-6172
▁tourne	-6173
▁ray	-6174
▁bande	-6175
▁memor	-6176
▁victimes	-6177
esc	-6178
▁neither	-6179
▁quickly	-6180
▁planning	-6181
▁Dé	-6182
▁amus	-6183
▁té	-6184
anie	-6185
ulaire	-6186
▁faill	-6187
▁Accord	-6188
ET	-6189
▁Walk	-6190
isions	-6191
▁spr	-6192
ached	-6193
Am	-6194
osed	-6195
verse	-6196
▁myst	-6197
▁réfléchir	-6198
avi	-6199
▁rée	-6200
abeth	-6201
ander	-6202
▁profond	-6203
▁Ken	-6204
▁brave	-6205
▁frères	-6206
raw	-6207
▁âme	-6208
▁Mets	-6209
▁Pier	-6210
▁dépend	-6211
oiré	-6212
▁Kill	-6213
▁gagne	-6214
endroit	-6215
▁Restez	-6216
▁ya	-6217
isée	-6218
▁Leon	-6219
▁ore	-6220
ropri	-6221
▁Demain	-6222
▁parking	-6223
▁lieutenant	-6224
▁common	-6225
▁types	-6226
excuser	-6227
▁touché	-6228
▁vacances	-6229
▁egg	-6230
▁nose	-6231
▁sert	-6232
▁Chérie	-6233
▁Taylor	-6234
▁Roger	-6235
oms	-6236
▁Jose	-6237
▁immediately	-6238
ko	-6239
▁realized	-6240
rad	-6241
▁Sn	-6242
illon	-6243
▁waste	-6244
▁lovely	-6245
▁Exactement	-6246
▁correct	-6247
cil	-6248
ech	-6249
ola	-6250
▁Lily	-6251
ressive	-6252
▁flight	-6253
ancée	-6254
▁dernières	-6255
alie	-6256
▁shop	-6257
▁trick	-6258
▁picked	-6259
▁Beaucoup	-6260
can	-6261
▁chanter	-6262
▁weapons	-6263
▁Haw	-6264
▁reach	-6265
▁cass	-6266
▁services	-6267
iti	-6268
▁telle	-6269
▁within	-6270
▁Jackson	-6271
▁Compris	-6272
▁arrested	-6273
▁strength	-6274
velop	-6275
▁Brad	-6276
▁représent	-6277
yg	-6278
▁Gib	-6279
▁faite	-6280
▁glace	-6281
▁Los	-6282
ouser	-6283
▁suffis	-6284
▁article	-6285
▁mémoire	-6286
▁professeur	-6287
cia	-6288
▁Tex	-6289
itten	-6290
▁Kelly	-6291
ender	-6292
odies	-6293
▁mult	-6294
ôtre	-6295
▁Pouvez	-6296
▁reviend	-6297
▁football	-6298
▁necessary	-6299
7.	-6300
sec	-6301
▁Gir	-6302
▁kitchen	-6303
aies	-6304
▁Rock	-6305
inture	-6306
onom	-6307
▁Tor	-6308
▁rule	-6309
▁pulled	-6310
▁Beck	-6311
▁Guys	-6312
▁hook	-6313
▁Mo	-6314
▁Arthur	-6315
▁betray	-6316
▁disapp	-6317
anda	-6318
▁ener	-6319
▁auras	-6320
▁contrat	-6321
▁monstre	-6322
enfant	-6323
▁santé	-6324
▁closer	-6325
▁thousand	-6326
Al	-6327
née	-6328
▁Nat	-6329
▁Wil	-6330
AM	-6331
▁Kid	-6332
por	-6333
ude	-6334
▁restes	-6335
▁politique	-6336
mble	-6337
▁Jones	-6338
▁medic	-6339
▁Harr	-6340
▁chev	-6341
▁stock	-6342
hmm	-6343
inct	-6344
▁phy	-6345
▁saf	-6346
▁aidé	-6347
▁dressed	-6348
quis	-6349
▁Tob	-6350
▁Alice	-6351
▁Tenez	-6352
▁crying	-6353
▁effray	-6354
▁Congratulations	-6355
▁smile	-6356
ription	-6357
▁prisonn	-6358
▁seriously	-6359
▁jer	-6360
▁miracle	-6361
▁embarrass	-6362
back	-6363
▁hol	-6364
rate	-6365
▁accus	-6366
▁twice	-6367
veral	-6368
▁incl	-6369
iennes	-6370
▁glass	-6371
▁keeps	-6372
▁ticket	-6373
▁fermer	-6374
cha	-6375
auté	-6376
▁partis	-6377
îne	-6378
▁huit	-6379
▁notes	-6380
▁played	-6381
▁potent	-6382
▁prost	-6383
▁vécu	-6384
▁Karen	-6385
▁ghost	-6386
▁espèce	-6387
▁slept	-6388
▁envoyer	-6389
▁Tre	-6390
▁por	-6391
▁inde	-6392
▁Move	-6393
light	-6394
▁candid	-6395
▁directeur	-6396
ader	-6397
▁croi	-6398
▁concl	-6399
▁influ	-6400
▁déclar	-6401
▁recognize	-6402
▁transport	-6403
▁écrire	-6404
book	-6405
▁Dur	-6406
▁Maria	-6407
▁color	-6408
▁vouliez	-6409
asc	-6410
ito	-6411
nelle	-6412
▁médec	-6413
ses	-6414
olet	-6415
▁aurez	-6416
▁fresh	-6417
▁maladie	-6418
ucky	-6419
▁Eve	-6420
enses	-6421
▁recr	-6422
▁danser	-6423
▁rain	-6424
▁terrif	-6425
cs	-6426
▁foi	-6427
rance	-6428
▁South	-6429
ference	-6430
▁300	-6431
▁réd	-6432
▁cock	-6433
ancing	-6434
▁deser	-6435
▁ach	-6436
nant	-6437
imate	-6438
▁lequel	-6439
▁défense	-6440
▁descendre	-6441
VE	-6442
accep	-6443
avion	-6444
▁further	-6445
▁definitely	-6446
▁né	-6447
▁regardé	-6448
▁Ir	-6449
▁Dès	-6450
▁témoi	-6451
▁invité	-6452
▁régler	-6453
▁Jer	-6454
▁trés	-6455
chée	-6456
▁bonjour	-6457
▁carrière	-6458
▁shooting	-6459
▁nuc	-6460
▁dump	-6461
▁mount	-6462
▁Tomorrow	-6463
▁text	-6464
▁Toujours	-6465
▁voudrait	-6466
▁intelligent	-6467
▁fave	-6468
▁vert	-6469
berg	-6470
▁Alan	-6471
▁gosse	-6472
OT	-6473
▁Cou	-6474
▁island	-6475
▁brothers	-6476
lder	-6477
midi	-6478
umes	-6479
moiselle	-6480
iré	-6481
▁¶	-6482
▁Med	-6483
▁lay	-6484
▁Sounds	-6485
▁différence	-6486
rite	-6487
ho	-6488
oué	-6489
ureur	-6490
▁Amen	-6491
▁Other	-6492
aimais	-6493
▁reç	-6494
▁monster	-6495
cile	-6496
▁Ooh	-6497
▁paie	-6498
▁park	-6499
▁legs	-6500
ishing	-6501
▁fleurs	-6502
▁pensent	-6503
▁Seulement	-6504
va	-6505
tenu	-6506
▁ben	-6507
▁faits	-6508
▁pizza	-6509
▁riche	-6510
▁avions	-6511
atte	-6512
iano	-6513
ibles	-6514
▁Bern	-6515
▁Count	-6516
▁separ	-6517
▁remarqué	-6518
▁Prem	-6519
▁dents	-6520
▁unique	-6521
▁enquête	-6522
▁pensait	-6523
▁remercier	-6524
▁$2	-6525
▁Ye	-6526
▁Rod	-6527
▁prince	-6528
▁raisons	-6529
gest	-6530
▁mid	-6531
▁Sortez	-6532
▁ll	-6533
▁breath	-6534
▁propres	-6535
▁sacrifice	-6536
▁dirige	-6537
ieuse	-6538
▁trouves	-6539
▁Ron	-6540
▁énorme	-6541
La	-6542
eze	-6543
▁rese	-6544
▁aud	-6545
▁Morgan	-6546
apprécie	-6547
mo	-6548
▁consid	-6549
▁Internet	-6550
ouer	-6551
▁Calme	-6552
▁obtenir	-6553
▁immédiatement	-6554
iné	-6555
▁Same	-6556
aching	-6557
▁Green	-6558
▁captain	-6559
▁records	-6560
▁interest	-6561
▁appar	-6562
▁repas	-6563
▁shock	-6564
▁career	-6565
▁charges	-6566
▁_	-6567
▁pants	-6568
▁traum	-6569
▁Hit	-6570
▁Leo	-6571
rente	-6572
ending	-6573
▁rejoindre	-6574
▁opportunity	-6575
ION	-6576
agues	-6577
allen	-6578
▁duty	-6579
enfer	-6580
▁arch	-6581
▁Doesn	-6582
▁invited	-6583
▁manager	-6584
▁ordre	-6585
▁London	-6586
▁summer	-6587
mbl	-6588
▁Hor	-6589
glais	-6590
▁fake	-6591
▁followed	-6592
▁eh	-6593
▁ge	-6594
▁Emp	-6595
▁United	-6596
ardin	-6597
▁manqué	-6598
ications	-6599
▁continu	-6600
▁Port	-6601
▁Dude	-6602
▁sche	-6603
amment	-6604
uellement	-6605
▁bigger	-6606
▁jealous	-6607
▁tradition	-6608
▁Ash	-6609
▁rends	-6610
▁attendez	-6611
▁vul	-6612
ushed	-6613
▁mob	-6614
itter	-6615
▁mentir	-6616
▁humains	-6617
▁version	-6618
▁pourtant	-6619
▁racc	-6620
▁Check	-6621
▁piste	-6622
CH	-6623
dé	-6624
▁Fri	-6625
▁Sara	-6626
▁Until	-6627
▁remercie	-6628
▁informations	-6629
acheter	-6630
-1	-6631
acon	-6632
▁Soph	-6633
▁aille	-6634
▁éviter	-6635
▁maît	-6636
acted	-6637
▁Ready	-6638
▁moon	-6639
▁recent	-6640
▁couteau	-6641
▁Félicitations	-6642
ourne	-6643
▁prior	-6644
▁raise	-6645
▁Ét	-6646
▁cake	-6647
▁rele	-6648
▁Certains	-6649
▁barely	-6650
▁traces	-6651
ida	-6652
▁marié	-6653
▁battle	-6654
--	-6655
▁aup	-6656
▁école	-6657
▁bouger	-6658
▁OF	-6659
èche	-6660
▁argu	-6661
iée	-6662
▁Fine	-6663
▁hurts	-6664
▁study	-6665
▁emergency	-6666
▁histoires	-6667
vies	-6668
▁ouvrir	-6669
▁papier	-6670
rod	-6671
▁jambes	-6672
▁Abby	-6673
▁taille	-6674
▁Mort	-6675
▁manip	-6676
urgence	-6677
▁Sub	-6678
▁lune	-6679
▁mand	-6680
▁reading	-6681
▁pure	-6682
▁Imagine	-6683
▁noms	-6684
▁Europe	-6685
▁auriez	-6686
▁détest	-6687
4.	-6688
▁Bart	-6689
▁Oubl	-6690
▁bucks	-6691
esome	-6692
▁Dean	-6693
▁idées	-6694
▁credit	-6695
▁menace	-6696
▁Jenny	-6697
▁stars	-6698
▁market	-6699
3.	-6700
ares	-6701
▁ing	-6702
▁Talk	-6703
▁Appelle	-6704
▁apporté	-6705
▁vampire	-6706
▁complicated	-6707
bri	-6708
zen	-6709
cies	-6710
vres	-6711
▁Ross	-6712
▁selon	-6713
▁military	-6714
▁Sergeant	-6715
▁Cin	-6716
assurer	-6717
▁example	-6718
▁supporter	-6719
▁passage	-6720
▁stories	-6721
bell	-6722
▁Gold	-6723
▁chère	-6724
▁taste	-6725
▁chauff	-6726
▁expert	-6727
▁spirit	-6728
▁arrived	-6729
▁According	-6730
▁acting	-6731
ato	-6732
▁due	-6733
▁Gent	-6734
▁Most	-6735
▁famous	-6736
▁échapp	-6737
attre	-6738
▁chir	-6739
▁cible	-6740
▁green	-6741
▁stage	-6742
▁rentré	-6743
▁tight	-6744
▁venait	-6745
▁arrange	-6746
ésus	-6747
▁tells	-6748
▁bottle	-6749
▁frapper	-6750
▁marrant	-6751
▁assistant	-6752
ds	-6753
▁frais	-6754
▁destroyed	-6755
▁writing	-6756
▁chief	-6757
roll	-6758
▁Eliz	-6759
▁Angeles	-6760
oue	-6761
▁energy	-6762
édé	-6763
▁taught	-6764
run	-6765
▁threw	-6766
▁Jun	-6767
▁Flor	-6768
duction	-6769
▁manquer	-6770
▁pourras	-6771
▁$.	-6772
▁Cri	-6773
iés	-6774
▁shows	-6775
▁gotten	-6776
expliquer	-6777
▁McG	-6778
▁finan	-6779
▁permis	-6780
gs	-6781
▁Far	-6782
érence	-6783
▁suivi	-6784
▁German	-6785
▁envers	-6786
▁knowing	-6787
▁chou	-6788
▁Barry	-6789
alon	-6790
▁lait	-6791
arlier	-6792
▁étant	-6793
▁request	-6794
▁fonctionne	-6795
fortunately	-6796
▁©	-6797
▁lap	-6798
▁nul	-6799
ization	-6800
▁honneur	-6801
▁Vinc	-6802
father	-6803
▁spéci	-6804
▁arrivent	-6805
kin	-6806
vable	-6807
▁Mettez	-6808
▁lut	-6809
atrice	-6810
▁entier	-6811
▁Laura	-6812
▁bodies	-6813
▁contraire	-6814
SA	-6815
▁empre	-6816
▁couper	-6817
▁attaque	-6818
▁univers	-6819
aband	-6820
oster	-6821
▁movies	-6822
▁mix	-6823
▁remain	-6824
▁Bad	-6825
▁clo	-6826
▁sacré	-6827
▁Tais	-6828
▁pock	-6829
▁North	-6830
▁ended	-6831
▁manqu	-6832
▁cartes	-6833
▁durant	-6834
▁chaussures	-6835
cue	-6836
,...	-6837
8.	-6838
▁dén	-6839
▁Chlo	-6840
▁ways	-6841
▁Prince	-6842
▁clos	-6843
▁pist	-6844
▁surp	-6845
▁repres	-6846
pose	-6847
▁Sud	-6848
derer	-6849
▁bonheur	-6850
▁IN	-6851
rica	-6852
▁Ain	-6853
▁Baby	-6854
incess	-6855
île	-6856
▁tap	-6857
▁Robin	-6858
▁avion	-6859
▁romp	-6860
▁amené	-6861
▁Génial	-6862
▁préféré	-6863
▁disappear	-6864
ètes	-6865
ommes	-6866
▁sight	-6867
▁mariée	-6868
▁harm	-6869
▁pilot	-6870
▁remont	-6871
▁Patrick	-6872
▁absolument	-6873
ifer	-6874
▁myster	-6875
▁sweetheart	-6876
▁plac	-6877
sieds	-6878
▁Brit	-6879
▁Selon	-6880
▁sword	-6881
▁uncle	-6882
apprendre	-6883
▁Ren	-6884
▁certaines	-6885
adm	-6886
aché	-6887
▁trah	-6888
uction	-6889
▁cream	-6890
▁seemed	-6891
▁goodbye	-6892
▁Jésus	-6893
▁crise	-6894
▁knife	-6895
▁complete	-6896
▁lien	-6897
iaque	-6898
onstr	-6899
▁States	-6900
▁détails	-6901
occ	-6902
arrière	-6903
▁debout	-6904
▁hanging	-6905
itée	-6906
▁beauté	-6907
▁paying	-6908
▁murdered	-6909
neur	-6910
▁Doc	-6911
▁tim	-6912
▁Ten	-6913
▁Gary	-6914
fection	-6915
mn	-6916
▁Nor	-6917
▁Russ	-6918
veilleux	-6919
▁practice	-6920
▁Mau	-6921
▁nine	-6922
▁becom	-6923
▁retrait	-6924
zo	-6925
▁custom	-6926
▁hi	-6927
urse	-6928
▁Gal	-6929
▁built	-6930
▁cassé	-6931
▁shame	-6932
▁comprom	-6933
▁incident	-6934
▁noticed	-6935
▁merveilleux	-6936
▁Inc	-6937
▁crew	-6938
▁forcé	-6939
honneur	-6940
▁checked	-6941
▁Ac	-6942
▁Dom	-6943
▁Jay	-6944
▁Heure	-6945
▁lever	-6946
emmener	-6947
▁replace	-6948
èrent	-6949
▁Ari	-6950
vious	-6951
▁Santa	-6952
▁micro	-6953
▁driver	-6954
▁studio	-6955
ulé	-6956
idden	-6957
▁Julia	-6958
▁Cass	-6959
▁mêmes	-6960
▁Entrez	-6961
▁importante	-6962
RA	-6963
icer	-6964
allez	-6965
▁Messieurs	-6966
lée	-6967
▁dating	-6968
▁tribun	-6969
▁research	-6970
▁violent	-6971
rement	-6972
▁subject	-6973
ification	-6974
érais	-6975
▁excited	-6976
▁Excellent	-6977
▁Mi	-6978
▁caméra	-6979
▁develop	-6980
ED	-6981
ogan	-6982
▁Jew	-6983
▁jui	-6984
manda	-6985
▁Vegas	-6986
▁Maggie	-6987
▁whe	-6988
▁milk	-6989
ID	-6990
▁Dix	-6991
▁Chef	-6992
▁Major	-6993
▁avoid	-6994
▁spoke	-6995
▁attendant	-6996
▁Mec	-6997
▁Japan	-6998
▁rub	-6999
▁afin	-7000
▁leaves	-7001
ailleurs	-7002
nc	-7003
iger	-7004
▁coffre	-7005
▁couché	-7006
èner	-7007
▁Time	-7008
▁department	-7009
▁suppl	-7010
pa	-7011
▁Vol	-7012
▁mienne	-7013
▁messages	-7014
▁None	-7015
▁Wall	-7016
▁rang	-7017
cis	-7018
▁tuée	-7019
▁whose	-7020
▁descend	-7021
▁pourraient	-7022
6.	-7023
▁Jord	-7024
ado	-7025
leurs	-7026
▁Cole	-7027
ançais	-7028
▁reine	-7029
▁frappé	-7030
▁parlait	-7031
▁présence	-7032
▁totalement	-7033
oute	-7034
▁bear	-7035
▁45	-7036
▁magie	-7037
quet	-7038
oublie	-7039
▁invite	-7040
▁intéressant	-7041
▁neighborhood	-7042
▁Hot	-7043
▁Nik	-7044
▁Hell	-7045
▁cares	-7046
▁handsome	-7047
▁walked	-7048
▁actions	-7049
▁décider	-7050
▁Made	-7051
▁keys	-7052
▁Their	-7053
▁games	-7054
▁Somebody	-7055
ulte	-7056
▁Mmm	-7057
▁Beth	-7058
▁respe	-7059
owe	-7060
▁DNA	-7061
osses	-7062
▁Wood	-7063
▁parent	-7064
▁pourrai	-7065
▁données	-7066
▁surface	-7067
▁recherches	-7068
▁crimes	-7069
▁faible	-7070
▁moindre	-7071
attle	-7072
alcool	-7073
tect	-7074
itaire	-7075
▁Brown	-7076
▁papers	-7077
▁victims	-7078
▁mi	-7079
opping	-7080
▁parmi	-7081
9.	-7082
anne	-7083
▁Sen	-7084
▁parad	-7085
wers	-7086
▁Lâche	-7087
▁campagne	-7088
▁riv	-7089
▁famili	-7090
▁partenaire	-7091
▁Ceci	-7092
▁soldats	-7093
ivid	-7094
▁mille	-7095
▁sépar	-7096
▁Ladies	-7097
▁courir	-7098
▁monte	-7099
▁survive	-7100
▁rot	-7101
ipped	-7102
istan	-7103
▁excuses	-7104
▁numbers	-7105
▁fing	-7106
réable	-7107
▁failli	-7108
▁détruit	-7109
▁discours	-7110
▁copy	-7111
▁pleurer	-7112
▁meu	-7113
▁souvenirs	-7114
arp	-7115
▁smo	-7116
appell	-7117
▁balls	-7118
▁Howard	-7119
▁connard	-7120
▁rede	-7121
attraper	-7122
▁Art	-7123
▁rét	-7124
▁parties	-7125
▁held	-7126
▁Marshall	-7127
oner	-7128
êtres	-7129
▁corner	-7130
▁easier	-7131
▁comptes	-7132
▁écouter	-7133
cesse	-7134
▁ennuis	-7135
ivia	-7136
ivre	-7137
▁net	-7138
▁Hann	-7139
▁Lex	-7140
▁Celle	-7141
▁toast	-7142
▁criminal	-7143
espace	-7144
▁appré	-7145
▁absolutely	-7146
▁Pense	-7147
▁turns	-7148
▁labo	-7149
▁Cooper	-7150
▁interrog	-7151
olen	-7152
▁prud	-7153
▁Donna	-7154
▁sending	-7155
▁gé	-7156
▁cot	-7157
▁finalement	-7158
▁sen	-7159
▁mart	-7160
▁goût	-7161
▁screwed	-7162
▁fabri	-7163
▁chicken	-7164
▁especially	-7165
▁Nic	-7166
▁Honor	-7167
embr	-7168
becca	-7169
▁Texas	-7170
▁several	-7171
board	-7172
▁ideas	-7173
ador	-7174
issa	-7175
▁fourn	-7176
▁teeth	-7177
heureusement	-7178
▁Han	-7179
▁dry	-7180
entend	-7181
▁Queen	-7182
▁earlier	-7183
▁accepter	-7184
▁blo	-7185
issant	-7186
▁powerful	-7187
aval	-7188
▁pause	-7189
▁jardin	-7190
▁conduit	-7191
▁cér	-7192
▁jeté	-7193
▁dick	-7194
gré	-7195
org	-7196
urtout	-7197
▁gérer	-7198
▁quitte	-7199
▁letting	-7200
▁occasion	-7201
ordon	-7202
▁Maître	-7203
▁breakfast	-7204
itif	-7205
mother	-7206
▁partager	-7207
van	-7208
rape	-7209
▁mouve	-7210
▁mél	-7211
▁compter	-7212
ieve	-7213
asing	-7214
▁lett	-7215
▁lorsque	-7216
▁morceau	-7217
▁whether	-7218
haut	-7219
oirs	-7220
▁ignor	-7221
▁Surtout	-7222
▁réparer	-7223
otter	-7224
▁compet	-7225
lley	-7226
▁Trans	-7227
▁affect	-7228
▁sweetie	-7229
▁adorable	-7230
▁devrions	-7231
▁Apparently	-7232
▁Julie	-7233
▁succès	-7234
▁papiers	-7235
eté	-7236
▁nord	-7237
▁Assez	-7238
▁gorge	-7239
▁avance	-7240
▁heaven	-7241
athy	-7242
▁Gen	-7243
▁foutu	-7244
▁forced	-7245
▁raconter	-7246
▁Cut	-7247
▁étoi	-7248
▁adore	-7249
▁ambulance	-7250
▁comfortable	-7251
OS	-7252
▁soft	-7253
▁démén	-7254
▁agreed	-7255
▁stayed	-7256
âte	-7257
▁Sol	-7258
▁vom	-7259
▁Majesty	-7260
In	-7261
▁rad	-7262
âchez	-7263
▁mode	-7264
itesse	-7265
▁sales	-7266
▁tante	-7267
▁Appelez	-7268
▁1,	-7269
▁Lib	-7270
▁Sors	-7271
▁balles	-7272
▁faveur	-7273
▁tickets	-7274
▁bringing	-7275
▁champion	-7276
▁opération	-7277
▁Especially	-7278
▁commandant	-7279
▁Sous	-7280
époque	-7281
▁Tyler	-7282
▁Jackie	-7283
▁territ	-7284
▁demandais	-7285
romp	-7286
▁proof	-7287
▁porn	-7288
▁doigts	-7289
▁urgent	-7290
▁couverture	-7291
▁Ask	-7292
▁Hay	-7293
▁Andrew	-7294
▁engine	-7295
▁langue	-7296
▁conduis	-7297
▁fab	-7298
▁sky	-7299
aving	-7300
▁Gabri	-7301
▁Sweet	-7302
▁loyal	-7303
▁Absolument	-7304
mont	-7305
▁Dick	-7306
▁feed	-7307
▁champagne	-7308
ômes	-7309
asons	-7310
▁mail	-7311
ruction	-7312
▁tribunal	-7313
acte	-7314
▁Lucas	-7315
▁collèg	-7316
▁cards	-7317
▁mut	-7318
▁clés	-7319
▁appoint	-7320
▁afford	-7321
▁artist	-7322
▁Perhaps	-7323
▁Rebecca	-7324
eil	-7325
▁sourire	-7326
▁Elizabeth	-7327
▁gentleman	-7328
▁80	-7329
fuck	-7330
▁beach	-7331
▁résultats	-7332
rek	-7333
▁câ	-7334
▁scr	-7335
ascin	-7336
▁Aust	-7337
▁chiens	-7338
▁Follow	-7339
▁Oliver	-7340
▁couleur	-7341
aph	-7342
▁Coll	-7343
▁anti	-7344
▁compét	-7345
▁Asseyez	-7346
▁created	-7347
▁East	-7348
▁salope	-7349
▁Vincent	-7350
icon	-7351
ilar	-7352
▁fréqu	-7353
raction	-7354
▁aj	-7355
oncé	-7356
ueill	-7357
▁privé	-7358
▁chasse	-7359
▁obligé	-7360
▁falloir	-7361
▁student	-7362
▁written	-7363
▁bran	-7364
▁coach	-7365
▁passée	-7366
▁ruined	-7367
▁commerci	-7368
acu	-7369
▁lè	-7370
▁trag	-7371
essaye	-7372
▁design	-7373
aled	-7374
▁Air	-7375
▁math	-7376
▁soud	-7377
▁Jesse	-7378
▁ug	-7379
Th	-7380
▁Rec	-7381
asseoir	-7382
▁remove	-7383
▁Yo	-7384
empl	-7385
rick	-7386
▁jal	-7387
▁raté	-7388
▁confident	-7389
▁reprendre	-7390
▁connection	-7391
▁rapidement	-7392
▁Run	-7393
▁natural	-7394
IE	-7395
▁Num	-7396
atter	-7397
▁Johnson	-7398
▁original	-7399
▁Commander	-7400
▁tox	-7401
▁plate	-7402
▁gâteau	-7403
▁bouteille	-7404
lls	-7405
▁coinc	-7406
atell	-7407
▁coupe	-7408
▁créer	-7409
▁bridge	-7410
▁Londres	-7411
▁viendra	-7412
aser	-7413
▁toit	-7414
▁lâche	-7415
intéresse	-7416
▁pool	-7417
Tu	-7418
ols	-7419
▁clown	-7420
▁impro	-7421
▁Amanda	-7422
▁entraî	-7423
attendais	-7424
▁Charlotte	-7425
isted	-7426
aginer	-7427
▁Soyez	-7428
▁Friday	-7429
▁operation	-7430
bot	-7431
.....	-7432
▁créd	-7433
▁collection	-7434
▁lac	-7435
▁siè	-7436
▁wat	-7437
aule	-7438
aments	-7439
▁salaud	-7440
utiliser	-7441
▁colonel	-7442
▁purpose	-7443
icy	-7444
▁oise	-7445
envoyer	-7446
▁bleu	-7447
▁matters	-7448
▁Bull	-7449
▁naked	-7450
▁existe	-7451
▁transfer	-7452
anks	-7453
attendre	-7454
mos	-7455
ators	-7456
▁Case	-7457
▁Again	-7458
▁adult	-7459
▁écout	-7460
▁sexual	-7461
die	-7462
▁sud	-7463
ielle	-7464
▁cars	-7465
▁bottom	-7466
▁Enough	-7467
▁damage	-7468
▁expecting	-7469
▁shirt	-7470
▁membres	-7471
▁meat	-7472
▁développ	-7473
▁murderer	-7474
▁soldiers	-7475
ital	-7476
IM	-7477
▁ille	-7478
▁poche	-7479
▁itself	-7480
▁soldat	-7481
▁compren	-7482
▁Lucy	-7483
▁Satur	-7484
▁poisson	-7485
udes	-7486
▁Garde	-7487
▁utile	-7488
▁challen	-7489
usc	-7490
▁couch	-7491
▁flowers	-7492
OL	-7493
égl	-7494
▁Mir	-7495
icule	-7496
▁golf	-7497
pisode	-7498
étaient	-7499
▁également	-7500
▁Jordan	-7501
▁méchant	-7502
▁souhaite	-7503
▁caché	-7504
▁lance	-7505
▁total	-7506
▁speech	-7507
▁therap	-7508
▁Apparemment	-7509
autor	-7510
ays	-7511
▁Crois	-7512
▁prendra	-7513
yond	-7514
▁Pass	-7515
▁files	-7516
éde	-7517
▁Clay	-7518
▁queen	-7519
▁troisième	-7520
▁repe	-7521
▁shower	-7522
fle	-7523
▁pièces	-7524
▁changes	-7525
▁results	-7526
▁uns	-7527
▁pill	-7528
▁reve	-7529
iverse	-7530
▁Helen	-7531
▁above	-7532
▁envoy	-7533
▁repart	-7534
▁faudrait	-7535
▁lour	-7536
▁upon	-7537
▁Simp	-7538
▁Sunday	-7539
▁empêcher	-7540
▁inqu	-7541
▁national	-7542
▁recevoir	-7543
▁Fire	-7544
▁view	-7545
▁stolen	-7546
▁pin	-7547
▁hearing	-7548
▁produit	-7549
▁DO	-7550
ètre	-7551
▁Eli	-7552
▁paqu	-7553
▁pitié	-7554
▁souci	-7555
▁Prêt	-7556
▁montré	-7557
▁greatest	-7558
auras	-7559
▁Betty	-7560
gged	-7561
hetic	-7562
▁speed	-7563
▁Joseph	-7564
▁pleure	-7565
▁accepté	-7566
▁dropped	-7567
▁lettres	-7568
▁comporte	-7569
ula	-7570
▁Men	-7571
otions	-7572
▁extraordin	-7573
Unis	-7574
oign	-7575
▁Lew	-7576
▁Hard	-7577
▁basket	-7578
▁Mesdames	-7579
ceed	-7580
▁Gil	-7581
▁gardes	-7582
▁membre	-7583
▁parfaite	-7584
▁Cas	-7585
▁suic	-7586
▁freed	-7587
▁Hill	-7588
▁grab	-7589
▁certainly	-7590
▁obviously	-7591
II	-7592
▁écoutez	-7593
▁emotion	-7594
▁painting	-7595
▁possibil	-7596
▁procureur	-7597
change	-7598
▁barre	-7599
▁ciném	-7600
chi	-7601
iper	-7602
▁Mic	-7603
▁fucked	-7604
▁animaux	-7605
▁lately	-7606
▁character	-7607
▁Fel	-7608
▁lif	-7609
▁réel	-7610
▁accomp	-7611
▁strang	-7612
ingo	-7613
▁dies	-7614
▁vendu	-7615
▁2.	-7616
oublier	-7617
▁calcul	-7618
▁training	-7619
èbre	-7620
IR	-7621
âtre	-7622
ottes	-7623
écile	-7624
▁sees	-7625
▁distrib	-7626
▁propose	-7627
▁provo	-7628
ibi	-7629
pie	-7630
▁opened	-7631
▁complain	-7632
▁concerne	-7633
It	-7634
▁199	-7635
jection	-7636
▁idiots	-7637
▁dancing	-7638
▁laughing	-7639
▁convaincre	-7640
amuser	-7641
▁déter	-7642
▁Virgin	-7643
▁Caroline	-7644
▁exception	-7645
riv	-7646
▁Doug	-7647
▁deter	-7648
▁sorci	-7649
%.	-7650
UT	-7651
col	-7652
▁90	-7653
agez	-7654
minist	-7655
istance	-7656
▁négoci	-7657
aki	-7658
▁attendu	-7659
▁faisant	-7660
écl	-7661
oler	-7662
▁Law	-7663
▁arrang	-7664
▁disant	-7665
▁débrou	-7666
▁images	-7667
▁voulons	-7668
lock	-7669
▁Rev	-7670
▁marre	-7671
▁hired	-7672
mpe	-7673
▁Sui	-7674
▁focus	-7675
▁resté	-7676
▁connait	-7677
▁gentille	-7678
▁memories	-7679
IG	-7680
▁chier	-7681
▁valeur	-7682
▁responsibility	-7683
▁lend	-7684
▁size	-7685
though	-7686
▁analys	-7687
▁hasard	-7688
▁sépare	-7689
▁Kir	-7690
▁Wils	-7691
win	-7692
▁roof	-7693
▁aveug	-7694
▁jambe	-7695
▁complex	-7696
affe	-7697
▁bab	-7698
▁Expl	-7699
▁révél	-7700
iest	-7701
▁Anne	-7702
▁soldier	-7703
▁lat	-7704
▁Harvey	-7705
▁farm	-7706
▁Brook	-7707
▁parlais	-7708
▁Cat	-7709
église	-7710
▁coul	-7711
▁dogs	-7712
▁excl	-7713
▁godd	-7714
▁mètres	-7715
▁install	-7716
▁burned	-7717
ervation	-7718
▁km	-7719
oston	-7720
▁Life	-7721
▁spec	-7722
ground	-7723
inform	-7724
▁donnez	-7725
uise	-7726
▁river	-7727
▁animals	-7728
And	-7729
▁Miam	-7730
▁finds	-7731
▁réalisé	-7732
Ch	-7733
▁aid	-7734
▁bene	-7735
énergie	-7736
▁signer	-7737
ening	-7738
▁Young	-7739
▁pratique	-7740
▁directement	-7741
▁Ies	-7742
▁wild	-7743
▁Os	-7744
▁Wayne	-7745
▁heavy	-7746
▁cheese	-7747
▁incred	-7748
▁Bay	-7749
iants	-7750
▁Catherine	-7751
cker	-7752
down	-7753
▁Ouv	-7754
écouter	-7755
▁flu	-7756
cohol	-7757
▁Jere	-7758
espoir	-7759
▁cases	-7760
▁Pretty	-7761
ario	-7762
uding	-7763
▁lies	-7764
▁While	-7765
▁among	-7766
▁saura	-7767
▁Doucement	-7768
▁rate	-7769
▁salut	-7770
▁encour	-7771
▁finding	-7772
▁reporter	-7773
▁CH	-7774
oulez	-7775
▁Parle	-7776
▁grandi	-7777
▁attacked	-7778
▁represent	-7779
ona	-7780
rus	-7781
you	-7782
▁transp	-7783
▁Hal	-7784
▁tal	-7785
▁contrôler	-7786
▁tiss	-7787
▁center	-7788
▁funeral	-7789
ograp	-7790
▁Anton	-7791
▁équip	-7792
▁retire	-7793
gra	-7794
how	-7795
▁Sav	-7796
▁ends	-7797
▁rose	-7798
▁attrap	-7799
▁weight	-7800
▁Dét	-7801
ledge	-7802
▁Monte	-7803
▁batter	-7804
ring	-7805
▁culture	-7806
ination	-7807
AY	-7808
Il	-7809
▁Jen	-7810
icles	-7811
▁Sing	-7812
▁bâtiment	-7813
▁voitures	-7814
▁inconn	-7815
▁process	-7816
▁ugly	-7817
▁trouvez	-7818
▁hack	-7819
▁doors	-7820
▁plage	-7821
▁nouvel	-7822
université	-7823
aura	-7824
▁Must	-7825
▁crow	-7826
▁côtés	-7827
▁mandat	-7828
▁Chinese	-7829
▁general	-7830
▁occuper	-7831
▁magazine	-7832
▁LE	-7833
ival	-7834
entrée	-7835
▁Bruce	-7836
▁Sat	-7837
▁poids	-7838
▁satell	-7839
▁pourrez	-7840
▁Rad	-7841
assure	-7842
▁Silence	-7843
▁awesome	-7844
▁Saturday	-7845
tein	-7846
▁neu	-7847
▁imb	-7848
lection	-7849
▁débarrasser	-7850
mat	-7851
obs	-7852
▁Professor	-7853
▁plaisante	-7854
▁Justin	-7855
▁Marcus	-7856
▁document	-7857
sp	-7858
▁gosses	-7859
▁progress	-7860
▁abandonné	-7861
omach	-7862
▁prim	-7863
▁envoie	-7864
▁trouvée	-7865
▁introduce	-7866
▁disappeared	-7867
AC	-7868
▁suddenly	-7869
▁expérience	-7870
▁.	-7871
▁appelez	-7872
▁usual	-7873
▁Island	-7874
▁garant	-7875
▁tempor	-7876
▁fiancée	-7877
▁selling	-7878
▁downstairs	-7879
aded	-7880
▁ense	-7881
▁Derek	-7882
▁relie	-7883
▁naissance	-7884
▁adj	-7885
▁vus	-7886
▁awful	-7887
▁piège	-7888
▁plenty	-7889
▁turning	-7890
▁Poor	-7891
▁Boston	-7892
▁announ	-7893
▁appear	-7894
▁particip	-7895
▁Int	-7896
ushing	-7897
▁fesses	-7898
▁physique	-7899
▁cu	-7900
sons	-7901
▁Gray	-7902
▁cure	-7903
▁cadav	-7904
▁doigt	-7905
▁lights	-7906
▁whoever	-7907
▁universe	-7908
essa	-7909
rale	-7910
▁chim	-7911
▁Thing	-7912
▁casser	-7913
▁desk	-7914
▁joie	-7915
▁Better	-7916
▁Reg	-7917
▁chin	-7918
▁méch	-7919
▁infos	-7920
▁robot	-7921
▁Miller	-7922
▁cinéma	-7923
▁ressens	-7924
orted	-7925
▁remb	-7926
▁brief	-7927
▁schedu	-7928
▁proches	-7929
▁cruel	-7930
▁salon	-7931
▁details	-7932
▁rappelles	-7933
nam	-7934
▁ay	-7935
aler	-7936
▁Belle	-7937
▁aware	-7938
▁chest	-7939
▁create	-7940
▁bataille	-7941
tle	-7942
érez	-7943
▁fal	-7944
▁suc	-7945
avenir	-7946
giving	-7947
▁casse	-7948
▁désir	-7949
▁caused	-7950
▁cabinet	-7951
▁individ	-7952
▁regrette	-7953
▁cho	-7954
▁sach	-7955
▁psychi	-7956
anchement	-7957
▁Cop	-7958
▁langu	-7959
▁pieces	-7960
icieux	-7961
▁haute	-7962
Ne	-7963
,000.	-7964
▁Molly	-7965
▁aimez	-7966
▁heads	-7967
▁senti	-7968
essayer	-7969
▁flying	-7970
▁marque	-7971
goti	-7972
iana	-7973
orney	-7974
▁cage	-7975
ashion	-7976
▁Wilson	-7977
ouses	-7978
▁Cinq	-7979
▁douche	-7980
▁restez	-7981
▁starts	-7982
▁Continue	-7983
▁equ	-7984
▁cris	-7985
▁Nouve	-7986
▁Olivia	-7987
▁spread	-7988
▁°	-7989
▁rout	-7990
▁beaux	-7991
▁lancer	-7992
▁offert	-7993
éh	-7994
▁Div	-7995
▁Club	-7996
▁fermé	-7997
▁model	-7998
▁règle	-7999
▁séd	-8000
▁baseball	-8001
▁Lance	-8002
▁rav	-8003
▁desp	-8004
▁borrow	-8005
▁prévenir	-8006
etch	-8007
▁chap	-8008
▁sooner	-8009
▁balance	-8010
▁inutile	-8011
▁Blue	-8012
▁pomp	-8013
▁pron	-8014
▁dossiers	-8015
orp	-8016
▁Aidez	-8017
▁piano	-8018
▁brings	-8019
▁disgusting	-8020
érit	-8021
▁Rem	-8022
▁escap	-8023
▁former	-8024
▁Jessica	-8025
▁nettoyer	-8026
▁photograph	-8027
éros	-8028
attaque	-8029
▁semblant	-8030
état	-8031
▁ult	-8032
▁Fort	-8033
▁loup	-8034
▁Carlos	-8035
kn	-8036
▁insane	-8037
▁Tonight	-8038
▁Res	-8039
▁Miami	-8040
pro	-8041
gnez	-8042
▁thro	-8043
▁spell	-8044
▁Montre	-8045
▁ramène	-8046
▁tombée	-8047
▁condamn	-8048
▁perte	-8049
▁enregist	-8050
▁documents	-8051
mons	-8052
bed	-8053
hib	-8054
oren	-8055
▁exec	-8056
▁sentence	-8057
▁30.	-8058
▁Fall	-8059
▁chapeau	-8060
▁doucement	-8061
anner	-8062
geance	-8063
▁attemp	-8064
▁confess	-8065
round	-8066
▁Bell	-8067
▁jeux	-8068
▁pierre	-8069
▁grandes	-8070
▁volonté	-8071
▁discussion	-8072
erver	-8073
▁Marg	-8074
ommand	-8075
enquête	-8076
▁beyond	-8077
▁Préc	-8078
▁piég	-8079
▁older	-8080
ima	-8081
cale	-8082
▁tie	-8083
▁deli	-8084
▁infirm	-8085
▁Majesté	-8086
▁certainement	-8087
On	-8088
▁advant	-8089
▁saviez	-8090
IL	-8091
ffer	-8092
mate	-8093
orde	-8094
▁198	-8095
▁Enchant	-8096
▁Christian	-8097
No	-8098
itor	-8099
▁members	-8100
▁superbe	-8101
▁médicaments	-8102
azz	-8103
What	-8104
▁créé	-8105
▁rense	-8106
▁crains	-8107
▁humili	-8108
▁signed	-8109
▁adresse	-8110
▁réveiller	-8111
oto	-8112
▁Sû	-8113
atures	-8114
ouille	-8115
▁failed	-8116
▁retirer	-8117
uns	-8118
▁35	-8119
isez	-8120
▁Spr	-8121
éroport	-8122
▁empreintes	-8123
▁surveiller	-8124
agan	-8125
▁oeil	-8126
▁génie	-8127
▁préci	-8128
▁serons	-8129
▁humaine	-8130
bum	-8131
phy	-8132
▁PR	-8133
pent	-8134
▁tex	-8135
▁Stone	-8136
▁manif	-8137
▁biggest	-8138
▁répondu	-8139
▁sucks	-8140
▁joindre	-8141
▁intention	-8142
onst	-8143
▁Magn	-8144
ormais	-8145
▁autom	-8146
▁const	-8147
occasion	-8148
▁cigarette	-8149
▁map	-8150
▁devenue	-8151
▁release	-8152
▁suspects	-8153
mbre	-8154
tered	-8155
▁kicked	-8156
▁traitement	-8157
fit	-8158
ointed	-8159
ources	-8160
▁deven	-8161
▁reasons	-8162
▁tru	-8163
icans	-8164
▁chiff	-8165
▁essaye	-8166
▁theory	-8167
▁believed	-8168
▁principal	-8169
▁jo	-8170
etime	-8171
▁conte	-8172
▁member	-8173
▁tunnel	-8174
▁clearly	-8175
esh	-8176
▁Pai	-8177
▁Slow	-8178
▁loss	-8179
He	-8180
▁Na	-8181
rase	-8182
rian	-8183
▁mai	-8184
case	-8185
▁Suis	-8186
▁Ainsi	-8187
▁extre	-8188
▁insist	-8189
▁forgotten	-8190
▁lord	-8191
▁mood	-8192
▁wash	-8193
▁disci	-8194
▁refus	-8195
▁reposer	-8196
▁vitesse	-8197
▁compliqué	-8198
▁fâ	-8199
erais	-8200
cemment	-8201
intention	-8202
▁location	-8203
▁1.	-8204
▁Forg	-8205
▁Mill	-8206
▁tele	-8207
▁boule	-8208
▁passes	-8209
▁ordered	-8210
▁dort	-8211
▁scare	-8212
▁stomach	-8213
▁gre	-8214
▁oil	-8215
▁Grant	-8216
▁Gentle	-8217
▁cauche	-8218
▁reality	-8219
▁appointment	-8220
aume	-8221
itez	-8222
▁Voulez	-8223
▁commiss	-8224
▁évident	-8225
▁souvenez	-8226
arante	-8227
▁fruit	-8228
▁vérifié	-8229
▁signature	-8230
éder	-8231
▁Fre	-8232
iétez	-8233
▁Gordon	-8234
▁Matthew	-8235
▁detective	-8236
aver	-8237
gnes	-8238
▁license	-8239
▁attitude	-8240
▁professional	-8241
▁Linda	-8242
▁students	-8243
▁pert	-8244
▁entré	-8245
▁pounds	-8246
▁breathe	-8247
érieusement	-8248
ombre	-8249
▁viande	-8250
▁nowhere	-8251
▁ouverte	-8252
▁pouvoirs	-8253
▁Nate	-8254
▁persu	-8255
▁director	-8256
?!	-8257
euble	-8258
▁capac	-8259
▁défin	-8260
▁subst	-8261
▁augment	-8262
▁milliers	-8263
▁Parker	-8264
▁beauty	-8265
▁vacation	-8266
ashed	-8267
▁habitu	-8268
▁poulet	-8269
▁suffer	-8270
espérais	-8271
quent	-8272
▁Andre	-8273
▁flash	-8274
▁pocket	-8275
▁deliver	-8276
▁feras	-8277
▁noise	-8278
▁consult	-8279
▁AND	-8280
▁battu	-8281
▁confl	-8282
▁storm	-8283
▁breaking	-8284
ints	-8285
▁retraite	-8286
âme	-8287
▁firm	-8288
▁absur	-8289
▁discovered	-8290
▁kilom	-8291
▁fascin	-8292
▁perhaps	-8293
organ	-8294
▁queu	-8295
▁priest	-8296
▁speaking	-8297
bly	-8298
hen	-8299
▁fed	-8300
▁jerk	-8301
▁Chéri	-8302
▁sauve	-8303
▁Ouvrez	-8304
ori	-8305
iral	-8306
ivez	-8307
▁Die	-8308
▁din	-8309
We	-8310
yth	-8311
▁Sum	-8312
▁Hope	-8313
▁Nord	-8314
▁mark	-8315
▁Jamie	-8316
▁moral	-8317
▁disturb	-8318
▁Ã	-8319
▁Gibbs	-8320
▁World	-8321
▁rappel	-8322
▁inquiétez	-8323
like	-8324
énom	-8325
▁Light	-8326
▁perds	-8327
▁defense	-8328
tan	-8329
illée	-8330
▁grav	-8331
▁Inter	-8332
▁torture	-8333
▁amoureuse	-8334
▁butt	-8335
▁remp	-8336
▁Walker	-8337
bie	-8338
quin	-8339
▁Aunt	-8340
▁Toby	-8341
▁labor	-8342
▁Grandma	-8343
▁Bas	-8344
▁traff	-8345
▁defend	-8346
appelles	-8347
▁fantôme	-8348
▁concerned	-8349
aret	-8350
ained	-8351
chose	-8352
eures	-8353
▁Edward	-8354
▁anglais	-8355
▁demandes	-8356
▁prepared	-8357
▁conditions	-8358
lam	-8359
ingt	-8360
rive	-8361
▁Met	-8362
▁Team	-8363
▁crash	-8364
▁Fucking	-8365
▁statement	-8366
▁connaissance	-8367
iley	-8368
▁Tar	-8369
▁Roman	-8370
▁guide	-8371
▁matéri	-8372
▁paquet	-8373
▁doctors	-8374
▁Tam	-8375
fered	-8376
▁enqu	-8377
▁Êtes	-8378
▁Angela	-8379
▁protoc	-8380
▁cave	-8381
▁legal	-8382
▁noire	-8383
▁falling	-8384
▁agréable	-8385
▁insurance	-8386
▁reconnaiss	-8387
ende	-8388
erial	-8389
iring	-8390
▁Chez	-8391
▁Send	-8392
ateful	-8393
▁folie	-8394
▁parts	-8395
▁vieil	-8396
▁Sophie	-8397
▁billets	-8398
▁warr	-8399
▁sauce	-8400
opération	-8401
importance	-8402
▁tab	-8403
érant	-8404
▁trap	-8405
▁circum	-8406
▁Brother	-8407
▁Russian	-8408
▁planned	-8409
agon	-8410
▁cess	-8411
▁rasse	-8412
▁rever	-8413
▁pantalon	-8414
▁positive	-8415
▁laisserai	-8416
PS	-8417
▁led	-8418
excuse	-8419
▁option	-8420
▁défendre	-8421
▁shopping	-8422
mit	-8423
èse	-8424
▁devil	-8425
▁buying	-8426
▁offrir	-8427
Oh	-8428
▁accès	-8429
▁formid	-8430
▁sne	-8431
▁Davis	-8432
▁Aw	-8433
laus	-8434
▁Bert	-8435
▁Juli	-8436
▁saving	-8437
▁chevaux	-8438
▁grandmother	-8439
▁parfaitement	-8440
uée	-8441
lake	-8442
▁alcohol	-8443
▁freedom	-8444
▁victoire	-8445
▁Thanksgiving	-8446
UE	-8447
érés	-8448
▁Mos	-8449
onses	-8450
▁coincé	-8451
▁faster	-8452
▁conséqu	-8453
ipe	-8454
▁féd	-8455
▁Vince	-8456
▁moyens	-8457
▁mensonge	-8458
▁sympt	-8459
▁Lâchez	-8460
▁dealer	-8461
édie	-8462
▁brut	-8463
▁gren	-8464
▁paint	-8465
▁quant	-8466
▁Frankie	-8467
ardi	-8468
▁Ceux	-8469
▁punish	-8470
▁mauvaises	-8471
▁pourrions	-8472
▁mén	-8473
rimer	-8474
▁frag	-8475
▁guit	-8476
▁whoa	-8477
▁Brand	-8478
▁Assieds	-8479
▁soutien	-8480
En	-8481
▁cere	-8482
▁dira	-8483
▁malin	-8484
▁maxim	-8485
▁risques	-8486
▁Ho	-8487
arge	-8488
▁Rand	-8489
▁meth	-8490
▁riches	-8491
▁Sally	-8492
▁panne	-8493
▁couche	-8494
▁influence	-8495
edy	-8496
oudre	-8497
▁grown	-8498
▁fingers	-8499
▁crét	-8500
▁chale	-8501
▁repos	-8502
▁droits	-8503
oust	-8504
extérieur	-8505
▁survivre	-8506
▁Sérieusement	-8507
▁Mère	-8508
▁Nina	-8509
▁terme	-8510
▁section	-8511
NE	-8512
bur	-8513
▁Mexico	-8514
▁Steven	-8515
▁desper	-8516
▁genius	-8517
▁Barbara	-8518
▁blesser	-8519
oman	-8520
rict	-8521
▁traf	-8522
▁guéri	-8523
▁north	-8524
▁arrivés	-8525
▁perfectly	-8526
OW	-8527
▁SE	-8528
▁Leur	-8529
▁connect	-8530
▁commission	-8531
OUR	-8532
▁unit	-8533
empêcher	-8534
▁Forgive	-8535
▁instinct	-8536
iko	-8537
▁Face	-8538
▁diss	-8539
▁bague	-8540
▁safety	-8541
▁témoins	-8542
▁semblait	-8543
ders	-8544
▁phil	-8545
car	-8546
adow	-8547
uste	-8548
iling	-8549
▁Play	-8550
▁ennemis	-8551
▁raconte	-8552
ba	-8553
▁Pose	-8554
▁tat	-8555
izing	-8556
▁merveille	-8557
uve	-8558
oeil	-8559
quée	-8560
▁Randy	-8561
▁chass	-8562
▁revenge	-8563
▁militaire	-8564
bey	-8565
fia	-8566
gging	-8567
▁Ever	-8568
atives	-8569
▁nurse	-8570
▁commen	-8571
▁advantage	-8572
▁Ital	-8573
▁aies	-8574
▁collect	-8575
no	-8576
cho	-8577
ensé	-8578
▁ventre	-8579
▁Unfortunately	-8580
entraî	-8581
envoie	-8582
▁massac	-8583
▁réponses	-8584
▁explosion	-8585
▁importance	-8586
olo	-8587
▁27	-8588
▁Katie	-8589
▁fract	-8590
▁chante	-8591
auc	-8592
asha	-8593
▁Sue	-8594
belie	-8595
▁fate	-8596
▁silly	-8597
▁product	-8598
▁réveille	-8599
▁zomb	-8600
▁buried	-8601
▁devraient	-8602
amie	-8603
dict	-8604
▁éte	-8605
▁démon	-8606
▁current	-8607
▁offered	-8608
icia	-8609
arrêt	-8610
▁Russe	-8611
▁Terry	-8612
▁vrais	-8613
▁parlant	-8614
▁showing	-8615
▁regardes	-8616
bit	-8617
jou	-8618
▁Bord	-8619
▁Buck	-8620
▁drinks	-8621
▁apporter	-8622
▁Mu	-8623
▁vôtre	-8624
▁trouvera	-8625
▁community	-8626
raine	-8627
▁Desc	-8628
▁Start	-8629
▁Valent	-8630
▁boring	-8631
▁Leonard	-8632
▁Officer	-8633
outs	-8634
▁sin	-8635
▁guer	-8636
▁assign	-8637
▁letters	-8638
▁san	-8639
▁Linc	-8640
▁armée	-8641
▁answers	-8642
▁permettre	-8643
▁appelée	-8644
▁Gentlemen	-8645
▁Roi	-8646
▁opening	-8647
▁received	-8648
▁Old	-8649
▁powers	-8650
▁américain	-8651
asant	-8652
▁Serv	-8653
▁obtenu	-8654
▁machines	-8655
imer	-8656
▁Nom	-8657
▁unc	-8658
▁coupé	-8659
▁mariés	-8660
▁celebrate	-8661
abor	-8662
▁dish	-8663
▁déranger	-8664
▁Francisco	-8665
▁Savez	-8666
▁amusant	-8667
▁reconna	-8668
▁auraient	-8669
erc	-8670
▁vache	-8671
érieure	-8672
▁obst	-8673
appart	-8674
▁flingue	-8675
awa	-8676
ming	-8677
▁fuir	-8678
▁méth	-8679
▁Diane	-8680
▁diagn	-8681
▁loser	-8682
adresse	-8683
▁robber	-8684
▁illegal	-8685
oln	-8686
uring	-8687
▁snow	-8688
ernité	-8689
▁Améric	-8690
▁ashamed	-8691
▁dealing	-8692
▁Up	-8693
▁197	-8694
▁pit	-8695
bling	-8696
iston	-8697
▁bang	-8698
▁enem	-8699
▁sain	-8700
isible	-8701
▁trail	-8702
▁obvious	-8703
▁laid	-8704
▁avert	-8705
▁covered	-8706
▁familles	-8707
born	-8708
umer	-8709
▁fans	-8710
▁belles	-8711
▁différents	-8712
feu	-8713
▁Passe	-8714
▁Secret	-8715
▁whore	-8716
▁appell	-8717
▁nights	-8718
▁laisses	-8719
▁théorie	-8720
CT	-8721
▁bid	-8722
▁Denn	-8723
▁pissed	-8724
intéress	-8725
▁blanche	-8726
▁vice	-8727
▁scand	-8728
▁Either	-8729
▁Things	-8730
▁Quelques	-8731
èves	-8732
acles	-8733
00.	-8734
dis	-8735
rences	-8736
▁celles	-8737
▁récomp	-8738
▁Hollywood	-8739
▁princesse	-8740
usions	-8741
▁Casey	-8742
▁Chloe	-8743
▁uniform	-8744
▁expensive	-8745
▁connaissais	-8746
▁Cra	-8747
▁illég	-8748
âge	-8749
▁amies	-8750
▁lesson	-8751
▁partez	-8752
ware	-8753
▁bloc	-8754
▁grill	-8755
▁shape	-8756
épouser	-8757
▁Veu	-8758
▁Guess	-8759
▁théra	-8760
nels	-8761
âteau	-8762
▁merc	-8763
▁gross	-8764
▁Joyeux	-8765
▁negoti	-8766
▁commande	-8767
▁meurtres	-8768
aviez	-8769
▁loud	-8770
▁liter	-8771
▁jacket	-8772
▁nerveux	-8773
▁technique	-8774
▁réellement	-8775
roc	-8776
▁Hannah	-8777
▁disease	-8778
▁demandez	-8779
iac	-8780
▁Év	-8781
augh	-8782
isés	-8783
allow	-8784
▁Hong	-8785
▁débar	-8786
▁fatigué	-8787
▁Pan	-8788
▁goû	-8789
worth	-8790
lément	-8791
▁analy	-8792
▁queue	-8793
▁enlever	-8794
▁audience	-8795
ota	-8796
ases	-8797
▁Conf	-8798
▁Hale	-8799
▁coma	-8800
▁Logan	-8801
▁mesure	-8802
▁Aug	-8803
▁crâ	-8804
avance	-8805
▁strike	-8806
▁pardonner	-8807
▁œu	-8808
cean	-8809
éroï	-8810
▁agir	-8811
▁coch	-8812
▁iron	-8813
▁State	-8814
▁badge	-8815
▁punch	-8816
▁cellule	-8817
▁célèbre	-8818
▁useless	-8819
▁throwing	-8820
▁véritable	-8821
scar	-8822
▁Always	-8823
▁enlevé	-8824
▁dommage	-8825
▁bleeding	-8826
▁commander	-8827
inquiéter	-8828
▁chocolat	-8829
▁Previously	-8830
▁mel	-8831
apper	-8832
▁Inte	-8833
▁Jeremy	-8834
▁ancien	-8835
▁frappe	-8836
▁shérif	-8837
piration	-8838
▁Hier	-8839
▁ears	-8840
▁Petit	-8841
▁Mond	-8842
▁avoc	-8843
▁hâte	-8844
▁Jacob	-8845
▁gardé	-8846
▁witch	-8847
▁belongs	-8848
▁48	-8849
ilité	-8850
▁lines	-8851
▁propriétaire	-8852
▁veh	-8853
isher	-8854
▁grew	-8855
▁split	-8856
▁passera	-8857
▁arranger	-8858
onny	-8859
onnée	-8860
▁fest	-8861
▁trésor	-8862
▁Raymond	-8863
enser	-8864
▁Boss	-8865
▁stre	-8866
estion	-8867
▁Quinn	-8868
▁Teddy	-8869
▁Atlant	-8870
▁douce	-8871
▁flipp	-8872
onnement	-8873
alog	-8874
▁traî	-8875
▁vienne	-8876
nis	-8877
▁Kr	-8878
▁Mommy	-8879
▁forêt	-8880
▁changement	-8881
agers	-8882
▁Bref	-8883
▁Marty	-8884
▁invités	-8885
▁touched	-8886
▁fid	-8887
▁gym	-8888
▁Under	-8889
▁établ	-8890
▁agress	-8891
▁Otherwise	-8892
ads	-8893
▁Sad	-8894
▁react	-8895
▁Shh	-8896
ublic	-8897
▁Camp	-8898
▁tong	-8899
ainement	-8900
▁enemies	-8901
▁leçon	-8902
enfants	-8903
▁2,	-8904
▁Naz	-8905
antha	-8906
▁épouse	-8907
omen	-8908
ords	-8909
▁rights	-8910
▁screen	-8911
▁officier	-8912
▁reme	-8913
▁genoux	-8914
▁Continuez	-8915
▁Rh	-8916
▁ate	-8917
▁sinc	-8918
▁daddy	-8919
▁strug	-8920
iconque	-8921
▁confession	-8922
rim	-8923
▁Pick	-8924
▁parlent	-8925
otch	-8926
pare	-8927
▁Rub	-8928
▁pub	-8929
▁Earl	-8930
▁Lewis	-8931
▁Michelle	-8932
▁vendredi	-8933
▁voulaient	-8934
aka	-8935
pha	-8936
▁Aussi	-8937
▁allés	-8938
▁Honest	-8939
▁property	-8940
▁Wy	-8941
▁Todd	-8942
▁creep	-8943
▁Albert	-8944
▁commis	-8945
▁cherché	-8946
▁Jennifer	-8947
▁confused	-8948
glet	-8949
▁eggs	-8950
▁extreme	-8951
▁language	-8952
believable	-8953
ôtres	-8954
▁April	-8955
▁privée	-8956
gues	-8957
▁noble	-8958
▁guarante	-8959
▁released	-8960
▁Lors	-8961
▁Squ	-8962
▁Peux	-8963
érable	-8964
▁rough	-8965
▁presence	-8966
▁cardiaque	-8967
▁démission	-8968
2,	-8969
atty	-8970
ossi	-8971
▁Ricky	-8972
▁allais	-8973
▁craint	-8974
omi	-8975
gueu	-8976
▁familiar	-8977
▁screaming	-8978
▁intelligence	-8979
▁Lo	-8980
▁od	-8981
▁Viv	-8982
artha	-8983
▁bail	-8984
▁tenu	-8985
▁Elena	-8986
▁entière	-8987
▁Déc	-8988
▁Hun	-8989
▁gro	-8990
▁budget	-8991
▁perman	-8992
▁throat	-8993
▁arrivera	-8994
▁according	-8995
del	-8996
onf	-8997
▁ox	-8998
▁odd	-8999
▁runs	-9000
▁Quatre	-9001
▁voyons	-9002
▁romantic	-9003
▁récemment	-9004
lan	-9005
ician	-9006
ondez	-9007
rut	-9008
érons	-9009
▁data	-9010
▁heal	-9011
▁Nancy	-9012
Amérique	-9013
▁glasses	-9014
▁supposé	-9015
aken	-9016
osen	-9017
▁Kenn	-9018
▁métier	-9019
▁responsabilité	-9020
▁Ra	-9021
▁Ze	-9022
indy	-9023
▁Aff	-9024
▁wet	-9025
▁dign	-9026
existe	-9027
▁tente	-9028
édemment	-9029
▁cameras	-9030
rees	-9031
rill	-9032
▁staff	-9033
ala	-9034
istic	-9035
onely	-9036
riers	-9037
▁exéc	-9038
▁céléb	-9039
▁gradu	-9040
▁Carrie	-9041
▁échange	-9042
▁formidable	-9043
arrow	-9044
▁role	-9045
▁franc	-9046
▁assume	-9047
▁bright	-9048
▁chaise	-9049
Les	-9050
arde	-9051
▁Drop	-9052
▁dors	-9053
▁Barney	-9054
▁Williams	-9055
▁coop	-9056
▁Stand	-9057
▁airport	-9058
areil	-9059
▁synd	-9060
▁climb	-9061
▁travaillait	-9062
etic	-9063
roits	-9064
▁Kent	-9065
▁Wend	-9066
▁veste	-9067
▁woods	-9068
▁happiness	-9069
▁Vu	-9070
êmes	-9071
▁defe	-9072
▁earn	-9073
issait	-9074
▁Veuillez	-9075
▁appropri	-9076
▁détermin	-9077
▁Sou	-9078
▁thoughts	-9079
▁instructions	-9080
oria	-9081
ylan	-9082
▁Aud	-9083
▁refusé	-9084
accident	-9085
▁oreilles	-9086
▁réfléchi	-9087
xi	-9088
enu	-9089
rich	-9090
▁Tina	-9091
▁Faire	-9092
▁solve	-9093
▁dimanche	-9094
▁facilement	-9095
▁différentes	-9096
▁ST	-9097
▁Land	-9098
▁tact	-9099
▁cents	-9100
▁libérer	-9101
▁warrant	-9102
30	-9103
gir	-9104
▁Stu	-9105
ulate	-9106
▁doux	-9107
▁Ethan	-9108
▁weather	-9109
jo	-9110
▁End	-9111
▁ravi	-9112
accomp	-9113
▁demon	-9114
▁picking	-9115
▁traverser	-9116
▁commercial	-9117
1,	-9118
ibat	-9119
▁Sid	-9120
▁désert	-9121
avantage	-9122
▁Mit	-9123
▁dumb	-9124
▁liar	-9125
▁rats	-9126
▁verras	-9127
▁exchange	-9128
▁cigarettes	-9129
▁engagé	-9130
▁spéciale	-9131
▁mouvement	-9132
▁grandfather	-9133
ppe	-9134
guer	-9135
mans	-9136
▁rude	-9137
▁Whoever	-9138
▁apprend	-9139
hés	-9140
▁3.	-9141
▁ear	-9142
arrivera	-9143
▁cherches	-9144
▁appartient	-9145
▁Dale	-9146
▁affe	-9147
▁sergent	-9148
▁nombreux	-9149
▁neut	-9150
▁dispos	-9151
▁pistolet	-9152
▁plaisant	-9153
▁vengeance	-9154
▁neg	-9155
human	-9156
▁woke	-9157
▁alibi	-9158
▁virer	-9159
▁Martha	-9160
▁dollar	-9161
El	-9162
▁pel	-9163
▁sed	-9164
▁Barn	-9165
▁ange	-9166
▁Anyone	-9167
ologique	-9168
▁England	-9169
▁Général	-9170
▁warning	-9171
▁ferm	-9172
▁anony	-9173
▁meurs	-9174
▁south	-9175
avior	-9176
▁maire	-9177
▁indust	-9178
gleterre	-9179
▁goddamn	-9180
▁circumst	-9181
▁electric	-9182
▁specific	-9183
▁construction	-9184
agnes	-9185
▁Keith	-9186
▁Prépare	-9187
▁WH	-9188
▁caus	-9189
▁mène	-9190
▁seins	-9191
▁surround	-9192
hand	-9193
▁acqu	-9194
▁dormi	-9195
▁wheel	-9196
▁Alf	-9197
▁Both	-9198
▁coat	-9199
▁Grâce	-9200
▁milli	-9201
▁waited	-9202
▁rivière	-9203
▁campaign	-9204
▁treatment	-9205
▁comportement	-9206
▁RE	-9207
ungle	-9208
▁ayez	-9209
▁whom	-9210
▁fuite	-9211
▁motiv	-9212
▁circul	-9213
▁perdue	-9214
▁convinced	-9215
▁Précédemment	-9216
▁Ira	-9217
▁blonde	-9218
▁harder	-9219
▁capital	-9220
▁sommeil	-9221
cut	-9222
eum	-9223
▁citiz	-9224
onsense	-9225
▁économ	-9226
▁tableau	-9227
zie	-9228
roch	-9229
vest	-9230
▁nor	-9231
▁sail	-9232
▁sher	-9233
pector	-9234
èrement	-9235
▁fought	-9236
aéroport	-9237
▁traiter	-9238
iro	-9239
vais	-9240
aries	-9241
assed	-9242
▁rejet	-9243
▁affair	-9244
▁fiancé	-9245
▁pousser	-9246
▁California	-9247
bli	-9248
▁Er	-9249
phone	-9250
▁pauv	-9251
onnant	-9252
titles	-9253
▁répète	-9254
▁Lincoln	-9255
5,	-9256
▁Gun	-9257
▁sai	-9258
▁watched	-9259
▁respirer	-9260
Qu	-9261
SE	-9262
▁dégo	-9263
▁elev	-9264
▁presc	-9265
▁Espèce	-9266
▁déclen	-9267
ôte	-9268
▁gif	-9269
▁Mason	-9270
▁Travis	-9271
▁settle	-9272
▁utilise	-9273
▁official	-9274
▁premiers	-9275
▁résoudre	-9276
▁clairement	-9277
▁py	-9278
▁cos	-9279
▁wire	-9280
▁Dylan	-9281
▁express	-9282
▁Samantha	-9283
▁Gus	-9284
ishop	-9285
▁Rent	-9286
▁Dennis	-9287
▁chemise	-9288
▁français	-9289
▁70	-9290
mare	-9291
▁angel	-9292
▁attent	-9293
éras	-9294
▁Pac	-9295
onges	-9296
nie	-9297
mark	-9298
▁fug	-9299
otes	-9300
▁Ian	-9301
▁carn	-9302
▁Beaut	-9303
▁brisé	-9304
▁pluie	-9305
▁meurtrier	-9306
éche	-9307
▁Vic	-9308
▁pul	-9309
▁stru	-9310
▁hidden	-9311
▁junk	-9312
▁rues	-9313
▁viré	-9314
ua	-9315
▁oppos	-9316
▁Retour	-9317
▁courses	-9318
inspecteur	-9319
▁challenge	-9320
▁reviendra	-9321
oween	-9322
▁tatt	-9323
▁lieux	-9324
▁stone	-9325
▁emmené	-9326
▁mettez	-9327
▁stable	-9328
▁towards	-9329
▁vampires	-9330
▁Kh	-9331
▁aig	-9332
▁equip	-9333
ghan	-9334
çant	-9335
irais	-9336
▁teen	-9337
endent	-9338
issons	-9339
▁Essaie	-9340
▁samedi	-9341
anim	-9342
▁Bal	-9343
▁véh	-9344
▁atter	-9345
▁ouvre	-9346
▁Julian	-9347
▁compar	-9348
▁promotion	-9349
pour	-9350
▁posé	-9351
▁poup	-9352
▁recently	-9353
▁sérieuse	-9354
▁trig	-9355
▁désesp	-9356
érations	-9357
▁mistakes	-9358
▁26	-9359
fois	-9360
▁Joan	-9361
▁Soit	-9362
▁auprès	-9363
▁sombre	-9364
▁tourné	-9365
abs	-9366
apé	-9367
▁Fra	-9368
opher	-9369
▁heat	-9370
▁trade	-9371
▁raised	-9372
arranger	-9373
▁streets	-9374
▁behavior	-9375
▁stronger	-9376
▁Fant	-9377
▁éche	-9378
▁player	-9379
orig	-9380
rise	-9381
▁Wes	-9382
▁crier	-9383
▁season	-9384
▁Spencer	-9385
▁normale	-9386
▁Las	-9387
▁amp	-9388
▁Ouai	-9389
▁siège	-9390
pet	-9391
▁Pay	-9392
▁pills	-9393
ifiques	-9394
▁emmener	-9395
rong	-9396
▁Care	-9397
▁titre	-9398
▁seriez	-9399
▁cherchez	-9400
wel	-9401
▁hug	-9402
▁Pauvre	-9403
▁lonely	-9404
▁profit	-9405
▁voisin	-9406
▁stranger	-9407
▁Aah	-9408
▁Syl	-9409
▁cing	-9410
▁mental	-9411
▁contrib	-9412
▁seraient	-9413
▁Malheureusement	-9414
▁Yu	-9415
▁Easy	-9416
▁Lang	-9417
▁Tour	-9418
▁album	-9419
▁neighb	-9420
▁arrêtez	-9421
▁blessure	-9422
▁prennent	-9423
▁profiter	-9424
▁Lock	-9425
▁murs	-9426
▁drown	-9427
▁issue	-9428
▁score	-9429
▁vente	-9430
▁écras	-9431
▁attract	-9432
▁Isab	-9433
hommes	-9434
appelait	-9435
▁maisons	-9436
▁puissant	-9437
▁committed	-9438
▁Mademoiselle	-9439
▁HE	-9440
chan	-9441
▁Der	-9442
▁idé	-9443
aisser	-9444
▁Hands	-9445
▁signé	-9446
▁Warren	-9447
▁motherfuck	-9448
▁ordinateur	-9449
▁disparaître	-9450
onc	-9451
▁pous	-9452
▁based	-9453
▁incre	-9454
▁mayor	-9455
▁Inspecteur	-9456
▁possession	-9457
▁Bow	-9458
▁bébés	-9459
▁puisque	-9460
▁policier	-9461
▁bol	-9462
▁Night	-9463
▁incap	-9464
▁sentez	-9465
▁meaning	-9466
▁construire	-9467
▁8:	-9468
▁Benn	-9469
▁bond	-9470
▁Shoot	-9471
▁grade	-9472
▁thief	-9473
▁equipment	-9474
PD	-9475
oix	-9476
▁Owen	-9477
▁maud	-9478
▁repl	-9479
▁Kitty	-9480
▁Monica	-9481
▁script	-9482
ju	-9483
▁28	-9484
usty	-9485
▁Kar	-9486
ading	-9487
▁temple	-9488
▁Pull	-9489
▁paye	-9490
▁pilote	-9491
▁prepare	-9492
▁medicine	-9493
tra	-9494
wing	-9495
uries	-9496
▁Aide	-9497
▁Bast	-9498
▁alarm	-9499
▁laver	-9500
▁religion	-9501
▁méc	-9502
▁spy	-9503
armac	-9504
▁États	-9505
▁conven	-9506
▁ennemi	-9507
▁advance	-9508
▁custody	-9509
▁families	-9510
avec	-9511
quez	-9512
ussy	-9513
▁Syd	-9514
▁Kenny	-9515
▁cooper	-9516
alph	-9517
▁drag	-9518
▁male	-9519
▁Ouvre	-9520
▁finit	-9521
▁Wonder	-9522
▁mentioned	-9523
arson	-9524
▁insult	-9525
▁revenue	-9526
mel	-9527
athol	-9528
▁Fitz	-9529
▁poit	-9530
▁Bible	-9531
▁steak	-9532
▁walls	-9533
▁franch	-9534
▁pensées	-9535
▁Subtitles	-9536
▁Ali	-9537
▁Yep	-9538
▁educ	-9539
▁exha	-9540
▁Blood	-9541
▁faces	-9542
▁neige	-9543
▁Faisons	-9544
▁caméras	-9545
▁Although	-9546
▁puissance	-9547
anniversaire	-9548
▁communication	-9549
omy	-9550
▁Sac	-9551
▁Ven	-9552
glise	-9553
▁bread	-9554
▁scary	-9555
▁Harold	-9556
▁sérieusement	-9557
▁Cub	-9558
aging	-9559
▁Whit	-9560
▁claim	-9561
▁intent	-9562
▁cadeaux	-9563
▁Heureusement	-9564
rét	-9565
▁flag	-9566
▁citoy	-9567
▁lâcher	-9568
▁trompe	-9569
▁passait	-9570
▁raconté	-9571
▁thousands	-9572
exist	-9573
▁blew	-9574
▁Blake	-9575
▁strip	-9576
▁origin	-9577
▁célibat	-9578
▁explique	-9579
▁physical	-9580
▁abandoned	-9581
▁Pop	-9582
▁Tot	-9583
▁étage	-9584
▁Dégage	-9585
▁appels	-9586
▁période	-9587
▁satellite	-9588
▁entreprise	-9589
▁91	-9590
▁SH	-9591
obby	-9592
▁Paige	-9593
▁drove	-9594
▁shots	-9595
énateur	-9596
▁espoir	-9597
▁Demande	-9598
▁exploser	-9599
▁'.	-9600
geon	-9601
▁tienne	-9602
▁36	-9603
dire	-9604
unny	-9605
▁Nav	-9606
▁Walt	-9607
▁minim	-9608
▁garden	-9609
▁attraper	-9610
▁salop	-9611
chell	-9612
▁pile	-9613
▁rabb	-9614
▁Passez	-9615
▁invitation	-9616
▁Lé	-9617
emain	-9618
▁flam	-9619
▁rage	-9620
upt	-9621
zed	-9622
▁ME	-9623
▁diplom	-9624
▁Central	-9625
▁logique	-9626
AG	-9627
irait	-9628
▁bike	-9629
enfuir	-9630
▁Penny	-9631
▁calmer	-9632
▁préparé	-9633
tee	-9634
ingues	-9635
▁Castle	-9636
▁Margaret	-9637
unte	-9638
▁rip	-9639
aillez	-9640
ington	-9641
prints	-9642
▁attaqué	-9643
ani	-9644
dam	-9645
prits	-9646
▁accou	-9647
▁étoiles	-9648
▁montagne	-9649
▁political	-9650
enture	-9651
▁Court	-9652
▁Haven	-9653
▁Oscar	-9654
▁Alle	-9655
▁bars	-9656
▁River	-9657
▁joues	-9658
▁tenté	-9659
▁romantique	-9660
▁clas	-9661
▁tués	-9662
▁devra	-9663
▁female	-9664
▁réaliser	-9665
hony	-9666
▁maid	-9667
▁badly	-9668
▁Plutôt	-9669
▁minuit	-9670
▁sortez	-9671
▁Believe	-9672
▁paradis	-9673
▁expected	-9674
▁suffering	-9675
▁IT	-9676
hier	-9677
œurs	-9678
▁Rou	-9679
▁Croy	-9680
ruption	-9681
▁traite	-9682
essayais	-9683
▁rentrée	-9684
▁souffrir	-9685
▁breathing	-9686
umé	-9687
▁Aux	-9688
▁œil	-9689
▁cheer	-9690
▁efforts	-9691
iellement	-9692
iquée	-9693
▁AD	-9694
eron	-9695
▁Ara	-9696
▁mun	-9697
▁Ellen	-9698
▁Force	-9699
▁Disons	-9700
▁donnes	-9701
▁portrait	-9702
▁invisible	-9703
uels	-9704
itant	-9705
▁réag	-9706
imagin	-9707
▁awake	-9708
▁reward	-9709
▁checking	-9710
▁Mat	-9711
▁coi	-9712
▁journaux	-9713
▁poitrine	-9714
▁apparently	-9715
▁friendship	-9716
▁Us	-9717
▁fro	-9718
▁Brend	-9719
▁traité	-9720
accepter	-9721
ological	-9722
colm	-9723
▁pip	-9724
▁Dead	-9725
▁alien	-9726
▁canon	-9727
▁ships	-9728
▁dessert	-9729
▁réveillé	-9730
▁construit	-9731
appartement	-9732
iod	-9733
▁ja	-9734
owing	-9735
▁beast	-9736
▁gamins	-9737
▁bedroom	-9738
▁trapped	-9739
▁Honestly	-9740
▁malheure	-9741
▁WE	-9742
▁ho	-9743
reek	-9744
▁Raj	-9745
▁device	-9746
▁espion	-9747
▁saison	-9748
▁connected	-9749
▁temper	-9750
▁options	-9751
▁destruction	-9752
armes	-9753
▁lois	-9754
▁butter	-9755
▁examin	-9756
▁Malcolm	-9757
▁suivant	-9758
▁médecins	-9759
▁chocolate	-9760
▁mener	-9761
▁avenir	-9762
▁lion	-9763
▁pros	-9764
▁puce	-9765
▁ritu	-9766
▁Megan	-9767
▁Riley	-9768
▁armed	-9769
▁fière	-9770
▁Berlin	-9771
▁recommand	-9772
ums	-9773
▁Zo	-9774
inda	-9775
▁Lyn	-9776
▁laws	-9777
▁Parlez	-9778
▁voisins	-9779
▁couilles	-9780
▁exciting	-9781
▁lunettes	-9782
CE	-9783
idered	-9784
resses	-9785
rouille	-9786
▁permett	-9787
▁stealing	-9788
▁10:	-9789
▁clock	-9790
▁hated	-9791
▁Indian	-9792
▁Special	-9793
▁traffic	-9794
▁Understand	-9795
▁particulier	-9796
teen	-9797
ronter	-9798
▁Coach	-9799
▁chute	-9800
▁Pierre	-9801
▁Grandpa	-9802
▁différente	-9803
cing	-9804
pher	-9805
▁aimait	-9806
▁aiment	-9807
▁babies	-9808
▁horses	-9809
▁virgin	-9810
▁erreurs	-9811
▁inquiet	-9812
▁Bor	-9813
▁etre	-9814
▁jobs	-9815
▁fusil	-9816
▁talks	-9817
▁théâtre	-9818
▁schedule	-9819
Don	-9820
▁IS	-9821
inez	-9822
▁Drink	-9823
▁Stark	-9824
▁escal	-9825
ailable	-9826
▁feriez	-9827
▁concernant	-9828
▁McK	-9829
hered	-9830
▁Ball	-9831
▁furi	-9832
▁sonne	-9833
▁offering	-9834
▁combattre	-9835
bons	-9836
uffy	-9837
▁flo	-9838
▁Debout	-9839
▁changing	-9840
▁ministre	-9841
▁Harris	-9842
▁Sister	-9843
▁toilet	-9844
▁Reviens	-9845
▁partage	-9846
▁grateful	-9847
▁désormais	-9848
▁préd	-9849
▁cérém	-9850
▁bougez	-9851
agger	-9852
arrett	-9853
▁hates	-9854
▁range	-9855
▁Cheers	-9856
▁inspecteur	-9857
▁CD	-9858
▁Ple	-9859
▁Sab	-9860
▁Allo	-9861
▁Wake	-9862
▁venger	-9863
▁liquide	-9864
▁imagination	-9865
fr	-9866
▁EN	-9867
▁Roll	-9868
▁Gabriel	-9869
▁However	-9870
▁singing	-9871
▁survécu	-9872
▁lendemain	-9873
3,	-9874
lear	-9875
▁Lat	-9876
▁Duke	-9877
▁Mama	-9878
▁Zach	-9879
▁vest	-9880
▁west	-9881
▁Shawn	-9882
▁fixed	-9883
▁hôtel	-9884
bler	-9885
▁histor	-9886
▁abandonner	-9887
vy	-9888
▁pee	-9889
▁dude	-9890
▁liaison	-9891
▁basement	-9892
▁including	-9893
▁Bry	-9894
▁tip	-9895
ridge	-9896
▁Burn	-9897
emmène	-9898
▁coûte	-9899
▁intim	-9900
▁épous	-9901
▁centaines	-9902
▁BE	-9903
▁Tal	-9904
▁ber	-9905
▁Evan	-9906
atient	-9907
▁adopt	-9908
▁attaqu	-9909
▁easily	-9910
▁voleur	-9911
▁maximum	-9912
▁delicious	-9913
aro	-9914
▁Kay	-9915
▁sam	-9916
▁Navy	-9917
▁Ravi	-9918
▁pages	-9919
▁combin	-9920
▁circonst	-9921
▁Liam	-9922
ennemi	-9923
▁Content	-9924
▁deviens	-9925
RI	-9926
▁Coun	-9927
▁Grey	-9928
▁Aaron	-9929
▁brûler	-9930
▁Finally	-9931
▁aveugle	-9932
▁growing	-9933
alu	-9934
▁Croyez	-9935
▁jungle	-9936
▁Japanese	-9937
▁morceaux	-9938
▁scientifique	-9939
Et	-9940
kyo	-9941
▁32	-9942
utch	-9943
ynam	-9944
▁Death	-9945
▁Mount	-9946
▁forest	-9947
▁Pil	-9948
▁Tara	-9949
▁mord	-9950
▁knees	-9951
▁sucre	-9952
▁Church	-9953
▁crédit	-9954
▁guards	-9955
▁modèle	-9956
▁tongue	-9957
▁escaped	-9958
▁society	-9959
▁Pau	-9960
sière	-9961
▁Oublie	-9962
▁smells	-9963
▁tromper	-9964
▁imaginer	-9965
▁Christine	-9966
▁pla	-9967
▁Lois	-9968
▁tear	-9969
blioth	-9970
▁trash	-9971
▁Junior	-9972
▁border	-9973
ignorais	-9974
▁counter	-9975
▁incredible	-9976
▁production	-9977
▁gig	-9978
▁lève	-9979
▁alert	-9980
▁réser	-9981
▁stink	-9982
▁Neither	-9983
▁exploit	-9984
▁justement	-9985
▁protecting	-9986
▁fantastique	-9987
iler	-9988
▁Rel	-9989
onger	-9990
▁spare	-9991
▁fasses	-9992
▁paroles	-9993
▁midnight	-9994
▁blessures	-9995
▁existence	-9996
▁201	-9997
enseur	-9998
▁Being	-9999
▁verrai	-10000
▁Sergent	-10001
▁interdit	-10002
▁desperate	-10003
▁understood	-10004
ulf	-10005
▁Mass	-10006
▁Rita	-10007
▁pisc	-10008
▁Aller	-10009
▁région	-10010
▁siècle	-10011
▁époque	-10012
▁traîner	-10013
▁réaction	-10014
▁Save	-10015
▁Thor	-10016
hattan	-10017
▁magique	-10018
▁treated	-10019
▁stopping	-10020
icks	-10021
race	-10022
▁Burt	-10023
▁Mickey	-10024
▁Pensez	-10025
▁saches	-10026
▁Jonathan	-10027
anou	-10028
▁196	-10029
▁Use	-10030
▁ralent	-10031
▁mountain	-10032
▁princess	-10033
▁leads	-10034
▁élevé	-10035
▁bosser	-10036
▁lèvres	-10037
▁procéd	-10038
▁Russell	-10039
▁burning	-10040
▁dessous	-10041
▁médical	-10042
▁sisters	-10043
▁ah	-10044
merde	-10045
▁Coup	-10046
▁Down	-10047
▁scar	-10048
▁pêche	-10049
▁Second	-10050
▁closet	-10051
▁entrée	-10052
▁counting	-10053
▁deserves	-10054
▁rapports	-10055
▁Ans	-10056
▁forb	-10057
▁ryth	-10058
▁Quels	-10059
▁fancy	-10060
▁owner	-10061
entement	-10062
▁représente	-10063
▁intelligente	-10064
émin	-10065
▁Gene	-10066
▁phase	-10067
▁Connor	-10068
▁contain	-10069
▁curious	-10070
▁partici	-10071
▁audition	-10072
▁traversé	-10073
rot	-10074
▁Ky	-10075
onais	-10076
▁Fils	-10077
▁réseau	-10078
▁deviner	-10079
▁194	-10080
▁lux	-10081
▁Kong	-10082
▁Ruth	-10083
▁Trouvez	-10084
TER	-10085
amis	-10086
oyle	-10087
▁hunt	-10088
▁brown	-10089
▁camar	-10090
▁tension	-10091
▁tournée	-10092
▁conference	-10093
ao	-10094
ev	-10095
rées	-10096
▁hire	-10097
▁pair	-10098
▁giant	-10099
▁nuclé	-10100
▁malgré	-10101
▁symbol	-10102
▁promesse	-10103
▁brilliant	-10104
▁ot	-10105
osis	-10106
▁400	-10107
activ	-10108
ailey	-10109
▁Crai	-10110
▁bell	-10111
▁flat	-10112
utions	-10113
▁Tokyo	-10114
▁century	-10115
▁réussir	-10116
▁population	-10117
ILL	-10118
▁Cos	-10119
▁swim	-10120
▁cockt	-10121
▁considered	-10122
▁performance	-10123
▁disappointed	-10124
éli	-10125
inci	-10126
▁déce	-10127
▁pige	-10128
▁candy	-10129
▁soucis	-10130
▁chauffeur	-10131
▁fantastic	-10132
▁circumstances	-10133
iture	-10134
▁frust	-10135
▁humans	-10136
expérience	-10137
auer	-10138
ality	-10139
êchez	-10140
▁healthy	-10141
▁bastards	-10142
▁impliqué	-10143
▁u	-10144
burg	-10145
▁Fed	-10146
unité	-10147
▁arrives	-10148
▁pouviez	-10149
▁Security	-10150
▁approche	-10151
▁peinture	-10152
▁cherchais	-10153
▁sugar	-10154
▁trees	-10155
ggy	-10156
tto	-10157
émie	-10158
▁Jenna	-10159
▁divers	-10160
▁endorm	-10161
▁managed	-10162
▁returned	-10163
▁détective	-10164
▁bags	-10165
▁tail	-10166
▁tall	-10167
▁tenter	-10168
▁Essayez	-10169
rand	-10170
▁blank	-10171
▁poker	-10172
itution	-10173
▁Bordel	-10174
▁chaîne	-10175
▁explan	-10176
▁Dépêche	-10177
▁parlons	-10178
▁Victoria	-10179
▁criminel	-10180
▁meantime	-10181
▁Ale	-10182
rated	-10183
▁sons	-10184
rochez	-10185
éralement	-10186
▁2:	-10187
elson	-10188
▁meal	-10189
▁Voyez	-10190
▁crâne	-10191
▁taire	-10192
▁chaleur	-10193
▁réponds	-10194
▁sweat	-10195
▁Stephen	-10196
▁sheriff	-10197
9,	-10198
▁Finn	-10199
▁Griff	-10200
▁etern	-10201
▁répar	-10202
▁dispute	-10203
▁partners	-10204
▁nightmare	-10205
▁otherwise	-10206
élo	-10207
oken	-10208
asty	-10209
quette	-10210
▁Quelles	-10211
▁enfoiré	-10212
▁seigneur	-10213
▁Dest	-10214
▁Miles	-10215
▁adulte	-10216
▁warned	-10217
▁kidnapped	-10218
4,	-10219
▁Ec	-10220
annon	-10221
cakes	-10222
retch	-10223
▁crétin	-10224
▁prendrai	-10225
▁Réf	-10226
▁mate	-10227
▁tien	-10228
▁monté	-10229
OD	-10230
eday	-10231
ldon	-10232
odka	-10233
▁Enter	-10234
▁false	-10235
▁loose	-10236
▁motel	-10237
▁venant	-10238
▁chirurg	-10239
▁couloir	-10240
▁ressort	-10241
irty	-10242
pton	-10243
▁expéri	-10244
▁permet	-10245
▁attrapé	-10246
▁popular	-10247
▁boutique	-10248
▁quiconque	-10249
▁réputation	-10250
▁apparemment	-10251
exam	-10252
yard	-10253
▁Holl	-10254
▁Kirk	-10255
▁continues	-10256
ANT	-10257
rants	-10258
▁Phoe	-10259
▁Sort	-10260
▁gods	-10261
▁rush	-10262
▁sage	-10263
▁anger	-10264
▁respir	-10265
▁absence	-10266
▁fromage	-10267
▁heading	-10268
▁murders	-10269
▁supplie	-10270
bage	-10271
▁Curt	-10272
▁Sale	-10273
▁casino	-10274
▁served	-10275
▁sports	-10276
▁beating	-10277
▁knowledge	-10278
vere	-10279
▁Win	-10280
▁glo	-10281
▁Rory	-10282
▁cann	-10283
▁jume	-10284
▁strat	-10285
▁tenue	-10286
▁fausse	-10287
▁cleaning	-10288
▁endroits	-10289
▁Professeur	-10290
▁SU	-10291
▁Kra	-10292
offre	-10293
équip	-10294
▁aunt	-10295
▁dose	-10296
▁feront	-10297
▁vivante	-10298
▁recommencer	-10299
gins	-10300
▁bored	-10301
▁bosse	-10302
▁fumer	-10303
approche	-10304
▁quarter	-10305
▁concours	-10306
▁Manhattan	-10307
dle	-10308
delà	-10309
▁Mas	-10310
▁Zoe	-10311
▁jur	-10312
shirt	-10313
▁Card	-10314
▁Lana	-10315
▁particular	-10316
▁personally	-10317
mêmes	-10318
▁Seven	-10319
▁Techn	-10320
▁cheap	-10321
▁rater	-10322
▁roule	-10323
▁Allison	-10324
▁portait	-10325
▁témoign	-10326
▁poignard	-10327
▁mensonges	-10328
▁robbery	-10329
▁vo	-10330
▁Bus	-10331
▁Ralph	-10332
▁Water	-10333
▁nuits	-10334
▁Harper	-10335
▁routine	-10336
▁reconnais	-10337
▁UN	-10338
▁Ur	-10339
▁vig	-10340
▁newsp	-10341
▁Bonnie	-10342
▁British	-10343
▁Honneur	-10344
▁Ko	-10345
oter	-10346
otic	-10347
▁Had	-10348
▁amount	-10349
gies	-10350
▁Hans	-10351
▁guests	-10352
▁pousse	-10353
échapper	-10354
▁hunting	-10355
▁prisoner	-10356
▁Americans	-10357
▁ferez	-10358
▁kills	-10359
▁pushed	-10360
▁Sheriff	-10361
-2	-10362
▁US	-10363
vait	-10364
▁rab	-10365
ouill	-10366
▁réglé	-10367
▁Ern	-10368
▁adop	-10369
▁gall	-10370
▁headed	-10371
▁téléphon	-10372
▁Fran	-10373
▁Half	-10374
▁tube	-10375
▁brand	-10376
▁effic	-10377
▁Jersey	-10378
▁conférence	-10379
▁sabot	-10380
▁Louise	-10381
▁joueur	-10382
▁extrême	-10383
▁souffle	-10384
embrasser	-10385
▁contacter	-10386
▁compliment	-10387
▁Mot	-10388
▁équ	-10389
arily	-10390
▁Nora	-10391
▁scen	-10392
▁China	-10393
▁Morris	-10394
▁3:	-10395
▁gout	-10396
▁mask	-10397
▁Suivez	-10398
▁Trouve	-10399
▁décide	-10400
▁suppos	-10401
▁vieill	-10402
▁pauvres	-10403
▁autrement	-10404
▁witnesses	-10405
play	-10406
▁Ori	-10407
▁Clar	-10408
▁surn	-10409
▁tied	-10410
▁annoy	-10411
▁Lauren	-10412
▁Mitch	-10413
▁Change	-10414
▁desire	-10415
▁simply	-10416
▁mystery	-10417
▁mâ	-10418
ailed	-10419
▁bone	-10420
entrer	-10421
▁refer	-10422
▁Monday	-10423
▁result	-10424
▁contest	-10425
▁patience	-10426
▁proposition	-10427
▁9:	-10428
sect	-10429
▁bêt	-10430
▁saut	-10431
▁tank	-10432
racted	-10433
▁Jules	-10434
▁Friend	-10435
▁esprits	-10436
▁Incroyable	-10437
bar	-10438
▁ras	-10439
intérêt	-10440
▁ramené	-10441
▁couvrir	-10442
▁Director	-10443
ali	-10444
▁Sign	-10445
▁Elliot	-10446
Or	-10447
aisy	-10448
▁summ	-10449
▁foyer	-10450
▁voient	-10451
▁occupée	-10452
▁prevent	-10453
attention	-10454
arter	-10455
▁Jill	-10456
▁lack	-10457
▁gliss	-10458
▁Slowly	-10459
▁piscine	-10460
▁smoking	-10461
▁vehicle	-10462
▁Amérique	-10463
▁cérémonie	-10464
▁Guy	-10465
▁Idi	-10466
▁row	-10467
allée	-10468
▁Arch	-10469
▁Stef	-10470
▁Mieux	-10471
▁Shane	-10472
▁Bishop	-10473
▁château	-10474
▁Mitchell	-10475
▁available	-10476
▁carefully	-10477
▁connaissait	-10478
▁technologie	-10479
▁embarrassing	-10480
ppy	-10481
▁Supp	-10482
▁escl	-10483
▁onto	-10484
▁dieux	-10485
▁compan	-10486
▁useful	-10487
▁géniale	-10488
▁travaillez	-10489
elax	-10490
vate	-10491
iable	-10492
▁Soon	-10493
▁link	-10494
▁Sammy	-10495
▁solid	-10496
identité	-10497
▁compass	-10498
▁á	-10499
▁Phill	-10500
▁entends	-10501
▁refaire	-10502
▁charmant	-10503
▁description	-10504
▁Hart	-10505
▁culp	-10506
▁Phoebe	-10507
édiction	-10508
▁carrying	-10509
▁imbécile	-10510
▁sorcière	-10511
keep	-10512
État	-10513
▁Autre	-10514
▁mérit	-10515
▁résol	-10516
▁navire	-10517
▁abandon	-10518
▁attorney	-10519
pre	-10520
▁Ak	-10521
îtes	-10522
▁Tit	-10523
▁package	-10524
omac	-10525
ribe	-10526
▁fif	-10527
ilton	-10528
usive	-10529
▁soupe	-10530
obil	-10531
▁Bab	-10532
▁tuy	-10533
▁slip	-10534
▁Clear	-10535
▁rempli	-10536
▁therapy	-10537
▁trusted	-10538
▁administ	-10539
De	-10540
lons	-10541
▁Pen	-10542
itute	-10543
▁Cameron	-10544
▁restera	-10545
▁donnerai	-10546
▁résultat	-10547
rary	-10548
▁Sex	-10549
▁rape	-10550
▁Chase	-10551
▁likely	-10552
▁reached	-10553
ordinateur	-10554
▁cauchemar	-10555
Is	-10556
oyd	-10557
iote	-10558
▁Bah	-10559
▁Gro	-10560
▁typ	-10561
ormed	-10562
▁cros	-10563
▁jette	-10564
▁télév	-10565
▁caract	-10566
▁souris	-10567
▁renvers	-10568
olds	-10569
eland	-10570
▁croir	-10571
▁truly	-10572
ability	-10573
▁Brooke	-10574
▁filled	-10575
▁reports	-10576
▁rembours	-10577
▁propriété	-10578
▁évé	-10579
known	-10580
naire	-10581
▁rehe	-10582
▁zéro	-10583
▁fonds	-10584
▁tears	-10585
▁tenez	-10586
appelez	-10587
▁mirror	-10588
▁wasting	-10589
▁Halloween	-10590
▁Free	-10591
▁effe	-10592
explos	-10593
▁diner	-10594
▁chèque	-10595
▁Add	-10596
▁Fam	-10597
▁mac	-10598
mates	-10599
▁crai	-10600
▁Relax	-10601
▁caisse	-10602
▁period	-10603
AK	-10604
olie	-10605
▁Him	-10606
▁spring	-10607
▁bienvenue	-10608
▁trouverai	-10609
rien	-10610
▁tatou	-10611
▁dumped	-10612
▁jaloux	-10613
▁factory	-10614
▁plainte	-10615
▁Pourtant	-10616
oma	-10617
ueux	-10618
▁Yan	-10619
▁ath	-10620
èbres	-10621
▁Hang	-10622
▁Lane	-10623
▁Resp	-10624
▁Close	-10625
▁ayant	-10626
▁billet	-10627
▁monkey	-10628
▁Certain	-10629
▁remonter	-10630
ups	-10631
igan	-10632
resa	-10633
▁Rud	-10634
▁las	-10635
▁achet	-10636
▁Number	-10637
▁square	-10638
▁racontes	-10639
▁Tak	-10640
▁Chan	-10641
▁Seth	-10642
▁wise	-10643
ertain	-10644
▁chaos	-10645
▁signs	-10646
▁Almost	-10647
▁bloody	-10648
▁occupe	-10649
▁rythme	-10650
▁croient	-10651
▁Sûrement	-10652
▁conseils	-10653
▁possibly	-10654
7,	-10655
onz	-10656
▁Enf	-10657
▁Homer	-10658
▁fleur	-10659
▁Nelson	-10660
▁fiston	-10661
▁vaisse	-10662
▁laissée	-10663
▁préfére	-10664
dent	-10665
ockey	-10666
▁clan	-10667
▁exerc	-10668
▁Hitler	-10669
▁emprun	-10670
▁atteint	-10671
▁diriger	-10672
▁biblioth	-10673
wh	-10674
▁Nap	-10675
annel	-10676
▁folks	-10677
▁panic	-10678
▁castle	-10679
▁desert	-10680
▁emploi	-10681
▁polici	-10682
▁switch	-10683
▁donnera	-10684
▁material	-10685
▁officers	-10686
▁Impossible	-10687
▁secrétaire	-10688
▁travailles	-10689
▁dor	-10690
▁Benj	-10691
▁géné	-10692
▁Wendy	-10693
▁hearts	-10694
▁identity	-10695
▁circonstances	-10696
ees	-10697
▁6:	-10698
endie	-10699
années	-10700
▁amener	-10701
▁briser	-10702
▁stairs	-10703
▁$5	-10704
▁Sky	-10705
ariat	-10706
gling	-10707
▁June	-10708
▁Break	-10709
▁Vérif	-10710
▁corde	-10711
▁foule	-10712
▁Gardez	-10713
▁button	-10714
▁faibles	-10715
▁hôpital	-10716
▁matériel	-10717
▁Commandant	-10718
▁international	-10719
▁Cro	-10720
culez	-10721
▁Jour	-10722
▁Mick	-10723
▁bones	-10724
▁finie	-10725
▁songs	-10726
▁verrez	-10727
▁shoulder	-10728
▁remplacer	-10729
ised	-10730
▁Eat	-10731
▁Jin	-10732
angle	-10733
▁Gall	-10734
▁Math	-10735
▁prosec	-10736
gage	-10737
▁Troy	-10738
▁puts	-10739
avocat	-10740
▁holid	-10741
▁rompu	-10742
▁stood	-10743
▁leaders	-10744
▁prudent	-10745
▁contacts	-10746
▁prisonnier	-10747
▁déclaration	-10748
teaux	-10749
▁midi	-10750
▁brace	-10751
▁vivent	-10752
assassin	-10753
▁scratch	-10754
nger	-10755
▁côte	-10756
▁rêvé	-10757
affaires	-10758
▁percent	-10759
▁tempête	-10760
▁constant	-10761
▁trouvent	-10762
gué	-10763
avier	-10764
ookie	-10765
▁marks	-10766
▁nommé	-10767
▁shake	-10768
▁National	-10769
▁personnage	-10770
ios	-10771
lou	-10772
▁Sais	-10773
▁Rentre	-10774
▁canapé	-10775
▁terres	-10776
rov	-10777
arres	-10778
inson	-10779
▁Sandy	-10780
rection	-10781
▁Philip	-10782
▁progra	-10783
▁trauma	-10784
▁nourrir	-10785
▁souffre	-10786
▁betrayed	-10787
▁Beautiful	-10788
▁Californie	-10789
bbie	-10790
▁Vick	-10791
▁lots	-10792
onnable	-10793
▁discipl	-10794
▁lecture	-10795
▁becoming	-10796
▁nonsense	-10797
oked	-10798
▁Adi	-10799
▁Fil	-10800
▁Lin	-10801
▁Cond	-10802
▁Craig	-10803
▁lapin	-10804
▁consul	-10805
▁rencontrés	-10806
▁valu	-10807
aujourd	-10808
▁Maison	-10809
▁découv	-10810
errement	-10811
▁gardien	-10812
▁somehow	-10813
▁terminée	-10814
érale	-10815
▁joint	-10816
▁protest	-10817
▁fu	-10818
▁rand	-10819
▁crush	-10820
▁philos	-10821
▁Blanche	-10822
▁essayez	-10823
agée	-10824
▁insp	-10825
▁spéc	-10826
aimait	-10827
▁bénéf	-10828
▁conclu	-10829
▁trompé	-10830
▁winter	-10831
▁passent	-10832
▁swallow	-10833
▁médecine	-10834
eks	-10835
▁boi	-10836
▁shr	-10837
▁plomb	-10838
▁advent	-10839
▁volunte	-10840
▁rassembl	-10841
▁délicieux	-10842
una	-10843
mper	-10844
▁Jui	-10845
onica	-10846
▁crowd	-10847
▁repar	-10848
▁value	-10849
▁altern	-10850
▁Réfléch	-10851
▁allemand	-10852
▁effective	-10853
▁technology	-10854
lli	-10855
nés	-10856
▁russe	-10857
▁larmes	-10858
▁orange	-10859
▁Presque	-10860
▁concept	-10861
oved	-10862
iteur	-10863
▁astr	-10864
▁boit	-10865
▁Sydney	-10866
▁chosen	-10867
yers	-10868
▁Kel	-10869
levez	-10870
urgie	-10871
▁gare	-10872
▁scén	-10873
▁tiny	-10874
▁ocean	-10875
▁dragon	-10876
▁prêtre	-10877
ST	-10878
say	-10879
▁Pam	-10880
▁warri	-10881
▁Batman	-10882
▁cloche	-10883
▁disiez	-10884
▁wounds	-10885
▁études	-10886
▁spending	-10887
ERE	-10888
▁Slo	-10889
▁ens	-10890
attes	-10891
estre	-10892
▁Isra	-10893
▁litt	-10894
▁fatiguée	-10895
▁Da	-10896
tense	-10897
▁Anthony	-10898
▁rencard	-10899
▁Ba	-10900
▁goal	-10901
▁lift	-10902
▁mall	-10903
▁cloud	-10904
▁haine	-10905
▁coward	-10906
▁réalis	-10907
▁nuclear	-10908
▁Enchanté	-10909
▁étranger	-10910
▁convaincu	-10911
▁reputation	-10912
▁coï	-10913
ining	-10914
▁lesb	-10915
▁crème	-10916
▁possède	-10917
▁pâ	-10918
▁Rav	-10919
▁freez	-10920
▁Answer	-10921
▁kissed	-10922
▁conseiller	-10923
▁poursuivre	-10924
▁coincidence	-10925
▁Mig	-10926
ageux	-10927
clock	-10928
ocrat	-10929
▁soda	-10930
▁Alpha	-10931
▁Hector	-10932
▁cambri	-10933
▁Justice	-10934
▁pharmac	-10935
ADN	-10936
ban	-10937
cra	-10938
acks	-10939
▁Daisy	-10940
▁caval	-10941
▁soins	-10942
▁vague	-10943
avaient	-10944
▁gâcher	-10945
▁inventé	-10946
▁manteau	-10947
▁remains	-10948
▁rappelez	-10949
▁survived	-10950
rob	-10951
ouvé	-10952
appré	-10953
▁Mine	-10954
▁arbre	-10955
▁démar	-10956
▁rooms	-10957
▁Avenue	-10958
▁higher	-10959
▁prenne	-10960
▁rescue	-10961
▁slight	-10962
▁concentrer	-10963
▁meilleures	-10964
▁département	-10965
UN	-10966
ugs	-10967
ashi	-10968
▁Damon	-10969
▁motor	-10970
▁lorsqu	-10971
▁homicide	-10972
▁Understood	-10973
▁uniquement	-10974
lés	-10975
▁NE	-10976
arma	-10977
tery	-10978
andra	-10979
▁Ford	-10980
▁Work	-10981
▁mini	-10982
▁sink	-10983
anceux	-10984
▁décor	-10985
▁essent	-10986
▁oublie	-10987
▁portée	-10988
▁Looking	-10989
▁assault	-10990
▁regretter	-10991
mme	-10992
wear	-10993
verts	-10994
▁Carla	-10995
▁Child	-10996
▁lover	-10997
▁Debbie	-10998
▁Murphy	-10999
▁parlera	-11000
▁renfort	-11001
▁victory	-11002
▁collègues	-11003
▁explanation	-11004
▁professionnel	-11005
uf	-11006
▁ep	-11007
▁Vis	-11008
atiques	-11009
▁Ashley	-11010
▁Sheldon	-11011
▁network	-11012
sa	-11013
▁Gi	-11014
▁Fox	-11015
▁Inst	-11016
▁steps	-11017
essence	-11018
êtement	-11019
▁Gloria	-11020
▁halluc	-11021
▁Inutile	-11022
▁sentais	-11023
fait	-11024
ignez	-11025
rosse	-11026
▁Kurt	-11027
▁ennuy	-11028
▁geste	-11029
▁tooth	-11030
▁Palmer	-11031
▁réserve	-11032
▁Virginia	-11033
▁Ts	-11034
▁Nad	-11035
▁Won	-11036
▁alt	-11037
icing	-11038
▁gate	-11039
▁grie	-11040
▁Lucky	-11041
▁chain	-11042
▁infect	-11043
▁slowly	-11044
▁psychop	-11045
▁Department	-11046
vard	-11047
▁Bren	-11048
▁Adrian	-11049
▁online	-11050
▁placard	-11051
▁session	-11052
All	-11053
icat	-11054
▁Ast	-11055
enait	-11056
▁lourd	-11057
▁offense	-11058
▁employés	-11059
▁communauté	-11060
éan	-11061
▁Emb	-11062
▁Eva	-11063
▁Juan	-11064
écrire	-11065
▁amène	-11066
▁issues	-11067
▁staring	-11068
▁découvre	-11069
▁guarantee	-11070
bro	-11071
nth	-11072
erte	-11073
icked	-11074
▁eaten	-11075
▁fallu	-11076
▁Audrey	-11077
▁Ronnie	-11078
▁detail	-11079
▁resist	-11080
▁pathetic	-11081
▁renseigne	-11082
pte	-11083
▁Liv	-11084
▁terms	-11085
▁fruits	-11086
▁prénom	-11087
▁bullets	-11088
▁pulling	-11089
alo	-11090
▁gel	-11091
levée	-11092
▁obsc	-11093
▁dozen	-11094
▁tapis	-11095
▁fellow	-11096
▁failure	-11097
▁Brooklyn	-11098
▁surveille	-11099
▁Fu	-11100
Pour	-11101
rome	-11102
▁Adm	-11103
▁bij	-11104
▁Want	-11105
▁merd	-11106
▁pipe	-11107
▁Beach	-11108
▁flesh	-11109
▁vingt	-11110
▁auront	-11111
▁threatened	-11112
▁GPS	-11113
anish	-11114
▁menu	-11115
oignez	-11116
ribles	-11117
▁aside	-11118
▁cesse	-11119
▁elder	-11120
▁roses	-11121
▁tâche	-11122
▁débile	-11123
▁regular	-11124
▁argument	-11125
▁véhicule	-11126
▁rattraper	-11127
▁Évidemment	-11128
6,	-11129
imet	-11130
▁Seb	-11131
▁nig	-11132
▁stim	-11133
retien	-11134
▁facts	-11135
▁échant	-11136
▁cadavre	-11137
▁respond	-11138
lim	-11139
▁Piper	-11140
▁forcément	-11141
▁frontière	-11142
▁journaliste	-11143
▁3,	-11144
olis	-11145
opper	-11146
▁Champ	-11147
▁Colle	-11148
▁saint	-11149
▁accent	-11150
▁strate	-11151
mann	-11152
▁Mik	-11153
berry	-11154
▁Nich	-11155
▁Haley	-11156
▁actor	-11157
▁sacrée	-11158
▁aimerait	-11159
arts	-11160
gers	-11161
othy	-11162
▁Ned	-11163
éraux	-11164
▁lame	-11165
anning	-11166
▁brains	-11167
onnaie	-11168
érature	-11169
▁Alicia	-11170
▁Seattle	-11171
▁hurting	-11172
AP	-11173
VER	-11174
etnam	-11175
▁Times	-11176
▁juice	-11177
▁prime	-11178
▁Wouldn	-11179
▁limites	-11180
▁younger	-11181
▁clinique	-11182
▁disaster	-11183
▁respecter	-11184
zer	-11185
▁Pic	-11186
oigne	-11187
▁sneak	-11188
▁poupée	-11189
▁silver	-11190
▁closing	-11191
▁salaire	-11192
▁trigger	-11193
athe	-11194
stal	-11195
iante	-11196
▁Maya	-11197
▁moves	-11198
▁mostly	-11199
▁statue	-11200
▁tattoo	-11201
▁échoué	-11202
▁becomes	-11203
▁entrance	-11204
▁Commission	-11205
0,	-11206
gée	-11207
oty	-11208
▁maqu	-11209
▁Mince	-11210
▁neighbors	-11211
▁prisonniers	-11212
▁dout	-11213
▁vélo	-11214
▁aurons	-11215
▁ménage	-11216
▁decisions	-11217
▁Traduction	-11218
box	-11219
din	-11220
osex	-11221
▁Mah	-11222
ights	-11223
▁Dana	-11224
▁gest	-11225
▁bride	-11226
▁lancé	-11227
▁revol	-11228
▁Marine	-11229
▁blancs	-11230
▁jumped	-11231
▁masque	-11232
▁kidnapping	-11233
ayez	-11234
chons	-11235
▁Road	-11236
▁insc	-11237
▁Norman	-11238
▁fantas	-11239
▁proven	-11240
fortable	-11241
▁billion	-11242
▁passing	-11243
▁structure	-11244
8,	-11245
▁£	-11246
▁Def	-11247
▁unh	-11248
▁vib	-11249
stead	-11250
▁diab	-11251
▁porc	-11252
▁Diego	-11253
▁dégoû	-11254
▁metal	-11255
▁Excell	-11256
▁casier	-11257
▁Entendu	-11258
▁prévenu	-11259
important	-11260
▁Minister	-11261
▁décisions	-11262
ébé	-11263
▁42	-11264
▁Kids	-11265
▁Pris	-11266
offrir	-11267
onnées	-11268
▁Quant	-11269
▁royal	-11270
ologist	-11271
▁Partez	-11272
▁moteur	-11273
oga	-11274
▁Home	-11275
▁lips	-11276
▁nuts	-11277
▁ward	-11278
▁Burke	-11279
▁Tracy	-11280
▁winning	-11281
▁Christopher	-11282
pse	-11283
▁7:	-11284
▁Ax	-11285
▁bâ	-11286
▁Tues	-11287
▁acte	-11288
▁couv	-11289
▁fass	-11290
resser	-11291
▁birds	-11292
▁commer	-11293
▁confort	-11294
▁journey	-11295
▁refuser	-11296
usez	-11297
▁Amb	-11298
enreg	-11299
roger	-11300
▁Allen	-11301
▁rayon	-11302
▁Nicole	-11303
▁arbres	-11304
▁elimin	-11305
▁events	-11306
▁veille	-11307
▁intense	-11308
▁secrète	-11309
▁bracelet	-11310
▁reviendrai	-11311
OP	-11312
That	-11313
hold	-11314
aline	-11315
icien	-11316
▁isol	-11317
▁vill	-11318
▁initi	-11319
▁phrase	-11320
▁destiny	-11321
▁protège	-11322
ller	-11323
walk	-11324
▁Fif	-11325
▁Mid	-11326
herbe	-11327
▁Drew	-11328
▁Blanc	-11329
▁plays	-11330
▁Mexique	-11331
▁potential	-11332
dia	-11333
eufs	-11334
aning	-11335
▁raid	-11336
▁récl	-11337
acteur	-11338
amener	-11339
▁Girls	-11340
▁porté	-11341
▁modern	-11342
▁repeat	-11343
▁signes	-11344
▁projets	-11345
▁selfish	-11346
ARD	-11347
▁nurs	-11348
▁lutte	-11349
▁chargé	-11350
▁voyais	-11351
▁Vanessa	-11352
▁ancienne	-11353
▁5:	-11354
ardo	-11355
olas	-11356
sier	-11357
▁Dex	-11358
▁Jas	-11359
▁Gina	-11360
▁Madam	-11361
▁Speak	-11362
▁boobs	-11363
▁coïnc	-11364
▁moque	-11365
▁sharp	-11366
▁trunk	-11367
▁Italian	-11368
▁besides	-11369
▁ceinture	-11370
vor	-11371
▁NO	-11372
irts	-11373
achez	-11374
leton	-11375
▁Chap	-11376
▁Perm	-11377
▁Satan	-11378
▁Coming	-11379
▁establ	-11380
▁knocked	-11381
▁remplir	-11382
▁directly	-11383
▁recommend	-11384
bra	-11385
hal	-11386
iew	-11387
uil	-11388
wan	-11389
▁Sep	-11390
▁Army	-11391
▁filer	-11392
▁refused	-11393
▁cheating	-11394
▁creature	-11395
▁intentions	-11396
away	-11397
▁Dal	-11398
utter	-11399
▁Joli	-11400
▁répéter	-11401
▁Pardonnez	-11402
até	-11403
ggie	-11404
ivan	-11405
▁Wade	-11406
▁Clara	-11407
nements	-11408
▁ballon	-11409
▁tennis	-11410
▁devoirs	-11411
assurance	-11412
▁inquiète	-11413
sen	-11414
cast	-11415
mony	-11416
▁Patty	-11417
▁campus	-11418
▁manage	-11419
▁venais	-11420
▁Promise	-11421
▁engagement	-11422
ih	-11423
huh	-11424
gate	-11425
orce	-11426
vens	-11427
▁brûlé	-11428
▁dates	-11429
▁stake	-11430
▁launch	-11431
▁Puisque	-11432
▁cooking	-11433
war	-11434
▁zoo	-11435
roché	-11436
▁Karl	-11437
▁corn	-11438
render	-11439
▁profil	-11440
ellement	-11441
▁consequ	-11442
▁interrupt	-11443
▁torn	-11444
▁Diana	-11445
▁galax	-11446
▁minds	-11447
▁singe	-11448
▁têtes	-11449
▁Bailey	-11450
▁limite	-11451
▁carried	-11452
▁engaged	-11453
▁récompense	-11454
isses	-11455
▁Shin	-11456
▁lake	-11457
▁Bauer	-11458
▁Cross	-11459
ueillir	-11460
▁reaction	-11461
▁ID	-11462
▁pé	-11463
▁doué	-11464
▁domest	-11465
▁idiote	-11466
▁plaque	-11467
▁Premier	-11468
▁sensible	-11469
▁atteindre	-11470
enée	-11471
▁Fat	-11472
enter	-11473
usses	-11474
▁Copy	-11475
▁aper	-11476
▁decl	-11477
▁détour	-11478
▁forcer	-11479
▁mobile	-11480
▁secure	-11481
▁reconnu	-11482
▁darkness	-11483
▁elevator	-11484
▁emotional	-11485
▁incapable	-11486
▁embarrassed	-11487
▁Éc	-11488
▁intr	-11489
▁juré	-11490
▁sers	-11491
▁unus	-11492
▁angle	-11493
utilise	-11494
▁dispon	-11495
▁tracks	-11496
▁certific	-11497
▁experiment	-11498
▁5.	-11499
anes	-11500
élect	-11501
▁Geor	-11502
▁gaffe	-11503
aimerai	-11504
apporter	-11505
▁Natalie	-11506
▁saurais	-11507
▁Benjamin	-11508
▁separate	-11509
▁Unbelievable	-11510
ids	-11511
phe	-11512
hern	-11513
rett	-11514
▁soy	-11515
▁poll	-11516
éviter	-11517
▁aient	-11518
▁arrog	-11519
▁costs	-11520
▁backup	-11521
▁gather	-11522
▁refuge	-11523
▁secteur	-11524
▁shel	-11525
accepte	-11526
oubliez	-11527
▁yellow	-11528
▁hitting	-11529
▁theater	-11530
▁essayait	-11531
▁chop	-11532
▁lear	-11533
▁lundi	-11534
▁Tuesday	-11535
▁curieux	-11536
▁testify	-11537
▁answering	-11538
▁assassiné	-11539
▁customers	-11540
▁impatient	-11541
gor	-11542
▁AT	-11543
▁Ellie	-11544
▁mercy	-11545
▁union	-11546
▁bouton	-11547
appareil	-11548
▁repouss	-11549
aku	-11550
uin	-11551
appr	-11552
▁Lake	-11553
▁rise	-11554
▁Thurs	-11555
▁multi	-11556
▁épuis	-11557
▁August	-11558
▁kilomètres	-11559
My	-11560
▁om	-11561
utor	-11562
▁Det	-11563
▁Kore	-11564
▁Shir	-11565
▁sper	-11566
▁infin	-11567
▁potes	-11568
▁habite	-11569
humanité	-11570
▁Sérieux	-11571
▁assurer	-11572
▁drogues	-11573
don	-11574
acée	-11575
▁Hugh	-11576
▁Neil	-11577
▁Ay	-11578
uyer	-11579
▁bury	-11580
ipping	-11581
▁media	-11582
▁pussy	-11583
ivement	-11584
▁gloire	-11585
▁incons	-11586
▁caution	-11587
▁chasing	-11588
▁panique	-11589
▁produits	-11590
▁authority	-11591
▁photograp	-11592
▁edge	-11593
▁helps	-11594
▁tasse	-11595
▁legend	-11596
levision	-11597
▁blessée	-11598
▁federal	-11599
▁foreign	-11600
▁identify	-11601
igné	-11602
prés	-11603
éant	-11604
▁navig	-11605
▁parte	-11606
iendrai	-11607
origine	-11608
▁County	-11609
▁choisis	-11610
▁accepted	-11611
▁bisc	-11612
▁cord	-11613
rément	-11614
▁Claud	-11615
▁Eight	-11616
▁squad	-11617
▁Africa	-11618
▁intend	-11619
▁hid	-11620
▁Ivan	-11621
▁asse	-11622
▁risqué	-11623
▁avocats	-11624
▁neutral	-11625
▁Speaking	-11626
▁attaquer	-11627
▁generous	-11628
▁jugement	-11629
▁prostitu	-11630
▁standard	-11631
lymp	-11632
▁COM	-11633
arrin	-11634
▁Reyn	-11635
▁hais	-11636
▁dynam	-11637
▁démons	-11638
▁motive	-11639
▁competition	-11640
mma	-11641
▁égo	-11642
aiment	-11643
illons	-11644
▁prouve	-11645
▁pensiez	-11646
▁possibilité	-11647
pert	-11648
▁vag	-11649
tesse	-11650
▁100%	-11651
▁Dark	-11652
▁bann	-11653
raîner	-11654
▁excell	-11655
▁fourth	-11656
titution	-11657
▁chinois	-11658
▁domaine	-11659
roph	-11660
▁Meg	-11661
cover	-11662
▁Etes	-11663
▁Feel	-11664
▁Glad	-11665
▁jeun	-11666
▁fémin	-11667
▁répét	-11668
▁provide	-11669
▁chansons	-11670
ns	-11671
▁Rig	-11672
▁vil	-11673
▁Stup	-11674
▁bous	-11675
▁spoi	-11676
▁broad	-11677
▁empois	-11678
▁houses	-11679
▁couples	-11680
▁4.	-11681
▁THAT	-11682
▁east	-11683
▁secretary	-11684
▁understanding	-11685
mid	-11686
▁Sug	-11687
▁Suz	-11688
▁Diff	-11689
▁cance	-11690
érateur	-11691
▁écouté	-11692
▁qualité	-11693
▁soigner	-11694
▁créature	-11695
▁district	-11696
▁gangs	-11697
▁Leslie	-11698
▁objets	-11699
▁précis	-11700
▁repose	-11701
▁remonte	-11702
▁ceremony	-11703
▁vieilles	-11704
▁compassion	-11705
jah	-11706
reck	-11707
▁Ele	-11708
▁Fair	-11709
oigner	-11710
▁Throw	-11711
▁miroir	-11712
▁policy	-11713
▁apporte	-11714
▁Réveille	-11715
▁manifest	-11716
▁davantage	-11717
qués	-11718
▁Arn	-11719
ouest	-11720
undry	-11721
▁dict	-11722
▁pump	-11723
▁Chine	-11724
▁Point	-11725
▁decor	-11726
▁Stanley	-11727
▁appears	-11728
▁pattern	-11729
▁delivery	-11730
▁gouverneur	-11731
iao	-11732
▁ON	-11733
oted	-11734
▁obt	-11735
euvre	-11736
ierge	-11737
▁bound	-11738
▁chips	-11739
▁morgue	-11740
▁poussé	-11741
▁fragile	-11742
▁succeed	-11743
▁infection	-11744
▁bibliothèque	-11745
ether	-11746
▁tord	-11747
▁remis	-11748
▁détect	-11749
▁strict	-11750
▁Spanish	-11751
dra	-11752
▁4:	-11753
icted	-11754
▁Dear	-11755
▁fund	-11756
▁vacc	-11757
▁censée	-11758
▁croyait	-11759
▁classique	-11760
iece	-11761
▁11:	-11762
▁Top	-11763
▁Girl	-11764
▁Veux	-11765
▁skull	-11766
▁Bientôt	-11767
▁crossed	-11768
▁échappé	-11769
▁expression	-11770
▁évidemment	-11771
St	-11772
lig	-11773
▁massage	-11774
▁surprises	-11775
cca	-11776
rough	-11777
▁debt	-11778
▁deny	-11779
▁juger	-11780
▁optim	-11781
▁stays	-11782
▁voyait	-11783
▁counsel	-11784
▁faisaient	-11785
▁impressed	-11786
EST	-11787
ctob	-11788
▁cac	-11789
▁Tire	-11790
▁Conse	-11791
▁Domin	-11792
▁miser	-11793
▁sauté	-11794
▁vivait	-11795
▁wallet	-11796
▁Vietnam	-11797
▁degrees	-11798
▁Thursday	-11799
▁Probablement	-11800
OUS	-11801
gné	-11802
uteur	-11803
▁Chang	-11804
▁insul	-11805
▁Sebast	-11806
▁agency	-11807
▁oiseau	-11808
▁élèves	-11809
▁Anderson	-11810
▁conséquences	-11811
▁Daw	-11812
▁Rid	-11813
▁Janet	-11814
▁proposé	-11815
▁risquer	-11816
▁sources	-11817
▁sensation	-11818
▁personnelle	-11819
▁Rac	-11820
phine	-11821
▁hits	-11822
▁orch	-11823
anches	-11824
▁shift	-11825
feuille	-11826
▁Darrin	-11827
▁cookies	-11828
▁plastic	-11829
▁Veronica	-11830
▁suffered	-11831
iI	-11832
gles	-11833
▁Pope	-11834
▁rope	-11835
▁copie	-11836
▁Dehors	-11837
▁catast	-11838
entendez	-11839
▁Miranda	-11840
▁accused	-11841
▁bonbons	-11842
▁conspir	-11843
▁reprend	-11844
▁trained	-11845
▁participer	-11846
▁mademoiselle	-11847
ownt	-11848
▁bye	-11849
▁Sylv	-11850
▁Whoo	-11851
▁miel	-11852
▁winner	-11853
▁oiseaux	-11854
▁retourné	-11855
▁intéressé	-11856
▁underwear	-11857
▁étudiants	-11858
iences	-11859
▁lower	-11860
▁skills	-11861
▁appréci	-11862
▁charger	-11863
▁prétend	-11864
▁Franklin	-11865
▁Inspector	-11866
▁financial	-11867
cr	-11868
wa	-11869
mie	-11870
▁Jar	-11871
▁Stri	-11872
▁Collins	-11873
▁Senator	-11874
▁wounded	-11875
chau	-11876
▁Moy	-11877
itial	-11878
▁vodka	-11879
▁phones	-11880
▁anciens	-11881
▁suggère	-11882
▁Demandez	-11883
▁chiffres	-11884
▁bothering	-11885
▁chirurgie	-11886
▁prisoners	-11887
ruti	-11888
▁150	-11889
▁Tan	-11890
atifs	-11891
belle	-11892
entes	-11893
quant	-11894
▁Turk	-11895
▁Vers	-11896
ologue	-11897
▁Booth	-11898
▁Canada	-11899
▁verres	-11900
▁américaine	-11901
âts	-11902
ATION	-11903
▁Cale	-11904
▁oxyg	-11905
▁bluff	-11906
▁drill	-11907
▁falls	-11908
▁taper	-11909
▁Avance	-11910
▁entour	-11911
onscious	-11912
▁Heather	-11913
▁Reculez	-11914
▁sexuelle	-11915
lee	-11916
uct	-11917
Vous	-11918
under	-11919
▁boom	-11920
▁Buddy	-11921
▁Doyle	-11922
▁Occup	-11923
▁Donald	-11924
▁chaude	-11925
▁escort	-11926
▁stratég	-11927
▁determin	-11928
▁agreement	-11929
▁poussière	-11930
▁eventually	-11931
▁plaisantes	-11932
EM	-11933
▁wid	-11934
aises	-11935
irent	-11936
▁Bébé	-11937
▁banc	-11938
▁thor	-11939
reamed	-11940
▁Quick	-11941
▁babys	-11942
▁novel	-11943
▁curios	-11944
▁Instead	-11945
▁garbage	-11946
istrement	-11947
▁hundreds	-11948
▁Obviously	-11949
iva	-11950
iels	-11951
▁Shaw	-11952
▁Sold	-11953
▁India	-11954
▁Naomi	-11955
▁paran	-11956
arrivée	-11957
▁dessin	-11958
▁dreaming	-11959
▁formation	-11960
▁sensitive	-11961
aco	-11962
kel	-11963
pas	-11964
adel	-11965
oard	-11966
overy	-11967
inquiè	-11968
▁kinds	-11969
▁serial	-11970
▁attempt	-11971
▁déposer	-11972
▁parlerai	-11973
▁émission	-11974
▁arrangement	-11975
▁célibataire	-11976
lace	-11977
▁Boo	-11978
▁péd	-11979
oblig	-11980
▁Brid	-11981
▁Year	-11982
▁surf	-11983
▁noirs	-11984
▁swing	-11985
▁Graham	-11986
▁jusque	-11987
▁pointe	-11988
▁Dégagez	-11989
▁ancient	-11990
▁windows	-11991
▁chanceux	-11992
▁marchand	-11993
▁criminels	-11994
chent	-11995
odeur	-11996
▁Plan	-11997
▁Step	-11998
▁lung	-11999
▁pride	-12000
▁Commun	-12001
▁alliez	-12002
▁difficiles	-12003
reau	-12004
sile	-12005
▁tum	-12006
anges	-12007
ièvre	-12008
▁curse	-12009
▁stabb	-12010
▁guitar	-12011
habiller	-12012
▁confront	-12013
▁division	-12014
▁respecte	-12015
▁témoigner	-12016
ocr	-12017
arks	-12018
▁Lore	-12019
▁purs	-12020
uelles	-12021
▁Going	-12022
▁atmos	-12023
▁brûle	-12024
▁causé	-12025
▁colon	-12026
▁patri	-12027
▁causes	-12028
▁disque	-12029
▁produc	-12030
▁prenait	-12031
▁treasure	-12032
euil	-12033
▁unité	-12034
▁dérang	-12035
▁method	-12036
▁séance	-12037
▁Dommage	-12038
▁donnent	-12039
▁naturel	-12040
▁progrès	-12041
▁sympath	-12042
▁believes	-12043
▁lumières	-12044
▁terminer	-12045
▁procédure	-12046
obé	-12047
etre	-12048
essai	-12049
illet	-12050
▁Pars	-12051
▁craw	-12052
▁mustn	-12053
▁rocks	-12054
▁Curtis	-12055
▁Enlève	-12056
▁divine	-12057
▁monnaie	-12058
▁Préparez	-12059
▁critique	-12060
▁Katherine	-12061
▁disparition	-12062
▁FOR	-12063
▁nan	-12064
étude	-12065
▁Compl	-12066
▁fever	-12067
AND	-12068
▁nut	-12069
istry	-12070
▁royaume	-12071
▁spiritu	-12072
▁terrorist	-12073
veu	-12074
oule	-12075
▁Ohh	-12076
▁dust	-12077
▁prec	-12078
▁Women	-12079
▁fumée	-12080
▁minor	-12081
▁Freddy	-12082
▁couvre	-12083
▁manipul	-12084
▁ordinary	-12085
▁surrounded	-12086
amas	-12087
▁bav	-12088
atric	-12089
▁gêne	-12090
▁égal	-12091
athers	-12092
jected	-12093
▁tirez	-12094
▁corpor	-12095
▁décoll	-12096
▁profile	-12097
▁émotion	-12098
▁pareille	-12099
▁motherfucker	-12100
étud	-12101
▁Kal	-12102
aimez	-12103
▁Souv	-12104
▁Yang	-12105
▁puzz	-12106
redith	-12107
▁Colin	-12108
▁kilos	-12109
▁clever	-12110
▁coordin	-12111
▁perturb	-12112
▁entièrement	-12113
▁reconnaître	-12114
arez	-12115
▁urg	-12116
rolog	-12117
▁Lève	-12118
▁estate	-12119
▁unusual	-12120
▁10.	-12121
lying	-12122
▁appareil	-12123
▁courageux	-12124
oine	-12125
▁diz	-12126
aquer	-12127
enger	-12128
opter	-12129
▁Balt	-12130
▁Stew	-12131
▁Ward	-12132
▁belt	-12133
▁dawn	-12134
▁vari	-12135
▁Être	-12136
......	-12137
mbered	-12138
▁School	-12139
▁detect	-12140
▁effets	-12141
▁lignes	-12142
▁depends	-12143
▁judgment	-12144
cal	-12145
ined	-12146
▁Exp	-12147
▁île	-12148
atory	-12149
▁gain	-12150
▁wins	-12151
▁livrer	-12152
▁Univers	-12153
▁lawyers	-12154
▁déplacer	-12155
▁territoire	-12156
If	-12157
hent	-12158
ansas	-12159
▁Crow	-12160
▁Déjà	-12161
auriez	-12162
▁boite	-12163
▁manques	-12164
▁menteur	-12165
▁séparer	-12166
▁urgence	-12167
▁étudier	-12168
▁mountains	-12169
rade	-12170
▁units	-12171
▁Attend	-12172
▁Bureau	-12173
▁Garcia	-12174
▁emmène	-12175
▁Service	-12176
▁Meredith	-12177
roe	-12178
assi	-12179
jack	-12180
accus	-12181
▁Also	-12182
▁coté	-12183
▁Baker	-12184
▁Miguel	-12185
▁causer	-12186
▁enlève	-12187
▁prepar	-12188
▁livrais	-12189
▁étonnant	-12190
▁Gw	-12191
▁Dod	-12192
pherd	-12193
▁Lion	-12194
▁spin	-12195
▁égoï	-12196
▁Klaus	-12197
▁frank	-12198
▁fêter	-12199
▁Silver	-12200
▁Stefan	-12201
▁contro	-12202
▁misund	-12203
▁passés	-12204
▁whisky	-12205
▁associé	-12206
▁library	-12207
▁restent	-12208
▁verdict	-12209
▁extremely	-12210
▁31	-12211
▁Syn	-12212
▁Kind	-12213
▁lent	-12214
enlever	-12215
▁circle	-12216
▁voudra	-12217
▁Montrez	-12218
▁capture	-12219
ghanistan	-12220
▁approach	-12221
▁préférée	-12222
oide	-12223
▁obé	-12224
▁breast	-12225
▁trouverez	-12226
reuve	-12227
▁Judy	-12228
▁mété	-12229
▁sacs	-12230
onnect	-12231
▁Manny	-12232
▁impact	-12233
▁Simpson	-12234
▁kingdom	-12235
▁plateau	-12236
uki	-12237
▁00,	-12238
itime	-12239
ormes	-12240
water	-12241
▁accusé	-12242
▁Harrison	-12243
▁precious	-12244
▁pique	-12245
▁libéré	-12246
▁précéd	-12247
▁classes	-12248
▁alliance	-12249
▁homework	-12250
▁identité	-12251
uke	-12252
rime	-12253
▁hes	-12254
▁nap	-12255
▁Enjoy	-12256
▁joined	-12257
▁ability	-12258
▁employees	-12259
▁pretending	-12260
Si	-12261
rect	-12262
▁Hunt	-12263
▁déte	-12264
belles	-12265
▁Turner	-12266
▁alcool	-12267
▁talents	-12268
▁75	-12269
dale	-12270
▁evacu	-12271
▁Sharon	-12272
▁déguis	-12273
▁volant	-12274
▁Emmenez	-12275
▁semblez	-12276
▁visiter	-12277
▁courrier	-12278
▁connaissent	-12279
Est	-12280
ati	-12281
hon	-12282
ria	-12283
▁unf	-12284
▁Avery	-12285
▁Nicky	-12286
▁obser	-12287
railles	-12288
▁Chacun	-12289
▁highly	-12290
▁avancer	-12291
▁musical	-12292
acey	-12293
opsy	-12294
▁paire	-12295
▁stade	-12296
▁clinic	-12297
▁tireur	-12298
▁enterré	-12299
▁chouette	-12300
▁diagnost	-12301
▁childhood	-12302
▁suspicious	-12303
▁Dém	-12304
▁Yet	-12305
▁ratt	-12306
▁Chand	-12307
▁Might	-12308
▁sides	-12309
▁Grayson	-12310
▁leading	-12311
▁mystère	-12312
▁traumat	-12313
▁environment	-12314
irons	-12315
▁Fore	-12316
▁plai	-12317
▁punk	-12318
▁sque	-12319
▁Lydia	-12320
▁jokes	-12321
▁mondi	-12322
▁Lindsay	-12323
iki	-12324
ayer	-12325
▁Cob	-12326
▁Pré	-12327
▁Book	-12328
icules	-12329
imeter	-12330
▁cancel	-12331
▁attacks	-12332
▁someday	-12333
▁soudain	-12334
▁Princess	-12335
▁negative	-12336
▁thérapie	-12337
▁literally	-12338
▁réception	-12339
▁franchement	-12340
▁transformer	-12341
▁Head	-12342
▁beur	-12343
▁clim	-12344
▁poil	-12345
▁Sleep	-12346
▁argue	-12347
▁écriv	-12348
▁Stuart	-12349
▁coûter	-12350
▁parfum	-12351
▁respire	-12352
▁servant	-12353
▁politics	-12354
entreprise	-12355
▁Valentine	-12356
▁interromp	-12357
ichi	-12358
▁pom	-12359
▁var	-12360
▁Chut	-12361
▁réve	-12362
▁task	-12363
iminer	-12364
▁Anybody	-12365
▁rappell	-12366
▁Rappelle	-12367
LD	-12368
▁Fou	-12369
arian	-12370
▁Luci	-12371
▁Santé	-12372
▁attach	-12373
▁pensée	-12374
▁troupes	-12375
▁suivante	-12376
-4	-12377
dez	-12378
▁ADN	-12379
▁Hod	-12380
▁Loc	-12381
▁Sha	-12382
ossip	-12383
▁dames	-12384
▁crisis	-12385
▁devras	-12386
▁reveal	-12387
▁Madison	-12388
▁central	-12389
▁meurent	-12390
▁attendent	-12391
▁̈	-12392
▁CE	-12393
ieur	-12394
▁Ath	-12395
▁Whe	-12396
▁lié	-12397
▁tau	-12398
allas	-12399
itate	-12400
▁mere	-12401
▁term	-12402
▁épée	-12403
▁Broad	-12404
▁Hotel	-12405
▁récol	-12406
▁title	-12407
▁sortes	-12408
▁costumes	-12409
▁whenever	-12410
▁Certainly	-12411
▁tentative	-12412
oko	-12413
what	-12414
▁conj	-12415
▁began	-12416
▁grace	-12417
▁hérit	-12418
essions	-12419
▁valise	-12420
▁Lorsque	-12421
▁sauvage	-12422
▁successful	-12423
ouff	-12424
wife	-12425
▁mit	-12426
▁leak	-12427
▁tours	-12428
▁votes	-12429
▁Trevor	-12430
abandonner	-12431
▁impressive	-12432
▁terroristes	-12433
▁Pa	-12434
cope	-12435
ural	-12436
▁Brun	-12437
▁Trav	-12438
▁Etats	-12439
quelles	-12440
▁sommet	-12441
issements	-12442
▁opposite	-12443
▁Américains	-12444
▁compétition	-12445
▁ç	-12446
nal	-12447
▁DV	-12448
ship	-12449
▁Boyd	-12450
▁Shel	-12451
▁loan	-12452
▁rond	-12453
▁envis	-12454
issions	-12455
▁Fermez	-12456
▁hardly	-12457
▁Harvard	-12458
▁matière	-12459
▁serpent	-12460
▁Pourriez	-12461
▁collègue	-12462
▁paraître	-12463
▁raisonnable	-12464
▁merveilleuse	-12465
aube	-12466
gypt	-12467
▁dil	-12468
▁foie	-12469
▁mile	-12470
▁soif	-12471
▁stalk	-12472
▁brillant	-12473
▁television	-12474
▁investigating	-12475
nce	-12476
▁Oz	-12477
▁Moo	-12478
amuse	-12479
▁épis	-12480
▁Whose	-12481
▁codes	-12482
▁coord	-12483
▁odeur	-12484
▁Willie	-12485
▁nôtres	-12486
▁sortis	-12487
▁verrou	-12488
▁council	-12489
▁laundry	-12490
▁vivants	-12491
▁Yesterday	-12492
▁télévision	-12493
▁Reid	-12494
▁coiff	-12495
▁digne	-12496
▁sable	-12497
▁saute	-12498
issante	-12499
▁Duncan	-12500
▁fishing	-12501
▁footage	-12502
▁freaking	-12503
▁exhausted	-12504
rig	-12505
foot	-12506
▁pis	-12507
▁irait	-12508
▁active	-12509
▁Brandon	-12510
▁consequences	-12511
▁lé	-12512
▁ped	-12513
ipper	-12514
▁Code	-12515
habitu	-12516
▁domin	-12517
▁uncom	-12518
▁Termin	-12519
▁empire	-12520
▁shadow	-12521
▁collier	-12522
restation	-12523
▁annivers	-12524
▁patiente	-12525
▁extrêmement	-12526
oom	-12527
iere	-12528
▁heu	-12529
▁Hend	-12530
▁Mach	-12531
▁guts	-12532
aravant	-12533
▁Hunter	-12534
▁Envoyez	-12535
▁Shouldn	-12536
▁minimum	-12537
▁puisses	-12538
▁surgeon	-12539
▁Juliette	-12540
▁pardonne	-12541
▁Ll	-12542
bing	-12543
shot	-12544
ueil	-12545
▁Best	-12546
▁wolf	-12547
▁Charm	-12548
▁Guard	-12549
▁Money	-12550
▁aspir	-12551
▁Autant	-12552
▁confus	-12553
▁motion	-12554
▁Mauvais	-12555
▁choices	-12556
▁considé	-12557
▁copains	-12558
▁semblerait	-12559
▁Snow	-12560
▁Wild	-12561
▁coke	-12562
▁taux	-12563
▁Wyatt	-12564
▁raped	-12565
▁bijoux	-12566
▁disons	-12567
▁pensons	-12568
▁sortira	-12569
▁conclusion	-12570
levés	-12571
▁sûrs	-12572
▁drank	-12573
▁trahi	-12574
▁Rendez	-12575
▁entrep	-12576
▁golden	-12577
▁combatt	-12578
▁retenir	-12579
▁listened	-12580
▁étudiant	-12581
▁nucléaire	-12582
▁révolution	-12583
aze	-12584
ône	-12585
▁Fro	-12586
▁asc	-12587
ivered	-12588
▁radar	-12589
▁habits	-12590
▁mechan	-12591
▁spoken	-12592
▁invitée	-12593
▁species	-12594
▁designed	-12595
▁imagined	-12596
▁permanent	-12597
iple	-12598
stone	-12599
▁myth	-12600
▁Prote	-12601
▁restée	-12602
▁thrown	-12603
▁writer	-12604
▁effects	-12605
▁précieux	-12606
▁Wolf	-12607
▁dimin	-12608
▁décès	-12609
▁fêtes	-12610
▁paras	-12611
▁pushing	-12612
▁receive	-12613
▁supporte	-12614
▁montagnes	-12615
aga	-12616
▁Mia	-12617
▁chè	-12618
▁née	-12619
▁Bang	-12620
▁Full	-12621
▁buff	-12622
▁perf	-12623
▁wide	-12624
iquent	-12625
▁embar	-12626
▁ravie	-12627
▁Govern	-12628
▁recruit	-12629
▁rentres	-12630
▁nationale	-12631
load	-12632
pson	-12633
rimé	-12634
▁nana	-12635
▁manne	-12636
▁trous	-12637
▁faisiez	-12638
▁malades	-12639
▁uniforme	-12640
midt	-12641
▁Asi	-12642
aurez	-12643
▁Luck	-12644
▁rupt	-12645
▁secou	-12646
▁Summer	-12647
▁copies	-12648
▁dégâts	-12649
▁voyant	-12650
▁éloign	-12651
▁mettent	-12652
▁suffisant	-12653
▁remembered	-12654
▁yourselves	-12655
ctu	-12656
char	-12657
▁Lam	-12658
icial	-12659
▁furn	-12660
▁jouez	-12661
obtenir	-12662
▁jouait	-12663
▁passez	-12664
▁senior	-12665
▁teaching	-12666
▁étrangers	-12667
▁explication	-12668
enda	-12669
look	-12670
▁Cir	-12671
▁Déb	-12672
érité	-12673
▁Rain	-12674
▁Cindy	-12675
▁dedic	-12676
▁essai	-12677
▁Grande	-12678
immeuble	-12679
explosion	-12680
information	-12681
▁Idiot	-12682
▁trave	-12683
▁locker	-12684
▁Philipp	-12685
▁Wallace	-12686
▁chasser	-12687
▁related	-12688
▁articles	-12689
ika	-12690
ilé	-12691
oen	-12692
upp	-12693
ortion	-12694
▁régul	-12695
▁ferons	-12696
▁finale	-12697
▁fright	-12698
▁bagages	-12699
▁conduct	-12700
rina	-12701
▁Sin	-12702
▁mum	-12703
▁Boys	-12704
▁Dist	-12705
▁McGee	-12706
▁douée	-12707
▁stops	-12708
▁veget	-12709
▁aboard	-12710
▁détail	-12711
▁sexuel	-12712
▁wishes	-12713
▁Antonio	-12714
▁affreux	-12715
▁descends	-12716
▁pourrons	-12717
▁Alexander	-12718
▁confidence	-12719
▁reasonable	-12720
▁bét	-12721
▁sty	-12722
▁syn	-12723
assad	-12724
étage	-12725
▁Dois	-12726
▁econ	-12727
ulsion	-12728
▁Rends	-12729
▁Alison	-12730
▁Reagan	-12731
▁assise	-12732
▁guérir	-12733
▁pirate	-12734
▁series	-12735
▁Stevens	-12736
▁besoins	-12737
▁Retourne	-12738
▁dropping	-12739
▁election	-12740
▁basically	-12741
▁souffrance	-12742
▁destination	-12743
▁travaillent	-12744
▁raf	-12745
▁bump	-12746
▁poul	-12747
▁scan	-12748
▁boucl	-12749
▁finis	-12750
▁allerg	-12751
▁rigole	-12752
▁milliards	-12753
▁auparavant	-12754
▁portefeuille	-12755
rete	-12756
▁Key	-12757
▁dat	-12758
▁nail	-12759
▁Henri	-12760
▁moust	-12761
▁Denise	-12762
▁comité	-12763
Re	-12764
▁Az	-12765
▁pa	-12766
ston	-12767
çait	-12768
▁Kan	-12769
▁Nan	-12770
▁Pad	-12771
▁Cham	-12772
▁moto	-12773
▁Music	-12774
▁Carson	-12775
▁barbec	-12776
▁defeat	-12777
▁shrink	-12778
▁artiste	-12779
▁gratuit	-12780
▁Surprise	-12781
▁troubles	-12782
▁convention	-12783
.?	-12784
▁ET	-12785
vons	-12786
wels	-12787
image	-12788
imony	-12789
cedure	-12790
▁Krist	-12791
▁Oncle	-12792
▁biens	-12793
▁forts	-12794
▁ought	-12795
▁muscles	-12796
▁similar	-12797
▁yelling	-12798
▁fantômes	-12799
▁protected	-12800
agg	-12801
▁Ban	-12802
▁Chi	-12803
▁Nah	-12804
▁Woo	-12805
▁dup	-12806
▁Noah	-12807
▁Crist	-12808
▁admir	-12809
▁bills	-12810
▁étape	-12811
▁appren	-12812
▁bagarre	-12813
▁CON	-12814
▁mig	-12815
▁pes	-12816
▁Adieu	-12817
▁Matty	-12818
▁Porter	-12819
▁outfit	-12820
▁conduite	-12821
new	-12822
izes	-12823
èles	-12824
▁agit	-12825
ashing	-12826
ercice	-12827
▁blond	-12828
▁bombes	-12829
▁cowboy	-12830
▁Morning	-12831
▁fashion	-12832
▁wanting	-12833
▁renvoyer	-12834
▁sometime	-12835
▁studying	-12836
▁cherchait	-12837
▁confirmed	-12838
IRE	-12839
ella	-12840
mous	-12841
obal	-12842
▁Cep	-12843
▁eau	-12844
▁ger	-12845
▁dram	-12846
▁ling	-12847
▁Blair	-12848
▁barri	-12849
▁mécan	-12850
▁placé	-12851
▁humble	-12852
▁review	-12853
▁Thompson	-12854
▁fouiller	-12855
▁organisé	-12856
bi	-12857
but	-12858
umi	-12859
Etat	-12860
▁plu	-12861
apped	-12862
▁Meet	-12863
▁marsh	-12864
▁remett	-12865
▁reçois	-12866
▁painful	-12867
▁Certaines	-12868
arrestation	-12869
mails	-12870
phere	-12871
▁asks	-12872
▁pari	-12873
▁trac	-12874
▁fallen	-12875
▁pattes	-12876
▁solide	-12877
▁Episode	-12878
▁enfermé	-12879
▁entrain	-12880
▁forgiven	-12881
▁learning	-12882
▁résister	-12883
▁émotions	-12884
eup	-12885
▁DU	-12886
bury	-12887
▁Tue	-12888
▁hip	-12889
kward	-12890
▁douz	-12891
istant	-12892
▁Makes	-12893
▁conce	-12894
▁Pierce	-12895
▁Spring	-12896
▁timing	-12897
▁termine	-12898
IP	-12899
ouch	-12900
▁Pey	-12901
assez	-12902
eline	-12903
océan	-12904
▁wave	-12905
▁zero	-12906
▁Crane	-12907
▁indic	-12908
▁jaune	-12909
▁pénis	-12910
▁donnée	-12911
▁palais	-12912
▁saigne	-12913
▁reminds	-12914
▁fauteuil	-12915
▁presents	-12916
▁weakness	-12917
éte	-12918
uthor	-12919
▁Bois	-12920
▁chic	-12921
▁stub	-12922
▁poule	-12923
▁slave	-12924
▁flower	-12925
▁messed	-12926
▁nettoy	-12927
▁allaient	-12928
▁cassette	-12929
▁philosoph	-12930
▁pouvaient	-12931
▁punishment	-12932
gre	-12933
aude	-12934
▁Arm	-12935
▁ign	-12936
▁voc	-12937
ortex	-12938
▁bouff	-12939
▁suffisamment	-12940
yr	-12941
chet	-12942
writ	-12943
▁Var	-12944
▁unp	-12945
▁Real	-12946
▁auto	-12947
▁noon	-12948
ignons	-12949
imming	-12950
▁Erica	-12951
▁purse	-12952
▁taill	-12953
▁addict	-12954
▁zombie	-12955
▁adultes	-12956
▁quality	-12957
▁poissons	-12958
▁populaire	-12959
▁supérieur	-12960
dog	-12961
▁DVD	-12962
▁Hug	-12963
idiot	-12964
▁Cost	-12965
▁Hand	-12966
▁Read	-12967
▁pity	-12968
▁masse	-12969
▁ranch	-12970
▁Couldn	-12971
▁absurd	-12972
▁vérifie	-12973
▁sénateur	-12974
▁Sebastian	-12975
▁supplément	-12976
▁clai	-12977
▁dece	-12978
▁tabl	-12979
▁chase	-12980
▁youth	-12981
▁condamné	-12982
▁possibility	-12983
oly	-12984
îné	-12985
▁PL	-12986
▁Cad	-12987
▁Ugh	-12988
▁jap	-12989
▁mak	-12990
apers	-12991
▁chip	-12992
▁congé	-12993
▁disag	-12994
▁examen	-12995
▁sacred	-12996
▁pervers	-12997
▁jeunesse	-12998
▁publique	-12999
▁officially	-13000
▁revolution	-13001
▁débrouiller	-13002
▁extraordinary	-13003
IV	-13004
bow	-13005
isp	-13006
▁Dw	-13007
gade	-13008
▁pend	-13009
▁soirs	-13010
▁Totally	-13011
▁cliente	-13012
▁légende	-13013
▁touchez	-13014
▁committee	-13015
▁malheureux	-13016
▁officiellement	-13017
uiss	-13018
▁15.	-13019
▁Craw	-13020
▁thri	-13021
▁clubs	-13022
▁admire	-13023
▁disput	-13024
▁prises	-13025
▁remise	-13026
▁Commence	-13027
▁Dépêchez	-13028
▁charming	-13029
▁policiers	-13030
▁premières	-13031
▁considering	-13032
▁profondément	-13033
ulp	-13034
▁Isa	-13035
▁Prot	-13036
enlève	-13037
▁bleue	-13038
▁idéal	-13039
▁suivez	-13040
▁traitor	-13041
▁citizens	-13042
▁fingerprints	-13043
cop	-13044
This	-13045
accept	-13046
▁courte	-13047
▁diplôme	-13048
▁monstres	-13049
▁lentement	-13050
▁procedure	-13051
▁deviennent	-13052
HT	-13053
▁Ji	-13054
▁pn	-13055
enci	-13056
olan	-13057
▁Lil	-13058
ramme	-13059
écout	-13060
▁Rabb	-13061
▁Small	-13062
▁exter	-13063
▁immun	-13064
▁logic	-13065
▁désast	-13066
▁random	-13067
▁épousé	-13068
▁éterne	-13069
▁Careful	-13070
▁arrangé	-13071
▁malheur	-13072
▁Nouvelle	-13073
▁festival	-13074
leg	-13075
▁rh	-13076
ourse	-13077
▁Conc	-13078
▁bouffe	-13079
▁posted	-13080
▁ranger	-13081
▁impress	-13082
▁removed	-13083
▁chambres	-13084
▁officiers	-13085
ova	-13086
umed	-13087
order	-13088
adelph	-13089
▁Adams	-13090
▁encul	-13091
▁humor	-13092
▁rival	-13093
▁Dallas	-13094
▁aliens	-13095
▁brutal	-13096
appropri	-13097
▁marques	-13098
▁systems	-13099
▁addition	-13100
▁autorisé	-13101
▁contamin	-13102
▁reconstr	-13103
appl	-13104
bble	-13105
▁Hous	-13106
▁enth	-13107
▁Caleb	-13108
▁appet	-13109
▁snake	-13110
▁doulou	-13111
▁froide	-13112
▁hockey	-13113
▁rompre	-13114
▁thirst	-13115
▁Beckett	-13116
▁cleaned	-13117
▁refuses	-13118
▁épouser	-13119
▁bizarres	-13120
▁commandé	-13121
kh	-13122
ôles	-13123
▁Each	-13124
▁Form	-13125
▁barb	-13126
▁Judge	-13127
▁musée	-13128
▁compos	-13129
▁transl	-13130
▁troops	-13131
arehouse	-13132
▁Austral	-13133
▁Melissa	-13134
▁inconnu	-13135
▁properly	-13136
▁personnellement	-13137
nan	-13138
uma	-13139
lynn	-13140
▁Pur	-13141
isant	-13142
union	-13143
wered	-13144
▁Mack	-13145
▁Sire	-13146
▁narc	-13147
▁Amber	-13148
▁dérou	-13149
▁loyer	-13150
▁Twenty	-13151
▁menacé	-13152
abilités	-13153
▁aliment	-13154
▁blessés	-13155
▁rumeurs	-13156
▁collabor	-13157
▁entertain	-13158
How	-13159
▁Sept	-13160
▁trad	-13161
▁épar	-13162
▁Drake	-13163
▁baise	-13164
▁Connie	-13165
▁répand	-13166
▁énervé	-13167
▁Claudia	-13168
▁divorced	-13169
▁professor	-13170
▁Cab	-13171
▁lav	-13172
andis	-13173
ènera	-13174
▁1000	-13175
▁Saul	-13176
▁Sour	-13177
▁Contr	-13178
▁helic	-13179
▁sages	-13180
▁Double	-13181
▁dégueu	-13182
▁cocktail	-13183
▁nerveuse	-13184
TH	-13185
▁Eun	-13186
amène	-13187
▁poet	-13188
icians	-13189
▁Georg	-13190
▁flotte	-13191
▁sample	-13192
▁silent	-13193
▁employee	-13194
▁honestly	-13195
▁Cependant	-13196
▁maîtresse	-13197
osau	-13198
▁Feu	-13199
▁eue	-13200
▁haï	-13201
rimin	-13202
▁soph	-13203
▁Lloyd	-13204
▁Barnes	-13205
▁creepy	-13206
▁tricks	-13207
▁disting	-13208
▁Reynolds	-13209
▁couleurs	-13210
▁trouvait	-13211
▁delivered	-13212
▁regardais	-13213
▁disappoint	-13214
▁terroriste	-13215
▁Seul	-13216
▁pink	-13217
▁Brick	-13218
▁chron	-13219
▁penis	-13220
audrait	-13221
chester	-13222
▁ending	-13223
▁handic	-13224
▁muscle	-13225
▁changera	-13226
▁magazines	-13227
▁printemps	-13228
▁uncomfortable	-13229
ôts	-13230
opsie	-13231
▁flir	-13232
▁wore	-13233
▁delay	-13234
▁nôtre	-13235
▁greater	-13236
▁cherchent	-13237
aa	-13238
▁SD	-13239
rial	-13240
▁195	-13241
▁lip	-13242
▁Reed	-13243
isseur	-13244
sembles	-13245
▁Michel	-13246
▁pension	-13247
▁education	-13248
▁Philadelph	-13249
"!	-13250
mic	-13251
vet	-13252
icient	-13253
▁Reese	-13254
▁attir	-13255
▁suits	-13256
▁Promis	-13257
▁bottes	-13258
▁nearly	-13259
▁rétabl	-13260
▁chemical	-13261
▁méchants	-13262
▁permettez	-13263
▁coïncidence	-13264
▁préférerais	-13265
amer	-13266
▁Déf	-13267
▁neur	-13268
▁solo	-13269
▁weed	-13270
▁Wells	-13271
▁réchau	-13272
▁attaché	-13273
▁marchera	-13274
▁semblent	-13275
▁témoignage	-13276
▁Ai	-13277
rena	-13278
▁Cry	-13279
▁Lor	-13280
▁Assh	-13281
▁hill	-13282
▁télép	-13283
▁Monroe	-13284
▁behave	-13285
▁consent	-13286
▁numéros	-13287
▁travaux	-13288
▁mesdames	-13289
▁programm	-13290
▁reported	-13291
▁scandale	-13292
▁enregistré	-13293
azar	-13294
eror	-13295
▁Pak	-13296
envie	-13297
▁Many	-13298
▁boxes	-13299
▁cells	-13300
▁réjou	-13301
▁soupç	-13302
déjeuner	-13303
▁activity	-13304
▁remarquer	-13305
▁7.	-13306
▁ci	-13307
▁Aid	-13308
▁Symp	-13309
▁bapt	-13310
▁Reine	-13311
▁emmén	-13312
aissent	-13313
▁annulé	-13314
▁incomp	-13315
▁Bennett	-13316
ascenseur	-13317
▁récupéré	-13318
▁Dub	-13319
▁agg	-13320
▁Sull	-13321
▁cout	-13322
▁Later	-13323
▁objet	-13324
▁Alfred	-13325
▁Austin	-13326
▁cochon	-13327
▁fermée	-13328
▁stands	-13329
▁missile	-13330
▁conscious	-13331
▁miserable	-13332
▁	-13333
▁1:	-13334
▁Mod	-13335
anter	-13336
obile	-13337
▁Kath	-13338
▁relâ	-13339
▁Laiss	-13340
▁bains	-13341
▁belly	-13342
▁grabb	-13343
▁porno	-13344
▁fièvre	-13345
▁rouges	-13346
▁trafic	-13347
▁newspaper	-13348
AU	-13349
etta	-13350
mage	-13351
▁nin	-13352
▁fully	-13353
▁craign	-13354
▁exprès	-13355
▁patrol	-13356
▁Darling	-13357
▁gagnant	-13358
▁cellules	-13359
▁invented	-13360
▁Dim	-13361
aitre	-13362
uming	-13363
▁Util	-13364
▁crée	-13365
▁Party	-13366
▁charme	-13367
▁intact	-13368
▁circuit	-13369
▁privile	-13370
▁rejoins	-13371
▁revenus	-13372
▁repartir	-13373
▁wherever	-13374
▁organization	-13375
▁Mall	-13376
ouvons	-13377
▁Found	-13378
▁peint	-13379
pective	-13380
resting	-13381
▁enquêt	-13382
▁provis	-13383
▁riding	-13384
▁Kennedy	-13385
▁rejoint	-13386
▁stabbed	-13387
▁aventure	-13388
▁correctement	-13389
BC	-13390
▁Dee	-13391
▁bot	-13392
llect	-13393
▁Nine	-13394
ennuie	-13395
▁dough	-13396
▁beurre	-13397
▁robbed	-13398
▁despite	-13399
▁setting	-13400
▁disparaît	-13401
▁culpabilité	-13402
'.	-13403
▁NY	-13404
amus	-13405
ango	-13406
isha	-13407
▁Inf	-13408
amine	-13409
▁Mona	-13410
▁Moon	-13411
▁Japon	-13412
▁gants	-13413
▁occur	-13414
▁toxic	-13415
▁prints	-13416
▁stabil	-13417
▁élimin	-13418
▁déplace	-13419
▁hostage	-13420
▁massacre	-13421
chés	-13422
▁Hop	-13423
usine	-13424
▁Drive	-13425
▁depos	-13426
▁wings	-13427
▁couler	-13428
▁lessons	-13429
▁missiles	-13430
▁touching	-13431
▁boulevers	-13432
▁nombreuses	-13433
▁accusations	-13434
amm	-13435
umn	-13436
▁Fal	-13437
▁Ped	-13438
▁Wed	-13439
▁nep	-13440
▁Inde	-13441
▁infe	-13442
▁Winst	-13443
▁gâché	-13444
▁spons	-13445
▁collap	-13446
▁incroy	-13447
▁libres	-13448
▁Florida	-13449
▁Schmidt	-13450
▁ressenti	-13451
▁revienne	-13452
▁infirmière	-13453
Ou	-13454
▁Jet	-13455
▁Len	-13456
cuted	-13457
omber	-13458
▁Kara	-13459
▁abat	-13460
▁prol	-13461
▁Bever	-13462
▁Brody	-13463
▁chats	-13464
▁cimet	-13465
▁homes	-13466
écoutes	-13467
▁Jewish	-13468
▁unlike	-13469
▁unknown	-13470
▁confirmer	-13471
▁processus	-13472
▁fonctionner	-13473
ME	-13474
▁(	-13475
▁NC	-13476
orts	-13477
▁Goo	-13478
habit	-13479
angers	-13480
▁Leurs	-13481
▁fraud	-13482
▁Peyton	-13483
▁advers	-13484
▁remède	-13485
▁valait	-13486
▁blagues	-13487
▁unhappy	-13488
▁loge	-13489
▁Cliff	-13490
▁bonus	-13491
▁wreck	-13492
▁Brenda	-13493
▁degree	-13494
▁réserv	-13495
▁charity	-13496
▁grosses	-13497
▁poubelle	-13498
▁préviens	-13499
▁starving	-13500
▁paperwork	-13501
ued	-13502
▁CT	-13503
▁Cly	-13504
▁Neal	-13505
▁duck	-13506
▁ench	-13507
▁mout	-13508
éliorer	-13509
▁Carmen	-13510
▁latest	-13511
▁couches	-13512
▁sortent	-13513
▁touches	-13514
iona	-13515
oral	-13516
hiver	-13517
▁Wasn	-13518
▁fert	-13519
▁mama	-13520
▁mast	-13521
▁seats	-13522
▁Tucker	-13523
▁cabine	-13524
▁charged	-13525
▁barbecue	-13526
▁charmante	-13527
▁déd	-13528
accès	-13529
▁Deep	-13530
▁guér	-13531
▁advis	-13532
▁bacon	-13533
▁coast	-13534
▁moche	-13535
▁Violet	-13536
▁wasted	-13537
▁cutting	-13538
▁inspect	-13539
▁mérites	-13540
▁rupture	-13541
▁superst	-13542
▁trouvés	-13543
▁préoccup	-13544
▁ressentir	-13545
▁électrique	-13546
▁Afghanistan	-13547
itut	-13548
▁jun	-13549
▁Hors	-13550
▁bunk	-13551
ancien	-13552
▁géant	-13553
▁mères	-13554
▁tenait	-13555
▁furieux	-13556
▁examiner	-13557
Angleterre	-13558
▁strangers	-13559
▁doc	-13560
▁Jedi	-13561
▁Post	-13562
▁orph	-13563
▁Fight	-13564
▁Merry	-13565
▁assuré	-13566
▁pisser	-13567
▁scotch	-13568
▁Bastard	-13569
▁restait	-13570
▁settled	-13571
▁movement	-13572
▁soutenir	-13573
▁valuable	-13574
▁désespéré	-13575
▁250	-13576
▁Cru	-13577
▁Fig	-13578
▁LES	-13579
adows	-13580
intég	-13581
▁Sang	-13582
▁rêver	-13583
▁cercle	-13584
▁défaut	-13585
▁privil	-13586
▁annonce	-13587
▁authent	-13588
▁finance	-13589
▁Superman	-13590
▁radiation	-13591
▁commissaire	-13592
isa	-13593
▁Fi	-13594
▁Rox	-13595
▁Need	-13596
▁brûl	-13597
▁perp	-13598
inviter	-13599
▁traged	-13600
▁Houston	-13601
▁archite	-13602
▁cheated	-13603
▁dealers	-13604
▁interne	-13605
▁serment	-13606
▁distract	-13607
▁stubborn	-13608
▁recording	-13609
▁Certainement	-13610
▁extraordinaire	-13611
▁kit	-13612
▁Sain	-13613
▁bleus	-13614
▁concur	-13615
▁urgences	-13616
hem	-13617
ovan	-13618
▁Raf	-13619
▁bug	-13620
ademy	-13621
étiez	-13622
▁File	-13623
▁Voir	-13624
▁bats	-13625
▁salt	-13626
▁Benny	-13627
▁Place	-13628
▁absor	-13629
▁fleet	-13630
▁Russia	-13631
▁acteur	-13632
▁loving	-13633
▁parade	-13634
▁Jeffrey	-13635
▁attirer	-13636
▁veiller	-13637
▁efficace	-13638
▁entendez	-13639
▁laissera	-13640
▁jan	-13641
▁frat	-13642
▁Hanna	-13643
▁hyper	-13644
▁piégé	-13645
▁survie	-13646
émission	-13647
▁Floride	-13648
▁initial	-13649
▁pierres	-13650
▁smiling	-13651
▁visible	-13652
▁commerce	-13653
▁surrender	-13654
Ind	-13655
cir	-13656
ibal	-13657
▁12.	-13658
▁anx	-13659
▁tig	-13660
▁Tess	-13661
▁obey	-13662
▁Class	-13663
▁Group	-13664
▁Pitié	-13665
▁frigo	-13666
▁taxes	-13667
▁Petite	-13668
▁Richie	-13669
▁amitié	-13670
▁excité	-13671
▁inspir	-13672
▁retiré	-13673
▁speaks	-13674
lligence	-13675
▁ajouter	-13676
▁annuler	-13677
▁stupides	-13678
ïe	-13679
craft	-13680
uille	-13681
▁Chad	-13682
▁Honn	-13683
▁crie	-13684
▁fraî	-13685
▁rack	-13686
▁unde	-13687
illent	-13688
▁Bouge	-13689
▁below	-13690
▁crown	-13691
▁salad	-13692
▁Archer	-13693
▁Reggie	-13694
▁perdus	-13695
▁Frances	-13696
▁beloved	-13697
▁annoying	-13698
▁autorités	-13699
▁vaisseaux	-13700
▁colleagues	-13701
▁principale	-13702
▁na	-13703
tour	-13704
umph	-13705
èges	-13706
▁Ana	-13707
▁Mun	-13708
▁méf	-13709
plant	-13710
▁cran	-13711
▁info	-13712
▁lave	-13713
▁quot	-13714
▁plong	-13715
▁ghosts	-13716
▁trembl	-13717
▁apology	-13718
▁matinée	-13719
▁Division	-13720
▁savaient	-13721
▁""	-13722
uded	-13723
▁Fab	-13724
raith	-13725
riger	-13726
▁Iraq	-13727
▁News	-13728
▁Stud	-13729
▁Zack	-13730
▁Denny	-13731
▁indep	-13732
▁souls	-13733
▁langage	-13734
▁obligée	-13735
▁mignonne	-13736
▁probable	-13737
li	-13738
rah	-13739
▁$3	-13740
▁Ire	-13741
avère	-13742
celer	-13743
▁Kira	-13744
▁Mind	-13745
▁ivre	-13746
▁durer	-13747
owntown	-13748
▁Lequel	-13749
▁Rodney	-13750
▁claims	-13751
▁solved	-13752
▁archives	-13753
▁poursuit	-13754
▁commencent	-13755
Af	-13756
wor	-13757
▁wra	-13758
▁dirt	-13759
ricité	-13760
▁Rosie	-13761
▁filth	-13762
▁guilt	-13763
▁liens	-13764
▁péché	-13765
▁Russie	-13766
▁whiskey	-13767
▁struggle	-13768
▁ressources	-13769
,..	-13770
hyd	-13771
xic	-13772
▁sue	-13773
▁Penn	-13774
▁gasp	-13775
▁spat	-13776
istère	-13777
▁Felix	-13778
▁Malgré	-13779
▁Scotty	-13780
▁traîne	-13781
▁Company	-13782
▁Randall	-13783
▁pilules	-13784
▁remarqu	-13785
▁shooter	-13786
▁encourage	-13787
▁resources	-13788
▁29	-13789
astes	-13790
idité	-13791
▁Beat	-13792
verage	-13793
▁Turns	-13794
▁miens	-13795
assador	-13796
étiques	-13797
▁Dragon	-13798
▁Empire	-13799
▁Israel	-13800
▁finira	-13801
▁nephew	-13802
▁soeurs	-13803
▁awkward	-13804
▁financi	-13805
80	-13806
gi	-13807
▁enl	-13808
▁nat	-13809
▁clue	-13810
▁thin	-13811
▁uses	-13812
▁cared	-13813
▁laser	-13814
▁métro	-13815
itement	-13816
▁Regina	-13817
▁shelter	-13818
▁Franchement	-13819
asp	-13820
aya	-13821
iped	-13822
rira	-13823
road	-13824
word	-13825
▁sév	-13826
oenix	-13827
oient	-13828
▁Fiona	-13829
▁actes	-13830
▁limit	-13831
istered	-13832
ogether	-13833
▁cirque	-13834
▁oxygen	-13835
▁régime	-13836
▁grandir	-13837
▁hauteur	-13838
-3	-13839
uko	-13840
▁34	-13841
▁USA	-13842
▁decent	-13843
▁devrez	-13844
▁shield	-13845
▁soyons	-13846
▁partons	-13847
▁workers	-13848
▁friendly	-13849
▁maintain	-13850
▁creatures	-13851
vu	-13852
▁Bi	-13853
▁Psy	-13854
▁Temp	-13855
▁deaf	-13856
▁sein	-13857
▁sync	-13858
▁drama	-13859
▁mixed	-13860
▁wagon	-13861
apporte	-13862
▁cinglé	-13863
▁exists	-13864
▁éclair	-13865
▁Between	-13866
▁Winston	-13867
▁voyager	-13868
inquiètes	-13869
ironnement	-13870
lic	-13871
▁Set	-13872
ènent	-13873
▁Chen	-13874
▁Lots	-13875
idents	-13876
▁estim	-13877
▁facil	-13878
▁marie	-13879
irmière	-13880
▁tables	-13881
▁tuerai	-13882
▁Bernard	-13883
▁Beverly	-13884
▁Council	-13885
▁homosex	-13886
▁kissing	-13887
▁protégé	-13888
▁rehears	-13889
▁séparés	-13890
▁diamants	-13891
▁livraison	-13892
▁territory	-13893
▁confidential	-13894
avin	-13895
▁coc	-13896
holes	-13897
magne	-13898
▁fume	-13899
▁shoe	-13900
ouvant	-13901
▁Keller	-13902
▁Teresa	-13903
▁adoles	-13904
▁resign	-13905
▁vidéos	-13906
gus	-13907
▁TR	-13908
agle	-13909
▁tén	-13910
▁Ruby	-13911
▁owns	-13912
▁Marge	-13913
▁cheat	-13914
▁dette	-13915
▁glory	-13916
▁récon	-13917
emmerde	-13918
▁Center	-13919
▁termes	-13920
▁digging	-13921
▁identifié	-13922
▁basketball	-13923
▁recommence	-13924
▁ressemblait	-13925
iltr	-13926
oies	-13927
zard	-13928
▁Mum	-13929
▁déç	-13930
▁gau	-13931
aming	-13932
▁Bond	-13933
▁Rosa	-13934
▁blog	-13935
▁clot	-13936
▁déçu	-13937
▁etes	-13938
▁mole	-13939
▁hélic	-13940
▁Conrad	-13941
▁Kansas	-13942
▁dégage	-13943
▁foutue	-13944
▁Réponds	-13945
▁égoïste	-13946
▁passport	-13947
▁champions	-13948
▁discipline	-13949
issi	-13950
▁Bir	-13951
▁PAR	-13952
urité	-13953
▁assi	-13954
▁exit	-13955
▁smug	-13956
asures	-13957
▁Flynn	-13958
▁Mario	-13959
▁Yanke	-13960
▁frame	-13961
▁rings	-13962
ucation	-13963
▁calend	-13964
▁marine	-13965
▁palace	-13966
▁poudre	-13967
▁étudié	-13968
▁loyalty	-13969
▁sachant	-13970
▁cuisiner	-13971
▁entirely	-13972
▁excitant	-13973
▁facility	-13974
▁hallucin	-13975
▁rencontrée	-13976
▁conversations	-13977
fé	-13978
AIN	-13979
▁Bol	-13980
▁cic	-13981
orage	-13982
▁Marco	-13983
▁envah	-13984
▁tarte	-13985
▁Holmes	-13986
▁positions	-13987
▁rapporter	-13988
As	-13989
Man	-13990
west	-13991
▁$10	-13992
▁Lar	-13993
▁soû	-13994
annie	-13995
opard	-13996
owell	-13997
▁Dern	-13998
▁Know	-13999
▁Wing	-14000
▁horm	-14001
▁tais	-14002
▁inher	-14003
▁tuera	-14004
▁Samuel	-14005
▁divert	-14006
▁meters	-14007
▁Conseil	-14008
▁quelles	-14009
▁discover	-14010
▁governor	-14011
▁immeuble	-14012
▁adventure	-14013
▁américains	-14014
ggs	-14015
▁JE	-14016
▁mr	-14017
▁Ice	-14018
▁Rés	-14019
▁régl	-14020
iquant	-14021
▁aidez	-14022
▁taule	-14023
▁tower	-14024
ographie	-14025
▁absurde	-14026
▁déclaré	-14027
▁describe	-14028
▁disagree	-14029
▁Wonderful	-14030
▁plastique	-14031
aily	-14032
▁toy	-14033
urent	-14034
▁levé	-14035
▁yard	-14036
ernand	-14037
istent	-14038
▁fifth	-14039
▁toler	-14040
atrième	-14041
ensible	-14042
▁splend	-14043
▁enfance	-14044
▁passeport	-14045
tion	-14046
▁cub	-14047
▁stro	-14048
ettons	-14049
▁Clyde	-14050
▁proté	-14051
▁Vivian	-14052
▁Sullivan	-14053
▁laboratoire	-14054
▁travaillais	-14055
GE	-14056
hé	-14057
ruct	-14058
▁600	-14059
▁Buy	-14060
quels	-14061
▁Room	-14062
▁reck	-14063
▁seek	-14064
▁wipe	-14065
▁blast	-14066
▁chefs	-14067
▁prier	-14068
▁Montez	-14069
▁status	-14070
▁séjour	-14071
▁dragged	-14072
▁necklace	-14073
▁searching	-14074
▁attractive	-14075
LY	-14076
aye	-14077
ollo	-14078
zona	-14079
▁pad	-14080
▁tag	-14081
▁2000	-14082
▁hipp	-14083
▁muff	-14084
▁Glenn	-14085
▁céréb	-14086
▁grass	-14087
▁sœurs	-14088
apprend	-14089
▁bourse	-14090
▁comédie	-14091
▁Chandler	-14092
▁Facebook	-14093
▁voudriez	-14094
▁réveillée	-14095
ûte	-14096
▁wand	-14097
▁Buffy	-14098
▁Flash	-14099
▁alley	-14100
▁boots	-14101
▁print	-14102
▁deviez	-14103
▁visions	-14104
▁transfert	-14105
▁opportunité	-14106
ésar	-14107
▁pac	-14108
▁Abra	-14109
▁hypoc	-14110
▁shove	-14111
oreille	-14112
ashioned	-14113
▁quarant	-14114
▁tremble	-14115
▁mentionné	-14116
▁regardant	-14117
entraînement	-14118
Hey	-14119
▁pow	-14120
▁shy	-14121
▁Khan	-14122
rieuse	-14123
▁Quiet	-14124
▁nager	-14125
▁cleared	-14126
IF	-14127
alp	-14128
och	-14129
ulu	-14130
▁AR	-14131
impl	-14132
oded	-14133
role	-14134
▁Biz	-14135
▁Hob	-14136
▁Corn	-14137
coming	-14138
invent	-14139
veland	-14140
▁Jared	-14141
▁adoré	-14142
▁élève	-14143
▁connex	-14144
▁désire	-14145
aughters	-14146
▁Germany	-14147
▁arrêtée	-14148
▁drawing	-14149
▁Question	-14150
▁swimming	-14151
▁Directeur	-14152
iait	-14153
▁los	-14154
effet	-14155
▁Caes	-14156
▁Monk	-14157
▁aéri	-14158
▁beef	-14159
▁volée	-14160
▁wives	-14161
▁behalf	-14162
▁fabric	-14163
▁complice	-14164
▁généreux	-14165
appellerai	-14166
▁disponible	-14167
▁undercover	-14168
▁Ul	-14169
omie	-14170
quar	-14171
▁Heu	-14172
▁hyd	-14173
uster	-14174
▁Crazy	-14175
▁mouch	-14176
▁viole	-14177
▁Dwight	-14178
▁Fisher	-14179
▁bouill	-14180
▁morale	-14181
▁placed	-14182
▁Griffin	-14183
▁essaies	-14184
agi	-14185
acht	-14186
▁Dig	-14187
▁élé	-14188
▁Luis	-14189
▁babe	-14190
▁chor	-14191
▁Olymp	-14192
attente	-14193
▁Family	-14194
▁façons	-14195
▁humeur	-14196
▁pressé	-14197
▁rouler	-14198
▁Prepare	-14199
▁demonstr	-14200
▁guessing	-14201
▁inappropri	-14202
▁threatening	-14203
▁personnalité	-14204
hes	-14205
▁mn	-14206
erty	-14207
▁Leg	-14208
▁Rex	-14209
▁Saw	-14210
▁pât	-14211
imore	-14212
▁Cand	-14213
▁ital	-14214
▁Hawai	-14215
▁Isaac	-14216
▁baign	-14217
▁embau	-14218
▁Amenez	-14219
▁Cathol	-14220
▁assass	-14221
▁asseoir	-14222
▁bowling	-14223
▁emotions	-14224
▁essayant	-14225
▁blackmail	-14226
▁Magnifique	-14227
▁Interesting	-14228
▁ec	-14229
otta	-14230
▁Ahh	-14231
▁Pig	-14232
escal	-14233
point	-14234
rable	-14235
relle	-14236
▁arts	-14237
▁pommes	-14238
ormément	-14239
▁Asshole	-14240
▁loyauté	-14241
▁paralys	-14242
▁Hospital	-14243
▁internet	-14244
▁tendance	-14245
▁colleague	-14246
▁définitive	-14247
▁6.	-14248
aton	-14249
ilda	-14250
assée	-14251
juana	-14252
▁Left	-14253
▁Pink	-14254
▁armé	-14255
urally	-14256
▁Peace	-14257
▁jeudi	-14258
▁lobby	-14259
▁tuyau	-14260
▁plates	-14261
▁repris	-14262
▁pirates	-14263
▁énergie	-14264
fashioned	-14265
▁fenêtres	-14266
▁viendrai	-14267
▁innocents	-14268
▁violation	-14269
▁communications	-14270
ams	-14271
Nous	-14272
▁Hud	-14273
neath	-14274
érait	-14275
▁diras	-14276
▁pénét	-14277
verture	-14278
▁levels	-14279
▁region	-14280
▁seules	-14281
▁Musique	-14282
▁devenus	-14283
▁measure	-14284
▁passant	-14285
▁ennuyeux	-14286
▁Cleveland	-14287
▁transmission	-14288
▁Ki	-14289
▁PD	-14290
▁iI	-14291
▁Hab	-14292
▁rhy	-14293
▁wing	-14294
allons	-14295
▁penny	-14296
▁Cassie	-14297
▁absent	-14298
▁connue	-14299
abandonne	-14300
▁practically	-14301
▁QU	-14302
▁Pra	-14303
atson	-14304
▁blah	-14305
▁Frère	-14306
▁Mange	-14307
▁Rouge	-14308
▁enfui	-14309
▁Valley	-14310
▁Donovan	-14311
▁poumons	-14312
▁voleurs	-14313
▁obsessed	-14314
▁strategy	-14315
▁caractère	-14316
▁defendant	-14317
▁perfection	-14318
ñor	-14319
▁yo	-14320
itre	-14321
llie	-14322
olent	-14323
rivez	-14324
▁défi	-14325
▁holy	-14326
▁meme	-14327
▁sire	-14328
▁ailes	-14329
▁barbe	-14330
▁jolies	-14331
▁Shirley	-14332
▁détendre	-14333
▁mysterious	-14334
eda	-14335
sex	-14336
▁GO	-14337
▁20.	-14338
irmer	-14339
▁Bomb	-14340
▁Dawn	-14341
▁Vera	-14342
▁ranc	-14343
▁sarc	-14344
▁yoga	-14345
vérend	-14346
▁Chick	-14347
▁vagin	-14348
▁breaks	-14349
▁Lawrence	-14350
▁answered	-14351
▁cimetière	-14352
▁découverte	-14353
▁underneath	-14354
▁underground	-14355
▁pratiquement	-14356
blé	-14357
wick	-14358
▁riz	-14359
owski	-14360
écart	-14361
▁Test	-14362
allait	-14363
▁Irish	-14364
▁allum	-14365
▁vends	-14366
▁Dexter	-14367
▁parano	-14368
▁venons	-14369
▁scénario	-14370
▁warehouse	-14371
▁anniversary	-14372
pin	-14373
cade	-14374
rité	-14375
▁800	-14376
▁glor	-14377
▁rail	-14378
nesday	-14379
▁booze	-14380
▁câble	-14381
▁tires	-14382
▁Stella	-14383
▁fierté	-14384
▁rumors	-14385
▁Marines	-14386
▁injuste	-14387
▁tragedy	-14388
▁changent	-14389
▁produire	-14390
▁gratitude	-14391
▁background	-14392
bu	-14393
imi	-14394
réh	-14395
▁Beh	-14396
▁Eng	-14397
▁gut	-14398
isent	-14399
▁Boom	-14400
▁Cart	-14401
▁Shan	-14402
▁cend	-14403
issage	-14404
▁couru	-14405
▁Coffee	-14406
▁champs	-14407
▁claire	-14408
▁compat	-14409
▁makeup	-14410
▁reçoit	-14411
▁Jacques	-14412
▁regrets	-14413
▁équipes	-14414
approcher	-14415
▁capacité	-14416
▁illusion	-14417
▁candidate	-14418
▁trouveras	-14419
▁transferred	-14420
eute	-14421
nell	-14422
▁fui	-14423
▁web	-14424
femme	-14425
▁Such	-14426
▁évol	-14427
▁Moore	-14428
▁conqu	-14429
▁voila	-14430
▁compare	-14431
▁cousins	-14432
▁ordonné	-14433
▁convient	-14434
ounce	-14435
▁Noir	-14436
▁Reve	-14437
▁bowl	-14438
▁funé	-14439
▁Dixon	-14440
▁dises	-14441
▁roman	-14442
▁Mulder	-14443
▁plante	-14444
▁Parlons	-14445
▁gentils	-14446
▁groupes	-14447
▁recover	-14448
▁Espérons	-14449
▁négocier	-14450
▁échapper	-14451
▁situations	-14452
▁circulation	-14453
bal	-14454
▁33	-14455
étés	-14456
▁Cre	-14457
tenez	-14458
▁âmes	-14459
éroïne	-14460
▁beard	-14461
▁fairy	-14462
▁mardi	-14463
▁marin	-14464
▁patch	-14465
▁sober	-14466
▁bourré	-14467
▁deviend	-14468
quisition	-14469
▁manières	-14470
appartient	-14471
▁excellente	-14472
▁Pu	-14473
part	-14474
▁wis	-14475
▁Power	-14476
▁Prime	-14477
▁abuse	-14478
▁jurid	-14479
▁neveu	-14480
actions	-14481
isseurs	-14482
▁poches	-14483
▁immobil	-14484
▁jalouse	-14485
▁Allemand	-14486
▁Broadway	-14487
▁pourront	-14488
▁psychiat	-14489
▁créatures	-14490
dem	-14491
▁AM	-14492
glas	-14493
▁Kry	-14494
▁Wat	-14495
▁Bird	-14496
▁pulse	-14497
▁tapes	-14498
▁virtu	-14499
▁fusill	-14500
▁vulner	-14501
équipage	-14502
▁camping	-14503
▁crimine	-14504
▁indique	-14505
▁méchante	-14506
▁confirmation	-14507
▁Fo	-14508
oons	-14509
▁mud	-14510
▁nue	-14511
▁load	-14512
▁rice	-14513
▁tuez	-14514
▁landed	-14515
▁pourri	-14516
▁putains	-14517
▁voudras	-14518
▁désastre	-14519
▁informed	-14520
▁plaindre	-14521
▁supervis	-14522
▁depressed	-14523
▁intéresse	-14524
▁Honnêtement	-14525
Be	-14526
OK	-14527
his	-14528
moon	-14529
▁bio	-14530
aucun	-14531
épend	-14532
▁Ouah	-14533
▁empê	-14534
▁canal	-14535
▁gifts	-14536
▁liver	-14537
▁firing	-14538
quarters	-14539
▁dreamed	-14540
▁episode	-14541
▁illness	-14542
▁imaginé	-14543
▁stratégie	-14544
irme	-14545
ties	-14546
▁ski	-14547
▁roul	-14548
achète	-14549
▁Breat	-14550
▁checks	-14551
▁Getting	-14552
▁dépêche	-14553
▁entered	-14554
▁pleased	-14555
▁raccomp	-14556
▁réservé	-14557
▁spirits	-14558
▁roommate	-14559
▁religious	-14560
▁differently	-14561
ahl	-14562
réd	-14563
▁HA	-14564
tent	-14565
▁Fle	-14566
phère	-14567
▁Bank	-14568
▁Cuba	-14569
▁durs	-14570
itness	-14571
▁Boris	-14572
▁intég	-14573
▁straw	-14574
▁Sheila	-14575
▁loaded	-14576
▁compréh	-14577
▁inviter	-14578
▁menaces	-14579
▁players	-14580
▁Shepherd	-14581
▁arranged	-14582
▁customer	-14583
▁traverse	-14584
cake	-14585
just	-14586
▁Wol	-14587
estin	-14588
▁Sinc	-14589
▁Wind	-14590
▁cable	-14591
▁fâché	-14592
▁médias	-14593
étranger	-14594
▁Phoenix	-14595
▁fracture	-14596
▁organiser	-14597
▁corruption	-14598
▁commissariat	-14599
pite	-14600
▁Ign	-14601
ising	-14602
▁lamp	-14603
▁prél	-14604
agnole	-14605
▁Bingo	-14606
▁mines	-14607
▁whist	-14608
▁Calvin	-14609
▁francs	-14610
▁inject	-14611
▁salade	-14612
▁envoyée	-14613
▁experts	-14614
▁traître	-14615
▁descendu	-14616
▁proposer	-14617
▁systèmes	-14618
▁obsession	-14619
▁reconnaissant	-14620
▁impressionnant	-14621
▁renseignements	-14622
▁responsabilités	-14623
ahu	-14624
▁72	-14625
omic	-14626
onté	-14627
▁mol	-14628
armed	-14629
▁Kend	-14630
▁caps	-14631
▁quas	-14632
▁Union	-14633
▁bombs	-14634
▁euros	-14635
ouilles	-14636
érieurs	-14637
▁Calmez	-14638
▁museum	-14639
▁remark	-14640
▁smooth	-14641
▁explosé	-14642
▁immense	-14643
▁interpr	-14644
▁accounts	-14645
▁confirmé	-14646
▁freezing	-14647
▁ordinaire	-14648
OC	-14649
gen	-14650
xte	-14651
girl	-14652
rigu	-14653
umin	-14654
▁193	-14655
▁DES	-14656
cycle	-14657
huile	-14658
▁Royal	-14659
▁oeufs	-14660
respect	-14661
▁Caesar	-14662
▁Robbie	-14663
▁Russes	-14664
▁consac	-14665
▁cuisin	-14666
▁Russians	-14667
▁maintenir	-14668
▁instrument	-14669
...!	-14670
IGHT	-14671
agir	-14672
ceur	-14673
▁hmm	-14674
onnés	-14675
queur	-14676
▁exag	-14677
▁spit	-14678
▁yards	-14679
▁During	-14680
▁Patron	-14681
▁Serena	-14682
▁abattu	-14683
▁demons	-14684
▁frozen	-14685
▁Mexican	-14686
▁Wednesday	-14687
▁criminals	-14688
accompagner	-14689
▁individual	-14690
▁ressembler	-14691
▁reconnaissance	-14692
▁Lie	-14693
▁Band	-14694
▁baiss	-14695
▁immig	-14696
▁prize	-14697
▁rabbit	-14698
▁totale	-14699
▁coincée	-14700
▁excusez	-14701
▁captured	-14702
▁deserved	-14703
▁trahison	-14704
▁apprécier	-14705
▁37	-14706
▁Ble	-14707
arbre	-14708
▁Goth	-14709
▁Jews	-14710
▁Suit	-14711
▁guid	-14712
▁pneu	-14713
agines	-14714
▁Ghost	-14715
▁Italy	-14716
▁March	-14717
▁ideal	-14718
▁voies	-14719
▁classic	-14720
▁illégal	-14721
▁multiple	-14722
▁response	-14723
▁opérations	-14724
Do	-14725
udge	-14726
vier	-14727
▁Eff	-14728
▁hés	-14729
▁nic	-14730
▁Gill	-14731
▁clar	-14732
▁Septe	-14733
▁benef	-14734
▁subir	-14735
ressing	-14736
▁convict	-14737
▁contents	-14738
▁homeless	-14739
▁mistaken	-14740
▁interests	-14741
cad	-14742
ueur	-14743
ésie	-14744
▁Ald	-14745
▁Yam	-14746
▁Bush	-14747
▁Much	-14748
▁Arnold	-14749
▁Square	-14750
▁puzzle	-14751
▁ripped	-14752
▁soucie	-14753
▁vraies	-14754
▁Première	-14755
▁tatouage	-14756
▁reception	-14757
▁funérailles	-14758
Que	-14759
tti	-14760
▁4,	-14761
▁ps	-14762
ablo	-14763
exéc	-14764
▁Fac	-14765
▁Web	-14766
ifiée	-14767
▁Pent	-14768
▁Pitt	-14769
▁mené	-14770
▁Cathy	-14771
▁Watson	-14772
▁supply	-14773
▁visual	-14774
▁citoyens	-14775
▁conflict	-14776
osa	-14777
▁$,	-14778
▁Pi	-14779
▁Ti	-14780
▁pud	-14781
ieves	-14782
uleux	-14783
▁bouc	-14784
enstein	-14785
▁begins	-14786
▁branch	-14787
▁cercue	-14788
▁tester	-14789
▁rappelé	-14790
▁slipped	-14791
▁analysis	-14792
▁function	-14793
▁promener	-14794
▁punished	-14795
▁effrayant	-14796
▁perspective	-14797
rik	-14798
fils	-14799
ègre	-14800
èter	-14801
▁Tél	-14802
échés	-14803
▁Fish	-14804
▁pupp	-14805
icking	-14806
▁Hills	-14807
▁Peggy	-14808
▁walks	-14809
▁Bridge	-14810
▁suspic	-14811
▁employé	-14812
▁docteurs	-14813
▁embrassé	-14814
▁officiel	-14815
▁affronter	-14816
▁commandes	-14817
Ce	-14818
IST	-14819
She	-14820
eta	-14821
ilyn	-14822
▁Gab	-14823
▁Tab	-14824
▁noy	-14825
aules	-14826
▁Grab	-14827
▁baisé	-14828
▁croix	-14829
▁overd	-14830
▁quels	-14831
▁degrés	-14832
▁indeed	-14833
▁rumeur	-14834
▁discret	-14835
▁exposed	-14836
▁légiste	-14837
▁réalise	-14838
▁warrior	-14839
▁Rappelez	-14840
▁minister	-14841
▁daughters	-14842
▁intellect	-14843
▁disturbing	-14844
fa	-14845
▁Lut	-14846
agnol	-14847
onent	-14848
ourir	-14849
▁Kane	-14850
▁thick	-14851
▁devine	-14852
▁marqué	-14853
▁anytime	-14854
▁focused	-14855
▁contrary	-14856
▁execution	-14857
▁MI	-14858
étit	-14859
▁Gay	-14860
ondre	-14861
▁anne	-14862
▁hamb	-14863
akespe	-14864
itched	-14865
▁expos	-14866
▁sheep	-14867
isément	-14868
uration	-14869
▁Corpor	-14870
▁Lester	-14871
▁blocks	-14872
▁poster	-14873
▁worker	-14874
▁canceled	-14875
▁chirurgien	-14876
lier	-14877
▁NSA	-14878
iqués	-14879
usage	-14880
▁vuln	-14881
alarme	-14882
▁Colomb	-14883
▁Floren	-14884
▁tendre	-14885
▁unités	-14886
▁Concent	-14887
▁begging	-14888
▁siècles	-14889
▁sounded	-14890
▁arrogant	-14891
▁exercise	-14892
▁mistress	-14893
▁affection	-14894
▁regardait	-14895
▁militaires	-14896
▁misunderstand	-14897
corn	-14898
fish	-14899
▁Mis	-14900
▁boue	-14901
▁diet	-14902
▁accél	-14903
▁jewel	-14904
▁pitch	-14905
▁stylo	-14906
▁Columb	-14907
▁Freddie	-14908
▁blowing	-14909
▁sociale	-14910
▁Campbell	-14911
▁miracles	-14912
▁préfères	-14913
▁Jefferson	-14914
▁dégoûtant	-14915
▁Ox	-14916
▁unt	-14917
▁Vice	-14918
▁noix	-14919
ateaux	-14920
prises	-14921
▁apple	-14922
▁fichu	-14923
▁êtres	-14924
▁contra	-14925
▁earned	-14926
▁fusion	-14927
▁donnait	-14928
▁fréquent	-14929
▁récupère	-14930
▁commences	-14931
▁regardent	-14932
▁generation	-14933
▁commandement	-14934
▁relationships	-14935
▁Cow	-14936
▁Jos	-14937
▁ais	-14938
appar	-14939
rophe	-14940
écris	-14941
▁Marl	-14942
▁medi	-14943
▁Parad	-14944
▁hilar	-14945
▁sites	-14946
▁vigil	-14947
▁rotten	-14948
▁shared	-14949
▁Revenez	-14950
▁souffert	-14951
▁continuez	-14952
▁corrected	-14953
▁entretien	-14954
ido	-14955
yon	-14956
itis	-14957
▁Gin	-14958
▁agi	-14959
melia	-14960
▁feux	-14961
▁hers	-14962
▁œufs	-14963
quires	-14964
▁Synch	-14965
▁ruiné	-14966
▁censés	-14967
▁matches	-14968
▁Congress	-14969
▁infected	-14970
▁monsters	-14971
nait	-14972
reté	-14973
▁bik	-14974
▁Alec	-14975
▁gère	-14976
▁Posez	-14977
▁bêtes	-14978
▁teams	-14979
▁voter	-14980
mençons	-14981
▁actual	-14982
▁aspect	-14983
▁mortel	-14984
▁Maurice	-14985
▁amateur	-14986
▁joueurs	-14987
▁méthode	-14988
▁zombies	-14989
▁intérêts	-14990
▁signific	-14991
▁supplies	-14992
▁teachers	-14993
▁anonymous	-14994
▁appropriate	-14995
▁authorities	-14996
▁coordonnées	-14997
▁température	-14998
▁actuellement	-14999
▁intéressante	-15000
zi	-15001
éo	-15002
ERS	-15003
▁ske	-15004
enver	-15005
▁fuel	-15006
humour	-15007
▁Price	-15008
▁adieu	-15009
▁fence	-15010
▁gâche	-15011
▁inclu	-15012
arrange	-15013
▁achète	-15014
▁cabane	-15015
imaginer	-15016
▁grabbed	-15017
▁psychic	-15018
▁cadavres	-15019
▁complexe	-15020
▁Secretary	-15021
▁exclusive	-15022
▁furniture	-15023
▁temporary	-15024
mmy	-15025
▁38	-15026
anth	-15027
burn	-15028
etti	-15029
▁Rio	-15030
acune	-15031
cedes	-15032
▁$100	-15033
▁NCIS	-15034
▁appr	-15035
▁coca	-15036
▁jazz	-15037
▁odds	-15038
ilibre	-15039
▁astron	-15040
▁fights	-15041
▁fuckin	-15042
▁Antoine	-15043
▁bateaux	-15044
▁buddies	-15045
▁massive	-15046
▁downtown	-15047
▁humanity	-15048
▁University	-15049
▁determined	-15050
▁génération	-15051
But	-15052
▁',	-15053
▁Neg	-15054
▁Spock	-15055
▁félic	-15056
▁rehab	-15057
▁Foster	-15058
▁bosses	-15059
▁réunis	-15060
▁épisode	-15061
nellement	-15062
▁Répondez	-15063
▁Souviens	-15064
▁protocol	-15065
▁attendait	-15066
▁questioning	-15067
hyp	-15068
airy	-15069
bled	-15070
épée	-15071
▁Cyl	-15072
alyse	-15073
itary	-15074
ivity	-15075
ouche	-15076
venus	-15077
▁Cord	-15078
▁Dame	-15079
▁Angie	-15080
▁Bitch	-15081
▁verte	-15082
▁Clarke	-15083
▁Guerre	-15084
▁mourra	-15085
▁réveil	-15086
▁actress	-15087
▁autopsy	-15088
fortunate	-15089
▁Governor	-15090
▁suitcase	-15091
▁Baltimore	-15092
▁réfléchis	-15093
▁dangereuse	-15094
Ex	-15095
hee	-15096
▁McN	-15097
▁Obs	-15098
ughed	-15099
▁Lenn	-15100
▁shave	-15101
engager	-15102
ography	-15103
▁ancest	-15104
▁robots	-15105
officier	-15106
▁laughed	-15107
▁laissent	-15108
AB	-15109
▁Ka	-15110
érir	-15111
▁pod	-15112
ditor	-15113
ivité	-15114
stand	-15115
▁Nash	-15116
▁scol	-15117
▁Mayor	-15118
▁Paula	-15119
▁Perry	-15120
▁Spart	-15121
▁weigh	-15122
▁défend	-15123
▁Douglas	-15124
▁dépassé	-15125
▁quietly	-15126
▁symptoms	-15127
▁confusion	-15128
▁Commissioner	-15129
ned	-15130
iffe	-15131
keys	-15132
▁gor	-15133
ueuse	-15134
avions	-15135
▁Pablo	-15136
▁enver	-15137
assadeur	-15138
▁vendeur	-15139
▁voudrez	-15140
▁announce	-15141
▁priority	-15142
▁recognized	-15143
adé	-15144
▁bul	-15145
▁vét	-15146
rasse	-15147
▁Oper	-15148
▁cuir	-15149
▁siff	-15150
▁anges	-15151
▁lands	-15152
▁Dawson	-15153
▁appeal	-15154
▁goûter	-15155
▁vierge	-15156
▁mélange	-15157
adorerais	-15158
▁admettre	-15159
▁entendue	-15160
▁stations	-15161
▁Réfléchis	-15162
▁potentiel	-15163
▁conspiracy	-15164
▁bip	-15165
▁ego	-15166
▁Iron	-15167
▁brit	-15168
▁meds	-15169
▁reci	-15170
▁Field	-15171
▁Seems	-15172
▁cried	-15173
▁fidèle	-15174
▁gardez	-15175
▁sketch	-15176
▁worthy	-15177
▁Florence	-15178
▁médicale	-15179
▁combinaison	-15180
▁Po	-15181
ernel	-15182
ormal	-15183
▁Salv	-15184
▁Scot	-15185
▁deck	-15186
▁irré	-15187
▁sauc	-15188
▁chrét	-15189
▁ingén	-15190
▁shown	-15191
▁Winter	-15192
▁abruti	-15193
▁doutes	-15194
▁routes	-15195
▁Alright	-15196
▁dépasse	-15197
▁Consider	-15198
▁promises	-15199
▁Sweetheart	-15200
▁alternative	-15201
that	-15202
▁Hub	-15203
▁Cook	-15204
▁hood	-15205
▁Tirez	-15206
▁fatal	-15207
pendant	-15208
▁debate	-15209
▁fridge	-15210
▁tueurs	-15211
akespeare	-15212
▁arrivait	-15213
-5	-15214
sch	-15215
ousy	-15216
oxyg	-15217
▁Sut	-15218
enson	-15219
▁Lola	-15220
▁nick	-15221
▁tres	-15222
▁Chois	-15223
▁mette	-15224
▁troph	-15225
▁vivez	-15226
▁Laurel	-15227
▁beaten	-15228
▁cartel	-15229
▁crever	-15230
▁cravate	-15231
▁studied	-15232
▁renforts	-15233
▁assurance	-15234
▁considère	-15235
▁scientist	-15236
▁Enterprise	-15237
▁techniques	-15238
UL	-15239
non	-15240
oshi	-15241
ribly	-15242
▁Data	-15243
▁Town	-15244
▁gymn	-15245
arence	-15246
▁Dutch	-15247
▁Numéro	-15248
▁entrez	-15249
▁Marilyn	-15250
▁interrup	-15251
▁malheureusement	-15252
▁44	-15253
cont	-15254
kind	-15255
▁Cur	-15256
▁lug	-15257
aides	-15258
etait	-15259
▁Grac	-15260
▁Repe	-15261
▁Tuez	-15262
▁unex	-15263
▁Levez	-15264
▁Voila	-15265
▁virée	-15266
istique	-15267
▁Elaine	-15268
▁repair	-15269
▁tissue	-15270
▁villes	-15271
▁minable	-15272
▁contient	-15273
▁manquait	-15274
▁countries	-15275
▁dimension	-15276
sea	-15277
angé	-15278
arte	-15279
fire	-15280
ibly	-15281
zing	-15282
▁irre	-15283
▁knee	-15284
▁sins	-15285
▁Evans	-15286
▁legit	-15287
▁navré	-15288
▁Durant	-15289
▁sentait	-15290
▁diamonds	-15291
▁surement	-15292
▁atmosphere	-15293
▁scientifiques	-15294
cat	-15295
ribed	-15296
▁boul	-15297
▁Becky	-15298
▁Debra	-15299
▁Sasha	-15300
▁Sonny	-15301
▁incon	-15302
[...]
