<unk>	0
<s>	0
</s>	0
▁t	-0
ie	-1
▁w	-2
▁s	-3
▁m	-4
he	-5
▁a	-6
ou	-7
▁p	-8
in	-9
▁n	-10
▁d	-11
▁c	-12
re	-13
on	-14
st	-15
an	-16
▁b	-17
▁I	-18
at	-19
ow	-20
▁to	-21
er	-22
▁z	-23
▁i	-24
▁o	-25
▁y	-26
sz	-27
▁the	-28
le	-29
▁you	-30
▁T	-31
▁j	-32
▁g	-33
rz	-34
▁W	-35
▁k	-36
ar	-37
ię	-38
ing	-39
or	-40
ll	-41
en	-42
am	-43
▁f	-44
▁h	-45
dz	-46
ro	-47
li	-48
ak	-49
▁th	-50
ch	-51
▁N	-52
ra	-53
cz	-54
▁M	-55
▁C	-56
ał	-57
ot	-58
em	-59
▁do	-60
ed	-61
▁S	-62
▁A	-63
..	-64
as	-65
om	-66
nd	-67
▁P	-68
...	-69
is	-70
est	-71
▁nie	-72
że	-73
ve	-74
▁na	-75
it	-76
et	-77
▁u	-78
▁D	-79
go	-80
▁się	-81
▁J	-82
▁he	-83
▁in	-84
▁Y	-85
ad	-86
▁H	-87
▁po	-88
▁B	-89
▁O	-90
▁of	-91
ce	-92
ay	-93
al	-94
im	-95
▁l	-96
nie	-97
rze	-98
ci	-99
▁be	-100
▁że	-101
▁it	-102
es	-103
ym	-104
ut	-105
hat	-106
▁st	-107
▁on	-108
ni	-109
aj	-110
▁Nie	-111
od	-112
ego	-113
▁jest	-114
▁mo	-115
▁that	-116
▁and	-117
gh	-118
▁me	-119
eś	-120
▁we	-121
▁go	-122
id	-123
ck	-124
dzie	-125
▁You	-126
wi	-127
ld	-128
na	-129
ko	-130
▁za	-131
se	-132
▁is	-133
▁by	-134
dzi	-135
▁e	-136
ob	-137
▁G	-138
rzy	-139
▁ch	-140
ght	-141
cie	-142
▁ha	-143
▁li	-144
ry	-145
ver	-146
▁re	-147
out	-148
▁my	-149
▁Z	-150
▁L	-151
▁co	-152
wo	-153
ny	-154
▁r	-155
ej	-156
ać	-157
▁for	-158
la	-159
▁To	-160
uj	-161
▁mi	-162
▁K	-163
ła	-164
czy	-165
▁R	-166
ka	-167
▁wy	-168
▁cz	-169
my	-170
▁sp	-171
ust	-172
▁tak	-173
ome	-174
▁The	-175
▁was	-176
dy	-177
ir	-178
now	-179
▁ro	-180
ent	-181
▁your	-182
us	-183
▁We	-184
bi	-185
▁this	-186
by	-187
▁have	-188
ith	-189
ion	-190
ly	-191
ic	-192
ne	-193
▁jak	-194
ight	-195
▁not	-196
▁know	-197
ant	-198
ur	-199
ok	-200
ill	-201
▁He	-202
ów	-203
ło	-204
owie	-205
▁Ch	-206
ould	-207
raw	-208
szy	-209
all	-210
▁with	-211
▁ty	-212
ki	-213
▁se	-214
▁le	-215
▁wie	-216
▁It	-217
▁are	-218
ct	-219
▁F	-220
ke	-221
her	-222
▁can	-223
ia	-224
▁don	-225
▁pro	-226
▁"	-227
▁dz	-228
▁Tak	-229
ol	-230
▁ne	-231
wa	-232
op	-233
▁What	-234
▁od	-235
art	-236
cy	-237
um	-238
▁przy	-239
os	-240
▁te	-241
anie	-242
ho	-243
un	-244
zy	-245
▁what	-246
▁mnie	-247
▁Co	-248
ąd	-249
il	-250
one	-251
ku	-252
je	-253
▁ma	-254
and	-255
▁E	-256
▁kt	-257
▁lo	-258
hing	-259
ży	-260
▁prze	-261
▁get	-262
ja	-263
ój	-264
▁up	-265
▁ab	-266
▁just	-267
ca	-268
▁all	-269
▁sh	-270
▁And	-271
ałem	-272
▁out	-273
ig	-274
wie	-275
el	-276
ap	-277
az	-278
▁at	-279
▁like	-280
▁as	-281
bie	-282
ea	-283
▁here	-284
ter	-285
ek	-286
ała	-287
▁No	-288
no	-289
▁an	-290
ink	-291
▁so	-292
ści	-293
aw	-294
▁Jest	-295
our	-296
ost	-297
▁no	-298
▁got	-299
▁want	-300
▁him	-301
▁ci	-302
▁U	-303
▁sz	-304
łem	-305
▁about	-306
ść	-307
▁Th	-308
▁ś	-309
iem	-310
▁któ	-311
pp	-312
łu	-313
ró	-314
ty	-315
▁ba	-316
▁de	-317
▁two	-318
ta	-319
▁right	-320
▁did	-321
▁ra	-322
▁her	-323
▁ko	-324
▁Mo	-325
▁but	-326
very	-327
ami	-328
ul	-329
▁there	-330
▁Oh	-331
▁su	-332
ast	-333
▁wor	-334
ną	-335
ally	-336
▁bę	-337
ge	-338
▁tym	-339
▁us	-340
szyst	-341
ind	-342
rawd	-343
▁think	-344
▁al	-345
ri	-346
ru	-347
ard	-348
▁That	-349
▁one	-350
szę	-351
▁dzie	-352
▁cię	-353
▁now	-354
▁ale	-355
ły	-356
eah	-357
ier	-358
▁'	-359
rom	-360
si	-361
own	-362
ac	-363
fe	-364
ble	-365
to	-366
▁whe	-367
ga	-368
▁they	-369
ają	-370
ate	-371
eśli	-372
hy	-373
śmy	-374
▁dla	-375
▁tego	-376
▁pow	-377
▁powie	-378
uje	-379
▁pe	-380
▁Ale	-381
ers	-382
nt	-383
▁zro	-384
lko	-385
▁mu	-386
▁bo	-387
ep	-388
▁-	-389
▁any	-390
ani	-391
▁tu	-392
res	-393
▁St	-394
▁ni	-395
ong	-396
▁if	-397
ięc	-398
ank	-399
▁will	-400
▁some	-401
▁My	-402
▁she	-403
▁But	-404
▁pod	-405
ive	-406
▁Yeah	-407
uję	-408
ime	-409
▁może	-410
▁dob	-411
▁mie	-412
▁1	-413
▁sam	-414
ję	-415
asz	-416
▁wszyst	-417
iedy	-418
▁from	-419
▁Jak	-420
▁wi	-421
▁who	-422
śl	-423
ine	-424
▁mam	-425
ist	-426
▁roz	-427
▁lu	-428
▁Well	-429
sp	-430
▁Po	-431
▁or	-432
▁So	-433
kay	-434
▁his	-435
red	-436
ven	-437
▁see	-438
ba	-439
▁Wy	-440
▁będzie	-441
▁would	-442
ali	-443
▁mog	-444
uż	-445
rou	-446
ówi	-447
▁je	-448
▁tylko	-449
▁say	-450
ake	-451
▁back	-452
▁com	-453
use	-454
▁man	-455
▁zrobi	-456
usi	-457
ation	-458
onna	-459
pie	-460
ało	-461
ach	-462
▁prz	-463
▁Do	-464
▁gu	-465
ud	-466
▁jesteś	-467
ore	-468
▁going	-469
ess	-470
▁ex	-471
szcz	-472
rie	-473
qu	-474
▁gonna	-475
row	-476
▁were	-477
▁time	-478
▁Cz	-479
aż	-480
eraz	-481
alk	-482
▁con	-483
obie	-484
sze	-485
ich	-486
ort	-487
▁need	-488
ją	-489
▁them	-490
▁sa	-491
▁ob	-492
awi	-493
▁look	-494
dział	-495
way	-496
▁Dob	-497
te	-498
▁Dz	-499
▁żeby	-500
łeś	-501
iebie	-502
▁ja	-503
cę	-504
ase	-505
mie	-506
▁są	-507
▁ży	-508
▁could	-509
▁had	-510
▁bar	-511
▁been	-512
▁pl	-513
omet	-514
▁czy	-515
ony	-516
▁być	-517
▁fe	-518
ięk	-519
ody	-520
ame	-521
▁good	-522
▁Sp	-523
end	-524
▁pot	-525
▁ze	-526
ick	-527
be	-528
ować	-529
▁She	-530
▁jed	-531
ale	-532
▁thing	-533
▁im	-534
ys	-535
kę	-536
▁off	-537
cho	-538
kie	-539
▁pom	-540
▁This	-541
are	-542
ście	-543
any	-544
▁v	-545
▁our	-546
śli	-547
▁Więc	-548
▁coś	-549
lo	-550
emy	-551
▁zost	-552
czego	-553
thing	-554
tle	-555
▁Mam	-556
ary	-557
▁pra	-558
lu	-559
▁tell	-560
ana	-561
▁był	-562
ther	-563
nego	-564
▁kiedy	-565
▁when	-566
▁They	-567
▁How	-568
óż	-569
ous	-570
nia	-571
▁Bo	-572
▁every	-573
ss	-574
▁come	-575
▁Wie	-576
▁sk	-577
▁Yes	-578
▁V	-579
▁tam	-580
uck	-581
up	-582
we	-583
▁Whe	-584
bym	-585
▁somet	-586
liśmy	-587
▁am	-588
ran	-589
▁Go	-590
▁mówi	-591
ure	-592
dę	-593
▁mean	-594
▁take	-595
nym	-596
cause	-597
rząd	-598
łaś	-599
ff	-600
▁czas	-601
▁has	-602
▁Za	-603
▁way	-604
▁swo	-605
▁Prze	-606
niej	-607
wy	-608
▁Hey	-609
imy	-610
oz	-611
łam	-612
ji	-613
▁didn	-614
rawdę	-615
rzym	-616
▁how	-617
▁op	-618
▁down	-619
▁jestem	-620
gl	-621
▁jeśli	-622
mi	-623
ave	-624
▁If	-625
▁work	-626
oba	-627
▁zna	-628
ag	-629
▁raz	-630
dzo	-631
led	-632
ron	-633
▁talk	-634
▁happ	-635
dzieć	-636
ber	-637
▁something	-638
ear	-639
ide	-640
lf	-641
bo	-642
▁really	-643
▁jej	-644
▁ż	-645
reat	-646
▁zd	-647
▁poz	-648
▁over	-649
▁more	-650
odź	-651
▁porząd	-652
▁fa	-653
▁Pro	-654
▁Czy	-655
▁ten	-656
▁teraz	-657
mu	-658
th	-659
ord	-660
▁ciebie	-661
▁Może	-662
▁Okay	-663
▁let	-664
▁make	-665
ania	-666
00	-667
▁robi	-668
rasz	-669
▁porządku	-670
▁By	-671
▁2	-672
▁przez	-673
▁już	-674
▁lat	-675
owy	-676
▁zap	-677
▁There	-678
▁nap	-679
▁Why	-680
▁should	-681
▁Don	-682
▁Ja	-683
▁Jesteś	-684
ople	-685
kt	-686
ałeś	-687
ady	-688
▁too	-689
▁Przy	-690
▁naj	-691
▁dzi	-692
▁wszystko	-693
ies	-694
▁Come	-695
▁chce	-696
dź	-697
▁then	-698
ice	-699
▁lit	-700
rawda	-701
▁musi	-702
▁All	-703
ały	-704
▁Jeśli	-705
▁było	-706
▁Be	-707
ose	-708
ving	-709
▁sobie	-710
other	-711
▁Lo	-712
▁wiem	-713
▁little	-714
ang	-715
ien	-716
▁pan	-717
ound	-718
amy	-719
ond	-720
▁mogę	-721
owi	-722
▁never	-723
rób	-724
▁day	-725
lp	-726
▁pre	-727
▁nas	-728
iss	-729
igdy	-730
▁Jestem	-731
ane	-732
nych	-733
▁jego	-734
▁Let	-735
enia	-736
▁Ty	-737
lease	-738
ite	-739
▁love	-740
ory	-741
gląd	-742
▁people	-743
czyć	-744
▁Dla	-745
enie	-746
▁bardzo	-747
orry	-748
ting	-749
▁does	-750
ałam	-751
▁en	-752
▁Hej	-753
cia	-754
gi	-755
ół	-756
▁br	-757
▁Now	-758
▁said	-759
ują	-760
lie	-761
▁Na	-762
▁Mr	-763
▁qu	-764
▁masz	-765
js	-766
łuch	-767
nik	-768
▁only	-769
▁wh	-770
▁dobrze	-771
▁Sh	-772
▁Is	-773
ity	-774
ery	-775
▁Thank	-776
▁Who	-777
ona	-778
▁mat	-779
ark	-780
▁ar	-781
nder	-782
▁które	-783
szcze	-784
▁zn	-785
pe	-786
ree	-787
▁spraw	-788
▁min	-789
▁bet	-790
if	-791
ait	-792
rzeb	-793
gain	-794
▁ich	-795
▁Powie	-796
▁prawda	-797
▁Chodź	-798
emu	-799
de	-800
▁Dobrze	-801
▁very	-802
self	-803
ning	-804
▁rze	-805
wój	-806
▁ją	-807
▁thou	-808
▁happen	-809
▁kon	-810
▁In	-811
▁#	-812
▁af	-813
riend	-814
▁bez	-815
▁help	-816
▁tra	-817
▁który	-818
▁fir	-819
▁doing	-820
dzin	-821
▁Mi	-822
sy	-823
ujesz	-824
ką	-825
▁again	-826
ance	-827
waż	-828
pi	-829
orm	-830
dzę	-831
ład	-832
".	-833
▁even	-834
▁kto	-835
era	-836
▁where	-837
▁pew	-838
ather	-839
▁much	-840
▁into	-841
▁sy	-842
▁find	-843
▁Dlaczego	-844
les	-845
▁cho	-846
co	-847
▁prost	-848
czę	-849
utaj	-850
▁other	-851
▁year	-852
▁Not	-853
▁ta	-854
▁kil	-855
▁gdy	-856
ass	-857
prasz	-858
▁nic	-859
▁też	-860
ell	-861
▁why	-862
▁call	-863
▁mój	-864
per	-865
▁tro	-866
jego	-867
▁Jo	-868
▁under	-869
▁Just	-870
chę	-871
och	-872
▁Od	-873
ślę	-874
jej	-875
owa	-876
▁Look	-877
▁sir	-878
▁powin	-879
▁nasz	-880
mawi	-881
▁pi	-882
▁zrobić	-883
nej	-884
▁feel	-885
ren	-886
▁wię	-887
ans	-888
praszam	-889
▁Proszę	-890
▁give	-891
ierw	-892
fore	-893
▁bu	-894
sh	-895
tu	-896
▁because	-897
ire	-898
rac	-899
aybe	-900
▁nam	-901
▁pla	-902
▁Wiesz	-903
▁ser	-904
che	-905
eep	-906
urn	-907
au	-908
▁por	-909
cze	-910
▁TH	-911
round	-912
▁part	-913
▁domu	-914
get	-915
▁gdzie	-916
▁okay	-917
▁life	-918
▁try	-919
cią	-920
ment	-921
ip	-922
."	-923
ab	-924
gę	-925
ze	-926
▁praw	-927
▁koch	-928
ór	-929
nę	-930
▁moż	-931
ile	-932
cu	-933
iękuję	-934
▁Ż	-935
▁night	-936
ish	-937
▁miejs	-938
▁ask	-939
ade	-940
▁Al	-941
▁pie	-942
▁bro	-943
▁3	-944
▁still	-945
▁Je	-946
uk	-947
▁God	-948
▁chci	-949
oney	-950
▁zam	-951
▁their	-952
▁zoba	-953
▁Re	-954
łop	-955
▁Where	-956
▁proble	-957
ved	-958
kiem	-959
▁jeszcze	-960
day	-961
▁anything	-962
▁than	-963
ied	-964
ań	-965
▁thought	-966
▁sorry	-967
scy	-968
▁tutaj	-969
▁nad	-970
eni	-971
▁Are	-972
▁myśli	-973
▁przed	-974
▁tr	-975
▁minut	-976
▁first	-977
▁well	-978
▁ad	-979
cej	-980
og	-981
▁long	-982
ft	-983
▁sure	-984
ise	-985
▁hand	-986
▁gir	-987
óg	-988
▁była	-989
▁these	-990
ER	-991
▁nim	-992
▁friend	-993
▁fuck	-994
▁before	-995
▁spe	-996
int	-997
▁wr	-998
▁Przepraszam	-999
ina	-1000
czą	-1001
ple	-1002
▁si	-1003
▁cał	-1004
▁dost	-1005
oni	-1006
▁możesz	-1007
▁new	-1008
▁poli	-1009
▁An	-1010
▁dr	-1011
ough	-1012
▁Se	-1013
▁sm	-1014
▁Nap	-1015
działem	-1016
▁sc	-1017
▁home	-1018
kaz	-1019
pt	-1020
▁fo	-1021
▁On	-1022
dzić	-1023
oty	-1024
▁Wi	-1025
eść	-1026
łowie	-1027
▁chcesz	-1028
nij	-1029
OU	-1030
ew	-1031
▁un	-1032
▁put	-1033
▁Cóż	-1034
▁trochę	-1035
▁zab	-1036
▁os	-1037
▁ost	-1038
▁stop	-1039
▁away	-1040
▁Mar	-1041
ęp	-1042
rowa	-1043
▁wsp	-1044
▁dro	-1045
▁pani	-1046
aje	-1047
▁car	-1048
ress	-1049
▁wiesz	-1050
usz	-1051
▁zabi	-1052
▁Gdzie	-1053
age	-1054
▁każ	-1055
wczy	-1056
yt	-1057
▁rem	-1058
dzisz	-1059
ałaś	-1060
▁lot	-1061
▁więc	-1062
▁bi	-1063
▁after	-1064
bą	-1065
ath	-1066
▁last	-1067
▁must	-1068
▁id	-1069
▁chcę	-1070
ub	-1071
róci	-1072
rat	-1073
▁Ma	-1074
▁Wiem	-1075
ways	-1076
lat	-1077
▁Good	-1078
▁start	-1079
ouse	-1080
uch	-1081
cą	-1082
łą	-1083
▁Dziękuję	-1084
▁prostu	-1085
▁Kiedy	-1086
▁kid	-1087
szyscy	-1088
▁told	-1089
▁problem	-1090
▁imp	-1091
owe	-1092
▁Your	-1093
▁girl	-1094
▁kill	-1095
▁przyja	-1096
body	-1097
gu	-1098
ild	-1099
der	-1100
▁keep	-1101
▁won	-1102
▁act	-1103
▁świ	-1104
ara	-1105
ności	-1106
cję	-1107
▁tej	-1108
▁ac	-1109
▁um	-1110
▁sec	-1111
▁tobą	-1112
ód	-1113
mm	-1114
IN	-1115
▁naprawdę	-1116
▁Get	-1117
▁powiedzieć	-1118
▁che	-1119
▁things	-1120
▁cou	-1121
▁zaw	-1122
su	-1123
▁Roz	-1124
▁Ś	-1125
ował	-1126
▁Am	-1127
▁Kto	-1128
▁dis	-1129
▁potrzeb	-1130
▁Can	-1131
▁place	-1132
▁years	-1133
▁better	-1134
▁Did	-1135
▁guy	-1136
▁więcej	-1137
AN	-1138
▁Li	-1139
szed	-1140
ret	-1141
▁dziewczy	-1142
▁bad	-1143
▁Pow	-1144
amię	-1145
▁those	-1146
▁wait	-1147
▁around	-1148
▁Mu	-1149
▁tru	-1150
▁belie	-1151
byś	-1152
▁ever	-1153
rzu	-1154
sią	-1155
łaśnie	-1156
▁ho	-1157
cji	-1158
▁plan	-1159
▁nigdy	-1160
▁great	-1161
▁dru	-1162
po	-1163
edy	-1164
▁always	-1165
łuchaj	-1166
ógł	-1167
▁mom	-1168
kol	-1169
aty	-1170
▁gł	-1171
so	-1172
▁ok	-1173
▁ludzi	-1174
▁Wszyst	-1175
▁kind	-1176
▁rzeczy	-1177
▁show	-1178
▁per	-1179
▁Uh	-1180
▁takie	-1181
ull	-1182
▁list	-1183
▁pierw	-1184
▁When	-1185
ner	-1186
▁Musi	-1187
▁mar	-1188
▁big	-1189
▁czego	-1190
atch	-1191
▁niż	-1192
▁Masz	-1193
da	-1194
▁care	-1195
▁Naprawdę	-1196
▁uh	-1197
ób	-1198
man	-1199
▁cl	-1200
▁Nic	-1201
▁świe	-1202
dziej	-1203
▁Bę	-1204
dzy	-1205
▁gra	-1206
▁powiedział	-1207
▁made	-1208
się	-1209
▁doesn	-1210
rę	-1211
▁oj	-1212
▁Teraz	-1213
rough	-1214
ves	-1215
▁name	-1216
▁old	-1217
pad	-1218
koń	-1219
lep	-1220
onie	-1221
▁pos	-1222
dzą	-1223
▁mamy	-1224
▁pa	-1225
▁please	-1226
ful	-1227
▁guys	-1228
usimy	-1229
▁cour	-1230
▁Sz	-1231
ata	-1232
▁money	-1233
du	-1234
ried	-1235
arm	-1236
▁stało	-1237
▁naw	-1238
ember	-1239
▁nothing	-1240
ią	-1241
uh	-1242
ięki	-1243
tain	-1244
▁OK	-1245
▁everything	-1246
▁kom	-1247
ól	-1248
▁own	-1249
▁razem	-1250
iesz	-1251
▁bit	-1252
▁pop	-1253
▁dzieci	-1254
▁rob	-1255
▁play	-1256
ction	-1257
ons	-1258
stwo	-1259
▁Le	-1260
xt	-1261
▁spo	-1262
▁through	-1263
ince	-1264
kim	-1265
▁For	-1266
stand	-1267
dziesz	-1268
▁dłu	-1269
▁wanted	-1270
▁odp	-1271
wać	-1272
▁De	-1273
ęż	-1274
▁mną	-1275
▁og	-1276
▁leave	-1277
▁wom	-1278
wiek	-1279
▁believe	-1280
dze	-1281
kow	-1282
rem	-1283
rą	-1284
▁comp	-1285
▁Pot	-1286
form	-1287
dziemy	-1288
▁Dobra	-1289
▁5	-1290
▁czym	-1291
oby	-1292
ious	-1293
low	-1294
▁kobie	-1295
▁jakie	-1296
▁wz	-1297
lę	-1298
▁proszę	-1299
▁Myślę	-1300
kolwiek	-1301
ict	-1302
▁might	-1303
▁head	-1304
▁wygląd	-1305
▁hear	-1306
▁człowie	-1307
yba	-1308
▁being	-1309
koj	-1310
▁moje	-1311
rzę	-1312
▁nawet	-1313
▁done	-1314
▁chłop	-1315
ually	-1316
gin	-1317
▁inte	-1318
▁Och	-1319
▁Lu	-1320
▁wo	-1321
rew	-1322
ever	-1323
▁Chce	-1324
▁4	-1325
▁*	-1326
▁Then	-1327
▁miał	-1328
sta	-1329
óź	-1330
ris	-1331
kich	-1332
▁kole	-1333
▁życie	-1334
av	-1335
▁pat	-1336
▁twój	-1337
side	-1338
ult	-1339
▁stay	-1340
▁ł	-1341
ors	-1342
▁Bar	-1343
▁Muszę	-1344
▁mak	-1345
ślałem	-1346
cja	-1347
erson	-1348
▁moim	-1349
io	-1350
▁Boże	-1351
▁run	-1352
ram	-1353
erw	-1354
czywi	-1355
▁fun	-1356
ić	-1357
▁house	-1358
ano	-1359
▁Chcę	-1360
▁będę	-1361
▁em	-1362
anna	-1363
▁Two	-1364
rać	-1365
chodzi	-1366
odu	-1367
▁mon	-1368
ign	-1369
dą	-1370
naj	-1371
▁moja	-1372
llo	-1373
nię	-1374
▁Pod	-1375
▁left	-1376
▁understand	-1377
tro	-1378
▁world	-1379
cznie	-1380
▁el	-1381
▁sł	-1382
AT	-1383
▁found	-1384
▁app	-1385
lem	-1386
▁sur	-1387
▁znaczy	-1388
▁ph	-1389
acet	-1390
▁prac	-1391
▁happened	-1392
▁Nigdy	-1393
▁coming	-1394
▁someone	-1395
otk	-1396
▁Wszystko	-1397
son	-1398
▁came	-1399
mier	-1400
▁father	-1401
▁YOU	-1402
wią	-1403
▁Please	-1404
ekaj	-1405
▁supp	-1406
ng	-1407
▁wrong	-1408
▁same	-1409
▁mart	-1410
ope	-1411
▁Cześć	-1412
▁zak	-1413
▁ostat	-1414
▁czasu	-1415
▁rep	-1416
▁ass	-1417
kon	-1418
▁koń	-1419
oth	-1420
▁bus	-1421
▁cal	-1422
ymi	-1423
oc	-1424
iędzy	-1425
▁Hi	-1426
▁war	-1427
ated	-1428
▁star	-1429
rod	-1430
gie	-1431
nią	-1432
▁zawsze	-1433
▁week	-1434
▁Maybe	-1435
▁dead	-1436
▁dlaczego	-1437
▁Ah	-1438
▁meet	-1439
ków	-1440
▁fin	-1441
zw	-1442
▁Zost	-1443
czne	-1444
▁wróci	-1445
▁else	-1446
▁Sam	-1447
ora	-1448
▁zas	-1449
▁ag	-1450
▁tę	-1451
▁chodzi	-1452
czywiście	-1453
▁mother	-1454
sty	-1455
▁jako	-1456
▁stra	-1457
ii	-1458
ions	-1459
▁mor	-1460
zyb	-1461
▁talking	-1462
ens	-1463
god	-1464
▁przest	-1465
▁enough	-1466
imes	-1467
▁ona	-1468
czu	-1469
ence	-1470
sza	-1471
ON	-1472
▁Sk	-1473
▁cra	-1474
▁mojego	-1475
reak	-1476
▁Here	-1477
ue	-1478
▁siebie	-1479
▁Joh	-1480
▁met	-1481
▁kogo	-1482
▁isn	-1483
omo	-1484
▁Ho	-1485
▁win	-1486
zna	-1487
ah	-1488
▁another	-1489
▁course	-1490
▁end	-1491
rawi	-1492
▁Chci	-1493
▁zmie	-1494
▁będziesz	-1495
▁temu	-1496
▁Me	-1497
▁wcz	-1498
▁job	-1499
▁tych	-1500
▁Ar	-1501
▁num	-1502
▁zaj	-1503
▁mógł	-1504
▁Zro	-1505
▁boy	-1506
łysz	-1507
▁robisz	-1508
ciu	-1509
▁tele	-1510
▁THE	-1511
ujemy	-1512
▁best	-1513
rzą	-1514
▁spos	-1515
▁des	-1516
rest	-1517
▁getting	-1518
▁fami	-1519
▁trying	-1520
nić	-1521
less	-1522
len	-1523
▁Te	-1524
niu	-1525
▁każd	-1526
ctor	-1527
▁three	-1528
▁rodzin	-1529
▁chwi	-1530
▁facet	-1531
kład	-1532
▁room	-1533
▁cle	-1534
▁przyj	-1535
▁Every	-1536
▁dale	-1537
▁looking	-1538
▁Prz	-1539
▁albo	-1540
ność	-1541
▁Mówi	-1542
let	-1543
▁możemy	-1544
▁which	-1545
▁went	-1546
▁jaki	-1547
▁ktoś	-1548
▁musisz	-1549
▁Dr	-1550
▁rę	-1551
▁wszystkie	-1552
gether	-1553
asy	-1554
▁hard	-1555
▁Chcesz	-1556
▁duż	-1557
latego	-1558
▁Mogę	-1559
▁inv	-1560
▁person	-1561
▁ludzie	-1562
▁pret	-1563
ger	-1564
▁miss	-1565
act	-1566
▁10	-1567
leź	-1568
▁son	-1569
▁Ni	-1570
iv	-1571
▁jesteśmy	-1572
▁may	-1573
▁fil	-1574
▁Tylko	-1575
▁dzieck	-1576
▁hell	-1577
woni	-1578
▁wyst	-1579
▁iść	-1580
got	-1581
▁gl	-1582
▁kne	-1583
▁wasn	-1584
bly	-1585
kry	-1586
▁real	-1587
amp	-1588
▁męż	-1589
LL	-1590
▁turn	-1591
▁sto	-1592
▁mind	-1593
▁niego	-1594
sa	-1595
ając	-1596
▁Ten	-1597
▁Rob	-1598
▁Because	-1599
▁dobry	-1600
▁mał	-1601
fi	-1602
▁yourself	-1603
▁post	-1604
umiem	-1605
▁Ex	-1606
ater	-1607
▁exp	-1608
▁today	-1609
ójrz	-1610
▁kilka	-1611
▁Will	-1612
▁John	-1613
arl	-1614
rzyć	-1615
szt	-1616
urt	-1617
here	-1618
▁together	-1619
▁Powin	-1620
▁hist	-1621
▁yeah	-1622
▁remember	-1623
▁family	-1624
▁sie	-1625
▁Or	-1626
▁saw	-1627
▁prób	-1628
łe	-1629
▁wyd	-1630
▁fine	-1631
▁Right	-1632
▁Daj	-1633
▁mieć	-1634
▁Dzięki	-1635
▁child	-1636
▁twoje	-1637
▁mojej	-1638
ma	-1639
▁most	-1640
ley	-1641
wię	-1642
szą	-1643
▁As	-1644
aliśmy	-1645
▁Hello	-1646
▁One	-1647
cent	-1648
ato	-1649
▁ter	-1650
▁Br	-1651
▁wyb	-1652
ura	-1653
▁next	-1654
▁twoja	-1655
▁szczę	-1656
ating	-1657
▁kim	-1658
▁sit	-1659
▁śmier	-1660
cis	-1661
za	-1662
▁str	-1663
▁ot	-1664
RE	-1665
gg	-1666
▁panie	-1667
ump	-1668
▁Ok	-1669
▁chol	-1670
▁thank	-1671
▁wiel	-1672
▁nice	-1673
isi	-1674
sto	-1675
nąć	-1676
▁skoń	-1677
działa	-1678
▁która	-1679
▁Możesz	-1680
ical	-1681
▁moją	-1682
▁właśnie	-1683
▁sho	-1684
rym	-1685
ready	-1686
▁wszyscy	-1687
dzenia	-1688
▁Ta	-1689
▁Wh	-1690
igh	-1691
▁bra	-1692
▁maybe	-1693
ymy	-1694
▁potem	-1695
000	-1696
▁blo	-1697
piej	-1698
ozmawi	-1699
hed	-1700
ste	-1701
zn	-1702
owo	-1703
kro	-1704
▁żad	-1705
▁żebyś	-1706
▁use	-1707
▁miejsce	-1708
rist	-1709
▁hour	-1710
▁Jack	-1711
▁Wygląd	-1712
ings	-1713
▁wouldn	-1714
▁At	-1715
▁godzin	-1716
rza	-1717
▁mów	-1718
▁dzieje	-1719
▁fucking	-1720
▁dom	-1721
▁gr	-1722
anim	-1723
▁fi	-1724
bię	-1725
ins	-1726
ital	-1727
uff	-1728
▁sposób	-1729
▁Mój	-1730
▁Pa	-1731
iness	-1732
▁Zap	-1733
▁many	-1734
cem	-1735
▁whole	-1736
▁baby	-1737
▁idea	-1738
▁face	-1739
▁knew	-1740
sł	-1741
ash	-1742
stwa	-1743
▁zat	-1744
▁already	-1745
▁set	-1746
pu	-1747
orrow	-1748
chool	-1749
▁swe	-1750
▁ey	-1751
▁woman	-1752
skie	-1753
owany	-1754
▁seen	-1755
aki	-1756
▁swoje	-1757
▁men	-1758
▁Q	-1759
ców	-1760
come	-1761
óc	-1762
▁jeden	-1763
▁samoch	-1764
ert	-1765
▁miesz	-1766
tnie	-1767
▁Of	-1768
▁uży	-1769
AR	-1770
▁przyjacie	-1771
▁shit	-1772
▁used	-1773
▁bl	-1774
czenia	-1775
▁odpowie	-1776
▁nadzie	-1777
▁Dzie	-1778
▁Wait	-1779
▁pój	-1780
owanie	-1781
▁hot	-1782
▁took	-1783
▁walk	-1784
cj	-1785
▁Har	-1786
ream	-1787
EN	-1788
raj	-1789
acja	-1790
aniu	-1791
▁szyb	-1792
amn	-1793
osed	-1794
gry	-1795
szedł	-1796
▁stanie	-1797
▁without	-1798
leep	-1799
▁called	-1800
▁Ro	-1801
ason	-1802
▁wiele	-1803
uth	-1804
▁Powiedz	-1805
▁heard	-1806
▁live	-1807
ness	-1808
▁matter	-1809
aught	-1810
▁Gdy	-1811
▁czę	-1812
pa	-1813
▁dużo	-1814
▁kochanie	-1815
ciąg	-1816
▁Thanks	-1817
ING	-1818
▁morning	-1819
▁twoim	-1820
ks	-1821
▁wanna	-1822
▁Chyba	-1823
▁Musisz	-1824
▁dziś	-1825
▁brother	-1826
▁Any	-1827
▁dwa	-1828
▁ry	-1829
▁nich	-1830
alaz	-1831
▁zm	-1832
szło	-1833
▁seem	-1834
lle	-1835
tedy	-1836
ciw	-1837
▁wiedzieć	-1838
▁spotk	-1839
▁Koch	-1840
▁word	-1841
zie	-1842
łaści	-1843
▁guess	-1844
▁rozmawi	-1845
ator	-1846
śle	-1847
▁20	-1848
gn	-1849
▁znaleź	-1850
▁ton	-1851
▁quest	-1852
▁ago	-1853
▁wszystkich	-1854
cept	-1855
▁póź	-1856
arn	-1857
asne	-1858
▁głu	-1859
▁muszę	-1860
ten	-1861
▁myślisz	-1862
▁killed	-1863
ntil	-1864
byt	-1865
▁par	-1866
▁...	-1867
▁wł	-1868
szych	-1869
▁TO	-1870
py	-1871
ition	-1872
▁znaj	-1873
akt	-1874
ster	-1875
lic	-1876
▁wife	-1877
amięt	-1878
▁Ab	-1879
▁zb	-1880
ałbym	-1881
ange	-1882
▁Panie	-1883
▁bardziej	-1884
▁Dad	-1885
▁Some	-1886
▁school	-1887
ute	-1888
▁wol	-1889
ciec	-1890
czny	-1891
OR	-1892
▁taki	-1893
mit	-1894
ton	-1895
▁Fr	-1896
▁gotta	-1897
▁nią	-1898
▁zobaczyć	-1899
▁second	-1900
▁few	-1901
fect	-1902
rent	-1903
▁days	-1904
▁ap	-1905
▁deal	-1906
▁pretty	-1907
▁miło	-1908
ird	-1909
ądź	-1910
▁wal	-1911
wiąz	-1912
▁najlep	-1913
▁saying	-1914
▁Musimy	-1915
▁Jed	-1916
ced	-1917
rzed	-1918
▁pozwo	-1919
ey	-1920
cked	-1921
▁Że	-1922
▁Oczywiście	-1923
ener	-1924
▁Spójrz	-1925
vel	-1926
▁die	-1927
▁świat	-1928
▁Już	-1929
▁bring	-1930
▁pay	-1931
▁myself	-1932
▁ud	-1933
rop	-1934
▁pana	-1935
▁stary	-1936
cial	-1937
llow	-1938
▁heart	-1939
▁Have	-1940
ica	-1941
▁ev	-1942
sk	-1943
▁yet	-1944
rzymać	-1945
▁dobre	-1946
acji	-1947
▁pracy	-1948
▁wyj	-1949
▁du	-1950
▁while	-1951
ying	-1952
ces	-1953
nu	-1954
pect	-1955
▁moment	-1956
oro	-1957
▁Tom	-1958
▁ru	-1959
tra	-1960
▁fight	-1961
iffe	-1962
▁prawdzi	-1963
unch	-1964
ister	-1965
▁pomóc	-1966
iny	-1967
▁dzień	-1968
▁inform	-1969
cić	-1970
▁haven	-1971
▁rest	-1972
działeś	-1973
prowa	-1974
▁ent	-1975
▁powinien	-1976
iej	-1977
▁Naw	-1978
cid	-1979
▁dziw	-1980
dza	-1981
▁inter	-1982
nam	-1983
▁trze	-1984
▁Są	-1985
▁break	-1986
▁dad	-1987
▁stand	-1988
▁Pom	-1989
aut	-1990
obą	-1991
▁lepiej	-1992
▁porozmawi	-1993
ian	-1994
▁open	-1995
▁drink	-1996
▁stąd	-1997
cza	-1998
▁Pan	-1999
owałem	-2000
stęp	-2001
▁actually	-2002
gan	-2003
▁dri	-2004
ES	-2005
ars	-2006
rzymaj	-2007
▁gone	-2008
isiaj	-2009
ef	-2010
▁6	-2011
▁Potrzeb	-2012
▁niez	-2013
ations	-2014
▁kur	-2015
▁listen	-2016
▁Mamy	-2017
ward	-2018
▁tom	-2019
▁Nawet	-2020
okój	-2021
▁move	-2022
▁pyt	-2023
rad	-2024
▁Cho	-2025
▁tri	-2026
▁kup	-2027
▁diffe	-2028
▁friends	-2029
▁Sorry	-2030
"?	-2031
▁wants	-2032
▁pr	-2033
▁Um	-2034
▁sen	-2035
▁Zam	-2036
▁hold	-2037
▁rec	-2038
gs	-2039
▁count	-2040
▁myślę	-2041
▁watch	-2042
pital	-2043
▁cie	-2044
cer	-2045
liwe	-2046
▁such	-2047
▁Zaw	-2048
▁case	-2049
▁cr	-2050
▁Naj	-2051
▁prom	-2052
▁samo	-2053
ps	-2054
▁twojej	-2055
rzeć	-2056
czek	-2057
▁nadzieję	-2058
▁nau	-2059
▁business	-2060
▁cor	-2061
tem	-2062
▁swoją	-2063
▁Wszyscy	-2064
▁ready	-2065
▁Ge	-2066
▁Słuchaj	-2067
ude	-2068
▁tonight	-2069
▁sw	-2070
cus	-2071
ha	-2072
▁pap	-2073
▁hope	-2074
▁dnia	-2075
unk	-2076
▁both	-2077
▁Idź	-2078
▁Chol	-2079
▁Take	-2080
nika	-2081
▁zanim	-2082
▁Myśli	-2083
▁Char	-2084
▁Pat	-2085
▁alone	-2086
▁det	-2087
▁dowie	-2088
▁przeciw	-2089
▁¶	-2090
▁zw	-2091
where	-2092
▁Pos	-2093
▁kró	-2094
ala	-2095
▁kogoś	-2096
bably	-2097
▁pewna	-2098
▁Sir	-2099
▁Stop	-2100
niądze	-2101
▁długo	-2102
▁couldn	-2103
▁hum	-2104
▁Man	-2105
▁szko	-2106
umie	-2107
▁cały	-2108
▁Nad	-2109
▁anyone	-2110
▁once	-2111
▁Pet	-2112
▁pomo	-2113
czenie	-2114
▁until	-2115
▁zad	-2116
cks	-2117
▁telef	-2118
▁Ju	-2119
IS	-2120
▁since	-2121
▁hit	-2122
lić	-2123
▁środ	-2124
raz	-2125
cuse	-2126
▁wcześ	-2127
sible	-2128
jech	-2129
▁Kim	-2130
oss	-2131
▁Tell	-2132
▁wiecz	-2133
▁sleep	-2134
▁dalej	-2135
▁happy	-2136
▁Like	-2137
▁którzy	-2138
▁says	-2139
lub	-2140
▁nazy	-2141
▁month	-2142
▁lost	-2143
able	-2144
▁życia	-2145
▁jedy	-2146
óki	-2147
lan	-2148
▁also	-2149
▁soon	-2150
ari	-2151
▁twoją	-2152
▁mają	-2153
▁mur	-2154
onder	-2155
▁test	-2156
▁cią	-2157
▁nocy	-2158
koju	-2159
▁See	-2160
ork	-2161
▁Ed	-2162
▁Che	-2163
▁histor	-2164
▁stuff	-2165
▁pięk	-2166
▁With	-2167
▁late	-2168
als	-2169
▁Un	-2170
ates	-2171
▁dni	-2172
▁żebym	-2173
ety	-2174
▁mówisz	-2175
ada	-2176
▁having	-2177
▁point	-2178
▁far	-2179
onieważ	-2180
lis	-2181
▁pres	-2182
▁Ad	-2183
▁robić	-2184
▁19	-2185
▁będziemy	-2186
▁Ha	-2187
lly	-2188
▁9	-2189
iz	-2190
liz	-2191
ota	-2192
und	-2193
łod	-2194
▁Christ	-2195
ciąż	-2196
ler	-2197
alf	-2198
ither	-2199
▁zrobił	-2200
▁mężczy	-2201
▁thinking	-2202
▁List	-2203
cess	-2204
gle	-2205
▁zbyt	-2206
▁beaut	-2207
szym	-2208
▁Zawsze	-2209
lit	-2210
▁Mm	-2211
▁dw	-2212
▁trzy	-2213
ierz	-2214
ąc	-2215
ding	-2216
▁zostawi	-2217
▁Ne	-2218
actly	-2219
raż	-2220
▁tomorrow	-2221
br	-2222
▁zach	-2223
▁Ko	-2224
▁myśl	-2225
land	-2226
▁stud	-2227
▁each	-2228
▁hurt	-2229
ową	-2230
oke	-2231
▁res	-2232
▁door	-2233
▁working	-2234
▁pieniądze	-2235
▁pomy	-2236
fer	-2237
▁którą	-2238
▁$	-2239
▁ode	-2240
▁aby	-2241
rzwi	-2242
czkę	-2243
▁Af	-2244
▁będą	-2245
▁Ba	-2246
▁Car	-2247
▁yes	-2248
▁niej	-2249
▁rację	-2250
wał	-2251
▁resp	-2252
tasz	-2253
▁Cholera	-2254
▁przyjaci	-2255
▁pick	-2256
▁phone	-2257
adomo	-2258
nts	-2259
▁hon	-2260
▁gi	-2261
utro	-2262
▁worry	-2263
▁read	-2264
ciek	-2265
▁gun	-2266
▁hands	-2267
▁chance	-2268
▁znaleźć	-2269
▁beh	-2270
▁waż	-2271
min	-2272
nowu	-2273
żyć	-2274
czył	-2275
▁pass	-2276
araz	-2277
ents	-2278
,000	-2279
ual	-2280
▁clo	-2281
▁uwie	-2282
▁Frank	-2283
zpie	-2284
czysz	-2285
▁cięż	-2286
ect	-2287
▁taka	-2288
▁AN	-2289
łap	-2290
▁tobie	-2291
▁death	-2292
sw	-2293
trol	-2294
▁Ben	-2295
▁kolej	-2296
ph	-2297
vers	-2298
dzwoni	-2299
▁Jesteśmy	-2300
oł	-2301
▁aut	-2302
▁kids	-2303
żę	-2304
▁dlatego	-2305
▁means	-2306
IE	-2307
▁ani	-2308
▁stron	-2309
▁wystar	-2310
źle	-2311
▁wszystkim	-2312
iful	-2313
▁tran	-2314
▁Tu	-2315
▁Myślisz	-2316
▁Wow	-2317
▁30	-2318
▁gave	-2319
▁pri	-2320
gad	-2321
win	-2322
▁15	-2323
▁true	-2324
▁shot	-2325
vie	-2326
▁Listen	-2327
▁Zrobi	-2328
▁eat	-2329
▁8	-2330
▁zapom	-2331
▁ce	-2332
▁przyjaciół	-2333
▁7	-2334
▁conf	-2335
▁Mom	-2336
ace	-2337
▁Moż	-2338
▁00	-2339
gra	-2340
order	-2341
aka	-2342
▁mus	-2343
▁tem	-2344
▁tygod	-2345
▁Gu	-2346
▁huh	-2347
wiad	-2348
▁uro	-2349
▁Ob	-2350
ross	-2351
▁mess	-2352
▁Wit	-2353
▁film	-2354
▁twa	-2355
▁minutes	-2356
▁pomys	-2357
▁Przest	-2358
ąt	-2359
▁dzisiaj	-2360
▁włas	-2361
▁young	-2362
▁Got	-2363
▁drzwi	-2364
▁speak	-2365
▁uważ	-2366
▁sign	-2367
cyj	-2368
▁knows	-2369
lack	-2370
▁wonder	-2371
AS	-2372
▁musimy	-2373
▁Wygląda	-2374
arów	-2375
mer	-2376
▁sound	-2377
ung	-2378
▁nami	-2379
▁jakieś	-2380
▁jakiś	-2381
łos	-2382
▁body	-2383
▁def	-2384
dził	-2385
▁Właśnie	-2386
cje	-2387
▁którego	-2388
▁lubi	-2389
▁Sc	-2390
▁został	-2391
▁Her	-2392
▁supposed	-2393
▁Mart	-2394
▁ak	-2395
▁ret	-2396
OW	-2397
OM	-2398
kami	-2399
▁porozmawiać	-2400
▁były	-2401
▁later	-2402
owej	-2403
▁Moja	-2404
▁zast	-2405
▁byłem	-2406
▁twojego	-2407
▁probably	-2408
▁Fran	-2409
oh	-2410
den	-2411
dzenie	-2412
▁Miss	-2413
do	-2414
czna	-2415
gram	-2416
oun	-2417
reet	-2418
▁ali	-2419
lin	-2420
czej	-2421
▁high	-2422
ention	-2423
▁Pe	-2424
▁New	-2425
wol	-2426
▁dziecko	-2427
▁żyje	-2428
▁roku	-2429
trz	-2430
▁law	-2431
▁ele	-2432
▁miast	-2433
▁everyone	-2434
bra	-2435
▁Niech	-2436
▁kaw	-2437
alne	-2438
iast	-2439
▁Tam	-2440
bezpie	-2441
▁Give	-2442
owę	-2443
isz	-2444
orn	-2445
▁wcześniej	-2446
▁wyp	-2447
▁rzecz	-2448
▁noc	-2449
▁stat	-2450
▁Qu	-2451
olog	-2452
hes	-2453
▁Jim	-2454
com	-2455
▁light	-2456
▁pas	-2457
▁dop	-2458
▁taking	-2459
▁wtedy	-2460
wier	-2461
niśmy	-2462
sie	-2463
▁power	-2464
▁med	-2465
ial	-2466
▁pię	-2467
▁mist	-2468
▁minute	-2469
ush	-2470
▁bed	-2471
aughter	-2472
owych	-2473
▁zdję	-2474
▁different	-2475
▁powodu	-2476
▁check	-2477
ain	-2478
cle	-2479
▁oni	-2480
mę	-2481
▁ca	-2482
band	-2483
▁Coś	-2484
▁Con	-2485
▁szybko	-2486
ścią	-2487
▁inside	-2488
kach	-2489
head	-2490
▁telefon	-2491
▁Myślałem	-2492
▁change	-2493
▁siost	-2494
pped	-2495
▁tyle	-2496
▁wygląda	-2497
zu	-2498
▁import	-2499
▁dep	-2500
ront	-2501
nicy	-2502
szego	-2503
▁crazy	-2504
▁woj	-2505
▁ojciec	-2506
not	-2507
liby	-2508
▁cut	-2509
▁Mc	-2510
ney	-2511
▁blood	-2512
▁water	-2513
ident	-2514
ury	-2515
▁book	-2516
▁asked	-2517
▁kap	-2518
▁eyes	-2519
ling	-2520
▁reg	-2521
ames	-2522
▁wiadomo	-2523
▁mogą	-2524
IT	-2525
▁fig	-2526
nek	-2527
?"	-2528
olo	-2529
▁Był	-2530
▁luck	-2531
arly	-2532
▁później	-2533
▁umie	-2534
liście	-2535
▁bezpie	-2536
▁Ste	-2537
czas	-2538
▁dobra	-2539
air	-2540
mo	-2541
▁ple	-2542
▁syst	-2543
▁least	-2544
▁Com	-2545
▁police	-2546
▁Dok	-2547
▁Gra	-2548
bar	-2549
▁making	-2550
▁looks	-2551
▁beautiful	-2552
▁Geor	-2553
▁chciał	-2554
▁cent	-2555
unt	-2556
▁hours	-2557
▁Nikt	-2558
▁końcu	-2559
▁Really	-2560
czeń	-2561
▁zostać	-2562
▁makes	-2563
▁ziem	-2564
▁cór	-2565
▁zabaw	-2566
▁sex	-2567
cyd	-2568
▁side	-2569
▁Dav	-2570
usband	-2571
▁times	-2572
▁pok	-2573
▁Mów	-2574
▁against	-2575
sel	-2576
▁sing	-2577
▁ain	-2578
▁pół	-2579
▁Mat	-2580
▁fire	-2581
orem	-2582
eth	-2583
▁interest	-2584
▁lub	-2585
rud	-2586
▁zł	-2587
▁ran	-2588
▁Chodźmy	-2589
oy	-2590
▁fact	-2591
▁Bill	-2592
ween	-2593
▁zmieni	-2594
▁four	-2595
ene	-2596
▁takiego	-2597
▁Bardzo	-2598
sol	-2599
raid	-2600
wić	-2601
▁przej	-2602
▁Widzisz	-2603
▁mieszk	-2604
▁mówić	-2605
▁five	-2606
ED	-2607
▁story	-2608
▁konie	-2609
▁kobiet	-2610
▁god	-2611
▁imię	-2612
▁kr	-2613
▁trou	-2614
▁ostatni	-2615
▁daughter	-2616
▁free	-2617
▁między	-2618
▁question	-2619
mniej	-2620
obody	-2621
▁Czekaj	-2622
▁prof	-2623
▁reali	-2624
iot	-2625
▁party	-2626
▁Albo	-2627
▁Mich	-2628
▁śmie	-2629
owana	-2630
wyk	-2631
alny	-2632
▁sent	-2633
▁dream	-2634
▁dow	-2635
▁którym	-2636
kar	-2637
▁His	-2638
▁sprzed	-2639
owania	-2640
▁exactly	-2641
▁Nothing	-2642
szła	-2643
▁comes	-2644
▁close	-2645
oną	-2646
▁sek	-2647
▁oper	-2648
ąż	-2649
▁important	-2650
▁WH	-2651
▁Per	-2652
zd	-2653
▁można	-2654
▁Twój	-2655
▁Jeszcze	-2656
▁nat	-2657
▁mili	-2658
▁razie	-2659
▁moich	-2660
nymi	-2661
▁tor	-2662
alo	-2663
▁Cl	-2664
▁gets	-2665
▁psy	-2666
▁comm	-2667
bli	-2668
outh	-2669
▁oko	-2670
▁interes	-2671
▁nadal	-2672
▁Ona	-2673
▁swoim	-2674
▁husband	-2675
ski	-2676
▁follow	-2677
oru	-2678
łącz	-2679
▁pien	-2680
▁lep	-2681
▁miała	-2682
óz	-2683
ards	-2684
▁answ	-2685
▁następ	-2686
szczę	-2687
▁zamk	-2688
▁tą	-2689
▁Rozumiem	-2690
▁och	-2691
ement	-2692
▁bud	-2693
ield	-2694
▁half	-2695
▁Huh	-2696
rosi	-2697
rzmi	-2698
▁znalaz	-2699
▁Whoa	-2700
▁afraid	-2701
▁its	-2702
ET	-2703
▁12	-2704
▁trust	-2705
▁poważ	-2706
aną	-2707
żej	-2708
▁pu	-2709
▁Hmm	-2710
▁aw	-2711
▁róż	-2712
▁Mrs	-2713
▁czegoś	-2714
▁dol	-2715
▁Przestań	-2716
▁pomysł	-2717
▁Prób	-2718
▁reason	-2719
▁able	-2720
OT	-2721
▁Somet	-2722
owała	-2723
▁Czas	-2724
biec	-2725
▁peł	-2726
▁es	-2727
▁pierwszy	-2728
▁pub	-2729
...?	-2730
działam	-2731
łyszałem	-2732
▁full	-2733
▁Dan	-2734
its	-2735
▁Skąd	-2736
▁IT	-2737
czają	-2738
▁truth	-2739
▁ut	-2740
▁czek	-2741
czyłem	-2742
ili	-2743
roż	-2744
▁gor	-2745
▁trouble	-2746
ścia	-2747
for	-2748
alnie	-2749
▁razy	-2750
▁syn	-2751
▁mis	-2752
▁bur	-2753
ought	-2754
nawi	-2755
▁wish	-2756
rzem	-2757
▁mine	-2758
▁każdym	-2759
▁Sure	-2760
ec	-2761
▁Zoba	-2762
▁wym	-2763
▁Będę	-2764
ship	-2765
▁Bob	-2766
▁sobą	-2767
▁game	-2768
ertain	-2769
▁Excuse	-2770
ymore	-2771
▁rad	-2772
iet	-2773
▁shoot	-2774
▁anymore	-2775
▁kl	-2776
liwo	-2777
▁daw	-2778
▁chodź	-2779
▁leg	-2780
▁Pew	-2781
oda	-2782
▁send	-2783
▁nasze	-2784
▁Pop	-2785
▁ste	-2786
▁innego	-2787
▁office	-2788
▁szef	-2789
▁cap	-2790
▁number	-2791
aku	-2792
rzel	-2793
▁osob	-2794
▁spokój	-2795
▁dy	-2796
▁człowiek	-2797
▁chwilę	-2798
owego	-2799
▁di	-2800
▁goes	-2801
▁between	-2802
iously	-2803
▁oczy	-2804
erg	-2805
▁waiting	-2806
▁lead	-2807
umiesz	-2808
uf	-2809
of	-2810
▁szczęśli	-2811
ałat	-2812
▁May	-2813
▁których	-2814
▁aż	-2815
vice	-2816
most	-2817
▁town	-2818
▁front	-2819
▁started	-2820
▁Gre	-2821
▁sca	-2822
▁powro	-2823
ael	-2824
▁tou	-2825
▁super	-2826
▁past	-2827
▁cy	-2828
▁lata	-2829
ited	-2830
▁Bro	-2831
▁telling	-2832
pis	-2833
leg	-2834
▁char	-2835
▁pokoju	-2836
▁okaz	-2837
ired	-2838
▁system	-2839
",	-2840
▁prote	-2841
▁Cap	-2842
▁dem	-2843
▁nazw	-2844
ujące	-2845
ejdź	-2846
▁jedno	-2847
▁ek	-2848
▁Jasne	-2849
▁din	-2850
▁Er	-2851
▁easy	-2852
▁norm	-2853
óry	-2854
▁died	-2855
▁nikt	-2856
▁dok	-2857
łę	-2858
▁team	-2859
▁Jes	-2860
▁kiedyś	-2861
▁obs	-2862
▁wam	-2863
▁ksią	-2864
ont	-2865
owym	-2866
▁sprawy	-2867
▁air	-2868
rought	-2869
▁behind	-2870
▁sweet	-2871
▁Zd	-2872
▁Was	-2873
lor	-2874
▁zaczy	-2875
▁married	-2876
▁Amer	-2877
▁wej	-2878
IC	-2879
▁której	-2880
▁zadzwoni	-2881
▁tried	-2882
▁Ser	-2883
łaściwie	-2884
▁mama	-2885
LE	-2886
▁zg	-2887
dzimy	-2888
▁zabić	-2889
▁rozumiem	-2890
sam	-2891
▁nar	-2892
▁trud	-2893
▁Fuck	-2894
upid	-2895
▁morder	-2896
ott	-2897
▁dia	-2898
▁couple	-2899
tery	-2900
▁pon	-2901
bierz	-2902
▁mówię	-2903
▁pewno	-2904
prz	-2905
▁mod	-2906
▁Zna	-2907
ped	-2908
▁though	-2909
▁Mor	-2910
owałeś	-2911
▁arm	-2912
▁Czemu	-2913
▁sły	-2914
ai	-2915
▁Powinien	-2916
zi	-2917
▁zroz	-2918
▁Wal	-2919
▁pła	-2920
▁rów	-2921
ium	-2922
▁wrac	-2923
szedłem	-2924
▁inc	-2925
▁Gr	-2926
cted	-2927
nios	-2928
▁cholery	-2929
wam	-2930
uro	-2931
▁forget	-2932
▁ku	-2933
▁odd	-2934
amiętasz	-2935
▁rodzi	-2936
▁children	-2937
▁pokaz	-2938
▁więk	-2939
light	-2940
▁bas	-2941
▁Sy	-2942
cych	-2943
siad	-2944
▁comple	-2945
▁Would	-2946
▁dopóki	-2947
▁somebody	-2948
żd	-2949
▁sil	-2950
right	-2951
ysk	-2952
▁gener	-2953
ość	-2954
dziłem	-2955
▁szans	-2956
▁pieniędzy	-2957
ajesz	-2958
▁życiu	-2959
▁dam	-2960
▁sub	-2961
▁fore	-2962
▁months	-2963
▁Si	-2964
▁sister	-2965
lity	-2966
▁secret	-2967
cię	-2968
▁atta	-2969
▁podej	-2970
▁Możemy	-2971
▁młod	-2972
▁bie	-2973
vin	-2974
anę	-2975
▁Ktoś	-2976
▁kurwa	-2977
▁brought	-2978
rzysz	-2979
▁pal	-2980
▁mały	-2981
▁zostanie	-2982
wart	-2983
▁gru	-2984
▁safe	-2985
▁szuk	-2986
▁wciąż	-2987
▁needs	-2988
dzieli	-2989
▁Ph	-2990
▁Op	-2991
▁mogła	-2992
▁cons	-2993
▁pamięt	-2994
▁wro	-2995
▁miejscu	-2996
▁martw	-2997
▁Byłem	-2998
▁colle	-2999
czymy	-3000
▁Zabi	-3001
▁Ost	-3002
▁związ	-3003
▁jutro	-3004
▁jedną	-3005
▁la	-3006
▁att	-3007
....	-3008
ount	-3009
▁vis	-3010
▁girls	-3011
▁mill	-3012
lain	-3013
▁Does	-3014
ester	-3015
czekaj	-3016
▁Spo	-3017
▁zaję	-3018
stawi	-3019
▁Our	-3020
enny	-3021
▁quite	-3022
ular	-3023
▁gdyby	-3024
VE	-3025
świad	-3026
ług	-3027
▁Nadal	-3028
ajem	-3029
▁build	-3030
▁wypad	-3031
ched	-3032
itch	-3033
▁fast	-3034
ug	-3035
▁George	-3036
▁dokład	-3037
óch	-3038
▁Ci	-3039
▁Posłuchaj	-3040
▁swojego	-3041
AY	-3042
▁pare	-3043
▁Pani	-3044
▁dest	-3045
nic	-3046
▁En	-3047
▁sprawę	-3048
nać	-3049
▁Jego	-3050
▁line	-3051
▁przeciwko	-3052
▁cont	-3053
▁Min	-3054
▁answer	-3055
ts	-3056
czka	-3057
▁powst	-3058
▁yours	-3059
▁pracę	-3060
nisz	-3061
▁Świe	-3062
▁miejsca	-3063
nął	-3064
▁świecie	-3065
czki	-3066
▁zło	-3067
rek	-3068
▁Michael	-3069
▁Hen	-3070
▁expect	-3071
▁jaką	-3072
aniem	-3073
▁znowu	-3074
▁int	-3075
raź	-3076
▁wear	-3077
▁sim	-3078
lcome	-3079
▁świet	-3080
▁hate	-3081
▁widziałem	-3082
▁Każ	-3083
▁Ł	-3084
rison	-3085
bacz	-3086
▁miałem	-3087
▁uciek	-3088
▁six	-3089
arth	-3090
▁alive	-3091
▁aren	-3092
▁swój	-3093
tyw	-3094
oraj	-3095
▁broń	-3096
ścić	-3097
▁Ke	-3098
▁wind	-3099
▁chyba	-3100
▁ist	-3101
omb	-3102
▁buy	-3103
ując	-3104
▁Joe	-3105
▁either	-3106
▁pain	-3107
▁ide	-3108
pr	-3109
▁nos	-3110
▁Zamk	-3111
atu	-3112
▁learn	-3113
▁These	-3114
ines	-3115
▁Żad	-3116
▁pier	-3117
nak	-3118
leży	-3119
▁hotel	-3120
▁Col	-3121
▁fav	-3122
▁dog	-3123
▁powiedz	-3124
▁whatever	-3125
sist	-3126
▁odej	-3127
▁prowa	-3128
▁Trzymaj	-3129
▁idź	-3130
▁kłam	-3131
ałe	-3132
▁skrzy	-3133
odob	-3134
▁jakby	-3135
róż	-3136
▁trzym	-3137
stw	-3138
ników	-3139
▁Tro	-3140
▁Mad	-3141
▁napis	-3142
▁przesz	-3143
cząt	-3144
ające	-3145
isko	-3146
▁wid	-3147
▁grand	-3148
amie	-3149
▁chang	-3150
▁gów	-3151
▁dist	-3152
▁women	-3153
▁byłeś	-3154
▁kar	-3155
szł	-3156
ono	-3157
▁Mike	-3158
▁Charlie	-3159
▁David	-3160
▁dot	-3161
the	-3162
kasz	-3163
▁less	-3164
dle	-3165
▁sama	-3166
▁Jakie	-3167
▁clean	-3168
▁mas	-3169
▁outside	-3170
staw	-3171
▁stupid	-3172
▁Bra	-3173
▁news	-3174
▁jo	-3175
▁AND	-3176
ics	-3177
▁bank	-3178
▁czar	-3179
▁szcz	-3180
▁order	-3181
▁powinna	-3182
▁samochód	-3183
icer	-3184
aps	-3185
▁pozw	-3186
▁bron	-3187
ote	-3188
▁kraj	-3189
gą	-3190
ita	-3191
ża	-3192
rót	-3193
▁krzy	-3194
▁ła	-3195
anger	-3196
▁sprób	-3197
▁clear	-3198
▁La	-3199
▁niep	-3200
▁hor	-3201
owali	-3202
▁Even	-3203
▁fall	-3204
▁inst	-3205
▁Twoja	-3206
ib	-3207
▁drugie	-3208
▁Chodzi	-3209
▁Wo	-3210
▁country	-3211
peł	-3212
▁ws	-3213
▁takim	-3214
▁perfect	-3215
▁Dlatego	-3216
▁report	-3217
▁wasz	-3218
chu	-3219
ately	-3220
▁After	-3221
▁program	-3222
erry	-3223
▁powiesz	-3224
ants	-3225
▁ojca	-3226
▁Weź	-3227
▁Which	-3228
▁mad	-3229
jaś	-3230
▁food	-3231
▁skończy	-3232
▁Racja	-3233
▁everybody	-3234
▁almost	-3235
▁wspani	-3236
▁doctor	-3237
▁zaczą	-3238
▁całą	-3239
▁uni	-3240
cha	-3241
▁zag	-3242
ST	-3243
EA	-3244
▁OF	-3245
▁sort	-3246
ject	-3247
gani	-3248
enty	-3249
umi	-3250
▁rid	-3251
▁numer	-3252
▁record	-3253
▁rano	-3254
▁ukry	-3255
▁psych	-3256
isa	-3257
owane	-3258
rez	-3259
ones	-3260
▁Mary	-3261
artment	-3262
▁uder	-3263
▁wspól	-3264
▁nag	-3265
licz	-3266
▁human	-3267
wną	-3268
▁Czego	-3269
▁brat	-3270
▁słu	-3271
▁myślałem	-3272
▁save	-3273
ense	-3274
▁deli	-3275
▁ile	-3276
▁każdy	-3277
▁Alex	-3278
▁50	-3279
▁hang	-3280
ls	-3281
najmniej	-3282
▁Ind	-3283
▁along	-3284
▁widzę	-3285
▁dzięki	-3286
▁poja	-3287
UT	-3288
▁Dzi	-3289
▁damn	-3290
▁trans	-3291
▁Cie	-3292
▁cur	-3293
chm	-3294
▁land	-3295
▁koniec	-3296
▁dać	-3297
▁pun	-3298
▁Mamo	-3299
▁Tra	-3300
▁wed	-3301
▁Ot	-3302
▁prawie	-3303
▁sprawa	-3304
▁train	-3305
▁Bez	-3306
▁exper	-3307
▁certain	-3308
▁IN	-3309
nikiem	-3310
▁swojej	-3311
▁innych	-3312
▁hey	-3313
▁dwóch	-3314
nienie	-3315
▁Nasz	-3316
▁wart	-3317
▁tech	-3318
▁add	-3319
▁powrotem	-3320
▁dział	-3321
▁Lep	-3322
ged	-3323
▁myśle	-3324
▁wp	-3325
▁mag	-3326
▁chciałem	-3327
ches	-3328
ffe	-3329
▁sprawi	-3330
ych	-3331
torze	-3332
wali	-3333
aving	-3334
ets	-3335
▁Dzień	-3336
▁powiedziała	-3337
,"	-3338
▁Ile	-3339
▁zrobiłeś	-3340
▁sick	-3341
ici	-3342
▁art	-3343
▁murder	-3344
kom	-3345
▁uwa	-3346
▁living	-3347
▁musiał	-3348
omin	-3349
▁miesią	-3350
▁dou	-3351
▁feeling	-3352
▁da	-3353
eniem	-3354
▁Hold	-3355
▁boys	-3356
pierw	-3357
med	-3358
▁ład	-3359
▁black	-3360
▁byli	-3361
sięcy	-3362
▁running	-3363
▁dum	-3364
▁become	-3365
▁WE	-3366
▁return	-3367
▁śmierci	-3368
▁Pomy	-3369
▁lose	-3370
▁control	-3371
cił	-3372
▁Sm	-3373
▁lives	-3374
▁seems	-3375
▁Jaki	-3376
▁cool	-3377
▁cel	-3378
▁Bi	-3379
osen	-3380
▁czu	-3381
isk	-3382
ned	-3383
uter	-3384
rence	-3385
▁Im	-3386
▁opu	-3387
arch	-3388
▁kłop	-3389
▁rusz	-3390
▁wrócić	-3391
▁ofi	-3392
▁shall	-3393
▁Zn	-3394
▁lunch	-3395
▁city	-3396
uty	-3397
eniu	-3398
▁mem	-3399
▁dwie	-3400
▁James	-3401
nością	-3402
▁touch	-3403
▁parents	-3404
gar	-3405
▁sch	-3406
▁dup	-3407
▁taken	-3408
otyk	-3409
▁top	-3410
▁powiem	-3411
▁jednego	-3412
▁py	-3413
▁sądzę	-3414
▁odpowiedzi	-3415
▁przer	-3416
ern	-3417
▁źle	-3418
ee	-3419
czony	-3420
▁Będzie	-3421
▁wzią	-3422
wają	-3423
▁Ray	-3424
czni	-3425
lient	-3426
▁vict	-3427
óle	-3428
urry	-3429
bę	-3430
rzyst	-3431
▁Halo	-3432
▁powinniśmy	-3433
ham	-3434
▁small	-3435
▁funny	-3436
▁hair	-3437
▁naszej	-3438
▁dra	-3439
ena	-3440
▁ins	-3441
kogo	-3442
▁hos	-3443
▁swoich	-3444
won	-3445
▁gdzieś	-3446
kiego	-3447
▁X	-3448
▁HE	-3449
▁łat	-3450
▁dziewczyna	-3451
AC	-3452
cin	-3453
jęcia	-3454
selves	-3455
▁Pozw	-3456
▁głup	-3457
▁complete	-3458
▁lik	-3459
nienia	-3460
▁dokładnie	-3461
▁osz	-3462
▁więzie	-3463
▁himself	-3464
ats	-3465
elt	-3466
onym	-3467
libyśmy	-3468
room	-3469
▁kier	-3470
▁fut	-3471
▁słuch	-3472
▁kol	-3473
▁nimi	-3474
ację	-3475
▁promise	-3476
▁Mon	-3477
▁bym	-3478
▁Rich	-3479
irth	-3480
▁Ag	-3481
ically	-3482
szyć	-3483
▁fl	-3484
▁klu	-3485
▁lady	-3486
ient	-3487
czająco	-3488
▁ball	-3489
▁dinner	-3490
▁Ali	-3491
▁Ow	-3492
▁ozna	-3493
iting	-3494
▁Pie	-3495
ief	-3496
działaś	-3497
▁matka	-3498
kojnie	-3499
▁ahead	-3500
▁THAT	-3501
▁zrobię	-3502
▁quick	-3503
▁księ	-3504
▁Powiedział	-3505
ering	-3506
▁Lord	-3507
▁idiot	-3508
▁zde	-3509
▁daj	-3510
▁chciała	-3511
łud	-3512
wnątrz	-3513
hmm	-3514
▁łóż	-3515
▁tow	-3516
▁czuję	-3517
śmie	-3518
GH	-3519
▁bitch	-3520
▁Great	-3521
▁Ra	-3522
ball	-3523
▁posz	-3524
▁poza	-3525
ił	-3526
▁rozm	-3527
▁ship	-3528
▁przyp	-3529
▁strong	-3530
vil	-3531
▁inny	-3532
ownie	-3533
▁cannot	-3534
▁flo	-3535
▁Dale	-3536
▁sell	-3537
▁każdego	-3538
▁Dost	-3539
▁Ludzie	-3540
▁Uważ	-3541
ID	-3542
rawdop	-3543
sive	-3544
słuch	-3545
▁Lepiej	-3546
▁dear	-3547
biera	-3548
▁Paul	-3549
▁wina	-3550
▁książ	-3551
▁Pewnie	-3552
▁Peter	-3553
ktor	-3554
▁tot	-3555
▁Ry	-3556
▁leka	-3557
idence	-3558
▁asking	-3559
▁przykro	-3560
▁Mógł	-3561
wasz	-3562
▁sty	-3563
▁class	-3564
vis	-3565
▁gent	-3566
ologi	-3567
▁Keep	-3568
▁Max	-3569
▁Nick	-3570
lue	-3571
▁szpital	-3572
▁BE	-3573
czyt	-3574
rzuc	-3575
ished	-3576
▁moc	-3577
▁mid	-3578
▁twoich	-3579
chodzą	-3580
▁Put	-3581
▁Moje	-3582
▁sztu	-3583
▁została	-3584
▁acc	-3585
▁imag	-3586
▁żart	-3587
ino	-3588
▁działa	-3589
ted	-3590
rick	-3591
▁przem	-3592
AM	-3593
▁100	-3594
▁Kocham	-3595
▁cud	-3596
▁zapyt	-3597
▁ON	-3598
▁Zat	-3599
▁Su	-3600
▁tre	-3601
▁ogóle	-3602
▁czasie	-3603
▁mark	-3604
▁oc	-3605
war	-3606
rów	-3607
ison	-3608
erze	-3609
▁possible	-3610
▁shouldn	-3611
▁Ży	-3612
kowi	-3613
▁dire	-3614
▁naszego	-3615
▁niebezpie	-3616
▁naszych	-3617
▁Tr	-3618
▁mot	-3619
czną	-3620
▁Cla	-3621
uring	-3622
anych	-3623
▁Miło	-3624
▁leaving	-3625
▁Zamknij	-3626
▁Pr	-3627
▁jednym	-3628
▁Sim	-3629
szej	-3630
▁drive	-3631
▁zabój	-3632
▁widzieć	-3633
ERE	-3634
▁kart	-3635
▁Kochanie	-3636
▁obchodzi	-3637
▁począt	-3638
▁dress	-3639
owod	-3640
▁powiedziałeś	-3641
▁Henry	-3642
▁Star	-3643
▁Zga	-3644
cious	-3645
▁wiemy	-3646
więk	-3647
▁potrzebuję	-3648
ństwo	-3649
▁sal	-3650
▁sus	-3651
▁anyway	-3652
▁pull	-3653
▁18	-3654
▁Nazy	-3655
irst	-3656
▁los	-3657
ród	-3658
▁serious	-3659
▁spę	-3660
ogra	-3661
▁Pu	-3662
▁wit	-3663
▁ind	-3664
▁special	-3665
▁hospital	-3666
▁stran	-3667
▁million	-3668
szysz	-3669
ept	-3670
▁bat	-3671
▁zrobiłem	-3672
▁dziewczyn	-3673
▁happens	-3674
▁choler	-3675
▁Tutaj	-3676
▁Wybacz	-3677
chać	-3678
NA	-3679
bimy	-3680
haps	-3681
▁Przez	-3682
▁Could	-3683
▁sense	-3684
▁ponieważ	-3685
rawdopodob	-3686
▁Bet	-3687
ik	-3688
▁meeting	-3689
anawi	-3690
▁Pozwól	-3691
▁kobiety	-3692
ajcie	-3693
cking	-3694
▁wczoraj	-3695
▁stan	-3696
▁twarz	-3697
uma	-3698
▁Lou	-3699
▁danger	-3700
▁lab	-3701
▁DO	-3702
▁pozost	-3703
▁chwili	-3704
▁ści	-3705
▁pozwoli	-3706
oki	-3707
▁begin	-3708
▁Ponieważ	-3709
▁Zrób	-3710
▁kola	-3711
▁terri	-3712
▁powiedziałem	-3713
ican	-3714
▁załat	-3715
▁świetnie	-3716
▁step	-3717
▁company	-3718
▁kawał	-3719
▁El	-3720
▁strasz	-3721
vern	-3722
▁protect	-3723
cyz	-3724
▁lie	-3725
▁Nice	-3726
▁park	-3727
▁blis	-3728
▁znik	-3729
▁Par	-3730
▁street	-3731
▁kont	-3732
▁birth	-3733
▁dor	-3734
lia	-3735
▁lin	-3736
▁wró	-3737
▁potra	-3738
▁Everything	-3739
ience	-3740
▁agent	-3741
▁naszym	-3742
▁Chwi	-3743
▁Ros	-3744
▁kocham	-3745
▁Właściwie	-3746
▁Jesus	-3747
▁pewnie	-3748
odów	-3749
▁Mmm	-3750
▁pł	-3751
▁sens	-3752
▁dostać	-3753
bye	-3754
▁prosi	-3755
▁shut	-3756
▁Very	-3757
▁thanks	-3758
▁pytanie	-3759
ortun	-3760
▁kobieta	-3761
▁Mówię	-3762
▁pomocy	-3763
kań	-3764
▁żona	-3765
▁throw	-3766
licy	-3767
▁pur	-3768
▁mówią	-3769
▁Świetnie	-3770
▁Praw	-3771
▁foot	-3772
niem	-3773
▁Stan	-3774
▁anybody	-3775
▁cze	-3776
bs	-3777
▁Potrzebuję	-3778
▁entire	-3779
▁Chciałbym	-3780
▁urat	-3781
▁stwo	-3782
▁Bye	-3783
▁San	-3784
star	-3785
▁Ooh	-3786
▁dziękuję	-3787
▁invest	-3788
▁Amery	-3789
▁choice	-3790
▁HA	-3791
▁Poli	-3792
▁weeks	-3793
▁scared	-3794
▁treat	-3795
nce	-3796
ral	-3797
▁MAN	-3798
bardziej	-3799
▁oczywiście	-3800
cident	-3801
▁cry	-3802
▁Sa	-3803
jesz	-3804
▁ref	-3805
bawi	-3806
▁zało	-3807
▁zj	-3808
ama	-3809
któ	-3810
els	-3811
▁Rem	-3812
▁inne	-3813
▁wiedział	-3814
▁sou	-3815
▁zła	-3816
▁Powiedziałem	-3817
bu	-3818
rzej	-3819
▁żadnych	-3820
port	-3821
▁mil	-3822
czona	-3823
gam	-3824
ution	-3825
▁zamierz	-3826
eł	-3827
▁opie	-3828
▁tata	-3829
oń	-3830
ąz	-3831
▁kiedykolwiek	-3832
żu	-3833
▁catch	-3834
chodzę	-3835
▁mogłem	-3836
▁From	-3837
▁Captain	-3838
▁gro	-3839
BI	-3840
unku	-3841
▁dziewczyny	-3842
▁wielu	-3843
ache	-3844
que	-3845
ised	-3846
cemy	-3847
▁wyt	-3848
▁wst	-3849
▁known	-3850
▁nak	-3851
samow	-3852
▁nied	-3853
▁wyg	-3854
▁Mag	-3855
▁table	-3856
cznej	-3857
▁ST	-3858
app	-3859
▁szczęście	-3860
die	-3861
▁glad	-3862
▁press	-3863
▁partner	-3864
▁prawo	-3865
ju	-3866
va	-3867
me	-3868
wiaz	-3869
▁Mog	-3870
▁serce	-3871
▁Say	-3872
▁prez	-3873
cznego	-3874
▁vo	-3875
ese	-3876
▁słod	-3877
▁eye	-3878
▁Something	-3879
ural	-3880
▁gór	-3881
▁Sara	-3882
▁felt	-3883
▁człowieka	-3884
orth	-3885
▁prison	-3886
▁przygot	-3887
urity	-3888
dent	-3889
ganiz	-3890
▁Tato	-3891
▁współ	-3892
▁Pl	-3893
▁całe	-3894
▁Kt	-3895
▁worked	-3896
▁explain	-3897
▁kiss	-3898
▁pog	-3899
▁śmierć	-3900
lla	-3901
▁Pój	-3902
▁Fe	-3903
arł	-3904
▁szal	-3905
▁zapła	-3906
▁dolarów	-3907
▁mąż	-3908
▁phot	-3909
ros	-3910
▁tył	-3911
▁ust	-3912
▁kw	-3913
▁znam	-3914
▁jedna	-3915
▁favor	-3916
ald	-3917
▁red	-3918
akty	-3919
▁dość	-3920
▁Spraw	-3921
ska	-3922
▁Pi	-3923
reed	-3924
▁rel	-3925
▁głos	-3926
acje	-3927
▁Przykro	-3928
cznych	-3929
cing	-3930
dzam	-3931
lish	-3932
▁podczas	-3933
▁przyszło	-3934
▁11	-3935
roy	-3936
▁idzie	-3937
▁pora	-3938
ides	-3939
▁Act	-3940
żdż	-3941
▁form	-3942
źni	-3943
▁lubię	-3944
▁pil	-3945
▁bomb	-3946
czycie	-3947
anego	-3948
ters	-3949
▁sytu	-3950
▁sold	-3951
▁Never	-3952
▁chłopak	-3953
kin	-3954
nos	-3955
▁dark	-3956
▁kan	-3957
▁złap	-3958
▁Only	-3959
▁przypad	-3960
▁Yo	-3961
▁kapit	-3962
dzaj	-3963
akes	-3964
▁straight	-3965
▁cold	-3966
▁spend	-3967
▁figure	-3968
▁podob	-3969
▁victim	-3970
▁Sup	-3971
▁wystarczająco	-3972
adę	-3973
łych	-3974
▁kop	-3975
czucie	-3976
bers	-3977
▁lau	-3978
▁godziny	-3979
▁uwierzyć	-3980
▁Prac	-3981
AL	-3982
anym	-3983
▁krwi	-3984
▁sprawie	-3985
▁playing	-3986
▁trzeba	-3987
▁ME	-3988
▁sła	-3989
▁Wiel	-3990
▁allow	-3991
▁nikogo	-3992
▁śle	-3993
▁words	-3994
▁maj	-3995
▁diab	-3996
▁wyjaś	-3997
aster	-3998
▁..	-3999
▁spot	-4000
▁longer	-4001
▁Di	-4002
▁fix	-4003
rzesz	-4004
▁spoj	-4005
cket	-4006
bility	-4007
▁poznać	-4008
▁zobaczenia	-4009
▁byłoby	-4010
▁drodze	-4011
omni	-4012
The	-4013
▁poś	-4014
▁Zaraz	-4015
▁produ	-4016
▁zgo	-4017
▁pięć	-4018
▁Gdyby	-4019
aste	-4020
▁pry	-4021
▁worth	-4022
▁zatrzym	-4023
▁Wsp	-4024
▁prawdziw	-4025
inal	-4026
▁środku	-4027
▁zwie	-4028
▁rozp	-4029
▁beat	-4030
▁zaczę	-4031
▁Ze	-4032
▁pań	-4033
▁future	-4034
▁Por	-4035
ined	-4036
▁tar	-4037
▁okrop	-4038
lim	-4039
▁oh	-4040
▁świad	-4041
▁wysł	-4042
▁słowa	-4043
▁Zostaw	-4044
osh	-4045
▁chcą	-4046
▁mniej	-4047
▁równie	-4048
cznym	-4049
ode	-4050
▁pomoc	-4051
net	-4052
▁opp	-4053
▁First	-4054
▁głów	-4055
rey	-4056
▁wło	-4057
▁absol	-4058
▁brzmi	-4059
▁meant	-4060
▁ciało	-4061
▁najbardziej	-4062
ffic	-4063
▁weap	-4064
▁całkiem	-4065
chy	-4066
lbi	-4067
alu	-4068
▁rodziny	-4069
▁Help	-4070
▁date	-4071
▁ważne	-4072
IM	-4073
vo	-4074
▁bel	-4075
ils	-4076
▁wys	-4077
▁zami	-4078
por	-4079
▁GO	-4080
▁tat	-4081
▁looked	-4082
lemen	-4083
lew	-4084
ria	-4085
▁wiadomość	-4086
ills	-4087
▁umy	-4088
leczkę	-4089
noś	-4090
▁byś	-4091
▁box	-4092
▁Jeden	-4093
▁właści	-4094
▁inf	-4095
▁normal	-4096
▁głowy	-4097
▁fly	-4098
▁zgin	-4099
▁miłość	-4100
adies	-4101
ider	-4102
czaj	-4103
▁gar	-4104
▁respon	-4105
▁Prawda	-4106
▁pojawi	-4107
niesz	-4108
▁white	-4109
▁widzisz	-4110
▁Shut	-4111
▁boss	-4112
▁turned	-4113
▁zrobisz	-4114
ula	-4115
▁SH	-4116
inger	-4117
▁honey	-4118
▁sta	-4119
▁Żeby	-4120
ative	-4121
▁mówiłem	-4122
▁somewhere	-4123
cami	-4124
▁till	-4125
▁zewnątrz	-4126
ye	-4127
▁Det	-4128
▁Maj	-4129
zyk	-4130
każ	-4131
▁loc	-4132
read	-4133
chmiast	-4134
▁zdecyd	-4135
łoń	-4136
rani	-4137
atychmiast	-4138
▁Dop	-4139
▁calling	-4140
▁dod	-4141
▁Lea	-4142
puszcz	-4143
waży	-4144
▁weren	-4145
▁short	-4146
▁piece	-4147
▁ve	-4148
▁weird	-4149
▁wydaje	-4150
▁miasta	-4151
▁ban	-4152
▁creat	-4153
▁tato	-4154
▁zabrać	-4155
▁pojęcia	-4156
▁mamo	-4157
▁szkoły	-4158
łóż	-4159
▁Ger	-4160
▁ręce	-4161
bor	-4162
▁hun	-4163
▁strony	-4164
ause	-4165
▁King	-4166
KE	-4167
▁naszą	-4168
ajmy	-4169
▁questions	-4170
▁rather	-4171
▁ner	-4172
órz	-4173
▁dostanie	-4174
▁gaz	-4175
▁Rus	-4176
▁żyć	-4177
▁jaka	-4178
▁road	-4179
▁rozmawiać	-4180
otę	-4181
czekać	-4182
soko	-4183
▁history	-4184
▁Call	-4185
korzyst	-4186
▁dzwoni	-4187
▁wyją	-4188
▁czujesz	-4189
SE	-4190
yer	-4191
▁decyz	-4192
orę	-4193
▁Park	-4194
old	-4195
ased	-4196
▁drogi	-4197
fa	-4198
▁40	-4199
▁Trochę	-4200
▁takes	-4201
▁needed	-4202
▁IS	-4203
ffee	-4204
lad	-4205
kiej	-4206
▁200	-4207
ounds	-4208
▁breat	-4209
▁pły	-4210
▁potrzebuje	-4211
gni	-4212
▁ed	-4213
▁podoba	-4214
▁Fine	-4215
▁forgot	-4216
▁blow	-4217
rum	-4218
▁Chciałem	-4219
zydent	-4220
łon	-4221
▁komp	-4222
▁gorą	-4223
▁finally	-4224
▁odw	-4225
▁ucz	-4226
vered	-4227
wonię	-4228
▁Czuję	-4229
▁others	-4230
▁cell	-4231
onego	-4232
pping	-4233
CH	-4234
▁robię	-4235
▁Jimmy	-4236
▁oznacza	-4237
giem	-4238
▁bądź	-4239
▁nienawi	-4240
▁powinienem	-4241
▁kosz	-4242
▁Myśl	-4243
▁świę	-4244
▁zaraz	-4245
▁weekend	-4246
hose	-4247
▁Mie	-4248
cale	-4249
▁cier	-4250
liwości	-4251
▁komu	-4252
oking	-4253
▁Cię	-4254
▁loved	-4255
▁weź	-4256
▁arrest	-4257
▁Zadz	-4258
mij	-4259
▁Damn	-4260
▁decid	-4261
▁seks	-4262
▁seeing	-4263
▁Zaj	-4264
▁wpad	-4265
▁szcze	-4266
ero	-4267
▁kry	-4268
▁Dobry	-4269
▁przet	-4270
ully	-4271
lej	-4272
raca	-4273
wien	-4274
▁nobody	-4275
▁powinnaś	-4276
▁obu	-4277
idge	-4278
▁końca	-4279
▁emp	-4280
▁People	-4281
▁bag	-4282
▁song	-4283
▁przep	-4284
ror	-4285
▁zar	-4286
▁Harry	-4287
acj	-4288
▁niesamow	-4289
owiad	-4290
▁muzy	-4291
▁syna	-4292
LD	-4293
▁Wrac	-4294
▁uk	-4295
▁lek	-4296
▁eksp	-4297
▁reco	-4298
▁Bóg	-4299
icture	-4300
ray	-4301
▁rand	-4302
▁Chwileczkę	-4303
▁kimś	-4304
▁wiedziałem	-4305
▁zwyk	-4306
skiej	-4307
▁odz	-4308
ective	-4309
wat	-4310
▁Twoje	-4311
▁Kur	-4312
▁rom	-4313
▁krew	-4314
ession	-4315
▁człowiekiem	-4316
▁blisko	-4317
▁jakiego	-4318
brać	-4319
▁rat	-4320
▁kick	-4321
col	-4322
▁fan	-4323
zed	-4324
anda	-4325
ander	-4326
wiat	-4327
udy	-4328
rzuci	-4329
▁Dam	-4330
ring	-4331
▁Wol	-4332
▁given	-4333
▁byłam	-4334
▁Father	-4335
▁mężczyz	-4336
▁exc	-4337
▁sun	-4338
▁Pamiętasz	-4339
▁mówiąc	-4340
▁Miałem	-4341
iona	-4342
▁część	-4343
pl	-4344
fic	-4345
nim	-4346
asure	-4347
▁Shit	-4348
▁nasza	-4349
▁szale	-4350
ational	-4351
ilt	-4352
owaliśmy	-4353
▁sym	-4354
ency	-4355
▁Stay	-4356
▁grow	-4357
rzenia	-4358
alent	-4359
▁spod	-4360
▁stick	-4361
uki	-4362
▁fault	-4363
spo	-4364
▁dance	-4365
▁missing	-4366
ape	-4367
▁cam	-4368
▁Tony	-4369
▁pewien	-4370
▁squ	-4371
▁wymy	-4372
dziła	-4373
tor	-4374
ciej	-4375
ości	-4376
▁Mark	-4377
▁otwo	-4378
▁Those	-4379
yd	-4380
▁ludz	-4381
▁ruch	-4382
nieść	-4383
▁write	-4384
▁hop	-4385
▁ina	-4386
▁Kap	-4387
▁Jane	-4388
▁giving	-4389
ważne	-4390
▁zeszł	-4391
▁happening	-4392
irs	-4393
▁moving	-4394
inite	-4395
kowicie	-4396
bed	-4397
▁zdoby	-4398
▁niczego	-4399
stead	-4400
rok	-4401
▁feet	-4402
joy	-4403
alni	-4404
▁York	-4405
▁changed	-4406
▁czymś	-4407
imo	-4408
woń	-4409
▁Sprób	-4410
▁wa	-4411
▁pen	-4412
alna	-4413
▁wieczorem	-4414
▁wyjąt	-4415
azing	-4416
▁robota	-4417
gor	-4418
▁Cal	-4419
▁nowy	-4420
▁stać	-4421
con	-4422
▁clos	-4423
▁areszt	-4424
fie	-4425
ries	-4426
▁picture	-4427
▁las	-4428
enerw	-4429
▁Pomo	-4430
▁głowę	-4431
▁deep	-4432
▁FBI	-4433
ift	-4434
▁skar	-4435
esterday	-4436
▁Zast	-4437
▁strzel	-4438
▁25	-4439
▁Sta	-4440
▁faj	-4441
▁Ostat	-4442
▁jud	-4443
▁móz	-4444
▁zmi	-4445
▁clot	-4446
▁stronie	-4447
▁Potem	-4448
iam	-4449
▁ones	-4450
ament	-4451
▁mouth	-4452
▁zajm	-4453
▁Super	-4454
yle	-4455
ranoc	-4456
▁inaczej	-4457
▁Red	-4458
▁Pamięt	-4459
▁respect	-4460
▁fr	-4461
▁poważnie	-4462
onych	-4463
▁Danny	-4464
▁daleko	-4465
▁idziesz	-4466
▁żon	-4467
▁Wtedy	-4468
utely	-4469
kąd	-4470
wanie	-4471
▁Była	-4472
rawdopodobnie	-4473
stwie	-4474
▁drug	-4475
▁Obiec	-4476
▁Carl	-4477
▁cover	-4478
▁ground	-4479
arter	-4480
▁Big	-4481
ciaż	-4482
▁Poz	-4483
▁Każdy	-4484
▁nazywa	-4485
▁Ang	-4486
Cause	-4487
▁evidence	-4488
▁information	-4489
▁wyk	-4490
▁żoł	-4491
GHT	-4492
▁building	-4493
iat	-4494
▁Zgadza	-4495
▁er	-4496
▁milion	-4497
ges	-4498
eace	-4499
rzył	-4500
▁chron	-4501
▁zes	-4502
▁works	-4503
▁Danie	-4504
▁jakim	-4505
▁zostało	-4506
▁zrobimy	-4507
▁fant	-4508
czyn	-4509
▁Szyb	-4510
▁Uwie	-4511
wood	-4512
olved	-4513
ąpi	-4514
▁music	-4515
IA	-4516
▁govern	-4517
▁Isn	-4518
▁destroy	-4519
łó	-4520
▁camp	-4521
▁stri	-4522
itor	-4523
▁honest	-4524
!"	-4525
niku	-4526
▁Actually	-4527
▁Os	-4528
▁gwiaz	-4529
▁smell	-4530
▁Znalaz	-4531
dyn	-4532
▁zim	-4533
vi	-4534
moż	-4535
▁prawdę	-4536
▁Poza	-4537
▁early	-4538
reen	-4539
▁tymi	-4540
hen	-4541
▁Bu	-4542
oma	-4543
▁duch	-4544
bit	-4545
▁voice	-4546
▁Cor	-4547
▁adv	-4548
▁wyda	-4549
▁Em	-4550
▁wedding	-4551
pełni	-4552
▁Mówiłem	-4553
▁wieczór	-4554
▁tur	-4555
▁świata	-4556
▁odejść	-4557
▁przysz	-4558
▁=	-4559
▁mąd	-4560
▁Daw	-4561
▁wall	-4562
▁pracować	-4563
▁Da	-4564
encie	-4565
niejsze	-4566
▁przekon	-4567
skiego	-4568
dzień	-4569
▁dół	-4570
▁możliwe	-4571
▁kept	-4572
owałam	-4573
rzenie	-4574
▁wyciąg	-4575
▁Nast	-4576
▁cztery	-4577
▁Spokojnie	-4578
ole	-4579
▁Słyszałem	-4580
▁Będziesz	-4581
▁obie	-4582
wyczaj	-4583
▁specj	-4584
▁14	-4585
cher	-4586
cient	-4587
▁Fred	-4588
▁dziwne	-4589
▁spad	-4590
▁doll	-4591
▁jesteście	-4592
▁innym	-4593
▁worse	-4594
▁miesięcy	-4595
▁Nobody	-4596
▁near	-4597
▁zrozumie	-4598
ciem	-4599
▁Ant	-4600
▁samol	-4601
▁Znaj	-4602
▁zain	-4603
rzał	-4604
szość	-4605
▁situ	-4606
▁lucky	-4607
▁zau	-4608
▁piosen	-4609
▁ogląd	-4610
▁niech	-4611
mas	-4612
▁rece	-4613
nio	-4614
▁gang	-4615
ands	-4616
▁sometimes	-4617
▁Dalej	-4618
woł	-4619
▁Pre	-4620
▁oskar	-4621
▁Spe	-4622
▁Stra	-4623
▁mieli	-4624
▁wspólnego	-4625
▁worried	-4626
▁hid	-4627
▁arri	-4628
▁Gener	-4629
▁Pierw	-4630
▁cir	-4631
dol	-4632
▁attack	-4633
▁pozn	-4634
▁anim	-4635
kop	-4636
alt	-4637
▁Pres	-4638
▁wiedzą	-4639
uka	-4640
▁hero	-4641
set	-4642
cisz	-4643
▁Wyd	-4644
▁zabił	-4645
▁Make	-4646
oku	-4647
▁mistake	-4648
▁contin	-4649
omp	-4650
▁decided	-4651
ured	-4652
▁Mama	-4653
▁Post	-4654
▁wyjść	-4655
lisz	-4656
▁stare	-4657
▁przyjaciel	-4658
ti	-4659
▁szczeg	-4660
▁przepraszam	-4661
used	-4662
▁rodzaj	-4663
▁court	-4664
▁chcie	-4665
▁rób	-4666
▁zabra	-4667
▁rozumiesz	-4668
niki	-4669
▁deser	-4670
▁coffee	-4671
▁relation	-4672
▁Someone	-4673
▁Cle	-4674
▁szk	-4675
▁Jezu	-4676
▁ow	-4677
▁Fin	-4678
▁ride	-4679
▁Widzę	-4680
▁takich	-4681
▁serca	-4682
▁cat	-4683
▁fell	-4684
kund	-4685
▁poor	-4686
▁samochodu	-4687
▁myśleć	-4688
▁present	-4689
▁Kat	-4690
▁insp	-4691
▁druży	-4692
▁Fo	-4693
▁Du	-4694
▁uwagę	-4695
▁War	-4696
▁div	-4697
▁Oni	-4698
▁requ	-4699
▁thinks	-4700
cimy	-4701
▁Oj	-4702
rania	-4703
ages	-4704
▁wod	-4705
cał	-4706
▁tamt	-4707
aję	-4708
▁mieście	-4709
▁low	-4710
▁cross	-4711
▁16	-4712
▁sum	-4713
eder	-4714
▁Wil	-4715
▁sounds	-4716
▁watching	-4717
reci	-4718
initely	-4719
▁port	-4720
wiz	-4721
▁Rick	-4722
▁shop	-4723
▁Wszystkie	-4724
▁sad	-4725
▁wierzę	-4726
▁burn	-4727
▁accident	-4728
ez	-4729
tact	-4730
krót	-4731
▁Też	-4732
▁ring	-4733
▁obo	-4734
▁pokój	-4735
▁zabij	-4736
ered	-4737
▁imie	-4738
dzt	-4739
▁Aah	-4740
▁małże	-4741
▁przyw	-4742
▁17	-4743
▁ślub	-4744
▁ostatnie	-4745
▁mater	-4746
▁aff	-4747
viously	-4748
--	-4749
aga	-4750
aking	-4751
▁tajem	-4752
▁spotkanie	-4753
▁Adam	-4754
nica	-4755
▁movie	-4756
UR	-4757
▁diabła	-4758
▁chciałbym	-4759
▁również	-4760
▁złam	-4761
▁słysz	-4762
▁wody	-4763
▁broke	-4764
▁wypadek	-4765
▁security	-4766
▁złe	-4767
▁całym	-4768
▁temat	-4769
▁pomoże	-4770
ume	-4771
friend	-4772
▁WHAT	-4773
ini	-4774
▁szansę	-4775
▁cóż	-4776
▁mach	-4777
▁Wystar	-4778
▁rękę	-4779
▁Tego	-4780
▁CH	-4781
▁investig	-4782
▁wyob	-4783
ask	-4784
▁fair	-4785
▁marry	-4786
▁Whatever	-4787
▁jaj	-4788
▁spać	-4789
▁Jeff	-4790
▁natychmiast	-4791
par	-4792
ories	-4793
zz	-4794
iego	-4795
▁Lee	-4796
kur	-4797
bt	-4798
▁ciem	-4799
lik	-4800
▁gad	-4801
▁planet	-4802
▁sli	-4803
▁pójść	-4804
▁powinno	-4805
▁Tod	-4806
słu	-4807
▁Jen	-4808
awać	-4809
▁krę	-4810
ove	-4811
▁kilku	-4812
▁caught	-4813
owiąz	-4814
▁talked	-4815
rian	-4816
▁evening	-4817
krótce	-4818
tów	-4819
ists	-4820
▁drop	-4821
▁extra	-4822
▁Richard	-4823
prise	-4824
▁Bądź	-4825
▁tired	-4826
▁zamknię	-4827
▁Fl	-4828
▁potrzebujesz	-4829
bić	-4830
▁istnie	-4831
▁proper	-4832
▁pamiętam	-4833
ya	-4834
▁praca	-4835
żą	-4836
▁taką	-4837
▁głupi	-4838
▁mogli	-4839
irt	-4840
iska	-4841
Nie	-4842
▁relationship	-4843
▁hej	-4844
▁pieprz	-4845
wania	-4846
szedłeś	-4847
▁Steve	-4848
ping	-4849
▁sekund	-4850
▁Rozmawi	-4851
▁scen	-4852
▁About	-4853
▁jump	-4854
▁robią	-4855
▁wykon	-4856
▁handle	-4857
▁wszystkiego	-4858
undred	-4859
▁głę	-4860
▁odkry	-4861
▁card	-4862
▁pomyśl	-4863
▁message	-4864
▁conne	-4865
▁Witaj	-4866
view	-4867
▁kam	-4868
▁quiet	-4869
▁Billy	-4870
▁Sły	-4871
▁zły	-4872
▁pul	-4873
arling	-4874
▁decis	-4875
▁Dwa	-4876
▁doc	-4877
▁fool	-4878
▁amazing	-4879
▁Widziałeś	-4880
łoży	-4881
iff	-4882
▁mówił	-4883
▁późno	-4884
▁kidding	-4885
▁completely	-4886
▁Powinieneś	-4887
odem	-4888
▁king	-4889
▁przyjem	-4890
▁busy	-4891
▁welcome	-4892
czyła	-4893
▁skoro	-4894
roup	-4895
▁priv	-4896
ows	-4897
urch	-4898
▁Remember	-4899
▁połud	-4900
ken	-4901
sła	-4902
lfriend	-4903
▁wziąć	-4904
▁pozwól	-4905
0.	-4906
▁lying	-4907
omy	-4908
▁prop	-4909
▁Niez	-4910
give	-4911
▁czyt	-4912
▁mention	-4913
▁Cam	-4914
rzymy	-4915
▁cost	-4916
▁zbli	-4917
▁Ken	-4918
nieś	-4919
▁Kró	-4920
▁Chłop	-4921
▁szan	-4922
▁Three	-4923
▁znasz	-4924
▁threat	-4925
▁Dobranoc	-4926
▁obiec	-4927
▁Skoń	-4928
▁cond	-4929
▁single	-4930
ument	-4931
▁gdybym	-4932
▁ziemi	-4933
▁self	-4934
▁Raz	-4935
▁bath	-4936
▁state	-4937
▁situation	-4938
▁Patrz	-4939
▁pierwsze	-4940
▁dzieciak	-4941
▁pole	-4942
ający	-4943
▁dobrym	-4944
fully	-4945
bieg	-4946
anta	-4947
▁zwol	-4948
▁accept	-4949
mar	-4950
▁bast	-4951
▁join	-4952
▁kraju	-4953
▁birthday	-4954
▁powinieneś	-4955
upeł	-4956
key	-4957
▁suc	-4958
lax	-4959
liwy	-4960
night	-4961
▁Bea	-4962
▁Pier	-4963
▁thous	-4964
▁crime	-4965
łuma	-4966
▁zauf	-4967
▁Jej	-4968
▁Mac	-4969
▁kaz	-4970
▁Turn	-4971
▁Widziałem	-4972
▁Think	-4973
▁Powiem	-4974
▁Kon	-4975
▁Everybody	-4976
▁pust	-4977
you	-4978
łody	-4979
▁TV	-4980
▁górę	-4981
▁ojcem	-4982
ędzi	-4983
▁szkole	-4984
OD	-4985
▁ef	-4986
ggest	-4987
▁swear	-4988
▁Mother	-4989
▁usły	-4990
▁jas	-4991
▁nark	-4992
▁across	-4993
▁faceta	-4994
cją	-4995
iver	-4996
▁góry	-4997
ily	-4998
▁offer	-4999
▁Ber	-5000
▁middle	-5001
table	-5002
chen	-5003
▁brain	-5004
▁Ted	-5005
▁public	-5006
▁stronę	-5007
▁Cy	-5008
▁gło	-5009
▁pis	-5010
▁concer	-5011
▁appreci	-5012
stairs	-5013
▁Grand	-5014
▁dziewczynę	-5015
ryt	-5016
▁hasn	-5017
▁floor	-5018
▁laugh	-5019
riage	-5020
▁Everyone	-5021
▁Cieszę	-5022
▁naprawi	-5023
▁Sec	-5024
▁prawa	-5025
AD	-5026
▁space	-5027
cas	-5028
▁Zak	-5029
▁pract	-5030
lock	-5031
▁ya	-5032
tern	-5033
bur	-5034
▁yesterday	-5035
▁Bel	-5036
▁panu	-5037
▁Zw	-5038
szeć	-5039
▁drugiej	-5040
▁plane	-5041
▁smart	-5042
▁using	-5043
▁13	-5044
▁totally	-5045
▁clothes	-5046
▁Christmas	-5047
VER	-5048
▁carry	-5049
oli	-5050
▁Ziem	-5051
▁esca	-5052
▁Sarah	-5053
▁żebyśmy	-5054
dered	-5055
▁Son	-5056
▁pozy	-5057
ures	-5058
▁slow	-5059
▁rock	-5060
ij	-5061
▁cre	-5062
▁fur	-5063
▁tań	-5064
jąć	-5065
▁suggest	-5066
▁finish	-5067
szcza	-5068
IR	-5069
oper	-5070
unek	-5071
▁peace	-5072
iony	-5073
ctions	-5074
stawie	-5075
▁klient	-5076
ął	-5077
▁draw	-5078
▁trzymać	-5079
▁flow	-5080
▁wieku	-5081
▁Mer	-5082
▁rany	-5083
jemu	-5084
▁key	-5085
pris	-5086
▁słowo	-5087
▁kit	-5088
▁brak	-5089
▁Nar	-5090
▁Looks	-5091
▁przykład	-5092
▁cokolwiek	-5093
▁belong	-5094
▁otwart	-5095
▁Jake	-5096
▁neigh	-5097
▁Oli	-5098
▁24	-5099
▁bł	-5100
▁tygodniu	-5101
▁wonderful	-5102
▁straci	-5103
▁społe	-5104
▁gran	-5105
▁ponad	-5106
▁Dar	-5107
II	-5108
ders	-5109
▁dec	-5110
▁Didn	-5111
▁born	-5112
illy	-5113
▁Będziemy	-5114
▁uderzy	-5115
▁zrobiła	-5116
▁żadnego	-5117
▁00.	-5118
▁kości	-5119
▁ucie	-5120
▁Shh	-5121
▁wuj	-5122
▁towa	-5123
▁przeszka	-5124
▁Słysz	-5125
bin	-5126
▁rodzina	-5127
▁tick	-5128
▁honor	-5129
tynu	-5130
▁spóź	-5131
▁broni	-5132
ots	-5133
itive	-5134
uts	-5135
.....	-5136
▁Watch	-5137
▁zależy	-5138
▁Znasz	-5139
▁Bl	-5140
▁Lar	-5141
▁wystarczy	-5142
▁Wasz	-5143
▁Johnny	-5144
▁service	-5145
▁college	-5146
▁hundred	-5147
▁paid	-5148
▁ciągu	-5149
anka	-5150
▁Try	-5151
▁Przynajmniej	-5152
▁Ange	-5153
▁znisz	-5154
▁gold	-5155
▁Szuk	-5156
▁Boga	-5157
▁Mur	-5158
▁geni	-5159
▁nowego	-5160
roud	-5161
▁Nat	-5162
▁Ham	-5163
ities	-5164
▁przestań	-5165
▁American	-5166
usa	-5167
ratul	-5168
▁Move	-5169
▁zbrod	-5170
▁znać	-5171
▁eight	-5172
▁fear	-5173
▁Zrobię	-5174
▁kra	-5175
▁terrible	-5176
esty	-5177
▁age	-5178
▁Chris	-5179
▁teach	-5180
▁ext	-5181
▁miłości	-5182
▁Następ	-5183
▁forever	-5184
▁Step	-5185
▁wearing	-5186
▁dangerous	-5187
cież	-5188
miss	-5189
▁zrób	-5190
line	-5191
▁Tim	-5192
▁kie	-5193
▁chick	-5194
▁Tę	-5195
łego	-5196
▁Leave	-5197
cego	-5198
urze	-5199
▁gówno	-5200
▁małe	-5201
▁papie	-5202
▁careful	-5203
▁anywhere	-5204
▁coun	-5205
▁scene	-5206
rot	-5207
▁commit	-5208
iled	-5209
rost	-5210
wyraź	-5211
▁0	-5212
▁szy	-5213
możliwe	-5214
▁prezent	-5215
▁osobą	-5216
▁pozwolić	-5217
▁during	-5218
▁witness	-5219
rząt	-5220
▁smut	-5221
▁czekaj	-5222
▁gotowa	-5223
ging	-5224
▁gentlemen	-5225
▁girlfriend	-5226
▁ciała	-5227
▁US	-5228
oo	-5229
jęcie	-5230
▁More	-5231
▁killer	-5232
▁zapomni	-5233
wycię	-5234
ługo	-5235
ąć	-5236
▁Oto	-5237
▁chcemy	-5238
ęd	-5239
irty	-5240
▁ciężko	-5241
▁doświad	-5242
rzeli	-5243
▁kolego	-5244
▁William	-5245
▁koszt	-5246
▁personal	-5247
▁sl	-5248
▁brata	-5249
▁zdjęcie	-5250
▁FOR	-5251
▁pacj	-5252
▁Znowu	-5253
▁support	-5254
▁steal	-5255
▁gdybyś	-5256
znes	-5257
▁sitting	-5258
▁suppose	-5259
▁cause	-5260
▁grze	-5261
▁Daddy	-5262
▁Should	-5263
órze	-5264
▁Zach	-5265
▁skąd	-5266
iel	-5267
ideo	-5268
▁Dou	-5269
▁jednak	-5270
urę	-5271
ology	-5272
▁stole	-5273
nił	-5274
▁nowe	-5275
▁writ	-5276
▁śpie	-5277
▁samym	-5278
▁przestęp	-5279
▁whoa	-5280
chodzisz	-5281
asa	-5282
▁Jess	-5283
▁Tommy	-5284
▁field	-5285
▁Uważaj	-5286
▁zadzwonić	-5287
▁government	-5288
▁rok	-5289
pper	-5290
▁bli	-5291
▁okazji	-5292
▁wła	-5293
▁historii	-5294
▁station	-5295
isiej	-5296
▁całkowicie	-5297
▁Agent	-5298
▁killing	-5299
jon	-5300
cker	-5301
▁Hon	-5302
▁pig	-5303
▁cele	-5304
▁mała	-5305
▁skrzyw	-5306
▁NO	-5307
▁visit	-5308
▁sprowa	-5309
▁Powinniśmy	-5310
▁potrafi	-5311
czym	-5312
▁fat	-5313
▁manag	-5314
oud	-5315
▁Den	-5316
▁Jap	-5317
▁stopped	-5318
ładnie	-5319
▁kłopoty	-5320
orze	-5321
▁chor	-5322
▁diffic	-5323
▁DNA	-5324
▁panowie	-5325
▁risk	-5326
▁contact	-5327
▁martwi	-5328
ops	-5329
▁Kom	-5330
cially	-5331
▁roll	-5332
▁Absol	-5333
▁wieści	-5334
▁buddy	-5335
▁trakt	-5336
▁Robert	-5337
▁najwięk	-5338
jekt	-5339
IGHT	-5340
▁należy	-5341
▁club	-5342
gr	-5343
▁bought	-5344
▁zaczyna	-5345
▁początku	-5346
wała	-5347
▁dziecka	-5348
▁mię	-5349
▁jasne	-5350
▁ć	-5351
▁Witam	-5352
▁śmiesz	-5353
usiu	-5354
▁Gar	-5355
ujący	-5356
wyraźniej	-5357
▁tw	-5358
dzię	-5359
▁nast	-5360
▁byliśmy	-5361
▁fla	-5362
▁Rog	-5363
▁ochron	-5364
▁rząd	-5365
▁punkt	-5366
▁exam	-5367
▁area	-5368
▁disapp	-5369
▁Idę	-5370
▁Dor	-5371
▁Eddie	-5372
▁kolację	-5373
▁Lub	-5374
owało	-5375
cri	-5376
ric	-5377
▁Mówisz	-5378
▁zdjęcia	-5379
▁stru	-5380
▁ju	-5381
anowi	-5382
"...	-5383
▁Przyj	-5384
▁ję	-5385
▁cen	-5386
▁zacząć	-5387
▁żołnie	-5388
cuss	-5389
▁strange	-5390
▁Bur	-5391
▁pójdę	-5392
▁apartment	-5393
żeli	-5394
▁cla	-5395
▁Gdybym	-5396
rzeba	-5397
▁widzi	-5398
▁człowieku	-5399
▁bab	-5400
dziel	-5401
▁głowie	-5402
▁gry	-5403
▁Earth	-5404
▁czerw	-5405
▁Win	-5406
acher	-5407
lubi	-5408
▁dał	-5409
▁sku	-5410
▁arty	-5411
▁atak	-5412
gubi	-5413
▁prosto	-5414
▁instead	-5415
▁Mal	-5416
▁Anyway	-5417
▁suspect	-5418
▁Znam	-5419
▁zdra	-5420
▁zamie	-5421
zmę	-5422
▁natural	-5423
▁Aw	-5424
▁podróż	-5425
appy	-5426
▁share	-5427
aliz	-5428
▁board	-5429
upełnie	-5430
mon	-5431
▁przek	-5432
▁Love	-5433
▁duży	-5434
▁zmę	-5435
lace	-5436
▁Emi	-5437
▁widział	-5438
ware	-5439
▁przysię	-5440
▁musie	-5441
▁Welcome	-5442
▁wpły	-5443
sił	-5444
▁opin	-5445
▁przyjść	-5446
▁twi	-5447
▁farm	-5448
▁historia	-5449
▁rozwiąz	-5450
af	-5451
▁drunk	-5452
wałem	-5453
▁drogę	-5454
▁bot	-5455
▁samego	-5456
▁eas	-5457
arz	-5458
▁round	-5459
piesz	-5460
▁droga	-5461
noc	-5462
▁zamiesz	-5463
▁position	-5464
▁idę	-5465
▁imagine	-5466
▁gard	-5467
▁Zobacz	-5468
▁boyfriend	-5469
ms	-5470
sport	-5471
▁dziewczyną	-5472
▁fra	-5473
czyłeś	-5474
iłem	-5475
oph	-5476
▁THIS	-5477
piec	-5478
▁Sit	-5479
▁dig	-5480
▁Cent	-5481
szędzie	-5482
jeżdż	-5483
▁enjoy	-5484
lder	-5485
▁matki	-5486
▁MY	-5487
▁proud	-5488
▁realize	-5489
▁żał	-5490
łów	-5491
aven	-5492
▁obec	-5493
▁tydzień	-5494
vy	-5495
bert	-5496
▁Sher	-5497
▁samot	-5498
▁kontro	-5499
▁wskaz	-5500
▁Cokolwiek	-5501
damn	-5502
▁sat	-5503
▁córka	-5504
uge	-5505
▁środka	-5506
▁poprosi	-5507
ments	-5508
▁trzech	-5509
▁telewiz	-5510
▁Ve	-5511
▁Trzy	-5512
▁znów	-5513
gii	-5514
▁musiała	-5515
gów	-5516
▁Rozumiesz	-5517
▁zamiar	-5518
▁problemy	-5519
▁Dokładnie	-5520
▁spent	-5521
▁powiet	-5522
▁Charles	-5523
▁pocz	-5524
▁agree	-5525
▁miasto	-5526
▁boat	-5527
▁simple	-5528
▁wąt	-5529
▁Over	-5530
▁Słuch	-5531
▁ciągle	-5532
uten	-5533
▁spodzie	-5534
▁Sch	-5535
▁bul	-5536
▁kuch	-5537
▁wake	-5538
▁definitely	-5539
▁spójrz	-5540
▁Off	-5541
▁Thom	-5542
▁sklep	-5543
▁Zabierz	-5544
▁kno	-5545
▁wraż	-5546
lig	-5547
▁trudne	-5548
▁odpowied	-5549
▁przeszło	-5550
nęła	-5551
▁Vict	-5552
EL	-5553
▁Zało	-5554
▁Pójdę	-5555
▁ofiar	-5556
waj	-5557
owani	-5558
teres	-5559
▁organiz	-5560
▁Jul	-5561
▁zają	-5562
▁glass	-5563
▁radio	-5564
▁cust	-5565
alnego	-5566
▁zakoń	-5567
▁Lit	-5568
▁City	-5569
▁hide	-5570
▁fam	-5571
▁przyby	-5572
▁przeraż	-5573
▁Bobby	-5574
▁Przed	-5575
▁pogad	-5576
▁Wyglądasz	-5577
hood	-5578
▁opowie	-5579
dzieliśmy	-5580
ford	-5581
▁calls	-5582
▁West	-5583
▁radę	-5584
▁Amy	-5585
▁cop	-5586
▁śpi	-5587
▁saved	-5588
cisk	-5589
▁LI	-5590
▁Jedy	-5591
rzucić	-5592
▁kontrol	-5593
▁zacznie	-5594
anty	-5595
▁zakoch	-5596
▁ur	-5597
▁forward	-5598
▁Sus	-5599
▁appro	-5600
▁wejść	-5601
czeństwa	-5602
▁Nieważne	-5603
▁lar	-5604
▁Since	-5605
▁reszt	-5606
▁wojs	-5607
▁części	-5608
▁zapytać	-5609
▁uda	-5610
▁soul	-5611
▁surpris	-5612
▁ALL	-5613
▁search	-5614
▁chłopaki	-5615
▁Ud	-5616
alnym	-5617
▁screw	-5618
▁uf	-5619
▁biznes	-5620
hole	-5621
▁pus	-5622
▁gotowy	-5623
iom	-5624
well	-5625
chodzie	-5626
▁wyglądasz	-5627
▁pers	-5628
▁znale	-5629
▁Doctor	-5630
▁podd	-5631
▁sprawdzić	-5632
rzyd	-5633
▁pyta	-5634
▁przyjacielem	-5635
▁spokoju	-5636
▁seat	-5637
▁missed	-5638
wych	-5639
▁force	-5640
▁samolot	-5641
dzać	-5642
▁naz	-5643
▁zawie	-5644
łączyć	-5645
.,	-5646
▁pacjent	-5647
▁zmienić	-5648
▁difficult	-5649
▁sol	-5650
▁podejrz	-5651
▁Ele	-5652
▁Ron	-5653
▁idziemy	-5654
▁zga	-5655
▁sud	-5656
▁freak	-5657
▁energ	-5658
▁interested	-5659
▁Cra	-5660
iling	-5661
▁ostatnio	-5662
▁widzenia	-5663
▁Ell	-5664
time	-5665
▁kierow	-5666
▁paper	-5667
▁Podoba	-5668
▁suit	-5669
dźmi	-5670
▁Kurwa	-5671
▁$1	-5672
▁odwie	-5673
▁sn	-5674
chodzić	-5675
ILL	-5676
▁bull	-5677
▁seven	-5678
▁spróbować	-5679
men	-5680
▁dowiedzieć	-5681
▁Najpierw	-5682
▁panią	-5683
▁tygodni	-5684
wą	-5685
▁trip	-5686
▁moved	-5687
▁miałam	-5688
▁godzinę	-5689
sów	-5690
▁Once	-5691
▁ludźmi	-5692
▁najpierw	-5693
▁zakład	-5694
▁attention	-5695
chem	-5696
onel	-5697
▁kos	-5698
▁seksu	-5699
dziłeś	-5700
gy	-5701
▁Up	-5702
▁charge	-5703
aniale	-5704
▁fighting	-5705
bawiam	-5706
▁sudden	-5707
▁ocz	-5708
▁muszą	-5709
▁Jutro	-5710
▁słoń	-5711
▁equ	-5712
▁President	-5713
▁ka	-5714
▁Sometimes	-5715
▁Jor	-5716
▁est	-5717
▁jednej	-5718
▁wiadomości	-5719
▁młody	-5720
wen	-5721
▁student	-5722
nel	-5723
oto	-5724
van	-5725
▁pił	-5726
nąłem	-5727
▁sport	-5728
▁col	-5729
▁Prof	-5730
▁America	-5731
nieć	-5732
▁Nienawi	-5733
▁mógłbym	-5734
liwość	-5735
▁Spróbuj	-5736
▁poch	-5737
tract	-5738
▁group	-5739
▁spotkać	-5740
icul	-5741
kazy	-5742
▁appear	-5743
▁urodzin	-5744
▁zostawić	-5745
▁obok	-5746
gas	-5747
▁Anything	-5748
▁appreciate	-5749
▁glin	-5750
▁sla	-5751
▁bla	-5752
▁ostroż	-5753
▁narkoty	-5754
▁vill	-5755
wal	-5756
▁amb	-5757
▁cops	-5758
▁słyszałem	-5759
uthor	-5760
hol	-5761
▁fund	-5762
▁suff	-5763
którzy	-5764
▁gen	-5765
▁poży	-5766
▁dłużej	-5767
▁pokazać	-5768
▁involved	-5769
stwem	-5770
▁Perhaps	-5771
▁problems	-5772
bij	-5773
▁spir	-5774
▁marriage	-5775
stru	-5776
tarz	-5777
▁obraz	-5778
cjon	-5779
▁inni	-5780
▁każdej	-5781
▁oskarż	-5782
▁polity	-5783
▁Emm	-5784
▁letter	-5785
▁zni	-5786
▁Wynoś	-5787
kan	-5788
▁Uży	-5789
▁issu	-5790
▁bal	-5791
ałabym	-5792
▁PR	-5793
▁przesłuch	-5794
..."	-5795
▁Anna	-5796
▁except	-5797
▁KN	-5798
▁discuss	-5799
work	-5800
jechać	-5801
onu	-5802
▁Kell	-5803
▁Brzmi	-5804
▁bother	-5805
▁prawdziwe	-5806
▁feels	-5807
▁chłopcy	-5808
rwa	-5809
ints	-5810
▁synu	-5811
▁hi	-5812
▁uz	-5813
wórz	-5814
▁broken	-5815
▁dzieckiem	-5816
▁pamiętasz	-5817
▁czeka	-5818
▁ladies	-5819
▁podpis	-5820
▁Black	-5821
▁excuse	-5822
▁kobietą	-5823
bel	-5824
▁wielki	-5825
▁prezydent	-5826
▁band	-5827
asie	-5828
▁Back	-5829
▁Open	-5830
▁dź	-5831
arent	-5832
▁Scott	-5833
▁robimy	-5834
▁Vin	-5835
▁Jan	-5836
cl	-5837
▁rek	-5838
▁cook	-5839
▁detek	-5840
ENT	-5841
▁Wejdź	-5842
ality	-5843
▁Szybko	-5844
▁twarzy	-5845
▁policji	-5846
▁walczyć	-5847
ower	-5848
▁surv	-5849
▁Hurry	-5850
▁horse	-5851
▁Sw	-5852
aret	-5853
▁harm	-5854
▁czemu	-5855
▁powstrzymać	-5856
▁hom	-5857
ending	-5858
OME	-5859
łbym	-5860
▁Doc	-5861
▁Out	-5862
rench	-5863
▁przyjaciółmi	-5864
▁Van	-5865
field	-5866
▁lawyer	-5867
▁Wystarczy	-5868
▁umrzeć	-5869
▁JU	-5870
▁SO	-5871
▁Rep	-5872
▁Powinienem	-5873
▁admit	-5874
▁angry	-5875
oła	-5876
▁App	-5877
miesz	-5878
▁base	-5879
▁zabawne	-5880
yal	-5881
▁kor	-5882
▁błąd	-5883
▁sąd	-5884
▁wyba	-5885
▁profes	-5886
▁cas	-5887
▁address	-5888
▁Eng	-5889
▁White	-5890
▁exist	-5891
▁finished	-5892
ień	-5893
ught	-5894
ountain	-5895
het	-5896
▁Dep	-5897
▁et	-5898
▁lay	-5899
okół	-5900
▁przyjdzie	-5901
godnie	-5902
▁main	-5903
▁rzeczywi	-5904
▁truck	-5905
▁Ryan	-5906
▁bill	-5907
▁Whoo	-5908
▁tęsk	-5909
▁earth	-5910
▁Byłeś	-5911
▁rodzice	-5912
wór	-5913
szko	-5914
▁macie	-5915
▁Mel	-5916
▁prove	-5917
▁niebie	-5918
▁Człowie	-5919
▁Poczekaj	-5920
OO	-5921
óra	-5922
noon	-5923
▁dan	-5924
▁grab	-5925
▁męża	-5926
▁mieliśmy	-5927
inie	-5928
▁zainteres	-5929
▁bird	-5930
▁Kapit	-5931
▁bohat	-5932
▁window	-5933
bro	-5934
▁none	-5935
▁jad	-5936
ners	-5937
utenant	-5938
▁odzysk	-5939
▁within	-5940
▁Bud	-5941
▁Cał	-5942
▁ben	-5943
▁poł	-5944
▁drin	-5945
▁fish	-5946
▁udało	-5947
▁store	-5948
▁ice	-5949
ństwa	-5950
▁pamię	-5951
house	-5952
▁odkąd	-5953
▁soldier	-5954
▁przew	-5955
nes	-5956
spe	-5957
▁Wciąż	-5958
scyt	-5959
▁bied	-5960
▁złego	-5961
resh	-5962
▁Carol	-5963
▁miałeś	-5964
▁prywat	-5965
▁przynajmniej	-5966
▁talent	-5967
▁travel	-5968
ior	-5969
rowie	-5970
▁chciałam	-5971
▁fit	-5972
▁Has	-5973
▁ulicy	-5974
▁przyjaciela	-5975
alić	-5976
siąg	-5977
rócić	-5978
▁Prawie	-5979
TER	-5980
▁pij	-5981
▁disco	-5982
▁włosy	-5983
▁Ga	-5984
▁siostra	-5985
▁przestać	-5986
▁niespo	-5987
▁Ac	-5988
▁Dy	-5989
▁jail	-5990
▁skur	-5991
▁zastanawi	-5992
▁osobist	-5993
IL	-5994
kat	-5995
▁oboje	-5996
▁ź	-5997
▁dowód	-5998
▁Pomyśl	-5999
achel	-6000
omnij	-6001
came	-6002
▁High	-6003
▁jakąś	-6004
▁Walter	-6005
▁Żadnych	-6006
itz	-6007
▁standing	-6008
▁kupić	-6009
▁dzisiej	-6010
▁interesting	-6011
ięć	-6012
▁neck	-6013
▁calm	-6014
zo	-6015
▁possi	-6016
mos	-6017
▁zdrow	-6018
▁Lie	-6019
łodzi	-6020
▁blue	-6021
▁dopie	-6022
▁decision	-6023
▁Jerry	-6024
▁lubisz	-6025
ened	-6026
▁także	-6027
▁ludziom	-6028
icj	-6029
▁WAS	-6030
▁sześć	-6031
▁Skoro	-6032
▁patient	-6033
▁Szk	-6034
▁bos	-6035
rawdź	-6036
▁piękna	-6037
▁conv	-6038
▁wybuch	-6039
atak	-6040
▁dopiero	-6041
rely	-6042
▁upset	-6043
▁officer	-6044
tel	-6045
▁mer	-6046
▁drze	-6047
▁DON	-6048
▁ident	-6049
ible	-6050
▁Last	-6051
▁cash	-6052
▁remind	-6053
śnie	-6054
▁buck	-6055
rer	-6056
▁Wyj	-6057
▁błę	-6058
szech	-6059
sey	-6060
▁kul	-6061
▁Martin	-6062
▁poszedł	-6063
▁seconds	-6064
ico	-6065
▁Still	-6066
▁nazwisko	-6067
bat	-6068
▁bastard	-6069
▁więzienia	-6070
tures	-6071
▁żonę	-6072
nis	-6073
▁stuck	-6074
▁szac	-6075
▁tyłu	-6076
▁Zostawi	-6077
▁Eli	-6078
▁Zroz	-6079
▁Zostań	-6080
▁rozkaz	-6081
oman	-6082
ston	-6083
▁liked	-6084
▁oto	-6085
gaż	-6086
▁typ	-6087
▁Żart	-6088
nar	-6089
▁głod	-6090
▁zwierzę	-6091
stą	-6092
▁Dave	-6093
▁Lind	-6094
▁niewin	-6095
▁Rachel	-6096
▁razu	-6097
▁upew	-6098
▁sekret	-6099
▁pracuje	-6100
▁Kup	-6101
▁Street	-6102
urs	-6103
▁pic	-6104
▁Before	-6105
ciel	-6106
▁Int	-6107
▁YOUR	-6108
EM	-6109
▁hurry	-6110
▁głupie	-6111
2.	-6112
▁zmy	-6113
▁Eric	-6114
▁Euro	-6115
▁dzien	-6116
▁corre	-6117
▁miles	-6118
żył	-6119
▁wykorzyst	-6120
▁klucz	-6121
▁ke	-6122
▁wzgl	-6123
▁surprise	-6124
▁became	-6125
ształ	-6126
▁Hall	-6127
▁doubt	-6128
▁private	-6129
▁widziałeś	-6130
ierż	-6131
▁Honey	-6132
komu	-6133
medi	-6134
▁Uwielbi	-6135
▁historię	-6136
▁ul	-6137
how	-6138
▁van	-6139
▁pytania	-6140
▁rodzinę	-6141
▁Pap	-6142
chodź	-6143
▁Ram	-6144
▁apart	-6145
▁impre	-6146
cach	-6147
▁unless	-6148
aly	-6149
gon	-6150
▁kre	-6151
▁level	-6152
▁match	-6153
skim	-6154
świe	-6155
▁afternoon	-6156
▁certainly	-6157
ito	-6158
▁Odd	-6159
▁powinnam	-6160
▁reach	-6161
▁wrócę	-6162
▁demon	-6163
▁nauczycie	-6164
▁dying	-6165
You	-6166
bing	-6167
▁lived	-6168
▁słuchaj	-6169
▁Jon	-6170
▁pregn	-6171
ujcie	-6172
▁Rusz	-6173
▁sake	-6174
▁Daniel	-6175
▁lovely	-6176
kowy	-6177
czone	-6178
▁przeg	-6179
han	-6180
pię	-6181
▁poj	-6182
▁Show	-6183
cel	-6184
szcie	-6185
▁weapon	-6186
▁maszy	-6187
mond	-6188
▁wygra	-6189
▁Brit	-6190
▁darling	-6191
aler	-6192
ended	-6193
▁NOT	-6194
aków	-6195
▁doktorze	-6196
▁Hu	-6197
▁har	-6198
shit	-6199
ongratul	-6200
▁najlepszy	-6201
▁Han	-6202
▁Ter	-6203
▁wzię	-6204
▁Lubię	-6205
▁Sat	-6206
ION	-6207
▁jechać	-6208
▁Mil	-6209
omi	-6210
iche	-6211
rzeg	-6212
▁Stary	-6213
▁przedstawi	-6214
▁piąt	-6215
▁byłaś	-6216
▁Ani	-6217
athan	-6218
▁Uciek	-6219
cide	-6220
vous	-6221
▁bog	-6222
▁Kate	-6223
gest	-6224
RA	-6225
▁wrócił	-6226
▁tough	-6227
▁immedi	-6228
1.	-6229
▁Miał	-6230
▁Uncle	-6231
▁komple	-6232
5.	-6233
suń	-6234
ives	-6235
▁Jas	-6236
▁zauważy	-6237
▁starting	-6238
▁Del	-6239
▁Andy	-6240
▁Sze	-6241
▁study	-6242
▁jakiegoś	-6243
▁wychodzi	-6244
▁przeprowa	-6245
poko	-6246
▁mal	-6247
▁Holly	-6248
ęło	-6249
▁cała	-6250
▁warm	-6251
▁likes	-6252
essor	-6253
▁kocha	-6254
▁facetem	-6255
TH	-6256
▁dare	-6257
host	-6258
▁wymyśli	-6259
▁potrzebujemy	-6260
adź	-6261
amin	-6262
rzeń	-6263
▁Naz	-6264
▁Matt	-6265
▁mowy	-6266
▁holding	-6267
▁Hy	-6268
▁Dru	-6269
▁ble	-6270
▁tyłek	-6271
▁częścią	-6272
rap	-6273
żni	-6274
▁Want	-6275
▁uśmie	-6276
▁Wz	-6277
lyn	-6278
▁znaczenia	-6279
▁Potrzebujemy	-6280
jaw	-6281
fuck	-6282
▁Time	-6283
▁Porozmawi	-6284
lam	-6285
cznij	-6286
▁prag	-6287
▁powód	-6288
łkow	-6289
▁Sie	-6290
▁samej	-6291
▁zatrzymać	-6292
OB	-6293
▁}	-6294
rut	-6295
▁ogrom	-6296
▁jedzenie	-6297
▁Next	-6298
▁Wor	-6299
▁Mógłbyś	-6300
▁Dziewczy	-6301
▁ulubi	-6302
▁obowiąz	-6303
▁walking	-6304
▁Pete	-6305
▁expl	-6306
▁małą	-6307
▁weak	-6308
▁włos	-6309
ossible	-6310
ws	-6311
verse	-6312
▁przyz	-6313
▁Victor	-6314
▁Kil	-6315
▁labor	-6316
dzięk	-6317
▁often	-6318
▁zapew	-6319
▁zostały	-6320
▁heal	-6321
▁dostęp	-6322
▁putting	-6323
▁Miesz	-6324
▁Thomas	-6325
▁Rose	-6326
▁quit	-6327
▁loves	-6328
▁fal	-6329
RY	-6330
▁krót	-6331
isy	-6332
▁Ir	-6333
▁vir	-6334
cky	-6335
ism	-6336
uel	-6337
wij	-6338
▁medy	-6339
▁drugi	-6340
▁teacher	-6341
puść	-6342
▁named	-6343
▁Rz	-6344
▁czasem	-6345
▁gift	-6346
▁bullet	-6347
▁dala	-6348
▁Wcale	-6349
▁president	-6350
▁rules	-6351
▁udowod	-6352
▁third	-6353
odzenia	-6354
▁nagle	-6355
▁driving	-6356
wise	-6357
▁Zas	-6358
▁miało	-6359
▁towarzy	-6360
▁moi	-6361
▁Emily	-6362
▁pracow	-6363
val	-6364
ówić	-6365
▁zapro	-6366
▁machine	-6367
▁pierwszym	-6368
ids	-6369
▁Jer	-6370
▁suk	-6371
fied	-6372
▁Wasza	-6373
▁biura	-6374
▁Idziemy	-6375
▁Chry	-6376
▁Pomyślałem	-6377
hi	-6378
cience	-6379
▁pokon	-6380
▁punk	-6381
▁upon	-6382
anej	-6383
▁Tym	-6384
▁ill	-6385
▁nowa	-6386
gue	-6387
year	-6388
▁host	-6389
▁guard	-6390
▁account	-6391
▁potwier	-6392
onej	-6393
▁Kiedyś	-6394
▁Zab	-6395
▁SE	-6396
▁Kevin	-6397
▁battle	-6398
▁Kar	-6399
▁cow	-6400
▁rich	-6401
▁górze	-6402
▁mission	-6403
▁pewnością	-6404
▁whether	-6405
eter	-6406
ANT	-6407
kowe	-6408
rupt	-6409
▁tacy	-6410
▁pociąg	-6411
▁joke	-6412
▁General	-6413
▁Que	-6414
▁thr	-6415
▁wrote	-6416
▁Powiedziała	-6417
cki	-6418
▁szpitala	-6419
▁dude	-6420
▁łatwo	-6421
▁Somebody	-6422
▁osoba	-6423
▁strze	-6424
▁sko	-6425
▁Stój	-6426
▁nale	-6427
▁często	-6428
▁Powinna	-6429
▁figured	-6430
siądź	-6431
▁Jac	-6432
▁Nied	-6433
▁zda	-6434
▁osób	-6435
alnych	-6436
▁Cat	-6437
▁KNOW	-6438
▁przyjaciele	-6439
wamy	-6440
stety	-6441
▁dziad	-6442
▁zamiast	-6443
▁guest	-6444
znać	-6445
jechał	-6446
▁model	-6447
▁pocał	-6448
▁jaz	-6449
▁bieg	-6450
▁kłopot	-6451
▁Run	-6452
▁pobli	-6453
ns	-6454
▁evil	-6455
ówki	-6456
▁wios	-6457
▁zwycię	-6458
ods	-6459
adaj	-6460
▁Odp	-6461
▁dotyk	-6462
▁Słucham	-6463
▁parę	-6464
▁żoną	-6465
▁owe	-6466
miało	-6467
▁pack	-6468
rog	-6469
rony	-6470
▁tysią	-6471
▁udział	-6472
▁sądzisz	-6473
ify	-6474
▁Jako	-6475
wego	-6476
bienia	-6477
▁techn	-6478
▁zachow	-6479
eared	-6480
▁Miałam	-6481
▁inno	-6482
▁wokół	-6483
▁kłó	-6484
utnie	-6485
inted	-6486
▁Josh	-6487
▁piss	-6488
▁skin	-6489
▁House	-6490
▁sied	-6491
▁worst	-6492
arently	-6493
▁success	-6494
▁HAVE	-6495
▁Under	-6496
▁poziom	-6497
▁mężczyzna	-6498
▁phy	-6499
▁imprez	-6500
▁mógłby	-6501
otion	-6502
ording	-6503
eks	-6504
▁Gi	-6505
lenie	-6506
▁pory	-6507
▁Zastanawi	-6508
▁zep	-6509
▁zbud	-6510
▁zrozumieć	-6511
lii	-6512
akiem	-6513
▁proste	-6514
▁forgive	-6515
▁direct	-6516
▁przejm	-6517
▁około	-6518
▁posiad	-6519
▁English	-6520
heart	-6521
▁popełni	-6522
▁pleasure	-6523
obus	-6524
▁gas	-6525
▁prov	-6526
▁łóżka	-6527
▁Og	-6528
▁Rzu	-6529
▁beginning	-6530
ITH	-6531
car	-6532
zer	-6533
▁bawi	-6534
▁zgło	-6535
▁skład	-6536
ville	-6537
▁uderz	-6538
▁przyszedł	-6539
▁tea	-6540
▁Bon	-6541
czucia	-6542
▁kobietę	-6543
▁experience	-6544
▁Ms	-6545
▁eg	-6546
fortun	-6547
▁difference	-6548
▁dole	-6549
▁absolutely	-6550
puści	-6551
▁cute	-6552
▁Lau	-6553
▁Czek	-6554
▁Prince	-6555
▁umiera	-6556
▁uciec	-6557
▁Leo	-6558
▁Lady	-6559
▁uczy	-6560
▁dodat	-6561
▁zajmie	-6562
▁cia	-6563
niosę	-6564
▁army	-6565
▁martwić	-6566
CK	-6567
▁duże	-6568
▁ruszaj	-6569
▁learned	-6570
▁rozumie	-6571
rzyj	-6572
▁Było	-6573
▁Detective	-6574
▁Wed	-6575
▁poko	-6576
jny	-6577
▁Lin	-6578
▁mov	-6579
▁zdol	-6580
▁track	-6581
▁budyn	-6582
▁Little	-6583
▁hungry	-6584
▁jakiej	-6585
▁target	-6586
▁computer	-6587
wyż	-6588
▁Kogo	-6589
▁Świę	-6590
▁Ash	-6591
▁poż	-6592
▁żadnej	-6593
rzyłem	-6594
▁sleeping	-6595
boje	-6596
usza	-6597
▁Miałeś	-6598
▁wspom	-6599
▁milionów	-6600
rzut	-6601
▁przen	-6602
▁Hit	-6603
▁bear	-6604
ressed	-6605
▁osiąg	-6606
nó	-6607
▁NE	-6608
▁McC	-6609
▁roboty	-6610
niejsza	-6611
▁master	-6612
▁wizy	-6613
▁Wysoko	-6614
OP	-6615
▁led	-6616
▁Ce	-6617
elle	-6618
▁Brian	-6619
▁Jorku	-6620
▁zabie	-6621
niejszy	-6622
▁hy	-6623
▁człon	-6624
▁ukrad	-6625
▁informacje	-6626
▁Próbuję	-6627
▁mężczyzn	-6628
ances	-6629
ienie	-6630
▁Swe	-6631
rak	-6632
▁Duż	-6633
▁Mus	-6634
▁matką	-6635
▁Szkoda	-6636
▁policję	-6637
łopiec	-6638
▁perform	-6639
▁Pra	-6640
▁pad	-6641
▁wku	-6642
▁żony	-6643
▁Grace	-6644
▁effect	-6645
▁grać	-6646
▁bottle	-6647
▁Wys	-6648
▁Konie	-6649
mission	-6650
US	-6651
andy	-6652
uchy	-6653
▁Claire	-6654
▁ourselves	-6655
▁Mill	-6656
▁wybie	-6657
▁perhaps	-6658
▁Sal	-6659
▁pobliżu	-6660
rzyło	-6661
szenie	-6662
OL	-6663
ilty	-6664
▁feed	-6665
gged	-6666
▁Reg	-6667
adow	-6668
▁nig	-6669
▁event	-6670
▁finger	-6671
▁double	-6672
▁hadn	-6673
▁Jason	-6674
▁Zanim	-6675
alną	-6676
▁szczęśliwa	-6677
▁Sho	-6678
▁Spotk	-6679
▁camera	-6680
▁60	-6681
▁necess	-6682
▁result	-6683
▁listening	-6684
rit	-6685
ilet	-6686
▁ram	-6687
▁video	-6688
▁promised	-6689
▁magic	-6690
▁polit	-6691
▁czekać	-6692
▁obserw	-6693
▁Zadzwoń	-6694
jo	-6695
▁Pomocy	-6696
▁vie	-6697
zdu	-6698
łączy	-6699
▁settle	-6700
▁powstrzym	-6701
ruch	-6702
▁nową	-6703
▁dobrego	-6704
▁staying	-6705
▁opportun	-6706
▁wydost	-6707
lepiej	-6708
▁decide	-6709
łat	-6710
▁powiedzenia	-6711
vent	-6712
▁Boy	-6713
▁French	-6714
▁notice	-6715
▁sea	-6716
andon	-6717
▁huge	-6718
▁cholera	-6719
CE	-6720
▁crap	-6721
▁shoes	-6722
▁Ly	-6723
dom	-6724
▁type	-6725
owne	-6726
▁wysp	-6727
▁Uni	-6728
▁cred	-6729
▁czuje	-6730
▁wyboru	-6731
▁mę	-6732
▁Too	-6733
litary	-6734
▁Alright	-6735
icide	-6736
▁herself	-6737
▁quickly	-6738
▁ślad	-6739
alność	-6740
▁niesamowite	-6741
▁CAN	-6742
▁drugs	-6743
atora	-6744
▁Phil	-6745
▁Roger	-6746
▁Wróci	-6747
▁posłuchaj	-6748
▁zre	-6749
ky	-6750
▁stawi	-6751
▁thousand	-6752
▁themselves	-6753
icle	-6754
▁usią	-6755
▁Check	-6756
▁bunch	-6757
▁passed	-6758
▁zaczyn	-6759
▁Lon	-6760
▁gives	-6761
▁Usiądź	-6762
abin	-6763
cean	-6764
▁willing	-6765
▁dostar	-6766
▁Zapomnij	-6767
wę	-6768
▁hat	-6769
▁hall	-6770
fast	-6771
mile	-6772
▁mocy	-6773
▁większość	-6774
▁Norm	-6775
arka	-6776
▁Sen	-6777
▁tight	-6778
aract	-6779
▁chłopcze	-6780
roz	-6781
niłem	-6782
▁crim	-6783
aron	-6784
▁hip	-6785
kować	-6786
rzeni	-6787
▁Larry	-6788
▁statek	-6789
▁Chief	-6790
unki	-6791
▁opt	-6792
▁gościa	-6793
▁sensu	-6794
łaszcza	-6795
▁Happy	-6796
▁dobrą	-6797
▁Way	-6798
▁helping	-6799
▁feelings	-6800
▁Sil	-6801
▁fol	-6802
▁Lubi	-6803
ione	-6804
▁Przygot	-6805
▁innocent	-6806
▁dż	-6807
▁eating	-6808
lą	-6809
▁zaatak	-6810
uz	-6811
pet	-6812
▁hole	-6813
▁Kill	-6814
▁Jean	-6815
▁doty	-6816
▁Bring	-6817
▁Wiedziałem	-6818
▁cast	-6819
▁posp	-6820
▁alarm	-6821
▁Lond	-6822
▁miłe	-6823
▁blind	-6824
każę	-6825
lud	-6826
▁Cią	-6827
▁Master	-6828
▁hoping	-6829
▁zasko	-6830
ongratulations	-6831
ado	-6832
▁pozby	-6833
▁pytań	-6834
▁zagin	-6835
▁picked	-6836
▁convers	-6837
róć	-6838
▁Simon	-6839
▁zbrodni	-6840
▁'?	-6841
iley	-6842
▁Hot	-6843
-1	-6844
▁spirit	-6845
▁zeszłym	-6846
aker	-6847
▁jakaś	-6848
▁granic	-6849
▁pregnant	-6850
sm	-6851
aru	-6852
▁piek	-6853
▁Los	-6854
▁Ohh	-6855
▁zająć	-6856
▁wybra	-6857
▁Wracaj	-6858
gers	-6859
▁zech	-6860
arlier	-6861
▁bycie	-6862
▁kni	-6863
▁dwo	-6864
▁Robi	-6865
▁użyć	-6866
▁ways	-6867
obi	-6868
▁beer	-6869
▁rain	-6870
,...	-6871
▁cieka	-6872
zyn	-6873
▁akt	-6874
▁wiedziała	-6875
racji	-6876
▁niemożliwe	-6877
▁potrzebował	-6878
▁Hol	-6879
esome	-6880
▁deta	-6881
▁nogi	-6882
▁favorite	-6883
dząc	-6884
▁Jose	-6885
▁Lucy	-6886
▁elect	-6887
▁Nag	-6888
▁adres	-6889
▁jedyną	-6890
▁zostaw	-6891
▁enemy	-6892
▁apologi	-6893
▁pogadać	-6894
▁Most	-6895
▁chory	-6896
▁załatwi	-6897
▁uratować	-6898
▁samochodzie	-6899
szta	-6900
nętrz	-6901
łka	-6902
▁znalazłem	-6903
gery	-6904
▁Luke	-6905
▁medic	-6906
ila	-6907
▁church	-6908
▁client	-6909
cip	-6910
icago	-6911
▁służ	-6912
▁Bat	-6913
nóstwo	-6914
▁wkrótce	-6915
▁Ver	-6916
▁fantast	-6917
hin	-6918
▁oku	-6919
▁kost	-6920
▁pójdzie	-6921
▁tygodnie	-6922
wym	-6923
▁Five	-6924
▁egg	-6925
▁pomog	-6926
▁author	-6927
▁wszędzie	-6928
▁tree	-6929
▁Today	-6930
▁fuckin	-6931
▁names	-6932
▁impossible	-6933
▁MO	-6934
▁Juli	-6935
▁books	-6936
▁liter	-6937
▁hotelu	-6938
▁piękne	-6939
▁Baby	-6940
▁wine	-6941
atorium	-6942
▁wondering	-6943
▁zę	-6944
▁Robin	-6945
▁Dzisiaj	-6946
▁goddamn	-6947
OULD	-6948
▁Policja	-6949
▁jour	-6950
▁Dom	-6951
▁race	-6952
▁faith	-6953
dzien	-6954
vey	-6955
ature	-6956
▁najgor	-6957
fortable	-6958
▁Sto	-6959
▁kwest	-6960
▁Dzieci	-6961
ida	-6962
ratula	-6963
reme	-6964
▁choose	-6965
▁zobaczy	-6966
niesie	-6967
▁twier	-6968
▁zobaczysz	-6969
ału	-6970
▁Kare	-6971
▁Inter	-6972
▁chronić	-6973
▁śni	-6974
▁Long	-6975
▁radi	-6976
erykań	-6977
cof	-6978
▁sac	-6979
▁dirty	-6980
▁zmar	-6981
▁claim	-6982
▁Nienawidzę	-6983
▁Chuck	-6984
▁współp	-6985
▁bigger	-6986
▁Chi	-6987
▁Hell	-6988
▁licz	-6989
▁Założę	-6990
▁instru	-6991
szczęśli	-6992
▁doprowa	-6993
▁pierwsza	-6994
▁wojny	-6995
▁dreams	-6996
▁sprawia	-6997
ech	-6998
▁musieli	-6999
▁gay	-7000
▁unik	-7001
▁Pal	-7002
▁aud	-7003
▁drinka	-7004
▁Four	-7005
aniesz	-7006
▁Smith	-7007
▁London	-7008
▁autobus	-7009
▁Zrobiłem	-7010
fort	-7011
▁relax	-7012
▁orders	-7013
off	-7014
▁poszło	-7015
▁ziemię	-7016
▁Jaka	-7017
▁major	-7018
▁Powiedziałeś	-7019
▁AT	-7020
list	-7021
ancie	-7022
▁fired	-7023
▁klasy	-7024
▁światło	-7025
▁Myślałam	-7026
cep	-7027
ming	-7028
▁hello	-7029
▁Zrozumi	-7030
▁dostaniesz	-7031
▁nagro	-7032
▁zniszcz	-7033
▁najlepsze	-7034
50	-7035
▁Zo	-7036
▁Kelly	-7037
▁temper	-7038
▁charact	-7039
▁brud	-7040
▁heav	-7041
▁wsty	-7042
dziłam	-7043
3.	-7044
▁Med	-7045
▁Comm	-7046
▁Ugh	-7047
▁kamie	-7048
▁Ciebie	-7049
▁recent	-7050
▁keeping	-7051
▁consider	-7052
▁'.	-7053
▁Chicago	-7054
wit	-7055
▁Dziś	-7056
▁Clark	-7057
▁Najwyraźniej	-7058
▁elekt	-7059
▁naprawić	-7060
rant	-7061
▁ciężarów	-7062
▁Lieutenant	-7063
▁komór	-7064
▁heaven	-7065
▁przetr	-7066
▁Obawiam	-7067
▁further	-7068
grze	-7069
▁Usp	-7070
▁daje	-7071
▁obej	-7072
▁allowed	-7073
▁szczęśliwy	-7074
ends	-7075
▁push	-7076
▁escape	-7077
▁ponownie	-7078
▁Cały	-7079
ALL	-7080
ira	-7081
▁ham	-7082
▁Zmie	-7083
▁całej	-7084
▁prosić	-7085
▁czasami	-7086
ratulacje	-7087
▁Jesteście	-7088
▁seriously	-7089
▁więzieniu	-7090
▁Zobaczymy	-7091
▁wami	-7092
▁patrzeć	-7093
▁rodziców	-7094
▁odm	-7095
▁Jakiś	-7096
▁focus	-7097
▁que	-7098
stawaj	-7099
▁showed	-7100
▁wprowa	-7101
▁bathroom	-7102
▁doj	-7103
▁crew	-7104
▁Dużo	-7105
▁Koniec	-7106
▁jedzenia	-7107
▁Kobie	-7108
▁lepsze	-7109
okie	-7110
▁Leon	-7111
owiedz	-7112
▁zamierzasz	-7113
bol	-7114
tych	-7115
▁Tay	-7116
▁tour	-7117
▁Nieźle	-7118
łoż	-7119
ciłem	-7120
nować	-7121
▁Mist	-7122
▁500	-7123
▁niezwyk	-7124
▁usually	-7125
ancy	-7126
▁kro	-7127
▁wycie	-7128
▁beg	-7129
▁wat	-7130
▁zmu	-7131
▁poru	-7132
▁Pokaż	-7133
▁centrum	-7134
▁21	-7135
▁dump	-7136
▁zjeść	-7137
▁usłyszeć	-7138
▁immediately	-7139
rab	-7140
dzasz	-7141
▁blame	-7142
▁helped	-7143
gno	-7144
▁intro	-7145
▁projekt	-7146
▁Pamiętam	-7147
▁Kyle	-7148
ression	-7149
▁circ	-7150
▁judge	-7151
▁Jakieś	-7152
▁access	-7153
▁mieszka	-7154
▁mało	-7155
▁sytuacji	-7156
iced	-7157
▁cup	-7158
▁śledzt	-7159
▁ARE	-7160
▁jeź	-7161
▁nauk	-7162
▁ręka	-7163
▁wysy	-7164
tę	-7165
ottom	-7166
▁Francis	-7167
wej	-7168
rief	-7169
ising	-7170
▁Paris	-7171
▁Czasami	-7172
▁podzięk	-7173
szczy	-7174
▁price	-7175
▁Znalazłem	-7176
▁surprised	-7177
▁Bogu	-7178
▁sight	-7179
▁continue	-7180
▁przychodzi	-7181
oring	-7182
erem	-7183
▁Pyt	-7184
▁dollars	-7185
▁Bad	-7186
▁brz	-7187
▁lock	-7188
▁sposob	-7189
owni	-7190
▁Walk	-7191
▁JUST	-7192
▁uncle	-7193
▁Jednak	-7194
▁imieniu	-7195
▁przejść	-7196
▁właściwie	-7197
▁Ca	-7198
▁locked	-7199
ściek	-7200
▁Mick	-7201
▁spowod	-7202
AU	-7203
▁green	-7204
▁imm	-7205
▁pośl	-7206
▁final	-7207
▁Nazywam	-7208
czem	-7209
lent	-7210
▁sob	-7211
LY	-7212
▁WITH	-7213
▁arms	-7214
▁dysk	-7215
▁lord	-7216
▁orig	-7217
▁resztę	-7218
▁Puść	-7219
▁obviously	-7220
fy	-7221
▁szefie	-7222
dzony	-7223
▁przekaz	-7224
EST	-7225
orą	-7226
▁Jud	-7227
▁Wcz	-7228
▁fał	-7229
▁assist	-7230
▁doktor	-7231
ędu	-7232
▁eh	-7233
▁stał	-7234
▁memory	-7235
▁powiedziałaś	-7236
ską	-7237
▁tort	-7238
alifor	-7239
▁istnieje	-7240
yw	-7241
wor	-7242
▁stylu	-7243
▁earlier	-7244
▁dotk	-7245
To	-7246
▁Uspokój	-7247
▁everywhere	-7248
▁Des	-7249
▁nose	-7250
łym	-7251
▁cru	-7252
▁Aren	-7253
▁guilty	-7254
atic	-7255
▁Yep	-7256
▁gej	-7257
▁sami	-7258
tąd	-7259
aring	-7260
mist	-7261
▁zem	-7262
▁Oboje	-7263
pro	-7264
▁Bes	-7265
▁Wes	-7266
▁Annie	-7267
▁zajęty	-7268
▁pozwolę	-7269
▁Słyszysz	-7270
iw	-7271
▁fli	-7272
▁Przyp	-7273
▁fresh	-7274
▁martwy	-7275
▁kitchen	-7276
▁pictures	-7277
▁prawdziwy	-7278
▁Zj	-7279
▁separ	-7280
▁process	-7281
które	-7282
▁znalazł	-7283
▁próbował	-7284
ceed	-7285
▁robił	-7286
▁Brother	-7287
pić	-7288
▁flight	-7289
▁Exactly	-7290
▁neighbor	-7291
pę	-7292
▁Sun	-7293
▁Byłam	-7294
▁telefonu	-7295
▁energy	-7296
▁firm	-7297
▁leci	-7298
▁East	-7299
▁opuści	-7300
▁związek	-7301
▁kla	-7302
▁wracam	-7303
▁opportunity	-7304
ared	-7305
szel	-7306
▁policj	-7307
▁recogni	-7308
▁Ak	-7309
atki	-7310
▁Pas	-7311
arcie	-7312
▁uli	-7313
▁Mają	-7314
▁przysłu	-7315
obec	-7316
niemy	-7317
▁Part	-7318
▁hook	-7319
▁emerg	-7320
▁mogłeś	-7321
▁pewnego	-7322
▁pójdziesz	-7323
▁Us	-7324
▁GET	-7325
geant	-7326
▁remain	-7327
▁wielkim	-7328
▁wdzię	-7329
▁losing	-7330
▁responsible	-7331
aks	-7332
rane	-7333
▁pali	-7334
▁deserve	-7335
▁parking	-7336
▁szpitalu	-7337
▁boli	-7338
▁chair	-7339
▁jedynym	-7340
przyć	-7341
▁Szcz	-7342
▁played	-7343
▁spotyk	-7344
▁tysięcy	-7345
kien	-7346
▁mani	-7347
erk	-7348
fię	-7349
▁Tri	-7350
▁zupełnie	-7351
▁niespodzi	-7352
▁Bru	-7353
▁nervous	-7354
▁kut	-7355
velop	-7356
▁Aust	-7357
▁introdu	-7358
OS	-7359
phy	-7360
luz	-7361
▁sle	-7362
FF	-7363
rass	-7364
edno	-7365
▁dos	-7366
▁sand	-7367
ranie	-7368
▁kump	-7369
▁wysoko	-7370
▁Zapomni	-7371
śleć	-7372
▁legs	-7373
▁Forget	-7374
▁Znaleź	-7375
▁rodzaju	-7376
UN	-7377
▁AS	-7378
▁kat	-7379
likow	-7380
▁Were	-7381
▁mate	-7382
▁rese	-7383
czeństwo	-7384
▁kontynu	-7385
▁walki	-7386
▁common	-7387
▁szansa	-7388
▁usp	-7389
▁gotten	-7390
▁takiej	-7391
▁Young	-7392
▁Tur	-7393
▁Vir	-7394
skich	-7395
▁rady	-7396
▁plans	-7397
obój	-7398
yment	-7399
▁champ	-7400
▁gości	-7401
▁pulled	-7402
▁Cięż	-7403
▁zamord	-7404
▁Num	-7405
▁chociaż	-7406
▁morderstwo	-7407
lok	-7408
▁market	-7409
▁sprawied	-7410
rowadź	-7411
▁compet	-7412
▁hiding	-7413
▁Alice	-7414
▁Słyszałeś	-7415
▁Ru	-7416
▁czwart	-7417
▁AB	-7418
▁łaz	-7419
▁feder	-7420
▁zmusi	-7421
▁nikomu	-7422
comp	-7423
▁kas	-7424
▁flat	-7425
▁mocno	-7426
▁interview	-7427
ódź	-7428
cznik	-7429
▁dowo	-7430
▁simp	-7431
▁stos	-7432
▁dokąd	-7433
▁yell	-7434
▁Prawdopodobnie	-7435
ankę	-7436
▁eng	-7437
inary	-7438
▁arran	-7439
▁rozpo	-7440
▁odpowiedź	-7441
orter	-7442
vious	-7443
▁moon	-7444
▁reli	-7445
▁drinking	-7446
▁Louis	-7447
▁speci	-7448
▁places	-7449
▁poison	-7450
▁amerykań	-7451
▁zespo	-7452
▁bloody	-7453
▁Wa	-7454
▁firmy	-7455
▁własne	-7456
łożyć	-7457
▁Guys	-7458
▁Hank	-7459
▁Talk	-7460
▁chal	-7461
▁island	-7462
▁materi	-7463
wers	-7464
▁byłby	-7465
▁closed	-7466
▁zdenerw	-7467
hem	-7468
▁Doktorze	-7469
wem	-7470
żesz	-7471
rezent	-7472
▁kochasz	-7473
▁Mum	-7474
ledge	-7475
▁raport	-7476
▁pies	-7477
▁skończyć	-7478
▁wspaniał	-7479
via	-7480
sian	-7481
▁poczekać	-7482
▁upstairs	-7483
▁jeb	-7484
dzili	-7485
▁fail	-7486
▁incred	-7487
▁Lisa	-7488
▁narze	-7489
sec	-7490
▁pt	-7491
▁cicho	-7492
▁empty	-7493
▁waste	-7494
▁South	-7495
▁fellow	-7496
▁Powinnaś	-7497
▁kot	-7498
▁Sand	-7499
▁względu	-7500
▁sile	-7501
wards	-7502
▁wych	-7503
▁posłuch	-7504
▁miesiące	-7505
7.	-7506
▁Dick	-7507
▁ryzy	-7508
▁command	-7509
▁vol	-7510
łości	-7511
▁żyją	-7512
▁reading	-7513
▁przeczyt	-7514
▁Ach	-7515
▁ćwi	-7516
▁Emma	-7517
▁dawno	-7518
▁nauczyć	-7519
▁ból	-7520
▁zadz	-7521
▁rzeczą	-7522
TA	-7523
▁purp	-7524
▁becom	-7525
▁built	-7526
▁drugą	-7527
▁twice	-7528
▁uprawi	-7529
uc	-7530
▁Day	-7531
▁duty	-7532
▁Stand	-7533
atherine	-7534
▁pressure	-7535
reng	-7536
bia	-7537
▁lok	-7538
▁włam	-7539
▁policja	-7540
▁Nau	-7541
▁Tor	-7542
▁Must	-7543
▁guns	-7544
▁szla	-7545
▁tax	-7546
▁kuchni	-7547
▁zrozumi	-7548
▁światła	-7549
▁prawdopodobnie	-7550
▁Rad	-7551
▁und	-7552
▁Marsh	-7553
▁przemy	-7554
▁captain	-7555
▁22	-7556
▁odpo	-7557
arp	-7558
▁straż	-7559
iculous	-7560
▁Besides	-7561
▁poczu	-7562
▁Gdybyś	-7563
▁zatrud	-7564
▁mógłbyś	-7565
▁wę	-7566
łogo	-7567
▁lic	-7568
▁jakoś	-7569
▁Carter	-7570
▁writing	-7571
▁embar	-7572
▁szalony	-7573
ARD	-7574
▁seemed	-7575
pew	-7576
like	-7577
▁Gab	-7578
▁coll	-7579
▁prot	-7580
▁acting	-7581
▁przeży	-7582
anem	-7583
▁Liz	-7584
▁jeść	-7585
▁panem	-7586
AND	-7587
isku	-7588
antic	-7589
unity	-7590
▁słów	-7591
▁turns	-7592
▁Joey	-7593
▁bracie	-7594
▁zagroż	-7595
▁request	-7596
▁Brad	-7597
▁medical	-7598
▁Uwielbiam	-7599
▁walked	-7600
chodzimy	-7601
▁fem	-7602
▁wag	-7603
ściem	-7604
▁Susan	-7605
▁shooting	-7606
CT	-7607
▁alright	-7608
▁divor	-7609
rage	-7610
▁del	-7611
▁zasług	-7612
▁Plan	-7613
▁biurze	-7614
bec	-7615
▁ver	-7616
▁złapać	-7617
▁Chociaż	-7618
▁summer	-7619
gging	-7620
▁file	-7621
▁itself	-7622
tą	-7623
▁pet	-7624
▁postawi	-7625
▁mountain	-7626
▁Ich	-7627
▁bow	-7628
▁doros	-7629
▁moglibyśmy	-7630
▁code	-7631
▁król	-7632
▁Facet	-7633
▁above	-7634
▁kawałek	-7635
▁najlepiej	-7636
amb	-7637
▁Zde	-7638
amtąd	-7639
iment	-7640
▁myślą	-7641
▁dostał	-7642
▁Wysokość	-7643
wnętrz	-7644
inę	-7645
omer	-7646
▁Fa	-7647
▁Księ	-7648
▁urzą	-7649
▁ostrze	-7650
lady	-7651
▁North	-7652
▁butel	-7653
▁prakty	-7654
▁BUT	-7655
▁Sama	-7656
▁reas	-7657
obę	-7658
ktora	-7659
rend	-7660
▁psa	-7661
▁ghost	-7662
▁weapons	-7663
▁conversation	-7664
▁gotowi	-7665
▁Być	-7666
▁dick	-7667
▁terror	-7668
▁following	-7669
▁łóżku	-7670
▁wracać	-7671
▁ang	-7672
▁Maria	-7673
▁keeps	-7674
▁Zaczyn	-7675
▁występ	-7676
▁Jackson	-7677
▁momencie	-7678
▁przyszłość	-7679
illi	-7680
ender	-7681
▁wild	-7682
▁przyt	-7683
ips	-7684
▁FR	-7685
bry	-7686
▁Dun	-7687
▁Gir	-7688
▁abs	-7689
roszę	-7690
ukasz	-7691
▁zaba	-7692
▁Zaczy	-7693
▁Przysię	-7694
pon	-7695
▁Cast	-7696
▁Ład	-7697
▁siły	-7698
▁Który	-7699
▁podło	-7700
▁celebr	-7701
▁mnóstwo	-7702
▁murdered	-7703
▁Gold	-7704
▁wysz	-7705
pire	-7706
▁pray	-7707
▁Poważ	-7708
▁confir	-7709
▁przyznać	-7710
eny	-7711
▁vio	-7712
▁klub	-7713
▁przyprowa	-7714
▁znajdziemy	-7715
▁sna	-7716
▁asshole	-7717
▁znajdziesz	-7718
▁fran	-7719
▁smoke	-7720
▁taste	-7721
▁niedo	-7722
▁speed	-7723
▁path	-7724
▁myślałam	-7725
▁2:	-7726
ette	-7727
though	-7728
▁osoby	-7729
▁wraca	-7730
▁CIA	-7731
▁vac	-7732
staur	-7733
▁note	-7734
łogosła	-7735
AP	-7736
▁Pary	-7737
▁nine	-7738
ishing	-7739
▁restau	-7740
▁scream	-7741
▁Obiecuję	-7742
▁condition	-7743
xy	-7744
▁stage	-7745
▁action	-7746
▁komputer	-7747
▁Alan	-7748
▁Lily	-7749
▁Ka	-7750
▁design	-7751
▁Chciałam	-7752
▁Cut	-7753
lling	-7754
▁Doesn	-7755
▁robotę	-7756
▁kontakt	-7757
atrz	-7758
dziwi	-7759
▁fakt	-7760
▁samą	-7761
▁śniad	-7762
▁związku	-7763
▁magi	-7764
▁plant	-7765
▁wszel	-7766
▁uwielbi	-7767
▁gotów	-7768
▁zdobyć	-7769
▁popular	-7770
▁Bry	-7771
▁Dis	-7772
▁rent	-7773
▁próbuje	-7774
▁Nor	-7775
▁upad	-7776
▁Find	-7777
▁speaking	-7778
▁Wspaniale	-7779
ACK	-7780
bies	-7781
▁Dra	-7782
▁bless	-7783
▁tells	-7784
▁zamierzam	-7785
▁pę	-7786
▁Far	-7787
▁knowing	-7788
śni	-7789
godne	-7790
▁deg	-7791
▁darm	-7792
▁poje	-7793
▁szukać	-7794
▁restaur	-7795
illa	-7796
▁jednost	-7797
czar	-7798
▁breakfast	-7799
▁ostatniej	-7800
abeth	-7801
▁bran	-7802
▁soft	-7803
▁kanap	-7804
▁pewne	-7805
▁chłopiec	-7806
▁wściek	-7807
ack	-7808
top	-7809
yond	-7810
▁choć	-7811
▁cieszę	-7812
▁corner	-7813
▁fas	-7814
▁Hang	-7815
owaniu	-7816
▁pomag	-7817
▁arrived	-7818
▁apologize	-7819
▁80	-7820
cony	-7821
▁limit	-7822
▁cha	-7823
▁Dude	-7824
▁pomyślałem	-7825
ósł	-7826
▁Arth	-7827
▁celu	-7828
▁pist	-7829
▁daddy	-7830
▁moimi	-7831
▁pierwszą	-7832
▁AL	-7833
ofer	-7834
▁matkę	-7835
▁wound	-7836
▁Hanna	-7837
▁zwykle	-7838
▁embarrass	-7839
ZY	-7840
▁ir	-7841
▁znak	-7842
▁układ	-7843
▁Otwórz	-7844
▁military	-7845
awał	-7846
stic	-7847
▁Wię	-7848
▁patrz	-7849
▁horri	-7850
▁poster	-7851
▁hearing	-7852
usion	-7853
ived	-7854
▁Greg	-7855
▁książki	-7856
▁przypom	-7857
▁wielkie	-7858
▁due	-7859
▁chłopca	-7860
▁szybciej	-7861
▁Met	-7862
▁umysł	-7863
▁Probably	-7864
▁$2	-7865
▁panno	-7866
▁jakimś	-7867
▁życiem	-7868
▁brothers	-7869
lar	-7870
lenty	-7871
▁Holy	-7872
▁commu	-7873
▁Steven	-7874
stan	-7875
▁pale	-7876
▁trial	-7877
▁OH	-7878
▁mówiłeś	-7879
▁młoda	-7880
▁zaprosi	-7881
▁pró	-7882
▁held	-7883
▁load	-7884
▁Jenny	-7885
▁Śmiało	-7886
▁uczucie	-7887
void	-7888
▁prince	-7889
▁uważasz	-7890
▁village	-7891
▁Maggie	-7892
▁zobaczę	-7893
▁Musiałem	-7894
▁dry	-7895
▁koleś	-7896
▁Czasem	-7897
▁ciep	-7898
▁Miche	-7899
▁kolejny	-7900
ńczy	-7901
▁among	-7902
▁angie	-7903
▁ofiary	-7904
gami	-7905
▁phys	-7906
▁color	-7907
▁crying	-7908
▁rodziną	-7909
duk	-7910
▁MA	-7911
▁wyl	-7912
▁ocean	-7913
▁streng	-7914
▁male	-7915
▁twoi	-7916
▁awful	-7917
▁raczej	-7918
▁Haw	-7919
▁plot	-7920
▁poszuki	-7921
▁informacji	-7922
▁mieszkanie	-7923
▁enga	-7924
▁rzeczywisto	-7925
▁♫	-7926
atr	-7927
▁chat	-7928
▁maga	-7929
▁kończy	-7930
▁miesiąc	-7931
dych	-7932
▁proces	-7933
onek	-7934
▁Eve	-7935
▁Kit	-7936
▁klat	-7937
▁Pozwo	-7938
pół	-7939
▁vi	-7940
▁bod	-7941
ieni	-7942
▁nor	-7943
▁chodźmy	-7944
▁project	-7945
▁local	-7946
reg	-7947
▁Dro	-7948
▁Moi	-7949
▁wil	-7950
▁Pret	-7951
▁view	-7952
elu	-7953
▁ment	-7954
▁robot	-7955
▁mężczyzną	-7956
cal	-7957
rib	-7958
▁Other	-7959
zm	-7960
▁fill	-7961
▁profession	-7962
▁otrzym	-7963
▁usiąść	-7964
dziliśmy	-7965
▁Sprawdź	-7966
▁lekarza	-7967
ination	-7968
ima	-7969
▁rout	-7970
▁Sounds	-7971
▁bottom	-7972
▁hanging	-7973
▁investigation	-7974
▁Dopóki	-7975
▁Mógłbym	-7976
▁przezna	-7977
▁mózgu	-7978
▁opuszcz	-7979
rate	-7980
▁knife	-7981
▁niczym	-7982
▁Unless	-7983
▁znajdę	-7984
9.	-7985
ground	-7986
▁ciąży	-7987
▁budynku	-7988
▁records	-7989
4.	-7990
ser	-7991
tach	-7992
▁raise	-7993
▁zawod	-7994
▁chę	-7995
▁zazd	-7996
▁Had	-7997
▁pants	-7998
▁Zadzwonię	-7999
▁Gl	-8000
angu	-8001
▁sche	-8002
▁emplo	-8003
▁advice	-8004
▁animal	-8005
▁tł	-8006
pare	-8007
akuje	-8008
▁Wyob	-8009
▁THERE	-8010
▁przyszłości	-8011
▁bezpieczeństwa	-8012
▁SU	-8013
▁boję	-8014
▁Jones	-8015
▁whose	-8016
▁zobaczymy	-8017
▁miły	-8018
alous	-8019
ining	-8020
▁Kore	-8021
▁plus	-8022
▁Julie	-8023
▁zabije	-8024
▁pierwszej	-8025
▁ub	-8026
nosi	-8027
▁prę	-8028
▁taj	-8029
▁Major	-8030
▁umarł	-8031
▁Another	-8032
▁urodziny	-8033
sić	-8034
▁Tru	-8035
▁powt	-8036
▁umar	-8037
▁cous	-8038
▁Zapyt	-8039
...!	-8040
ises	-8041
rymi	-8042
▁rum	-8043
pared	-8044
▁córkę	-8045
▁napisane	-8046
▁ktokolwiek	-8047
▁spie	-8048
▁Laure	-8049
boy	-8050
▁Ku	-8051
▁Colonel	-8052
▁ought	-8053
jest	-8054
ienia	-8055
▁Zdecyd	-8056
▁Pri	-8057
▁Sweet	-8058
▁checked	-8059
law	-8060
▁hig	-8061
imate	-8062
▁Karen	-8063
▁Goodbye	-8064
▁powerful	-8065
▁Art	-8066
▁ear	-8067
ensive	-8068
?!	-8069
anii	-8070
venge	-8071
wiele	-8072
▁swim	-8073
▁coraz	-8074
▁career	-8075
▁Potrzebujesz	-8076
just	-8077
▁Better	-8078
▁wcześnie	-8079
8.	-8080
iach	-8081
eniam	-8082
▁bust	-8083
▁large	-8084
▁breath	-8085
▁engine	-8086
jemy	-8087
▁wyszedł	-8088
▁Hm	-8089
bliż	-8090
▁Jay	-8091
▁sypi	-8092
▁znalez	-8093
▁Przyszedłem	-8094
▁rzą	-8095
▁sour	-8096
▁Wezmę	-8097
▁rodzinie	-8098
▁suddenly	-8099
▁Chciałabym	-8100
nięcie	-8101
▁Brown	-8102
▁Until	-8103
▁stamtąd	-8104
▁realized	-8105
kins	-8106
lid	-8107
▁Załat	-8108
▁Wysoki	-8109
▁Zaczekaj	-8110
▁Kan	-8111
veral	-8112
▁Taylor	-8113
▁ką	-8114
ucky	-8115
▁Rod	-8116
▁chciałeś	-8117
ems	-8118
▁kidna	-8119
puszczam	-8120
▁doczekać	-8121
czką	-8122
▁święt	-8123
gal	-8124
▁postęp	-8125
huh	-8126
▁miałbym	-8127
▁300	-8128
▁Blo	-8129
▁Law	-8130
▁val	-8131
▁Green	-8132
czyliśmy	-8133
▁Byliśmy	-8134
▁correct	-8135
▁Six	-8136
alnej	-8137
▁Czyż	-8138
▁Japan	-8139
▁jakbym	-8140
▁północ	-8141
down	-8142
▁Wiemy	-8143
▁photo	-8144
▁skomp	-8145
▁strat	-8146
▁Wydaje	-8147
▁własną	-8148
▁Poważnie	-8149
wia	-8150
▁ilo	-8151
▁Know	-8152
▁lied	-8153
▁develop	-8154
▁greatest	-8155
▁transport	-8156
6.	-8157
EP	-8158
▁Powodzenia	-8159
▁Down	-8160
▁Taki	-8161
▁odro	-8162
▁Pomóż	-8163
▁Zatrzymaj	-8164
▁najlepszym	-8165
▁ant	-8166
▁Przej	-8167
▁folks	-8168
▁załatwić	-8169
▁LIKE	-8170
▁obser	-8171
▁Ciągle	-8172
▁rozpoz	-8173
▁tamtej	-8174
▁Majesty	-8175
▁excited	-8176
▁zrobili	-8177
▁eff	-8178
▁tape	-8179
▁shows	-8180
▁repres	-8181
wid	-8182
icial	-8183
▁Hope	-8184
▁Rome	-8185
▁lito	-8186
▁meat	-8187
ujecie	-8188
▁minuty	-8189
▁Eh	-8190
▁Eliz	-8191
▁Jakby	-8192
▁Cr	-8193
▁nu	-8194
celle	-8195
ference	-8196
▁Andrew	-8197
▁credit	-8198
▁trzymaj	-8199
IG	-8200
▁Ahh	-8201
▁uwol	-8202
▁ogień	-8203
▁surgery	-8204
▁sky	-8205
▁Sean	-8206
▁Uder	-8207
▁closer	-8208
ukać	-8209
▁ast	-8210
▁Dziw	-8211
owałaś	-8212
▁dziesię	-8213
ejmij	-8214
▁zmusz	-8215
nicę	-8216
▁szuka	-8217
▁fałszy	-8218
▁practice	-8219
▁pude	-8220
▁nature	-8221
aro	-8222
▁Bla	-8223
▁poin	-8224
▁kamer	-8225
▁latach	-8226
▁stories	-8227
▁Mieliśmy	-8228
▁ridiculous	-8229
▁wiz	-8230
asing	-8231
cyjny	-8232
▁THEY	-8233
▁szczęścia	-8234
czeni	-8235
tempt	-8236
wałeś	-8237
▁psychiat	-8238
▁bom	-8239
ration	-8240
▁research	-8241
bil	-8242
limin	-8243
▁prefer	-8244
▁gap	-8245
▁fort	-8246
ontakt	-8247
▁trafi	-8248
kam	-8249
nąłeś	-8250
tna	-8251
▁heavy	-8252
▁każdą	-8253
▁Świat	-8254
▁chicken	-8255
vol	-8256
otte	-8257
▁tuż	-8258
▁buty	-8259
▁dzieciaki	-8260
▁cars	-8261
▁spoke	-8262
▁descri	-8263
gnaj	-8264
nemu	-8265
▁wybór	-8266
▁written	-8267
▁zapomnij	-8268
▁Vegas	-8269
▁zbliż	-8270
▁Pen	-8271
ified	-8272
▁Gary	-8273
▁gentle	-8274
▁taught	-8275
▁przysto	-8276
▁emergency	-8277
▁necessary	-8278
oko	-8279
stood	-8280
▁odbi	-8281
▁rule	-8282
▁Trzym	-8283
koch	-8284
▁Gib	-8285
ached	-8286
▁Pięć	-8287
▁sygn	-8288
itions	-8289
▁planning	-8290
▁bullshit	-8291
sun	-8292
back	-8293
▁Dem	-8294
▁Sur	-8295
▁nud	-8296
miemy	-8297
▁stoi	-8298
▁chodzić	-8299
▁dropped	-8300
▁Niestety	-8301
cil	-8302
owol	-8303
niego	-8304
▁pilot	-8305
cellent	-8306
czko	-8307
▁pozna	-8308
▁letting	-8309
▁numbers	-8310
▁starusz	-8311
▁Pospiesz	-8312
yst	-8313
ault	-8314
ująca	-8315
▁Wierzę	-8316
▁jedyna	-8317
razy	-8318
▁rub	-8319
▁zor	-8320
ających	-8321
▁simply	-8322
ardon	-8323
ctors	-8324
▁reput	-8325
▁Odejdź	-8326
▁strzał	-8327
leci	-8328
▁Plus	-8329
▁nieźle	-8330
▁zrobiłaś	-8331
rzyła	-8332
▁Abby	-8333
▁Jord	-8334
▁Wall	-8335
▁regret	-8336
▁Żartujesz	-8337
stra	-8338
rawied	-8339
▁Sing	-8340
▁ziel	-8341
▁zaczął	-8342
sąd	-8343
▁23	-8344
▁keys	-8345
▁komuś	-8346
▁fucked	-8347
▁leaves	-8348
▁motherfuck	-8349
liar	-8350
źć	-8351
ann	-8352
▁mel	-8353
sem	-8354
ening	-8355
feren	-8356
▁driver	-8357
iera	-8358
▁śnie	-8359
inem	-8360
▁proced	-8361
▁bringing	-8362
▁Ton	-8363
itude	-8364
▁głoś	-8365
▁Helen	-8366
osa	-8367
▁OUT	-8368
▁ped	-8369
▁pogo	-8370
▁prowadzi	-8371
▁department	-8372
▁synem	-8373
▁Police	-8374
▁zdanie	-8375
▁samobój	-8376
▁Gratulacje	-8377
▁Congratulations	-8378
OUT	-8379
chie	-8380
face	-8381
▁animals	-8382
▁powinni	-8383
bud	-8384
▁Okej	-8385
▁brut	-8386
▁Barry	-8387
▁Shall	-8388
▁Ready	-8389
▁osiem	-8390
▁zasad	-8391
▁Nig	-8392
▁includ	-8393
▁papers	-8394
▁słyszę	-8395
oul	-8396
▁doz	-8397
gment	-8398
▁adop	-8399
▁wier	-8400
▁boską	-8401
▁pretend	-8402
liczności	-8403
▁przyszła	-8404
▁character	-8405
airs	-8406
anne	-8407
▁dumb	-8408
▁easier	-8409
▁survive	-8410
▁chief	-8411
▁strength	-8412
▁kurcz	-8413
▁Howard	-8414
▁zasady	-8415
▁mass	-8416
▁zale	-8417
kowego	-8418
▁wolny	-8419
▁asleep	-8420
▁lies	-8421
▁córki	-8422
tki	-8423
▁Charl	-8424
▁wolno	-8425
▁denerw	-8426
▁mówiła	-8427
▁jakbyś	-8428
naję	-8429
▁grę	-8430
▁text	-8431
rzucił	-8432
▁uśmiech	-8433
▁kapitanie	-8434
▁Jin	-8435
▁Dean	-8436
▁crow	-8437
uży	-8438
▁smile	-8439
▁Arthur	-8440
▁neither	-8441
▁spokojnie	-8442
▁Cass	-8443
▁Trust	-8444
▁toast	-8445
What	-8446
▁terr	-8447
▁responsi	-8448
▁biał	-8449
ającego	-8450
ues	-8451
▁słuchać	-8452
fia	-8453
▁Deb	-8454
▁Coun	-8455
▁disc	-8456
▁Thing	-8457
ćmi	-8458
appo	-8459
▁Bie	-8460
▁Val	-8461
▁Zgad	-8462
▁Tre	-8463
▁wis	-8464
▁ener	-8465
▁mózg	-8466
▁otworzyć	-8467
▁detective	-8468
▁cig	-8469
▁copy	-8470
▁Ziemi	-8471
▁dostanę	-8472
▁widziałam	-8473
▁morderstwa	-8474
wiej	-8475
▁Kaz	-8476
▁shame	-8477
▁Professor	-8478
▁1:	-8479
▁UP	-8480
iday	-8481
▁Mex	-8482
▁usta	-8483
▁lepszy	-8484
Ch	-8485
▁poże	-8486
▁beyond	-8487
▁pomaga	-8488
▁Zobaczmy	-8489
▁training	-8490
▁non	-8491
▁Będą	-8492
▁aware	-8493
▁całego	-8494
▁innymi	-8495
▁McG	-8496
alist	-8497
board	-8498
▁Case	-8499
▁trick	-8500
▁noticed	-8501
▁cuk	-8502
,000.	-8503
▁river	-8504
▁przyzn	-8505
▁Vincent	-8506
▁wą	-8507
▁mix	-8508
▁Sund	-8509
▁sword	-8510
▁oby	-8511
▁avoid	-8512
▁starts	-8513
▁szczegól	-8514
▁przyjacielu	-8515
urse	-8516
▁Aha	-8517
nem	-8518
śród	-8519
▁Ojcze	-8520
▁pomiędzy	-8521
▁źród	-8522
▁Próbowałem	-8523
▁powiedziałam	-8524
nera	-8525
▁trój	-8526
▁Chciał	-8527
▁piersi	-8528
▁przyszł	-8529
wan	-8530
▁wet	-8531
▁espe	-8532
▁famous	-8533
▁concerned	-8534
ART	-8535
▁zara	-8536
▁najważ	-8537
▁destroyed	-8538
▁bła	-8539
▁Panno	-8540
▁sierż	-8541
▁wielką	-8542
▁purpose	-8543
▁wytłuma	-8544
west	-8545
▁możecie	-8546
▁świetny	-8547
▁Czę	-8548
▁ign	-8549
lenia	-8550
nimy	-8551
▁bodies	-8552
▁najmniej	-8553
▁Pho	-8554
niony	-8555
▁Pięk	-8556
▁inde	-8557
▁piwo	-8558
▁deter	-8559
▁łodzi	-8560
pher	-8561
▁Roy	-8562
▁Soph	-8563
▁Laura	-8564
▁podró	-8565
czeki	-8566
▁Szczerze	-8567
PP	-8568
ilar	-8569
▁Bart	-8570
▁Angel	-8571
▁siedem	-8572
▁complic	-8573
▁especially	-8574
llig	-8575
▁saf	-8576
▁Chłopaki	-8577
▁photogra	-8578
endy	-8579
▁znie	-8580
▁Nasze	-8581
▁stara	-8582
▁znajd	-8583
▁wierzysz	-8584
▁następnym	-8585
▁jut	-8586
▁żół	-8587
tny	-8588
reedom	-8589
▁Elizabeth	-8590
ND	-8591
▁listy	-8592
▁wycof	-8593
▁będziecie	-8594
▁biggest	-8595
wany	-8596
▁Więk	-8597
▁sukin	-8598
▁Angeles	-8599
▁Hun	-8600
▁mum	-8601
▁okłam	-8602
▁przyjech	-8603
▁disappear	-8604
awaj	-8605
▁Chryste	-8606
zyg	-8607
ależ	-8608
razić	-8609
stein	-8610
▁Trzeba	-8611
▁damage	-8612
▁scient	-8613
▁wyjdzie	-8614
▁zapomnieć	-8615
▁health	-8616
▁lights	-8617
▁wrócisz	-8618
ruj	-8619
ówka	-8620
ająca	-8621
▁Always	-8622
▁paying	-8623
▁Nowego	-8624
▁cierpi	-8625
▁restaurant	-8626
lls	-8627
▁45	-8628
▁oca	-8629
ładzie	-8630
▁Guess	-8631
▁Julia	-8632
▁chodziło	-8633
▁fizy	-8634
▁Hay	-8635
▁Nowy	-8636
▁disp	-8637
▁flying	-8638
▁pasuje	-8639
fortunately	-8640
iti	-8641
▁90	-8642
▁Ask	-8643
arant	-8644
▁While	-8645
▁szefem	-8646
nior	-8647
▁cli	-8648
under	-8649
▁Queen	-8650
▁Zabie	-8651
▁Śmier	-8652
▁gorzej	-8653
▁intern	-8654
▁onto	-8655
▁poślu	-8656
łuż	-8657
▁SHE	-8658
▁baz	-8659
▁plenty	-8660
▁spojrzeć	-8661
lek	-8662
▁Rę	-8663
▁cywi	-8664
can	-8665
▁alko	-8666
▁inną	-8667
▁inten	-8668
▁prepared	-8669
▁prawdziwa	-8670
ONE	-8671
▁wir	-8672
▁poss	-8673
▁szery	-8674
▁teeth	-8675
▁Pewnego	-8676
▁słyszysz	-8677
▁zniszczyć	-8678
AK	-8679
sek	-8680
▁piz	-8681
cyjne	-8682
▁bleed	-8683
pozy	-8684
▁deb	-8685
▁dogs	-8686
▁activ	-8687
▁kiesz	-8688
▁krzyw	-8689
▁Beth	-8690
▁Ladies	-8691
▁utrzym	-8692
ban	-8693
▁Gil	-8694
▁emoc	-8695
▁statku	-8696
chan	-8697
▁dasz	-8698
▁ujaw	-8699
iction	-8700
▁jedyny	-8701
▁Niektórzy	-8702
▁teor	-8703
▁afford	-8704
▁spread	-8705
▁imprezę	-8706
unkiem	-8707
▁produk	-8708
▁wszech	-8709
▁siostry	-8710
▁zostaniesz	-8711
▁RIGHT	-8712
▁Rze	-8713
▁HERE	-8714
▁loss	-8715
▁ostatnim	-8716
▁Ross	-8717
▁cake	-8718
▁exec	-8719
▁size	-8720
father	-8721
ekt	-8722
ales	-8723
aliście	-8724
▁Dzwoni	-8725
▁legend	-8726
▁krze	-8727
▁linii	-8728
▁sędzi	-8729
▁Except	-8730
▁criminal	-8731
▁zapłacić	-8732
ption	-8733
▁flowers	-8734
▁odebrać	-8735
▁contract	-8736
▁znajdzie	-8737
cieć	-8738
▁Barb	-8739
czniku	-8740
▁Nasza	-8741
▁Tomorrow	-8742
▁Alf	-8743
▁lad	-8744
urance	-8745
wolu	-8746
▁possibly	-8747
tin	-8748
▁iron	-8749
▁Kilka	-8750
▁knock	-8751
▁relat	-8752
▁wspomin	-8753
cise	-8754
▁pool	-8755
▁Start	-8756
▁stolen	-8757
We	-8758
dech	-8759
ific	-8760
▁przysługę	-8761
▁enc	-8762
▁clim	-8763
▁moty	-8764
▁oczek	-8765
▁Chcemy	-8766
▁Without	-8767
▁pójdziemy	-8768
▁Shaw	-8769
▁fake	-8770
▁powią	-8771
▁dziećmi	-8772
▁wspaniały	-8773
nor	-8774
▁Res	-8775
▁Oliver	-8776
▁eksper	-8777
▁science	-8778
▁arrested	-8779
▁zobacz	-8780
▁okropne	-8781
▁Pierwszy	-8782
▁początek	-8783
▁Tran	-8784
▁kawę	-8785
▁lots	-8786
wienie	-8787
▁umrze	-8788
▁zabrał	-8789
▁subject	-8790
▁Port	-8791
▁wymi	-8792
▁heads	-8793
▁Patrick	-8794
▁wspaniałe	-8795
▁Men	-8796
▁zechce	-8797
przy	-8798
▁kolor	-8799
▁rele	-8800
▁matters	-8801
pul	-8802
rzęd	-8803
▁wre	-8804
▁Król	-8805
▁potęż	-8806
▁zastęp	-8807
▁telewizji	-8808
ELL	-8809
rol	-8810
▁Won	-8811
▁zej	-8812
▁balls	-8813
▁games	-8814
▁object	-8815
▁laboratorium	-8816
kali	-8817
owały	-8818
▁Molly	-8819
anki	-8820
▁neg	-8821
▁zmarł	-8822
▁doskon	-8823
▁Wstawaj	-8824
▁disappo	-8825
▁sukinsy	-8826
▁szaleństwo	-8827
erów	-8828
śpie	-8829
▁lekar	-8830
▁Zamierz	-8831
▁Scot	-8832
▁ogło	-8833
▁płak	-8834
▁wyści	-8835
▁monster	-8836
▁zrobienia	-8837
noun	-8838
atory	-8839
cture	-8840
▁truly	-8841
▁Absolutely	-8842
cka	-8843
udź	-8844
adem	-8845
ctwo	-8846
▁lice	-8847
▁toale	-8848
▁przodu	-8849
▁skontakt	-8850
▁Tat	-8851
▁mle	-8852
stant	-8853
▁egz	-8854
▁Widziałam	-8855
torem	-8856
▁ciąg	-8857
▁lift	-8858
▁liście	-8859
rakt	-8860
▁Inte	-8861
▁detektyw	-8862
aled	-8863
▁Jez	-8864
▁bój	-8865
▁Ever	-8866
▁Zauf	-8867
▁appo	-8868
▁Enough	-8869
gen	-8870
ori	-8871
▁created	-8872
▁przyjęcie	-8873
▁znaleźliśmy	-8874
usty	-8875
▁Kir	-8876
▁Mos	-8877
▁Pol	-8878
▁Cour	-8879
▁desk	-8880
▁odwa	-8881
▁older	-8882
▁United	-8883
▁decyzję	-8884
orąc	-8885
▁shirt	-8886
▁poszła	-8887
▁saving	-8888
leph	-8889
▁Pad	-8890
▁Nazywa	-8891
▁nowych	-8892
▁Ź	-8893
ęła	-8894
łoby	-8895
▁mile	-8896
▁wypadku	-8897
▁Sergeant	-8898
▁wt	-8899
astro	-8900
▁Kong	-8901
▁Szczę	-8902
▁sukien	-8903
▁mut	-8904
kowie	-8905
▁silly	-8906
▁awesome	-8907
▁several	-8908
▁upewnić	-8909
łup	-8910
▁Czar	-8911
▁arch	-8912
siadaj	-8913
▁drugim	-8914
▁codzien	-8915
▁pracujesz	-8916
▁kraw	-8917
▁Jedna	-8918
▁Podob	-8919
▁bucks	-8920
▁nowym	-8921
▁pierwszego	-8922
eta	-8923
acie	-8924
▁Tan	-8925
▁operation	-8926
▁skomplikow	-8927
ujmy	-8928
▁pracował	-8929
rzuć	-8930
▁lap	-8931
▁Nowym	-8932
▁dressed	-8933
zing	-8934
▁bronią	-8935
▁chcieli	-8936
▁ge	-8937
kowa	-8938
lach	-8939
▁powiąz	-8940
▁bre	-8941
▁sweetheart	-8942
▁Pół	-8943
▁Rom	-8944
▁czyni	-8945
ujących	-8946
▁Morgan	-8947
▁pierdol	-8948
lika	-8949
▁Rock	-8950
▁krok	-8951
▁vote	-8952
odni	-8953
▁sem	-8954
▁wsa	-8955
dzeniu	-8956
nikami	-8957
▁potrzebować	-8958
OOK	-8959
▁Fire	-8960
▁Gord	-8961
▁clearly	-8962
▁Chodźcie	-8963
żdża	-8964
▁niewi	-8965
▁pozbyć	-8966
▁miejsc	-8967
cts	-8968
▁Old	-8969
▁odpu	-8970
▁opis	-8971
▁wezw	-8972
▁wypi	-8973
▁Bab	-8974
using	-8975
ariusz	-8976
▁musiałem	-8977
▁następny	-8978
▁odzyskać	-8979
▁wast	-8980
▁finding	-8981
▁somehow	-8982
▁painting	-8983
▁split	-8984
▁Przyja	-8985
▁delikat	-8986
▁speł	-8987
▁tatu	-8988
▁zgad	-8989
▁Quick	-8990
▁cześć	-8991
▁horrible	-8992
kać	-8993
▁Hill	-8994
▁dniu	-8995
▁wodę	-8996
▁Washing	-8997
▁oka	-8998
▁świą	-8999
jeżdża	-9000
▁dokon	-9001
▁szpie	-9002
▁regular	-9003
umb	-9004
▁cousin	-9005
▁wielka	-9006
▁indziej	-9007
▁zmęczona	-9008
▁Bied	-9009
▁piękny	-9010
▁turning	-9011
▁1,	-9012
▁Wiele	-9013
▁cards	-9014
▁comfortable	-9015
▁tap	-9016
akcie	-9017
▁heat	-9018
▁Sądzie	-9019
▁zespół	-9020
▁wielkiego	-9021
▁prawdziwym	-9022
iście	-9023
▁Jeżeli	-9024
▁jealous	-9025
▁ended	-9026
▁udowodnić	-9027
HER	-9028
▁None	-9029
▁rzuc	-9030
▁wyzw	-9031
▁mogło	-9032
▁weight	-9033
więc	-9034
riest	-9035
▁Posz	-9036
▁Same	-9037
▁świn	-9038
▁victims	-9039
cko	-9040
eral	-9041
▁DID	-9042
▁defend	-9043
cue	-9044
jęt	-9045
▁World	-9046
▁różne	-9047
▁opinion	-9048
▁occ	-9049
▁Gabrie	-9050
INK	-9051
inese	-9052
▁Morning	-9053
aper	-9054
nęli	-9055
olet	-9056
opie	-9057
sters	-9058
▁Czym	-9059
▁milk	-9060
▁zest	-9061
▁ideas	-9062
▁Znajdź	-9063
▁książkę	-9064
sko	-9065
rett	-9066
▁sacri	-9067
▁Według	-9068
hm	-9069
loe	-9070
▁Lew	-9071
▁traw	-9072
▁Londy	-9073
It	-9074
▁Kolej	-9075
▁póki	-9076
▁Marty	-9077
▁podzie	-9078
kowo	-9079
▁Cud	-9080
▁mecz	-9081
▁roof	-9082
▁pracuję	-9083
omed	-9084
paść	-9085
rech	-9086
▁świetne	-9087
hip	-9088
▁Jackie	-9089
▁wyjaśnić	-9090
bas	-9091
▁zje	-9092
▁repe	-9093
▁agreed	-9094
▁taksów	-9095
zon	-9096
▁Hal	-9097
althy	-9098
▁Amen	-9099
▁beach	-9100
▁crack	-9101
▁obron	-9102
ingers	-9103
▁jeżeli	-9104
▁przerw	-9105
▁invited	-9106
▁wydostać	-9107
▁zostawił	-9108
wając	-9109
▁Jaką	-9110
▁Tędy	-9111
▁bała	-9112
▁skaz	-9113
▁wyglądać	-9114
wu	-9115
bił	-9116
▁gal	-9117
▁stro	-9118
akcept	-9119
▁Sprzed	-9120
▁potrze	-9121
▁osobiście	-9122
▁biur	-9123
▁siedzieć	-9124
koł	-9125
berg	-9126
cząc	-9127
▁Ass	-9128
▁Wat	-9129
▁Santa	-9130
▁cerem	-9131
▁Indian	-9132
.'	-9133
book	-9134
ówkę	-9135
dzone	-9136
▁Gent	-9137
▁golf	-9138
▁deliver	-9139
▁snow	-9140
▁extreme	-9141
▁wyobraż	-9142
▁ostatnich	-9143
ators	-9144
▁małżeń	-9145
▁zachowy	-9146
▁Zaczynamy	-9147
▁Mir	-9148
cenie	-9149
▁Easy	-9150
▁drew	-9151
▁pozwal	-9152
▁chcecie	-9153
AB	-9154
▁WELL	-9155
▁general	-9156
esa	-9157
oon	-9158
▁bry	-9159
▁sne	-9160
▁grown	-9161
▁proof	-9162
▁swoimi	-9163
▁selling	-9164
▁transfer	-9165
▁Fer	-9166
▁Złap	-9167
▁brać	-9168
▁Dobre	-9169
▁current	-9170
▁bó	-9171
rzch	-9172
▁usun	-9173
▁małym	-9174
▁otwie	-9175
▁desper	-9176
▁leader	-9177
▁dowody	-9178
acer	-9179
ekscyt	-9180
ressive	-9181
▁justice	-9182
▁właścicie	-9183
gly	-9184
▁Atl	-9185
rator	-9186
▁Hard	-9187
▁shower	-9188
▁strasznie	-9189
oms	-9190
śred	-9191
▁Sar	-9192
▁Their	-9193
▁Sunday	-9194
▁kochać	-9195
aja	-9196
ival	-9197
rzad	-9198
▁Wró	-9199
▁chest	-9200
▁emotion	-9201
▁okoliczności	-9202
bon	-9203
▁sił	-9204
▁whom	-9205
▁betray	-9206
▁Seriously	-9207
GE	-9208
Th	-9209
ized	-9210
▁sin	-9211
▁oczach	-9212
▁niebezpieczne	-9213
jąc	-9214
iono	-9215
▁Arm	-9216
urday	-9217
▁podstaw	-9218
▁zabierz	-9219
▁lif	-9220
▁Anne	-9221
▁zakup	-9222
stawienie	-9223
▁odcis	-9224
▁przede	-9225
▁zapach	-9226
lęgni	-9227
czności	-9228
▁create	-9229
▁Fucking	-9230
▁otwarte	-9231
▁followed	-9232
▁Czu	-9233
▁kawy	-9234
▁spell	-9235
▁włącz	-9236
▁bright	-9237
never	-9238
owano	-9239
▁butt	-9240
▁serve	-9241
▁Pretty	-9242
▁strate	-9243
▁Kapitanie	-9244
iad	-9245
lon	-9246
▁TR	-9247
iero	-9248
▁dwoje	-9249
▁sprzę	-9250
▁soldiers	-9251
▁Clay	-9252
▁pogrzeb	-9253
▁SP	-9254
alem	-9255
etch	-9256
rzód	-9257
▁dach	-9258
▁taty	-9259
▁threw	-9260
▁States	-9261
▁attempt	-9262
onii	-9263
▁spis	-9264
▁Jesse	-9265
▁tajemni	-9266
▁Mit	-9267
ciety	-9268
▁stars	-9269
waliśmy	-9270
▁intellig	-9271
yfi	-9272
▁Dow	-9273
▁Comp	-9274
▁signal	-9275
▁żyjesz	-9276
▁straszne	-9277
▁pin	-9278
▁mamą	-9279
▁strac	-9280
▁Friday	-9281
▁oszust	-9282
▁football	-9283
▁wak	-9284
niłeś	-9285
▁Można	-9286
▁okres	-9287
▁Marcus	-9288
▁schedu	-9289
▁chłopaka	-9290
oster	-9291
ential	-9292
▁Matthe	-9293
▁beauty	-9294
▁śmieci	-9295
▁sending	-9296
▁założyć	-9297
▁Człowiek	-9298
▁Ren	-9299
▁obi	-9300
▁devil	-9301
▁oczywi	-9302
▁techni	-9303
▁oszczę	-9304
▁strike	-9305
▁wobec	-9306
alności	-9307
▁mogłam	-9308
▁uważam	-9309
▁av	-9310
▁Blue	-9311
▁Cole	-9312
▁Cieka	-9313
illiant	-9314
czyli	-9315
▁oboz	-9316
▁zasa	-9317
▁Nathan	-9318
▁Proble	-9319
▁accomp	-9320
▁księży	-9321
▁meaning	-9322
▁Przysięgam	-9323
▁dumny	-9324
▁dating	-9325
▁lately	-9326
▁property	-9327
▁Absolutnie	-9328
dko	-9329
▁BR	-9330
▁Pope	-9331
▁Mommy	-9332
▁przeszłości	-9333
▁block	-9334
▁fortu	-9335
IND	-9336
▁ski	-9337
▁warte	-9338
▁miałby	-9339
▁twoimi	-9340
▁Większość	-9341
▁cream	-9342
▁recognize	-9343
▁Air	-9344
▁Charlotte	-9345
▁Sid	-9346
ipped	-9347
▁Lucas	-9348
ałby	-9349
▁pred	-9350
▁Takie	-9351
▁insane	-9352
▁przyję	-9353
▁trad	-9354
▁Miała	-9355
▁długi	-9356
▁wydaw	-9357
▁głupia	-9358
pit	-9359
▁ends	-9360
▁langu	-9361
identyfi	-9362
▁wiedziałeś	-9363
▁przegap	-9364
rel	-9365
▁staje	-9366
▁kierunku	-9367
anks	-9368
ruit	-9369
▁Sum	-9370
▁gosp	-9371
▁miła	-9372
▁powtó	-9373
▁podróży	-9374
cząć	-9375
ires	-9376
▁zawi	-9377
▁wierzyć	-9378
anu	-9379
▁gig	-9380
▁net	-9381
▁połą	-9382
pośred	-9383
▁hurts	-9384
▁umowę	-9385
▁koszul	-9386
▁badania	-9387
▁powiedzieli	-9388
▁bite	-9389
▁gotowe	-9390
pliwości	-9391
▁Chinese	-9392
▁okolicy	-9393
▁zeszłej	-9394
▁believed	-9395
▁podziękować	-9396
▁ah	-9397
▁Life	-9398
▁nowo	-9399
▁pełne	-9400
▁Pieprz	-9401
▁failed	-9402
▁reszta	-9403
▁zaofer	-9404
▁connection	-9405
▁krwa	-9406
▁Zajmę	-9407
▁zarob	-9408
▁borrow	-9409
▁trudno	-9410
▁podekscyt	-9411
▁row	-9412
kowej	-9413
▁center	-9414
▁eki	-9415
▁loud	-9416
▁nearly	-9417
▁zadowol	-9418
▁communic	-9419
▁wiedziałam	-9420
▁Yu	-9421
▁Bull	-9422
▁asyst	-9423
czonych	-9424
▁pieces	-9425
▁wsch	-9426
▁szefa	-9427
eds	-9428
iod	-9429
▁uzn	-9430
▁charm	-9431
▁issue	-9432
▁brave	-9433
▁oficj	-9434
▁wygrać	-9435
▁disappeared	-9436
EAH	-9437
▁Sally	-9438
▁queen	-9439
tej	-9440
▁sed	-9441
▁Niep	-9442
▁WANT	-9443
▁Bruce	-9444
▁Zróbmy	-9445
▁hardly	-9446
▁manager	-9447
cert	-9448
▁stanow	-9449
▁Panowie	-9450
▁nowhere	-9451
iła	-9452
ocy	-9453
▁fle	-9454
▁Quin	-9455
▁sate	-9456
▁Ricky	-9457
▁trzyma	-9458
▁wysłać	-9459
czep	-9460
▁klien	-9461
▁towards	-9462
kes	-9463
▁AR	-9464
boko	-9465
▁Wyp	-9466
▁języ	-9467
▁ofer	-9468
▁zgubi	-9469
▁prokur	-9470
▁wierzy	-9471
▁Officer	-9472
▁Washington	-9473
ppy	-9474
atyw	-9475
amond	-9476
▁Robię	-9477
▁deszcz	-9478
▁mieszkania	-9479
czes	-9480
▁Gun	-9481
san	-9482
▁Ev	-9483
▁okno	-9484
▁ścig	-9485
▁wojna	-9486
ela	-9487
rócz	-9488
▁Terry	-9489
▁siedzi	-9490
▁Johnson	-9491
▁Pamiętaj	-9492
ramy	-9493
▁Dwie	-9494
▁Sant	-9495
▁pomóż	-9496
▁sumie	-9497
▁lekarzem	-9498
sell	-9499
▁lone	-9500
▁Parker	-9501
▁forgotten	-9502
▁problemów	-9503
▁piw	-9504
▁lewo	-9505
▁Katie	-9506
▁według	-9507
▁perfectly	-9508
▁GOT	-9509
▁Sub	-9510
ients	-9511
▁Play	-9512
▁Rand	-9513
▁karty	-9514
▁slept	-9515
▁Ciężko	-9516
▁czasach	-9517
▁współprac	-9518
▁czuć	-9519
▁wasze	-9520
anny	-9521
ałóż	-9522
▁Squ	-9523
▁Pick	-9524
▁cock	-9525
▁ubezpie	-9526
krę	-9527
hold	-9528
▁Chloe	-9529
▁Marga	-9530
▁plany	-9531
▁dolców	-9532
▁discovered	-9533
▁ły	-9534
▁thro	-9535
▁Mówią	-9536
▁wojnę	-9537
▁ticket	-9538
▁members	-9539
ided	-9540
▁ubr	-9541
derer	-9542
▁stom	-9543
▁Saturday	-9544
▁Hollywood	-9545
▁Bor	-9546
▁pud	-9547
lenge	-9548
▁Doug	-9549
▁pułap	-9550
▁suger	-9551
▁breathe	-9552
▁example	-9553
▁policjant	-9554
LA	-9555
irur	-9556
▁una	-9557
▁Head	-9558
▁babe	-9559
▁nakaz	-9560
▁Jordan	-9561
▁Szukam	-9562
ekty	-9563
▁Aunt	-9564
▁niesp	-9565
▁storm	-9566
▁Życie	-9567
mail	-9568
▁nuts	-9569
▁ponie	-9570
fit	-9571
nies	-9572
▁Osz	-9573
▁Tęsk	-9574
▁YEAH	-9575
▁lust	-9576
▁Odłóż	-9577
▁pułkow	-9578
▁niedługo	-9579
alie	-9580
ctwa	-9581
▁pou	-9582
ashion	-9583
ulation	-9584
▁litość	-9585
vant	-9586
▁Las	-9587
▁akta	-9588
▁faster	-9589
▁potrwa	-9590
▁199	-9591
▁Andre	-9592
▁Przysz	-9593
▁forced	-9594
▁lekarz	-9595
▁received	-9596
▁śmiertel	-9597
▁rough	-9598
▁sporo	-9599
ike	-9600
łasz	-9601
gland	-9602
▁gówna	-9603
▁narzę	-9604
▁małego	-9605
▁mojemu	-9606
▁Prawdzi	-9607
▁Gru	-9608
▁Both	-9609
▁oczu	-9610
kaliśmy	-9611
▁Wyciąg	-9612
▁uczucia	-9613
▁Zadzwoni	-9614
▁universe	-9615
"!	-9616
jazd	-9617
▁anty	-9618
▁yo	-9619
asha	-9620
▁Ari	-9621
▁Honor	-9622
▁listę	-9623
▁różnych	-9624
▁rozmawialiśmy	-9625
waga	-9626
▁termin	-9627
▁słodkie	-9628
▁earn	-9629
▁barely	-9630
▁zamknąć	-9631
▁problemu	-9632
▁czyn	-9633
terech	-9634
▁atmos	-9635
▁contain	-9636
▁Ky	-9637
▁Tem	-9638
ajemy	-9639
▁Prom	-9640
▁najp	-9641
▁represent	-9642
▁innej	-9643
▁France	-9644
hoo	-9645
kową	-9646
▁chi	-9647
▁kół	-9648
▁loose	-9649
▁ślady	-9650
▁Przynieś	-9651
▁dziewczynka	-9652
▁Dowie	-9653
▁Europe	-9654
▁Wilson	-9655
▁oświad	-9656
▁Mek	-9657
▁Bierz	-9658
▁odwoł	-9659
▁assume	-9660
▁suicide	-9661
▁dostałem	-9662
▁prysz	-9663
▁wcale	-9664
▁ostatnią	-9665
▁responsibility	-9666
▁NOW	-9667
▁alien	-9668
▁dziel	-9669
▁paint	-9670
▁Things	-9671
▁movies	-9672
▁Wkrótce	-9673
▁release	-9674
liwa	-9675
owymi	-9676
rzuca	-9677
▁Minister	-9678
pes	-9679
kowym	-9680
lence	-9681
▁Niem	-9682
vation	-9683
owanych	-9684
▁wiedzieli	-9685
▁bzdu	-9686
▁Betty	-9687
▁lines	-9688
▁pomyśleć	-9689
obby	-9690
▁Bay	-9691
▁Czyt	-9692
▁Czyli	-9693
▁Island	-9694
▁speech	-9695
▁odpowiad	-9696
▁recently	-9697
rig	-9698
aila	-9699
▁Dod	-9700
▁Mas	-9701
▁Mont	-9702
▁autom	-9703
intment	-9704
▁byłaby	-9705
óp	-9706
gnę	-9707
▁Najlep	-9708
▁myślał	-9709
▁bedroom	-9710
▁monitor	-9711
▁lun	-9712
▁złym	-9713
▁Macie	-9714
▁operacji	-9715
▁zadziała	-9716
▁Lat	-9717
▁Care	-9718
▁skle	-9719
▁bezpośred	-9720
czo	-9721
▁Aby	-9722
▁boga	-9723
▁ours	-9724
▁Marie	-9725
▁króla	-9726
▁north	-9727
▁Calm	-9728
▁Lois	-9729
▁Zapła	-9730
▁crowd	-9731
▁German	-9732
▁opened	-9733
▁śmiercią	-9734
ras	-9735
▁Mid	-9736
▁oil	-9737
▁rot	-9738
▁domy	-9739
▁rach	-9740
▁likely	-9741
▁member	-9742
▁katastro	-9743
bal	-9744
▁tch	-9745
dzają	-9746
▁breaking	-9747
And	-9748
▁arg	-9749
zyden	-9750
▁tren	-9751
▁wash	-9752
▁ABOUT	-9753
▁uważa	-9754
▁safety	-9755
ERS	-9756
etu	-9757
▁Ye	-9758
▁Chan	-9759
▁garn	-9760
▁rado	-9761
▁stóp	-9762
▁terrory	-9763
▁pochodzi	-9764
▁community	-9765
ingo	-9766
▁Dasz	-9767
vision	-9768
▁Grant	-9769
▁dancing	-9770
▁przyszłaś	-9771
▁przyszłym	-9772
▁IF	-9773
▁Eth	-9774
▁Wst	-9775
▁śmi	-9776
▁rozmowę	-9777
load	-9778
okes	-9779
▁suck	-9780
▁wave	-9781
▁uszko	-9782
▁zmienia	-9783
▁dała	-9784
▁sees	-9785
lities	-9786
▁Tyler	-9787
▁abandon	-9788
eb	-9789
stal	-9790
▁outta	-9791
▁żaden	-9792
▁Więcej	-9793
▁usłysz	-9794
▁Podczas	-9795
▁secrets	-9796
▁wszystkimi	-9797
łej	-9798
▁Pora	-9799
▁zabawy	-9800
itiz	-9801
ałych	-9802
▁partic	-9803
▁familiar	-9804
▁małżeństwo	-9805
onsie	-9806
▁Casey	-9807
▁bawić	-9808
▁usual	-9809
▁używać	-9810
▁własnej	-9811
▁ostatnia	-9812
▁Tech	-9813
▁dise	-9814
▁Virgin	-9815
▁caused	-9816
▁signed	-9817
▁stayed	-9818
▁wywiad	-9819
UM	-9820
erp	-9821
ett	-9822
▁Gro	-9823
▁Mia	-9824
mother	-9825
▁widok	-9826
▁ochrony	-9827
▁Bost	-9828
▁Cool	-9829
▁Pana	-9830
▁Jacob	-9831
▁własnego	-9832
ślij	-9833
▁Phili	-9834
▁rękach	-9835
▁freedom	-9836
▁attacked	-9837
▁Ut	-9838
▁Chin	-9839
▁organ	-9840
▁pudeł	-9841
▁patrzy	-9842
▁Pracuję	-9843
▁drużyny	-9844
▁Zaz	-9845
▁les	-9846
▁Germ	-9847
▁królow	-9848
hand	-9849
ians	-9850
▁Aud	-9851
▁coin	-9852
▁zasz	-9853
gement	-9854
▁kapel	-9855
▁ojcze	-9856
▁reality	-9857
▁skurwie	-9858
▁skrzywdzić	-9859
▁Powiedziałam	-9860
▁Iz	-9861
żyłem	-9862
▁zapis	-9863
▁Przynios	-9864
▁1.	-9865
ierd	-9866
uszą	-9867
▁accus	-9868
▁bratem	-9869
▁rozczar	-9870
czce	-9871
▁Dos	-9872
▁Udało	-9873
▁prawdy	-9874
▁studia	-9875
▁kradzie	-9876
gust	-9877
▁buried	-9878
idy	-9879
▁Upew	-9880
▁ruszać	-9881
▁whoever	-9882
▁przyszedłem	-9883
▁cab	-9884
▁fot	-9885
ograf	-9886
▁inna	-9887
▁zrobiliśmy	-9888
rid	-9889
▁Fil	-9890
▁admi	-9891
▁ordered	-9892
▁publicz	-9893
▁zabezpie	-9894
▁Cli	-9895
▁finans	-9896
▁letters	-9897
ios	-9898
rated	-9899
▁Trud	-9900
▁kredy	-9901
▁pusty	-9902
▁total	-9903
▁bridge	-9904
acją	-9905
▁Kłam	-9906
▁Byłaś	-9907
▁wyląd	-9908
▁ustawi	-9909
▁rozmowy	-9910
▁przynios	-9911
▁Odw	-9912
▁fry	-9913
isters	-9914
▁brief	-9915
▁głowa	-9916
▁zasię	-9917
▁wracaj	-9918
uni	-9919
▁cu	-9920
tego	-9921
owiec	-9922
▁enter	-9923
▁mężem	-9924
▁zasłu	-9925
▁Joseph	-9926
▁ograni	-9927
▁stomach	-9928
▁.	-9929
wyt	-9930
▁Uk	-9931
owny	-9932
▁dram	-9933
▁goin	-9934
▁kory	-9935
cement	-9936
▁wiecie	-9937
▁unit	-9938
▁Odsuń	-9939
▁fright	-9940
▁oficer	-9941
▁location	-9942
▁official	-9943
▁spotkania	-9944
icy	-9945
▁Pil	-9946
▁zbi	-9947
kaliz	-9948
▁bang	-9949
pienia	-9950
▁legal	-9951
▁oddać	-9952
▁liceum	-9953
▁pięciu	-9954
▁70	-9955
▁Les	-9956
▁ille	-9957
▁Byłoby	-9958
▁incredible	-9959
gent	-9960
▁Męż	-9961
liday	-9962
tered	-9963
▁gość	-9964
▁Jamie	-9965
▁bycia	-9966
▁uwagi	-9967
▁facetów	-9968
▁challenge	-9969
▁35	-9970
▁198	-9971
▁Miej	-9972
▁sześ	-9973
onsieur	-9974
▁zostali	-9975
▁expected	-9976
▁Powiedziałaś	-9977
▁pol	-9978
essed	-9979
▁hors	-9980
▁staff	-9981
▁artist	-9982
▁randkę	-9983
He	-9984
ICK	-9985
zienie	-9986
oży	-9987
tek	-9988
▁AM	-9989
▁kamp	-9990
▁announ	-9991
▁sweetie	-9992
▁Acc	-9993
▁bum	-9994
▁theory	-9995
▁śniadanie	-9996
▁CO	-9997
omen	-9998
rict	-9999
▁Again	-10000
▁metal	-10001
uss	-10002
bern	-10003
what	-10004
▁cares	-10005
▁działać	-10006
IST	-10007
▁Ji	-10008
vert	-10009
▁REA	-10010
▁idą	-10011
▁south	-10012
▁zabiję	-10013
▁Żegnaj	-10014
▁expecting	-10015
asu	-10016
śmi	-10017
itar	-10018
rong	-10019
▁hur	-10020
hetic	-10021
żenie	-10022
▁Bern	-10023
▁kinda	-10024
▁pocket	-10025
▁przywód	-10026
▁śmieszne	-10027
▁Doktor	-10028
▁błogosła	-10029
arty	-10030
ties	-10031
▁HOW	-10032
▁Nik	-10033
▁dołą	-10034
▁page	-10035
▁zanie	-10036
owaniem	-10037
▁słodki	-10038
▁szczerze	-10039
▁introduce	-10040
▁Ol	-10041
cting	-10042
ements	-10043
▁zajmę	-10044
▁showing	-10045
ige	-10046
encji	-10047
▁nons	-10048
▁Donna	-10049
▁pocią	-10050
▁explos	-10051
▁England	-10052
łość	-10053
fered	-10054
▁Nate	-10055
▁dwój	-10056
versity	-10057
▁romans	-10058
▁sprzedać	-10059
▁zaakcept	-10060
ains	-10061
pril	-10062
łowa	-10063
▁Taa	-10064
▁behav	-10065
▁buying	-10066
▁dealing	-10067
▁bezpieczna	-10068
ex	-10069
▁rą	-10070
niam	-10071
▁łódź	-10072
▁Miami	-10073
▁Cooper	-10074
▁cheese	-10075
▁circum	-10076
▁DE	-10077
▁30.	-10078
▁utk	-10079
▁wóz	-10080
kanie	-10081
▁Work	-10082
▁pill	-10083
▁córką	-10084
▁finds	-10085
▁szukasz	-10086
pią	-10087
łoni	-10088
place	-10089
▁spokoj	-10090
▁uspoko	-10091
gia	-10092
▁Id	-10093
▁tie	-10094
▁data	-10095
▁wśród	-10096
▁original	-10097
zj	-10098
▁dev	-10099
▁Tyle	-10100
▁jury	-10101
▁liczy	-10102
▁Ojciec	-10103
▁francus	-10104
▁przysięg	-10105
▁Ki	-10106
▁Ide	-10107
▁żył	-10108
▁magn	-10109
▁zezn	-10110
▁śred	-10111
▁cases	-10112
▁kłopotów	-10113
Co	-10114
▁ate	-10115
▁cos	-10116
▁cheer	-10117
▁mirac	-10118
▁pokry	-10119
▁brings	-10120
▁falling	-10121
▁Catherine	-10122
▁najlepszego	-10123
▁woda	-10124
▁details	-10125
▁stracić	-10126
▁ep	-10127
▁bol	-10128
▁nikim	-10129
▁parts	-10130
▁bliżej	-10131
▁czasów	-10132
▁social	-10133
▁niegrze	-10134
▁Uro	-10135
▁kod	-10136
niona	-10137
▁Zjedno	-10138
▁rozsąd	-10139
▁ładnie	-10140
▁wchodzi	-10141
▁chciałby	-10142
▁wyciągnąć	-10143
▁zbie	-10144
▁dotar	-10145
▁wezmę	-10146
▁effort	-10147
▁utrzymać	-10148
▁możliwości	-10149
ggy	-10150
gach	-10151
know	-10152
mana	-10153
▁Feder	-10154
orów	-10155
▁flu	-10156
ilies	-10157
▁gwał	-10158
▁pens	-10159
▁nation	-10160
▁sklepu	-10161
▁opuścić	-10162
bot	-10163
aged	-10164
born	-10165
▁log	-10166
▁vam	-10167
vable	-10168
▁Buck	-10169
▁Coll	-10170
▁Został	-10171
▁nieleg	-10172
▁dziwnego	-10173
ZE	-10174
▁HIM	-10175
▁ojcu	-10176
▁Zabra	-10177
▁Edward	-10178
▁zabawa	-10179
▁§	-10180
▁Taka	-10181
▁bile	-10182
▁obli	-10183
▁sali	-10184
▁April	-10185
▁convin	-10186
▁pić	-10187
▁Źle	-10188
▁kasy	-10189
▁Night	-10190
▁wkurz	-10191
▁distur	-10192
▁wybrać	-10193
▁Tonight	-10194
▁returned	-10195
▁neighborhood	-10196
bell	-10197
▁Hor	-10198
▁oraz	-10199
▁strz	-10200
▁hired	-10201
▁favour	-10202
▁neighb	-10203
▁funeral	-10204
met	-10205
ching	-10206
▁wers	-10207
▁biuro	-10208
osi	-10209
▁cof	-10210
▁san	-10211
▁began	-10212
▁zostanę	-10213
▁zobaczyłem	-10214
▁rzeczywistości	-10215
imi	-10216
▁Rzuć	-10217
▁Jedno	-10218
▁oczeki	-10219
▁nigdzie	-10220
▁Christian	-10221
▁Zabaw	-10222
▁przyd	-10223
▁przekonać	-10224
trze	-10225
▁ląd	-10226
▁tore	-10227
▁ugly	-10228
▁Lubisz	-10229
▁papier	-10230
▁However	-10231
▁Idziesz	-10232
bum	-10233
mii	-10234
▁pir	-10235
▁veh	-10236
nifer	-10237
▁doin	-10238
▁Meksy	-10239
▁księżni	-10240
gro	-10241
▁Joy	-10242
▁gre	-10243
wienia	-10244
▁Witamy	-10245
▁ostate	-10246
▁umiejęt	-10247
fin	-10248
uta	-10249
▁Brook	-10250
▁Stone	-10251
▁druga	-10252
▁insist	-10253
▁Clo	-10254
▁tit	-10255
▁Wielki	-10256
▁Pierdol	-10257
▁heading	-10258
▁opening	-10259
▁murderer	-10260
▁czynienia	-10261
óre	-10262
▁głęb	-10263
czność	-10264
▁Dokąd	-10265
▁Madame	-10266
▁lonely	-10267
▁answers	-10268
▁covered	-10269
▁ubrania	-10270
▁mail	-10271
▁role	-10272
▁zero	-10273
▁genius	-10274
▁głodny	-10275
▁priest	-10276
▁zmieniło	-10277
anek	-10278
usia	-10279
wana	-10280
łabym	-10281
▁State	-10282
▁przypadku	-10283
liłem	-10284
▁Cała	-10285
▁mary	-10286
▁Szefie	-10287
▁amount	-10288
▁Leonard	-10289
▁anti	-10290
▁jakich	-10291
▁baseball	-10292
▁students	-10293
▁Apparently	-10294
fo	-10295
omm	-10296
Jest	-10297
▁stre	-10298
▁ładna	-10299
▁religi	-10300
▁complicated	-10301
▁Jew	-10302
▁Pull	-10303
▁adwo	-10304
▁mimo	-10305
▁Carlos	-10306
▁Harvey	-10307
▁fingers	-10308
▁przeprosi	-10309
enci	-10310
gryz	-10311
illed	-10312
ięcie	-10313
▁dobrych	-10314
▁opowiad	-10315
waniu	-10316
▁nieba	-10317
dzeniem	-10318
▁zaufać	-10319
▁łazien	-10320
▁nazwiska	-10321
tyn	-10322
remy	-10323
▁Cas	-10324
▁Sek	-10325
obrze	-10326
▁whis	-10327
▁sukces	-10328
▁handsome	-10329
▁gentleman	-10330
▁powierzch	-10331
▁jaja	-10332
▁porów	-10333
▁Mówiłeś	-10334
▁goodbye	-10335
▁powtarz	-10336
▁Margaret	-10337
▁crit	-10338
▁odleg	-10339
▁starego	-10340
▁tim	-10341
▁coat	-10342
▁funk	-10343
▁link	-10344
▁banku	-10345
▁harder	-10346
▁Kontynu	-10347
▁guarant	-10348
▁poprzed	-10349
▁prowadzić	-10350
▁słyszałeś	-10351
pij	-10352
▁Heh	-10353
▁Face	-10354
▁emery	-10355
▁sądzie	-10356
▁potrzeby	-10357
erzy	-10358
ites	-10359
rząc	-10360
unny	-10361
▁Kol	-10362
▁Wuj	-10363
▁ryzyk	-10364
ailable	-10365
▁language	-10366
▁statement	-10367
fu	-10368
wane	-10369
▁lod	-10370
▁Czerw	-10371
▁doors	-10372
▁Hannah	-10373
opy	-10374
▁map	-10375
▁zjad	-10376
działu	-10377
▁konia	-10378
▁Mężczy	-10379
▁obrzyd	-10380
▁wyjątkiem	-10381
▁Tw	-10382
owaną	-10383
▁streets	-10384
▁potrafię	-10385
alaj	-10386
▁Sad	-10387
▁Zgo	-10388
dziło	-10389
▁Zachow	-10390
▁points	-10391
▁British	-10392
▁zostaje	-10393
▁samochod	-10394
hu	-10395
▁gę	-10396
▁Bell	-10397
▁reve	-10398
▁rozw	-10399
▁Rebec	-10400
▁wyniki	-10401
▁laughing	-10402
▁wyglądają	-10403
▁najlepszych	-10404
▁Ap	-10405
ager	-10406
cies	-10407
czeć	-10408
racja	-10409
puścić	-10410
▁brzuch	-10411
▁Zrozumiałem	-10412
▁prin	-10413
▁rzad	-10414
owanym	-10415
▁device	-10416
▁przykry	-10417
▁powietrze	-10418
oted	-10419
▁ryb	-10420
▁River	-10421
▁niewy	-10422
▁Zaufaj	-10423
▁własny	-10424
▁Przypuszczam	-10425
'.	-10426
lot	-10427
pre	-10428
ague	-10429
lene	-10430
▁Soon	-10431
▁ruin	-10432
▁runs	-10433
▁female	-10434
▁mistrz	-10435
▁południu	-10436
INE	-10437
szył	-10438
▁site	-10439
▁Light	-10440
▁prędko	-10441
▁Zatrzym	-10442
▁memories	-10443
▁Commander	-10444
gło	-10445
sły	-10446
▁Zabij	-10447
▁funtów	-10448
▁promie	-10449
▁charges	-10450
▁chłopców	-10451
żeni	-10452
▁baw	-10453
▁fate	-10454
▁kons	-10455
▁okre	-10456
▁domem	-10457
▁wyjścia	-10458
Oh	-10459
oryt	-10460
▁Były	-10461
▁zmiany	-10462
▁thoughts	-10463
▁LE	-10464
▁LO	-10465
angaż	-10466
▁tiny	-10467
▁scare	-10468
▁solid	-10469
▁Gotowa	-10470
▁sooner	-10471
▁asystent	-10472
encj	-10473
▁rab	-10474
radzi	-10475
▁Tata	-10476
▁gate	-10477
▁tong	-10478
▁zamy	-10479
▁decyzja	-10480
▁powinny	-10481
▁zastrze	-10482
▁mentioned	-10483
▁prawdziwą	-10484
▁Zm	-10485
▁Pau	-10486
nięcia	-10487
▁singing	-10488
ownik	-10489
▁Brak	-10490
▁gnie	-10491
▁herb	-10492
▁posił	-10493
▁wheel	-10494
▁chłopcem	-10495
▁Afr	-10496
▁Kay	-10497
▁cenę	-10498
▁rana	-10499
▁based	-10500
▁Wczoraj	-10501
▁próbuję	-10502
▁reasons	-10503
▁Gów	-10504
▁Póź	-10505
▁pit	-10506
wiaty	-10507
▁Mond	-10508
▁spok	-10509
▁drinks	-10510
▁results	-10511
▁obiad	-10512
▁Gordon	-10513
▁drugiego	-10514
king	-10515
▁wyle	-10516
▁opiek	-10517
▁stone	-10518
▁woods	-10519
▁divorce	-10520
▁słyszeć	-10521
▁zgodnie	-10522
▁Dire	-10523
▁aktyw	-10524
▁magazy	-10525
▁medicine	-10526
▁Zwłaszcza	-10527
▁postanowi	-10528
OY	-10529
▁sexy	-10530
▁dźwięk	-10531
ador	-10532
▁Def	-10533
▁Lex	-10534
▁insurance	-10535
▁znaczenie	-10536
ESS	-10537
▁ONE	-10538
▁Set	-10539
▁tun	-10540
▁Boss	-10541
▁tysiące	-10542
▁chciałaś	-10543
essa	-10544
jawi	-10545
karz	-10546
▁Amanda	-10547
▁director	-10548
▁niektórzy	-10549
▁znalazłeś	-10550
▁GU	-10551
▁TM	-10552
▁fre	-10553
▁Blake	-10554
▁suspi	-10555
▁rights	-10556
▁cigaret	-10557
No	-10558
asi	-10559
▁HER	-10560
▁Kid	-10561
nific	-10562
▁łatwe	-10563
▁Secret	-10564
▁Frankie	-10565
▁jedynie	-10566
▁wygry	-10567
▁faceci	-10568
▁Kobieta	-10569
▁professional	-10570
olat	-10571
▁vers	-10572
▁online	-10573
▁wymaga	-10574
▁głęboko	-10575
▁Although	-10576
▁ANY	-10577
▁nóż	-10578
▁hunt	-10579
▁mamę	-10580
▁słońca	-10581
▁Woo	-10582
▁mic	-10583
▁3:	-10584
▁Ri	-10585
onia	-10586
▁Home	-10587
▁Urat	-10588
nijcie	-10589
▁revol	-10590
▁Anyone	-10591
▁bałagan	-10592
▁zadział	-10593
▁Cof	-10594
▁WHO	-10595
▁Free	-10596
owiada	-10597
▁sercu	-10598
▁trade	-10599
rona	-10600
▁Cos	-10601
▁bok	-10602
▁Shin	-10603
▁język	-10604
▁kuzyn	-10605
▁changes	-10606
▁którymi	-10607
ades	-10608
▁zbad	-10609
▁elder	-10610
▁ignor	-10611
fection	-10612
▁uciekł	-10613
onem	-10614
town	-10615
▁Pok	-10616
▁Siost	-10617
▁kwiat	-10618
▁noise	-10619
▁doctors	-10620
.?	-10621
▁Aut	-10622
▁Jeremy	-10623
▁nights	-10624
▁poświę	-10625
▁Nope	-10626
▁mole	-10627
▁tall	-10628
▁gradu	-10629
▁motor	-10630
▁ID	-10631
ffin	-10632
owca	-10633
▁Todd	-10634
▁boisz	-10635
▁podat	-10636
▁artyku	-10637
▁dziwnie	-10638
▁Przecież	-10639
cra	-10640
▁Chcą	-10641
▁Połóż	-10642
▁headed	-10643
szne	-10644
▁WOR	-10645
▁obiet	-10646
ciliśmy	-10647
▁indeed	-10648
łać	-10649
▁RE	-10650
ściu	-10651
▁pair	-10652
szenia	-10653
▁Ciekawe	-10654
▁zajmuje	-10655
▁zapomin	-10656
▁grew	-10657
▁staw	-10658
▁odbie	-10659
▁remem	-10660
▁easily	-10661
▁Russian	-10662
oked	-10663
wień	-10664
▁mir	-10665
▁Papa	-10666
▁Dopiero	-10667
▁Stephen	-10668
00.	-10669
aches	-10670
▁jobs	-10671
ologii	-10672
▁obvious	-10673
▁weather	-10674
▁uj	-10675
▁gat	-10676
belie	-10677
▁Best	-10678
▁Hong	-10679
▁Whit	-10680
▁desert	-10681
▁herbat	-10682
▁@	-10683
▁offered	-10684
▁standard	-10685
bów	-10686
ella	-10687
▁gum	-10688
▁naked	-10689
▁Żaden	-10690
▁punish	-10691
▁zabija	-10692
▁uniform	-10693
▁wyż	-10694
dzona	-10695
▁twar	-10696
▁celem	-10697
▁shape	-10698
▁sprawą	-10699
▁dotykaj	-10700
▁nazywasz	-10701
▁mężczyznę	-10702
▁przyjemnością	-10703
▁_	-10704
▁uś	-10705
▁loj	-10706
▁Feli	-10707
▁pure	-10708
arters	-10709
▁fancy	-10710
▁towar	-10711
▁sklepie	-10712
alifornia	-10713
aph	-10714
stit	-10715
▁wiary	-10716
ującego	-10717
▁Miller	-10718
▁miliony	-10719
▁Niedługo	-10720
▁ostrożny	-10721
▁najlepszą	-10722
gasz	-10723
alony	-10724
▁creep	-10725
▁lubią	-10726
▁Ostroż	-10727
▁photos	-10728
ANK	-10729
▁Zau	-10730
▁cart	-10731
▁tune	-10732
▁impro	-10733
▁Zakład	-10734
▁cancer	-10735
▁daleka	-10736
▁distra	-10737
▁klientów	-10738
▁pielęgni	-10739
▁odpowiedzialny	-10740
ajd	-10741
anką	-10742
niósł	-10743
▁Okaz	-10744
▁wysa	-10745
▁files	-10746
▁percent	-10747
▁wrażenie	-10748
icers	-10749
▁defe	-10750
▁tędy	-10751
rzelił	-10752
▁fought	-10753
▁source	-10754
▁Zdejmij	-10755
▁zabiera	-10756
▁piosenkę	-10757
▁wydarzyło	-10758
ńcu	-10759
▁Es	-10760
▁bon	-10761
▁dek	-10762
▁wow	-10763
aniec	-10764
asant	-10765
dźwie	-10766
▁LOOK	-10767
▁Marshall	-10768
▁dokument	-10769
▁thousands	-10770
▁nauczyciel	-10771
aska	-10772
▁smo	-10773
▁Vince	-10774
▁osobę	-10775
▁detekty	-10776
▁brilliant	-10777
tan	-10778
▁Nah	-10779
▁mult	-10780
▁rozd	-10781
▁Chcie	-10782
▁kieps	-10783
▁hidden	-10784
▁wyszła	-10785
▁planned	-10786
inda	-10787
rzez	-10788
▁aktor	-10789
▁assum	-10790
▁Cztery	-10791
▁zostaną	-10792
▁sytuacja	-10793
ICE	-10794
lił	-10795
czel	-10796
▁łap	-10797
icans	-10798
▁Kenn	-10799
▁bike	-10800
▁cand	-10801
▁prog	-10802
▁teren	-10803
▁żałos	-10804
▁szanse	-10805
▁ana	-10806
▁sig	-10807
▁wes	-10808
ctive	-10809
▁mund	-10810
▁Jessica	-10811
▁alkohol	-10812
▁capable	-10813
▁Wiedziałeś	-10814
warant	-10815
▁Relax	-10816
▁invite	-10817
▁studio	-10818
▁zaprze	-10819
▁reprezent	-10820
▁personally	-10821
▁2.	-10822
iest	-10823
▁Dzięk	-10824
▁Wyjdź	-10825
▁byśmy	-10826
▁czterech	-10827
▁najlepsza	-10828
cian	-10829
fice	-10830
▁Stu	-10831
▁sco	-10832
ździe	-10833
▁nosi	-10834
▁półno	-10835
▁odszedł	-10836
▁zadzwonił	-10837
IP	-10838
▁db	-10839
ader	-10840
▁Len	-10841
▁Suk	-10842
▁Dear	-10843
▁Ruth	-10844
▁reak	-10845
▁Count	-10846
▁loyal	-10847
itation	-10848
▁przysł	-10849
▁kolejne	-10850
▁jedziemy	-10851
▁om	-10852
nięty	-10853
▁pewny	-10854
▁Albert	-10855
▁ruined	-10856
▁wyglądam	-10857
▁Znaleźliśmy	-10858
tured	-10859
zajem	-10860
▁Also	-10861
▁pach	-10862
atorem	-10863
▁Uwaga	-10864
▁Zdecydowanie	-10865
2,	-10866
nione	-10867
szymi	-10868
▁Beat	-10869
▁dupę	-10870
▁cheap	-10871
▁throat	-10872
▁WILL	-10873
dziłaś	-10874
▁barze	-10875
▁stock	-10876
rawiasz	-10877
▁nazywają	-10878
▁OR	-10879
▁Hum	-10880
▁seek	-10881
▁Haven	-10882
▁głową	-10883
▁wyraź	-10884
▁season	-10885
▁zachować	-10886
ols	-10887
▁dyre	-10888
▁nowej	-10889
▁sąsiad	-10890
▁wspomni	-10891
▁Caroline	-10892
▁znaleźli	-10893
cul	-10894
▁kł	-10895
▁jerk	-10896
quence	-10897
▁odebra	-10898
▁Wielkie	-10899
▁dowodów	-10900
▁zaangaż	-10901
▁dzieciaka	-10902
▁przypomin	-10903
▁lt	-10904
cons	-10905
czku	-10906
▁bły	-10907
▁ukoch	-10908
ological	-10909
▁Zrobimy	-10910
▁society	-10911
▁przeszkadza	-10912
arki	-10913
pisz	-10914
▁Raj	-10915
▁eggs	-10916
czeniu	-10917
▁niewol	-10918
▁burmist	-10919
▁families	-10920
▁niedorze	-10921
▁permission	-10922
sę	-10923
wki	-10924
▁Camp	-10925
▁Kent	-10926
▁dies	-10927
ateful	-10928
▁Wayne	-10929
▁napad	-10930
▁oszuk	-10931
▁style	-10932
▁invent	-10933
▁spodnie	-10934
▁according	-10935
▁mężczyźni	-10936
▁MAR	-10937
▁Zoe	-10938
enior	-10939
▁Hand	-10940
▁mood	-10941
▁walls	-10942
▁zabity	-10943
▁obiecuję	-10944
▁wybaczyć	-10945
▁According	-10946
▁przyjemność	-10947
AW	-10948
▁tan	-10949
▁THINK	-10950
▁dobro	-10951
▁publi	-10952
▁satis	-10953
▁shots	-10954
▁player	-10955
▁siostrę	-10956
dem	-10957
▁Py	-10958
nold	-10959
owna	-10960
stów	-10961
▁Guy	-10962
▁bru	-10963
▁wood	-10964
▁ekscyt	-10965
▁raised	-10966
▁skarbie	-10967
▁internet	-10968
▁potrafisz	-10969
uses	-10970
erable	-10971
▁wyłącz	-10972
▁rozkazy	-10973
▁patients	-10974
▁knowledge	-10975
▁downstairs	-10976
rim	-10977
▁Gri	-10978
▁Nam	-10979
▁chose	-10980
▁zimno	-10981
▁Choler	-10982
▁manage	-10983
▁resist	-10984
▁Problem	-10985
▁element	-10986
▁oglądać	-10987
▁kontroli	-10988
▁physical	-10989
▁potrzebują	-10990
▁educ	-10991
▁uczyć	-10992
▁Follow	-10993
▁particular	-10994
▁8:	-10995
▁Ban	-10996
▁blu	-10997
▁szaf	-10998
ejdzie	-10999
▁Sophie	-11000
▁spędzić	-11001
dzia	-11002
lies	-11003
hered	-11004
▁Toby	-11005
▁agre	-11006
▁ears	-11007
▁nurse	-11008
▁defense	-11009
▁growing	-11010
▁kontrolę	-11011
▁rak	-11012
▁Wpad	-11013
▁angel	-11014
▁Angela	-11015
▁exciting	-11016
▁wyobrazić	-11017
ITT	-11018
nich	-11019
▁00,	-11020
czyło	-11021
▁Lore	-11022
▁exch	-11023
▁poczekaj	-11024
▁Gal	-11025
▁inj	-11026
▁dawna	-11027
▁affect	-11028
▁babies	-11029
▁sztuki	-11030
▁approach	-11031
▁Dziewczyna	-11032
żek	-11033
▁ol	-11034
▁Drop	-11035
▁gazet	-11036
▁reached	-11037
▁zom	-11038
▁tward	-11039
▁horses	-11040
▁podwój	-11041
▁zapłaci	-11042
▁cholernie	-11043
broj	-11044
▁ego	-11045
▁Teddy	-11046
▁łatwiej	-11047
▁197	-11048
▁Flor	-11049
▁OKAY	-11050
▁uwię	-11051
▁Wyjaś	-11052
▁ataku	-11053
▁Coming	-11054
▁disgust	-11055
▁codziennie	-11056
▁Zastanawiam	-11057
usie	-11058
▁Espe	-11059
▁attor	-11060
▁zazdros	-11061
▁szczegół	-11062
▁skończyłem	-11063
▁przygotować	-11064
ysy	-11065
▁Isa	-11066
▁Vic	-11067
▁Całe	-11068
▁brzyd	-11069
▁widać	-11070
▁assign	-11071
▁konkur	-11072
▁znieść	-11073
▁Człowieku	-11074
▁nę	-11075
▁hał	-11076
▁Carm	-11077
▁affair	-11078
▁punkcie	-11079
mat	-11080
wało	-11081
▁Dev	-11082
▁Fore	-11083
▁Penny	-11084
▁miały	-11085
▁piłkę	-11086
▁staną	-11087
▁pewnym	-11088
▁waited	-11089
▁romanty	-11090
▁trening	-11091
▁Michelle	-11092
▁kontynuować	-11093
▁umiejętności	-11094
arta	-11095
cznę	-11096
więć	-11097
▁Sav	-11098
▁para	-11099
▁fabry	-11100
▁slight	-11101
▁przytra	-11102
▁expensive	-11103
lli	-11104
rzałem	-11105
▁camer	-11106
▁lesson	-11107
▁revenge	-11108
▁Jennifer	-11109
bl	-11110
▁27	-11111
rzemy	-11112
▁hous	-11113
▁Linda	-11114
▁Nancy	-11115
▁advant	-11116
▁ochotę	-11117
▁powoli	-11118
▁słońce	-11119
▁airport	-11120
▁wróciła	-11121
over	-11122
▁valu	-11123
▁wujek	-11124
▁surround	-11125
pat	-11126
sia	-11127
thy	-11128
minist	-11129
▁Davis	-11130
▁bierz	-11131
▁czytać	-11132
▁screwed	-11133
▁mieszkać	-11134
▁reporter	-11135
▁prezydenta	-11136
My	-11137
▁II	-11138
▁Gen	-11139
▁trig	-11140
▁adult	-11141
▁plate	-11142
▁holiday	-11143
▁kapitan	-11144
▁mężczyzny	-11145
iry	-11146
▁',	-11147
żsam	-11148
▁Rzym	-11149
▁poni	-11150
bienie	-11151
▁Ellen	-11152
▁Shoot	-11153
▁podąż	-11154
▁studi	-11155
▁powers	-11156
▁wypełni	-11157
▁zostałem	-11158
▁apparently	-11159
▁JO	-11160
▁Mały	-11161
▁trees	-11162
▁ocalić	-11163
▁journey	-11164
cen	-11165
▁Całkiem	-11166
czeństwie	-11167
mes	-11168
fika	-11169
gnie	-11170
ciach	-11171
▁Especially	-11172
łupi	-11173
▁tyl	-11174
▁Glen	-11175
▁citiz	-11176
▁scary	-11177
▁Miłość	-11178
▁screen	-11179
▁Gentlemen	-11180
▁committed	-11181
▁Ann	-11182
▁Poru	-11183
▁Wood	-11184
▁trail	-11185
▁uczci	-11186
▁znamy	-11187
▁sentence	-11188
NY	-11189
AST	-11190
▁9:	-11191
▁Poor	-11192
▁issues	-11193
▁widzieliśmy	-11194
ręt	-11195
żysz	-11196
arcia	-11197
▁ambul	-11198
▁giant	-11199
▁disease	-11200
▁Wychodzę	-11201
▁Francisco	-11202
▁Spę	-11203
dzamy	-11204
▁Miles	-11205
▁oddech	-11206
▁Ostrożnie	-11207
▁restauracji	-11208
UCK	-11209
ishop	-11210
▁naro	-11211
lished	-11212
▁benef	-11213
▁coach	-11214
▁crash	-11215
▁boring	-11216
▁zaplan	-11217
▁dziesięć	-11218
▁posłuchać	-11219
St	-11220
liss	-11221
▁Kor	-11222
▁WOM	-11223
▁zer	-11224
▁Mogą	-11225
▁Elliot	-11226
▁carrying	-11227
▁positive	-11228
▁available	-11229
jan	-11230
pse	-11231
▁Aug	-11232
▁COME	-11233
▁bread	-11234
▁poświęc	-11235
▁fantastic	-11236
ajebi	-11237
▁dłuż	-11238
▁Gówno	-11239
▁Bracie	-11240
▁Trudno	-11241
▁robber	-11242
ija	-11243
aked	-11244
▁Ain	-11245
▁włó	-11246
▁spin	-11247
▁owner	-11248
▁święta	-11249
▁spodoba	-11250
▁zaczęło	-11251
▁dzieciaku	-11252
▁dar	-11253
▁Wake	-11254
▁meal	-11255
▁Dawaj	-11256
▁punch	-11257
▁stink	-11258
owanego	-11259
▁period	-11260
▁pomocą	-11261
▁Matthew	-11262
leb	-11263
ante	-11264
▁Kry	-11265
▁Pay	-11266
▁dat	-11267
▁fac	-11268
▁joy	-11269
▁namie	-11270
czeniem	-11271
▁tickets	-11272
umenty	-11273
▁incre	-11274
▁indic	-11275
▁rzuci	-11276
▁confused	-11277
▁Spóź	-11278
▁laid	-11279
▁dobrej	-11280
▁assistant	-11281
▁CON	-11282
▁Him	-11283
▁Ina	-11284
▁relie	-11285
▁zrobiłam	-11286
▁10:	-11287
▁Oko	-11288
▁ska	-11289
entel	-11290
▁nadz	-11291
▁odna	-11292
▁połowę	-11293
▁Uciekaj	-11294
▁połowie	-11295
▁officers	-11296
awy	-11297
▁ręki	-11298
▁wziął	-11299
▁zarabi	-11300
ebe	-11301
▁chocol	-11302
▁Bas	-11303
▁usi	-11304
▁Ręce	-11305
▁alco	-11306
▁dokoń	-11307
▁symbol	-11308
▁mieszkaniu	-11309
5,	-11310
jek	-11311
▁PL	-11312
vest	-11313
wały	-11314
ąpić	-11315
▁Ode	-11316
▁woli	-11317
▁Malcol	-11318
▁concern	-11319
▁circumst	-11320
raść	-11321
▁Aye	-11322
▁Wyno	-11323
▁zniknął	-11324
▁Wid	-11325
▁pob	-11326
▁ros	-11327
▁chip	-11328
▁rate	-11329
▁mogłabyś	-11330
▁zapomniałem	-11331
▁tip	-11332
▁dużą	-11333
▁firma	-11334
▁trady	-11335
▁zepsu	-11336
▁Mickey	-11337
▁lepszego	-11338
▁romantic	-11339
▁nadchodzi	-11340
11	-11341
óst	-11342
▁Spen	-11343
▁Such	-11344
▁bone	-11345
▁desp	-11346
▁nerw	-11347
▁faces	-11348
▁kicked	-11349
▁Doceniam	-11350
imum	-11351
arily	-11352
eline	-11353
▁drag	-11354
▁filled	-11355
▁impreza	-11356
▁Żadnego	-11357
▁Bal	-11358
▁Syd	-11359
▁Głów	-11360
▁ślep	-11361
▁jazdy	-11362
▁Monday	-11363
▁zobaczył	-11364
atów	-11365
ivid	-11366
▁Dia	-11367
▁fif	-11368
▁bólu	-11369
▁Belie	-11370
▁pokoj	-11371
▁chwila	-11372
▁elektry	-11373
▁świetna	-11374
▁including	-11375
▁krop	-11376
▁wide	-11377
ającym	-11378
▁Odkąd	-11379
▁fajnie	-11380
▁gwiazd	-11381
▁kredyt	-11382
▁zajęcia	-11383
▁zaczekaj	-11384
nęło	-11385
▁COM	-11386
▁lip	-11387
bered	-11388
szyng	-11389
▁Kenny	-11390
▁brakuje	-11391
▁prepare	-11392
▁bleeding	-11393
▁wewnętrz	-11394
▁Kam	-11395
▁Mod	-11396
▁lear	-11397
▁Wendy	-11398
▁drove	-11399
▁dorast	-11400
▁Rebecca	-11401
▁checking	-11402
▁skończył	-11403
▁wątpliwości	-11404
eed	-11405
iłeś	-11406
▁Wygra	-11407
▁małej	-11408
▁stood	-11409
▁Cheers	-11410
▁sygnał	-11411
▁NA	-11412
ille	-11413
emies	-11414
▁meth	-11415
▁ster	-11416
▁nieco	-11417
▁occas	-11418
▁posta	-11419
▁zdjęć	-11420
▁napisać	-11421
▁zabiłem	-11422
szyb	-11423
▁gram	-11424
cyjnej	-11425
▁fixed	-11426
▁zmart	-11427
▁sexual	-11428
▁energii	-11429
▁warning	-11430
▁Amerykan	-11431
%.	-11432
IĘ	-11433
uli	-11434
case	-11435
▁finan	-11436
▁nosić	-11437
▁porusz	-11438
▁spacer	-11439
▁ancient	-11440
▁kilomet	-11441
▁zabiłeś	-11442
▁48	-11443
ającą	-11444
▁SOME	-11445
rive	-11446
▁scar	-11447
▁winy	-11448
▁Riley	-11449
▁grupy	-11450
▁recomm	-11451
las	-11452
▁myst	-11453
▁Court	-11454
▁kazał	-11455
▁problemem	-11456
NE	-11457
play	-11458
▁wez	-11459
▁Zwari	-11460
▁Miłego	-11461
▁długie	-11462
▁switch	-11463
▁uważaj	-11464
▁motherfucker	-11465
.!	-11466
mark	-11467
▁aunt	-11468
▁lodów	-11469
▁witch	-11470
▁glinia	-11471
▁odmówi	-11472
▁różnica	-11473
ckie	-11474
▁dane	-11475
▁spyt	-11476
▁tast	-11477
▁trag	-11478
▁zruj	-11479
▁album	-11480
▁ukryć	-11481
▁burned	-11482
▁expert	-11483
▁godzina	-11484
▁Prowa	-11485
▁każda	-11486
▁fortune	-11487
▁illegal	-11488
▁Patrzcie	-11489
▁BY	-11490
bles	-11491
aleko	-11492
▁Świą	-11493
▁śpią	-11494
▁filmu	-11495
▁podać	-11496
▁spoty	-11497
▁Wło	-11498
▁niem	-11499
▁Która	-11500
▁stacji	-11501
▁protest	-11502
▁pulling	-11503
▁przejmuj	-11504
▁otherwise	-11505
▁Powiedzieli	-11506
00,	-11507
jna	-11508
sit	-11509
▁3.	-11510
arma	-11511
▁Sue	-11512
▁Nale	-11513
▁stab	-11514
▁słow	-11515
▁shock	-11516
▁garnit	-11517
▁miałaś	-11518
▁popraw	-11519
▁zostań	-11520
▁appears	-11521
ov	-11522
▁26	-11523
cone	-11524
ision	-11525
▁Czujesz	-11526
▁Niczego	-11527
▁belongs	-11528
▁niektóre	-11529
▁RO	-11530
HING	-11531
ektyw	-11532
▁Jasna	-11533
▁alibi	-11534
▁magaz	-11535
▁powod	-11536
▁altern	-11537
▁Perfect	-11538
▁Ostatnio	-11539
▁nieprawda	-11540
ąb	-11541
arni	-11542
▁nies	-11543
▁scrat	-11544
▁pissed	-11545
▁kolacji	-11546
▁przyjaciółka	-11547
▁Jam	-11548
▁boku	-11549
▁wpływ	-11550
▁stwier	-11551
▁suffer	-11552
▁Ameryki	-11553
▁Waszyng	-11554
▁treatment	-11555
▁Fi	-11556
▁Cin	-11557
▁chop	-11558
▁clock	-11559
▁refle	-11560
▁czekol	-11561
▁Później	-11562
▁younger	-11563
▁przenies	-11564
▁bezpiecznie	-11565
Don	-11566
soci	-11567
cyjna	-11568
▁wore	-11569
▁awake	-11570
▁sprze	-11571
▁sugar	-11572
▁garden	-11573
▁gorąco	-11574
▁toilet	-11575
▁jakiejś	-11576
ulf	-11577
czać	-11578
▁Tex	-11579
▁Gibbs	-11580
▁kieszeni	-11581
▁Pon	-11582
▁EVER	-11583
▁Feel	-11584
▁Owen	-11585
▁lamp	-11586
▁campa	-11587
▁toler	-11588
▁zechcesz	-11589
▁direction	-11590
▁Randy	-11591
▁odważ	-11592
▁opera	-11593
▁udawać	-11594
▁burning	-11595
▁Alp	-11596
▁Send	-11597
▁Derek	-11598
▁Ethan	-11599
▁akcji	-11600
▁doktora	-11601
vor	-11602
▁Zła	-11603
▁associ	-11604
▁tożsam	-11605
▁license	-11606
▁szacunku	-11607
śnij	-11608
▁USA	-11609
alace	-11610
▁bani	-11611
END	-11612
goti	-11613
▁jedzie	-11614
▁zamian	-11615
▁pokładzie	-11616
wich	-11617
▁tend	-11618
▁wire	-11619
▁higher	-11620
▁metrów	-11621
▁przech	-11622
▁quarter	-11623
▁zadanie	-11624
▁presence	-11625
▁śledztwo	-11626
czerp	-11627
▁tytu	-11628
▁intelig	-11629
▁północy	-11630
▁yourselves	-11631
wka	-11632
▁Ws	-11633
▁rea	-11634
▁gliny	-11635
▁Harris	-11636
▁demand	-11637
▁jacket	-11638
▁pomógł	-11639
bul	-11640
wysy	-11641
▁grant	-11642
▁obses	-11643
▁whore	-11644
▁połącz	-11645
▁understood	-11646
ua	-11647
iota	-11648
▁Cha	-11649
▁Fant	-11650
▁konk	-11651
▁mort	-11652
▁chirur	-11653
▁Poprosi	-11654
▁courage	-11655
▁nienawidzę	-11656
▁Aż	-11657
▁tk	-11658
szczą	-11659
▁zare	-11660
▁pizza	-11661
▁Nikogo	-11662
▁Wiecie	-11663
▁Następnym	-11664
▁konieczne	-11665
▁Zapomniałem	-11666
▁noż	-11667
▁wyn	-11668
▁skór	-11669
▁blond	-11670
▁wymag	-11671
▁Powiedzmy	-11672
▁sacrifice	-11673
gins	-11674
niła	-11675
▁SEE	-11676
▁Lewis	-11677
▁decyd	-11678
▁Junior	-11679
▁forest	-11680
▁gwiazdy	-11681
ail	-11682
nice	-11683
clock	-11684
▁Hans	-11685
▁Ruchy	-11686
▁Water	-11687
▁exact	-11688
▁Forgive	-11689
▁Ukry	-11690
rating	-11691
▁newsp	-11692
▁żebyście	-11693
▁tajemnicy	-11694
una	-11695
▁mr	-11696
▁194	-11697
▁Nina	-11698
▁trap	-11699
▁drown	-11700
▁moves	-11701
▁pocie	-11702
▁tongue	-11703
▁Zacznij	-11704
▁picking	-11705
▁watched	-11706
▁zamknięte	-11707
IVE	-11708
atem	-11709
▁Ral	-11710
▁rap	-11711
▁Roman	-11712
▁grave	-11713
▁kandy	-11714
▁spare	-11715
▁mask	-11716
▁Clear	-11717
▁Craig	-11718
▁chain	-11719
▁kryty	-11720
▁Anglii	-11721
▁Strzel	-11722
▁custom	-11723
▁przypadek	-11724
▁zidentyfi	-11725
▁Rób	-11726
uries	-11727
▁gain	-11728
▁Might	-11729
▁pełni	-11730
▁biorąc	-11731
▁Aa	-11732
agne	-11733
mate	-11734
▁spy	-11735
▁Gene	-11736
▁Mimo	-11737
▁Tele	-11738
▁niebo	-11739
▁managed	-11740
▁Powinnam	-11741
▁attorney	-11742
▁operację	-11743
▁wartości	-11744
▁zorganiz	-11745
▁niesprawied	-11746
LLY	-11747
olu	-11748
▁Syl	-11749
cenia	-11750
▁budy	-11751
▁zeps	-11752
▁chaos	-11753
▁Carrie	-11754
▁status	-11755
▁musiało	-11756
▁fantasty	-11757
▁oczywiste	-11758
▁appointment	-11759
PS	-11760
erz	-11761
lop	-11762
aken	-11763
▁Rat	-11764
osing	-11765
▁Thor	-11766
▁danych	-11767
▁zmierz	-11768
▁enemies	-11769
▁Zrobiłeś	-11770
▁powiedzi	-11771
▁happiness	-11772
▁powietrza	-11773
▁Wiedziałam	-11774
▁przechodzi	-11775
ICH	-11776
non	-11777
▁Cze	-11778
▁cio	-11779
elled	-11780
▁tank	-11781
ozumie	-11782
▁badly	-11783
▁mikro	-11784
▁Walker	-11785
▁serial	-11786
▁wolności	-11787
▁przeszłość	-11788
wh	-11789
▁chem	-11790
▁viol	-11791
▁pills	-11792
▁sieci	-11793
▁butter	-11794
▁pytasz	-11795
▁Believe	-11796
▁Thought	-11797
▁respond	-11798
▁complain	-11799
▁basically	-11800
ker	-11801
siąt	-11802
▁Lem	-11803
▁madam	-11804
▁gather	-11805
▁stworz	-11806
▁protection	-11807
ażu	-11808
łach	-11809
▁Hist	-11810
▁tail	-11811
▁image	-11812
▁kosmi	-11813
▁Mexico	-11814
bilities	-11815
▁passion	-11816
▁poczucie	-11817
jne	-11818
▁Byli	-11819
▁dust	-11820
▁dług	-11821
▁mogły	-11822
▁wykony	-11823
▁narkotyki	-11824
▁eksperyment	-11825
aład	-11826
icho	-11827
▁Led	-11828
▁zarę	-11829
▁former	-11830
▁wykorzystać	-11831
elf	-11832
▁Ay	-11833
arką	-11834
▁nut	-11835
▁ryn	-11836
▁Bank	-11837
▁bibli	-11838
▁parku	-11839
▁counter	-11840
▁suffering	-11841
bow	-11842
▁łą	-11843
▁mamie	-11844
▁ścież	-11845
▁healthy	-11846
▁musicie	-11847
nowi	-11848
▁Boję	-11849
▁Break	-11850
▁bound	-11851
▁remains	-11852
ando	-11853
▁Sol	-11854
▁bye	-11855
isher	-11856
venue	-11857
▁więź	-11858
▁media	-11859
▁terms	-11860
▁Sheriff	-11861
▁propozy	-11862
▁Internet	-11863
▁campaign	-11864
▁Moglibyśmy	-11865
arę	-11866
ertę	-11867
teen	-11868
▁Duke	-11869
▁wysok	-11870
▁przyjdę	-11871
▁znalazła	-11872
▁wyglądało	-11873
▁narkotyków	-11874
ciąć	-11875
▁Burn	-11876
▁Lock	-11877
▁Road	-11878
▁ogro	-11879
▁Phoebe	-11880
▁kapelusz	-11881
▁potrzeba	-11882
▁advantage	-11883
uri	-11884
aktu	-11885
▁Earl	-11886
▁Ksią	-11887
▁Umie	-11888
▁krym	-11889
▁Zejdź	-11890
▁drogą	-11891
▁planu	-11892
▁stopy	-11893
▁value	-11894
śnienie	-11895
▁włosów	-11896
▁warrant	-11897
▁directly	-11898
▁zwłaszcza	-11899
phe	-11900
▁28	-11901
mine	-11902
▁Lane	-11903
▁Stud	-11904
▁invol	-11905
▁political	-11906
▁gdziekolwiek	-11907
onymi	-11908
▁Każd	-11909
▁Kier	-11910
▁siłę	-11911
▁Dennis	-11912
▁przyjm	-11913
burg	-11914
iger	-11915
▁Gus	-11916
▁Pań	-11917
lients	-11918
▁Napis	-11919
▁sekre	-11920
▁Either	-11921
▁skrzyd	-11922
▁Spencer	-11923
▁leży	-11924
▁pisze	-11925
▁Second	-11926
▁klasie	-11927
▁angiels	-11928
▁własnym	-11929
▁wspaniale	-11930
▁uzy	-11931
hamed	-11932
▁Anth	-11933
▁Ford	-11934
czyłam	-11935
▁pojech	-11936
▁becomes	-11937
▁cameras	-11938
▁diamond	-11939
▁przyczy	-11940
▁zaczęła	-11941
▁profesjon	-11942
▁Az	-11943
▁Rea	-11944
▁blew	-11945
▁podp	-11946
▁pump	-11947
▁Quinn	-11948
▁shake	-11949
▁pounds	-11950
▁vision	-11951
▁Inaczej	-11952
▁changing	-11953
▁południe	-11954
▁2,	-11955
outs	-11956
▁Lor	-11957
▁Tea	-11958
aries	-11959
range	-11960
▁Lang	-11961
▁Zabiję	-11962
▁assault	-11963
▁zmienił	-11964
▁celebrate	-11965
▁Unfortunately	-11966
chi	-11967
▁7:	-11968
iring	-11969
▁niew	-11970
▁liber	-11971
▁wciąg	-11972
▁humans	-11973
▁wyjście	-11974
▁Williams	-11975
dzał	-11976
▁Stef	-11977
▁proś	-11978
▁zęby	-11979
▁Rober	-11980
▁gliną	-11981
▁stanu	-11982
▁Lincol	-11983
▁kwiaty	-11984
▁muzyki	-11985
▁swojemu	-11986
▁[	-11987
ket	-11988
▁Tot	-11989
▁Curt	-11990
▁GOOD	-11991
▁bond	-11992
▁cure	-11993
▁fraj	-11994
▁Sammy	-11995
▁lover	-11996
▁panna	-11997
▁manipul	-11998
▁photograph	-11999
roni	-12000
▁obsz	-12001
▁darmo	-12002
▁zadać	-12003
niejszą	-12004
▁zgadza	-12005
▁Słuchajcie	-12006
▁Rh	-12007
utch	-12008
zard	-12009
raszy	-12010
stone	-12011
▁wtrą	-12012
▁Itali	-12013
▁jedyne	-12014
▁Anybody	-12015
▁piosenka	-12016
▁poradzić	-12017
▁connected	-12018
UD	-12019
ścił	-12020
▁Sab	-12021
▁żyw	-12022
▁Vick	-12023
▁roze	-12024
▁ducha	-12025
▁pienię	-12026
▁przekro	-12027
▁waszych	-12028
▁interrupt	-12029
tes	-12030
bage	-12031
lesh	-12032
ywać	-12033
▁faci	-12034
▁popo	-12035
▁Przer	-12036
▁matce	-12037
▁attract	-12038
▁pattern	-12039
▁wyjeżdż	-12040
▁material	-12041
▁podejrze	-12042
Mo	-12043
roku	-12044
▁TIM	-12045
cyjną	-12046
▁Fall	-12047
▁jack	-12048
▁smak	-12049
jedzie	-12050
▁Logan	-12051
▁Przyz	-12052
▁pracą	-12053
▁czułem	-12054
▁spring	-12055
▁wojnie	-12056
▁Russell	-12057
▁uciekać	-12058
▁Pieprzyć	-12059
▁próbujesz	-12060
▁Niemożliwe	-12061
but	-12062
fon	-12063
▁EX	-12064
ropri	-12065
▁glob	-12066
▁rush	-12067
▁Madam	-12068
▁Repub	-12069
▁bones	-12070
▁siostrą	-12071
ggle	-12072
▁beast	-12073
▁ruchu	-12074
▁Przesz	-12075
▁glasses	-12076
▁przerwę	-12077
▁zasadzie	-12078
▁Ktokolwiek	-12079
att	-12080
leni	-12081
▁Bła	-12082
▁Lam	-12083
▁Znik	-12084
▁Valent	-12085
▁charak	-12086
▁parano	-12087
▁Zauważy	-12088
▁eventually	-12089
▁experiment	-12090
ola	-12091
▁Rey	-12092
▁baj	-12093
rance	-12094
▁badań	-12095
▁zezna	-12096
▁technology	-12097
szu	-12098
▁Dead	-12099
▁WOMAN	-12100
▁dałem	-12101
▁mądry	-12102
▁Justin	-12103
▁Siadaj	-12104
▁pijany	-12105
▁custody	-12106
▁sytuację	-12107
▁wróciłem	-12108
▁UN	-12109
cast	-12110
rabi	-12111
▁złą	-12112
ignor	-12113
▁Mason	-12114
▁Straż	-12115
▁broad	-12116
▁duszę	-12117
▁otwar	-12118
▁ranka	-12119
▁zginął	-12120
▁clients	-12121
▁stronger	-12122
▁vacation	-12123
▁płu	-12124
▁Fair	-12125
▁soup	-12126
▁tłuma	-12127
▁najwyraźniej	-12128
▁circumstances	-12129
cesu	-12130
▁McK	-12131
kowych	-12132
▁Hitler	-12133
▁zrobią	-12134
▁imienia	-12135
▁touched	-12136
dźmy	-12137
▁nasi	-12138
▁sądu	-12139
szczaj	-12140
▁jutra	-12141
▁rooms	-12142
▁królem	-12143
▁spotkamy	-12144
▁kontrolować	-12145
▁prawdziwego	-12146
30	-12147
▁bagaż	-12148
▁kutas	-12149
▁położy	-12150
bid	-12151
ele	-12152
iron	-12153
▁Jar	-12154
▁Sha	-12155
▁chap	-12156
▁thief	-12157
▁wojow	-12158
▁Central	-12159
▁Malcolm	-12160
hern	-12161
▁150	-12162
▁ess	-12163
▁Army	-12164
▁Gard	-12165
czasie	-12166
▁Aaron	-12167
▁długa	-12168
▁frank	-12169
▁koles	-12170
▁bierze	-12171
▁pojawił	-12172
▁gdybyśmy	-12173
▁violence	-12174
▁Ana	-12175
▁Bow	-12176
▁ufać	-12177
▁reser	-12178
▁stres	-12179
▁wywoł	-12180
▁oprócz	-12181
▁przepis	-12182
▁trzymał	-12183
▁vehicle	-12184
▁interesy	-12185
▁Kh	-12186
▁NIE	-12187
▁jun	-12188
▁zaz	-12189
ushed	-12190
łabyś	-12191
▁Mnie	-12192
▁west	-12193
▁notes	-12194
▁Friend	-12195
▁mogłabym	-12196
rzyk	-12197
uted	-12198
yson	-12199
▁Kang	-12200
▁Wielu	-12201
▁chemi	-12202
▁okrut	-12203
▁ofiara	-12204
▁transp	-12205
▁incident	-12206
▁partners	-12207
loyd	-12208
▁oddy	-12209
▁ścią	-12210
▁Death	-12211
▁Podej	-12212
▁grade	-12213
▁klubu	-12214
▁pełen	-12215
spector	-12216
▁najszyb	-12217
▁popołud	-12218
cona	-12219
rają	-12220
▁Joan	-12221
▁lesie	-12222
▁toreb	-12223
▁używa	-12224
▁decent	-12225
▁muzykę	-12226
▁confident	-12227
▁television	-12228
-2	-12229
3,	-12230
łek	-12231
▁Ew	-12232
czuć	-12233
stry	-12234
▁konf	-12235
▁lecz	-12236
▁Close	-12237
▁szkol	-12238
▁Strasz	-12239
▁regard	-12240
▁międzyczasie	-12241
▁Kl	-12242
osek	-12243
rawia	-12244
▁liar	-12245
▁hated	-12246
▁forces	-12247
▁inspek	-12248
▁podnie	-12249
▁Wsiadaj	-12250
▁odeszła	-12251
▁miejscem	-12252
▁chocolate	-12253
▁tradition	-12254
▁stress	-12255
▁wariat	-12256
▁Wyobraź	-12257
▁dżentel	-12258
▁przeprosić	-12259
ksy	-12260
▁Kno	-12261
czych	-12262
rygin	-12263
omeday	-12264
▁China	-12265
▁condu	-12266
▁plaży	-12267
▁Olivia	-12268
▁pamięć	-12269
bast	-12270
rusz	-12271
▁Viv	-12272
▁minutę	-12273
▁przenie	-12274
▁zamknij	-12275
▁argument	-12276
▁determin	-12277
▁przychodzą	-12278
aży	-12279
jął	-12280
▁ew	-12281
ucker	-12282
▁Glor	-12283
▁Being	-12284
▁prior	-12285
ception	-12286
▁Audrey	-12287
▁Austra	-12288
▁kamery	-12289
▁Kapitan	-12290
▁behavior	-12291
▁experien	-12292
▁schedule	-12293
▁breathing	-12294
▁bezpieczne	-12295
dów	-12296
▁$5	-12297
▁36	-12298
rich	-12299
▁dys	-12300
▁east	-12301
▁teen	-12302
▁achie	-12303
▁consid	-12304
▁małych	-12305
▁region	-12306
▁California	-12307
▁MI	-12308
▁Ian	-12309
▁sos	-12310
▁Booth	-12311
▁birds	-12312
▁Musiał	-12313
▁Ostatni	-12314
▁napisał	-12315
▁pierści	-12316
▁zaczynamy	-12317
nok	-12318
ples	-12319
lubie	-12320
▁Fort	-12321
▁Wysł	-12322
▁poradzę	-12323
▁traffic	-12324
▁desperate	-12325
▁aresztowany	-12326
kup	-12327
uda	-12328
jczy	-12329
more	-12330
▁Pam	-12331
▁Zad	-12332
rować	-12333
▁słone	-12334
zdrowie	-12335
▁plat	-12336
▁skon	-12337
▁żyję	-12338
rzelony	-12339
▁rescue	-12340
▁Bardziej	-12341
▁Japanese	-12342
▁stealing	-12343
▁tygodnia	-12344
ałaby	-12345
czące	-12346
iolet	-12347
▁Megan	-12348
▁tests	-12349
▁wpaść	-12350
▁wroga	-12351
▁Almost	-12352
▁powodów	-12353
▁większe	-12354
▁mogliśmy	-12355
hib	-12356
▁blok	-12357
▁szkołę	-12358
▁rozmowa	-12359
▁smoking	-12360
struction	-12361
▁widziała	-12362
owcy	-12363
▁Club	-12364
▁Glad	-12365
▁potencj	-12366
▁stracił	-12367
believable	-12368
▁GR	-12369
dale	-12370
that	-12371
▁Mean	-12372
▁słabo	-12373
▁rozpad	-12374
▁nazywać	-12375
▁konferen	-12376
▁wieczoru	-12377
ONG	-12378
ller	-12379
gling	-12380
▁Zwol	-12381
▁drob	-12382
▁flir	-12383
▁Oscar	-12384
▁imper	-12385
▁Church	-12386
▁Stanów	-12387
▁guests	-12388
▁usiądź	-12389
▁ashamed	-12390
▁sądziłem	-12391
▁Otherwise	-12392
▁niespodzianka	-12393
UL	-12394
AKE	-12395
▁400	-12396
▁jab	-12397
▁kab	-12398
▁rela	-12399
▁confirm	-12400
▁reports	-12401
▁exchange	-12402
▁throwing	-12403
▁jam	-12404
clear	-12405
opher	-12406
▁acqu	-12407
▁cult	-12408
▁gall	-12409
▁napraw	-12410
xie	-12411
ashi	-12412
▁foo	-12413
▁Słod	-12414
▁Wzią	-12415
▁czarn	-12416
▁rower	-12417
▁mówimy	-12418
▁national	-12419
uru	-12420
▁CL	-12421
gnąć	-12422
▁Est	-12423
▁kurt	-12424
▁czasy	-12425
▁survi	-12426
▁Harold	-12427
▁mówili	-12428
▁nastro	-12429
▁negoti	-12430
▁poprowa	-12431
▁competition	-12432
ATE	-12433
gnij	-12434
▁Mał	-12435
▁Wym	-12436
▁Bonnie	-12437
▁uprzej	-12438
▁foreign	-12439
▁sni	-12440
▁koni	-12441
▁Chand	-12442
▁Going	-12443
▁blank	-12444
▁jasno	-12445
▁okazję	-12446
▁pokład	-12447
▁konkret	-12448
▁released	-12449
cili	-12450
ciłeś	-12451
▁orze	-12452
▁Obudź	-12453
▁Barney	-12454
▁extremely	-12455
etic	-12456
▁Kop	-12457
▁bram	-12458
▁tied	-12459
▁czoła	-12460
▁signs	-12461
▁Wonder	-12462
▁kształ	-12463
▁millions	-12464
▁wyglądał	-12465
▁LET	-12466
▁rol	-12467
▁poraż	-12468
sidered	-12469
▁Ashley	-12470
▁Staram	-12471
▁Możliwe	-12472
▁geniusz	-12473
▁najbliż	-12474
▁robicie	-12475
▁normalne	-12476
▁convinced	-12477
▁przeczucie	-12478
▁zdecydowanie	-12479
lec	-12480
nko	-12481
żyła	-12482
▁Lot	-12483
▁Evan	-12484
▁Zbyt	-12485
▁indy	-12486
▁prow	-12487
▁Mikoł	-12488
▁duszy	-12489
▁kółko	-12490
▁kandyd	-12491
▁budynek	-12492
▁cierpie	-12493
▁concent	-12494
▁considered	-12495
▁następnego	-12496
▁grandmother	-12497
▁odpowiedzieć	-12498
GO	-12499
▁żąd	-12500
▁Land	-12501
▁koło	-12502
▁maid	-12503
▁reck	-12504
▁remo	-12505
▁Child	-12506
▁dupku	-12507
▁plecy	-12508
▁cooper	-12509
▁humili	-12510
▁zabójca	-12511
▁miesiącu	-12512
ours	-12513
▁rąk	-12514
oween	-12515
▁Nigdzie	-12516
▁curious	-12517
▁convince	-12518
▁twierdzi	-12519
▁zapamięt	-12520
▁skończyła	-12521
iner	-12522
▁Sin	-12523
▁Pozn	-12524
▁Tina	-12525
▁sail	-12526
▁Enter	-12527
▁zaśpie	-12528
▁grateful	-12529
▁rzeczach	-12530
▁strzelać	-12531
▁Przyniosę	-12532
▁bohaterem	-12533
liwi	-12534
odes	-12535
onim	-12536
źnie	-12537
owców	-12538
▁spła	-12539
▁sław	-12540
▁unus	-12541
▁Paige	-12542
▁ryzyko	-12543
▁kawałki	-12544
▁poniedział	-12545
vere	-12546
▁capt	-12547
▁szczegó	-12548
▁pistolet	-12549
▁Jedź	-12550
▁heli	-12551
▁Seven	-12552
▁grupa	-12553
▁pojedy	-12554
▁poinform	-12555
arem	-12556
racy	-12557
ługi	-12558
▁zwł	-12559
▁Otwo	-12560
▁sher	-12561
▁Sierż	-12562
▁served	-12563
▁kolejną	-12564
▁similar	-12565
hel	-12566
uce	-12567
pers	-12568
tyjs	-12569
wałam	-12570
▁ryby	-12571
▁porze	-12572
▁stopni	-12573
▁au	-12574
othy	-12575
▁Pla	-12576
ważyć	-12577
▁edge	-12578
▁rude	-12579
▁adopt	-12580
▁desire	-12581
nat	-12582
▁Kel	-12583
▁Kra	-12584
▁krą	-12585
▁Ball	-12586
▁Liam	-12587
▁Rozp	-12588
▁reward	-12589
▁Raymond	-12590
▁comfort	-12591
▁administ	-12592
▁umieścić	-12593
▁excellent	-12594
▁interesuje	-12595
▁przysięgam	-12596
▁Ven	-12597
▁cro	-12598
▁dea	-12599
▁igno	-12600
alenie	-12601
▁Phill	-12602
▁Tracy	-12603
▁equip	-12604
▁piwnicy	-12605
▁trakcie	-12606
oria	-12607
▁Buff	-12608
▁kasę	-12609
▁pokaż	-12610
▁score	-12611
▁warto	-12612
▁bohater	-12613
▁Narrator	-12614
▁(	-12615
ński	-12616
bling	-12617
▁Afry	-12618
▁Trze	-12619
▁rise	-12620
▁Zaczę	-12621
▁oppos	-12622
▁proto	-12623
▁solve	-12624
▁prosec	-12625
▁następne	-12626
▁nawzajem	-12627
igo	-12628
roś	-12629
sen	-12630
▁wyr	-12631
▁Many	-12632
▁Opie	-12633
▁warn	-12634
▁wise	-12635
czyłaś	-12636
▁false	-12637
▁każde	-12638
▁Zrobił	-12639
▁książka	-12640
▁naszymi	-12641
▁możliwość	-12642
ańcz	-12643
onów	-12644
xter	-12645
▁glo	-12646
▁jadę	-12647
owości	-12648
▁ranny	-12649
▁repeat	-12650
▁emocjon	-12651
▁położyć	-12652
▁przyzwo	-12653
▁płaszcz	-12654
▁Yet	-12655
▁pęk	-12656
▁Girl	-12657
▁skrę	-12658
▁uraz	-12659
ującym	-12660
▁neuro	-12661
▁terap	-12662
jection	-12663
▁przesa	-12664
▁szczery	-12665
▁winning	-12666
▁wyprowa	-12667
▁Jonathan	-12668
▁becoming	-12669
▁poznałem	-12670
▁wspaniała	-12671
▁DR	-12672
▁196	-12673
▁Bos	-12674
▁Tar	-12675
▁insty	-12676
▁ożeni	-12677
▁wewnątrz	-12678
bled	-12679
▁Kla	-12680
▁Judy	-12681
▁liqu	-12682
▁Sześć	-12683
▁Inspector	-12684
▁ciemności	-12685
▁zwierzęta	-12686
tym	-12687
▁DA	-12688
▁Nak	-12689
nięte	-12690
utiful	-12691
▁Drink	-12692
▁Sądzę	-12693
▁misji	-12694
▁pursu	-12695
▁shift	-12696
▁Honest	-12697
▁highly	-12698
▁wielko	-12699
▁Ameryce	-12700
▁century	-12701
▁poważne	-12702
▁precious	-12703
xon	-12704
ującą	-12705
▁okul	-12706
coming	-12707
▁dzięk	-12708
▁gejem	-12709
▁swing	-12710
▁secure	-12711
▁slowly	-12712
▁square	-12713
▁zrezyg	-12714
▁przecież	-12715
ois	-12716
rena	-12717
▁pak	-12718
▁bags	-12719
▁hire	-12720
▁Number	-12721
▁chances	-12722
▁sisters	-12723
▁shopping	-12724
iną	-12725
▁woke	-12726
▁przywi	-12727
▁twarzą	-12728
▁gościem	-12729
▁distance	-12730
▁â	-12731
geon	-12732
icip	-12733
lend	-12734
sion	-12735
▁jaw	-12736
▁umrę	-12737
▁zerw	-12738
▁Brend	-12739
▁Dylan	-12740
▁bride	-12741
▁garage	-12742
▁mirror	-12743
▁Natalie	-12744
▁sprawić	-12745
▁zacząłem	-12746
▁Department	-12747
tak	-12748
▁LA	-12749
▁201	-12750
▁shh	-12751
▁Hart	-12752
▁aside	-12753
▁lewej	-12754
▁tears	-12755
▁individ	-12756
ases	-12757
dzmi	-12758
chell	-12759
▁perf	-12760
▁fajne	-12761
▁trace	-12762
▁guards	-12763
▁psychi	-12764
▁śladów	-12765
▁Barbara	-12766
▁beating	-12767
▁Vol	-12768
▁Nich	-12769
▁prim	-12770
▁cabin	-12771
▁Sister	-12772
arygodne	-12773
▁Service	-12774
▁tamtego	-12775
▁occasion	-12776
▁princess	-12777
▁progress	-12778
▁nob	-12779
chani	-12780
▁tatą	-12781
▁Colle	-12782
▁Martwi	-12783
▁wolność	-12784
▁wysłuch	-12785
▁creature	-12786
▁podsłuch	-12787
▁ostatniego	-12788
Cz	-12789
▁Obs	-12790
▁hyd	-12791
▁Szko	-12792
▁fart	-12793
▁fakty	-12794
▁influ	-12795
▁kąpie	-12796
▁Pokażę	-12797
▁mystery	-12798
▁pozwala	-12799
▁przynieś	-12800
▁disgusting	-12801
▁samobójstwo	-12802
gun	-12803
rach	-12804
▁Shel	-12805
▁clin	-12806
▁hunting	-12807
▁klienta	-12808
▁provide	-12809
▁Niektóre	-12810
▁wsparcie	-12811
▁doświadczenia	-12812
IED	-12813
▁sf	-12814
▁hmm	-12815
▁ord	-12816
▁ciot	-12817
▁wodą	-12818
▁bilet	-12819
▁chora	-12820
▁popeł	-12821
▁Wouldn	-12822
▁królew	-12823
▁palców	-12824
▁Anthony	-12825
▁Grandma	-12826
▁Zaczyna	-12827
▁ciężkie	-12828
▁friendship	-12829
łki	-12830
▁Poś	-12831
istic	-12832
▁Mind	-12833
▁Oper	-12834
▁Idzie	-12835
▁lepsza	-12836
▁zagrać	-12837
▁escaped	-12838
▁pamiętaj	-12839
▁samolotu	-12840
9,	-12841
▁rolę	-12842
▁Hotel	-12843
▁Lucky	-12844
▁Matka	-12845
▁warri	-12846
▁clever	-12847
▁cleaning	-12848
IV	-12849
▁jes	-12850
▁Bren	-12851
▁Save	-12852
▁Szef	-12853
▁term	-12854
▁Travis	-12855
▁treated	-12856
▁sypialni	-12857
▁carefully	-12858
▁żołnierzy	-12859
▁Pass	-12860
▁formu	-12861
▁receive	-12862
▁Dostałem	-12863
▁Security	-12864
▁wróciłeś	-12865
▁zaszczyt	-12866
▁equipment	-12867
▁grandfather	-12868
▁4:	-12869
▁6:	-12870
bach	-12871
który	-12872
▁Luci	-12873
▁Daisy	-12874
▁Quiet	-12875
▁talks	-12876
▁spoken	-12877
▁wyrzuc	-12878
▁znajom	-12879
▁passing	-12880
▁wytrzym	-12881
▁nonsense	-12882
rócił	-12883
▁Neil	-12884
▁suko	-12885
▁below	-12886
▁lower	-12887
▁Sebast	-12888
▁chcieć	-12889
▁chosen	-12890
▁odrobin	-12891
▁mieszkań	-12892
▁ps	-12893
ouch	-12894
▁10.	-12895
holic	-12896
▁Drew	-12897
▁stała	-12898
▁Pułkow	-12899
▁muzyka	-12900
▁silver	-12901
▁zombie	-12902
▁Chciała	-12903
▁nadziei	-12904
▁poszedłem	-12905
utki	-12906
▁Ned	-12907
▁Use	-12908
▁paz	-12909
▁wzg	-12910
antem	-12911
▁gods	-12912
▁lotn	-12913
▁actual	-12914
▁Możecie	-12915
▁Popatrz	-12916
▁materiał	-12917
▁poprosił	-12918
▁Zwariowałeś	-12919
veill	-12920
▁Dana	-12921
▁odby	-12922
▁estab	-12923
▁szamp	-12924
▁zrani	-12925
▁żonaty	-12926
▁miracle	-12927
▁cholerny	-12928
roń	-12929
chet	-12930
unte	-12931
▁jew	-12932
rzest	-12933
▁sale	-12934
▁tear	-12935
▁WOULD	-12936
▁stranger	-12937
▁zwierząt	-12938
▁Pieniądze	-12939
▁straciłem	-12940
▁Potrzebuje	-12941
say	-12942
▁Dw	-12943
▁wd	-12944
▁Eun	-12945
▁gym	-12946
▁Bang	-12947
▁Mars	-12948
▁Prawdę	-12949
▁Uwierz	-12950
▁Neither	-12951
▁wrócimy	-12952
CI	-12953
ounts	-12954
▁Moim	-12955
▁Potra	-12956
▁kolek	-12957
▁wnios	-12958
▁August	-12959
▁assass	-12960
▁punktu	-12961
▁wysłał	-12962
▁strachu	-12963
▁uderzył	-12964
▁Zostałem	-12965
ingu	-12966
ięty	-12967
otic	-12968
łaby	-12969
icted	-12970
▁dostaje	-12971
▁pamięci	-12972
▁shoulder	-12973
▁działania	-12974
▁pozwolisz	-12975
▁widziałaś	-12976
RES	-12977
ques	-12978
rapy	-12979
rees	-12980
▁Zim	-12981
▁Dong	-12982
▁serw	-12983
......	-12984
▁Lance	-12985
▁babcia	-12986
▁niedzie	-12987
▁nieważne	-12988
▁Americans	-12989
czam	-12990
▁Łat	-12991
▁duża	-12992
▁fully	-12993
▁torbę	-12994
cidence	-12995
▁button	-12996
▁zginie	-12997
▁Finally	-12998
▁pieniędzmi	-12999
nan	-13000
▁MR	-13001
oner	-13002
▁org	-13003
▁elev	-13004
▁Buddy	-13005
▁prawd	-13006
▁winna	-13007
▁wszechś	-13008
▁hundreds	-13009
▁kłamstwo	-13010
ANG	-13011
tee	-13012
▁Dot	-13013
▁Faj	-13014
▁cloud	-13015
▁flesh	-13016
▁steps	-13017
▁ślubu	-13018
▁Monica	-13019
▁oczami	-13020
▁Looking	-13021
▁Poproszę	-13022
eau	-13023
amed	-13024
▁HIS	-13025
▁Rów	-13026
▁gno	-13027
jąłem	-13028
▁Need	-13029
▁Scar	-13030
▁libr	-13031
▁wino	-13032
▁Seems	-13033
▁Uważam	-13034
▁astron	-13035
▁Zamiast	-13036
▁kwestia	-13037
▁starych	-13038
▁mistakes	-13039
▁złodziej	-13040
▁przedstawić	-13041
▁Osk	-13042
▁env	-13043
▁smu	-13044
anice	-13045
ędzie	-13046
łyśmy	-13047
żenia	-13048
▁FROM	-13049
▁Half	-13050
▁bell	-13051
▁leads	-13052
▁rozmi	-13053
▁brains	-13054
▁czysty	-13055
▁starym	-13056
▁wybacz	-13057
▁wzrost	-13058
▁pleased	-13059
▁rez	-13060
▁dirt	-13061
▁Cross	-13062
▁Mario	-13063
▁Julian	-13064
▁Lauren	-13065
▁koryta	-13066
▁oddział	-13067
▁surface	-13068
▁goodness	-13069
▁skorzyst	-13070
nuj	-13071
▁Cu	-13072
▁sharp	-13073
nęliśmy	-13074
▁dziwny	-13075
▁yellow	-13076
▁moments	-13077
▁drzwiami	-13078
▁programu	-13079
▁sprzedaw	-13080
▁Całkowicie	-13081
▁intelligence	-13082
▁interesujące	-13083
dam	-13084
ulu	-13085
ożyt	-13086
noszą	-13087
szony	-13088
▁Cale	-13089
▁Kind	-13090
▁Domin	-13091
▁walka	-13092
▁łańcu	-13093
▁rejest	-13094
▁Francji	-13095
▁Zapytaj	-13096
▁honestly	-13097
▁okropnie	-13098
▁successful	-13099
▁Zjednoczonych	-13100
too	-13101
▁Złam	-13102
▁błag	-13103
▁Połud	-13104
▁dozen	-13105
▁łóżko	-13106
▁drzewa	-13107
▁pożegn	-13108
▁riding	-13109
▁chciałbyś	-13110
▁guarantee	-13111
rus	-13112
ślad	-13113
▁fest	-13114
▁slip	-13115
▁GOING	-13116
▁Prosi	-13117
▁Ralph	-13118
▁ciele	-13119
▁złota	-13120
▁fortun	-13121
▁ludzko	-13122
▁szalona	-13123
▁useless	-13124
▁absolutnie	-13125
▁dziewczyno	-13126
itą	-13127
▁Gran	-13128
▁boun	-13129
▁Diego	-13130
▁ramię	-13131
▁relig	-13132
▁natura	-13133
▁pushed	-13134
▁Zgaduję	-13135
▁ability	-13136
▁engaged	-13137
▁wystawi	-13138
▁spending	-13139
ęły	-13140
▁dish	-13141
▁scan	-13142
endent	-13143
▁skarb	-13144
▁Castle	-13145
▁dziadek	-13146
▁trapped	-13147
▁Jednakże	-13148
▁stworzyć	-13149
aily	-13150
kuje	-13151
encję	-13152
▁Każda	-13153
▁pisać	-13154
▁polow	-13155
▁bogaty	-13156
▁Special	-13157
▁dowiemy	-13158
▁samochodem	-13159
▁Att	-13160
▁Seth	-13161
▁klin	-13162
▁puts	-13163
verage	-13164
▁gówni	-13165
▁karet	-13166
▁attend	-13167
▁hearts	-13168
▁remove	-13169
▁rozgry	-13170
▁carried	-13171
▁zdrowie	-13172
veillance	-13173
▁pomożesz	-13174
▁nadejdzie	-13175
kud	-13176
elson	-13177
▁pride	-13178
▁Profes	-13179
▁Powiesz	-13180
▁Stanley	-13181
▁odchodź	-13182
▁zadzwoń	-13183
▁separate	-13184
▁przyjaciółką	-13185
nień	-13186
▁Uderz	-13187
▁occur	-13188
▁joking	-13189
▁failure	-13190
▁południ	-13191
▁słychać	-13192
sed	-13193
road	-13194
▁anno	-13195
▁nogę	-13196
▁trwa	-13197
▁brand	-13198
▁impul	-13199
▁króle	-13200
▁bzdury	-13201
▁pieprzony	-13202
▁spodziewałem	-13203
OWN	-13204
bes	-13205
gage	-13206
▁bump	-13207
▁wond	-13208
▁Angie	-13209
▁Mitch	-13210
▁Wrócę	-13211
▁sneak	-13212
▁wyraz	-13213
▁pokażę	-13214
▁winner	-13215
▁odbiera	-13216
▁Virginia	-13217
▁champion	-13218
▁zadowolony	-13219
urd	-13220
▁trash	-13221
▁Jersey	-13222
▁School	-13223
▁niemie	-13224
▁samych	-13225
▁nieprzy	-13226
vard	-13227
▁Pear	-13228
▁lake	-13229
▁wisi	-13230
▁skóry	-13231
▁systemu	-13232
ika	-13233
arium	-13234
▁Kole	-13235
▁umawi	-13236
▁fashion	-13237
▁pokonać	-13238
▁Princess	-13239
▁łazienki	-13240
▁Zazwyczaj	-13241
▁chciałabym	-13242
▁conference	-13243
▁dowiedział	-13244
iac	-13245
esar	-13246
▁zapas	-13247
▁Północ	-13248
▁byłbym	-13249
▁kolana	-13250
ierdalaj	-13251
▁Zgadzam	-13252
▁dzwonił	-13253
▁entirely	-13254
4,	-13255
▁SA	-13256
▁Cons	-13257
▁June	-13258
▁Camer	-13259
▁armed	-13260
▁dałeś	-13261
▁liczyć	-13262
▁naprzód	-13263
▁nadszedł	-13264
ev	-13265
hest	-13266
▁nin	-13267
water	-13268
▁tłum	-13269
▁songs	-13270
▁Niezła	-13271
▁indust	-13272
▁Tatusiu	-13273
▁Halloween	-13274
▁próbowałem	-13275
ciele	-13276
▁podw	-13277
▁wyłą	-13278
▁knees	-13279
▁elimin	-13280
▁explan	-13281
▁konsek	-13282
▁pomogę	-13283
▁review	-13284
▁umarła	-13285
▁posprząt	-13286
▁specific	-13287
szp	-13288
iers	-13289
▁CAR	-13290
▁jezi	-13291
▁thin	-13292
▁zdjąć	-13293
▁powrót	-13294
▁szansy	-13295
▁waszej	-13296
▁instrum	-13297
▁zwyczaj	-13298
▁Director	-13299
▁potential	-13300
▁rozmawiamy	-13301
▁End	-13302
ATION	-13303
▁Moon	-13304
▁atom	-13305
▁cham	-13306
▁shel	-13307
▁Found	-13308
▁Kitty	-13309
▁fruit	-13310
▁hates	-13311
▁korzy	-13312
▁destru	-13313
nki	-13314
▁Rap	-13315
iding	-13316
ordin	-13317
▁mercy	-13318
▁przym	-13319
▁wstęp	-13320
▁Govern	-13321
▁Louise	-13322
▁Martha	-13323
▁refuse	-13324
▁demonst	-13325
▁dziennie	-13326
▁skończyło	-13327
▁wytłumaczyć	-13328
sky	-13329
▁Year	-13330
rzeciw	-13331
▁gadać	-13332
▁border	-13333
▁podejm	-13334
▁Heather	-13335
▁leading	-13336
▁własnych	-13337
pot	-13338
alam	-13339
▁Top	-13340
▁lips	-13341
▁nego	-13342
orable	-13343
▁concl	-13344
▁spryt	-13345
▁wybor	-13346
▁depends	-13347
▁niedźwie	-13348
▁zrobione	-13349
kod	-13350
oter	-13351
▁den	-13352
▁Slow	-13353
▁poka	-13354
cznymi	-13355
▁Dałem	-13356
▁rzeki	-13357
▁sąsie	-13358
▁silent	-13359
▁Whoever	-13360
▁Załatwi	-13361
▁National	-13362
▁midnight	-13363
▁próbując	-13364
▁Nadchodzi	-13365
▁literally	-13366
żeń	-13367
▁Ek	-13368
szli	-13369
▁Pak	-13370
▁ing	-13371
▁snu	-13372
allow	-13373
siada	-13374
▁krad	-13375
▁atrak	-13376
▁istot	-13377
▁tabli	-13378
▁czarny	-13379
▁prawej	-13380
▁zmusić	-13381
▁martwię	-13382
▁sześciu	-13383
▁Szczęśli	-13384
pia	-13385
iana	-13386
wizy	-13387
▁Clar	-13388
▁Razem	-13389
▁flash	-13390
▁łączy	-13391
▁czekał	-13392
▁szukam	-13393
▁zostałeś	-13394
▁zaczniemy	-13395
7,	-13396
▁32	-13397
▁PO	-13398
▁Ya	-13399
cist	-13400
leng	-13401
▁Pob	-13402
▁ult	-13403
▁celi	-13404
▁contra	-13405
▁najwyż	-13406
▁sprząt	-13407
▁pozwolił	-13408
▁Pła	-13409
▁bać	-13410
▁Bran	-13411
▁Real	-13412
dzicie	-13413
▁anger	-13414
▁nasty	-13415
▁uzysk	-13416
▁zdobę	-13417
▁opieki	-13418
▁kawałków	-13419
łot	-13420
cześ	-13421
▁Eat	-13422
▁kok	-13423
▁kum	-13424
▁BACK	-13425
▁Jill	-13426
▁Imper	-13427
▁twist	-13428
▁ciężki	-13429
▁events	-13430
▁przeni	-13431
▁zarzut	-13432
▁cudownie	-13433
▁podłodze	-13434
▁whenever	-13435
▁nieszczęśli	-13436
▁niedorzeczne	-13437
arda	-13438
▁boi	-13439
▁Kurt	-13440
▁Said	-13441
▁blast	-13442
▁piątek	-13443
▁strona	-13444
▁herbaty	-13445
▁papiero	-13446
▁pięknie	-13447
▁pamiętać	-13448
▁pomyślał	-13449
▁przynieść	-13450
▁MU	-13451
bija	-13452
▁une	-13453
nerem	-13454
▁Chap	-13455
▁auto	-13456
▁Janet	-13457
▁Jezus	-13458
▁cruel	-13459
▁dumna	-13460
▁marks	-13461
▁sucks	-13462
▁wyjdziesz	-13463
uś	-13464
▁Sl	-13465
OUND	-13466
użyte	-13467
▁Hale	-13468
▁Otwie	-13469
▁shout	-13470
▁detail	-13471
▁loving	-13472
▁propos	-13473
ropriate	-13474
▁przytrafi	-13475
▁Zabierzcie	-13476
▁rare	-13477
ension	-13478
▁zakaz	-13479
▁ukradł	-13480
kle	-13481
luj	-13482
resa	-13483
yers	-13484
▁Hop	-13485
▁alert	-13486
owiedzi	-13487
▁Zajmij	-13488
▁tortur	-13489
▁unusual	-13490
▁dołączyć	-13491
pą	-13492
sku	-13493
oded	-13494
▁uns	-13495
▁cios	-13496
▁tatę	-13497
▁Berlin	-13498
▁Bishop	-13499
▁Holmes	-13500
▁filmie	-13501
▁authority	-13502
don	-13503
▁KOB	-13504
▁cris	-13505
▁waliz	-13506
▁wojen	-13507
▁assure	-13508
▁otwórz	-13509
▁pośpie	-13510
▁stairs	-13511
▁władzy	-13512
▁Upewnij	-13513
▁Prezydent	-13514
▁Fitz	-13515
▁Hands	-13516
▁Nicole	-13517
▁Ronnie	-13518
▁patrol	-13519
▁skradzi	-13520
▁spróbuj	-13521
▁Rozmawiałem	-13522
▁Kr	-13523
cort	-13524
▁Cru	-13525
▁wra	-13526
▁damy	-13527
przest	-13528
▁Meliss	-13529
▁gubern	-13530
▁trusted	-13531
▁Pierwsza	-13532
▁audience	-13533
▁basement	-13534
▁darkness	-13535
▁Beautiful	-13536
▁skomplikowane	-13537
▁AD	-13538
lica	-13539
▁Noah	-13540
▁Załóż	-13541
▁kartę	-13542
▁pussy	-13543
▁sales	-13544
▁squad	-13545
▁zarzą	-13546
▁Though	-13547
▁skills	-13548
▁knocked	-13549
▁pociągu	-13550
▁robbery	-13551
▁szalone	-13552
▁constant	-13553
▁prawnika	-13554
▁Ur	-13555
żynie	-13556
▁bury	-13557
▁clue	-13558
aniemy	-13559
▁Dawno	-13560
▁Paula	-13561
▁juice	-13562
▁klubie	-13563
▁sprzęt	-13564
▁Pójdziemy	-13565
▁zachowanie	-13566
▁Av	-13567
resp	-13568
▁ded	-13569
▁osą	-13570
anymi	-13571
▁ubra	-13572
▁Keith	-13573
▁Sydney	-13574
▁policy	-13575
▁sprawdź	-13576
▁ambulance	-13577
▁dokumenty	-13578
▁zadzwonię	-13579
mann	-13580
▁pee	-13581
sides	-13582
sznie	-13583
▁Each	-13584
▁Sied	-13585
▁Diane	-13586
▁regul	-13587
▁obrazy	-13588
▁Gabriel	-13589
▁pozycji	-13590
▁wymyślić	-13591
▁Zobaczysz	-13592
▁spotkałem	-13593
▁zob	-13594
▁Tess	-13595
▁okrę	-13596
▁continu	-13597
▁odciski	-13598
▁electric	-13599
lee	-13600
liwie	-13601
▁dwoma	-13602
▁mądra	-13603
▁ships	-13604
których	-13605
▁dobrzy	-13606
▁zespołu	-13607
▁entertain	-13608
insy	-13609
▁11:	-13610
▁Cre	-13611
nieni	-13612
▁Hiszp	-13613
▁Oddaj	-13614
▁Times	-13615
▁obraż	-13616
▁Juliet	-13617
▁brachu	-13618
▁dowodu	-13619
▁sensie	-13620
▁smells	-13621
▁Grandpa	-13622
▁patrzysz	-13623
▁screaming	-13624
▁przyjdziesz	-13625
Czy	-13626
ęli	-13627
▁abo	-13628
▁cyt	-13629
▁Śle	-13630
▁Eight	-13631
▁forgi	-13632
▁frust	-13633
▁helps	-13634
▁agents	-13635
▁corpor	-13636
▁schron	-13637
▁więźni	-13638
▁Wszędzie	-13639
obs	-13640
▁Bus	-13641
▁Hou	-13642
▁okna	-13643
szości	-13644
▁minds	-13645
▁kissed	-13646
▁Senator	-13647
▁wyobraź	-13648
▁piosenki	-13649
oły	-13650
syw	-13651
haust	-13652
▁Claud	-13653
▁Elena	-13654
▁krwią	-13655
▁wiatr	-13656
▁option	-13657
▁succeed	-13658
▁trained	-13659
▁nagranie	-13660
▁delicious	-13661
aju	-13662
▁Leg	-13663
▁wzy	-13664
unków	-13665
▁poet	-13666
▁tere	-13667
▁rzucić	-13668
▁wymyśl	-13669
rin	-13670
rząs	-13671
▁Fif	-13672
known	-13673
▁task	-13674
▁Pomogę	-13675
▁emeryt	-13676
▁winter	-13677
▁poprawi	-13678
▁przywit	-13679
▁prysznic	-13680
Tak	-13681
ardo	-13682
▁Mis	-13683
owcem	-13684
▁Yang	-13685
▁klas	-13686
▁żywo	-13687
▁KOBIE	-13688
▁czasz	-13689
▁route	-13690
▁ruchy	-13691
▁silny	-13692
▁arrive	-13693
▁wyszło	-13694
▁przegra	-13695
▁trigger	-13696
▁musiałeś	-13697
▁szacunkiem	-13698
▁Meg	-13699
▁dip	-13700
▁Shane	-13701
▁poczek	-13702
▁zawiod	-13703
▁zabiorę	-13704
▁bierzesz	-13705
1,	-13706
away	-13707
ciła	-13708
▁mayor	-13709
▁cudowne	-13710
▁victory	-13711
▁postawić	-13712
▁prisoner	-13713
▁protecting	-13714
▁kupił	-13715
▁niepoko	-13716
▁vampire	-13717
▁Następny	-13718
▁podnieść	-13719
▁bezpieczny	-13720
▁dziewczynie	-13721
gna	-13722
▁Div	-13723
▁Imp	-13724
▁Boisz	-13725
▁poleg	-13726
▁range	-13727
▁klucze	-13728
▁poprzez	-13729
▁przepad	-13730
▁setting	-13731
▁wanting	-13732
▁zabawny	-13733
▁Przyjech	-13734
▁Kontynuuj	-13735
▁threatened	-13736
▁Psy	-13737
▁bug	-13738
▁lack	-13739
▁tylu	-13740
▁ognia	-13741
▁pełna	-13742
▁wolne	-13743
▁Bennet	-13744
▁porówn	-13745
▁cooking	-13746
▁ekspert	-13747
▁helikop	-13748
VEN	-13749
czał	-13750
nell	-13751
▁duck	-13752
▁hung	-13753
▁prąd	-13754
▁teat	-13755
▁wyko	-13756
▁złych	-13757
▁kontrolą	-13758
▁odpocząć	-13759
▁umierają	-13760
▁rozmawiałem	-13761
▁Exp	-13762
▁Mah	-13763
▁exer	-13764
omości	-13765
▁repla	-13766
▁rozst	-13767
▁drogie	-13768
▁joined	-13769
▁płakać	-13770
▁szkoda	-13771
▁thrown	-13772
▁zabiła	-13773
▁Allison	-13774
▁Mistrzu	-13775
▁dotrzeć	-13776
zor	-13777
roma	-13778
▁Fre	-13779
▁sha	-13780
▁węd	-13781
geous	-13782
isible	-13783
▁filmy	-13784
▁miłos	-13785
▁sweat	-13786
▁Świąt	-13787
▁laptop	-13788
▁oddych	-13789
▁Interes	-13790
▁Monsieur	-13791
▁kościoła	-13792
▁zamierza	-13793
▁przeprasz	-13794
▁searching	-13795
▁sink	-13796
▁idealnie	-13797
▁coincidence	-13798
eli	-13799
ówek	-13800
▁orygin	-13801
▁solution	-13802
▁remembered	-13803
ództ	-13804
▁Jos	-13805
▁Syn	-13806
wiata	-13807
▁anal	-13808
▁pity	-13809
▁advent	-13810
▁monkey	-13811
artament	-13812
▁herbatę	-13813
▁robiłem	-13814
▁staring	-13815
▁doświadczenie	-13816
box	-13817
rink	-13818
▁cierp	-13819
▁pewni	-13820
▁Murphy	-13821
▁Robisz	-13822
▁wszedł	-13823
aliforni	-13824
▁uniwers	-13825
▁wspomnienia	-13826
▁AG	-13827
kini	-13828
stka	-13829
rację	-13830
▁Musie	-13831
▁ramion	-13832
standing	-13833
▁Italian	-13834
▁prevent	-13835
▁Przeczyt	-13836
abel	-13837
plom	-13838
śliz	-13839
noszę	-13840
▁mors	-13841
ursday	-13842
▁Sandy	-13843
▁chwil	-13844
▁przesp	-13845
▁mogłaby	-13846
▁nieruch	-13847
▁parties	-13848
▁violent	-13849
▁świadka	-13850
▁sposobem	-13851
▁emotional	-13852
▁skończysz	-13853
▁pozwolenie	-13854
ifts	-13855
▁Jun	-13856
▁cul	-13857
▁suka	-13858
rześci	-13859
uments	-13860
▁Bravo	-13861
▁Numer	-13862
▁wampi	-13863
▁Hunter	-13864
▁ruszyć	-13865
▁senior	-13866
▁Lincoln	-13867
czniej	-13868
▁wysił	-13869
▁ofertę	-13870
▁abandoned	-13871
▁sierżancie	-13872
AME	-13873
▁5:	-13874
▁Dur	-13875
▁craw	-13876
▁Texas	-13877
▁zegar	-13878
▁znany	-13879
▁houses	-13880
▁koście	-13881
▁pewność	-13882
▁volunte	-13883
▁bezużyte	-13884
▁niewiele	-13885
▁przystoj	-13886
▁niedaleko	-13887
cre	-13888
▁4.	-13889
enti	-13890
▁Cel	-13891
▁Sky	-13892
▁WHY	-13893
▁dym	-13894
▁zys	-13895
cover	-13896
▁Benj	-13897
▁Bert	-13898
▁Walt	-13899
▁opóź	-13900
▁zdej	-13901
▁candy	-13902
▁należ	-13903
▁wasza	-13904
▁wyczy	-13905
▁fallen	-13906
▁strach	-13907
▁federal	-13908
▁miejscach	-13909
SA	-13910
ORE	-13911
cut	-13912
rup	-13913
▁OFF	-13914
craft	-13915
▁Wade	-13916
▁firmę	-13917
▁palec	-13918
▁bilety	-13919
▁writer	-13920
▁revolution	-13921
oza	-13922
ardy	-13923
pton	-13924
▁Jae	-13925
ading	-13926
▁Które	-13927
▁porno	-13928
icially	-13929
▁piękną	-13930
▁znaczyć	-13931
▁Opowiedz	-13932
▁weźmiesz	-13933
▁chłopakiem	-13934
ize	-13935
two	-13936
▁Au	-13937
▁Ira	-13938
▁var	-13939
aming	-13940
▁WHEN	-13941
▁wolę	-13942
▁penis	-13943
▁wynik	-13944
łuk	-13945
▁Bron	-13946
▁Mass	-13947
▁TIME	-13948
▁Trans	-13949
▁Zaczą	-13950
▁setki	-13951
▁Silver	-13952
▁Mitchell	-13953
aco	-13954
▁UH	-13955
▁GON	-13956
▁Ple	-13957
esday	-13958
▁silna	-13959
▁stret	-13960
▁cancel	-13961
▁myster	-13962
▁rozwią	-13963
ironment	-13964
▁zacznij	-13965
▁krzyczeć	-13966
▁wreszcie	-13967
▁skontaktować	-13968
▁understanding	-13969
▁Soo	-13970
narod	-13971
▁chiń	-13972
▁Oskar	-13973
▁biały	-13974
▁kinds	-13975
▁Jedyne	-13976
▁Willie	-13977
▁bronić	-13978
▁identy	-13979
▁składa	-13980
▁świąty	-13981
▁factory	-13982
▁Wystarczająco	-13983
▁przedstawienie	-13984
WO	-13985
nęły	-13986
orta	-13987
utor	-13988
▁pała	-13989
▁Debbie	-13990
▁Dziecko	-13991
▁Franklin	-13992
▁przeszuk	-13993
▁possibility	-13994
alth	-13995
mare	-13996
nili	-13997
▁shoe	-13998
▁Ogląd	-13999
▁bored	-14000
▁wstać	-14001
▁Adrian	-14002
▁Boston	-14003
▁nazywam	-14004
▁learning	-14005
▁nastroju	-14006
▁zaczynam	-14007
▁zapewnić	-14008
▁Nieprawda	-14009
▁małżeństwa	-14010
▁przystojny	-14011
0,	-14012
loz	-14013
▁Vo	-14014
czący	-14015
▁rosy	-14016
▁India	-14017
▁Piper	-14018
▁facts	-14019
▁quali	-14020
▁basket	-14021
▁nuclear	-14022
▁spotkaniu	-14023
▁Jadę	-14024
▁goal	-14025
▁miecz	-14026
▁złoto	-14027
▁Minęło	-14028
▁breast	-14029
▁pardon	-14030
▁trzeci	-14031
▁virgin	-14032
▁Została	-14033
▁agreement	-14034
▁świadkiem	-14035
ucha	-14036
aling	-14037
ously	-14038
▁Mack	-14039
▁gest	-14040
▁Allen	-14041
▁wykop	-14042
▁Cofnij	-14043
▁Manhat	-14044
▁mental	-14045
▁teleph	-14046
▁billion	-14047
▁mechani	-14048
▁proceed	-14049
▁prawnikiem	-14050
▁surveillance	-14051
6,	-14052
In	-14053
▁!	-14054
▁SAY	-14055
▁ses	-14056
walić	-14057
▁pias	-14058
▁scri	-14059
▁Fight	-14060
▁Zapew	-14061
looking	-14062
▁castle	-14063
▁kosztuje	-14064
▁wyraźnie	-14065
EAD	-14066
▁kn	-14067
This	-14068
etime	-14069
lying	-14070
▁Stać	-14071
▁abyś	-14072
▁agres	-14073
▁Connor	-14074
▁intend	-14075
▁kosmos	-14076
▁prawdą	-14077
▁uzbroj	-14078
▁zazwyczaj	-14079
▁Tae	-14080
ridge	-14081
▁debt	-14082
▁hill	-14083
▁typu	-14084
▁Raczej	-14085
▁troops	-14086
▁Zrobisz	-14087
▁besides	-14088
▁Jedziemy	-14089
▁pojechać	-14090
?.	-14091
lant	-14092
ashed	-14093
▁Muszą	-14094
▁butelkę	-14095
▁twojemu	-14096
FE	-14097
ule	-14098
▁Gall	-14099
▁Felix	-14100
▁Johna	-14101
▁wypeł	-14102
▁zabijać	-14103
▁konsekwen	-14104
▁explanation	-14105
rój	-14106
alia	-14107
brew	-14108
▁HEY	-14109
▁unt	-14110
▁Żał	-14111
▁zali	-14112
▁Około	-14113
▁scenę	-14114
▁żonie	-14115
▁mówiłaś	-14116
▁rozpozn	-14117
▁zwycięz	-14118
▁Poszedłem	-14119
aść	-14120
▁Yay	-14121
▁zdą	-14122
▁Card	-14123
▁Seat	-14124
▁GONNA	-14125
▁dogad	-14126
▁winny	-14127
▁wyrzuci	-14128
▁sometime	-14129
▁zmęczony	-14130
▁mountains	-14131
▁pacjentów	-14132
▁przesłuchanie	-14133
keep	-14134
wate	-14135
▁Krę	-14136
andal	-14137
▁ward	-14138
atorze	-14139
▁Carla	-14140
▁wyzna	-14141
▁Często	-14142
▁angiel	-14143
▁wallet	-14144
▁confess	-14145
▁decyzji	-14146
▁Cro	-14147
▁Lake	-14148
▁Twoi	-14149
▁Cicho	-14150
▁Zgubi	-14151
▁płacz	-14152
▁virus	-14153
▁zaklę	-14154
▁Warren	-14155
▁closet	-14156
▁wodzie	-14157
▁zbiera	-14158
▁KOBIETA	-14159
▁cutting	-14160
▁granicę	-14161
▁skończę	-14162
▁ordinary	-14163
▁confidence	-14164
kus	-14165
arks	-14166
▁przekazać	-14167
▁poruczniku	-14168
▁wyprawiasz	-14169
IAN	-14170
▁thy	-14171
▁tum	-14172
dzina	-14173
▁1000	-14174
▁czoł	-14175
▁zega	-14176
▁dopad	-14177
▁humor	-14178
▁wypuści	-14179
▁żartujesz	-14180
▁kompletnie	-14181
isty	-14182
ored	-14183
▁Ped	-14184
▁Sea	-14185
▁Łap	-14186
▁Krzy	-14187
▁myli	-14188
▁Coach	-14189
▁Panna	-14190
▁panic	-14191
▁wysko	-14192
▁żołąd	-14193
▁employ	-14194
▁wishes	-14195
▁alcohol	-14196
▁minister	-14197
▁pieprzyć	-14198
▁zasługuje	-14199
▁background	-14200
bad	-14201
▁3,	-14202
ierę	-14203
▁Dog	-14204
▁Hod	-14205
▁rip	-14206
▁vot	-14207
▁chore	-14208
▁zejść	-14209
▁Africa	-14210
▁cukier	-14211
rell	-14212
▁kel	-14213
ematy	-14214
nięta	-14215
▁Holl	-14216
▁Napi	-14217
▁obwin	-14218
▁estate	-14219
▁parent	-14220
▁Certain	-14221
▁kapitana	-14222
▁kontrakt	-14223
▁wherever	-14224
▁wyjechać	-14225
▁reputation	-14226
▁przestrzeni	-14227
▁właścicielem	-14228
Do	-14229
ARE	-14230
olar	-14231
▁leki	-14232
otrzeb	-14233
▁Erica	-14234
▁mostly	-14235
▁Goddamn	-14236
▁uważnie	-14237
▁walczył	-14238
ASE	-14239
▁unf	-14240
▁econ	-14241
▁Steph	-14242
▁brown	-14243
▁kills	-14244
▁Czekam	-14245
▁Najwyż	-14246
▁kombin	-14247
▁piekła	-14248
▁exhaust	-14249
▁pojęcie	-14250
▁Oz	-14251
▁Web	-14252
▁Stat	-14253
▁ręką	-14254
▁stad	-14255
▁tale	-14256
▁Wanna	-14257
▁plays	-14258
▁express	-14259
▁nagrodę	-14260
▁magazine	-14261
▁przepros	-14262
▁reported	-14263
▁Lyn	-14264
peror	-14265
▁Burt	-14266
▁Ward	-14267
▁napi	-14268
▁awans	-14269
▁grass	-14270
▁joint	-14271
▁królową	-14272
▁properly	-14273
▁Znajdziemy	-14274
▁embarrassing	-14275
▁Mem	-14276
encja	-14277
▁grał	-14278
▁menu	-14279
▁etern	-14280
▁loser	-14281
▁tooth	-14282
▁unique	-14283
▁zwrócić	-14284
▁Zamierzam	-14285
▁Natychmiast	-14286
IES	-14287
▁".	-14288
▁SC	-14289
noty	-14290
▁Ist	-14291
▁Yan	-14292
▁vul	-14293
▁schod	-14294
▁stays	-14295
▁coward	-14296
▁psycho	-14297
▁Careful	-14298
▁Instead	-14299
▁przetrwać	-14300
▁Cart	-14301
▁dece	-14302
▁deny	-14303
▁mand	-14304
▁uszy	-14305
▁Benny	-14306
▁ciasto	-14307
szczenie	-14308
▁Zabawne	-14309
▁rzeczami	-14310
▁EN	-14311
órka	-14312
▁lim	-14313
anish	-14314
▁Meet	-14315
▁Mine	-14316
▁grozi	-14317
▁dostaw	-14318
▁Christine	-14319
▁szczęśliwi	-14320
fią	-14321
zel	-14322
dzeń	-14323
jusz	-14324
ytut	-14325
▁Obu	-14326
▁cave	-14327
▁styl	-14328
▁vent	-14329
aniami	-14330
▁Homer	-14331
▁curse	-14332
▁rocks	-14333
▁rozej	-14334
▁ważna	-14335
▁Couldn	-14336
▁Czysto	-14337
▁compla	-14338
▁technic	-14339
▁Thursday	-14340
▁siedział	-14341
▁treasure	-14342
▁km	-14343
▁Lis	-14344
▁nis	-14345
▁sre	-14346
rówko	-14347
▁100%	-14348
▁Been	-14349
▁Podd	-14350
▁fuel	-14351
▁Śmie	-14352
ission	-14353
▁armii	-14354
▁eaten	-14355
▁hałas	-14356
▁zależ	-14357
▁zwrac	-14358
▁Norman	-14359
▁Wyobraż	-14360
▁murders	-14361
▁myślałeś	-14362
▁przyczep	-14363
▁teaching	-14364
eman	-14365
▁Eri	-14366
▁Jung	-14367
▁loan	-14368
▁sons	-14369
onable	-14370
▁spali	-14371
▁Uderzy	-14372
▁całkow	-14373
▁komput	-14374
▁nogami	-14375
▁Chłopcy	-14376
▁gwiazdą	-14377
▁wyczerp	-14378
▁miłością	-14379
▁prezyden	-14380
ista	-14381
▁Eva	-14382
▁Lyd	-14383
▁czuj	-14384
▁dosł	-14385
▁nick	-14386
▁odcin	-14387
▁Ziemia	-14388
▁kingdom	-14389
▁library	-14390
▁mówiłam	-14391
▁starszy	-14392
▁Niewiele	-14393
▁attitude	-14394
mis	-14395
▁bid	-14396
▁gni	-14397
dziny	-14398
▁Troy	-14399
▁dupie	-14400
▁draniu	-14401
▁stands	-14402
▁zmianę	-14403
▁dziedzi	-14404
▁hurting	-14405
▁identity	-14406
8,	-14407
blo	-14408
AUSE	-14409
▁śli	-14410
▁Enjoy	-14411
▁wykry	-14412
▁ofiarą	-14413
▁prints	-14414
▁szkoła	-14415
▁Spodzie	-14416
▁przedmi	-14417
▁świadków	-14418
▁usłyszałem	-14419
▁Vi	-14420
awno	-14421
łaty	-14422
▁Karl	-14423
▁Wolę	-14424
▁rehe	-14425
▁ilość	-14426
▁ledwo	-14427
▁Curtis	-14428
▁Promise	-14429
▁rozwiązać	-14430
▁uszczęśli	-14431
cam	-14432
iao	-14433
onio	-14434
▁Test	-14435
▁bazy	-14436
▁hits	-14437
▁uwięz	-14438
ongress	-14439
▁zakupy	-14440
▁Tuesday	-14441
▁decisions	-14442
▁zachowywać	-14443
▁HAD	-14444
▁móc	-14445
▁Hend	-14446
▁Juan	-14447
▁bene	-14448
render	-14449
▁COULD	-14450
▁Podaj	-14451
▁załam	-14452
▁Dziwne	-14453
▁modern	-14454
▁Zabiłeś	-14455
▁koszmar	-14456
▁network	-14457
▁wakacje	-14458
▁zaprowa	-14459
▁uspokoić	-14460
▁Skończyłem	-14461
▁performance	-14462
▁szczególnie	-14463
▁Powiedziałbym	-14464
see	-14465
▁susp	-14466
▁Nagle	-14467
▁conse	-14468
▁racja	-14469
▁launch	-14470
▁niewie	-14471
▁chasing	-14472
▁garbage	-14473
▁Highness	-14474
▁witnesses	-14475
▁disappointed	-14476
niać	-14477
▁Pic	-14478
usive	-14479
▁Maya	-14480
▁Skon	-14481
▁Zwyk	-14482
▁enjo	-14483
▁rośl	-14484
▁couch	-14485
▁dziew	-14486
▁notat	-14487
▁Bailey	-14488
▁recall	-14489
▁Kennedy	-14490
MY	-14491
bag	-14492
nist	-14493
▁Team	-14494
▁złot	-14495
cyjnym	-14496
▁sides	-14497
▁Obserw	-14498
▁gorąca	-14499
▁smutne	-14500
▁Darling	-14501
▁delight	-14502
▁tańczyć	-14503
▁niezależ	-14504
▁osobiste	-14505
▁Obviously	-14506
WAY	-14507
ryl	-14508
czyk	-14509
▁łeb	-14510
icles	-14511
okoła	-14512
▁tent	-14513
łodzie	-14514
▁Pokaz	-14515
▁Znisz	-14516
▁okiem	-14517
▁fourth	-14518
▁przeja	-14519
▁collect	-14520
▁instruk	-14521
▁package	-14522
▁windows	-14523
▁pokazuje	-14524
▁sprowadzić	-14525
▁5.	-14526
dzeni	-14527
▁rund	-14528
▁Sleep	-14529
▁zebra	-14530
▁autost	-14531
▁dowiem	-14532
▁insult	-14533
▁zmarła	-14534
▁crossed	-14535
▁uniknąć	-14536
▁Cudownie	-14537
▁strzelan	-14538
▁professor	-14539
ums	-14540
▁mm	-14541
▁Fat	-14542
▁Wyb	-14543
▁tek	-14544
akami	-14545
▁siód	-14546
▁wins	-14547
▁Dzies	-14548
▁falls	-14549
▁fantaz	-14550
▁takimi	-14551
▁pozytyw	-14552
▁procent	-14553
▁Victoria	-14554
▁ludziach	-14555
▁recommend	-14556
▁rodzicami	-14557
▁zainteresowany	-14558
kimi	-14559
kuję	-14560
▁Mak	-14561
▁gear	-14562
ruchom	-14563
▁Chase	-14564
▁Nelson	-14565
▁zajęło	-14566
▁Spotkamy	-14567
▁impressed	-14568
▁przeczytać	-14569
▁bezpośrednio	-14570
OUR	-14571
▁Slo	-14572
▁Grab	-14573
▁cało	-14574
▁EVERY	-14575
▁Jules	-14576
▁Money	-14577
▁chase	-14578
▁śmiet	-14579
▁pushing	-14580
▁większy	-14581
▁bastards	-14582
▁przeszkadzam	-14583
agger	-14584
ałoby	-14585
▁kupi	-14586
estern	-14587
▁Guard	-14588
▁delay	-14589
▁kultu	-14590
▁narod	-14591
▁popie	-14592
▁refer	-14593
▁ważny	-14594
▁Gloria	-14595
▁doceni	-14596
▁środek	-14597
▁contest	-14598
▁pamięta	-14599
▁species	-14600
▁oddychać	-14601
▁rozwiązanie	-14602
anc	-14603
▁rib	-14604
ppers	-14605
▁Made	-14606
▁Ruszać	-14607
▁Samant	-14608
▁czysto	-14609
▁nazwać	-14610
▁przeci	-14611
▁tempor	-14612
▁Collins	-14613
▁brytyjs	-14614
▁sheriff	-14615
▁Szybciej	-14616
▁samochody	-14617
▁niektórych	-14618
iro	-14619
▁dwaj	-14620
▁Quite	-14621
▁dachu	-14622
▁depos	-14623
▁circle	-14624
▁drużyna	-14625
▁wybiera	-14626
▁trzymasz	-14627
▁szczegóły	-14628
▁hug	-14629
▁pusz	-14630
▁Gonna	-14631
▁Woman	-14632
▁oceni	-14633
▁jumped	-14634
▁Każdego	-14635
▁przyjąć	-14636
▁wdzięczny	-14637
▁environment	-14638
▁Yi	-14639
leźć	-14640
ckett	-14641
ołych	-14642
▁Cisza	-14643
ologist	-14644
▁niezłe	-14645
▁środow	-14646
▁kurczaka	-14647
cać	-14648
▁dim	-14649
▁baru	-14650
▁dent	-14651
▁kamień	-14652
▁niezły	-14653
▁Zdrówko	-14654
▁destiny	-14655
▁Excellent	-14656
▁przenieść	-14657
▁najszybciej	-14658
ALK	-14659
char	-14660
umph	-14661
▁taś	-14662
nował	-14663
łonie	-14664
▁Grey	-14665
▁flag	-14666
dziesiąt	-14667
▁szukamy	-14668
▁podpisać	-14669
▁rozmawiał	-14670
Le	-14671
ZIE	-14672
eda	-14673
hab	-14674
ups	-14675
inct	-14676
stem	-14677
▁Wąt	-14678
▁anni	-14679
▁nurs	-14680
▁pasz	-14681
▁reży	-14682
▁komis	-14683
▁kryzy	-14684
chester	-14685
▁Graham	-14686
▁Znajdę	-14687
▁messed	-14688
▁useful	-14689
▁zobowiąz	-14690
▁pomyślałam	-14691
ktu	-14692
opat	-14693
▁Fox	-14694
ropon	-14695
▁Zale	-14696
▁Ukrad	-14697
▁Donald	-14698
▁Heaven	-14699
▁dollar	-14700
▁słodka	-14701
AIN	-14702
▁FE	-14703
anów	-14704
▁wyjdę	-14705
▁Alison	-14706
▁latest	-14707
▁series	-14708
▁staram	-14709
▁selfish	-14710
▁friendly	-14711
frow	-14712
rzen	-14713
▁opła	-14714
▁youth	-14715
racować	-14716
▁Gdzieś	-14717
▁regist	-14718
▁rzeczywiście	-14719
acu	-14720
iggs	-14721
wear	-14722
▁Boo	-14723
▁Dup	-14724
▁Taj	-14725
▁ilu	-14726
▁łam	-14727
▁Imag	-14728
▁Dwóch	-14729
▁Girls	-14730
▁swego	-14731
▁surely	-14732
niejszych	-14733
▁Honestly	-14734
▁Superman	-14735
xi	-14736
łby	-14737
▁Dość	-14738
▁thee	-14739
▁wyna	-14740
▁pożar	-14741
▁suffe	-14742
▁zamów	-14743
▁Przyby	-14744
ordinary	-14745
▁uspokój	-14746
▁believes	-14747
▁messages	-14748
▁Znalazłeś	-14749
ACE	-14750
ATOR	-14751
ściej	-14752
▁BEEN	-14753
▁Gina	-14754
▁rządu	-14755
▁zbieg	-14756
▁czekają	-14757
▁komórki	-14758
▁ważnego	-14759
▁marzenia	-14760
▁podobało	-14761
▁survived	-14762
▁powietrzu	-14763
irl	-14764
▁aim	-14765
ięcia	-14766
▁Cher	-14767
▁omin	-14768
illing	-14769
vement	-14770
▁fella	-14771
▁ładne	-14772
▁Pozost	-14773
▁trzecie	-14774
▁deserves	-14775
▁gorgeous	-14776
▁sprzedaż	-14777
kre	-14778
▁BL	-14779
asty	-14780
iter	-14781
ciami	-14782
rzuty	-14783
▁holy	-14784
▁piwa	-14785
▁polu	-14786
▁porę	-14787
▁trzę	-14788
▁benzy	-14789
▁napić	-14790
▁słaby	-14791
▁ciaste	-14792
▁profile	-14793
▁przyjaź	-14794
▁silence	-14795
▁accepted	-14796
▁telefoni	-14797
▁zabierze	-14798
▁transform	-14799
▁impression	-14800
▁przysięgłych	-14801
▁bezpieczeństwo	-14802
adą	-14803
▁Ax	-14804
▁Bag	-14805
▁raka	-14806
▁yard	-14807
będzie	-14808
▁Beach	-14809
▁oszal	-14810
▁czyste	-14811
▁escort	-14812
▁Powtarz	-14813
▁pomysły	-14814
▁version	-14815
▁suspicious	-14816
bury	-14817
nicą	-14818
shed	-14819
▁Tit	-14820
▁Pokój	-14821
▁koron	-14822
▁szlag	-14823
styczne	-14824
▁Pierce	-14825
▁Wyłącz	-14826
▁przyda	-14827
▁samemu	-14828
▁znacznie	-14829
zwo	-14830
lina	-14831
ords	-14832
▁tuz	-14833
alone	-14834
andra	-14835
▁nosa	-14836
▁grace	-14837
▁Miejmy	-14838
▁Philip	-14839
▁skupić	-14840
▁otworzy	-14841
▁bibliote	-14842
▁response	-14843
▁widzieli	-14844
▁Dziewczyny	-14845
zny	-14846
dłuż	-14847
much	-14848
▁czyż	-14849
▁spak	-14850
▁Amber	-14851
▁Chang	-14852
cyjnego	-14853
▁inspir	-14854
▁rewolu	-14855
▁Cameron	-14856
▁samochodów	-14857
▁podejrzanego	-14858
chyl	-14859
dzej	-14860
ables	-14861
▁jech	-14862
▁pant	-14863
▁rape	-14864
▁Shawn	-14865
▁morza	-14866
▁palce	-14867
▁rozry	-14868
adomość	-14869
▁dyplom	-14870
▁flower	-14871
▁scenie	-14872
▁znajdą	-14873
▁znajdź	-14874
▁planety	-14875
▁Spróbuję	-14876
▁Sebastian	-14877
itt	-14878
jach	-14879
lett	-14880
with	-14881
łani	-14882
▁Lab	-14883
▁YES	-14884
0,000	-14885
▁belt	-14886
▁miej	-14887
▁najm	-14888
▁Miejs	-14889
▁basen	-14890
▁czyli	-14891
▁truci	-14892
▁walkę	-14893
▁someday	-14894
▁miesiąca	-14895
▁wiecznie	-14896
▁wrażeniem	-14897
▁ważniejsze	-14898
▁Christopher	-14899
▁pierścionek	-14900
▁12.	-14901
▁Ilu	-14902
▁Sco	-14903
▁zbo	-14904
▁zup	-14905
rzucę	-14906
▁toss	-14907
▁picia	-14908
▁torby	-14909
▁fellas	-14910
▁ukraść	-14911
▁warned	-14912
▁niewinny	-14913
▁offering	-14914
▁nightmare	-14915
▁Ul	-14916
szty	-14917
▁Herr	-14918
▁Mall	-14919
▁WERE	-14920
▁mięk	-14921
▁znał	-14922
▁forth	-14923
▁skull	-14924
▁spons	-14925
▁zdraj	-14926
▁Leslie	-14927
▁mechan	-14928
▁przyst	-14929
▁Zabiorę	-14930
▁hitting	-14931
▁however	-14932
▁kochają	-14933
▁obawiam	-14934
▁papiery	-14935
▁drużynie	-14936
▁wystarczają	-14937
ere	-14938
new	-14939
▁dwu	-14940
▁kow	-14941
berry	-14942
▁Wasn	-14943
▁dosy	-14944
▁wyjdź	-14945
▁wyraż	-14946
▁wyrok	-14947
▁ciemno	-14948
▁dziewi	-14949
▁dostała	-14950
▁designed	-14951
▁consequence	-14952
▁ó	-14953
▁dal	-14954
▁gut	-14955
▁kij	-14956
▁Dziad	-14957
▁Ellie	-14958
▁WHERE	-14959
▁wkład	-14960
▁rosyjs	-14961
▁sports	-14962
▁taniec	-14963
▁unlike	-14964
▁cheating	-14965
▁pożyczyć	-14966
▁champagne	-14967
▁sprowadza	-14968
▁praktycznie	-14969
▁podekscytowana	-14970
▁¿	-14971
ysł	-14972
iles	-14973
▁zgar	-14974
▁zone	-14975
raszyć	-14976
▁Siedem	-14977
▁modlit	-14978
▁podusz	-14979
▁reklam	-14980
▁imprezy	-14981
▁princip	-14982
▁drzwiach	-14983
▁facility	-14984
▁forgiven	-14985
▁judgment	-14986
▁Bir	-14987
▁unh	-14988
▁Skar	-14989
▁Gotta	-14990
▁clown	-14991
▁wujka	-14992
▁Clevel	-14993
▁czułam	-14994
▁powiad	-14995
▁płacze	-14996
▁Londynu	-14997
▁cywiliz	-14998
▁formula	-14999
▁leaders	-15000
▁pracują	-15001
▁telefony	-15002
▁financial	-15003
▁jednostki	-15004
But	-15005
bać	-15006
iko	-15007
ogram	-15008
▁Gorą	-15009
▁Kirk	-15010
▁Supp	-15011
▁pigu	-15012
ologia	-15013
▁Błagam	-15014
▁kochał	-15015
▁complex	-15016
▁Lawrence	-15017
▁angielsku	-15018
▁przypomnieć	-15019
tit	-15020
▁iż	-15021
arian	-15022
▁Sign	-15023
▁trop	-15024
▁Uśmie	-15025
▁będąc	-15026
▁pomar	-15027
▁szóst	-15028
▁waszym	-15029
szeliśmy	-15030
▁Jakiego	-15031
▁Londynie	-15032
▁document	-15033
▁dostałeś	-15034
▁stopping	-15035
▁appe	-15036
▁Manny	-15037
▁domin	-15038
▁radzi	-15039
▁serio	-15040
▁wejdź	-15041
niliśmy	-15042
▁aboard	-15043
▁commer	-15044
▁defeat	-15045
jedziemy	-15046
▁Meksyku	-15047
▁przeklę	-15048
▁therapy	-15049
▁betrayed	-15050
▁newspaper	-15051
-4	-15052
jured	-15053
▁firmie	-15054
▁Wallace	-15055
▁młodych	-15056
conscious	-15057
▁zaskoczona	-15058
assi	-15059
szem	-15060
▁Ret	-15061
▁szn	-15062
▁łas	-15063
▁Boys	-15064
▁Simp	-15065
▁redu	-15066
▁umowy	-15067
▁uncom	-15068
▁Morris	-15069
▁Mulder	-15070
▁rękami	-15071
▁idealne	-15072
▁massive	-15073
▁senator	-15074
▁Idealnie	-15075
▁suffered	-15076
▁zostawiła	-15077
alę	-15078
tali	-15079
▁Mig	-15080
▁civ	-15081
▁Full	-15082
▁Stri	-15083
▁civi	-15084
▁Power	-15085
▁Royal	-15086
▁Nichol	-15087
▁zmiana	-15088
▁bullets	-15089
▁uderzyć	-15090
▁wiedząc	-15091
▁zapobie	-15092
▁kobiecie	-15093
▁przeznaczenie	-15094
MAN	-15095
aya	-15096
▁Pin	-15097
ciąga	-15098
▁potw	-15099
dziale	-15100
▁Damon	-15101
▁consp	-15102
▁mięso	-15103
▁wykaz	-15104
▁potato	-15105
▁przeby	-15106
▁rękawi	-15107
▁supply	-15108
▁wyspie	-15109
▁ściany	-15110
▁accused	-15111
▁zgadzam	-15112
▁rozpoczę	-15113
▁Kaliforni	-15114
▁zamknięty	-15115
▁dostaniemy	-15116
▁nienawidzi	-15117
▁Add	-15118
uster	-15119
▁2000	-15120
▁Brid	-15121
▁Wind	-15122
▁Micha	-15123
▁Spadaj	-15124
▁chwilą	-15125
▁postar	-15126
▁przewa	-15127
▁Seattle	-15128
▁cieszyć	-15129
▁uwierzy	-15130
▁disaster	-15131
▁historie	-15132
▁reaction	-15133
▁customers	-15134
▁CR	-15135
▁awa	-15136
owski	-15137
▁ufam	-15138
▁wiek	-15139
chunek	-15140
szczep	-15141
▁Popeł	-15142
▁Wcześ	-15143
▁title	-15144
▁Chryst	-15145
▁Paryża	-15146
▁paskud	-15147
▁egzamin	-15148
▁fishing	-15149
▁ochronę	-15150
▁powodem	-15151
▁zaczęli	-15152
▁pacjenta	-15153
ansas	-15154
▁Hear	-15155
▁wing	-15156
▁Śpie	-15157
▁widow	-15158
▁wolna	-15159
cyjnych	-15160
▁Odwróć	-15161
▁Równie	-15162
▁piekło	-15163
▁poszli	-15164
▁freaking	-15165
▁wyrzucić	-15166
▁Oi	-15167
▁Sł	-15168
ślić	-15169
▁Ire	-15170
▁Poj	-15171
amily	-15172
nijmy	-15173
▁Spad	-15174
▁kale	-15175
▁Later	-15176
▁habit	-15177
▁portf	-15178
▁idioto	-15179
▁comprom	-15180
▁Wesołych	-15181
▁obecność	-15182
▁wybierasz	-15183
ardów	-15184
ckiej	-15185
▁doro	-15186
orytet	-15187
imately	-15188
▁Harper	-15189
▁resour	-15190
▁zajebi	-15191
▁Podnieś	-15192
▁fu	-15193
arkę	-15194
ysis	-15195
▁Answ	-15196
▁ekst	-15197
ionych	-15198
▁THING	-15199
▁nieod	-15200
▁zablok	-15201
▁obserwa	-15202
nal	-15203
lena	-15204
▁Słoń	-15205
▁mete	-15206
prints	-15207
▁głosu	-15208
▁royal	-15209
▁symbo	-15210
▁wyśle	-15211
▁krymin	-15212
▁zacznę	-15213
▁Śmierć	-15214
▁Musicie	-15215
▁Puszczaj	-15216
▁nieszczę	-15217
▁rachunek	-15218
▁ucieczki	-15219
▁intention	-15220
▁zdolności	-15221
AG	-15222
ęt	-15223
urą	-15224
OUGH	-15225
roll	-15226
▁Rum	-15227
▁Róż	-15228
▁sar	-15229
kward	-15230
▁News	-15231
▁THEM	-15232
ckiego	-15233
▁Brawo	-15234
▁braci	-15235
▁coast	-15236
▁stake	-15237
▁żadna	-15238
▁County	-15239
▁patrzę	-15240
▁przyjdą	-15241
▁przemocy	-15242
▁wypuszcz	-15243
▁kidnapped	-15244
▁sensitive	-15245
LI	-15246
imp	-15247
ilton	-15248
▁Left	-15249
▁odes	-15250
▁sync	-15251
▁Marco	-15252
▁Pocał	-15253
▁myślałaś	-15254
▁pathetic	-15255
▁telefonów	-15256
IRE	-15257
NIE	-15258
zes	-15259
lera	-15260
▁Ast	-15261
▁rig	-15262
▁Brun	-15263
▁Caleb	-15264
▁wstyd	-15265
▁siedmi	-15266
▁maintain	-15267
▁spotykać	-15268
▁zaczniesz	-15269
▁$3	-15270
▁Gwen	-15271
▁TELL	-15272
▁Wybra	-15273
▁initi	-15274
▁starą	-15275
▁prawem	-15276
▁władzę	-15277
▁zdarza	-15278
▁section	-15279
▁counting	-15280
▁sprawach	-15281
▁procedure	-15282
▁pracowników	-15283
▁niesprawiedliwe	-15284
cier	-15285
żyłeś	-15286
▁Głup	-15287
▁pisa	-15288
▁karie	-15289
▁umowa	-15290
▁Brandon	-15291
▁inżynie	-15292
▁theater	-15293
▁chemical	-15294
▁delivery	-15295
agi	-15296
▁CD	-15297
bian	-15298
▁Bri	-15299
▁uch	-15300
pherd	-15301
▁Mort	-15302
▁Rest	-15303
▁Shir	-15304
▁wand	-15305
owicie	-15306
▁advis	-15307
▁babci	-15308
▁bogat	-15309
▁stops	-15310
▁wpadł	-15311
▁wujku	-15312
▁agency	-15313
▁crimes	-15314
▁traged	-15315
▁korzyst	-15316
▁miserable	-15317
▁Mot	-15318
▁Ran	-15319
▁dial	-15320
▁rzeź	-15321
▁zapy	-15322
▁nauki	-15323
▁pełną	-15324
▁Księży	-15325
▁Melissa	-15326
▁degrees	-15327
▁dupkiem	-15328
▁poprosić	-15329
▁sukinsynu	-15330
▁spojrzenie	-15331
emp	-15332
ctic	-15333
▁Oct	-15334
▁mud	-15335
inals	-15336
▁Nora	-15337
▁traf	-15338
▁Baker	-15339
▁Women	-15340
▁prize	-15341
▁Bezpie	-15342
▁Hector	-15343
▁randka	-15344
RO	-15345
ably	-15346
ibly	-15347
umow	-15348
▁Pur	-15349
▁Insp	-15350
▁Rita	-15351
▁kurs	-15352
▁rope	-15353
▁Broad	-15354
▁Merry	-15355
▁próba	-15356
▁prepar	-15357
▁script	-15358
▁uroczy	-15359
szczenia	-15360
▁lepszym	-15361
▁zegarek	-15362
▁Dziesięć	-15363
▁Cleveland	-15364
▁Dostaniesz	-15365
▁officially	-15366
wz	-15367
cio	-15368
▁nr	-15369
lami	-15370
▁Cur	-15371
▁kota	-15372
▁laws	-15373
▁spra	-15374
▁tracks	-15375
▁Getting	-15376
▁movement	-15377
▁studying	-15378
irm	-15379
▁15.	-15380
czoną	-15381
▁pink	-15382
▁pras	-15383
▁szer	-15384
manent	-15385
▁Krist	-15386
▁Perry	-15387
▁print	-15388
▁wideo	-15389
▁Connie	-15390
▁uczest	-15391
▁ziemia	-15392
▁Przesuń	-15393
▁poważna	-15394
▁sekundy	-15395
▁tęsknię	-15396
▁wasting	-15397
▁osiągnąć	-15398
▁particul	-15399
▁mieszkasz	-15400
▁właściciel	-15401
▁prawdopodob	-15402
▁Rozmawialiśmy	-15403
mia	-15404
▁PE	-15405
▁Dol	-15406
▁Rab	-15407
▁rys	-15408
▁boom	-15409
▁czuł	-15410
▁ukoń	-15411
▁Kości	-15412
▁ambas	-15413
▁cells	-15414
▁panny	-15415
▁Królew	-15416
▁absurd	-15417
▁dookoła	-15418
▁dziecku	-15419
▁pomyłka	-15420
▁umrzesz	-15421
▁światem	-15422
▁poślubić	-15423
▁cigarette	-15424
kov	-15425
▁Die	-15426
▁der	-15427
phere	-15428
▁Having	-15429
▁przeze	-15430
▁Germany	-15431
▁mogłoby	-15432
▁misunder	-15433
▁dosłownie	-15434
▁kolejnego	-15435
▁zajmujesz	-15436
▁znaleziono	-15437
AH	-15438
ODY	-15439
kra	-15440
▁ig	-15441
gnać	-15442
▁nieu	-15443
▁surf	-15444
▁Blood	-15445
▁Zabój	-15446
▁recon	-15447
▁zwari	-15448
▁Stuart	-15449
▁głośno	-15450
▁zbliża	-15451
▁samotna	-15452
▁settled	-15453
▁lifetime	-15454
▁negative	-15455
NI	-15456
casz	-15457
▁SOM	-15458
ushing	-15459
▁dłoni	-15460
▁kluczy	-15461
▁smooth	-15462
arehouse	-15463
▁telephone	-15464
▁terrorist	-15465
▁poniedziałek	-15466
iki	-15467
orp	-15468
▁75	-15469
sona	-15470
▁Sud	-15471
▁Odbi	-15472
▁Orle	-15473
▁TAKE	-15474
▁Wild	-15475
▁kawi	-15476
▁zysk	-15477
▁anioł	-15478
▁uczni	-15479
▁planem	-15480
▁zamach	-15481
▁Houston	-15482
▁counsel	-15483
▁jeździć	-15484
▁starożyt	-15485
▁wychodzą	-15486
▁confirmed	-15487
▁przypomina	-15488
tom	-15489
▁OUR	-15490
▁tłu	-15491
▁upo	-15492
cjach	-15493
▁jedź	-15494
▁Whose	-15495
▁mogłaś	-15496
▁shield	-15497
▁spodni	-15498
▁Antonio	-15499
▁Company	-15500
▁greater	-15501
▁miliona	-15502
▁function	-15503
▁somethin	-15504
▁Valentine	-15505
rany	-15506
▁20.	-15507
▁Ein	-15508
▁cher	-15509
▁sele	-15510
▁Cindy	-15511
▁THANK	-15512
▁czyst	-15513
▁głodu	-15514
▁thick	-15515
▁widzą	-15516
▁tattoo	-15517
niejszym	-15518
▁Mamusiu	-15519
▁funkcjon	-15520
▁influence	-15521
▁prisoners	-15522
▁opowiedzieć	-15523
edź	-15524
oura	-15525
▁Crow	-15526
▁gaze	-15527
▁grzy	-15528
▁życi	-15529
▁Patri	-15530
▁dosyć	-15531
▁nagry	-15532
▁Wspani	-15533
▁backup	-15534
▁footage	-15535
▁śpiewać	-15536
▁działają	-15537
▁matematy	-15538
▁zakończyć	-15539
▁Zrobiliśmy	-15540
[...]
