<unk>	0
<s>	0
</s>	0
er	-0
en	-1
ch	-2
in	-3
▁d	-4
▁t	-5
▁w	-6
▁a	-7
▁s	-8
▁h	-9
ou	-10
▁m	-11
ie	-12
▁I	-13
st	-14
▁i	-15
an	-16
▁th	-17
on	-18
as	-19
ll	-20
re	-21
▁b	-22
▁S	-23
at	-24
▁n	-25
▁g	-26
ich	-27
ein	-28
es	-29
▁W	-30
▁y	-31
nd	-32
▁you	-33
it	-34
or	-35
ar	-36
▁f	-37
▁D	-38
▁the	-39
ir	-40
▁A	-41
ing	-42
et	-43
▁l	-44
▁T	-45
▁to	-46
▁u	-47
▁M	-48
▁k	-49
is	-50
▁H	-51
▁c	-52
om	-53
te	-54
▁ha	-55
icht	-56
▁o	-57
▁v	-58
el	-59
ig	-60
▁B	-61
▁p	-62
▁in	-63
▁ein	-64
▁E	-65
ed	-66
al	-67
au	-68
▁G	-69
▁N	-70
ve	-71
▁Ich	-72
le	-73
ow	-74
▁be	-75
ot	-76
ut	-77
▁das	-78
▁nicht	-79
ere	-80
..	-81
▁ich	-82
eh	-83
▁ist	-84
ck	-85
▁Th	-86
...	-87
▁Y	-88
▁die	-89
▁z	-90
▁Sie	-91
ay	-92
un	-93
ur	-94
▁L	-95
ach	-96
▁K	-97
ei	-98
us	-99
am	-100
▁F	-101
▁of	-102
▁J	-103
ag	-104
▁du	-105
em	-106
ke	-107
▁an	-108
▁it	-109
▁O	-110
▁C	-111
ber	-112
im	-113
id	-114
▁and	-115
▁P	-116
▁me	-117
ld	-118
ben	-119
▁was	-120
▁und	-121
▁so	-122
▁j	-123
▁e	-124
▁You	-125
▁wh	-126
▁do	-127
▁zu	-128
▁r	-129
ter	-130
se	-131
▁on	-132
ill	-133
ad	-134
hr	-135
ier	-136
ind	-137
▁es	-138
ann	-139
▁wir	-140
uf	-141
▁we	-142
▁re	-143
▁R	-144
▁that	-145
ent	-146
▁Wh	-147
▁ver	-148
be	-149
and	-150
▁er	-151
oo	-152
ht	-153
▁der	-154
▁is	-155
gen	-156
ür	-157
ten	-158
▁sch	-159
▁he	-160
▁V	-161
all	-162
▁st	-163
ver	-164
ro	-165
uch	-166
enn	-167
▁un	-168
▁U	-169
out	-170
sch	-171
▁for	-172
▁sie	-173
hn	-174
▁have	-175
he	-176
ce	-177
ion	-178
sen	-179
ell	-180
▁all	-181
ge	-182
eine	-183
der	-184
lich	-185
il	-186
▁Das	-187
ith	-188
ant	-189
▁den	-190
▁war	-191
▁He	-192
▁your	-193
ung	-194
ome	-195
▁kn	-196
▁Sch	-197
omm	-198
ah	-199
ist	-200
▁al	-201
ust	-202
de	-203
▁auf	-204
ight	-205
▁mit	-206
▁hat	-207
her	-208
▁this	-209
▁ge	-210
▁my	-211
um	-212
▁mir	-213
▁The	-214
ol	-215
▁don	-216
▁no	-217
▁li	-218
▁know	-219
▁with	-220
os	-221
▁ab	-222
▁Ja	-223
▁not	-224
▁ne	-225
▁dass	-226
▁We	-227
ould	-228
▁mich	-229
den	-230
▁Du	-231
ic	-232
▁wie	-233
▁can	-234
pp	-235
▁Er	-236
▁go	-237
hing	-238
▁se	-239
ff	-240
▁What	-241
▁It	-242
ra	-243
▁Z	-244
▁are	-245
▁will	-246
oll	-247
▁Was	-248
▁im	-249
▁St	-250
▁her	-251
ehen	-252
op	-253
▁Wir	-254
▁get	-255
▁"	-256
▁uns	-257
▁Und	-258
▁fr	-259
▁eine	-260
eiß	-261
etz	-262
▁Es	-263
▁And	-264
ab	-265
ly	-266
one	-267
ön	-268
▁what	-269
ct	-270
ess	-271
▁für	-272
▁here	-273
ink	-274
▁sh	-275
chen	-276
und	-277
ake	-278
▁No	-279
▁haben	-280
▁von	-281
▁sich	-282
▁sind	-283
ast	-284
ry	-285
▁dich	-286
rau	-287
▁hier	-288
▁mein	-289
▁him	-290
▁want	-291
ood	-292
▁da	-293
▁Die	-294
▁wer	-295
▁That	-296
ehr	-297
▁aus	-298
▁habe	-299
▁like	-300
mer	-301
art	-302
ank	-303
our	-304
end	-305
ore	-306
est	-307
▁at	-308
▁as	-309
ib	-310
▁man	-311
▁out	-312
ort	-313
eah	-314
ack	-315
▁le	-316
▁about	-317
▁sein	-318
▁Ver	-319
▁sp	-320
▁noch	-321
▁bin	-322
kay	-323
▁dir	-324
▁als	-325
ör	-326
ul	-327
ern	-328
▁So	-329
▁An	-330
▁just	-331
ook	-332
▁Oh	-333
ft	-334
▁kann	-335
ri	-336
acht	-337
▁ch	-338
über	-339
▁Yeah	-340
▁up	-341
▁geh	-342
▁did	-343
ak	-344
▁sag	-345
ain	-346
▁any	-347
ass	-348
▁right	-349
▁einen	-350
ute	-351
etzt	-352
▁um	-353
ure	-354
▁nur	-355
▁dem	-356
▁wor	-357
▁ihn	-358
▁Le	-359
ück	-360
od	-361
ers	-362
▁there	-363
onn	-364
▁Nein	-365
▁ihr	-366
fe	-367
iel	-368
ine	-369
▁ges	-370
▁de	-371
ick	-372
▁think	-373
▁But	-374
▁mus	-375
önn	-376
oug	-377
▁Wie	-378
ation	-379
ap	-380
ze	-381
▁Al	-382
fen	-383
▁soll	-384
ive	-385
▁Aber	-386
▁but	-387
▁aber	-388
▁weiß	-389
ang	-390
aus	-391
▁us	-392
ard	-393
hl	-394
ally	-395
cht	-396
▁vor	-397
▁Do	-398
▁auch	-399
▁In	-400
▁über	-401
▁wenn	-402
▁one	-403
ong	-404
we	-405
▁tr	-406
▁hast	-407
ame	-408
ommen	-409
▁könn	-410
▁schon	-411
▁gut	-412
▁mach	-413
▁she	-414
▁All	-415
▁1	-416
ät	-417
uck	-418
▁they	-419
men	-420
ime	-421
ug	-422
are	-423
▁wird	-424
▁from	-425
ven	-426
ate	-427
▁Be	-428
lau	-429
▁br	-430
▁now	-431
▁if	-432
▁lo	-433
▁Hey	-434
▁ex	-435
▁mal	-436
▁Ein	-437
ause	-438
rie	-439
che	-440
ste	-441
▁ever	-442
▁nach	-443
▁sa	-444
▁ar	-445
kt	-446
▁woll	-447
itt	-448
qu	-449
▁pl	-450
▁say	-451
▁who	-452
thing	-453
▁Mr	-454
▁his	-455
ase	-456
ice	-457
▁ih	-458
age	-459
▁meine	-460
eil	-461
▁or	-462
lle	-463
▁see	-464
ep	-465
omet	-466
▁pro	-467
was	-468
▁Ar	-469
▁bist	-470
way	-471
iss	-472
▁doch	-473
▁Okay	-474
▁Wo	-475
res	-476
▁jetzt	-477
▁them	-478
alk	-479
igen	-480
üs	-481
▁back	-482
▁She	-483
▁been	-484
ert	-485
▁time	-486
ahr	-487
▁Ihr	-488
inn	-489
itte	-490
▁Sp	-491
▁would	-492
▁ja	-493
▁This	-494
▁et	-495
▁some	-496
so	-497
▁Ge	-498
▁good	-499
iert	-500
▁find	-501
▁Wenn	-502
▁dein	-503
▁Re	-504
▁zur	-505
sel	-506
▁ag	-507
ob	-508
▁too	-509
▁need	-510
ted	-511
▁wo	-512
▁War	-513
anz	-514
ne	-515
ound	-516
▁Ch	-517
▁has	-518
▁look	-519
imm	-520
▁lie	-521
▁werden	-522
onna	-523
▁Un	-524
eit	-525
▁con	-526
▁oder	-527
▁Der	-528
▁got	-529
▁am	-530
own	-531
▁hel	-532
▁dies	-533
▁were	-534
▁If	-535
other	-536
▁com	-537
▁How	-538
▁dann	-539
▁take	-540
sp	-541
▁'	-542
▁muss	-543
▁gonna	-544
▁hab	-545
omething	-546
assen	-547
ade	-548
agen	-549
esch	-550
▁They	-551
▁mehr	-552
▁nie	-553
▁had	-554
▁kl	-555
ave	-556
lo	-557
ide	-558
ater	-559
▁kein	-560
▁gu	-561
▁des	-562
▁Fr	-563
▁could	-564
▁dr	-565
▁ste	-566
wo	-567
▁etwas	-568
▁wieder	-569
ous	-570
▁every	-571
ige	-572
ik	-573
eid	-574
▁alles	-575
▁dar	-576
▁fe	-577
▁our	-578
▁didn	-579
▁keine	-580
▁Fre	-581
▁nichts	-582
▁Don	-583
▁Br	-584
iz	-585
ibt	-586
▁immer	-587
▁going	-588
▁something	-589
nt	-590
▁Well	-591
issen	-592
hnen	-593
▁Come	-594
▁thing	-595
reat	-596
▁tell	-597
ue	-598
▁wür	-599
▁geht	-600
▁There	-601
▁wä	-602
▁komm	-603
▁Why	-604
sten	-605
cause	-606
ire	-607
▁bei	-608
än	-609
ger	-610
per	-611
▁talk	-612
▁off	-613
ough	-614
▁come	-615
ien	-616
▁bet	-617
ble	-618
br	-619
ud	-620
ies	-621
mal	-622
▁when	-623
ild	-624
▁2	-625
elt	-626
erst	-627
▁gen	-628
▁happ	-629
▁Da	-630
pt	-631
▁does	-632
ren	-633
ise	-634
ord	-635
gt	-636
isch	-637
▁-	-638
▁okay	-639
▁work	-640
▁pe	-641
ost	-642
▁Mann	-643
ars	-644
▁Sh	-645
ieren	-646
▁more	-647
pl	-648
iv	-649
▁way	-650
▁müs	-651
▁bl	-652
anke	-653
oy	-654
▁should	-655
ielle	-656
gel	-657
▁einem	-658
▁mean	-659
▁tun	-660
▁how	-661
▁Ihnen	-662
▁ihm	-663
ott	-664
ittle	-665
▁en	-666
ait	-667
lease	-668
▁Yes	-669
ielleicht	-670
▁Thank	-671
▁sagen	-672
▁My	-673
▁können	-674
▁ent	-675
▁Are	-676
▁su	-677
ace	-678
▁Her	-679
▁machen	-680
▁Se	-681
test	-682
alt	-683
00	-684
▁down	-685
▁make	-686
rei	-687
▁Or	-688
▁Is	-689
ople	-690
agt	-691
▁gef	-692
ange	-693
▁zum	-694
▁let	-695
zen	-696
urch	-697
▁glau	-698
ite	-699
▁Zeit	-700
▁Komm	-701
ip	-702
▁by	-703
▁little	-704
▁call	-705
▁Let	-706
▁denn	-707
la	-708
▁einer	-709
▁los	-710
▁würde	-711
▁Not	-712
▁Ist	-713
▁int	-714
ought	-715
▁over	-716
kommen	-717
▁never	-718
bst	-719
ther	-720
▁again	-721
ity	-722
▁really	-723
ia	-724
ese	-725
klich	-726
ect	-727
lie	-728
ady	-729
eren	-730
▁brau	-731
▁Pro	-732
▁alle	-733
fach	-734
▁hin	-735
▁zurück	-736
ont	-737
gend	-738
hen	-739
ather	-740
▁Mar	-741
ett	-742
▁müssen	-743
▁werde	-744
▁only	-745
▁people	-746
▁sehr	-747
▁hät	-748
ish	-749
▁sehen	-750
ree	-751
ance	-752
aff	-753
▁anything	-754
if	-755
▁wur	-756
schen	-757
▁ho	-758
▁Gr	-759
▁viel	-760
▁Ne	-761
me	-762
ner	-763
▁gr	-764
▁gibt	-765
▁day	-766
▁Frau	-767
▁kill	-768
▁qu	-769
▁gehen	-770
▁help	-771
▁dam	-772
heit	-773
hre	-774
uld	-775
orry	-776
beit	-777
änd	-778
self	-779
bt	-780
get	-781
▁won	-782
▁bef	-783
▁bring	-784
▁zw	-785
▁Warum	-786
▁einfach	-787
orgen	-788
ßen	-789
ungen	-790
▁Also	-791
▁Nicht	-792
▁Dann	-793
▁happen	-794
▁very	-795
▁euch	-796
▁pr	-797
▁Ha	-798
amm	-799
▁still	-800
▁other	-801
▁said	-802
▁gew	-803
▁Jo	-804
▁doing	-805
▁Leben	-806
▁Where	-807
lt	-808
▁Freund	-809
ull	-810
▁Danke	-811
▁then	-812
▁Wer	-813
ac	-814
amil	-815
og	-816
▁wissen	-817
zu	-818
ört	-819
▁diese	-820
hal	-821
ody	-822
▁af	-823
▁deine	-824
▁also	-825
ken	-826
▁ganz	-827
▁weit	-828
▁hatte	-829
▁Auf	-830
emand	-831
▁Good	-832
aybe	-833
chte	-834
▁much	-835
▁where	-836
irst	-837
▁Gut	-838
▁ger	-839
ges	-840
▁pass	-841
▁love	-842
▁why	-843
▁Na	-844
ichtig	-845
▁bis	-846
▁verl	-847
▁two	-848
▁mö	-849
▁bel	-850
eld	-851
▁durch	-852
orn	-853
unden	-854
▁sc	-855
amp	-856
ond	-857
▁Who	-858
oney	-859
such	-860
▁best	-861
▁even	-862
urn	-863
ress	-864
ha	-865
ys	-866
▁unter	-867
".	-868
▁ye	-869
▁el	-870
wer	-871
."	-872
▁God	-873
▁wirklich	-874
▁because	-875
▁Bl	-876
ans	-877
▁bitte	-878
iff	-879
▁wollte	-880
uss	-881
ool	-882
▁Kind	-883
▁Mein	-884
▁long	-885
▁Will	-886
▁Then	-887
iend	-888
aut	-889
▁Kl	-890
▁Ihre	-891
▁friend	-892
▁sure	-893
ret	-894
ster	-895
ub	-896
▁Your	-897
ose	-898
▁wurde	-899
▁gesagt	-900
▁son	-901
▁mo	-902
▁Dr	-903
▁Man	-904
▁sorry	-905
uh	-906
▁weg	-907
▁wäre	-908
▁Schw	-909
ath	-910
oss	-911
▁Men	-912
▁Ex	-913
▁give	-914
▁Ste	-915
▁Ab	-916
▁cl	-917
orm	-918
▁jed	-919
▁thought	-920
▁Gott	-921
▁doesn	-922
▁gesch	-923
▁De	-924
ark	-925
ving	-926
day	-927
angen	-928
ock	-929
▁gem	-930
ören	-931
▁Mom	-932
blem	-933
ment	-934
▁To	-935
▁ins	-936
▁care	-937
rgend	-938
ün	-939
▁Lie	-940
▁Now	-941
▁wr	-942
▁Look	-943
irl	-944
ways	-945
▁ask	-946
▁Go	-947
▁Dad	-948
roß	-949
▁3	-950
anted	-951
ved	-952
▁Hier	-953
▁verst	-954
▁life	-955
ons	-956
isten	-957
vor	-958
▁night	-959
▁sicher	-960
▁Just	-961
▁Did	-962
ser	-963
är	-964
▁ob	-965
tern	-966
▁Tr	-967
ves	-968
▁damit	-969
▁than	-970
eep	-971
▁wollen	-972
▁Get	-973
▁heute	-974
ile	-975
▁jemand	-976
▁kenn	-977
act	-978
up	-979
▁first	-980
▁feel	-981
▁hand	-982
▁wanted	-983
▁into	-984
▁Hall	-985
▁raus	-986
▁before	-987
erstand	-988
ehmen	-989
▁new	-990
▁min	-991
▁Fl	-992
leich	-993
▁Geh	-994
ungs	-995
ian	-996
able	-997
▁always	-998
▁Vor	-999
▁Ho	-1000
▁sel	-1001
▁cour	-1002
▁Hell	-1003
ial	-1004
▁away	-1005
äch	-1006
▁Tag	-1007
th	-1008
keit	-1009
man	-1010
ely	-1011
fer	-1012
▁Ma	-1013
ischen	-1014
gst	-1015
wn	-1016
▁ble	-1017
▁must	-1018
▁meinen	-1019
ühr	-1020
achen	-1021
pen	-1022
cc	-1023
achte	-1024
auf	-1025
aten	-1026
▁try	-1027
▁great	-1028
eißt	-1029
ler	-1030
▁te	-1031
ähl	-1032
row	-1033
▁kommt	-1034
▁kommen	-1035
att	-1036
▁Ent	-1037
pr	-1038
▁everything	-1039
hne	-1040
bar	-1041
▁these	-1042
atch	-1043
immt	-1044
▁hätte	-1045
▁lot	-1046
▁Can	-1047
▁better	-1048
utter	-1049
ele	-1050
▁home	-1051
▁hal	-1052
▁girl	-1053
▁For	-1054
ouse	-1055
▁Te	-1056
▁car	-1057
▁When	-1058
▁ihre	-1059
▁schön	-1060
sh	-1061
▁pa	-1062
▁dis	-1063
▁Pl	-1064
äd	-1065
esser	-1066
▁Gen	-1067
ious	-1068
▁Hello	-1069
▁wait	-1070
ehe	-1071
▁their	-1072
ign	-1073
▁beg	-1074
▁co	-1075
▁wom	-1076
zt	-1077
▁Schl	-1078
▁part	-1079
▁such	-1080
▁Au	-1081
▁willst	-1082
▁understand	-1083
ye	-1084
▁kannst	-1085
▁waren	-1086
▁Vielleicht	-1087
▁Maybe	-1088
▁Leute	-1089
▁Sir	-1090
▁ro	-1091
▁rem	-1092
▁Vater	-1093
▁bed	-1094
▁Jetzt	-1095
body	-1096
ingen	-1097
▁seine	-1098
▁zwei	-1099
▁put	-1100
▁last	-1101
▁please	-1102
ahren	-1103
▁Hallo	-1104
ache	-1105
▁run	-1106
▁end	-1107
▁money	-1108
▁sec	-1109
▁told	-1110
▁irgend	-1111
ible	-1112
▁years	-1113
stell	-1114
▁tra	-1115
▁belie	-1116
bend	-1117
▁dieser	-1118
igt	-1119
lück	-1120
urt	-1121
aby	-1122
amen	-1123
▁boy	-1124
üt	-1125
▁könnte	-1126
▁tut	-1127
oot	-1128
▁ad	-1129
▁weil	-1130
▁things	-1131
▁name	-1132
▁per	-1133
▁Mit	-1134
atz	-1135
ory	-1136
ied	-1137
ount	-1138
ald	-1139
▁Geld	-1140
ful	-1141
▁Pr	-1142
▁bes	-1143
ahl	-1144
nung	-1145
▁lassen	-1146
▁Hast	-1147
rechen	-1148
ty	-1149
uten	-1150
▁macht	-1151
ict	-1152
fall	-1153
ffen	-1154
eln	-1155
▁leid	-1156
von	-1157
▁fun	-1158
▁glaube	-1159
ammen	-1160
ek	-1161
▁gerade	-1162
▁unsere	-1163
▁show	-1164
ec	-1165
▁gesehen	-1166
uer	-1167
ting	-1168
▁nothing	-1169
▁Mal	-1170
use	-1171
▁gar	-1172
▁keep	-1173
aug	-1174
▁sm	-1175
▁old	-1176
ary	-1177
▁father	-1178
ions	-1179
kl	-1180
▁fuck	-1181
▁supp	-1182
▁Bitte	-1183
▁weiter	-1184
▁verd	-1185
▁Nach	-1186
▁gel	-1187
mp	-1188
als	-1189
fl	-1190
ember	-1191
▁course	-1192
▁vielleicht	-1193
▁Ges	-1194
▁well	-1195
schuld	-1196
▁Eine	-1197
▁nein	-1198
öt	-1199
▁Jahr	-1200
▁Mutter	-1201
▁after	-1202
▁*	-1203
bl	-1204
▁Nun	-1205
▁wohl	-1206
son	-1207
▁sagte	-1208
▁Alles	-1209
erson	-1210
▁zus	-1211
▁tot	-1212
▁leave	-1213
▁kid	-1214
ühl	-1215
▁Kr	-1216
▁real	-1217
▁Please	-1218
▁Here	-1219
▁imp	-1220
▁bad	-1221
▁groß	-1222
▁thr	-1223
xt	-1224
app	-1225
▁versuch	-1226
▁As	-1227
▁Gesch	-1228
ents	-1229
glich	-1230
▁gemacht	-1231
ete	-1232
▁Nacht	-1233
▁musst	-1234
▁else	-1235
▁pre	-1236
▁done	-1237
▁Ü	-1238
▁On	-1239
ail	-1240
▁Aus	-1241
zähl	-1242
oth	-1243
▁stay	-1244
▁keinen	-1245
ix	-1246
▁unser	-1247
mand	-1248
▁cont	-1249
ope	-1250
▁gleich	-1251
ings	-1252
▁reden	-1253
fort	-1254
▁sollte	-1255
▁child	-1256
äs	-1257
▁El	-1258
▁hear	-1259
ike	-1260
oin	-1261
▁Haus	-1262
arl	-1263
▁Because	-1264
für	-1265
▁passiert	-1266
iger	-1267
▁guy	-1268
▁dachte	-1269
▁Pol	-1270
▁5	-1271
aking	-1272
▁fl	-1273
▁play	-1274
very	-1275
ereit	-1276
▁paar	-1277
ew	-1278
ph	-1279
▁someone	-1280
▁weißt	-1281
▁besser	-1282
▁Q	-1283
▁klar	-1284
▁mother	-1285
▁Me	-1286
▁Hi	-1287
▁Gef	-1288
igh	-1289
▁möchte	-1290
▁enough	-1291
▁schw	-1292
▁ph	-1293
ince	-1294
▁wrong	-1295
▁believe	-1296
nis	-1297
nell	-1298
anc	-1299
▁dead	-1300
air	-1301
ors	-1302
ähr	-1303
▁Miss	-1304
▁happened	-1305
iele	-1306
▁gest	-1307
▁schl	-1308
esen	-1309
▁made	-1310
▁wen	-1311
▁Mäd	-1312
▁anderen	-1313
▁zusammen	-1314
gr	-1315
üh	-1316
▁em	-1317
▁coming	-1318
▁selbst	-1319
▁En	-1320
▁kind	-1321
▁meiner	-1322
▁around	-1323
▁rec	-1324
aufen	-1325
scha	-1326
▁Meine	-1327
▁Scheiß	-1328
ife	-1329
▁gehört	-1330
▁Wait	-1331
▁4	-1332
▁Hand	-1333
eim	-1334
▁versch	-1335
▁John	-1336
tel	-1337
▁Mon	-1338
▁house	-1339
ische	-1340
▁At	-1341
▁Min	-1342
red	-1343
▁Ok	-1344
▁diesen	-1345
dy	-1346
ma	-1347
▁through	-1348
▁hell	-1349
▁meinem	-1350
▁ser	-1351
osed	-1352
▁letz	-1353
▁Den	-1354
▁stop	-1355
ane	-1356
▁mag	-1357
entlich	-1358
ürlich	-1359
▁Um	-1360
akes	-1361
▁gern	-1362
▁sit	-1363
▁Abend	-1364
atürlich	-1365
▁Im	-1366
▁fre	-1367
ated	-1368
▁miss	-1369
geben	-1370
ahre	-1371
▁helfen	-1372
▁Nur	-1373
▁left	-1374
▁famil	-1375
▁lange	-1376
oren	-1377
uß	-1378
▁Keine	-1379
▁lang	-1380
halten	-1381
▁klein	-1382
apt	-1383
▁place	-1384
eing	-1385
▁rein	-1386
▁Herr	-1387
▁sir	-1388
▁che	-1389
▁Über	-1390
io	-1391
inge	-1392
▁wirst	-1393
ient	-1394
▁str	-1395
▁meet	-1396
itz	-1397
▁finden	-1398
▁Los	-1399
▁Ach	-1400
▁Cl	-1401
ens	-1402
uft	-1403
▁nice	-1404
▁star	-1405
▁ass	-1406
▁big	-1407
▁Lass	-1408
dem	-1409
ama	-1410
▁today	-1411
▁sur	-1412
▁act	-1413
▁Every	-1414
▁world	-1415
▁yourself	-1416
ister	-1417
ump	-1418
▁Welt	-1419
form	-1420
▁wasn	-1421
▁bus	-1422
imes	-1423
▁three	-1424
000	-1425
ER	-1426
arm	-1427
▁problem	-1428
ition	-1429
▁head	-1430
ester	-1431
immer	-1432
▁diesem	-1433
ffe	-1434
▁Am	-1435
tr	-1436
▁alone	-1437
▁Arbeit	-1438
▁found	-1439
▁gegen	-1440
ief	-1441
zie	-1442
sam	-1443
▁app	-1444
▁own	-1445
▁Jack	-1446
ready	-1447
▁Mädchen	-1448
erl	-1449
▁Fall	-1450
▁inter	-1451
▁genau	-1452
iben	-1453
▁Famil	-1454
cuse	-1455
▁Menschen	-1456
▁erw	-1457
richt	-1458
▁Kann	-1459
opf	-1460
▁dieses	-1461
til	-1462
▁erzähl	-1463
atter	-1464
▁already	-1465
▁davon	-1466
▁cle	-1467
▁looking	-1468
▁zie	-1469
▁talking	-1470
▁bit	-1471
äll	-1472
▁geb	-1473
gal	-1474
▁vom	-1475
▁Ord	-1476
ident	-1477
▁cra	-1478
gether	-1479
▁dort	-1480
olen	-1481
▁erst	-1482
▁pol	-1483
▁bu	-1484
▁Mrs	-1485
▁konn	-1486
schaft	-1487
unk	-1488
▁ide	-1489
asst	-1490
ried	-1491
▁mar	-1492
▁Hause	-1493
▁woman	-1494
▁ohne	-1495
▁Have	-1496
▁Kinder	-1497
▁Hör	-1498
ok	-1499
▁cr	-1500
▁sagt	-1501
rück	-1502
▁Ger	-1503
▁came	-1504
▁men	-1505
▁Ordnung	-1506
▁Weg	-1507
icher	-1508
liche	-1509
▁turn	-1510
ats	-1511
ander	-1512
▁bre	-1513
▁ihnen	-1514
▁gl	-1515
anze	-1516
ult	-1517
unge	-1518
leep	-1519
ole	-1520
▁wahr	-1521
▁att	-1522
anden	-1523
ielen	-1524
▁comp	-1525
aw	-1526
▁Aut	-1527
▁Als	-1528
▁seen	-1529
▁room	-1530
ale	-1531
schl	-1532
▁besch	-1533
▁Qu	-1534
▁drau	-1535
▁Chr	-1536
▁denke	-1537
▁together	-1538
iot	-1539
cken	-1540
▁rep	-1541
▁deinen	-1542
zy	-1543
▁job	-1544
▁Ah	-1545
sehen	-1546
▁family	-1547
err	-1548
▁Dar	-1549
▁Take	-1550
▁trying	-1551
▁wants	-1552
▁Har	-1553
▁Unter	-1554
orning	-1555
▁same	-1556
▁beh	-1557
▁another	-1558
▁sollten	-1559
ingt	-1560
ream	-1561
▁tre	-1562
▁mind	-1563
▁yet	-1564
yp	-1565
▁warum	-1566
asse	-1567
▁week	-1568
ufen	-1569
▁Of	-1570
▁bek	-1571
▁sei	-1572
▁ret	-1573
gesch	-1574
▁Wieso	-1575
eht	-1576
▁One	-1577
olle	-1578
uff	-1579
unde	-1580
▁live	-1581
hst	-1582
▁Angst	-1583
▁remember	-1584
▁Bar	-1585
▁Für	-1586
ins	-1587
▁anyone	-1588
anken	-1589
▁With	-1590
▁Ä	-1591
▁geben	-1592
orrow	-1593
▁schnell	-1594
▁fin	-1595
igkeit	-1596
▁few	-1597
iver	-1598
▁without	-1599
▁richtig	-1600
more	-1601
▁acc	-1602
▁stand	-1603
eter	-1604
gef	-1605
uder	-1606
▁andere	-1607
▁Stop	-1608
aden	-1609
under	-1610
▁Tell	-1611
▁bereit	-1612
▁Hat	-1613
▁Ph	-1614
▁dec	-1615
▁Hil	-1616
ctor	-1617
ennen	-1618
▁Tod	-1619
▁diff	-1620
iness	-1621
▁wouldn	-1622
▁viele	-1623
▁getan	-1624
▁supposed	-1625
▁Ze	-1626
▁krie	-1627
▁hour	-1628
aupt	-1629
▁many	-1630
▁wus	-1631
cher	-1632
▁Ro	-1633
▁start	-1634
ckt	-1635
▁minute	-1636
▁fall	-1637
ork	-1638
aum	-1639
ason	-1640
▁fast	-1641
▁Excuse	-1642
ower	-1643
ina	-1644
aptain	-1645
inden	-1646
▁wegen	-1647
hnung	-1648
ße	-1649
▁Car	-1650
▁Tut	-1651
land	-1652
zeit	-1653
▁seit	-1654
▁may	-1655
here	-1656
come	-1657
▁next	-1658
▁wel	-1659
▁soon	-1660
augh	-1661
mm	-1662
▁exp	-1663
▁sollen	-1664
geb	-1665
▁machst	-1666
▁those	-1667
▁Dam	-1668
▁Hel	-1669
los	-1670
▁swe	-1671
▁isn	-1672
▁OK	-1673
iden	-1674
▁Seit	-1675
llen	-1676
▁brother	-1677
▁Ad	-1678
▁Haben	-1679
▁dafür	-1680
▁Entschuld	-1681
nen	-1682
▁20	-1683
▁Weil	-1684
▁saw	-1685
▁knew	-1686
▁arbeit	-1687
▁idea	-1688
▁fight	-1689
▁einz	-1690
▁Glück	-1691
▁comm	-1692
▁wife	-1693
▁until	-1694
iet	-1695
▁getting	-1696
▁Sag	-1697
ipp	-1698
orge	-1699
▁Morgen	-1700
▁...	-1701
▁thank	-1702
▁quest	-1703
äter	-1704
▁guess	-1705
▁morning	-1706
▁erf	-1707
ammt	-1708
ey	-1709
▁hard	-1710
▁fine	-1711
▁Kn	-1712
▁neu	-1713
▁bo	-1714
▁being	-1715
ison	-1716
▁Mach	-1717
▁Poliz	-1718
ations	-1719
bracht	-1720
▁bleiben	-1721
affen	-1722
ever	-1723
inner	-1724
▁Augen	-1725
▁Familie	-1726
ical	-1727
▁anymore	-1728
hin	-1729
▁shit	-1730
ird	-1731
▁beaut	-1732
▁Moment	-1733
igung	-1734
▁New	-1735
▁Sam	-1736
ually	-1737
les	-1738
ating	-1739
▁ganze	-1740
ared	-1741
ichen	-1742
▁sol	-1743
▁hope	-1744
▁brauchen	-1745
▁guys	-1746
lichen	-1747
▁ze	-1748
▁Mus	-1749
uc	-1750
abei	-1751
ette	-1752
adt	-1753
▁Oder	-1754
▁Sohn	-1755
▁Män	-1756
nde	-1757
chter	-1758
oint	-1759
▁Jahre	-1760
▁drei	-1761
▁hurt	-1762
▁Bes	-1763
▁killed	-1764
▁Weißt	-1765
▁morgen	-1766
ash	-1767
sche	-1768
▁Mich	-1769
▁Zu	-1770
iere	-1771
gs	-1772
▁10	-1773
retty	-1774
▁Su	-1775
ält	-1776
▁eines	-1777
▁sieht	-1778
▁yes	-1779
▁genug	-1780
gessen	-1781
rochen	-1782
▁fucking	-1783
co	-1784
▁steht	-1785
ertig	-1786
ule	-1787
▁friends	-1788
els	-1789
▁Some	-1790
▁heard	-1791
iful	-1792
▁$	-1793
▁dri	-1794
▁rest	-1795
olog	-1796
▁pay	-1797
affe	-1798
upid	-1799
▁eas	-1800
▁Bist	-1801
▁used	-1802
▁spe	-1803
▁Bruder	-1804
ru	-1805
▁Problem	-1806
äft	-1807
teil	-1808
▁took	-1809
▁recht	-1810
uth	-1811
▁Ber	-1812
▁went	-1813
rew	-1814
▁open	-1815
ize	-1816
▁liebe	-1817
▁drink	-1818
mlich	-1819
▁ago	-1820
▁says	-1821
▁Any	-1822
▁bringen	-1823
arn	-1824
▁under	-1825
ichte	-1826
▁word	-1827
eder	-1828
gn	-1829
ny	-1830
▁hinter	-1831
▁ans	-1832
▁sleep	-1833
▁tri	-1834
▁Sache	-1835
ift	-1836
ummer	-1837
▁person	-1838
äh	-1839
▁myself	-1840
▁bevor	-1841
▁kennen	-1842
ucht	-1843
▁par	-1844
inc	-1845
anger	-1846
▁Könn	-1847
▁heißt	-1848
EN	-1849
▁dabei	-1850
▁tom	-1851
▁might	-1852
▁use	-1853
▁ben	-1854
▁Land	-1855
▁schle	-1856
▁Mir	-1857
AN	-1858
▁gone	-1859
▁Scheiße	-1860
▁Christ	-1861
oc	-1862
diot	-1863
ness	-1864
▁kam	-1865
▁days	-1866
▁einmal	-1867
auen	-1868
▁Sc	-1869
▁called	-1870
eth	-1871
▁gek	-1872
▁Captain	-1873
▁brauche	-1874
▁Baby	-1875
▁Kopf	-1876
▁matter	-1877
▁most	-1878
raid	-1879
▁count	-1880
▁mom	-1881
etzen	-1882
halb	-1883
▁Ed	-1884
▁Kar	-1885
▁Art	-1886
wei	-1887
by	-1888
▁Jahren	-1889
▁Fe	-1890
▁vorb	-1891
▁gefunden	-1892
▁Mama	-1893
ktion	-1894
▁Really	-1895
ley	-1896
ilm	-1897
ding	-1898
▁Right	-1899
urz	-1900
▁second	-1901
▁hören	-1902
led	-1903
▁habt	-1904
▁crazy	-1905
▁voll	-1906
▁niemand	-1907
av	-1908
▁afraid	-1909
▁konnte	-1910
inger	-1911
schein	-1912
▁listen	-1913
▁school	-1914
▁beautiful	-1915
▁haven	-1916
opp	-1917
▁Kein	-1918
▁Stadt	-1919
▁ev	-1920
▁everyone	-1921
▁tö	-1922
▁Hilfe	-1923
where	-1924
band	-1925
umber	-1926
ja	-1927
gar	-1928
▁seinen	-1929
▁allein	-1930
▁Pe	-1931
▁Soll	-1932
▁seem	-1933
▁Frank	-1934
▁happy	-1935
▁Che	-1936
▁Verst	-1937
▁Wel	-1938
▁nun	-1939
▁glauben	-1940
reck	-1941
▁6	-1942
eten	-1943
▁Junge	-1944
illion	-1945
▁sl	-1946
gehen	-1947
▁Sicher	-1948
▁nehmen	-1949
▁hatten	-1950
▁Diese	-1951
▁stupid	-1952
its	-1953
▁tomorrow	-1954
az	-1955
cy	-1956
ss	-1957
off	-1958
▁Ser	-1959
▁Amer	-1960
ably	-1961
▁Af	-1962
▁import	-1963
▁Bo	-1964
ets	-1965
ates	-1966
▁couldn	-1967
▁fertig	-1968
▁business	-1969
annt	-1970
wort	-1971
▁gehe	-1972
▁jeden	-1973
ward	-1974
▁far	-1975
ällt	-1976
▁compl	-1977
▁darf	-1978
▁heart	-1979
▁Pap	-1980
▁hör	-1981
▁watch	-1982
▁ready	-1983
▁deiner	-1984
▁pretty	-1985
▁seid	-1986
▁fire	-1987
▁Hol	-1988
"?	-1989
elle	-1990
uhe	-1991
▁each	-1992
▁whole	-1993
▁Sind	-1994
▁verm	-1995
ying	-1996
▁Spiel	-1997
▁wusste	-1998
▁baby	-1999
ony	-2000
▁worry	-2001
▁inv	-2002
▁sprechen	-2003
ünd	-2004
igentlich	-2005
gew	-2006
▁deinem	-2007
ction	-2008
ormal	-2009
▁knows	-2010
▁Dan	-2011
pf	-2012
▁Verd	-2013
onight	-2014
▁beide	-2015
▁wonder	-2016
▁Männer	-2017
▁which	-2018
innen	-2019
▁lost	-2020
erest	-2021
ither	-2022
▁Ag	-2023
chten	-2024
▁Give	-2025
▁prom	-2026
▁Je	-2027
lock	-2028
ling	-2029
▁door	-2030
▁See	-2031
▁bede	-2032
utes	-2033
▁yeah	-2034
▁plan	-2035
fte	-2036
▁important	-2037
▁warst	-2038
▁Geb	-2039
gest	-2040
▁resp	-2041
▁Dank	-2042
▁beim	-2043
aul	-2044
▁Doch	-2045
▁ap	-2046
isen	-2047
ple	-2048
▁darüber	-2049
▁maybe	-2050
▁Par	-2051
▁met	-2052
▁Best	-2053
sy	-2054
▁Ben	-2055
▁verschw	-2056
▁true	-2057
▁case	-2058
▁ster	-2059
urder	-2060
▁wann	-2061
ogen	-2062
▁19	-2063
actly	-2064
lose	-2065
▁Namen	-2066
bringen	-2067
fess	-2068
▁näch	-2069
vel	-2070
▁sign	-2071
▁death	-2072
▁Polizei	-2073
▁sofort	-2074
▁bekommen	-2075
ily	-2076
isst	-2077
akt	-2078
▁je	-2079
ng	-2080
▁expl	-2081
▁later	-2082
▁wenig	-2083
▁Nothing	-2084
onth	-2085
▁daran	-2086
▁heraus	-2087
▁phone	-2088
▁both	-2089
▁dazu	-2090
▁Uhr	-2091
▁Ant	-2092
▁Willst	-2093
,...	-2094
▁move	-2095
▁prob	-2096
▁sage	-2097
▁gab	-2098
▁Natürlich	-2099
bert	-2100
alten	-2101
gangen	-2102
eral	-2103
▁Tür	-2104
ppe	-2105
▁Freunde	-2106
▁Bei	-2107
▁order	-2108
ax	-2109
aster	-2110
▁while	-2111
▁month	-2112
iten	-2113
▁read	-2114
sol	-2115
trau	-2116
▁sehe	-2117
▁since	-2118
ahn	-2119
ollow	-2120
amer	-2121
▁once	-2122
▁mache	-2123
▁gute	-2124
▁gun	-2125
mmer	-2126
▁sonst	-2127
ider	-2128
▁fal	-2129
sicht	-2130
▁Grund	-2131
▁Herz	-2132
üb	-2133
▁Mö	-2134
aughter	-2135
dern	-2136
▁halten	-2137
▁break	-2138
▁Schön	-2139
▁Listen	-2140
ush	-2141
ged	-2142
▁Krie	-2143
▁Part	-2144
▁walk	-2145
äum	-2146
▁Nie	-2147
▁Auto	-2148
iter	-2149
▁police	-2150
▁Bis	-2151
▁sah	-2152
▁Gl	-2153
ämp	-2154
▁face	-2155
rückt	-2156
▁perfe	-2157
▁Halt	-2158
▁verk	-2159
▁children	-2160
▁minutes	-2161
▁Hab	-2162
lafen	-2163
▁Dinge	-2164
▁Wor	-2165
eiden	-2166
geh	-2167
ouch	-2168
ames	-2169
▁Does	-2170
▁deal	-2171
▁eigen	-2172
▁ged	-2173
nehmen	-2174
▁sy	-2175
▁Nichts	-2176
▁Wahr	-2177
▁Em	-2178
▁murder	-2179
most	-2180
önig	-2181
omp	-2182
▁Des	-2183
▁eat	-2184
icken	-2185
ator	-2186
▁Col	-2187
▁Genau	-2188
nst	-2189
▁vergessen	-2190
▁komme	-2191
▁blood	-2192
▁easy	-2193
org	-2194
▁Mad	-2195
▁könnten	-2196
▁inc	-2197
▁ber	-2198
▁erinn	-2199
ica	-2200
cept	-2201
▁Like	-2202
isk	-2203
stem	-2204
aß	-2205
▁Stra	-2206
vie	-2207
ounds	-2208
ässt	-2209
▁sw	-2210
▁bez	-2211
▁verstehe	-2212
▁luck	-2213
▁vorbei	-2214
rop	-2215
▁Blut	-2216
▁Ende	-2217
essen	-2218
▁Sure	-2219
▁Liebe	-2220
▁fest	-2221
▁30	-2222
▁Gib	-2223
▁7	-2224
▁Ide	-2225
kst	-2226
▁Guten	-2227
ude	-2228
▁ihren	-2229
▁Minuten	-2230
utz	-2231
▁warten	-2232
▁Recht	-2233
▁Red	-2234
▁check	-2235
▁Dein	-2236
▁tonight	-2237
▁sex	-2238
▁seiner	-2239
onder	-2240
▁würden	-2241
▁denken	-2242
▁hands	-2243
▁töten	-2244
wa	-2245
▁fühl	-2246
weise	-2247
ouble	-2248
▁dire	-2249
▁danke	-2250
▁leben	-2251
▁Arsch	-2252
führ	-2253
wegen	-2254
▁late	-2255
▁number	-2256
▁change	-2257
▁arm	-2258
▁His	-2259
uhig	-2260
usband	-2261
▁Char	-2262
eres	-2263
▁sk	-2264
▁Lo	-2265
▁lieber	-2266
▁Jungs	-2267
▁comes	-2268
asch	-2269
▁Von	-2270
▁interest	-2271
▁means	-2272
▁bro	-2273
▁May	-2274
ual	-2275
utet	-2276
▁15	-2277
▁Alle	-2278
▁ac	-2279
▁least	-2280
▁exactly	-2281
▁spr	-2282
old	-2283
▁hum	-2284
▁gave	-2285
▁Wirklich	-2286
ktor	-2287
▁Tom	-2288
▁Frauen	-2289
▁Str	-2290
▁bisschen	-2291
ta	-2292
▁Euch	-2293
chn	-2294
ention	-2295
laub	-2296
▁Jes	-2297
ts	-2298
▁Maj	-2299
eint	-2300
lex	-2301
▁forg	-2302
▁free	-2303
▁heiß	-2304
▁Plan	-2305
▁year	-2306
iam	-2307
eist	-2308
hung	-2309
▁daughter	-2310
▁Job	-2311
▁Ahnung	-2312
▁Wissen	-2313
▁Bür	-2314
▁runter	-2315
reiben	-2316
ossible	-2317
ron	-2318
▁normal	-2319
erent	-2320
▁stimmt	-2321
▁8	-2322
▁water	-2323
▁wär	-2324
▁hoch	-2325
yes	-2326
ielt	-2327
▁später	-2328
orth	-2329
▁Gew	-2330
entle	-2331
ately	-2332
▁toll	-2333
▁dest	-2334
auer	-2335
▁against	-2336
▁husband	-2337
IN	-2338
oun	-2339
▁makes	-2340
▁question	-2341
▁pri	-2342
▁Hö	-2343
▁echt	-2344
▁shoot	-2345
ager	-2346
inken	-2347
▁wish	-2348
▁bald	-2349
ement	-2350
▁Bill	-2351
▁Kerl	-2352
chst	-2353
ötet	-2354
raum	-2355
▁saying	-2356
▁hold	-2357
▁Warte	-2358
▁Wei	-2359
achten	-2360
▁bra	-2361
du	-2362
▁book	-2363
▁Would	-2364
▁Noch	-2365
▁power	-2366
▁vers	-2367
aken	-2368
▁wurden	-2369
ünf	-2370
▁Wasser	-2371
▁sterben	-2372
▁Bett	-2373
arbeit	-2374
▁kurz	-2375
▁Pat	-2376
▁stud	-2377
▁wichtig	-2378
mals	-2379
▁res	-2380
▁jeder	-2381
▁Teuf	-2382
▁working	-2383
▁five	-2384
formation	-2385
▁different	-2386
entr	-2387
ital	-2388
▁irgendw	-2389
▁9	-2390
▁darauf	-2391
▁shot	-2392
▁kenne	-2393
▁hours	-2394
ape	-2395
▁point	-2396
▁Mo	-2397
ehl	-2398
▁kr	-2399
tend	-2400
▁Ann	-2401
▁rel	-2402
▁four	-2403
itten	-2404
▁ganzen	-2405
artment	-2406
▁König	-2407
▁stehen	-2408
▁trust	-2409
▁waiting	-2410
CH	-2411
▁spec	-2412
▁verw	-2413
▁ging	-2414
▁ersch	-2415
▁po	-2416
lassen	-2417
▁Per	-2418
▁draußen	-2419
▁dran	-2420
▁hätten	-2421
urry	-2422
haft	-2423
▁reason	-2424
▁pick	-2425
ney	-2426
▁ok	-2427
▁egal	-2428
ton	-2429
▁chance	-2430
onst	-2431
kel	-2432
less	-2433
▁fahren	-2434
äng	-2435
▁uh	-2436
▁schwer	-2437
▁Gar	-2438
▁verloren	-2439
▁Groß	-2440
▁Schwester	-2441
ired	-2442
▁light	-2443
side	-2444
äl	-2445
itch	-2446
▁Bef	-2447
▁lä	-2448
eister	-2449
▁dream	-2450
▁jemanden	-2451
▁Ganz	-2452
ited	-2453
▁letzte	-2454
ters	-2455
▁seinem	-2456
▁fa	-2457
▁drin	-2458
▁terr	-2459
▁young	-2460
ross	-2461
haupt	-2462
▁Tochter	-2463
▁Tre	-2464
▁law	-2465
▁neh	-2466
▁reg	-2467
▁Mag	-2468
▁times	-2469
▁eben	-2470
▁Sy	-2471
▁body	-2472
▁braucht	-2473
?"	-2474
ennt	-2475
▁Leid	-2476
rol	-2477
fol	-2478
▁mess	-2479
▁cop	-2480
▁pain	-2481
▁test	-2482
▁Ihren	-2483
ahlen	-2484
▁Gu	-2485
ium	-2486
▁looks	-2487
any	-2488
▁behind	-2489
omb	-2490
ände	-2491
stellen	-2492
▁Gute	-2493
oten	-2494
▁Schon	-2495
▁Dies	-2496
▁pres	-2497
▁Sel	-2498
ball	-2499
ised	-2500
▁mer	-2501
gie	-2502
▁verrückt	-2503
▁These	-2504
▁almost	-2505
ield	-2506
ision	-2507
▁char	-2508
▁probably	-2509
ract	-2510
▁Name	-2511
öff	-2512
▁eins	-2513
▁sweet	-2514
▁kü	-2515
▁Great	-2516
,000	-2517
rest	-2518
▁eyes	-2519
▁Jul	-2520
sinn	-2521
▁spät	-2522
▁Teufel	-2523
orr	-2524
▁Wow	-2525
▁learn	-2526
▁gerne	-2527
ween	-2528
▁eigentlich	-2529
▁lead	-2530
▁lass	-2531
ßer	-2532
outh	-2533
ernen	-2534
ös	-2535
vers	-2536
▁Essen	-2537
umm	-2538
▁thinking	-2539
min	-2540
ekt	-2541
▁prote	-2542
zeug	-2543
▁solltest	-2544
▁follow	-2545
▁cool	-2546
▁essen	-2547
▁Sei	-2548
▁ang	-2549
elef	-2550
schw	-2551
▁arbeiten	-2552
▁serious	-2553
▁Woll	-2554
▁Mart	-2555
ächt	-2556
▁Ruhe	-2557
▁neue	-2558
ga	-2559
▁Ble	-2560
▁half	-2561
äus	-2562
oke	-2563
▁offen	-2564
▁women	-2565
▁Gra	-2566
tre	-2567
fallen	-2568
ühle	-2569
▁send	-2570
▁Idee	-2571
ps	-2572
rat	-2573
▁mine	-2574
zug	-2575
tet	-2576
▁letzten	-2577
▁Uh	-2578
ehn	-2579
▁Zimmer	-2580
▁lea	-2581
▁asked	-2582
gl	-2583
▁versp	-2584
▁Ty	-2585
▁York	-2586
▁After	-2587
▁conf	-2588
▁12	-2589
inter	-2590
▁Sehr	-2591
▁Shit	-2592
▁Kont	-2593
▁wunder	-2594
▁Sorry	-2595
allen	-2596
unter	-2597
▁Bob	-2598
lücklich	-2599
▁clear	-2600
▁natürlich	-2601
▁Stunden	-2602
ellen	-2603
▁Dav	-2604
▁sent	-2605
öre	-2606
head	-2607
alm	-2608
▁gewesen	-2609
▁Verb	-2610
auft	-2611
▁kleine	-2612
ning	-2613
reet	-2614
▁Macht	-2615
▁gets	-2616
atur	-2617
▁huh	-2618
ickt	-2619
▁Sieh	-2620
erv	-2621
▁interess	-2622
sk	-2623
▁rum	-2624
▁Geht	-2625
▁died	-2626
▁tried	-2627
riff	-2628
▁Frage	-2629
▁forget	-2630
▁needs	-2631
ußer	-2632
▁Schuld	-2633
▁Schatz	-2634
▁fragen	-2635
▁liegt	-2636
▁side	-2637
▁Mc	-2638
ene	-2639
▁Gesicht	-2640
oice	-2641
▁Mil	-2642
▁attack	-2643
▁stuff	-2644
ives	-2645
▁Ob	-2646
▁truth	-2647
▁erzählt	-2648
rick	-2649
▁alt	-2650
▁party	-2651
▁ziemlich	-2652
▁Woche	-2653
▁answer	-2654
▁Our	-2655
▁Even	-2656
▁ship	-2657
▁bitch	-2658
▁fore	-2659
weg	-2660
iges	-2661
▁cor	-2662
artet	-2663
ziehen	-2664
▁führ	-2665
▁front	-2666
oe	-2667
▁bew	-2668
▁Kommen	-2669
ures	-2670
▁Glau	-2671
▁story	-2672
cle	-2673
dest	-2674
▁Bet	-2675
▁verb	-2676
▁musste	-2677
haus	-2678
▁Mensch	-2679
mann	-2680
hören	-2681
▁suchen	-2682
▁spielen	-2683
ces	-2684
▁Fuck	-2685
▁Alex	-2686
▁high	-2687
AR	-2688
▁close	-2689
▁finde	-2690
▁bar	-2691
▁Sar	-2692
bo	-2693
▁hoffe	-2694
▁between	-2695
ären	-2696
vest	-2697
▁Daddy	-2698
▁med	-2699
▁oben	-2700
▁Bye	-2701
▁versucht	-2702
▁überhaupt	-2703
ität	-2704
▁gesp	-2705
▁Deine	-2706
▁secret	-2707
ael	-2708
riend	-2709
▁full	-2710
ants	-2711
▁gekommen	-2712
▁Ort	-2713
▁Wochen	-2714
oud	-2715
▁able	-2716
ject	-2717
▁Musik	-2718
▁alive	-2719
▁bedeutet	-2720
▁Pre	-2721
▁married	-2722
▁Wahrheit	-2723
▁pict	-2724
bed	-2725
▁moment	-2726
enny	-2727
▁außer	-2728
▁große	-2729
▁gotta	-2730
▁Sk	-2731
gan	-2732
▁kids	-2733
▁Sü	-2734
▁anders	-2735
▁Geschichte	-2736
▁Spr	-2737
ügen	-2738
▁Kommt	-2739
dr	-2740
urs	-2741
▁meinst	-2742
▁dep	-2743
otz	-2744
▁Richt	-2745
net	-2746
▁train	-2747
geln	-2748
uren	-2749
▁Chance	-2750
reich	-2751
▁Pf	-2752
▁cons	-2753
det	-2754
▁Spaß	-2755
ometimes	-2756
▁lässt	-2757
▁gro	-2758
orden	-2759
▁del	-2760
▁lik	-2761
▁siehst	-2762
▁hit	-2763
chmal	-2764
unt	-2765
arch	-2766
▁kom	-2767
▁erkl	-2768
▁Gehen	-2769
▁hol	-2770
▁Flug	-2771
▁Lord	-2772
ubl	-2773
▁Ged	-2774
ault	-2775
▁lock	-2776
▁Fahr	-2777
▁land	-2778
ards	-2779
ON	-2780
fin	-2781
▁unserer	-2782
▁verlassen	-2783
▁Sit	-2784
ship	-2785
▁boys	-2786
▁ruhig	-2787
ierte	-2788
▁Einen	-2789
▁Seite	-2790
ides	-2791
▁Tage	-2792
▁Ihrer	-2793
▁möglich	-2794
▁betr	-2795
elefon	-2796
ille	-2797
▁having	-2798
▁Typ	-2799
▁Lau	-2800
ernt	-2801
▁Reg	-2802
▁office	-2803
▁Teil	-2804
▁adv	-2805
▁Wann	-2806
hlen	-2807
▁sister	-2808
▁getötet	-2809
▁flie	-2810
zei	-2811
▁läuft	-2812
komm	-2813
▁gra	-2814
▁mist	-2815
▁Wieder	-2816
▁Zwei	-2817
▁Wort	-2818
stens	-2819
▁Very	-2820
▁fact	-2821
irat	-2822
hnt	-2823
▁dad	-2824
▁touch	-2825
▁sagst	-2826
▁Max	-2827
▁denen	-2828
▁schlecht	-2829
▁Denn	-2830
ience	-2831
▁Rest	-2832
▁etwa	-2833
▁aren	-2834
▁super	-2835
▁taking	-2836
airs	-2837
...?	-2838
▁pat	-2839
ov	-2840
▁dür	-2841
▁Tra	-2842
▁Mist	-2843
▁Können	-2844
▁sogar	-2845
gebracht	-2846
▁mil	-2847
ense	-2848
▁game	-2849
▁verstehen	-2850
stellt	-2851
▁bekomm	-2852
▁Put	-2853
▁buy	-2854
hol	-2855
▁Freundin	-2856
sych	-2857
uation	-2858
▁Two	-2859
unkt	-2860
▁months	-2861
▁wollten	-2862
bs	-2863
▁air	-2864
roy	-2865
▁chang	-2866
▁nett	-2867
▁treffen	-2868
▁Co	-2869
leas	-2870
▁making	-2871
ichten	-2872
▁Sonn	-2873
▁trouble	-2874
▁dist	-2875
▁Angel	-2876
▁Super	-2877
▁Kat	-2878
stag	-2879
▁From	-2880
ften	-2881
iven	-2882
▁ersten	-2883
▁blo	-2884
▁Dieser	-2885
▁save	-2886
▁nehme	-2887
▁wear	-2888
▁doctor	-2889
ution	-2890
ines	-2891
▁ihrer	-2892
▁sing	-2893
▁General	-2894
▁Hen	-2895
▁Shut	-2896
▁Dass	-2897
▁glücklich	-2898
▁vis	-2899
▁hey	-2900
▁lives	-2901
.000	-2902
auber	-2903
▁Agent	-2904
▁frei	-2905
chs	-2906
ics	-2907
napp	-2908
scht	-2909
ossen	-2910
▁cut	-2911
▁rid	-2912
▁Jesus	-2913
▁wün	-2914
▁zwischen	-2915
▁danger	-2916
raft	-2917
▁anf	-2918
▁Kranken	-2919
▁Irgend	-2920
afft	-2921
▁set	-2922
▁Rück	-2923
▁speak	-2924
▁town	-2925
▁überle	-2926
▁lei	-2927
▁Klar	-2928
▁fünf	-2929
▁Wagen	-2930
▁Nachricht	-2931
▁shouldn	-2932
▁safe	-2933
▁einzige	-2934
osp	-2935
uter	-2936
▁Rob	-2937
eilen	-2938
▁city	-2939
ßt	-2940
unch	-2941
af	-2942
ittel	-2943
▁Sachen	-2944
usp	-2945
▁Ind	-2946
▁Buch	-2947
▁country	-2948
▁Feuer	-2949
ützen	-2950
▁Sorgen	-2951
▁six	-2952
▁mad	-2953
ues	-2954
▁girls	-2955
ence	-2956
ced	-2957
▁drauf	-2958
yn	-2959
aps	-2960
scheinlich	-2961
ampf	-2962
▁sow	-2963
uchen	-2964
▁00	-2965
▁started	-2966
▁Mary	-2967
▁Schule	-2968
▁Selbst	-2969
▁Wür	-2970
▁sick	-2971
▁zeigen	-2972
▁versuchen	-2973
▁dinner	-2974
▁clean	-2975
änger	-2976
▁eure	-2977
einander	-2978
▁Grand	-2979
entlemen	-2980
▁vier	-2981
▁Med	-2982
▁fol	-2983
▁Schiff	-2984
▁others	-2985
▁bestimmt	-2986
ones	-2987
▁Charlie	-2988
▁Lu	-2989
▁George	-2990
▁Sm	-2991
▁Eltern	-2992
▁Pass	-2993
▁brought	-2994
hm	-2995
▁Det	-2996
▁Hoch	-2997
▁outside	-2998
ai	-2999
▁50	-3000
ischer	-3001
▁drive	-3002
▁pie	-3003
die	-3004
▁Woher	-3005
▁endlich	-3006
▁Jed	-3007
▁Michael	-3008
▁wind	-3009
spr	-3010
einen	-3011
vo	-3012
▁mon	-3013
▁kleinen	-3014
▁Ding	-3015
▁kommst	-3016
▁conc	-3017
imin	-3018
▁glad	-3019
▁anderes	-3020
arth	-3021
▁Sher	-3022
▁holen	-3023
▁gestern	-3024
▁Uns	-3025
örper	-3026
▁hält	-3027
▁ange	-3028
▁Lebens	-3029
ci	-3030
▁surpr	-3031
▁Papa	-3032
▁music	-3033
bel	-3034
mit	-3035
▁bull	-3036
▁Help	-3037
▁keiner	-3038
ask	-3039
▁ru	-3040
▁gedacht	-3041
üher	-3042
▁100	-3043
▁erste	-3044
▁Sek	-3045
▁Film	-3046
▁small	-3047
rieben	-3048
▁team	-3049
▁idiot	-3050
▁Sicherheit	-3051
▁Bed	-3052
▁disapp	-3053
voll	-3054
▁Niemand	-3055
▁verdammt	-3056
ism	-3057
▁Something	-3058
OR	-3059
leid	-3060
▁funny	-3061
▁control	-3062
▁yours	-3063
▁goes	-3064
▁kümmer	-3065
▁ehr	-3066
roh	-3067
▁grand	-3068
▁Op	-3069
▁Verdammt	-3070
ollar	-3071
friend	-3072
▁Nummer	-3073
▁Nice	-3074
▁black	-3075
▁wären	-3076
▁Person	-3077
▁sim	-3078
ino	-3079
▁allen	-3080
ective	-3081
▁fur	-3082
▁hot	-3083
ießen	-3084
üssel	-3085
▁parents	-3086
▁funktion	-3087
▁Fot	-3088
▁himself	-3089
▁oft	-3090
▁entsch	-3091
▁Gre	-3092
▁Mike	-3093
▁esc	-3094
▁Verl	-3095
▁ihrem	-3096
▁sn	-3097
oul	-3098
▁Comm	-3099
▁ant	-3100
▁telling	-3101
▁Heute	-3102
▁warte	-3103
▁beiden	-3104
licher	-3105
bye	-3106
bes	-3107
▁fig	-3108
osition	-3109
▁Spe	-3110
ständ	-3111
▁bringt	-3112
kun	-3113
gy	-3114
▁Joe	-3115
▁quick	-3116
nah	-3117
▁Ko	-3118
▁longer	-3119
▁Kon	-3120
▁risk	-3121
cess	-3122
▁hair	-3123
▁dog	-3124
▁hil	-3125
▁food	-3126
▁Krieg	-3127
▁protect	-3128
▁kriegen	-3129
▁expect	-3130
▁Someone	-3131
▁Zum	-3132
▁build	-3133
med	-3134
▁favor	-3135
▁teach	-3136
ugen	-3137
▁Paul	-3138
üll	-3139
hren	-3140
▁Bild	-3141
▁dear	-3142
▁Nobody	-3143
▁ung	-3144
▁gehst	-3145
▁Thanks	-3146
▁Platz	-3147
▁Ur	-3148
zogen	-3149
▁fort	-3150
▁lose	-3151
ured	-3152
▁pers	-3153
▁human	-3154
iting	-3155
▁neuen	-3156
▁Charl	-3157
irth	-3158
llig	-3159
selves	-3160
▁benut	-3161
ufe	-3162
▁Entschuldigung	-3163
▁possible	-3164
ibst	-3165
ante	-3166
piel	-3167
▁hate	-3168
▁niemals	-3169
▁vertrau	-3170
▁unseren	-3171
ected	-3172
▁trau	-3173
▁Idiot	-3174
▁hättest	-3175
▁less	-3176
▁happens	-3177
▁ran	-3178
▁past	-3179
▁Kannst	-3180
▁Bel	-3181
mö	-3182
igkeiten	-3183
ished	-3184
▁unten	-3185
▁erzählen	-3186
▁Keep	-3187
▁actually	-3188
olf	-3189
▁leaving	-3190
▁Lassen	-3191
▁ma	-3192
wohl	-3193
▁explain	-3194
asche	-3195
▁Är	-3196
▁pap	-3197
▁nä	-3198
▁Sagen	-3199
▁währ	-3200
▁strong	-3201
▁special	-3202
▁schlafen	-3203
▁Peter	-3204
inz	-3205
usst	-3206
.....	-3207
▁report	-3208
▁aw	-3209
▁bleibt	-3210
ows	-3211
▁Lou	-3212
▁eh	-3213
äm	-3214
ior	-3215
▁David	-3216
▁Besch	-3217
zus	-3218
▁Luft	-3219
▁Stay	-3220
▁bloß	-3221
▁pull	-3222
ertain	-3223
zlich	-3224
erin	-3225
ehler	-3226
ana	-3227
oup	-3228
▁taken	-3229
ized	-3230
▁Could	-3231
▁würdest	-3232
▁anyway	-3233
▁Nimm	-3234
▁grö	-3235
ieden	-3236
örder	-3237
▁während	-3238
▁scared	-3239
▁Rich	-3240
▁Schau	-3241
iously	-3242
aught	-3243
▁Kir	-3244
ES	-3245
▁Et	-3246
▁Sex	-3247
▁Telefon	-3248
ende	-3249
AT	-3250
▁Pa	-3251
▁Arm	-3252
▁Hund	-3253
cke	-3254
▁guter	-3255
wor	-3256
▁Ke	-3257
▁falsch	-3258
▁Paris	-3259
▁either	-3260
▁By	-3261
!"	-3262
▁add	-3263
genommen	-3264
▁verg	-3265
▁det	-3266
▁perfect	-3267
▁Mer	-3268
▁boss	-3269
▁offer	-3270
ker	-3271
▁return	-3272
ienst	-3273
äre	-3274
onest	-3275
▁tust	-3276
onel	-3277
▁Anw	-3278
adies	-3279
▁Only	-3280
▁news	-3281
▁Luc	-3282
▁früh	-3283
▁invest	-3284
▁Fragen	-3285
ospital	-3286
▁darum	-3287
solute	-3288
ka	-3289
▁Inter	-3290
▁na	-3291
▁line	-3292
▁honey	-3293
▁Darf	-3294
▁imag	-3295
▁First	-3296
▁Damn	-3297
▁Schn	-3298
▁Harry	-3299
go	-3300
▁Mord	-3301
rt	-3302
▁eng	-3303
▁art	-3304
▁Waffe	-3305
▁Dro	-3306
aur	-3307
▁Sal	-3308
ängt	-3309
▁Isn	-3310
üg	-3311
que	-3312
machen	-3313
ho	-3314
ko	-3315
▁promise	-3316
▁dah	-3317
▁inside	-3318
BI	-3319
roll	-3320
tem	-3321
rieden	-3322
▁erk	-3323
idence	-3324
▁änd	-3325
▁leicht	-3326
▁Versuch	-3327
▁Ju	-3328
▁allem	-3329
▁dress	-3330
iste	-3331
trag	-3332
IS	-3333
▁denkst	-3334
▁Phil	-3335
ierung	-3336
itting	-3337
kehr	-3338
▁offic	-3339
▁anger	-3340
▁nerv	-3341
▁verste	-3342
ently	-3343
uz	-3344
▁#	-3345
kunft	-3346
▁Ihrem	-3347
oon	-3348
▁Eins	-3349
▁schuld	-3350
▁Ev	-3351
▁Ir	-3352
▁verdamm	-3353
▁Geschäft	-3354
▁bat	-3355
ically	-3356
▁aller	-3357
▁prison	-3358
▁pack	-3359
▁fault	-3360
▁Sehen	-3361
▁hung	-3362
▁Everything	-3363
▁Park	-3364
▁class	-3365
ury	-3366
▁hang	-3367
falls	-3368
▁lieben	-3369
▁nah	-3370
▁Nick	-3371
▁gegeben	-3372
▁birth	-3373
▁company	-3374
▁Rem	-3375
▁herum	-3376
▁Vielen	-3377
tra	-3378
▁hierher	-3379
bleme	-3380
▁ahead	-3381
▁kämp	-3382
▁sold	-3383
▁erled	-3384
▁Mark	-3385
▁weeks	-3386
öse	-3387
▁forgot	-3388
▁Auch	-3389
▁Himm	-3390
upp	-3391
▁Which	-3392
ommy	-3393
▁wanna	-3394
▁kaum	-3395
▁18	-3396
ikan	-3397
dent	-3398
▁richt	-3399
ius	-3400
iving	-3401
▁gefällt	-3402
,"	-3403
lossen	-3404
▁sondern	-3405
gem	-3406
ena	-3407
▁Stück	-3408
▁Licht	-3409
achsen	-3410
▁Geheim	-3411
▁retten	-3412
ffee	-3413
lung	-3414
▁seems	-3415
▁bud	-3416
▁stopp	-3417
▁ball	-3418
ational	-3419
▁Million	-3420
dle	-3421
▁Wollen	-3422
inde	-3423
ara	-3424
immy	-3425
ican	-3426
isse	-3427
ätze	-3428
▁gebe	-3429
▁fut	-3430
▁Hände	-3431
▁lady	-3432
▁Liebl	-3433
arly	-3434
▁vö	-3435
▁become	-3436
▁zwe	-3437
ities	-3438
▁Father	-3439
▁scheint	-3440
▁susp	-3441
▁Cr	-3442
▁ten	-3443
▁kiss	-3444
▁sound	-3445
lagen	-3446
▁Pres	-3447
orben	-3448
▁total	-3449
▁sell	-3450
▁Außer	-3451
▁reicht	-3452
▁Dollar	-3453
hy	-3454
▁sü	-3455
▁verh	-3456
▁its	-3457
▁flo	-3458
▁Rom	-3459
▁Hoff	-3460
▁Büro	-3461
▁heir	-3462
▁Fehler	-3463
▁bereits	-3464
ists	-3465
antwort	-3466
▁Show	-3467
▁Hören	-3468
onor	-3469
▁Ter	-3470
iratet	-3471
▁catch	-3472
ative	-3473
urity	-3474
▁write	-3475
holen	-3476
▁Ray	-3477
▁Damit	-3478
▁ernst	-3479
▁großen	-3480
▁Dir	-3481
▁Körper	-3482
▁Weiß	-3483
üben	-3484
▁Gold	-3485
raw	-3486
oose	-3487
itter	-3488
▁Ol	-3489
etter	-3490
▁besten	-3491
laf	-3492
vern	-3493
▁Schr	-3494
▁works	-3495
ility	-3496
▁Kü	-3497
▁Kre	-3498
▁meines	-3499
▁Zie	-3500
▁alten	-3501
▁Jim	-3502
▁pleas	-3503
arten	-3504
fr	-3505
▁Kell	-3506
▁Off	-3507
▁fair	-3508
▁destroy	-3509
fahr	-3510
▁arrest	-3511
▁thanks	-3512
▁trinken	-3513
ucker	-3514
▁Everybody	-3515
▁dre	-3516
enden	-3517
weis	-3518
▁throw	-3519
▁ruin	-3520
▁Sorge	-3521
▁rad	-3522
▁win	-3523
▁Stunde	-3524
vice	-3525
▁Jemand	-3526
▁exper	-3527
legen	-3528
pro	-3529
▁früher	-3530
▁Verzei	-3531
▁Leave	-3532
ängnis	-3533
▁Never	-3534
otzdem	-3535
▁FBI	-3536
▁million	-3537
▁treat	-3538
olly	-3539
▁guten	-3540
oes	-3541
▁zerst	-3542
▁Cor	-3543
▁Menge	-3544
▁Hal	-3545
▁Lady	-3546
▁mid	-3547
▁Sim	-3548
▁Call	-3549
▁press	-3550
▁vict	-3551
▁known	-3552
▁brauchst	-3553
uge	-3554
ilt	-3555
immen	-3556
str	-3557
ahlt	-3558
▁Bring	-3559
▁Res	-3560
icks	-3561
▁rather	-3562
▁einige	-3563
ially	-3564
▁exc	-3565
▁allow	-3566
▁gefähr	-3567
▁ir	-3568
▁record	-3569
▁nächsten	-3570
reit	-3571
▁dürfen	-3572
▁burn	-3573
▁Kump	-3574
iesen	-3575
▁Hölle	-3576
The	-3577
▁Haupt	-3578
▁hospital	-3579
▁App	-3580
▁Eure	-3581
▁Waffen	-3582
ragt	-3583
▁worth	-3584
▁geworden	-3585
▁king	-3586
▁hole	-3587
ians	-3588
▁schlimm	-3589
amed	-3590
▁Stimmt	-3591
▁beginn	-3592
▁Wahl	-3593
iche	-3594
▁future	-3595
▁irgendwie	-3596
▁äh	-3597
",	-3598
▁Lasst	-3599
▁Bra	-3600
▁drug	-3601
▁asking	-3602
▁clos	-3603
itze	-3604
▁Brie	-3605
uen	-3606
ully	-3607
unken	-3608
stand	-3609
▁erre	-3610
▁trans	-3611
halt	-3612
roffen	-3613
Ich	-3614
▁weird	-3615
▁Far	-3616
▁cold	-3617
fahren	-3618
▁stellen	-3619
▁eye	-3620
▁schaffen	-3621
▁Kaffe	-3622
▁Ak	-3623
▁Zug	-3624
ear	-3625
amera	-3626
▁meeting	-3627
ogra	-3628
▁Bin	-3629
▁Wal	-3630
▁cur	-3631
fessor	-3632
▁Sinn	-3633
▁Alter	-3634
▁Party	-3635
▁wall	-3636
▁Jeder	-3637
irt	-3638
▁fly	-3639
▁alte	-3640
une	-3641
aste	-3642
ission	-3643
▁looked	-3644
ivers	-3645
▁Mars	-3646
▁priv	-3647
order	-3648
▁leg	-3649
▁kidding	-3650
▁Majest	-3651
▁Gefühl	-3652
▁Colonel	-3653
▁questions	-3654
▁Carl	-3655
stairs	-3656
ließ	-3657
▁weap	-3658
arte	-3659
ages	-3660
▁Sen	-3661
stück	-3662
▁picture	-3663
antast	-3664
fang	-3665
esterday	-3666
ehst	-3667
solutely	-3668
idge	-3669
▁Klein	-3670
rig	-3671
▁system	-3672
ills	-3673
andy	-3674
▁thinks	-3675
▁James	-3676
atten	-3677
▁Probleme	-3678
▁Comp	-3679
urg	-3680
▁Verg	-3681
▁Hotel	-3682
▁Mother	-3683
▁krank	-3684
▁cry	-3685
▁disc	-3686
▁Gegen	-3687
▁red	-3688
▁Fern	-3689
▁Tja	-3690
▁verstanden	-3691
▁Gem	-3692
▁oper	-3693
ided	-3694
▁aff	-3695
▁Team	-3696
▁box	-3697
LL	-3698
▁worked	-3699
▁Doktor	-3700
kr	-3701
▁Geburt	-3702
ika	-3703
▁terrible	-3704
etten	-3705
▁Say	-3706
▁Jud	-3707
oof	-3708
▁tue	-3709
vin	-3710
▁fell	-3711
utenant	-3712
ollege	-3713
▁damn	-3714
▁dark	-3715
ehm	-3716
zeich	-3717
▁eigenen	-3718
▁somewhere	-3719
itor	-3720
▁bas	-3721
▁certain	-3722
▁changed	-3723
▁Dor	-3724
▁sub	-3725
ains	-3726
▁TV	-3727
▁frag	-3728
▁langsam	-3729
▁Jer	-3730
ieur	-3731
▁col	-3732
▁Einz	-3733
▁gold	-3734
▁Nä	-3735
▁Pfer	-3736
▁running	-3737
liches	-3738
▁Bull	-3739
bte	-3740
irn	-3741
▁evening	-3742
▁mei	-3743
▁fand	-3744
aret	-3745
▁bag	-3746
ita	-3747
abe	-3748
▁11	-3749
▁wert	-3750
▁Tor	-3751
▁Tages	-3752
ails	-3753
gang	-3754
▁mark	-3755
och	-3756
▁gefallen	-3757
▁beste	-3758
onnen	-3759
indest	-3760
▁daß	-3761
▁hüb	-3762
sichtig	-3763
artig	-3764
▁unserem	-3765
▁Kumpel	-3766
▁verlieren	-3767
▁Rep	-3768
▁zwar	-3769
IT	-3770
▁Pri	-3771
▁Durch	-3772
▁whatever	-3773
▁Arzt	-3774
▁zer	-3775
▁Gefängnis	-3776
▁Sein	-3777
joy	-3778
▁Bank	-3779
▁Beh	-3780
▁complet	-3781
▁verp	-3782
▁wed	-3783
▁worried	-3784
▁Sta	-3785
▁anim	-3786
▁foot	-3787
bor	-3788
▁Looks	-3789
▁breat	-3790
▁takes	-3791
▁weren	-3792
▁living	-3793
▁dro	-3794
▁wonderful	-3795
▁lernen	-3796
▁Fin	-3797
▁Kom	-3798
▁cover	-3799
▁meant	-3800
äsident	-3801
ches	-3802
▁Franc	-3803
▁ref	-3804
▁stell	-3805
▁Kampf	-3806
▁Kaffee	-3807
▁ann	-3808
▁Entsch	-3809
yl	-3810
leben	-3811
ansp	-3812
▁Dieses	-3813
▁Sol	-3814
▁jede	-3815
prü	-3816
▁shut	-3817
▁Zeug	-3818
▁smell	-3819
▁sug	-3820
▁surv	-3821
▁kap	-3822
▁ra	-3823
▁Seine	-3824
▁wieso	-3825
blick	-3826
otion	-3827
▁getr	-3828
▁coffee	-3829
▁spend	-3830
▁anr	-3831
▁white	-3832
▁Heil	-3833
▁conv	-3834
▁Henry	-3835
▁froh	-3836
▁Straße	-3837
▁belong	-3838
▁wolltest	-3839
▁entschuld	-3840
▁40	-3841
▁öff	-3842
▁kleiner	-3843
druck	-3844
▁finally	-3845
yer	-3846
IE	-3847
▁Make	-3848
▁sounds	-3849
▁gebracht	-3850
▁Mel	-3851
▁fühle	-3852
▁Typen	-3853
▁jung	-3854
▁weh	-3855
öd	-3856
▁dance	-3857
▁Robert	-3858
ittag	-3859
uring	-3860
▁Hochzeit	-3861
▁Eur	-3862
▁mis	-3863
▁hört	-3864
▁talked	-3865
▁Fein	-3866
▁zehn	-3867
▁information	-3868
▁Zur	-3869
▁apartment	-3870
▁People	-3871
▁welcome	-3872
▁Schnell	-3873
▁alleine	-3874
▁irgendwas	-3875
▁ü	-3876
▁Po	-3877
irm	-3878
ammer	-3879
▁Such	-3880
▁tw	-3881
▁lau	-3882
▁direkt	-3883
▁funktioniert	-3884
▁ones	-3885
▁quite	-3886
▁San	-3887
▁hid	-3888
▁Star	-3889
▁Ernst	-3890
▁sense	-3891
ras	-3892
wür	-3893
ienen	-3894
uppe	-3895
▁choice	-3896
shit	-3897
▁Lond	-3898
▁loved	-3899
▁top	-3900
▁völlig	-3901
mas	-3902
▁Zw	-3903
▁Hm	-3904
par	-3905
indet	-3906
▁Tu	-3907
▁14	-3908
recht	-3909
▁deser	-3910
ature	-3911
wood	-3912
iller	-3913
▁Boss	-3914
üss	-3915
▁Watch	-3916
▁bewe	-3917
▁gegangen	-3918
▁Ö	-3919
ote	-3920
▁lust	-3921
▁Ap	-3922
▁Wunder	-3923
anzen	-3924
▁Onkel	-3925
▁X	-3926
▁West	-3927
▁falls	-3928
▁Möglich	-3929
▁words	-3930
▁Hin	-3931
▁laufen	-3932
zimmer	-3933
ängen	-3934
▁short	-3935
▁Bau	-3936
▁nennen	-3937
▁200	-3938
alent	-3939
▁Three	-3940
▁god	-3941
auso	-3942
▁gift	-3943
▁film	-3944
key	-3945
ular	-3946
▁stra	-3947
▁Jungen	-3948
mord	-3949
ume	-3950
to	-3951
▁Mor	-3952
bald	-3953
▁mistake	-3954
ging	-3955
ppy	-3956
▁exist	-3957
▁Schlüssel	-3958
▁feeling	-3959
▁heiraten	-3960
▁Deshalb	-3961
loch	-3962
▁Unsere	-3963
cks	-3964
▁peace	-3965
▁mem	-3966
chtest	-3967
▁Lieutenant	-3968
▁Wiedersehen	-3969
▁Siehst	-3970
▁eff	-3971
owers	-3972
cted	-3973
▁Con	-3974
udden	-3975
olz	-3976
▁Sil	-3977
▁Ohne	-3978
▁größ	-3979
▁bur	-3980
▁überall	-3981
▁Russ	-3982
▁prop	-3983
isches	-3984
ätz	-3985
▁Fle	-3986
geant	-3987
ändert	-3988
▁Fuß	-3989
▁Viel	-3990
onsieur	-3991
hand	-3992
ific	-3993
▁Himmel	-3994
▁Dem	-3995
▁London	-3996
lin	-3997
AS	-3998
reifen	-3999
▁Kap	-4000
▁ind	-4001
inks	-4002
▁halt	-4003
schlag	-4004
ährt	-4005
▁Arme	-4006
▁ehrlich	-4007
▁wollt	-4008
▁Hurry	-4009
▁mouth	-4010
▁Gest	-4011
zuf	-4012
▁missing	-4013
ägt	-4014
▁Major	-4015
▁Rad	-4016
▁piece	-4017
▁besonder	-4018
▁dangerous	-4019
▁sechs	-4020
ieht	-4021
▁inst	-4022
▁lasse	-4023
▁along	-4024
▁Tony	-4025
▁Jon	-4026
reche	-4027
▁Dich	-4028
▁gre	-4029
▁cell	-4030
▁buddy	-4031
▁tired	-4032
▁welche	-4033
com	-4034
▁hall	-4035
▁interested	-4036
yle	-4037
▁honest	-4038
▁King	-4039
▁könnt	-4040
▁dau	-4041
▁empf	-4042
▁Tagen	-4043
▁cloth	-4044
▁cir	-4045
ogn	-4046
cri	-4047
uel	-4048
▁fallen	-4049
▁$1	-4050
▁Act	-4051
möglich	-4052
▁cost	-4053
▁creat	-4054
▁worse	-4055
▁felt	-4056
▁Sa	-4057
▁genommen	-4058
erence	-4059
▁lying	-4060
▁coll	-4061
▁Machen	-4062
▁irgendwo	-4063
▁Mund	-4064
▁hattest	-4065
▁message	-4066
▁kleines	-4067
▁Krankenhaus	-4068
▁Zukunft	-4069
▁completely	-4070
▁Euer	-4071
ieß	-4072
▁TH	-4073
▁25	-4074
▁fool	-4075
▁problems	-4076
▁Bü	-4077
▁Wen	-4078
ories	-4079
▁bank	-4080
▁wedding	-4081
▁erklären	-4082
▁Stell	-4083
▁gemein	-4084
▁Dre	-4085
▁Jimmy	-4086
za	-4087
achel	-4088
▁Hold	-4089
▁Entscheid	-4090
ührt	-4091
▁16	-4092
pped	-4093
▁More	-4094
▁denkt	-4095
▁getroffen	-4096
▁phot	-4097
▁accident	-4098
▁movie	-4099
▁drüben	-4100
▁Matt	-4101
▁Too	-4102
▁Immer	-4103
▁inn	-4104
ox	-4105
▁gefragt	-4106
▁Mac	-4107
fession	-4108
▁Verschw	-4109
▁careful	-4110
▁Finger	-4111
▁cou	-4112
▁cook	-4113
▁Opfer	-4114
finit	-4115
▁Danny	-4116
ücht	-4117
▁Schm	-4118
▁sitzen	-4119
▁Drogen	-4120
▁entire	-4121
▁Ry	-4122
▁playing	-4123
▁passieren	-4124
▁Kla	-4125
▁opp	-4126
orse	-4127
▁glaubst	-4128
▁deep	-4129
▁contin	-4130
iment	-4131
▁Engl	-4132
▁Sarah	-4133
▁Vol	-4134
▁Brau	-4135
▁psych	-4136
▁wild	-4137
▁quiet	-4138
▁gentlemen	-4139
▁erfahren	-4140
▁though	-4141
vis	-4142
▁Vers	-4143
▁tau	-4144
▁Sand	-4145
▁hop	-4146
öhn	-4147
▁reach	-4148
▁auss	-4149
▁Raum	-4150
▁Since	-4151
▁nimm	-4152
▁Clark	-4153
ection	-4154
▁Band	-4155
Sch	-4156
▁kaufen	-4157
▁geschafft	-4158
erei	-4159
bie	-4160
ließen	-4161
öst	-4162
▁fix	-4163
▁jump	-4164
▁rob	-4165
▁Martin	-4166
▁la	-4167
▁Boden	-4168
▁warm	-4169
oom	-4170
gesehen	-4171
onen	-4172
▁Sold	-4173
orgt	-4174
▁Unser	-4175
lichkeit	-4176
▁Fen	-4177
wise	-4178
▁Boy	-4179
▁assh	-4180
▁Billy	-4181
▁hurry	-4182
view	-4183
▁Weihn	-4184
▁given	-4185
uk	-4186
zer	-4187
osh	-4188
▁erinnern	-4189
▁Herren	-4190
▁song	-4191
▁Erst	-4192
▁nächste	-4193
▁Monsieur	-4194
▁invol	-4195
▁Leuten	-4196
▁angerufen	-4197
▁sun	-4198
ices	-4199
▁Gibt	-4200
▁Prinz	-4201
▁ident	-4202
▁vielen	-4203
▁Bur	-4204
▁vorstellen	-4205
▁Sieht	-4206
▁aufge	-4207
▁verr	-4208
▁Marc	-4209
▁hö	-4210
▁sad	-4211
▁lucky	-4212
▁publ	-4213
ideo	-4214
▁wahrscheinlich	-4215
▁zuf	-4216
▁schreck	-4217
▁calm	-4218
▁yesterday	-4219
▁doll	-4220
▁post	-4221
▁Information	-4222
▁Eng	-4223
▁station	-4224
▁Schlaf	-4225
▁Tim	-4226
ove	-4227
aged	-4228
attle	-4229
▁Turn	-4230
ata	-4231
▁Erde	-4232
▁lebt	-4233
▁Ball	-4234
▁Big	-4235
▁ziehen	-4236
▁Wohnung	-4237
▁weniger	-4238
▁Ele	-4239
itness	-4240
▁versuche	-4241
▁enem	-4242
▁Daniel	-4243
▁zuerst	-4244
▁schm	-4245
▁worden	-4246
itzen	-4247
▁camp	-4248
iker	-4249
▁Sec	-4250
▁Lei	-4251
▁kümmern	-4252
▁Detective	-4253
▁Ziel	-4254
▁har	-4255
▁Beweg	-4256
▁17	-4257
aust	-4258
▁Son	-4259
ruf	-4260
anten	-4261
▁persön	-4262
▁soul	-4263
▁broke	-4264
▁Millionen	-4265
▁Christmas	-4266
▁Professor	-4267
▁Fol	-4268
ischt	-4269
ötig	-4270
▁länger	-4271
▁table	-4272
▁govern	-4273
öl	-4274
▁manchmal	-4275
▁Sheriff	-4276
▁poor	-4277
▁Präsident	-4278
▁Bleib	-4279
▁stark	-4280
▁fil	-4281
▁arri	-4282
▁clothes	-4283
ks	-4284
urm	-4285
▁Gleich	-4286
ärt	-4287
▁bott	-4288
ohlen	-4289
ochen	-4290
▁interessiert	-4291
▁Sw	-4292
▁könntest	-4293
▁ed	-4294
▁wem	-4295
▁klingt	-4296
zw	-4297
▁list	-4298
astard	-4299
▁Carol	-4300
▁birthday	-4301
▁Cla	-4302
kn	-4303
▁sal	-4304
▁Vict	-4305
▁laut	-4306
▁moving	-4307
▁respons	-4308
ano	-4309
▁Ehe	-4310
▁figure	-4311
▁Mörder	-4312
pa	-4313
▁Schmer	-4314
▁Ober	-4315
▁ring	-4316
▁verletzt	-4317
▁tu	-4318
utt	-4319
▁13	-4320
imme	-4321
▁ausge	-4322
▁contact	-4323
ationship	-4324
▁entf	-4325
▁Shall	-4326
iko	-4327
▁investig	-4328
▁Sl	-4329
abel	-4330
▁Open	-4331
▁About	-4332
▁trotzdem	-4333
▁City	-4334
▁rede	-4335
ivil	-4336
▁road	-4337
▁Bezie	-4338
int	-4339
mar	-4340
cker	-4341
▁aufs	-4342
ösen	-4343
▁Cal	-4344
▁fail	-4345
oph	-4346
▁Sergeant	-4347
▁kennst	-4348
▁kick	-4349
▁handle	-4350
▁hart	-4351
ots	-4352
AL	-4353
▁div	-4354
▁Geschen	-4355
ächlich	-4356
▁setzen	-4357
▁ändern	-4358
▁forever	-4359
ettet	-4360
▁Remember	-4361
haps	-4362
▁court	-4363
used	-4364
▁Habe	-4365
▁Lee	-4366
▁Jess	-4367
▁Mm	-4368
rolle	-4369
unsch	-4370
▁street	-4371
ric	-4372
▁bringe	-4373
▁glass	-4374
▁Geheimnis	-4375
▁Traum	-4376
▁sagten	-4377
▁Last	-4378
▁tragen	-4379
ktiv	-4380
▁victim	-4381
cer	-4382
iant	-4383
▁Anna	-4384
▁Hört	-4385
▁date	-4386
▁Doctor	-4387
schte	-4388
änder	-4389
wick	-4390
▁hasn	-4391
▁vorher	-4392
▁Richard	-4393
▁kennt	-4394
▁gesprochen	-4395
▁Stud	-4396
▁Rat	-4397
▁dev	-4398
▁paper	-4399
▁Meister	-4400
▁Rock	-4401
▁store	-4402
▁rul	-4403
▁Didn	-4404
▁Kenn	-4405
▁often	-4406
▁feet	-4407
▁Entschuldigen	-4408
▁threat	-4409
▁relationship	-4410
▁conn	-4411
▁Bus	-4412
lang	-4413
▁Welcome	-4414
▁needed	-4415
▁Stand	-4416
▁turned	-4417
▁extra	-4418
rik	-4419
▁Black	-4420
▁Richtig	-4421
▁respect	-4422
▁Äh	-4423
▁Fred	-4424
▁join	-4425
▁Ruf	-4426
▁=	-4427
▁Ted	-4428
▁hist	-4429
otte	-4430
port	-4431
▁sometimes	-4432
▁Etwas	-4433
▁Sometimes	-4434
ucks	-4435
▁apolog	-4436
wegs	-4437
mittel	-4438
▁Tsch	-4439
finden	-4440
▁nochmal	-4441
indung	-4442
iol	-4443
pe	-4444
▁Com	-4445
▁Sonst	-4446
▁verlie	-4447
▁di	-4448
äfte	-4449
▁Gericht	-4450
▁girlfriend	-4451
▁saved	-4452
erd	-4453
punkt	-4454
▁genauso	-4455
ängst	-4456
▁security	-4457
alen	-4458
aven	-4459
ption	-4460
▁Tisch	-4461
▁ä	-4462
pec	-4463
▁Schluss	-4464
athan	-4465
▁Del	-4466
▁dan	-4467
▁Over	-4468
▁cond	-4469
▁swear	-4470
äss	-4471
▁Ros	-4472
▁Mont	-4473
▁verhe	-4474
fully	-4475
▁Hü	-4476
▁spricht	-4477
▁Jeff	-4478
▁Charles	-4479
▁heim	-4480
▁card	-4481
▁rock	-4482
gramm	-4483
▁anrufen	-4484
▁jud	-4485
▁Beste	-4486
▁couple	-4487
▁Mehr	-4488
▁suit	-4489
▁organ	-4490
laublich	-4491
▁Schul	-4492
▁Dep	-4493
schön	-4494
▁Falls	-4495
arf	-4496
äume	-4497
▁sollst	-4498
▁dumm	-4499
▁visit	-4500
ances	-4501
▁damals	-4502
pan	-4503
anne	-4504
▁stir	-4505
stead	-4506
....	-4507
▁dou	-4508
uert	-4509
genheit	-4510
▁24	-4511
▁Whatever	-4512
rad	-4513
schn	-4514
emals	-4515
▁Jan	-4516
▁Bad	-4517
▁Habt	-4518
▁heißen	-4519
▁glaub	-4520
set	-4521
▁Ang	-4522
▁höre	-4523
▁honor	-4524
▁broken	-4525
äger	-4526
▁verdient	-4527
▁danach	-4528
for	-4529
▁erwartet	-4530
erem	-4531
▁ride	-4532
▁fat	-4533
▁aufhören	-4534
hat	-4535
aurant	-4536
▁findet	-4537
cl	-4538
emp	-4539
ehlt	-4540
schied	-4541
uty	-4542
▁Boot	-4543
▁form	-4544
▁Meinung	-4545
▁personal	-4546
▁gestorben	-4547
▁laugh	-4548
ulations	-4549
▁übr	-4550
üge	-4551
work	-4552
▁paid	-4553
▁umbringen	-4554
▁mel	-4555
ination	-4556
fst	-4557
▁Rei	-4558
pecially	-4559
▁agree	-4560
▁drunk	-4561
rian	-4562
▁Dean	-4563
▁requ	-4564
ops	-4565
▁Pal	-4566
eg	-4567
endet	-4568
▁sudden	-4569
iers	-4570
ändig	-4571
0.	-4572
▁Liebling	-4573
arbeitet	-4574
▁meisten	-4575
▁kämpfen	-4576
hem	-4577
▁sat	-4578
ises	-4579
▁Kan	-4580
▁Madame	-4581
gekommen	-4582
▁Wil	-4583
ET	-4584
▁1.	-4585
öp	-4586
gency	-4587
ima	-4588
▁Wind	-4589
aint	-4590
icult	-4591
▁bomb	-4592
utlich	-4593
▁Johnny	-4594
AM	-4595
ires	-4596
▁William	-4597
▁fres	-4598
▁Geist	-4599
▁neben	-4600
UN	-4601
▁Monate	-4602
▁Jane	-4603
▁Mot	-4604
▁Tat	-4605
▁verschwinden	-4606
▁jemals	-4607
elebr	-4608
▁vern	-4609
▁eher	-4610
▁mention	-4611
aces	-4612
▁cre	-4613
▁American	-4614
amb	-4615
ahnsinn	-4616
▁step	-4617
▁hotel	-4618
▁spielt	-4619
▁neigh	-4620
▁stren	-4621
▁consider	-4622
beite	-4623
▁Dire	-4624
▁cross	-4625
▁Anything	-4626
▁busy	-4627
ötzlich	-4628
▁Partner	-4629
ierst	-4630
worten	-4631
fel	-4632
▁Laden	-4633
▁liebt	-4634
▁Manchmal	-4635
▁key	-4636
▁grow	-4637
▁Chef	-4638
▁circ	-4639
inal	-4640
▁Gel	-4641
▁marry	-4642
medi	-4643
▁vill	-4644
▁Beg	-4645
▁Hung	-4646
▁steal	-4647
▁Hät	-4648
▁lieb	-4649
▁ground	-4650
heart	-4651
▁Willkommen	-4652
zentr	-4653
▁fällt	-4654
▁somebody	-4655
▁sil	-4656
▁park	-4657
ips	-4658
▁wärst	-4659
▁lustig	-4660
▁Chuck	-4661
▁jedes	-4662
▁calling	-4663
▁Hinter	-4664
▁suggest	-4665
▁blow	-4666
▁geschehen	-4667
▁hund	-4668
▁Entschuldige	-4669
▁smart	-4670
▁fühlen	-4671
▁schwar	-4672
ept	-4673
▁fle	-4674
▁blind	-4675
onnie	-4676
▁enjoy	-4677
unity	-4678
▁Test	-4679
▁proud	-4680
▁redest	-4681
omas	-4682
▁hübsch	-4683
▁loc	-4684
bare	-4685
uffer	-4686
▁führen	-4687
▁wartet	-4688
▁Goodbye	-4689
▁Fir	-4690
▁beat	-4691
ichtet	-4692
▁scream	-4693
isa	-4694
zept	-4695
▁pract	-4696
▁verbr	-4697
▁Gedanken	-4698
▁End	-4699
▁solche	-4700
ico	-4701
▁umgebracht	-4702
▁Van	-4703
ällig	-4704
▁eight	-4705
▁Dafür	-4706
iar	-4707
▁schre	-4708
▁frage	-4709
ccess	-4710
▁Vertrau	-4711
▁Besuch	-4712
▁sens	-4713
▁Eddie	-4714
▁nötig	-4715
▁quickly	-4716
▁angry	-4717
ierten	-4718
▁Sus	-4719
▁angef	-4720
ieb	-4721
stehen	-4722
▁seven	-4723
▁caught	-4724
▁share	-4725
▁Glauben	-4726
▁neg	-4727
▁Bro	-4728
▁Ell	-4729
enk	-4730
icul	-4731
hroom	-4732
ousand	-4733
▁Raus	-4734
▁Actually	-4735
▁ur	-4736
▁Cle	-4737
▁stre	-4738
▁letter	-4739
aker	-4740
chsel	-4741
▁strange	-4742
▁watching	-4743
annte	-4744
▁Rachel	-4745
▁Fenster	-4746
▁situation	-4747
▁middle	-4748
▁horse	-4749
teid	-4750
▁Brief	-4751
▁Scott	-4752
▁angel	-4753
orter	-4754
▁cust	-4755
▁Wohin	-4756
ries	-4757
riage	-4758
wagen	-4759
▁bitten	-4760
▁liegen	-4761
▁search	-4762
▁Verzeihung	-4763
rü	-4764
▁necess	-4765
▁immedi	-4766
▁difficult	-4767
mb	-4768
▁inform	-4769
ench	-4770
▁hörte	-4771
▁near	-4772
▁asshole	-4773
eilt	-4774
▁Mex	-4775
EL	-4776
▁gefährlich	-4777
▁müsst	-4778
▁born	-4779
▁recogn	-4780
▁pur	-4781
fortun	-4782
▁bother	-4783
▁sett	-4784
▁Tun	-4785
▁Drei	-4786
▁plane	-4787
▁Victor	-4788
▁Bobby	-4789
▁Gesetz	-4790
▁killer	-4791
inen	-4792
▁inte	-4793
▁Anfang	-4794
▁building	-4795
ST	-4796
▁jail	-4797
▁Nehmen	-4798
▁giving	-4799
▁Nähe	-4800
▁hide	-4801
▁rüber	-4802
▁decision	-4803
zial	-4804
▁hing	-4805
ancy	-4806
fle	-4807
▁High	-4808
▁celebr	-4809
▁anfangen	-4810
▁fantast	-4811
▁straight	-4812
▁early	-4813
▁guest	-4814
▁bekommt	-4815
▁cow	-4816
▁leider	-4817
▁stolz	-4818
▁Antwort	-4819
aly	-4820
viously	-4821
▁Anwalt	-4822
▁tick	-4823
▁floor	-4824
▁Welche	-4825
vol	-4826
▁statt	-4827
aters	-4828
kommt	-4829
▁kompl	-4830
▁recei	-4831
abeth	-4832
▁Fest	-4833
▁hinten	-4834
▁Ärger	-4835
yd	-4836
▁La	-4837
▁bezahlen	-4838
▁bought	-4839
▁Bier	-4840
▁schau	-4841
▁simple	-4842
äuf	-4843
▁Maria	-4844
▁imagine	-4845
▁hasse	-4846
▁machte	-4847
▁deshalb	-4848
▁wake	-4849
agegen	-4850
▁polit	-4851
▁Lang	-4852
▁evil	-4853
atsächlich	-4854
▁Arschloch	-4855
ams	-4856
stellung	-4857
field	-4858
▁push	-4859
▁Bud	-4860
▁ter	-4861
▁selt	-4862
▁Claire	-4863
▁glaubt	-4864
▁vorsichtig	-4865
andelt	-4866
ackt	-4867
▁arbeitet	-4868
▁typ	-4869
üte	-4870
rasch	-4871
▁nachdem	-4872
▁Anyway	-4873
▁schreiben	-4874
▁fear	-4875
▁jedem	-4876
▁Patient	-4877
▁konnten	-4878
izin	-4879
ooper	-4880
▁werdet	-4881
▁überras	-4882
▁evidence	-4883
iced	-4884
▁Neu	-4885
▁val	-4886
▁arbeite	-4887
gemacht	-4888
▁fliegen	-4889
▁plann	-4890
ument	-4891
▁Insp	-4892
▁Kleid	-4893
▁Geburtstag	-4894
ibly	-4895
▁Näch	-4896
▁Monaten	-4897
▁Frei	-4898
▁großer	-4899
▁Zus	-4900
▁Cong	-4901
▁Os	-4902
acken	-4903
▁sitting	-4904
▁likes	-4905
▁Sn	-4906
▁area	-4907
▁accept	-4908
▁Stelle	-4909
ierig	-4910
▁hungry	-4911
▁geschickt	-4912
▁Doug	-4913
ählt	-4914
▁Fort	-4915
▁Darum	-4916
▁Honey	-4917
▁üb	-4918
inder	-4919
▁gerettet	-4920
bild	-4921
umen	-4922
ora	-4923
▁suffer	-4924
▁näher	-4925
achts	-4926
▁liked	-4927
een	-4928
▁süß	-4929
▁Auge	-4930
▁German	-4931
aked	-4932
▁passt	-4933
▁charge	-4934
▁fighting	-4935
▁schicken	-4936
▁Thomas	-4937
▁US	-4938
igaret	-4939
▁halte	-4940
▁slow	-4941
▁erinnere	-4942
▁Möglichkeit	-4943
gabe	-4944
▁dick	-4945
▁schick	-4946
▁verfol	-4947
▁starb	-4948
▁Geben	-4949
▁voller	-4950
▁ew	-4951
▁Erzähl	-4952
gestellt	-4953
▁government	-4954
▁field	-4955
gh	-4956
osit	-4957
▁comfort	-4958
erer	-4959
▁Sign	-4960
▁lief	-4961
▁poss	-4962
,.....	-4963
ids	-4964
abb	-4965
▁bezahlt	-4966
▁schätze	-4967
▁Führ	-4968
▁owe	-4969
erk	-4970
▁Wird	-4971
▁Still	-4972
▁state	-4973
resse	-4974
▁Bre	-4975
etzte	-4976
▁kalt	-4977
▁Kraft	-4978
▁hello	-4979
sichtlich	-4980
quen	-4981
▁forward	-4982
▁position	-4983
▁Ung	-4984
abt	-4985
▁Kate	-4986
▁brain	-4987
ami	-4988
▁Louis	-4989
zul	-4990
▁pleasure	-4991
▁lived	-4992
▁support	-4993
▁Computer	-4994
abor	-4995
▁pen	-4996
▁Bürger	-4997
▁gewinnen	-4998
▁calls	-4999
cover	-5000
▁tat	-5001
▁boat	-5002
▁techn	-5003
▁wearing	-5004
▁anywhere	-5005
▁Di	-5006
rift	-5007
▁present	-5008
enne	-5009
▁coun	-5010
ining	-5011
▁decided	-5012
buch	-5013
▁prep	-5014
esse	-5015
▁bill	-5016
▁Steve	-5017
stes	-5018
▁thousand	-5019
▁kont	-5020
line	-5021
▁Mur	-5022
▁Hann	-5023
▁window	-5024
rag	-5025
▁alter	-5026
▁stick	-5027
ored	-5028
▁disg	-5029
▁lawyer	-5030
St	-5031
▁master	-5032
▁Japan	-5033
▁Intern	-5034
▁escape	-5035
▁Frieden	-5036
▁block	-5037
▁behalten	-5038
▁impress	-5039
▁interesting	-5040
▁verheiratet	-5041
▁missed	-5042
▁unterwegs	-5043
UR	-5044
▁gehol	-5045
aren	-5046
würd	-5047
▁board	-5048
▁Should	-5049
▁Ker	-5050
▁Eis	-5051
▁nimmt	-5052
cell	-5053
fre	-5054
▁Augenblick	-5055
▁cops	-5056
▁Witz	-5057
▁club	-5058
ify	-5059
iziert	-5060
▁Herzen	-5061
▁Entscheidung	-5062
ousin	-5063
▁machine	-5064
▁surprise	-5065
▁Fine	-5066
▁Glaubst	-5067
.,	-5068
asen	-5069
▁jemandem	-5070
▁Bu	-5071
▁Dreck	-5072
well	-5073
werk	-5074
▁Tau	-5075
▁Robin	-5076
▁voice	-5077
▁Chin	-5078
▁neues	-5079
▁Lehr	-5080
wand	-5081
▁Monat	-5082
▁standing	-5083
icer	-5084
▁Tur	-5085
▁Hmm	-5086
▁Terr	-5087
pper	-5088
▁Mond	-5089
▁dagegen	-5090
▁Met	-5091
wär	-5092
▁kamen	-5093
▁Heim	-5094
▁rufe	-5095
▁Priv	-5096
▁mögen	-5097
▁hilft	-5098
ias	-5099
▁agre	-5100
▁wünschte	-5101
ague	-5102
▁Brü	-5103
▁Oper	-5104
▁realize	-5105
▁shall	-5106
erweise	-5107
▁partner	-5108
▁ign	-5109
▁niemanden	-5110
inkt	-5111
▁doubt	-5112
▁trip	-5113
▁Ms	-5114
▁Warten	-5115
rel	-5116
▁sowie	-5117
▁Leiche	-5118
▁benutzt	-5119
bre	-5120
▁Count	-5121
▁Jason	-5122
▁lesen	-5123
solut	-5124
▁Eigentlich	-5125
▁killing	-5126
▁Tw	-5127
nahme	-5128
▁kept	-5129
▁Erinn	-5130
▁Gottes	-5131
ford	-5132
▁0	-5133
ampe	-5134
zust	-5135
▁Uncle	-5136
▁screw	-5137
▁Chief	-5138
▁moved	-5139
▁übern	-5140
▁Worte	-5141
meister	-5142
▁folgen	-5143
▁England	-5144
▁involved	-5145
mt	-5146
▁Vergiss	-5147
▁wüs	-5148
▁böse	-5149
▁prove	-5150
▁scheiß	-5151
▁knock	-5152
▁ständig	-5153
▁verkaufen	-5154
▁immediately	-5155
▁Emp	-5156
▁Roy	-5157
▁Verstanden	-5158
ourn	-5159
eilig	-5160
▁Dort	-5161
▁Earth	-5162
▁age	-5163
OM	-5164
▁Ryan	-5165
▁Informationen	-5166
▁ice	-5167
▁fish	-5168
▁Gefahr	-5169
gere	-5170
▁Back	-5171
asy	-5172
▁witness	-5173
schr	-5174
▁stat	-5175
▁Other	-5176
▁Lar	-5177
▁upset	-5178
▁läch	-5179
▁path	-5180
▁roll	-5181
▁radio	-5182
▁wü	-5183
▁unbe	-5184
▁cann	-5185
▁def	-5186
enken	-5187
uthor	-5188
▁White	-5189
▁finish	-5190
▁nut	-5191
▁Emily	-5192
▁Forget	-5193
▁rules	-5194
IA	-5195
redit	-5196
▁besonders	-5197
▁Überrasch	-5198
▁rufen	-5199
▁schöne	-5200
▁appro	-5201
▁Wald	-5202
▁public	-5203
krie	-5204
▁Toll	-5205
▁guard	-5206
ago	-5207
▁Sant	-5208
▁definit	-5209
▁Bell	-5210
▁wunderschön	-5211
gram	-5212
itel	-5213
▁Vir	-5214
▁unbed	-5215
kte	-5216
▁Sche	-5217
hö	-5218
▁Joey	-5219
▁Wein	-5220
▁tief	-5221
▁Handy	-5222
▁aufzu	-5223
▁nobody	-5224
▁schlimmer	-5225
▁Think	-5226
▁beer	-5227
arr	-5228
geld	-5229
▁Luke	-5230
▁Besides	-5231
▁Reise	-5232
▁enter	-5233
▁Before	-5234
igger	-5235
ünden	-5236
▁Wegen	-5237
▁Außerdem	-5238
▁cap	-5239
▁Jake	-5240
▁Damen	-5241
▁Kontakt	-5242
▁Gefallen	-5243
▁attention	-5244
▁plötzlich	-5245
rieb	-5246
zi	-5247
▁Bewegung	-5248
▁Schre	-5249
▁Foto	-5250
umb	-5251
eier	-5252
▁cab	-5253
▁Verm	-5254
▁sitzt	-5255
frau	-5256
▁Dis	-5257
▁Ener	-5258
▁history	-5259
▁seconds	-5260
dam	-5261
▁self	-5262
▁Preis	-5263
pens	-5264
achtet	-5265
▁Fel	-5266
▁rie	-5267
geht	-5268
▁richtige	-5269
▁mü	-5270
▁pun	-5271
▁drop	-5272
▁schn	-5273
▁Try	-5274
ified	-5275
▁Sekunden	-5276
▁French	-5277
▁THE	-5278
▁ließ	-5279
▁kit	-5280
▁Roger	-5281
sprechen	-5282
▁Hex	-5283
▁Ka	-5284
▁rich	-5285
▁Einer	-5286
▁magic	-5287
▁scene	-5288
▁stopped	-5289
erstood	-5290
jen	-5291
▁Anruf	-5292
▁track	-5293
▁discuss	-5294
▁carry	-5295
äumen	-5296
▁Lage	-5297
▁Rolle	-5298
▁appre	-5299
ording	-5300
▁gelie	-5301
▁loves	-5302
▁Street	-5303
▁profession	-5304
▁nahm	-5305
ispiel	-5306
▁darling	-5307
▁success	-5308
▁spir	-5309
▁beginning	-5310
rog	-5311
▁fürs	-5312
sey	-5313
▁Jac	-5314
▁Klappe	-5315
iser	-5316
stein	-5317
▁Commander	-5318
▁happening	-5319
▁Today	-5320
▁Beziehung	-5321
▁allowed	-5322
▁learned	-5323
▁upstairs	-5324
▁erwä	-5325
▁furcht	-5326
ratulations	-5327
▁fill	-5328
▁private	-5329
▁Rose	-5330
▁Bescheid	-5331
erecht	-5332
▁promised	-5333
▁Erinner	-5334
hält	-5335
▁beein	-5336
▁bekannt	-5337
▁Holy	-5338
▁fing	-5339
älle	-5340
▁Move	-5341
▁Dame	-5342
▁President	-5343
ada	-5344
rote	-5345
▁Out	-5346
▁Tier	-5347
▁neck	-5348
IC	-5349
lei	-5350
▁Ehr	-5351
laubt	-5352
▁gener	-5353
▁wenigstens	-5354
2.	-5355
fit	-5356
▁pray	-5357
▁bathroom	-5358
▁Run	-5359
▁Auss	-5360
▁Stan	-5361
▁Minute	-5362
▁Minister	-5363
▁Pfl	-5364
arget	-5365
etwas	-5366
▁crime	-5367
▁group	-5368
jekt	-5369
ützt	-5370
▁Lust	-5371
▁ansehen	-5372
▁Absolutely	-5373
▁Laura	-5374
▁Stu	-5375
▁müsste	-5376
atsch	-5377
▁stri	-5378
▁Prob	-5379
▁gestohlen	-5380
▁Seht	-5381
berg	-5382
▁Aha	-5383
gress	-5384
▁Masch	-5385
ari	-5386
iday	-5387
▁blue	-5388
▁address	-5389
▁healt	-5390
▁Schlag	-5391
amin	-5392
▁führt	-5393
▁Those	-5394
RE	-5395
abl	-5396
aun	-5397
ample	-5398
reten	-5399
▁America	-5400
hood	-5401
▁acht	-5402
▁mission	-5403
▁untersch	-5404
1.	-5405
drück	-5406
▁anybody	-5407
▁stole	-5408
fast	-5409
eared	-5410
▁everybody	-5411
vey	-5412
▁dahin	-5413
▁Vier	-5414
▁Seele	-5415
▁Cool	-5416
▁Einzige	-5417
ütz	-5418
▁innoc	-5419
ugg	-5420
ector	-5421
eless	-5422
▁Unfall	-5423
▁darfst	-5424
▁Everyone	-5425
▁arr	-5426
▁House	-5427
▁Hals	-5428
▁Next	-5429
▁werd	-5430
▁vac	-5431
▁Leon	-5432
▁Besser	-5433
▁Geschenk	-5434
5.	-5435
▁Weile	-5436
boy	-5437
▁rom	-5438
enten	-5439
▁bird	-5440
▁force	-5441
atic	-5442
▁som	-5443
▁everywhere	-5444
▁Ra	-5445
house	-5446
▁Bern	-5447
▁Befehl	-5448
▁Volk	-5449
▁Familien	-5450
▁beschäft	-5451
▁Deal	-5452
atte	-5453
wards	-5454
▁Deut	-5455
▁pot	-5456
▁Que	-5457
▁aut	-5458
▁necessary	-5459
ston	-5460
▁Got	-5461
ibe	-5462
▁Rau	-5463
▁Club	-5464
▁passen	-5465
▁Kontrolle	-5466
▁kon	-5467
▁Time	-5468
ellschaft	-5469
▁deswegen	-5470
▁single	-5471
▁hom	-5472
▁geschrieben	-5473
▁Rick	-5474
thur	-5475
▁concern	-5476
▁Klasse	-5477
▁spent	-5478
äge	-5479
▁Gal	-5480
▁wine	-5481
▁cas	-5482
▁during	-5483
▁sweetheart	-5484
▁president	-5485
hle	-5486
iny	-5487
▁zeig	-5488
denken	-5489
▁gelernt	-5490
▁kriegt	-5491
▁unmöglich	-5492
pty	-5493
illa	-5494
▁Zurück	-5495
▁deserve	-5496
▁ladies	-5497
▁Rücken	-5498
▁travel	-5499
▁hero	-5500
▁Keiner	-5501
arently	-5502
▁Voll	-5503
▁spiel	-5504
▁Richtung	-5505
▁Find	-5506
fter	-5507
▁Beispiel	-5508
▁Zwe	-5509
▁Amand	-5510
▁suspect	-5511
▁Kal	-5512
▁Bart	-5513
unst	-5514
▁gutes	-5515
äß	-5516
▁driving	-5517
▁Egal	-5518
▁benutzen	-5519
▁Zauber	-5520
NA	-5521
▁horr	-5522
▁convers	-5523
▁emp	-5524
ether	-5525
▁Trau	-5526
▁joke	-5527
▁serv	-5528
▁dying	-5529
..."	-5530
▁cat	-5531
heiten	-5532
▁Happy	-5533
▁Ba	-5534
ünst	-5535
▁amb	-5536
▁Five	-5537
▁Bom	-5538
rass	-5539
▁Vorsicht	-5540
teilen	-5541
ky	-5542
▁Tot	-5543
▁nennt	-5544
▁oh	-5545
▁gib	-5546
▁cause	-5547
▁bullshit	-5548
agn	-5549
▁suche	-5550
▁verz	-5551
ini	-5552
ham	-5553
etic	-5554
▁abs	-5555
▁Pferd	-5556
▁Punkt	-5557
▁versprochen	-5558
▁gewonnen	-5559
fortunately	-5560
▁gearbeitet	-5561
wich	-5562
▁Roll	-5563
▁Nachrichten	-5564
uhr	-5565
▁Firma	-5566
▁steckt	-5567
▁unbedingt	-5568
host	-5569
▁host	-5570
aine	-5571
▁Fal	-5572
▁Resp	-5573
▁Tommy	-5574
enty	-5575
▁band	-5576
▁gele	-5577
▁Proz	-5578
▁gebrau	-5579
▁überprü	-5580
law	-5581
▁pictures	-5582
▁Fil	-5583
▁weapons	-5584
▁sieh	-5585
▁Schwar	-5586
▁favorite	-5587
ki	-5588
aped	-5589
▁Bab	-5590
erlin	-5591
▁Dick	-5592
▁Gren	-5593
▁erledigt	-5594
▁Pet	-5595
ampag	-5596
▁entschuldigen	-5597
ücke	-5598
andeln	-5599
▁Psych	-5600
▁wrote	-5601
▁Hit	-5602
▁Arthur	-5603
▁Ass	-5604
▁wid	-5605
▁Post	-5606
▁helped	-5607
▁Verbindung	-5608
▁Pan	-5609
▁Long	-5610
ments	-5611
▁Riesen	-5612
laufen	-5613
▁mount	-5614
▁squ	-5615
▁gelesen	-5616
▁Früh	-5617
▁stuck	-5618
schluss	-5619
glie	-5620
uppen	-5621
ehrt	-5622
▁corre	-5623
▁Dienst	-5624
▁Vo	-5625
▁equ	-5626
▁non	-5627
▁Händ	-5628
riffen	-5629
suchen	-5630
▁appreci	-5631
▁perfekt	-5632
▁ourselves	-5633
omer	-5634
▁Blick	-5635
▁verstehst	-5636
▁gekauft	-5637
▁member	-5638
elbe	-5639
brechen	-5640
wen	-5641
passen	-5642
▁Tasche	-5643
▁Chris	-5644
▁meinte	-5645
rupt	-5646
▁Vinc	-5647
hington	-5648
▁Little	-5649
▁Flugzeug	-5650
oring	-5651
"...	-5652
aterial	-5653
▁Kä	-5654
▁muß	-5655
▁Wild	-5656
▁milit	-5657
▁hundred	-5658
▁Kill	-5659
▁fühlt	-5660
folg	-5661
▁Ster	-5662
▁mass	-5663
▁princ	-5664
vy	-5665
▁finished	-5666
rey	-5667
oral	-5668
gele	-5669
▁Drink	-5670
▁sowieso	-5671
präch	-5672
▁Lind	-5673
▁Ring	-5674
▁drag	-5675
▁gehabt	-5676
hall	-5677
gth	-5678
▁Hunger	-5679
yr	-5680
▁Rel	-5681
▁ruf	-5682
▁ertr	-5683
▁pregn	-5684
▁patient	-5685
▁surprised	-5686
▁none	-5687
▁weak	-5688
▁space	-5689
▁excuse	-5690
▁continue	-5691
ament	-5692
arely	-5693
ostet	-5694
▁fired	-5695
▁geboren	-5696
▁MAN	-5697
▁Karte	-5698
barrass	-5699
▁orders	-5700
orts	-5701
▁Erw	-5702
▁Kle	-5703
▁account	-5704
▁Denk	-5705
▁bekam	-5706
▁schlagen	-5707
▁Doesn	-5708
äu	-5709
▁Leo	-5710
▁Francis	-5711
▁Seid	-5712
▁locked	-5713
▁ko	-5714
▁Jeden	-5715
▁sauer	-5716
▁komisch	-5717
▁schneller	-5718
astle	-5719
▁verf	-5720
▁fit	-5721
▁beob	-5722
▁Stimme	-5723
▁euer	-5724
▁enemy	-5725
▁Enough	-5726
rakt	-5727
▁Judy	-5728
▁Sat	-5729
▁Zuh	-5730
▁harm	-5731
acy	-5732
▁pig	-5733
osen	-5734
▁wach	-5735
▁choose	-5736
▁feelings	-5737
▁marriage	-5738
▁computer	-5739
üssen	-5740
▁Gentlemen	-5741
▁Has	-5742
▁Eliz	-5743
▁Amanda	-5744
▁Fü	-5745
▁Ehre	-5746
▁aussehen	-5747
enter	-5748
▁wütend	-5749
▁Setz	-5750
▁direct	-5751
OL	-5752
▁Liste	-5753
▁Kleine	-5754
▁Without	-5755
cial	-5756
▁inf	-5757
▁verschwunden	-5758
▁seat	-5759
irk	-5760
▁extre	-5761
▁gegenüber	-5762
▁Once	-5763
icious	-5764
▁Cra	-5765
▁Jean	-5766
ätzchen	-5767
▁gas	-5768
▁verliebt	-5769
ügt	-5770
▁Doc	-5771
▁Bord	-5772
seh	-5773
▁impossible	-5774
▁ST	-5775
▁Schwein	-5776
RA	-5777
▁remind	-5778
▁entscheiden	-5779
mond	-5780
▁Gefühle	-5781
gin	-5782
▁Carter	-5783
▁instead	-5784
▁Vamp	-5785
wohn	-5786
▁Nachbar	-5787
▁Att	-5788
▁mot	-5789
▁müde	-5790
▁English	-5791
▁suppose	-5792
▁2.	-5793
erne	-5794
▁Aren	-5795
unkel	-5796
▁Kindern	-5797
▁wunderbar	-5798
ology	-5799
▁Four	-5800
▁Gang	-5801
▁third	-5802
▁sleeping	-5803
▁eigene	-5804
▁schießen	-5805
icated	-5806
ograph	-5807
▁Washington	-5808
▁ak	-5809
▁erreichen	-5810
äne	-5811
ternoon	-5812
▁embarrass	-5813
▁Bas	-5814
▁Wand	-5815
▁Irgendw	-5816
▁shoes	-5817
▁danc	-5818
▁hiding	-5819
▁Schicks	-5820
▁Tax	-5821
▁Dien	-5822
▁Jose	-5823
▁bess	-5824
▁perform	-5825
ville	-5826
▁Jerry	-5827
▁bastard	-5828
edet	-5829
ising	-5830
▁dank	-5831
etztes	-5832
cent	-5833
▁lim	-5834
▁occ	-5835
▁Until	-5836
▁kitchen	-5837
▁planet	-5838
scher	-5839
▁Dach	-5840
▁incred	-5841
▁forgive	-5842
ansport	-5843
50	-5844
▁Grace	-5845
▁tea	-5846
▁Master	-5847
atherine	-5848
▁sake	-5849
▁heiße	-5850
▁command	-5851
klär	-5852
▁named	-5853
▁Besonder	-5854
ätzen	-5855
uit	-5856
▁bell	-5857
▁sauber	-5858
▁Kim	-5859
▁except	-5860
lage	-5861
▁Must	-5862
▁Stein	-5863
▁Beweise	-5864
▁Todes	-5865
▁across	-5866
▁Glas	-5867
▁Weiter	-5868
▁Kug	-5869
alien	-5870
▁Nik	-5871
▁Eric	-5872
▁erle	-5873
▁solange	-5874
▁officer	-5875
spiel	-5876
oop	-5877
▁earth	-5878
▁kaputt	-5879
cel	-5880
▁vertrauen	-5881
ev	-5882
▁Emma	-5883
▁Walter	-5884
read	-5885
stit	-5886
will	-5887
▁yell	-5888
▁asleep	-5889
▁Grandma	-5890
wärts	-5891
▁service	-5892
▁Situation	-5893
▁Tante	-5894
▁betray	-5895
tau	-5896
äude	-5897
▁beschützen	-5898
▁sea	-5899
cious	-5900
▁Sonne	-5901
▁Majesty	-5902
▁listening	-5903
▁Norm	-5904
▁stab	-5905
▁wood	-5906
führen	-5907
▁möchten	-5908
führer	-5909
▁fehlt	-5910
▁Mau	-5911
time	-5912
▁Nase	-5913
▁sieben	-5914
▁tie	-5915
ehle	-5916
▁Mut	-5917
▁mut	-5918
▁piss	-5919
▁crimin	-5920
▁erwarten	-5921
▁verdammte	-5922
usion	-5923
▁Mill	-5924
▁abgesch	-5925
▁hältst	-5926
▁Jun	-5927
▁lar	-5928
▁entde	-5929
▁experience	-5930
ms	-5931
▁Adam	-5932
gefähr	-5933
▁Franz	-5934
▁Ladies	-5935
iegen	-5936
▁prov	-5937
▁miles	-5938
▁beweisen	-5939
▁Weise	-5940
▁closer	-5941
▁pop	-5942
▁AN	-5943
▁Cam	-5944
spann	-5945
▁drugs	-5946
▁weitere	-5947
aschen	-5948
▁Jenny	-5949
otten	-5950
▁Pete	-5951
▁Muss	-5952
▁Send	-5953
▁army	-5954
fan	-5955
iber	-5956
etzung	-5957
▁bemer	-5958
▁versteckt	-5959
ucken	-5960
▁Form	-5961
▁Rede	-5962
▁ewig	-5963
▁Regierung	-5964
satz	-5965
▁themselves	-5966
gu	-5967
▁Jung	-5968
anw	-5969
üllt	-5970
▁Lin	-5971
▁Most	-5972
▁church	-5973
▁seltsam	-5974
eile	-5975
▁gives	-5976
▁Regeln	-5977
▁nämlich	-5978
▁verkauft	-5979
▁dauert	-5980
da	-5981
▁intern	-5982
▁Überraschung	-5983
▁draw	-5984
ipe	-5985
▁Gast	-5986
ites	-5987
bruch	-5988
iculous	-5989
▁herself	-5990
asc	-5991
iat	-5992
ppel	-5993
▁einge	-5994
▁großartig	-5995
▁Congratulations	-5996
vely	-5997
▁mod	-5998
▁hadn	-5999
▁Zuf	-6000
▁Angeb	-6001
▁Sounds	-6002
▁verändert	-6003
▁$2	-6004
▁Sekunde	-6005
omen	-6006
▁weiss	-6007
▁stirbt	-6008
▁fürchte	-6009
▁innocent	-6010
hel	-6011
uern	-6012
▁Imp	-6013
organ	-6014
örung	-6015
▁Mittag	-6016
▁difference	-6017
▁fresh	-6018
standen	-6019
▁author	-6020
▁target	-6021
▁empty	-6022
ordin	-6023
▁eg	-6024
▁Hut	-6025
▁Officer	-6026
▁intro	-6027
▁dasselbe	-6028
▁afternoon	-6029
▁dig	-6030
▁erwischt	-6031
came	-6032
▁Armee	-6033
ulation	-6034
täus	-6035
▁Six	-6036
▁Majestät	-6037
▁verraten	-6038
▁truck	-6039
▁ain	-6040
▁Bot	-6041
ragen	-6042
▁Kirche	-6043
oßen	-6044
▁Cap	-6045
▁witch	-6046
▁repl	-6047
▁blame	-6048
▁Zeiten	-6049
▁schwöre	-6050
jor	-6051
▁Grandpa	-6052
iley	-6053
▁Ten	-6054
▁Dorf	-6055
▁Ehem	-6056
▁guns	-6057
▁Däm	-6058
▁rau	-6059
▁price	-6060
▁Denkst	-6061
eiern	-6062
▁Univers	-6063
liegen	-6064
▁junge	-6065
▁mensch	-6066
▁Another	-6067
▁rain	-6068
▁produ	-6069
▁remain	-6070
mir	-6071
▁Aust	-6072
▁Alice	-6073
▁nervous	-6074
erven	-6075
▁Feind	-6076
▁Jesse	-6077
▁verab	-6078
▁Hoffnung	-6079
▁Bew	-6080
▁Wohl	-6081
ode	-6082
▁plans	-6083
▁System	-6084
▁closed	-6085
▁Energie	-6086
▁geliebt	-6087
izza	-6088
▁Port	-6089
▁village	-6090
▁inj	-6091
▁Span	-6092
3.	-6093
getan	-6094
▁cute	-6095
▁warn	-6096
▁schrecklich	-6097
▁unglaublich	-6098
▁Könnte	-6099
▁selber	-6100
▁apologize	-6101
ients	-6102
▁erg	-6103
ichst	-6104
ipped	-6105
▁Ross	-6106
▁Somm	-6107
▁gesucht	-6108
▁Walt	-6109
▁Perfe	-6110
▁became	-6111
▁eingel	-6112
▁Liebes	-6113
sa	-6114
▁Leg	-6115
▁lab	-6116
▁feels	-6117
▁geschlafen	-6118
weder	-6119
älter	-6120
▁Mommy	-6121
▁deines	-6122
▁Haut	-6123
▁60	-6124
▁Elizabeth	-6125
▁Dra	-6126
▁Gab	-6127
▁est	-6128
▁poison	-6129
▁cup	-6130
ibility	-6131
ließlich	-6132
reg	-6133
ieve	-6134
▁Lauf	-6135
▁Haare	-6136
▁romant	-6137
pin	-6138
▁Eier	-6139
▁match	-6140
▁worst	-6141
▁persönlich	-6142
▁tolle	-6143
▁names	-6144
ilty	-6145
▁hoff	-6146
▁geredet	-6147
alität	-6148
▁Techn	-6149
▁Vaters	-6150
ums	-6151
▁verantwort	-6152
ächtig	-6153
▁sever	-6154
▁kidnapp	-6155
▁miteinander	-6156
ünft	-6157
▁spo	-6158
▁Indian	-6159
▁traurig	-6160
ED	-6161
nern	-6162
vier	-6163
▁Mission	-6164
heim	-6165
▁lag	-6166
▁teacher	-6167
ee	-6168
▁Lois	-6169
▁sand	-6170
▁books	-6171
▁Vergangen	-6172
▁Tee	-6173
▁ermord	-6174
▁Fleisch	-6175
room	-6176
▁Holly	-6177
ütze	-6178
▁Lock	-6179
▁neither	-6180
▁fern	-6181
▁Free	-6182
indern	-6183
▁letzter	-6184
▁usually	-6185
cil	-6186
bern	-6187
▁Ton	-6188
▁Brian	-6189
▁decide	-6190
▁played	-6191
▁Simon	-6192
mission	-6193
▁erledigen	-6194
▁Check	-6195
▁Monster	-6196
sec	-6197
ceed	-6198
▁Mos	-6199
▁entfernt	-6200
▁Hank	-6201
▁duty	-6202
▁Sau	-6203
vent	-6204
▁Jenn	-6205
▁Rome	-6206
▁tree	-6207
▁captain	-6208
▁Herrn	-6209
▁lunch	-6210
▁Tschüss	-6211
▁erhalten	-6212
▁Güte	-6213
▁dare	-6214
zeugen	-6215
▁Music	-6216
▁Stern	-6217
▁Pau	-6218
igens	-6219
äche	-6220
▁fahre	-6221
▁camera	-6222
hof	-6223
▁sle	-6224
offer	-6225
▁namen	-6226
▁redet	-6227
angt	-6228
ippen	-6229
unny	-6230
hew	-6231
kerl	-6232
▁nahe	-6233
▁Bravo	-6234
▁triff	-6235
▁Zeichen	-6236
ends	-6237
▁fangen	-6238
▁Kommand	-6239
▁anderer	-6240
üsse	-6241
▁emer	-6242
fern	-6243
▁aud	-6244
▁Fotos	-6245
ING	-6246
TER	-6247
▁ow	-6248
▁Dave	-6249
▁Phoe	-6250
▁Baum	-6251
▁Lily	-6252
▁schaff	-6253
▁weapon	-6254
▁Respekt	-6255
▁Way	-6256
▁complete	-6257
▁dirty	-6258
▁witz	-6259
do	-6260
▁sobald	-6261
▁Treffen	-6262
▁beschäftigt	-6263
iform	-6264
▁wondering	-6265
▁Gehirn	-6266
▁Weihnachten	-6267
US	-6268
▁ille	-6269
auspiel	-6270
▁zahlen	-6271
▁further	-6272
änge	-6273
▁Kil	-6274
▁abh	-6275
icide	-6276
▁elect	-6277
▁fährt	-6278
▁vermisst	-6279
bell	-6280
velop	-6281
▁Schicksal	-6282
rett	-6283
andon	-6284
▁Lisa	-6285
▁grad	-6286
▁aufgeh	-6287
▁appreciate	-6288
▁sucht	-6289
▁breakfast	-6290
Die	-6291
▁Mat	-6292
▁neighbor	-6293
con	-6294
iner	-6295
▁Acc	-6296
▁Druck	-6297
▁Elena	-6298
▁tanzen	-6299
▁pregnant	-6300
▁Echt	-6301
irgend	-6302
▁sorgen	-6303
▁event	-6304
verständ	-6305
▁trick	-6306
▁deliver	-6307
▁willing	-6308
▁destroyed	-6309
▁McC	-6310
▁darin	-6311
▁Tri	-6312
grund	-6313
▁East	-6314
▁Pier	-6315
▁Ot	-6316
ühlt	-6317
▁Ähm	-6318
▁Öff	-6319
▁fehl	-6320
▁Mick	-6321
▁Vergangenheit	-6322
urb	-6323
7.	-6324
▁Kevin	-6325
▁Schmerz	-6326
▁pretend	-6327
▁Pil	-6328
▁Ram	-6329
▁tem	-6330
treten	-6331
▁insp	-6332
▁pants	-6333
▁Jackson	-6334
ieg	-6335
ehren	-6336
▁Hard	-6337
▁gehören	-6338
▁conversation	-6339
▁namens	-6340
raben	-6341
▁admit	-6342
▁Vergn	-6343
illy	-6344
uckt	-6345
▁gemeinsam	-6346
ema	-6347
alous	-6348
▁bear	-6349
usting	-6350
▁noticed	-6351
eel	-6352
▁Conn	-6353
ppen	-6354
▁Rus	-6355
haben	-6356
▁zerstört	-6357
▁überw	-6358
▁cannot	-6359
▁ganzes	-6360
▁devil	-6361
▁notice	-6362
▁Straßen	-6363
▁Staats	-6364
year	-6365
▁Clar	-6366
▁medic	-6367
▁brachte	-6368
ef	-6369
▁Step	-6370
▁animals	-6371
mus	-6372
▁Phoebe	-6373
ech	-6374
aron	-6375
▁Bein	-6376
▁cake	-6377
▁goodbye	-6378
ito	-6379
▁nose	-6380
▁till	-6381
▁memory	-6382
ique	-6383
ücken	-6384
▁animal	-6385
▁Vincent	-6386
▁schönen	-6387
kopf	-6388
▁findest	-6389
▁unf	-6390
▁Küche	-6391
▁following	-6392
ya	-6393
▁Peg	-6394
▁Hilf	-6395
ida	-6396
▁bere	-6397
▁Marie	-6398
▁Liz	-6399
▁Deswegen	-6400
▁Verbrechen	-6401
▁Barry	-6402
cellent	-6403
▁Day	-6404
ationen	-6405
▁starting	-6406
▁Guys	-6407
▁caus	-6408
▁setz	-6409
▁bleibe	-6410
▁finger	-6411
nes	-6412
▁Haar	-6413
▁Jonathan	-6414
▁Soldaten	-6415
▁Ren	-6416
mmere	-6417
▁Cass	-6418
▁showed	-6419
▁Grü	-6420
▁Trick	-6421
▁bedeuten	-6422
▁smoke	-6423
▁wisst	-6424
▁kriegst	-6425
▁Otherwise	-6426
▁verdammten	-6427
IL	-6428
▁Marg	-6429
▁survive	-6430
elegenheit	-6431
itzt	-6432
äumt	-6433
▁brothers	-6434
ined	-6435
laden	-6436
hes	-6437
▁blau	-6438
lant	-6439
▁Dom	-6440
iforn	-6441
▁wussten	-6442
▁irgendetwas	-6443
▁Pull	-6444
▁scare	-6445
▁emotion	-6446
ois	-6447
vater	-6448
isiert	-6449
▁Start	-6450
rech	-6451
▁Messer	-6452
▁bewegen	-6453
▁Acht	-6454
gedacht	-6455
▁result	-6456
▁Seriously	-6457
▁Kor	-6458
▁faith	-6459
▁richtigen	-6460
▁verspreche	-6461
▁Rein	-6462
▁Gesellschaft	-6463
▁Schle	-6464
▁ridiculous	-6465
zz	-6466
send	-6467
▁Lager	-6468
▁judge	-6469
▁reing	-6470
samkeit	-6471
-1	-6472
lax	-6473
▁fac	-6474
▁Schutz	-6475
itted	-6476
met	-6477
merk	-6478
riere	-6479
sense	-6480
▁spirit	-6481
tag	-6482
burg	-6483
laim	-6484
▁Stock	-6485
▁using	-6486
▁access	-6487
▁comfortable	-6488
over	-6489
ieten	-6490
▁Offen	-6491
▁Andy	-6492
▁Wäre	-6493
▁Susan	-6494
▁wohin	-6495
oh	-6496
▁Sing	-6497
▁Wovon	-6498
▁links	-6499
▁hoping	-6500
ICH	-6501
▁Wes	-6502
▁island	-6503
nisse	-6504
▁Fünf	-6505
▁project	-6506
▁ähn	-6507
▁Kunst	-6508
gesetzt	-6509
▁lebend	-6510
▁Gefangen	-6511
▁Insel	-6512
▁tough	-6513
▁phys	-6514
▁terror	-6515
viel	-6516
▁Schritt	-6517
▁Chic	-6518
▁flight	-6519
rib	-6520
plant	-6521
▁gang	-6522
ij	-6523
damn	-6524
▁Amy	-6525
ishing	-6526
▁opport	-6527
▁Häl	-6528
▁quar	-6529
▁Sofort	-6530
ösung	-6531
▁spell	-6532
▁Dun	-6533
▁summer	-6534
▁geholfen	-6535
▁furchtbar	-6536
▁van	-6537
▁Zeig	-6538
▁walking	-6539
▁gelassen	-6540
▁disappeared	-6541
anch	-6542
▁log	-6543
▁Spur	-6544
▁arms	-6545
▁aussieht	-6546
uls	-6547
▁übrig	-6548
vies	-6549
▁Ari	-6550
▁Care	-6551
▁Gegend	-6552
imp	-6553
iles	-6554
▁led	-6555
▁defe	-6556
▁Police	-6557
▁akzept	-6558
▁500	-6559
▁Mittel	-6560
erap	-6561
ismus	-6562
▁anst	-6563
▁South	-6564
▁Ehemann	-6565
▁responsible	-6566
▁Wahrscheinlich	-6567
back	-6568
ifer	-6569
▁suddenly	-6570
▁vorbereit	-6571
OT	-6572
iev	-6573
▁Larry	-6574
▁North	-6575
▁Gebäude	-6576
▁Gä	-6577
▁großes	-6578
▁stecken	-6579
▁built	-6580
▁Probably	-6581
▁gebrochen	-6582
▁Log	-6583
▁green	-6584
▁heaven	-6585
▁divor	-6586
▁Richter	-6587
teilung	-6588
▁Berlin	-6589
▁Meinst	-6590
of	-6591
▁Camp	-6592
▁rese	-6593
▁Kelly	-6594
▁greatest	-6595
zusch	-6596
▁ill	-6597
▁Brad	-6598
▁Amerika	-6599
icle	-6600
▁Love	-6601
▁surviv	-6602
▁college	-6603
▁Schauspiel	-6604
▁überrascht	-6605
▁Bund	-6606
▁Calm	-6607
▁seeing	-6608
▁schlechte	-6609
ocol	-6610
▁guilty	-6611
▁Swe	-6612
▁blö	-6613
▁saf	-6614
▁vamp	-6615
▁sword	-6616
▁legen	-6617
▁ermordet	-6618
IG	-6619
▁hook	-6620
▁apart	-6621
mutter	-6622
▁Freiheit	-6623
▁vir	-6624
▁Bon	-6625
entleman	-6626
kre	-6627
▁advice	-6628
▁CIA	-6629
▁file	-6630
▁ghost	-6631
▁langw	-6632
zte	-6633
▁cream	-6634
▁bleibst	-6635
▁möchtest	-6636
uell	-6637
▁Smith	-6638
▁example	-6639
▁program	-6640
▁totally	-6641
▁strength	-6642
▁Abendessen	-6643
uce	-6644
gesp	-6645
stra	-6646
▁disappear	-6647
▁tatsächlich	-6648
irrt	-6649
▁mood	-6650
▁schauen	-6651
lor	-6652
▁legs	-6653
▁Fisch	-6654
▁schme	-6655
▁gesund	-6656
▁herausfinden	-6657
ola	-6658
▁00.	-6659
▁Zust	-6660
▁schie	-6661
▁herein	-6662
▁Mas	-6663
▁crew	-6664
▁orig	-6665
▁Glückw	-6666
▁dreams	-6667
▁nieder	-6668
▁angefangen	-6669
OS	-6670
venge	-6671
▁shop	-6672
▁beruh	-6673
▁meint	-6674
▁nervös	-6675
▁interview	-6676
▁Vergnügen	-6677
▁Jew	-6678
▁Alan	-6679
▁Meer	-6680
▁base	-6681
▁defend	-6682
entral	-6683
▁fucked	-6684
▁recognize	-6685
▁Chl	-6686
▁ord	-6687
▁arrang	-6688
▁battle	-6689
▁brauch	-6690
▁Königin	-6691
▁besorgt	-6692
ex	-6693
▁Fer	-6694
▁Harvey	-6695
▁seines	-6696
▁Hu	-6697
▁Erd	-6698
▁Chicago	-6699
▁appoint	-6700
▁Girl	-6701
▁Engel	-6702
▁Scher	-6703
▁abgeh	-6704
▁holding	-6705
ehow	-6706
feld	-6707
▁herr	-6708
▁witzig	-6709
▁wohnen	-6710
▁aufhalten	-6711
▁anz	-6712
▁Reden	-6713
▁expecting	-6714
iew	-6715
▁Wohn	-6716
▁race	-6717
▁zieht	-6718
▁gebeten	-6719
▁quit	-6720
▁Bevor	-6721
ios	-6722
▁Denken	-6723
▁Position	-6724
▁Nat	-6725
▁Schuhe	-6726
gewöhn	-6727
▁absolutely	-6728
oms	-6729
anie	-6730
▁Val	-6731
▁relax	-6732
▁Aufgabe	-6733
▁gespielt	-6734
car	-6735
▁Naja	-6736
▁reich	-6737
▁pressure	-6738
leit	-6739
▁Nar	-6740
▁amaz	-6741
▁nine	-6742
▁video	-6743
▁seriously	-6744
▁imm	-6745
nahmen	-6746
orfen	-6747
▁posit	-6748
▁faster	-6749
▁Angriff	-6750
▁taste	-6751
amous	-6752
▁Reich	-6753
▁main	-6754
▁wüsste	-6755
▁Verantwort	-6756
▁Zuhause	-6757
ucky	-6758
▁lied	-6759
▁hig	-6760
▁Rand	-6761
ension	-6762
wert	-6763
▁Fro	-6764
▁Arch	-6765
▁Samm	-6766
▁kriege	-6767
▁movies	-6768
▁Air	-6769
▁Ris	-6770
▁Kleiner	-6771
▁absolut	-6772
▁kontroll	-6773
lair	-6774
▁twice	-6775
▁Albert	-6776
zeichnet	-6777
▁mussten	-6778
▁Müll	-6779
▁verantwortlich	-6780
▁code	-6781
zeitig	-6782
▁hinaus	-6783
han	-6784
▁Oliver	-6785
▁Internet	-6786
▁besuchen	-6787
▁irgendein	-6788
▁Wochenende	-6789
You	-6790
edom	-6791
▁Deck	-6792
lieben	-6793
▁Were	-6794
▁befre	-6795
▁dollars	-6796
▁jack	-6797
▁Ken	-6798
▁geg	-6799
▁entschieden	-6800
▁pan	-6801
▁Natur	-6802
▁zeigt	-6803
▁Halten	-6804
ona	-6805
▁research	-6806
adition	-6807
▁300	-6808
führt	-6809
▁cent	-6810
▁sort	-6811
▁Sonnen	-6812
jähr	-6813
▁Tex	-6814
elche	-6815
▁Wichtig	-6816
lad	-6817
▁Les	-6818
▁College	-6819
haftet	-6820
▁Keller	-6821
▁demand	-6822
▁monster	-6823
▁Zusammen	-6824
eat	-6825
▁Erfahr	-6826
▁Händen	-6827
▁Tro	-6828
▁pock	-6829
▁hörst	-6830
▁Hälfte	-6831
▁22	-6832
▁abge	-6833
▁Schne	-6834
▁knife	-6835
▁Leichen	-6836
▁Hau	-6837
▁bow	-6838
fucker	-6839
▁illegal	-6840
▁Laut	-6841
▁Freude	-6842
▁sexy	-6843
▁Toten	-6844
▁Schwier	-6845
▁drinking	-6846
▁Einfach	-6847
▁leisten	-6848
▁sagtest	-6849
▁stories	-6850
▁verstecken	-6851
▁halb	-6852
▁lebe	-6853
▁Planeten	-6854
▁Tö	-6855
▁Bullen	-6856
gefunden	-6857
▁niemandem	-6858
▁zerstören	-6859
alker	-6860
6.	-6861
▁DE	-6862
▁barely	-6863
ID	-6864
▁besp	-6865
▁bekomme	-6866
▁unterst	-6867
▁weekend	-6868
IR	-6869
va	-6870
▁seh	-6871
▁Green	-6872
▁myster	-6873
▁DNA	-6874
▁develop	-6875
▁schnapp	-6876
äten	-6877
ration	-6878
▁arrested	-6879
ays	-6880
▁freue	-6881
▁Lö	-6882
serv	-6883
stest	-6884
ühren	-6885
▁Amen	-6886
▁sprach	-6887
▁definitely	-6888
▁Quiet	-6889
▁separ	-6890
▁Auftrag	-6891
platz	-6892
▁lhre	-6893
ameras	-6894
undert	-6895
▁Ehren	-6896
▁Kamera	-6897
▁engine	-6898
▁feiern	-6899
▁enttäus	-6900
▁Annie	-6901
▁trial	-6902
▁Sommer	-6903
▁schwanger	-6904
▁Verk	-6905
▁Taxi	-6906
▁wart	-6907
father	-6908
▁helping	-6909
▁1,	-6910
iper	-6911
▁lasst	-6912
▁Gewalt	-6913
▁Wahnsinn	-6914
▁Schwanz	-6915
▁murdered	-6916
▁irgendwann	-6917
▁bab	-6918
itive	-6919
▁Dumm	-6920
▁Ready	-6921
richten	-6922
ery	-6923
▁21	-6924
▁Beine	-6925
4.	-6926
▁corner	-6927
▁viol	-6928
▁Talk	-6929
▁feed	-6930
arlier	-6931
chem	-6932
ened	-6933
▁Bericht	-6934
anda	-6935
▁driver	-6936
▁schützen	-6937
je	-6938
hip	-6939
▁bottle	-6940
▁Gespräch	-6941
▁gleichen	-6942
▁ke	-6943
duce	-6944
▁skin	-6945
selben	-6946
▁Blumen	-6947
▁übernehmen	-6948
▁unver	-6949
▁Sollen	-6950
▁liebst	-6951
olt	-6952
mach	-6953
▁Pen	-6954
▁Win	-6955
▁spür	-6956
icate	-6957
▁Gruppe	-6958
▁Glückwunsch	-6959
avy	-6960
▁Anne	-6961
▁Eines	-6962
▁erschossen	-6963
zahl	-6964
▁Hoffentlich	-6965
lass	-6966
üllen	-6967
▁begin	-6968
▁uncle	-6969
▁vorne	-6970
▁arrived	-6971
▁Prinzess	-6972
▁eur	-6973
▁Maul	-6974
▁within	-6975
▁discover	-6976
LE	-6977
▁Hug	-6978
▁hilf	-6979
▁wash	-6980
▁investigation	-6981
▁zweite	-6982
▁Ta	-6983
aded	-6984
ased	-6985
▁hors	-6986
▁magst	-6987
▁teilen	-6988
▁gewusst	-6989
▁Vertrauen	-6990
lla	-6991
annten	-6992
▁Tomorrow	-6993
▁helfe	-6994
▁hinein	-6995
üre	-6996
▁Schuss	-6997
▁garden	-6998
▁shooting	-6999
zin	-7000
▁Sur	-7001
▁colle	-7002
born	-7003
▁purp	-7004
▁stehe	-7005
▁crying	-7006
▁schuldig	-7007
▁Frem	-7008
▁moon	-7009
mittag	-7010
stelle	-7011
▁Gemein	-7012
▁request	-7013
▁vacation	-7014
osion	-7015
▁Amerikan	-7016
▁gotten	-7017
isters	-7018
üchtig	-7019
▁agent	-7020
▁Erfolg	-7021
▁Wolf	-7022
▁Wood	-7023
▁Stefan	-7024
ruct	-7025
▁Zieh	-7026
immung	-7027
▁Wr	-7028
▁hun	-7029
▁verfl	-7030
volution	-7031
night	-7032
▁Beck	-7033
▁condition	-7034
acle	-7035
iegel	-7036
ologie	-7037
▁shows	-7038
▁Koffer	-7039
mes	-7040
▁weder	-7041
▁Ehrlich	-7042
▁Morning	-7043
▁Schlampe	-7044
8.	-7045
▁Würde	-7046
▁Yo	-7047
▁singen	-7048
▁unschuld	-7049
▁Tay	-7050
▁Wall	-7051
▁easier	-7052
▁entwick	-7053
▁Gelegenheit	-7054
▁hurts	-7055
▁Operation	-7056
van	-7057
▁ener	-7058
▁Always	-7059
▁Fucking	-7060
▁gegessen	-7061
ili	-7062
hres	-7063
▁taught	-7064
schlagen	-7065
▁Charlotte	-7066
▁Vogel	-7067
▁Adresse	-7068
▁medical	-7069
▁forgotten	-7070
rab	-7071
rehen	-7072
odies	-7073
▁gewinn	-7074
▁dachten	-7075
▁verhaftet	-7076
aben	-7077
▁Kur	-7078
▁gefangen	-7079
▁Beeil	-7080
▁military	-7081
▁Cole	-7082
▁Süße	-7083
▁opin	-7084
▁civil	-7085
jemand	-7086
▁papers	-7087
dom	-7088
▁lies	-7089
▁above	-7090
▁klapp	-7091
▁Perhaps	-7092
▁eingesch	-7093
▁certainly	-7094
▁überleben	-7095
▁Ins	-7096
lligen	-7097
▁sacri	-7098
▁Tanz	-7099
ero	-7100
▁hm	-7101
▁Greg	-7102
▁Rebe	-7103
▁Viele	-7104
▁ansch	-7105
▁claim	-7106
▁indem	-7107
zeichen	-7108
▁Sobald	-7109
schiff	-7110
ights	-7111
iell	-7112
▁emplo	-7113
▁repar	-7114
verstanden	-7115
ournal	-7116
▁Streit	-7117
zukommen	-7118
▁horrible	-7119
▁grab	-7120
▁color	-7121
▁leaves	-7122
ula	-7123
ähle	-7124
▁verschieden	-7125
▁Ron	-7126
▁rat	-7127
▁blöd	-7128
▁Especially	-7129
▁perhaps	-7130
▁emergency	-7131
▁ern	-7132
selbe	-7133
▁chair	-7134
▁Termin	-7135
▁öffnen	-7136
imate	-7137
reut	-7138
▁abzu	-7139
▁bullet	-7140
▁Frühstück	-7141
▁low	-7142
werden	-7143
nel	-7144
▁UN	-7145
▁Held	-7146
▁Klingt	-7147
▁gefahren	-7148
▁schwierig	-7149
▁Ange	-7150
▁wette	-7151
▁Zeugen	-7152
▁bisher	-7153
▁Berg	-7154
▁nirgend	-7155
▁Blöd	-7156
edy	-7157
▁cal	-7158
▁brill	-7159
▁bigger	-7160
▁beeindruck	-7161
val	-7162
▁Bat	-7163
▁gesam	-7164
▁Besitz	-7165
▁opportunity	-7166
▁Aug	-7167
▁Grö	-7168
▁Brit	-7169
▁None	-7170
▁irre	-7171
▁brave	-7172
▁Brüder	-7173
▁Letzte	-7174
▁letztes	-7175
▁writing	-7176
▁Wur	-7177
▁Paar	-7178
▁beach	-7179
▁shame	-7180
▁sacrif	-7181
9.	-7182
gnet	-7183
gaben	-7184
atural	-7185
▁Hätte	-7186
▁freund	-7187
▁Verstand	-7188
▁echte	-7189
▁Exper	-7190
▁Jones	-7191
itation	-7192
▁Ask	-7193
▁Mik	-7194
▁Easy	-7195
▁Szen	-7196
▁huge	-7197
jenige	-7198
▁Queen	-7199
▁realized	-7200
▁Schwierigkeiten	-7201
▁3.	-7202
▁assist	-7203
▁regret	-7204
▁Sicherheits	-7205
ügel	-7206
▁Santa	-7207
▁boyfriend	-7208
erty	-7209
teilt	-7210
▁roof	-7211
▁rechts	-7212
reen	-7213
▁Georg	-7214
▁common	-7215
arbeiten	-7216
▁unseres	-7217
▁Lex	-7218
▁Fire	-7219
▁Regen	-7220
OU	-7221
▁Fa	-7222
licht	-7223
▁Wach	-7224
▁Währ	-7225
▁defen	-7226
▁Morgan	-7227
▁Pretty	-7228
▁Privat	-7229
▁lovely	-7230
▁proper	-7231
▁Helen	-7232
anner	-7233
orted	-7234
▁Grab	-7235
▁incl	-7236
▁übel	-7237
▁putting	-7238
▁Cut	-7239
▁meat	-7240
▁const	-7241
▁waste	-7242
▁Patienten	-7243
riest	-7244
▁gehör	-7245
▁dressed	-7246
ades	-7247
▁raise	-7248
▁wohnt	-7249
▁Prinzessin	-7250
▁Mass	-7251
▁Polit	-7252
▁Patrick	-7253
▁drinnen	-7254
▁beginnen	-7255
▁verdienen	-7256
ym	-7257
▁Up	-7258
asten	-7259
▁suck	-7260
weisen	-7261
▁round	-7262
▁Wissenschaft	-7263
agon	-7264
agd	-7265
mitt	-7266
▁Lied	-7267
▁slept	-7268
▁whore	-7269
▁Unfortunately	-7270
▁Pers	-7271
▁grau	-7272
though	-7273
▁Michelle	-7274
usch	-7275
entin	-7276
▁invited	-7277
▁Gro	-7278
kohol	-7279
▁Loch	-7280
▁whether	-7281
▁falschen	-7282
▁scr	-7283
▁aufw	-7284
▁Inspector	-7285
ba	-7286
kam	-7287
▁Ihres	-7288
andid	-7289
▁passed	-7290
▁Brother	-7291
▁expens	-7292
▁losing	-7293
▁Gn	-7294
▁Setzen	-7295
▁kümmere	-7296
phy	-7297
▁tap	-7298
bung	-7299
ring	-7300
▁bauen	-7301
▁betrunken	-7302
▁Schätzchen	-7303
rich	-7304
▁Hor	-7305
▁farm	-7306
▁deter	-7307
beh	-7308
▁Wozu	-7309
▁Julia	-7310
▁Freunden	-7311
ils	-7312
▁tour	-7313
leiten	-7314
▁Obwohl	-7315
▁checked	-7316
▁geschlagen	-7317
▁earlier	-7318
▁Soph	-7319
▁hielt	-7320
▁market	-7321
▁attacked	-7322
▁Tob	-7323
itude	-7324
▁lächer	-7325
Sh	-7326
▁Ash	-7327
▁rot	-7328
▁beha	-7329
▁hängen	-7330
▁sees	-7331
bereit	-7332
▁danken	-7333
▁zufrieden	-7334
▁restaurant	-7335
üler	-7336
▁Betr	-7337
▁breath	-7338
▁jealous	-7339
▁Zahn	-7340
▁stellt	-7341
▁staying	-7342
ussy	-7343
▁loy	-7344
▁Josh	-7345
▁hängt	-7346
▁United	-7347
II	-7348
▁Jam	-7349
ization	-7350
▁Kennen	-7351
▁Würden	-7352
▁bestät	-7353
▁double	-7354
▁Hig	-7355
▁training	-7356
▁unterhalten	-7357
iest	-7358
▁Neues	-7359
▁Sport	-7360
▁Radio	-7361
▁Carlos	-7362
▁vol	-7363
▁Donn	-7364
▁Suche	-7365
▁Angebot	-7366
▁amer	-7367
▁department	-7368
▁erkennen	-7369
▁cousin	-7370
ela	-7371
ativ	-7372
gern	-7373
iety	-7374
▁dogs	-7375
▁picked	-7376
ral	-7377
▁Pick	-7378
▁bless	-7379
▁gewartet	-7380
▁incredible	-7381
mäß	-7382
izen	-7383
▁Old	-7384
ighter	-7385
ington	-7386
lungen	-7387
▁Labor	-7388
▁activ	-7389
▁davor	-7390
▁storm	-7391
bleiben	-7392
aper	-7393
ado	-7394
▁Ohren	-7395
iana	-7396
vert	-7397
▁Nic	-7398
▁Nor	-7399
asser	-7400
▁Witze	-7401
▁neuer	-7402
▁dauern	-7403
anna	-7404
mbol	-7405
▁eating	-7406
▁seemed	-7407
▁Richtige	-7408
▁besorgen	-7409
▁bi	-7410
altet	-7411
▁Anton	-7412
▁Nerven	-7413
▁cash	-7414
▁Krank	-7415
▁angeb	-7416
▁Bleiben	-7417
▁signal	-7418
▁dra	-7419
▁China	-7420
▁Unsinn	-7421
▁lon	-7422
▁ries	-7423
anders	-7424
▁becom	-7425
Das	-7426
arre	-7427
▁Winter	-7428
▁contract	-7429
▁Lieblings	-7430
▁Apparently	-7431
asons	-7432
▁cars	-7433
▁kannte	-7434
▁Bringen	-7435
▁Männern	-7436
▁verbringen	-7437
▁Andrew	-7438
▁extrem	-7439
CK	-7440
zeugt	-7441
▁Brown	-7442
▁Kolle	-7443
▁melden	-7444
ütter	-7445
▁Enter	-7446
▁figured	-7447
▁Joseph	-7448
▁prefer	-7449
▁eingeladen	-7450
gers	-7451
▁Jawohl	-7452
▁genannt	-7453
▁Interesse	-7454
duc	-7455
believ	-7456
▁react	-7457
▁trägt	-7458
▁Bereit	-7459
▁Maggie	-7460
An	-7461
wend	-7462
▁mill	-7463
▁Better	-7464
▁planning	-7465
▁verpasst	-7466
▁Göt	-7467
▁view	-7468
gelegt	-7469
▁Zeitung	-7470
▁Ohr	-7471
▁rief	-7472
aos	-7473
▁Dreh	-7474
haften	-7475
▁Marshall	-7476
ibr	-7477
gery	-7478
▁Huh	-7479
sucht	-7480
▁gibst	-7481
▁usual	-7482
▁mitnehmen	-7483
▁Hum	-7484
▁Kol	-7485
▁Pop	-7486
▁Wert	-7487
▁States	-7488
▁soldiers	-7489
▁exh	-7490
▁schlie	-7491
lauf	-7492
tens	-7493
▁stär	-7494
athy	-7495
▁Milit	-7496
▁aufre	-7497
▁zuvor	-7498
▁Führer	-7499
▁design	-7500
äul	-7501
ennst	-7502
▁Fernsehen	-7503
kwürd	-7504
▁Beth	-7505
▁Runter	-7506
▁nimmst	-7507
aub	-7508
isf	-7509
▁IN	-7510
ählen	-7511
▁flowers	-7512
äglich	-7513
▁charm	-7514
elte	-7515
▁Gord	-7516
▁Sund	-7517
▁chicken	-7518
▁geändert	-7519
▁Erinnerst	-7520
ande	-7521
▁chief	-7522
▁Unless	-7523
▁career	-7524
▁prepared	-7525
▁milk	-7526
▁teeth	-7527
▁werfen	-7528
▁approach	-7529
▁rule	-7530
▁Chinese	-7531
aks	-7532
▁Ow	-7533
iete	-7534
▁Während	-7535
▁entlang	-7536
lyn	-7537
▁Ly	-7538
▁Tats	-7539
▁spot	-7540
▁tight	-7541
izieren	-7542
▁Karten	-7543
▁final	-7544
▁Einsatz	-7545
▁Verantwortung	-7546
ris	-7547
▁Erste	-7548
believable	-7549
mel	-7550
▁23	-7551
arty	-7552
▁AL	-7553
eldet	-7554
▁Whoa	-7555
▁threw	-7556
▁charac	-7557
In	-7558
itty	-7559
zeigt	-7560
▁Flor	-7561
▁Wich	-7562
▁inner	-7563
▁Leider	-7564
▁robber	-7565
▁Deb	-7566
▁Bald	-7567
▁comb	-7568
setzen	-7569
unehmen	-7570
▁effect	-7571
▁interessant	-7572
ader	-7573
ruction	-7574
ounded	-7575
▁amazing	-7576
▁bewusst	-7577
illen	-7578
▁Stopp	-7579
▁euren	-7580
▁unless	-7581
▁beginnt	-7582
ähne	-7583
▁avo	-7584
▁iss	-7585
▁Meter	-7586
▁sight	-7587
▁assign	-7588
▁disgusting	-7589
▁Gun	-7590
▁Kreuz	-7591
▁bodies	-7592
▁energy	-7593
▁stolen	-7594
ala	-7595
▁Möchtest	-7596
▁amerikan	-7597
▁Daten	-7598
▁gay	-7599
ühe	-7600
▁neun	-7601
▁bleib	-7602
ständig	-7603
anny	-7604
▁Fab	-7605
▁Verstehst	-7606
▁nachgedacht	-7607
hör	-7608
▁Hunde	-7609
▁erfol	-7610
▁proof	-7611
▁Except	-7612
▁Wartet	-7613
▁fanden	-7614
▁obwohl	-7615
▁several	-7616
▁Caroline	-7617
schaften	-7618
üst	-7619
book	-7620
mail	-7621
▁spl	-7622
▁loud	-7623
▁Lieber	-7624
▁horses	-7625
▁pulled	-7626
tes	-7627
flug	-7628
▁Feld	-7629
▁fate	-7630
antage	-7631
▁zufällig	-7632
ji	-7633
▁Mod	-7634
▁gate	-7635
▁qual	-7636
▁Fahren	-7637
▁Howard	-7638
▁Wonder	-7639
▁According	-7640
alty	-7641
schung	-7642
▁Madam	-7643
▁famous	-7644
▁jungen	-7645
▁shower	-7646
minister	-7647
▁brechen	-7648
ockt	-7649
▁dum	-7650
▁sour	-7651
gezogen	-7652
▁Lehrer	-7653
chan	-7654
▁Alkohol	-7655
▁beenden	-7656
▁opinion	-7657
▁downstairs	-7658
oking	-7659
ährst	-7660
▁Chloe	-7661
▁deren	-7662
▁serve	-7663
▁Haufen	-7664
ints	-7665
▁gere	-7666
▁legal	-7667
▁Terror	-7668
▁clever	-7669
oved	-7670
▁Spec	-7671
▁Beruf	-7672
▁action	-7673
▁fought	-7674
▁connection	-7675
▁Frag	-7676
▁tort	-7677
▁Julie	-7678
▁keeps	-7679
▁bekommst	-7680
▁Hem	-7681
▁Mum	-7682
anwalt	-7683
▁bleed	-7684
▁Believe	-7685
▁45	-7686
▁ju	-7687
▁upon	-7688
kehren	-7689
▁smile	-7690
▁Schild	-7691
▁Leonard	-7692
▁subject	-7693
▁lhr	-7694
▁Expl	-7695
▁Prof	-7696
▁Sara	-7697
▁dump	-7698
▁ordered	-7699
▁Apr	-7700
ledge	-7701
▁followed	-7702
▁Unterschied	-7703
the	-7704
▁Cop	-7705
estern	-7706
▁Quick	-7707
▁Bilder	-7708
▁Garten	-7709
▁spreche	-7710
▁Linda	-7711
▁Carrie	-7712
▁dessen	-7713
▁Neuigkeiten	-7714
▁CH	-7715
▁Vö	-7716
mother	-7717
▁Karen	-7718
▁woher	-7719
umst	-7720
prise	-7721
▁anzu	-7722
▁Griff	-7723
▁Bücher	-7724
zo	-7725
oti	-7726
▁enc	-7727
losen	-7728
▁Tiere	-7729
▁Prince	-7730
izier	-7731
▁Urlaub	-7732
▁gleiche	-7733
▁student	-7734
▁Zeitpunkt	-7735
▁Rod	-7736
klärung	-7737
▁Schwert	-7738
▁ungefähr	-7739
▁mitgebracht	-7740
elen	-7741
▁Date	-7742
▁schätzen	-7743
▁ner	-7744
antas	-7745
▁Braut	-7746
▁Video	-7747
▁tells	-7748
▁whose	-7749
▁Cheers	-7750
▁Kommst	-7751
▁hanging	-7752
▁appointment	-7753
▁Box	-7754
▁games	-7755
▁gebaut	-7756
▁Medizin	-7757
▁especially	-7758
ety	-7759
▁fühlst	-7760
▁powerful	-7761
▁hallo	-7762
▁Buff	-7763
▁alarm	-7764
▁Tess	-7765
▁besteht	-7766
▁willkommen	-7767
äck	-7768
▁Sagt	-7769
ession	-7770
▁Trink	-7771
▁Careful	-7772
▁Könnten	-7773
▁kümmert	-7774
▁Eth	-7775
▁ruft	-7776
▁Meinen	-7777
▁Zuerst	-7778
▁strang	-7779
ila	-7780
▁Han	-7781
ingend	-7782
▁Ellen	-7783
▁Trust	-7784
▁Christian	-7785
ros	-7786
▁Brand	-7787
▁acting	-7788
▁Schlimm	-7789
▁Ecke	-7790
▁speed	-7791
gly	-7792
aring	-7793
▁berüh	-7794
bage	-7795
alter	-7796
▁Down	-7797
aktion	-7798
▁Blue	-7799
▁Knast	-7800
▁Strand	-7801
▁Wilson	-7802
▁schläft	-7803
▁Poor	-7804
ressed	-7805
▁stars	-7806
▁falsche	-7807
▁ren	-7808
▁purpose	-7809
▁reading	-7810
▁wei	-7811
▁Holt	-7812
▁Kämp	-7813
▁tape	-7814
▁shock	-7815
▁bridge	-7816
▁Bor	-7817
▁größte	-7818
kin	-7819
▁Li	-7820
ateful	-7821
▁Klaus	-7822
▁percent	-7823
na	-7824
▁Cat	-7825
▁inde	-7826
▁settle	-7827
▁belongs	-7828
ctors	-7829
gewalt	-7830
▁Untersuch	-7831
urance	-7832
▁Fluss	-7833
▁stelle	-7834
aser	-7835
▁Bib	-7836
ended	-7837
▁rauf	-7838
▁river	-7839
▁Kennst	-7840
▁kostet	-7841
AD	-7842
zing	-7843
▁unc	-7844
flich	-7845
tritt	-7846
▁Hans	-7847
▁ears	-7848
▁exec	-7849
▁Gutes	-7850
▁Quatsch	-7851
äst	-7852
▁adm	-7853
▁boring	-7854
amt	-7855
bon	-7856
adow	-7857
▁Steuer	-7858
can	-7859
ägst	-7860
▁Alf	-7861
▁Penny	-7862
▁Roman	-7863
▁Tyler	-7864
▁erinnert	-7865
nam	-7866
eman	-7867
imal	-7868
▁gep	-7869
▁port	-7870
▁April	-7871
▁Polizist	-7872
▁Toil	-7873
▁dude	-7874
▁soft	-7875
werfen	-7876
ändern	-7877
▁Lat	-7878
▁Pause	-7879
▁client	-7880
▁ähm	-7881
reht	-7882
griffen	-7883
▁queen	-7884
▁Hay	-7885
▁Cont	-7886
▁Produ	-7887
zwischen	-7888
▁vo	-7889
iano	-7890
▁keys	-7891
dienst	-7892
▁Babys	-7893
▁Kugel	-7894
▁Taylor	-7895
▁trifft	-7896
▁Hintern	-7897
▁believed	-7898
laut	-7899
▁tax	-7900
▁walked	-7901
wers	-7902
▁Jacob	-7903
▁gestellt	-7904
UT	-7905
▁Cy	-7906
▁Nad	-7907
▁Aunt	-7908
▁Again	-7909
▁compet	-7910
▁complain	-7911
inke	-7912
▁Tal	-7913
▁erz	-7914
isieren	-7915
▁burned	-7916
▁angetan	-7917
ckte	-7918
▁seien	-7919
▁nature	-7920
▁Theater	-7921
▁fantastic	-7922
▁Rud	-7923
▁Sean	-7924
▁capt	-7925
▁note	-7926
▁finds	-7927
▁verrück	-7928
▁Superman	-7929
ental	-7930
▁sweetie	-7931
fung	-7932
reden	-7933
▁plant	-7934
▁turns	-7935
▁commun	-7936
igarette	-7937
▁Senator	-7938
AG	-7939
eide	-7940
▁dry	-7941
asion	-7942
▁Holz	-7943
▁ways	-7944
sache	-7945
▁Legen	-7946
▁Milch	-7947
▁stage	-7948
▁spread	-7949
▁Mitglie	-7950
älte	-7951
light	-7952
▁heil	-7953
▁study	-7954
zusehen	-7955
▁lachen	-7956
▁Flasche	-7957
▁escaped	-7958
▁Restaurant	-7959
nem	-7960
▁Tour	-7961
▁Hörst	-7962
▁Kunden	-7963
▁Presse	-7964
▁keinem	-7965
,000.	-7966
▁Geschw	-7967
ehme	-7968
ipul	-7969
ähig	-7970
▁Waren	-7971
▁Sweet	-7972
▁grat	-7973
▁process	-7974
▁practice	-7975
▁wovon	-7976
▁fragte	-7977
▁introduce	-7978
oles	-7979
▁Vern	-7980
leichen	-7981
▁aufpassen	-7982
▁80	-7983
▁Jay	-7984
▁Song	-7985
▁ihres	-7986
▁Beweis	-7987
▁Mannes	-7988
▁agreed	-7989
▁schlau	-7990
iti	-7991
▁France	-7992
imb	-7993
mine	-7994
▁Cas	-7995
▁infl	-7996
▁uner	-7997
▁angesch	-7998
▁excited	-7999
▁schließen	-8000
▁criminal	-8001
bling	-8002
▁Beim	-8003
▁Strom	-8004
▁offensichtlich	-8005
mack	-8006
öhnt	-8007
fahrt	-8008
▁Dude	-8009
▁Erfahrung	-8010
Cause	-8011
▁Hang	-8012
▁Pist	-8013
▁Vince	-8014
äte	-8015
board	-8016
▁held	-8017
"!	-8018
▁arg	-8019
▁tro	-8020
uchte	-8021
recher	-8022
▁level	-8023
steigen	-8024
▁celebrate	-8025
▁Bay	-8026
ampion	-8027
▁dauer	-8028
▁langu	-8029
down	-8030
verl	-8031
▁Ham	-8032
▁Law	-8033
ressen	-8034
▁Night	-8035
▁Versp	-8036
▁cards	-8037
▁correct	-8038
▁dankbar	-8039
lan	-8040
ñor	-8041
▁leader	-8042
▁funeral	-8043
bei	-8044
ground	-8045
▁failed	-8046
▁written	-8047
äsent	-8048
▁Eben	-8049
▁ignor	-8050
▁punish	-8051
kten	-8052
ompl	-8053
▁Terry	-8054
▁Verein	-8055
▁object	-8056
▁erklärt	-8057
▁freedom	-8058
▁Schmerzen	-8059
▁Nachmittag	-8060
▁2:	-8061
▁traf	-8062
iction	-8063
schrift	-8064
▁scheiße	-8065
▁Lieb	-8066
▁heut	-8067
ication	-8068
▁Pferde	-8069
▁numbers	-8070
▁vermutlich	-8071
▁Gäste	-8072
▁Friday	-8073
▁Lösung	-8074
▁convinc	-8075
▁exciting	-8076
▁au	-8077
öpfe	-8078
▁Verf	-8079
▁mitten	-8080
esh	-8081
▁1:	-8082
▁Wunsch	-8083
▁abandon	-8084
▁Oma	-8085
▁crash	-8086
▁welcher	-8087
▁Mädels	-8088
▁ash	-8089
▁Knochen	-8090
▁Forg	-8091
scheinend	-8092
fers	-8093
utig	-8094
▁leer	-8095
opping	-8096
▁Damon	-8097
▁Mitch	-8098
▁Thema	-8099
ION	-8100
▁leiden	-8101
zustellen	-8102
▁gehalten	-8103
ckst	-8104
swer	-8105
▁Nut	-8106
▁afford	-8107
esome	-8108
▁Under	-8109
elst	-8110
ulen	-8111
▁Brun	-8112
▁Kuchen	-8113
▁garbage	-8114
▁Zwischen	-8115
▁Ern	-8116
▁places	-8117
IM	-8118
mans	-8119
omat	-8120
▁seht	-8121
ements	-8122
▁damage	-8123
zubringen	-8124
▁hi	-8125
▁hyp	-8126
▁brings	-8127
▁transport	-8128
▁Texas	-8129
ampagne	-8130
▁matters	-8131
▁received	-8132
asing	-8133
▁drehen	-8134
▁confused	-8135
▁versteht	-8136
▁Hy	-8137
▁Wid	-8138
▁Brücke	-8139
▁Bullshit	-8140
▁operation	-8141
▁eigenes	-8142
ointed	-8143
▁freuen	-8144
▁obviously	-8145
▁Rot	-8146
▁Tar	-8147
ato	-8148
▁Lyn	-8149
▁guests	-8150
▁funktionieren	-8151
▁pool	-8152
▁Bere	-8153
▁wa	-8154
▁Fore	-8155
▁Play	-8156
▁Wayne	-8157
▁Möchten	-8158
▁Verdamm	-8159
ples	-8160
▁doc	-8161
▁heavy	-8162
▁soldier	-8163
▁bege	-8164
▁fahr	-8165
▁among	-8166
▁wicht	-8167
leg	-8168
kins	-8169
▁Gas	-8170
▁Sollte	-8171
ival	-8172
orp	-8173
▁Clay	-8174
▁setzt	-8175
▁assume	-8176
UNG	-8177
▁Gern	-8178
▁loss	-8179
▁geplant	-8180
▁surgery	-8181
▁Rache	-8182
▁avoid	-8183
ression	-8184
▁bewegt	-8185
▁Understood	-8186
aka	-8187
cca	-8188
▁Verr	-8189
▁snow	-8190
wechsel	-8191
▁Stellen	-8192
▁Soon	-8193
▁Brust	-8194
AND	-8195
urst	-8196
▁sen	-8197
▁unw	-8198
▁reink	-8199
▁general	-8200
▁getrunken	-8201
bahn	-8202
▁Hope	-8203
▁Hose	-8204
asting	-8205
▁schöner	-8206
▁geschlossen	-8207
ura	-8208
▁Aud	-8209
▁Kid	-8210
▁lic	-8211
reibe	-8212
▁sahen	-8213
gelassen	-8214
▁behandelt	-8215
▁erwachsen	-8216
üch	-8217
▁Kapit	-8218
▁Sogar	-8219
▁Trans	-8220
▁Werden	-8221
▁pocket	-8222
▁erreicht	-8223
▁Seven	-8224
▁elder	-8225
▁revenge	-8226
kung	-8227
▁hasst	-8228
▁90	-8229
▁brut	-8230
▁reag	-8231
▁konzentr	-8232
osis	-8233
▁tall	-8234
▁Beruh	-8235
▁Vertrag	-8236
inct	-8237
ahres	-8238
▁bite	-8239
▁Gener	-8240
▁older	-8241
▁Risiko	-8242
▁itself	-8243
▁Steph	-8244
▁Marcus	-8245
▁satisf	-8246
▁sooner	-8247
ags	-8248
ikel	-8249
▁fan	-8250
▁Life	-8251
▁teil	-8252
▁screwed	-8253
▁konntest	-8254
case	-8255
▁Flucht	-8256
▁Absicht	-8257
▁Catherine	-8258
bid	-8259
▁Wa	-8260
gent	-8261
▁Div	-8262
▁Meet	-8263
▁lately	-8264
▁locker	-8265
▁Maschine	-8266
omach	-8267
▁Cent	-8268
ierend	-8269
▁balls	-8270
▁naked	-8271
ilities	-8272
▁paying	-8273
gegangen	-8274
▁verteid	-8275
▁carefully	-8276
▁beschissen	-8277
▁Earl	-8278
führung	-8279
▁drüber	-8280
▁gelaufen	-8281
We	-8282
▁Mun	-8283
▁Wol	-8284
attoo	-8285
▁Freit	-8286
▁Molly	-8287
▁ideas	-8288
▁noise	-8289
▁Europe	-8290
▁Kriegs	-8291
▁Steven	-8292
▁entkommen	-8293
vior	-8294
▁Wend	-8295
▁vorhin	-8296
ächtigen	-8297
▁nonsense	-8298
ippe	-8299
▁jew	-8300
▁hous	-8301
▁Wisst	-8302
▁cares	-8303
▁gemeint	-8304
▁Programm	-8305
oman	-8306
karte	-8307
▁hunt	-8308
▁large	-8309
▁powers	-8310
▁priest	-8311
äsche	-8312
▁flying	-8313
▁Fernseh	-8314
▁Verteid	-8315
▁zumindest	-8316
▁lächerlich	-8317
▁Jerem	-8318
sequen	-8319
▁fragt	-8320
▁Eind	-8321
ential	-8322
▁Gordon	-8323
▁beauty	-8324
▁mitkommen	-8325
ENT	-8326
▁rei	-8327
▁Kyle	-8328
▁respekt	-8329
▁ö	-8330
fig	-8331
ograf	-8332
▁Bert	-8333
▁Werk	-8334
isation	-8335
▁appear	-8336
▁gezeigt	-8337
eph	-8338
heben	-8339
▁Verste	-8340
▁expected	-8341
ears	-8342
▁hon	-8343
uchten	-8344
▁alien	-8345
▁Bringt	-8346
▁somehow	-8347
▁Jedenfalls	-8348
Der	-8349
ray	-8350
▁Gil	-8351
asure	-8352
▁Buck	-8353
▁fiel	-8354
▁vert	-8355
▁reasons	-8356
▁oil	-8357
chnet	-8358
▁gilt	-8359
▁sail	-8360
▁weht	-8361
agement	-8362
▁negoti	-8363
▁property	-8364
annie	-8365
cohol	-8366
▁mask	-8367
feuert	-8368
olence	-8369
▁major	-8370
▁Karriere	-8371
▁Mid	-8372
▁Gray	-8373
▁bunch	-8374
▁relig	-8375
▁fem	-8376
fluss	-8377
▁Jugend	-8378
▁Manche	-8379
▁bringst	-8380
anst	-8381
▁Fäh	-8382
▁Kompl	-8383
▁Edward	-8384
emon	-8385
sell	-8386
▁lay	-8387
▁whis	-8388
▁demon	-8389
aturday	-8390
▁Russian	-8391
▁advantage	-8392
pping	-8393
▁Follow	-8394
▁health	-8395
▁breathe	-8396
▁Geschäfts	-8397
ädchen	-8398
▁soweit	-8399
▁brauchte	-8400
▁entdeckt	-8401
ih	-8402
bles	-8403
rifft	-8404
▁Eing	-8405
▁Fast	-8406
▁Mister	-8407
▁nachts	-8408
▁Bauch	-8409
▁sowas	-8410
▁Niemals	-8411
▁diesmal	-8412
▁manipul	-8413
olo	-8414
adem	-8415
▁Lüg	-8416
▁dise	-8417
▁stür	-8418
▁begann	-8419
▁zweiten	-8420
▁complicated	-8421
▁foc	-8422
feren	-8423
▁Kurz	-8424
▁speech	-8425
▁Weihnachts	-8426
▁Falle	-8427
ca	-8428
▁ate	-8429
▁forest	-8430
▁Schüler	-8431
ublik	-8432
▁Sack	-8433
▁Temp	-8434
▁einsch	-8435
▁fassen	-8436
▁Zustand	-8437
▁jedenfalls	-8438
ners	-8439
illed	-8440
▁Mand	-8441
▁Reihe	-8442
▁Bonnie	-8443
istan	-8444
▁Wirst	-8445
▁repres	-8446
▁Andre	-8447
▁älter	-8448
arp	-8449
ror	-8450
▁OF	-8451
ieben	-8452
▁Idioten	-8453
▁created	-8454
▁due	-8455
äulein	-8456
▁suicide	-8457
▁Saturday	-8458
▁interrupt	-8459
▁Department	-8460
▁Karl	-8461
▁Pack	-8462
▁World	-8463
volle	-8464
▁Jord	-8465
▁klug	-8466
▁Bruce	-8467
▁Pläne	-8468
zufinden	-8469
▁Pflicht	-8470
Er	-8471
▁Gary	-8472
▁Todd	-8473
nch	-8474
▁Thor	-8475
▁explod	-8476
ehmt	-8477
resp	-8478
▁ours	-8479
▁Medik	-8480
▁Seren	-8481
▁lügen	-8482
haltung	-8483
▁Vampir	-8484
▁keeping	-8485
▁goodness	-8486
▁Irgendwas	-8487
▁Bürgermeister	-8488
It	-8489
eiz	-8490
▁Shh	-8491
▁erfolg	-8492
▁Jessica	-8493
▁Johnson	-8494
▁wahnsinn	-8495
onds	-8496
dlich	-8497
▁chem	-8498
▁Either	-8499
▁stören	-8500
▁dropped	-8501
oute	-8502
▁pil	-8503
▁Seien	-8504
▁Barbar	-8505
▁Würdest	-8506
▁Geschichten	-8507
arzt	-8508
ffer	-8509
welt	-8510
▁Mount	-8511
▁Solange	-8512
▁dringend	-8513
▁ei	-8514
▁Kong	-8515
▁ugly	-8516
ütte	-8517
utung	-8518
▁Guck	-8519
▁Runde	-8520
▁lights	-8521
etr	-8522
plan	-8523
▁sau	-8524
▁sky	-8525
▁wet	-8526
▁beant	-8527
▁krieg	-8528
▁responsibility	-8529
▁resist	-8530
▁happiness	-8531
▁PR	-8532
▁pal	-8533
▁Füße	-8534
▁Mami	-8535
▁desp	-8536
▁heal	-8537
▁infe	-8538
▁Grant	-8539
▁files	-8540
▁Tonight	-8541
▁reichen	-8542
▁Understand	-8543
win	-8544
▁pein	-8545
▁type	-8546
▁Organ	-8547
bey	-8548
▁Sub	-8549
▁Alarm	-8550
▁impro	-8551
▁verzei	-8552
▁handsome	-8553
▁Hollywood	-8554
alte	-8555
vious	-8556
▁jagen	-8557
▁zeige	-8558
▁cheese	-8559
äufer	-8560
▁Willie	-8561
▁längst	-8562
▁justice	-8563
▁Geschäfte	-8564
▁san	-8565
▁Stri	-8566
▁Island	-8567
▁Zufall	-8568
▁gingen	-8569
▁lonely	-8570
▁Schauen	-8571
▁expensive	-8572
iro	-8573
▁Nord	-8574
▁Einige	-8575
▁Killer	-8576
▁professional	-8577
isy	-8578
allt	-8579
mo	-8580
▁Bombe	-8581
▁abgel	-8582
▁annoy	-8583
▁Frankie	-8584
▁Cour	-8585
▁Fried	-8586
▁Atlant	-8587
▁saving	-8588
▁princess	-8589
este	-8590
▁Card	-8591
üm	-8592
▁Ca	-8593
▁Klo	-8594
icans	-8595
▁shirt	-8596
▁Forgive	-8597
oß	-8598
gott	-8599
▁Rub	-8600
asket	-8601
weigen	-8602
▁Glaub	-8603
ram	-8604
macht	-8605
▁Benn	-8606
▁Wesen	-8607
▁halbe	-8608
▁Francisco	-8609
rief	-8610
sein	-8611
▁Funk	-8612
▁Hill	-8613
▁Sieg	-8614
▁exam	-8615
orie	-8616
▁Träume	-8617
▁Gefällt	-8618
▁Großvater	-8619
▁Verschwinde	-8620
▁Although	-8621
onne	-8622
▁Wat	-8623
▁Jahrh	-8624
▁stomach	-8625
clock	-8626
▁center	-8627
▁geheim	-8628
Th	-8629
▁opt	-8630
alley	-8631
mögen	-8632
▁deut	-8633
▁Kräfte	-8634
▁Seiten	-8635
▁Amerikaner	-8636
opt	-8637
cing	-8638
ores	-8639
▁201	-8640
▁Brook	-8641
▁expert	-8642
▁größer	-8643
▁selten	-8644
▁Angeles	-8645
▁discovered	-8646
bled	-8647
dings	-8648
▁credit	-8649
▁Fräulein	-8650
uchs	-8651
gegen	-8652
hafen	-8653
ichert	-8654
▁Papier	-8655
▁Endlich	-8656
▁Schwach	-8657
▁Fig	-8658
eidet	-8659
tempt	-8660
▁verar	-8661
▁wahre	-8662
▁dorthin	-8663
▁crap	-8664
▁drove	-8665
▁paint	-8666
zugehen	-8667
▁pieces	-8668
▁Wichser	-8669
▁Schatten	-8670
▁breaking	-8671
▁gentleman	-8672
ppt	-8673
ahle	-8674
seit	-8675
▁Sid	-8676
▁hervor	-8677
▁vollkommen	-8678
500	-8679
▁Ew	-8680
▁Vis	-8681
▁sne	-8682
perrt	-8683
▁Schlacht	-8684
EM	-8685
issa	-8686
eißen	-8687
ued	-8688
rent	-8689
▁Meth	-8690
▁starts	-8691
▁Aufmerk	-8692
kont	-8693
▁Afr	-8694
agger	-8695
▁Stat	-8696
▁Nancy	-8697
aughing	-8698
▁Sunday	-8699
ottel	-8700
▁absch	-8701
▁giant	-8702
▁Valent	-8703
▁aufgew	-8704
▁Mistkerl	-8705
▁geschossen	-8706
rant	-8707
▁Close	-8708
▁Direktor	-8709
ales	-8710
▁Autos	-8711
▁Stark	-8712
▁grave	-8713
▁dancing	-8714
▁Oliv	-8715
▁Wofür	-8716
▁create	-8717
▁schwach	-8718
▁Verstehe	-8719
▁Besonderes	-8720
▁Polizisten	-8721
far	-8722
▁bein	-8723
▁offiz	-8724
ski	-8725
▁Code	-8726
▁boot	-8727
▁Militär	-8728
▁wünschen	-8729
same	-8730
▁Veg	-8731
▁net	-8732
hness	-8733
▁borrow	-8734
▁geschieht	-8735
▁pink	-8736
▁tele	-8737
▁tötet	-8738
▁Schloss	-8739
▁manager	-8740
▁schönes	-8741
▁Ast	-8742
abend	-8743
▁fein	-8744
▁Honor	-8745
▁letting	-8746
▁victims	-8747
▁irgendwelche	-8748
▁desk	-8749
▁heat	-8750
▁Aufmerksamkeit	-8751
urf	-8752
▁Hof	-8753
▁Penn	-8754
▁planned	-8755
▁nächstes	-8756
ült	-8757
...!	-8758
▁Hom	-8759
▁joy	-8760
▁toil	-8761
▁Farbe	-8762
▁Shoot	-8763
▁Stich	-8764
kan	-8765
▁Süd	-8766
▁cult	-8767
▁Teddy	-8768
offt	-8769
yond	-8770
▁Jen	-8771
▁north	-8772
▁Barney	-8773
▁Gestern	-8774
▁bessere	-8775
eds	-8776
▁Haw	-8777
ourney	-8778
▁Schok	-8779
▁freut	-8780
▁Freitag	-8781
▁mountain	-8782
kle	-8783
teen	-8784
unkte	-8785
▁Abst	-8786
▁Stre	-8787
▁Honest	-8788
▁scient	-8789
▁insurance	-8790
pton	-8791
arson	-8792
▁includ	-8793
▁transfer	-8794
▁Fur	-8795
stadt	-8796
▁Katze	-8797
▁August	-8798
▁nirgendwo	-8799
▁Darauf	-8800
▁solchen	-8801
▁auftau	-8802
▁Notfall	-8803
▁versuchte	-8804
▁besprechen	-8805
▁Läch	-8806
▁Verw	-8807
▁erwähnt	-8808
▁turning	-8809
Le	-8810
rän	-8811
▁Tem	-8812
▁Danach	-8813
▁opened	-8814
▁Jeannie	-8815
▁challen	-8816
▁hy	-8817
elia	-8818
▁Kurs	-8819
▁mail	-8820
▁While	-8821
▁model	-8822
▁wider	-8823
▁erzählte	-8824
umpf	-8825
ained	-8826
▁ends	-8827
▁Scherz	-8828
▁buried	-8829
▁social	-8830
▁therap	-8831
▁fingers	-8832
▁Const	-8833
▁pills	-8834
▁Ermitt	-8835
icherung	-8836
bew	-8837
oben	-8838
▁Gift	-8839
▁erster	-8840
ads	-8841
aki	-8842
aham	-8843
wart	-8844
▁Case	-8845
▁Knie	-8846
▁Mexico	-8847
aced	-8848
▁Hob	-8849
▁partic	-8850
▁weiteren	-8851
ui	-8852
▁Lane	-8853
▁border	-8854
▁glasses	-8855
▁entlassen	-8856
mos	-8857
▁Prot	-8858
▁Verlob	-8859
▁verurs	-8860
▁telefon	-8861
rif	-8862
▁Hot	-8863
▁Sitz	-8864
pol	-8865
mare	-8866
▁erh	-8867
▁Steh	-8868
▁Vegas	-8869
▁interf	-8870
▁bemerkt	-8871
▁natural	-8872
▁aufgeben	-8873
▁laughing	-8874
▁Wär	-8875
▁pill	-8876
▁role	-8877
▁Meilen	-8878
▁records	-8879
assung	-8880
▁Junior	-8881
aud	-8882
brau	-8883
herr	-8884
ietet	-8885
▁Nett	-8886
▁Ident	-8887
▁freak	-8888
▁grown	-8889
▁murderer	-8890
▁Nel	-8891
▁voraus	-8892
▁merkwürd	-8893
▁students	-8894
▁rub	-8895
▁Kent	-8896
▁Piper	-8897
▁Story	-8898
▁badly	-8899
▁Sonntag	-8900
▁Kop	-8901
▁Sep	-8902
▁Matthew	-8903
▁erschein	-8904
▁grateful	-8905
▁angegriffen	-8906
reib	-8907
▁deg	-8908
zeuge	-8909
▁Häus	-8910
▁häss	-8911
▁isst	-8912
▁Station	-8913
ees	-8914
äbe	-8915
▁Coll	-8916
▁River	-8917
▁waited	-8918
▁Erinnerungen	-8919
Sie	-8920
hang	-8921
▁Aff	-8922
▁Ganze	-8923
▁photo	-8924
ocolate	-8925
▁Unterst	-8926
▁welchem	-8927
▁überlegen	-8928
▁erschießen	-8929
▁Linc	-8930
▁Szene	-8931
▁genius	-8932
▁einigen	-8933
▁Frankreich	-8934
▁Hart	-8935
▁Light	-8936
▁punch	-8937
bekommen	-8938
eday	-8939
okes	-8940
ading	-8941
box	-8942
▁av	-8943
▁Sow	-8944
▁Bede	-8945
▁pure	-8946
▁Som	-8947
itäten	-8948
▁wheel	-8949
▁woods	-8950
▁Nachdem	-8951
▁perfectly	-8952
▁überzeugt	-8953
OD	-8954
▁vi	-8955
andal	-8956
▁Things	-8957
▁divorce	-8958
▁bringing	-8959
▁geheiratet	-8960
änen	-8961
▁Arn	-8962
▁Muld	-8963
nungen	-8964
▁Blair	-8965
▁lautet	-8966
▁Exactly	-8967
▁verfolgt	-8968
▁Großmutter	-8969
▁Flie	-8970
▁Kuss	-8971
▁lern	-8972
▁forced	-8973
▁schafft	-8974
AY	-8975
▁wes	-8976
▁Almost	-8977
▁schief	-8978
▁gelogen	-8979
▁basement	-8980
pre	-8981
ening	-8982
▁Same	-8983
itions	-8984
▁cases	-8985
▁kling	-8986
▁Willen	-8987
▁talent	-8988
logen	-8989
▁Army	-8990
▁fängt	-8991
▁Harold	-8992
▁bottom	-8993
▁weather	-8994
▁wahnsinnig	-8995
▁Ep	-8996
iene	-8997
pher	-8998
ering	-8999
ieber	-9000
▁thro	-9001
▁trap	-9002
▁verur	-9003
ropri	-9004
▁text	-9005
▁hired	-9006
OW	-9007
let	-9008
enkt	-9009
▁Int	-9010
▁obs	-9011
▁Hass	-9012
▁cancer	-9013
▁hardly	-9014
▁courage	-9015
icy	-9016
rien	-9017
▁entführt	-9018
▁Hühn	-9019
▁Wake	-9020
▁fake	-9021
▁grade	-9022
▁spoke	-9023
▁Fertig	-9024
He	-9025
cue	-9026
▁Finn	-9027
▁Lucy	-9028
▁strike	-9029
▁character	-9030
▁Unbelievable	-9031
ugs	-9032
▁aufz	-9033
▁würd	-9034
üsst	-9035
▁hieß	-9036
▁Projekt	-9037
▁einzigen	-9038
▁verlangt	-9039
▁Erinnerung	-9040
▁Clau	-9041
▁Work	-9042
▁somet	-9043
▁Cooper	-9044
▁ruined	-9045
▁language	-9046
dd	-9047
omy	-9048
gert	-9049
zent	-9050
▁Lew	-9051
▁Math	-9052
▁Sally	-9053
▁announ	-9054
▁einiges	-9055
ua	-9056
istic	-9057
ashion	-9058
lauben	-9059
▁brief	-9060
▁geblieben	-9061
▁otherwise	-9062
▁Ali	-9063
teile	-9064
▁Rett	-9065
etzten	-9066
▁meaning	-9067
▁schlechter	-9068
▁Monica	-9069
▁enemies	-9070
▁healthy	-9071
▁identif	-9072
uts	-9073
acke	-9074
▁Bow	-9075
▁boo	-9076
▁Both	-9077
▁lord	-9078
▁Fahrt	-9079
▁überprüfen	-9080
ux	-9081
▁Sab	-9082
aucht	-9083
▁Crew	-9084
laubnis	-9085
▁jacket	-9086
▁airport	-9087
▁secrets	-9088
▁vorbereitet	-9089
▁Lim	-9090
▁Bahn	-9091
▁Viet	-9092
▁Whit	-9093
▁shape	-9094
▁Normal	-9095
▁Bastard	-9096
▁license	-9097
▁199	-9098
sende	-9099
▁aware	-9100
▁abholen	-9101
▁miracle	-9102
▁schaffst	-9103
ül	-9104
▁mix	-9105
▁west	-9106
▁journey	-9107
▁letters	-9108
▁Versuchen	-9109
Boy	-9110
ingo	-9111
▁ban	-9112
nappt	-9113
seite	-9114
▁erlaubt	-9115
las	-9116
▁Hä	-9117
alys	-9118
iami	-9119
▁glo	-9120
▁geschah	-9121
▁Fran	-9122
▁Leit	-9123
▁Nate	-9124
▁amüs	-9125
▁rent	-9126
▁Miller	-9127
▁Serena	-9128
▁meters	-9129
▁Interess	-9130
▁sprichst	-9131
aufe	-9132
setzt	-9133
▁firm	-9134
▁awake	-9135
▁creep	-9136
▁releas	-9137
▁stayed	-9138
Wir	-9139
irr	-9140
▁Rech	-9141
▁stone	-9142
▁wirkt	-9143
▁caused	-9144
▁answers	-9145
▁USA	-9146
▁Stär	-9147
schnitt	-9148
▁weight	-9149
▁National	-9150
▁geglaubt	-9151
▁Verhalten	-9152
▁hinterlassen	-9153
oria	-9154
▁Lor	-9155
▁invite	-9156
▁Special	-9157
▁Schweine	-9158
▁knowledge	-9159
alle	-9160
▁Princ	-9161
▁trade	-9162
▁Schönheit	-9163
weif	-9164
▁Sun	-9165
sence	-9166
▁Donna	-9167
▁Security	-9168
Man	-9169
▁Ac	-9170
▁Abby	-9171
▁Diam	-9172
▁tong	-9173
▁Davon	-9174
anzt	-9175
komme	-9176
▁local	-9177
▁Hitler	-9178
▁stehst	-9179
▁circumst	-9180
gas	-9181
▁70	-9182
oster	-9183
▁rück	-9184
▁Lügner	-9185
▁treten	-9186
▁umgehen	-9187
ichts	-9188
▁chest	-9189
▁Kommun	-9190
▁solution	-9191
▁Vi	-9192
atives	-9193
▁langer	-9194
▁Welcher	-9195
▁verhindern	-9196
▁release	-9197
cul	-9198
using	-9199
▁Prom	-9200
▁Verp	-9201
ushing	-9202
▁Grenze	-9203
▁Jackie	-9204
▁Nathan	-9205
▁daraus	-9206
▁accompl	-9207
▁doctors	-9208
ystem	-9209
▁Spion	-9210
ünstler	-9211
▁weinen	-9212
▁versteh	-9213
▁neighborhood	-9214
▁Exp	-9215
▁size	-9216
perate	-9217
▁switch	-9218
▁verfolgen	-9219
rekt	-9220
▁Dri	-9221
▁arme	-9222
▁entr	-9223
▁Ergeb	-9224
▁points	-9225
▁Zweifel	-9226
▁Schwestern	-9227
▁Cast	-9228
▁Eink	-9229
▁denk	-9230
▁south	-9231
▁Haltet	-9232
▁kosten	-9233
arbeiter	-9234
▁vertraut	-9235
▁Selbstmord	-9236
oker	-9237
▁kil	-9238
▁fund	-9239
▁satt	-9240
▁Jedes	-9241
▁Rufen	-9242
▁clearly	-9243
fehl	-9244
▁ear	-9245
▁ausgel	-9246
▁überlebt	-9247
riegt	-9248
ächen	-9249
▁Freeze	-9250
▁dealing	-9251
▁müssten	-9252
▁schickt	-9253
▁stehlen	-9254
▁vampire	-9255
▁wünsche	-9256
▁langweilig	-9257
▁Eva	-9258
▁Lüge	-9259
▁vorn	-9260
steckt	-9261
▁Block	-9262
▁Wetter	-9263
▁Akte	-9264
▁Nina	-9265
▁iron	-9266
▁ziehe	-9267
▁memories	-9268
wach	-9269
▁Kam	-9270
rogen	-9271
▁hassen	-9272
▁Präsidenten	-9273
▁Kö	-9274
▁Inn	-9275
ciety	-9276
igten	-9277
▁Europ	-9278
isher	-9279
▁kauf	-9280
▁lösen	-9281
▁Trotzdem	-9282
▁thoughts	-9283
▁Unglaublich	-9284
▁motherfucker	-9285
hole	-9286
bauen	-9287
etwegen	-9288
▁Fantast	-9289
▁medicine	-9290
iao	-9291
▁Jamie	-9292
▁State	-9293
▁Spuren	-9294
▁ashamed	-9295
▁Antworten	-9296
▁öffentlich	-9297
angs	-9298
▁progress	-9299
▁wundervoll	-9300
What	-9301
ruck	-9302
▁Rory	-9303
▁Tatsache	-9304
pha	-9305
▁Rh	-9306
▁ep	-9307
▁198	-9308
endes	-9309
▁Haven	-9310
▁auszu	-9311
onde	-9312
▁Nee	-9313
▁sinn	-9314
▁Miami	-9315
▁coward	-9316
▁recomm	-9317
▁changes	-9318
▁confess	-9319
▁kidnapped	-9320
Pro	-9321
▁Aye	-9322
▁Top	-9323
ometer	-9324
▁ships	-9325
▁zählt	-9326
▁Soldat	-9327
▁Arbeits	-9328
cep	-9329
mark	-9330
▁tank	-9331
iverse	-9332
schuss	-9333
▁Kling	-9334
▁scharf	-9335
obil	-9336
▁197	-9337
▁Ever	-9338
▁eggs	-9339
▁Wollt	-9340
▁Kapitän	-9341
▁Neither	-9342
▁knowing	-9343
▁erinnerst	-9344
▁überzeugen	-9345
ators	-9346
hafte	-9347
öffnet	-9348
▁Miles	-9349
▁Worauf	-9350
▁guards	-9351
▁results	-9352
▁protection	-9353
▁Geheimnisse	-9354
▁Mär	-9355
▁trag	-9356
▁Lügen	-9357
▁behavior	-9358
odes	-9359
▁Pak	-9360
reift	-9361
inning	-9362
▁desto	-9363
▁Handsch	-9364
▁alcohol	-9365
▁Sad	-9366
eline	-9367
▁cheap	-9368
▁beyond	-9369
▁ähnlich	-9370
▁Kollegen	-9371
▁gebraucht	-9372
baren	-9373
▁Foot	-9374
▁stronger	-9375
▁Krankheit	-9376
▁ach	-9377
▁rac	-9378
▁youn	-9379
▁gather	-9380
uct	-9381
oston	-9382
sonst	-9383
▁Dazu	-9384
▁Hexe	-9385
▁cong	-9386
▁insane	-9387
▁prepare	-9388
▁schwarz	-9389
▁uniform	-9390
▁material	-9391
▁übrigens	-9392
▁schließlich	-9393
riester	-9394
▁familiar	-9395
ador	-9396
verd	-9397
iring	-9398
▁cure	-9399
system	-9400
▁device	-9401
▁safety	-9402
▁Honestly	-9403
IV	-9404
äuft	-9405
▁copy	-9406
▁Child	-9407
▁Hannah	-9408
▁collect	-9409
▁schlägt	-9410
▁Entweder	-9411
▁ausgehen	-9412
verständlich	-9413
oto	-9414
▁Base	-9415
▁holt	-9416
▁Nelson	-9417
▁painting	-9418
▁Flughafen	-9419
▁Kok	-9420
▁kur	-9421
tragen	-9422
▁gefol	-9423
▁stink	-9424
▁fragst	-9425
▁Samstag	-9426
▁gebrauchen	-9427
▁35	-9428
ware	-9429
▁Zehn	-9430
▁meth	-9431
▁heads	-9432
▁einsam	-9433
▁bestimm	-9434
▁details	-9435
▁romantic	-9436
And	-9437
oln	-9438
▁8:	-9439
fest	-9440
render	-9441
▁traff	-9442
▁Norden	-9443
▁plenty	-9444
▁ticket	-9445
▁gefeuert	-9446
▁convinced	-9447
Es	-9448
▁Ru	-9449
asts	-9450
allow	-9451
▁Mine	-9452
▁prakt	-9453
▁Machst	-9454
arling	-9455
▁Stuhl	-9456
▁Jordan	-9457
▁angeht	-9458
▁woanders	-9459
▁wusstest	-9460
Ar	-9461
lö	-9462
▁4.	-9463
▁Süß	-9464
▁Panik	-9465
▁Früher	-9466
▁commit	-9467
▁official	-9468
▁gods	-9469
▁Sammy	-9470
▁küssen	-9471
▁neighb	-9472
▁peinlich	-9473
▁mor	-9474
amber	-9475
▁Böse	-9476
▁stock	-9477
istisch	-9478
▁nutzen	-9479
▁wechsel	-9480
▁mistakes	-9481
▁mentioned	-9482
▁wichtiger	-9483
▁cit	-9484
orney	-9485
▁corp	-9486
▁enden	-9487
▁Mulder	-9488
▁gewöhn	-9489
▁verboten	-9490
▁Wonderful	-9491
erechtigkeit	-9492
itles	-9493
▁steh	-9494
▁incre	-9495
▁Cousin	-9496
ropriate	-9497
▁irgendjemand	-9498
kon	-9499
lev	-9500
quis	-9501
▁walls	-9502
▁hoffen	-9503
▁grün	-9504
▁samm	-9505
▁Walker	-9506
▁fühlte	-9507
▁Finally	-9508
linge	-9509
▁Mitte	-9510
▁Sicht	-9511
▁Friend	-9512
gehalten	-9513
▁Spezial	-9514
▁erschre	-9515
▁welches	-9516
▁grandmother	-9517
Be	-9518
▁Dev	-9519
▁frem	-9520
▁Freut	-9521
▁Anybody	-9522
▁fantastisch	-9523
rice	-9524
▁Cow	-9525
acher	-9526
▁Zahl	-9527
arante	-9528
▁mercy	-9529
▁wofür	-9530
▁stress	-9531
▁Jede	-9532
▁Oscar	-9533
▁Stone	-9534
▁moral	-9535
▁castle	-9536
▁idiots	-9537
wohner	-9538
▁Genug	-9539
▁behal	-9540
▁bread	-9541
schrank	-9542
▁Signal	-9543
▁watched	-9544
gebrochen	-9545
gelt	-9546
soci	-9547
ächter	-9548
▁Eisen	-9549
▁coinc	-9550
▁relie	-9551
▁prince	-9552
▁attract	-9553
▁zulassen	-9554
oard	-9555
▁Skla	-9556
ützung	-9557
▁junger	-9558
▁selben	-9559
▁beendet	-9560
igte	-9561
▁Opa	-9562
▁Gesund	-9563
▁Sophie	-9564
gefahren	-9565
▁Prozess	-9566
▁töt	-9567
▁Diego	-9568
lligent	-9569
reichen	-9570
▁rights	-9571
▁hearing	-9572
▁betrayed	-9573
▁Erklärung	-9574
▁außerhalb	-9575
quar	-9576
schm	-9577
▁Mühe	-9578
▁disk	-9579
▁gezogen	-9580
▁original	-9581
▁Dah	-9582
▁Dex	-9583
▁Squ	-9584
▁fro	-9585
▁Imag	-9586
▁Anzug	-9587
▁Pfund	-9588
▁Stupid	-9589
▁Zucker	-9590
zulernen	-9591
▁trigger	-9592
▁scheinen	-9593
▁2,	-9594
▁LE	-9595
alie	-9596
▁bal	-9597
öhnen	-9598
▁rate	-9599
▁Überleben	-9600
jo	-9601
orte	-9602
teln	-9603
besch	-9604
fälle	-9605
▁wurdest	-9606
▁zurecht	-9607
▁nightmare	-9608
▁Curt	-9609
▁newsp	-9610
▁Fahrer	-9611
ternehmen	-9612
bür	-9613
▁Drop	-9614
▁bath	-9615
▁dish	-9616
▁dreht	-9617
▁Spen	-9618
▁Viol	-9619
▁Hands	-9620
▁Paula	-9621
▁cabin	-9622
ILL	-9623
▁prü	-9624
▁director	-9625
▁map	-9626
▁Tick	-9627
▁swim	-9628
spruch	-9629
▁Assist	-9630
inic	-9631
▁ums	-9632
▁Wett	-9633
▁höch	-9634
▁Schwer	-9635
▁Secret	-9636
▁forbid	-9637
▁gewalt	-9638
arily	-9639
▁grew	-9640
▁Akten	-9641
▁attempt	-9642
▁convince	-9643
▁football	-9644
ede	-9645
mon	-9646
▁Wy	-9647
▁Kühl	-9648
▁Admir	-9649
zwungen	-9650
▁spring	-9651
arnt	-9652
▁Ven	-9653
▁erl	-9654
▁Cind	-9655
▁crow	-9656
etting	-9657
▁Feder	-9658
▁leads	-9659
▁Norman	-9660
▁Sprich	-9661
▁großart	-9662
▁nachher	-9663
▁einander	-9664
▁kennenzulernen	-9665
Un	-9666
äme	-9667
▁Hog	-9668
eland	-9669
▁Fick	-9670
▁Sleep	-9671
▁Water	-9672
▁bieten	-9673
Du	-9674
vir	-9675
etch	-9676
iken	-9677
ühen	-9678
essel	-9679
▁tast	-9680
▁Lucas	-9681
▁Sturm	-9682
▁schaffe	-9683
ehnt	-9684
istr	-9685
▁Alb	-9686
undet	-9687
▁Zähne	-9688
▁Boston	-9689
▁Einzel	-9690
▁Talent	-9691
▁Spiegel	-9692
▁komplett	-9693
▁emotional	-9694
uzz	-9695
erie	-9696
▁gäbe	-9697
▁Marty	-9698
▁trail	-9699
▁Schieß	-9700
▁kicked	-9701
▁Italien	-9702
▁Schande	-9703
isc	-9704
wehr	-9705
▁Heimat	-9706
▁Kredit	-9707
▁dunkel	-9708
▁sandwich	-9709
Oh	-9710
▁dur	-9711
▁Bade	-9712
drehen	-9713
▁Ideen	-9714
schieden	-9715
ente	-9716
igst	-9717
ookie	-9718
▁schla	-9719
▁kennenl	-9720
▁permission	-9721
▁Freundschaft	-9722
mpt	-9723
▁30.	-9724
▁Joh	-9725
opter	-9726
▁vote	-9727
▁eurer	-9728
▁School	-9729
▁disease	-9730
ript	-9731
▁Nah	-9732
▁Slo	-9733
▁plus	-9734
nete	-9735
üste	-9736
▁Zoe	-9737
▁Dere	-9738
▁Davis	-9739
▁Blo	-9740
▁Neben	-9741
▁verletzen	-9742
▁unschuldig	-9743
bank	-9744
▁bike	-9745
▁data	-9746
▁zust	-9747
drücke	-9748
▁Death	-9749
▁aktiv	-9750
▁einst	-9751
▁erlebt	-9752
▁Whoever	-9753
▁Blödsinn	-9754
▁bleeding	-9755
▁prisoner	-9756
▁vergeben	-9757
▁represent	-9758
aku	-9759
urd	-9760
sper	-9761
▁Pot	-9762
inary	-9763
hängen	-9764
▁Virgin	-9765
▁butter	-9766
▁morgens	-9767
ämt	-9768
pack	-9769
estens	-9770
nitten	-9771
▁Rever	-9772
▁Angela	-9773
▁Dämonen	-9774
▁patients	-9775
zig	-9776
▁Cher	-9777
▁Dead	-9778
▁Knock	-9779
▁ergibt	-9780
▁Kleider	-9781
▁Lincoln	-9782
▁Abschluss	-9783
▁Duke	-9784
▁ausz	-9785
▁Außen	-9786
▁Bauer	-9787
▁umsonst	-9788
üchte	-9789
▁Hirn	-9790
▁arch	-9791
▁surr	-9792
▁Nehmt	-9793
▁Zivil	-9794
▁fortune	-9795
▁.	-9796
girl	-9797
▁harder	-9798
▁Nächste	-9799
▁Verlust	-9800
mut	-9801
akte	-9802
▁Coun	-9803
▁doors	-9804
▁Leiden	-9805
▁British	-9806
▁bestell	-9807
▁Nachbarn	-9808
▁Toilette	-9809
Al	-9810
bot	-9811
zed	-9812
▁jün	-9813
▁Beerd	-9814
▁crack	-9815
▁hinge	-9816
▁Angele	-9817
▁signed	-9818
▁spiele	-9819
legt	-9820
ühlen	-9821
▁Kost	-9822
▁spare	-9823
▁gehofft	-9824
▁trou	-9825
▁Warst	-9826
▁Dunkel	-9827
▁Number	-9828
▁eifers	-9829
▁ändert	-9830
▁audience	-9831
▁nachdenken	-9832
äub	-9833
etti	-9834
▁custom	-9835
▁tongue	-9836
▁kontrollieren	-9837
cean	-9838
▁fried	-9839
▁trees	-9840
▁Rennen	-9841
▁Gleiche	-9842
▁Imagine	-9843
▁vernünft	-9844
▁passierte	-9845
▁Travis	-9846
▁bright	-9847
▁whoever	-9848
▁48	-9849
itar	-9850
▁saß	-9851
▁zul	-9852
▁Tina	-9853
▁Kohle	-9854
▁Jeremy	-9855
▁Parker	-9856
▁tradition	-9857
▁Tatsächlich	-9858
▁Ale	-9859
▁Dol	-9860
▁Fan	-9861
▁McG	-9862
▁Brot	-9863
▁cock	-9864
▁Gerade	-9865
▁Hallow	-9866
rom	-9867
▁Od	-9868
▁Syd	-9869
▁Half	-9870
▁aboard	-9871
▁freundlich	-9872
rak	-9873
oops	-9874
▁Sha	-9875
▁Fass	-9876
▁Aaron	-9877
▁stood	-9878
▁photos	-9879
▁Barbara	-9880
uhl	-9881
▁Burn	-9882
▁fuhr	-9883
sitzen	-9884
▁Young	-9885
▁scratch	-9886
▁sometime	-9887
▁committed	-9888
▁intelligen	-9889
▁Erk	-9890
▁Vom	-9891
▁Daisy	-9892
▁Liefer	-9893
▁cancel	-9894
▁geschw	-9895
sm	-9896
agg	-9897
iac	-9898
azine	-9899
▁Kart	-9900
▁Titel	-9901
▁Monday	-9902
▁legend	-9903
▁Taschen	-9904
▁selling	-9905
▁getrennt	-9906
▁performance	-9907
prom	-9908
▁brutal	-9909
▁Geister	-9910
▁Sprache	-9911
▁größten	-9912
▁treated	-9913
▁concerned	-9914
ques	-9915
▁Dear	-9916
▁Hong	-9917
▁Ital	-9918
▁Neg	-9919
▁Sav	-9920
▁Gras	-9921
ordert	-9922
▁Magie	-9923
▁Paige	-9924
▁cheer	-9925
station	-9926
▁Gesundheit	-9927
äld	-9928
▁Thr	-9929
▁Pizza	-9930
▁weiterhin	-9931
▁zurückkommen	-9932
-2	-9933
ota	-9934
▁erzähle	-9935
▁Somebody	-9936
▁families	-9937
▁Gi	-9938
▁ve	-9939
lear	-9940
▁12.	-9941
▁Betty	-9942
▁Stief	-9943
▁antun	-9944
▁descri	-9945
▁Strange	-9946
▁arbeitest	-9947
▁Versprechen	-9948
▁Fang	-9949
▁Scot	-9950
▁debt	-9951
vision	-9952
▁befür	-9953
tending	-9954
▁hunting	-9955
▁tickets	-9956
▁released	-9957
▁stranger	-9958
▁behandeln	-9959
Was	-9960
ulf	-9961
▁zieh	-9962
▁Katie	-9963
oiselle	-9964
▁ausger	-9965
▁community	-9966
▁einfacher	-9967
aup	-9968
▁Sof	-9969
kommst	-9970
▁Hatte	-9971
▁Anyone	-9972
▁Holmes	-9973
▁hidden	-9974
▁online	-9975
issioner	-9976
oma	-9977
▁Hub	-9978
known	-9979
▁beleid	-9980
ibi	-9981
häng	-9982
iane	-9983
orris	-9984
uster	-9985
▁Save	-9986
▁Guter	-9987
▁Hexen	-9988
▁Vergessen	-9989
▁suffering	-9990
▁circumstances	-9991
ii	-9992
war	-9993
▁..	-9994
▁gez	-9995
▁Geis	-9996
▁Kids	-9997
ändnis	-9998
▁Armen	-9999
▁Relax	-10000
▁adult	-10001
▁chick	-10002
▁Nächstes	-10003
▁begleiten	-10004
osse	-10005
ädel	-10006
▁MAR	-10007
▁Meg	-10008
▁Sechs	-10009
▁parts	-10010
▁pounds	-10011
▁warning	-10012
Und	-10013
ilfe	-10014
ümmer	-10015
▁disp	-10016
▁riecht	-10017
▁source	-10018
▁Germany	-10019
▁shopping	-10020
▁mindestens	-10021
inik	-10022
▁196	-10023
▁Ral	-10024
▁Martha	-10025
▁klappt	-10026
▁confirm	-10027
▁guarante	-10028
▁violence	-10029
▁Enterprise	-10030
bau	-10031
▁tip	-10032
▁prec	-10033
aschine	-10034
ception	-10035
▁golden	-10036
▁merken	-10037
▁annehmen	-10038
rap	-10039
▁Bez	-10040
▁Ere	-10041
▁Jagd	-10042
heriff	-10043
▁Beaut	-10044
▁Señor	-10045
▁Shane	-10046
geführt	-10047
▁schade	-10048
▁slowly	-10049
▁nowhere	-10050
▁Alexander	-10051
kur	-10052
ölf	-10053
quet	-10054
uses	-10055
▁Juan	-10056
▁page	-10057
▁fährst	-10058
▁spoken	-10059
▁Trottel	-10060
astic	-10061
▁Feinde	-10062
▁Hammer	-10063
▁Helden	-10064
▁aufget	-10065
▁betrifft	-10066
▁brilliant	-10067
▁enttäuscht	-10068
arter	-10069
▁junk	-10070
▁Größe	-10071
▁Motor	-10072
▁Randy	-10073
▁rough	-10074
ological	-10075
▁Perfect	-10076
▁sisters	-10077
iance	-10078
▁rabb	-10079
▁solve	-10080
▁Murphy	-10081
▁Befehle	-10082
▁Verrück	-10083
▁Angelegenheit	-10084
▁5.	-10085
ipper	-10086
▁plate	-10087
▁stays	-10088
▁covered	-10089
emoiselle	-10090
▁directly	-10091
Ver	-10092
ehre	-10093
▁diam	-10094
▁plat	-10095
▁Stehen	-10096
▁liebte	-10097
▁Japanese	-10098
▁Maschinen	-10099
▁intelligent	-10100
bit	-10101
▁äuß	-10102
▁drown	-10103
▁Montag	-10104
▁sterbe	-10105
▁Bernard	-10106
▁Stimmen	-10107
▁geklaut	-10108
▁Margaret	-10109
▁Schlafzimmer	-10110
▁Gerechtigkeit	-10111
▁Unterstützung	-10112
AU	-10113
▁syn	-10114
▁Snow	-10115
▁coat	-10116
▁lift	-10117
▁Blood	-10118
üchtern	-10119
▁Doppel	-10120
▁symbol	-10121
▁Langsam	-10122
▁derjenige	-10123
ahe	-10124
▁Fun	-10125
▁Wut	-10126
▁Kore	-10127
▁temp	-10128
utation	-10129
▁Vorstellung	-10130
▁mitgenommen	-10131
Ein	-10132
imer	-10133
▁unus	-10134
▁teuer	-10135
ailable	-10136
▁exhaust	-10137
▁Victoria	-10138
Ch	-10139
agel	-10140
▁Rak	-10141
▁sed	-10142
▁pred	-10143
▁lebendig	-10144
▁kompliziert	-10145
onie	-10146
▁Len	-10147
▁lun	-10148
▁Chem	-10149
▁Home	-10150
▁chosen	-10151
▁Pistole	-10152
▁hingehen	-10153
ouver	-10154
▁bild	-10155
▁trauen	-10156
▁experien	-10157
▁zurückzu	-10158
rees	-10159
ulse	-10160
▁mochte	-10161
▁Priester	-10162
▁schreibt	-10163
AH	-10164
öh	-10165
reise	-10166
seits	-10167
▁woke	-10168
▁However	-10169
▁Vietnam	-10170
▁Schauspieler	-10171
ießt	-10172
▁Rechnung	-10173
awa	-10174
▁Bal	-10175
▁tel	-10176
▁Chand	-10177
▁Wenig	-10178
▁thief	-10179
▁Olivia	-10180
▁theory	-10181
▁solltet	-10182
▁verliert	-10183
vi	-10184
▁RE	-10185
like	-10186
▁Ankl	-10187
▁Fair	-10188
▁Tode	-10189
▁daher	-10190
▁owner	-10191
▁rooms	-10192
gelernt	-10193
▁capable	-10194
▁Californ	-10195
▁Botschaft	-10196
rit	-10197
▁Syl	-10198
change	-10199
essert	-10200
▁Zentr	-10201
▁etern	-10202
▁parking	-10203
▁returned	-10204
▁Erlaubnis	-10205
▁SE	-10206
igan	-10207
inos	-10208
rufe	-10209
▁Mhm	-10210
▁Cons	-10211
▁pump	-10212
▁staff	-10213
▁warri	-10214
gegeben	-10215
▁Shouldn	-10216
▁robbery	-10217
▁kennengelernt	-10218
tle	-10219
▁BE	-10220
iled	-10221
keep	-10222
peror	-10223
▁Holl	-10224
▁Hure	-10225
▁Kino	-10226
▁Casey	-10227
▁charges	-10228
▁schmutz	-10229
uche	-10230
▁Set	-10231
essed	-10232
▁educ	-10233
▁whom	-10234
▁Dingen	-10235
▁Einmal	-10236
▁offered	-10237
▁speaking	-10238
▁angesehen	-10239
kes	-10240
▁Face	-10241
▁Slow	-10242
▁runs	-10243
▁whoa	-10244
▁Schade	-10245
▁Geschmack	-10246
▁Großartig	-10247
xy	-10248
cient	-10249
uelle	-10250
▁prof	-10251
▁prot	-10252
▁Kerle	-10253
ächtnis	-10254
▁Geräus	-10255
▁treffe	-10256
▁connect	-10257
▁Zumindest	-10258
▁Bek	-10259
▁MANN	-10260
▁mama	-10261
▁fliegt	-10262
▁Aussage	-10263
▁schlage	-10264
▁Halloween	-10265
▁3:	-10266
acon	-10267
otic	-10268
▁Prü	-10269
stern	-10270
ladung	-10271
▁Sheld	-10272
▁aussch	-10273
▁higher	-10274
▁toilet	-10275
▁grandfather	-10276
izing	-10277
opher	-10278
▁Feig	-10279
bieten	-10280
geregt	-10281
▁Krebs	-10282
▁intend	-10283
▁bedroom	-10284
weit	-10285
▁Pad	-10286
eller	-10287
mäßig	-10288
▁horn	-10289
▁Lewis	-10290
▁amount	-10291
▁chocolate	-10292
▁är	-10293
▁Nap	-10294
▁Alte	-10295
▁nette	-10296
▁echter	-10297
▁Stephen	-10298
▁handelt	-10299
▁Jennifer	-10300
▁mountains	-10301
▁verändern	-10302
▁OP	-10303
▁eaten	-10304
▁Bleibt	-10305
▁throat	-10306
▁gewinnt	-10307
bra	-10308
uly	-10309
▁Jill	-10310
▁value	-10311
▁Worüber	-10312
▁touched	-10313
▁gegenseit	-10314
ivid	-10315
▁VER	-10316
▁Felix	-10317
▁dreck	-10318
▁Mickey	-10319
▁falling	-10320
▁stärker	-10321
▁beobachtet	-10322
loyd	-10323
einst	-10324
haber	-10325
ombie	-10326
schule	-10327
▁Derek	-10328
▁Holen	-10329
▁stairs	-10330
▁erwarte	-10331
▁Williams	-10332
▁vermisse	-10333
▁jen	-10334
place	-10335
▁wise	-10336
▁Staat	-10337
▁stands	-10338
▁employe	-10339
▁les	-10340
▁bride	-10341
▁according	-10342
AK	-10343
icted	-10344
▁vorbe	-10345
▁decent	-10346
▁lesson	-10347
▁reward	-10348
▁excellent	-10349
▁defense	-10350
▁Verräter	-10351
▁yourselves	-10352
▁coincidence	-10353
arks	-10354
▁Ban	-10355
uments	-10356
▁drinks	-10357
▁disturb	-10358
▁Highness	-10359
▁national	-10360
▁Verstehen	-10361
Don	-10362
kampf	-10363
btitles	-10364
erdings	-10365
▁Church	-10366
▁Schnau	-10367
▁Verwand	-10368
▁verlässt	-10369
▁Staatsanwalt	-10370
ündet	-10371
▁Disk	-10372
▁Tara	-10373
▁pussy	-10374
▁suchst	-10375
▁begraben	-10376
2,	-10377
hor	-10378
asha	-10379
oned	-10380
▁Netz	-10381
dessen	-10382
▁mayor	-10383
▁signs	-10384
▁Admiral	-10385
▁assistant	-10386
▁Untersuchung	-10387
▁embarrassing	-10388
zum	-10389
▁Akt	-10390
▁Mem	-10391
▁nor	-10392
ables	-10393
giving	-10394
▁loyal	-10395
▁sucks	-10396
▁sending	-10397
▁California	-10398
▁Ruhig	-10399
▁reached	-10400
▁entgegen	-10401
kehrt	-10402
▁bucks	-10403
▁science	-10404
▁breathing	-10405
▁$3	-10406
▁ER	-10407
▁Joy	-10408
▁Vic	-10409
▁Allen	-10410
▁Magen	-10411
▁lines	-10412
▁einzig	-10413
▁prosec	-10414
▁prisoners	-10415
▁TO	-10416
lord	-10417
▁Naz	-10418
ämpft	-10419
▁earn	-10420
▁guck	-10421
▁nurse	-10422
▁Florida	-10423
▁Allerdings	-10424
▁unternehmen	-10425
uke	-10426
▁Lake	-10427
▁Funny	-10428
▁Lippen	-10429
▁Entspann	-10430
▁gezwungen	-10431
▁experiment	-10432
▁entschuldige	-10433
inne	-10434
▁shr	-10435
athol	-10436
▁Regel	-10437
▁Krimin	-10438
▁erstes	-10439
▁singing	-10440
▁Eve	-10441
▁Ihn	-10442
eiert	-10443
▁ambul	-10444
▁Huren	-10445
▁Tracy	-10446
▁Gewehr	-10447
▁Invest	-10448
▁garant	-10449
▁reality	-10450
inny	-10451
ürzt	-10452
▁Est	-10453
▁Road	-10454
merzen	-10455
▁style	-10456
▁Götter	-10457
▁closet	-10458
▁zählen	-10459
▁überlegt	-10460
▁194	-10461
▁Blau	-10462
orf	-10463
▁Übr	-10464
auert	-10465
ortal	-10466
▁trage	-10467
▁Goddamn	-10468
▁handeln	-10469
▁agreement	-10470
▁eifersüchtig	-10471
gte	-10472
▁Aben	-10473
▁blank	-10474
▁Gewissen	-10475
bur	-10476
lig	-10477
▁SH	-10478
essa	-10479
▁Guard	-10480
▁sched	-10481
▁gesetzt	-10482
▁Reverend	-10483
▁(	-10484
ira	-10485
ipment	-10486
▁Jäger	-10487
▁Kreis	-10488
▁Ärzte	-10489
▁recently	-10490
▁detective	-10491
onym	-10492
igent	-10493
▁Kauf	-10494
▁Kurt	-10495
▁Bühne	-10496
▁Throw	-10497
▁wound	-10498
richtung	-10499
▁Welches	-10500
face	-10501
ynam	-10502
▁Las	-10503
▁zog	-10504
▁dicht	-10505
▁bester	-10506
▁echten	-10507
▁fehlen	-10508
▁smells	-10509
▁zweimal	-10510
▁Us	-10511
ando	-10512
▁Fox	-10513
▁elev	-10514
▁Feier	-10515
▁Stoff	-10516
▁clock	-10517
azieren	-10518
▁Planet	-10519
▁former	-10520
▁opening	-10521
▁bast	-10522
gebung	-10523
reiten	-10524
▁daddy	-10525
▁Anweis	-10526
▁schicke	-10527
▁untersuchen	-10528
ultan	-10529
gesagt	-10530
▁Chaos	-10531
▁profit	-10532
▁schien	-10533
▁properly	-10534
▁Gegenteil	-10535
▁Hir	-10536
▁Gebt	-10537
▁Answer	-10538
▁kochen	-10539
▁universe	-10540
▁AM	-10541
▁Inte	-10542
▁ended	-10543
iod	-10544
odka	-10545
▁Kenny	-10546
▁Excellent	-10547
▁verbunden	-10548
▁herauszufinden	-10549
▁Dat	-10550
▁spy	-10551
amente	-10552
eidung	-10553
▁dozen	-10554
▁raised	-10555
▁Krieger	-10556
▁kür	-10557
stände	-10558
▁Money	-10559
▁Connor	-10560
▁monkey	-10561
▁delicious	-10562
▁friendship	-10563
▁lat	-10564
▁Wege	-10565
▁Prozent	-10566
▁reports	-10567
▁technology	-10568
eks	-10569
hek	-10570
aner	-10571
eden	-10572
▁task	-10573
zellen	-10574
▁erleben	-10575
▁Personen	-10576
▁sacrifice	-10577
right	-10578
▁abst	-10579
▁laws	-10580
▁Dämon	-10581
▁Verfl	-10582
▁schmeckt	-10583
▁Kuh	-10584
▁rif	-10585
▁Lore	-10586
▁wohn	-10587
▁höher	-10588
▁Schult	-10589
▁effort	-10590
▁remains	-10591
▁victory	-10592
▁Mi	-10593
rock	-10594
äuse	-10595
▁Gus	-10596
▁Seb	-10597
ollen	-10598
▁butt	-10599
▁Ethan	-10600
▁Fälle	-10601
▁tests	-10602
▁Lächeln	-10603
▁gesamte	-10604
▁genießen	-10605
▁aufgeregt	-10606
▁simp	-10607
freund	-10608
▁Kaiser	-10609
▁Warren	-10610
▁abhauen	-10611
▁schrieb	-10612
▁streets	-10613
omi	-10614
ases	-10615
hest	-10616
▁Boo	-10617
▁Imm	-10618
▁Atem	-10619
▁Halb	-10620
▁Käse	-10621
▁dust	-10622
▁Stars	-10623
▁attra	-10624
gesperrt	-10625
▁aufgenommen	-10626
omin	-10627
vere	-10628
▁Past	-10629
▁Tank	-10630
▁Elekt	-10631
▁crush	-10632
▁Sister	-10633
▁behaup	-10634
▁Heilige	-10635
▁theater	-10636
▁understood	-10637
sst	-10638
ube	-10639
aries	-10640
▁Buffy	-10641
▁chose	-10642
▁curse	-10643
▁klasse	-10644
▁Staaten	-10645
▁steigen	-10646
▁vergiss	-10647
▁reparieren	-10648
▁überraschen	-10649
des	-10650
▁Erf	-10651
▁Sky	-10652
▁Ford	-10653
▁Kara	-10654
▁belt	-10655
▁gehei	-10656
▁Hoheit	-10657
▁elimin	-10658
▁neulich	-10659
▁personally	-10660
äb	-10661
▁Viv	-10662
▁grü	-10663
üglich	-10664
▁Kiste	-10665
▁Saint	-10666
▁sugar	-10667
▁talks	-10668
▁halben	-10669
▁langen	-10670
▁sexual	-10671
▁Central	-10672
▁befreien	-10673
▁gekriegt	-10674
▁Verschwinden	-10675
▁27	-10676
itan	-10677
ügst	-10678
▁plays	-10679
▁Herman	-10680
▁Laufen	-10681
▁warned	-10682
▁ertragen	-10683
col	-10684
▁zuh	-10685
worte	-10686
▁tear	-10687
▁abend	-10688
▁coach	-10689
chester	-10690
▁biggest	-10691
▁außerdem	-10692
No	-10693
venue	-10694
▁Crow	-10695
▁Dieb	-10696
▁craw	-10697
▁Their	-10698
setzung	-10699
▁Zugang	-10700
▁dürfte	-10701
▁members	-10702
▁Lad	-10703
▁kre	-10704
▁knees	-10705
▁stoppen	-10706
po	-10707
uted	-10708
vels	-10709
▁Ruh	-10710
▁Kirk	-10711
▁Sens	-10712
▁crit	-10713
▁summ	-10714
▁Persön	-10715
▁Artikel	-10716
INE	-10717
aled	-10718
▁bags	-10719
▁Ersch	-10720
▁Force	-10721
▁served	-10722
▁wählen	-10723
▁behaupt	-10724
▁curious	-10725
▁survived	-10726
▁akzeptieren	-10727
ilar	-10728
▁Wache	-10729
▁Schwarz	-10730
▁Herrgott	-10731
▁Unschuld	-10732
▁konzentrieren	-10733
▁6:	-10734
▁Ihm	-10735
▁garage	-10736
▁spüren	-10737
▁custody	-10738
cho	-10739
▁wehtun	-10740
▁Sheldon	-10741
▁sentence	-10742
▁Hon	-10743
▁SAM	-10744
retch	-10745
wohnt	-10746
gendes	-10747
▁counter	-10748
▁entweder	-10749
not	-10750
rin	-10751
üff	-10752
▁Hüb	-10753
▁Liv	-10754
▁Mah	-10755
▁Vul	-10756
▁liar	-10757
astrop	-10758
ending	-10759
▁lebst	-10760
▁concentr	-10761
▁colleague	-10762
OP	-10763
▁ALF	-10764
▁Non	-10765
▁Wün	-10766
▁atmen	-10767
schland	-10768
▁explan	-10769
utzt	-10770
ällen	-10771
▁Break	-10772
▁Dabei	-10773
▁Hosen	-10774
bildung	-10775
ächtige	-10776
▁Behand	-10777
▁Folgen	-10778
▁arbeitete	-10779
▁erfolgreich	-10780
pfel	-10781
reek	-10782
▁Muse	-10783
riften	-10784
▁Alpha	-10785
▁verge	-10786
▁Castle	-10787
▁easily	-10788
▁weißen	-10789
▁considered	-10790
hern	-10791
owing	-10792
altung	-10793
▁Vögel	-10794
▁virus	-10795
mädchen	-10796
▁Jersey	-10797
ampagner	-10798
▁Americans	-10799
▁available	-10800
▁auseinander	-10801
▁Si	-10802
▁Lucky	-10803
▁repeat	-10804
▁Spielen	-10805
▁becomes	-10806
▁statement	-10807
▁Wenigstens	-10808
SCH	-10809
raut	-10810
▁Hur	-10811
▁rush	-10812
▁Markt	-10813
▁compan	-10814
▁unusual	-10815
▁officers	-10816
▁ambulance	-10817
▁Beerdigung	-10818
holt	-10819
wald	-10820
▁laund	-10821
▁Dinner	-10822
▁desire	-10823
▁insist	-10824
outs	-10825
▁tow	-10826
ungsk	-10827
▁neur	-10828
▁Genie	-10829
▁Halte	-10830
▁assum	-10831
▁secure	-10832
▁Stanley	-10833
▁geraten	-10834
▁Erwachsen	-10835
UM	-10836
rist	-10837
▁Grey	-10838
▁gekl	-10839
▁soup	-10840
▁liter	-10841
▁Geduld	-10842
▁trapped	-10843
▁loswerden	-10844
wir	-10845
▁Eg	-10846
▁Corp	-10847
▁Baron	-10848
▁Quinn	-10849
▁gewiss	-10850
▁landen	-10851
▁temper	-10852
▁Schaden	-10853
▁staring	-10854
öpf	-10855
ella	-10856
ober	-10857
stal	-10858
▁suc	-10859
ächst	-10860
reißen	-10861
geschlagen	-10862
▁interessieren	-10863
1,	-10864
gra	-10865
hab	-10866
reif	-10867
▁10.	-10868
▁Mig	-10869
▁Farm	-10870
▁Mason	-10871
▁partners	-10872
▁thousands	-10873
▁Champagner	-10874
▁Inf	-10875
ancen	-10876
imeter	-10877
▁welchen	-10878
▁champion	-10879
▁Menschheit	-10880
▁Thanksgiving	-10881
ühre	-10882
▁Ruth	-10883
▁trug	-10884
▁Spann	-10885
▁blieb	-10886
▁Gloria	-10887
▁reinge	-10888
▁prevent	-10889
▁screaming	-10890
AP	-10891
spir	-10892
weig	-10893
angel	-10894
ossip	-10895
▁Benj	-10896
▁Beding	-10897
▁Finden	-10898
▁analys	-10899
▁schreien	-10900
züg	-10901
markt	-10902
▁Cops	-10903
▁Spring	-10904
▁nights	-10905
▁springen	-10906
▁schnappen	-10907
äden	-10908
▁Strafe	-10909
▁goddamn	-10910
▁Besseres	-10911
▁Ziemlich	-10912
ardon	-10913
ektor	-10914
▁Enkel	-10915
▁benöt	-10916
▁Julian	-10917
▁artist	-10918
▁aggress	-10919
▁fishing	-10920
▁succeed	-10921
▁towards	-10922
▁believes	-10923
▁leichter	-10924
▁streiten	-10925
rell	-10926
▁Pir	-10927
ehlen	-10928
ennung	-10929
▁angem	-10930
▁medizin	-10931
erc	-10932
▁Fitz	-10933
cepted	-10934
▁trink	-10935
▁Entscheidungen	-10936
Te	-10937
olas	-10938
andet	-10939
▁Hein	-10940
schutz	-10941
tember	-10942
▁Rosen	-10943
▁Süden	-10944
▁lhnen	-10945
▁Walton	-10946
▁affair	-10947
▁Darüber	-10948
▁distance	-10949
▁ruiniert	-10950
TE	-10951
▁BR	-10952
▁Var	-10953
▁Liam	-10954
▁Real	-10955
▁verwirrt	-10956
▁McK	-10957
▁veh	-10958
▁Urteil	-10959
▁obvious	-10960
▁allerdings	-10961
▁reputation	-10962
▁gegenseitig	-10963
ärm	-10964
▁Yu	-10965
quem	-10966
gerät	-10967
▁aunt	-10968
▁Eight	-10969
▁Folge	-10970
▁Alfred	-10971
▁pissed	-10972
▁abandoned	-10973
--	-10974
▁Dog	-10975
▁reb	-10976
▁blöde	-10977
▁faces	-10978
▁knapp	-10979
▁County	-10980
▁misund	-10981
▁Agenten	-10982
▁fliehen	-10983
▁showing	-10984
▁bene	-10985
▁Filme	-10986
▁influ	-10987
▁Pierre	-10988
▁Vision	-10989
▁deserves	-10990
▁equipment	-10991
▁riskieren	-10992
▁wiedersehen	-10993
IP	-10994
ols	-10995
andt	-10996
▁Abr	-10997
▁Mün	-10998
akten	-10999
▁Steig	-11000
▁übert	-11001
▁Africa	-11002
▁frisch	-11003
▁reserv	-11004
▁schmer	-11005
▁Himmels	-11006
▁gerufen	-11007
▁machten	-11008
▁murders	-11009
▁society	-11010
outine	-11011
▁Ralph	-11012
▁Täter	-11013
▁armed	-11014
ungslos	-11015
▁Chandler	-11016
▁offenbar	-11017
▁desperate	-11018
oses	-11019
rence	-11020
▁sque	-11021
ipping	-11022
▁Tiger	-11023
▁passion	-11024
sl	-11025
schau	-11026
ätsel	-11027
wasser	-11028
▁Verab	-11029
▁Großer	-11030
▁Michel	-11031
▁factory	-11032
▁Schnauze	-11033
▁Irgendwie	-11034
▁existiert	-11035
▁reinkommen	-11036
äg	-11037
bten	-11038
unte	-11039
▁Gep	-11040
ierer	-11041
▁candy	-11042
▁deutlich	-11043
▁stealing	-11044
gle	-11045
umme	-11046
▁sam	-11047
ämpfen	-11048
▁Autor	-11049
▁couch	-11050
▁Second	-11051
▁Westen	-11052
▁Service	-11053
▁Trinken	-11054
▁aufgehört	-11055
▁Mittagessen	-11056
lies	-11057
miss	-11058
rael	-11059
▁Ooh	-11060
▁Wirt	-11061
▁lack	-11062
willig	-11063
▁dienen	-11064
▁Anführer	-11065
▁entspann	-11066
▁Vorschlag	-11067
▁Jahrhundert	-11068
▁Öl	-11069
roht	-11070
▁reve	-11071
▁Prost	-11072
▁endet	-11073
▁shift	-11074
▁Details	-11075
▁Schrift	-11076
▁Vermögen	-11077
▁befindet	-11078
quer	-11079
rika	-11080
folge	-11081
▁goal	-11082
▁Wendy	-11083
▁Landes	-11084
▁agents	-11085
▁ebenso	-11086
▁player	-11087
▁schwimmen	-11088
ses	-11089
▁400	-11090
▁Dok	-11091
▁Krist	-11092
drücken	-11093
kriegen	-11094
▁Untert	-11095
▁houses	-11096
▁Sollten	-11097
▁Personal	-11098
ems	-11099
mosph	-11100
▁false	-11101
▁pizza	-11102
▁Jahres	-11103
▁schwarzen	-11104
▁abgeschlossen	-11105
oter	-11106
sver	-11107
▁egg	-11108
▁tied	-11109
hungen	-11110
ielten	-11111
▁eurem	-11112
▁kills	-11113
▁truly	-11114
weifelt	-11115
▁winter	-11116
▁Aufhören	-11117
▁beobachten	-11118
▁vernichten	-11119
▁einverstanden	-11120
▁Oz	-11121
▁Pam	-11122
bro	-11123
icia	-11124
utzen	-11125
▁Stamm	-11126
▁ehren	-11127
▁loose	-11128
▁Quelle	-11129
▁Schokol	-11130
▁sheriff	-11131
▁hug	-11132
▁ple	-11133
veill	-11134
▁Oberst	-11135
▁geführt	-11136
▁Eindruck	-11137
▁Entschuldigt	-11138
ämen	-11139
bewer	-11140
▁Vick	-11141
▁Guess	-11142
▁birds	-11143
▁brand	-11144
▁Stress	-11145
▁Watson	-11146
▁Diesmal	-11147
▁Verhand	-11148
▁Vorwärts	-11149
tät	-11150
▁Sö	-11151
orch	-11152
▁Rita	-11153
▁Raymond	-11154
▁mehrere	-11155
▁hoffentlich	-11156
cé	-11157
laugh	-11158
▁Stad	-11159
uclear	-11160
▁Spart	-11161
▁bones	-11162
▁schwul	-11163
▁Verkehr	-11164
▁schreibe	-11165
▁herkommen	-11166
FF	-11167
▁gn	-11168
▁Won	-11169
▁reiz	-11170
▁launch	-11171
▁nation	-11172
▁Mitglied	-11173
▁entwickelt	-11174
▁threatened	-11175
▁verteidigen	-11176
▁Ill	-11177
▁Logan	-11178
▁taten	-11179
▁Ereign	-11180
▁Subtitles	-11181
gate	-11182
▁Anth	-11183
▁Gabe	-11184
▁MacG	-11185
▁armen	-11186
▁began	-11187
▁helps	-11188
▁erlauben	-11189
▁Gefangenen	-11190
▁herausgefunden	-11191
▁Pic	-11192
▁begrü	-11193
▁shake	-11194
▁sitze	-11195
▁Lachen	-11196
▁babies	-11197
▁Anwesen	-11198
▁Schreck	-11199
▁gefolgt	-11200
▁trusted	-11201
▁possibly	-11202
▁Hou	-11203
▁Hyp	-11204
▁Pay	-11205
aging	-11206
itzer	-11207
stone	-11208
▁Gall	-11209
▁Türen	-11210
▁Bestes	-11211
▁darkness	-11212
▁erfunden	-11213
yers	-11214
▁Cre	-11215
▁Lux	-11216
▁Inst	-11217
igungen	-11218
▁7.	-11219
aley	-11220
▁esse	-11221
▁Becky	-11222
▁Phill	-11223
▁Europa	-11224
▁Harris	-11225
▁silver	-11226
▁innerhalb	-11227
▁vermissen	-11228
▁DER	-11229
imony	-11230
▁Trag	-11231
▁male	-11232
▁bored	-11233
▁Gebiet	-11234
▁Publik	-11235
▁Einheit	-11236
▁Papiere	-11237
▁erkannt	-11238
▁package	-11239
schmerzen	-11240
geschichte	-11241
▁successful	-11242
▁ult	-11243
▁vul	-11244
iling	-11245
▁Anst	-11246
▁suff	-11247
▁unit	-11248
▁beige	-11249
▁motor	-11250
schlüssel	-11251
▁perfekte	-11252
▁corrected	-11253
▁angenommen	-11254
▁Deutschland	-11255
5,	-11256
▁pf	-11257
akter	-11258
happy	-11259
▁Probe	-11260
▁Besten	-11261
▁wahren	-11262
▁yellow	-11263
laughter	-11264
veillance	-11265
▁Irgendwann	-11266
▁unterstützen	-11267
OB	-11268
▁erb	-11269
▁sin	-11270
▁Colt	-11271
▁rehe	-11272
ondere	-11273
▁desert	-11274
▁willen	-11275
▁Absolut	-11276
▁Fähigkeiten	-11277
▁II	-11278
▁NE	-11279
▁20.	-11280
ferenz	-11281
illing	-11282
▁Marcel	-11283
▁pleased	-11284
▁durcheinander	-11285
CE	-11286
erkt	-11287
▁Mort	-11288
▁panic	-11289
▁geholt	-11290
▁netter	-11291
▁proceed	-11292
▁Bedeutung	-11293
▁surrender	-11294
▁schlechten	-11295
bek	-11296
ablo	-11297
anen	-11298
▁Cos	-11299
▁nar	-11300
▁mies	-11301
leitung	-11302
▁estate	-11303
▁popular	-11304
▁Football	-11305
▁dahinter	-11306
▁antworten	-11307
▁Kry	-11308
▁Leck	-11309
▁teen	-11310
▁Cross	-11311
▁Seelen	-11312
▁filled	-11313
▁Definit	-11314
▁foreign	-11315
▁Besonders	-11316
▁neighbors	-11317
▁Möglichkeiten	-11318
ünkt	-11319
▁Lok	-11320
▁Tel	-11321
geber	-11322
▁Full	-11323
▁Wade	-11324
▁math	-11325
▁Zelle	-11326
▁financ	-11327
▁instruct	-11328
arat	-11329
bere	-11330
uary	-11331
▁Mess	-11332
▁nehm	-11333
▁season	-11334
▁zugeben	-11335
▁creature	-11336
▁treatment	-11337
▁9:	-11338
▁Mak	-11339
▁explo	-11340
▁Palmer	-11341
▁younger	-11342
lon	-11343
ustr	-11344
üche	-11345
agues	-11346
passt	-11347
▁rude	-11348
▁Women	-11349
▁based	-11350
▁juice	-11351
▁Sonder	-11352
▁defeat	-11353
▁jedoch	-11354
▁Politik	-11355
▁explanation	-11356
▁verschwinde	-11357
aszin	-11358
▁Hemd	-11359
▁neug	-11360
▁lower	-11361
▁begins	-11362
▁GE	-11363
▁Bry	-11364
▁Pra	-11365
▁Ras	-11366
▁Iron	-11367
▁legt	-11368
▁gestr	-11369
▁hates	-11370
▁mirror	-11371
▁unfair	-11372
▁Künstler	-11373
▁geworfen	-11374
▁extremely	-11375
▁10:	-11376
▁hau	-11377
▁row	-11378
▁Done	-11379
▁Handt	-11380
▁stabil	-11381
▁täglich	-11382
▁28	-11383
atty	-11384
lymp	-11385
zert	-11386
halter	-11387
iation	-11388
▁Werde	-11389
▁Bundes	-11390
▁durchs	-11391
▁modern	-11392
▁dadurch	-11393
▁Medikamente	-11394
ousine	-11395
▁filth	-11396
▁Sebast	-11397
▁Bestimmt	-11398
via	-11399
▁32	-11400
elig	-11401
▁Had	-11402
anzös	-11403
▁Borg	-11404
▁Pech	-11405
ologist	-11406
▁blonde	-11407
▁Darling	-11408
▁Mittern	-11409
▁Rebecca	-11410
▁zuletzt	-11411
▁erzählst	-11412
▁exchange	-11413
▁verdammter	-11414
▁SM	-11415
▁gall	-11416
▁Jacke	-11417
▁stört	-11418
▁öfter	-11419
▁ebenfalls	-11420
jagt	-11421
neur	-11422
▁Sem	-11423
▁assass	-11424
▁burning	-11425
▁cameras	-11426
▁interfere	-11427
▁verpassen	-11428
▁assignment	-11429
▁SP	-11430
▁erm	-11431
frage	-11432
▁Komp	-11433
▁einde	-11434
▁focus	-11435
ktionen	-11436
▁beeilen	-11437
▁Übrigens	-11438
▁Explosion	-11439
▁Verzeihen	-11440
▁verschwindet	-11441
Fre	-11442
▁AB	-11443
irts	-11444
wind	-11445
▁Alt	-11446
▁Tie	-11447
▁bum	-11448
▁Ivan	-11449
▁prim	-11450
▁scen	-11451
▁Schnee	-11452
▁Anthony	-11453
▁spielst	-11454
▁Katherine	-11455
▁Dunkelheit	-11456
GE	-11457
▁7:	-11458
just	-11459
▁15.	-11460
immst	-11461
▁Beat	-11462
▁Pink	-11463
▁hire	-11464
▁Manny	-11465
▁Virus	-11466
▁Wurde	-11467
▁kinds	-11468
▁Königs	-11469
▁someday	-11470
▁trennen	-11471
igo	-11472
unr	-11473
▁Aw	-11474
▁abw	-11475
▁Leib	-11476
▁isol	-11477
isions	-11478
▁toler	-11479
▁gewählt	-11480
▁treasure	-11481
▁wichtige	-11482
.?	-11483
hold	-11484
imum	-11485
annel	-11486
▁Kreat	-11487
▁Telef	-11488
▁Thomp	-11489
▁climb	-11490
▁Gründe	-11491
▁gelebt	-11492
▁picking	-11493
▁besseren	-11494
▁generous	-11495
you	-11496
laus	-11497
▁cast	-11498
▁Sonny	-11499
▁costs	-11500
▁berühm	-11501
▁parano	-11502
▁ernsthaft	-11503
ani	-11504
▁Fu	-11505
▁ober	-11506
▁pair	-11507
einbar	-11508
▁folgt	-11509
▁nackt	-11510
▁Wachen	-11511
▁Quickly	-11512
▁failure	-11513
▁Kleidung	-11514
▁positive	-11515
▁apparently	-11516
▁pet	-11517
uries	-11518
ügung	-11519
wendig	-11520
▁Zunge	-11521
▁raten	-11522
▁Perfekt	-11523
▁determin	-11524
▁meantime	-11525
▁vertraue	-11526
▁Rum	-11527
isode	-11528
teuer	-11529
▁presence	-11530
▁ungewöhn	-11531
sohn	-11532
▁Ned	-11533
▁Schädel	-11534
▁register	-11535
▁Verdammte	-11536
änn	-11537
▁sync	-11538
achtest	-11539
gesucht	-11540
▁pushed	-11541
▁transp	-11542
▁chances	-11543
▁Hed	-11544
hless	-11545
unker	-11546
▁Ther	-11547
▁Schock	-11548
▁forces	-11549
▁beinahe	-11550
▁schwier	-11551
▁zuhören	-11552
▁Versteck	-11553
▁bestellt	-11554
▁angekommen	-11555
aux	-11556
isp	-11557
ishop	-11558
▁sale	-11559
▁töte	-11560
abhäng	-11561
▁Riley	-11562
▁übers	-11563
▁Tränen	-11564
▁Englisch	-11565
▁aufnehmen	-11566
El	-11567
maß	-11568
▁$100	-11569
▁Bewe	-11570
forder	-11571
▁simply	-11572
▁Italian	-11573
▁champagne	-11574
▁Dix	-11575
▁mult	-11576
prints	-11577
▁Drive	-11578
▁miser	-11579
▁tooth	-11580
▁Leiter	-11581
▁Sieben	-11582
▁Wouldn	-11583
▁kissed	-11584
▁finding	-11585
▁französ	-11586
▁stellte	-11587
star	-11588
▁pin	-11589
▁Dana	-11590
▁Daran	-11591
▁disag	-11592
▁Mantel	-11593
▁gelegt	-11594
▁Kommando	-11595
▁incident	-11596
▁mic	-11597
vented	-11598
▁Affen	-11599
geworfen	-11600
▁stopping	-11601
▁beruhigen	-11602
▁international	-11603
9,	-11604
osal	-11605
▁pow	-11606
opard	-11607
▁fever	-11608
▁Carson	-11609
▁bewaff	-11610
▁anziehen	-11611
▁sensitive	-11612
▁verbracht	-11613
▁Christopher	-11614
▁Mademoiselle	-11615
▁Dus	-11616
▁Vide	-11617
▁Zach	-11618
▁acqu	-11619
▁Alien	-11620
▁fruit	-11621
▁Tatort	-11622
▁Schrank	-11623
▁traffic	-11624
ournalist	-11625
▁electric	-11626
▁Revolution	-11627
attan	-11628
▁lake	-11629
▁Helfen	-11630
▁Rechts	-11631
▁button	-11632
▁Erzählen	-11633
▁offiziell	-11634
sc	-11635
hlt	-11636
▁Wom	-11637
annon	-11638
asant	-11639
▁Magn	-11640
school	-11641
▁Audrey	-11642
▁Theorie	-11643
▁holiday	-11644
schreiben	-11645
▁Fingerab	-11646
▁pathetic	-11647
▁political	-11648
▁intelligence	-11649
ifth	-11650
▁Bast	-11651
▁Orig	-11652
▁Otto	-11653
▁Toby	-11654
▁geil	-11655
artier	-11656
▁dumme	-11657
▁fairy	-11658
▁range	-11659
▁sales	-11660
▁Dur	-11661
alled	-11662
▁Corn	-11663
▁Ferr	-11664
▁shel	-11665
▁Enjoy	-11666
▁altes	-11667
▁degrees	-11668
▁Publikum	-11669
▁abgesehen	-11670
▁verhaften	-11671
underte	-11672
▁Fantas	-11673
▁knocked	-11674
▁Freundinnen	-11675
30	-11676
viron	-11677
▁erhö	-11678
▁likely	-11679
▁gewarnt	-11680
▁product	-11681
▁location	-11682
▁direction	-11683
▁hinterher	-11684
di	-11685
esar	-11686
iple	-11687
ollt	-11688
▁Chi	-11689
▁Lil	-11690
▁SCH	-11691
ulate	-11692
chenkt	-11693
▁Inform	-11694
▁Justin	-11695
▁Sendung	-11696
▁photograph	-11697
▁rip	-11698
lings	-11699
▁Tipp	-11700
wäsche	-11701
▁Schuh	-11702
▁hated	-11703
▁Training	-11704
▁throwing	-11705
▁Fernseher	-11706
▁confident	-11707
IK	-11708
▁sla	-11709
▁lesb	-11710
▁Benny	-11711
▁toten	-11712
▁Pac	-11713
esten	-11714
▁Boys	-11715
▁Zahlen	-11716
▁cooper	-11717
▁dating	-11718
▁studio	-11719
▁useful	-11720
▁century	-11721
▁torture	-11722
▁Schlange	-11723
▁recommend	-11724
▁übergeben	-11725
▁zurückkehren	-11726
Bob	-11727
otto	-11728
▁Dür	-11729
retär	-11730
▁link	-11731
▁tötete	-11732
▁treiben	-11733
▁CD	-11734
name	-11735
▁Wem	-11736
▁odd	-11737
▁corn	-11738
▁lips	-11739
endung	-11740
▁toast	-11741
äuschen	-11742
▁brains	-11743
▁bricht	-11744
▁dieselbe	-11745
▁including	-11746
▁4:	-11747
lers	-11748
uable	-11749
▁Hack	-11750
▁adopt	-11751
▁brown	-11752
▁shots	-11753
▁Avenue	-11754
▁Bomben	-11755
maschine	-11756
▁Empfang	-11757
▁Streich	-11758
▁begeist	-11759
▁Division	-11760
▁Schreibt	-11761
▁inzwischen	-11762
▁beantworten	-11763
▁disappointed	-11764
▁Jas	-11765
▁flu	-11766
ached	-11767
▁Kult	-11768
spielen	-11769
östlich	-11770
▁advent	-11771
▁female	-11772
ifornien	-11773
▁Verbrecher	-11774
▁impression	-11775
▁weitermachen	-11776
▁6.	-11777
äfst	-11778
▁Kiss	-11779
▁Hogan	-11780
▁Kamer	-11781
▁lebte	-11782
▁Dennis	-11783
▁Sultan	-11784
▁toller	-11785
▁depends	-11786
▁erfreut	-11787
▁elderman	-11788
▁Gedächtnis	-11789
▁Ret	-11790
▁rope	-11791
▁flesh	-11792
▁strate	-11793
▁respond	-11794
▁Benjamin	-11795
▁changing	-11796
▁gelandet	-11797
▁Mitternacht	-11798
aler	-11799
▁Kab	-11800
chtet	-11801
elten	-11802
redet	-11803
▁Stil	-11804
▁Häuser	-11805
▁Punkte	-11806
▁buying	-11807
▁escort	-11808
▁finanz	-11809
▁Reaktion	-11810
▁attorney	-11811
▁Abteilung	-11812
▁reasonable	-11813
▁revolution	-11814
▁Öffentlich	-11815
▁bye	-11816
▁Haft	-11817
▁drum	-11818
▁angen	-11819
▁noble	-11820
▁roten	-11821
▁Drachen	-11822
▁besucht	-11823
▁Zo	-11824
gült	-11825
ätzt	-11826
▁Ost	-11827
eresa	-11828
iding	-11829
▁Erin	-11830
▁wozu	-11831
uliere	-11832
▁aside	-11833
▁Treppe	-11834
▁klären	-11835
▁Anklage	-11836
▁Certain	-11837
▁swallow	-11838
▁definitiv	-11839
▁überprüft	-11840
tain	-11841
usty	-11842
▁Sue	-11843
▁sons	-11844
▁Court	-11845
▁Girls	-11846
▁Gnade	-11847
▁humili	-11848
▁schickte	-11849
afé	-11850
zehn	-11851
ücher	-11852
▁jobs	-11853
▁Merry	-11854
▁Juliet	-11855
▁jumped	-11856
▁univers	-11857
▁gemeldet	-11858
▁interrog	-11859
▁influence	-11860
▁versuchst	-11861
irty	-11862
▁Wed	-11863
▁exact	-11864
▁monst	-11865
▁Sydney	-11866
▁stable	-11867
▁quarter	-11868
▁rauchen	-11869
vironment	-11870
▁Schulden	-11871
▁suitcase	-11872
lem	-11873
▁JO	-11874
samen	-11875
▁Spanish	-11876
▁awesome	-11877
▁spazieren	-11878
▁rechtzeitig	-11879
DER	-11880
▁Sä	-11881
uman	-11882
bster	-11883
▁Grat	-11884
▁Text	-11885
▁Fluch	-11886
▁Gouver	-11887
▁Achtung	-11888
▁erfüllt	-11889
▁vermute	-11890
▁Yesterday	-11891
▁Herzlichen	-11892
▁merkwürdig	-11893
zieht	-11894
▁Alison	-11895
▁Mexiko	-11896
▁basket	-11897
▁terrif	-11898
gelaufen	-11899
▁Dod	-11900
▁Dyl	-11901
▁Guy	-11902
▁deny	-11903
▁erne	-11904
▁Schaut	-11905
▁parties	-11906
▁begegnet	-11907
▁É	-11908
▁Jos	-11909
▁rare	-11910
▁silly	-11911
▁Dexter	-11912
▁hearts	-11913
▁retire	-11914
▁destiny	-11915
▁drücken	-11916
▁kapiert	-11917
▁shoulder	-11918
▁commander	-11919
agh	-11920
ria	-11921
▁Rec	-11922
▁porn	-11923
▁exerc	-11924
machung	-11925
▁trinke	-11926
▁heading	-11927
▁Clarence	-11928
anzer	-11929
ennis	-11930
opath	-11931
▁Head	-11932
▁bang	-11933
▁desc	-11934
gehört	-11935
▁beast	-11936
▁cloud	-11937
▁fancy	-11938
▁gehts	-11939
▁geist	-11940
▁screen	-11941
▁verlangen	-11942
ati	-11943
cha	-11944
log	-11945
rix	-11946
rot	-11947
uar	-11948
wurf	-11949
▁Manh	-11950
▁Much	-11951
▁Porn	-11952
istenz	-11953
▁detail	-11954
zunehmen	-11955
▁ergeben	-11956
▁growing	-11957
▁schwarze	-11958
AB	-11959
OV	-11960
kor	-11961
▁36	-11962
fert	-11963
▁DIE	-11964
utage	-11965
▁Grad	-11966
▁Mari	-11967
▁Tote	-11968
brochen	-11969
▁Katzen	-11970
▁Scheck	-11971
▁refuse	-11972
▁behauptet	-11973
▁beschlossen	-11974
▁26	-11975
oret	-11976
▁fab	-11977
stuhl	-11978
▁Troy	-11979
▁rise	-11980
▁wand	-11981
▁slave	-11982
▁Ritter	-11983
▁lauter	-11984
▁Viertel	-11985
▁windows	-11986
▁ausgesch	-11987
▁praktisch	-11988
CT	-11989
olis	-11990
town	-11991
▁Ike	-11992
▁Kas	-11993
▁Rie	-11994
▁YOU	-11995
▁lch	-11996
▁ruh	-11997
▁buck	-11998
▁schr	-11999
igungs	-12000
karten	-12001
▁Beute	-12002
▁condu	-12003
▁brennt	-12004
▁nuclear	-12005
▁Sherlock	-12006
agan	-12007
yver	-12008
▁Data	-12009
▁libr	-12010
gefühl	-12011
iefert	-12012
▁Ricky	-12013
▁crowd	-12014
▁vision	-12015
▁Uniform	-12016
▁umzubringen	-12017
acks	-12018
deck	-12019
üren	-12020
▁150	-12021
▁Lud	-12022
▁Gret	-12023
▁shoe	-12024
▁tail	-12025
▁Beach	-12026
▁loser	-12027
▁Twenty	-12028
▁method	-12029
▁schaut	-12030
▁dauernd	-12031
▁conference	-12032
▁competition	-12033
▁gleichzeitig	-12034
▁3,	-12035
That	-12036
amps	-12037
itle	-12038
ehmer	-12039
▁Navy	-12040
▁entz	-12041
▁veget	-12042
▁verlor	-12043
usstsein	-12044
▁Chancen	-12045
▁Houston	-12046
▁contest	-12047
▁trained	-12048
agte	-12049
▁Rain	-12050
▁Spren	-12051
▁helic	-12052
▁march	-12053
▁wirken	-12054
quarters	-12055
▁Überwach	-12056
▁Scheidung	-12057
▁Unterhaltung	-12058
▁Av	-12059
▁Lyd	-12060
aning	-12061
attet	-12062
berry	-12063
▁Prem	-12064
▁moves	-12065
▁Falsch	-12066
▁absurd	-12067
▁verspr	-12068
▁Germans	-12069
▁gefühlt	-12070
▁seitdem	-12071
▁midnight	-12072
fuck	-12073
▁Bang	-12074
▁Fett	-12075
▁Lana	-12076
aution	-12077
▁Anrufe	-12078
▁Stärke	-12079
▁servant	-12080
▁unhappy	-12081
▁jederzeit	-12082
Is	-12083
bet	-12084
▁Mmm	-12085
itual	-12086
lauen	-12087
▁cand	-12088
▁site	-12089
▁Straf	-12090
▁Archer	-12091
▁Sebastian	-12092
▁CT	-12093
▁Balt	-12094
▁Prue	-12095
▁nannte	-12096
▁winner	-12097
▁Instead	-12098
▁demonst	-12099
▁aufregend	-12100
▁Beziehungen	-12101
▁pee	-12102
▁Steht	-12103
▁nerve	-12104
▁ocean	-12105
▁zwölf	-12106
reibung	-12107
▁schlug	-12108
▁tattoo	-12109
▁troops	-12110
▁Unglück	-12111
▁Baseball	-12112
▁MacGyver	-12113
▁geträumt	-12114
▁Geschenke	-12115
rade	-12116
▁tim	-12117
▁einf	-12118
▁liest	-12119
▁tears	-12120
schriften	-12121
▁hergekommen	-12122
Ja	-12123
▁sem	-12124
anche	-12125
ruhen	-12126
▁Cost	-12127
reisen	-12128
uesday	-12129
▁Olymp	-12130
▁lover	-12131
schläge	-12132
▁besche	-12133
▁therapy	-12134
▁Brooklyn	-12135
▁Thompson	-12136
▁richtiger	-12137
PS	-12138
spe	-12139
ettel	-12140
▁decl	-12141
▁fasc	-12142
▁maid	-12143
imming	-12144
schrau	-12145
▁Hütte	-12146
▁zweit	-12147
▁Butter	-12148
▁council	-12149
▁Abschied	-12150
▁Fortschr	-12151
▁aufstehen	-12152
▁verzeihen	-12153
ESS	-12154
kind	-12155
▁Nell	-12156
▁Nich	-12157
▁meal	-12158
▁Diane	-12159
▁Homer	-12160
▁Truck	-12161
▁Zweck	-12162
▁actor	-12163
▁facts	-12164
▁snake	-12165
▁Klinik	-12166
▁Transp	-12167
utzutage	-12168
▁Verstär	-12169
▁leaders	-12170
▁verschl	-12171
▁terribly	-12172
▁probieren	-12173
▁verschiedene	-12174
pet	-12175
rup	-12176
▁Flash	-12177
▁Spock	-12178
▁Faster	-12179
▁indust	-12180
▁Schiffe	-12181
▁contain	-12182
▁Schulter	-12183
▁befinden	-12184
▁Schneller	-12185
üd	-12186
ocht	-12187
antha	-12188
krieg	-12189
ünder	-12190
▁Mitt	-12191
▁aufr	-12192
▁Dylan	-12193
▁Found	-12194
▁harte	-12195
▁pilot	-12196
▁reisen	-12197
▁Vampire	-12198
▁anderem	-12199
▁Offenbar	-12200
▁Wunderbar	-12201
▁secretary	-12202
▁irgendeine	-12203
low	-12204
hyth	-12205
riet	-12206
▁Mia	-12207
▁Yep	-12208
ulous	-12209
▁Glad	-12210
▁gaben	-12211
▁Curtis	-12212
▁Klient	-12213
▁chasing	-12214
▁Kommandant	-12215
mod	-12216
wan	-12217
▁Nr	-12218
▁Lab	-12219
bares	-12220
▁Elliot	-12221
▁Grunde	-12222
▁Leitung	-12223
▁Tuesday	-12224
üp	-12225
Wie	-12226
ikt	-12227
▁1⁄	-12228
▁ded	-12229
▁Power	-12230
amotten	-12231
jenigen	-12232
▁associ	-12233
▁manche	-12234
▁präsent	-12235
▁schreit	-12236
▁Virginia	-12237
▁geöffnet	-12238
▁millions	-12239
▁sprachen	-12240
▁geschenkt	-12241
▁surveillance	-12242
▁lö	-12243
iancé	-12244
▁Hood	-12245
▁Höhe	-12246
▁eilig	-12247
▁scary	-12248
▁sweat	-12249
▁wagen	-12250
▁Morris	-12251
▁schlafe	-12252
▁Versprochen	-12253
spro	-12254
▁$10	-12255
▁kor	-12256
▁Jedi	-12257
▁Musk	-12258
▁mart	-12259
befehl	-12260
▁Juden	-12261
▁Bailey	-12262
▁agency	-12263
▁Sternen	-12264
▁Beruhige	-12265
▁Einfluss	-12266
▁bastards	-12267
▁psychiat	-12268
▁behaupten	-12269
agle	-12270
uden	-12271
▁Vie	-12272
auern	-12273
ittee	-12274
▁June	-12275
▁Euren	-12276
▁steps	-12277
▁Bauern	-12278
▁events	-12279
▁explos	-12280
▁mystery	-12281
▁Speaking	-12282
▁Veränder	-12283
▁Vermutlich	-12284
▁Unternehmen	-12285
▁instructions	-12286
öpft	-12287
▁bon	-12288
▁russ	-12289
▁Megan	-12290
▁cruel	-12291
▁jokes	-12292
▁sneak	-12293
▁period	-12294
▁professor	-12295
▁vorgestellt	-12296
▁Mam	-12297
chung	-12298
▁lügt	-12299
▁wire	-12300
▁Basis	-12301
▁unbek	-12302
▁wechseln	-12303
▁punishment	-12304
asty	-12305
itis	-12306
worth	-12307
▁Dest	-12308
▁Teen	-12309
▁dram	-12310
▁Heraus	-12311
▁batter	-12312
▁concert	-12313
▁similar	-12314
geschickt	-12315
▁vergewalt	-12316
▁Unterricht	-12317
▁remembered	-12318
So	-12319
stre	-12320
▁Eat	-12321
▁Pie	-12322
▁bone	-12323
▁Lange	-12324
▁Rocky	-12325
▁nenne	-12326
▁Affäre	-12327
▁Republ	-12328
▁Russen	-12329
▁wishes	-12330
▁capital	-12331
▁vergisst	-12332
▁September	-12333
3,	-12334
mber	-12335
ender	-12336
▁Koch	-12337
▁Many	-12338
▁beten	-12339
▁Stuart	-12340
▁heilen	-12341
▁starten	-12342
▁betrogen	-12343
▁satisfied	-12344
▁unterschreiben	-12345
TH	-12346
colm	-12347
▁rap	-12348
usive	-12349
▁Safe	-12350
▁flag	-12351
gesicht	-12352
▁Dinger	-12353
▁steigt	-12354
▁Fußball	-12355
▁engaged	-12356
▁glaubte	-12357
▁vermass	-12358
▁anfassen	-12359
▁abgehauen	-12360
ACH	-12361
▁$5	-12362
▁Cab	-12363
▁Por	-12364
▁Prep	-12365
▁concl	-12366
▁image	-12367
▁wohne	-12368
▁Anteil	-12369
▁Nicole	-12370
▁tollen	-12371
▁Deckung	-12372
▁dennoch	-12373
▁receive	-12374
▁annoying	-12375
▁separate	-12376
▁guarantee	-12377
▁5:	-12378
▁Ped	-12379
▁Cindy	-12380
▁Zerst	-12381
▁ficken	-12382
▁remove	-12383
▁dritten	-12384
▁kingdom	-12385
▁wasting	-12386
▁Könntest	-12387
▁challenge	-12388
cut	-12389
▁km	-12390
▁Beam	-12391
▁symp	-12392
▁Baker	-12393
▁Coach	-12394
▁einzu	-12395
▁liber	-12396
▁merch	-12397
▁rings	-12398
ständen	-12399
▁verges	-12400
▁Truppen	-12401
▁Verkauf	-12402
▁Princess	-12403
▁neugierig	-12404
▁pretending	-12405
▁verursacht	-12406
▁Kalifornien	-12407
obt	-12408
sack	-12409
ummy	-12410
▁Cyr	-12411
ügelt	-12412
▁Luck	-12413
▁Neue	-12414
▁cave	-12415
▁seek	-12416
idents	-12417
▁Absch	-12418
▁crown	-12419
▁Damals	-12420
▁Israel	-12421
▁Silver	-12422
▁Kartoff	-12423
▁silence	-12424
▁wachsen	-12425
▁Mitchell	-12426
▁protecting	-12427
▁überlassen	-12428
▁Krankenwagen	-12429
IST	-12430
uri	-12431
aign	-12432
▁Stolz	-12433
▁prima	-12434
▁Allein	-12435
▁Freddy	-12436
▁Schöne	-12437
▁fourth	-12438
-4	-12439
örde	-12440
▁kle	-12441
▁east	-12442
kaufen	-12443
▁Lance	-12444
▁Stift	-12445
▁fähig	-12446
▁Briefe	-12447
▁humans	-12448
▁prepar	-12449
▁rechten	-12450
▁stimmen	-12451
▁aufgefallen	-12452
AV	-12453
play	-12454
urai	-12455
wear	-12456
▁unn	-12457
kuchen	-12458
▁Passt	-12459
▁weiße	-12460
▁Furcht	-12461
▁Rechte	-12462
▁anstatt	-12463
▁terrorist	-12464
▁beigebracht	-12465
utn	-12466
▁Dec	-12467
arren	-12468
▁Hamb	-12469
▁Pool	-12470
▁Tele	-12471
▁wore	-12472
▁wartest	-12473
▁fu	-12474
cred	-12475
▁Aah	-12476
▁Kit	-12477
elegt	-12478
▁meins	-12479
▁rifle	-12480
▁dritte	-12481
▁square	-12482
▁Malcolm	-12483
▁gewisse	-12484
▁vorüber	-12485
▁Beautiful	-12486
▁Manhattan	-12487
▁Previously	-12488
▁WE	-12489
▁dipl	-12490
▁Allah	-12491
▁Daher	-12492
ierungs	-12493
▁Steele	-12494
▁arrive	-12495
▁trägst	-12496
▁hungrig	-12497
▁entrance	-12498
▁menschliche	-12499
▁Öffentlichkeit	-12500
bing	-12501
ural	-12502
▁16.	-12503
▁Low	-12504
▁cho	-12505
ampen	-12506
▁Zack	-12507
▁fett	-12508
▁purs	-12509
▁Brend	-12510
▁cerem	-12511
▁spüre	-12512
▁Promise	-12513
▁Schultz	-12514
▁protest	-12515
▁recover	-12516
▁Unmöglich	-12517
▁erschaffen	-12518
▁Albt	-12519
▁Prov	-12520
▁dirt	-12521
rohung	-12522
▁Later	-12523
▁Revier	-12524
▁Manager	-12525
▁mächtig	-12526
▁traitor	-12527
▁useless	-12528
Re	-12529
erw	-12530
fore	-12531
öser	-12532
▁AND	-12533
opfen	-12534
▁Nove	-12535
▁nail	-12536
▁Decke	-12537
▁streng	-12538
▁Gedanke	-12539
▁ancient	-12540
▁spielte	-12541
▁zwingen	-12542
▁begonnen	-12543
▁eingesperrt	-12544
▁Commissioner	-12545
osa	-12546
▁Emer	-12547
▁Mind	-12548
▁Noah	-12549
bliche	-12550
▁Chase	-12551
▁Front	-12552
▁Große	-12553
▁inher	-12554
▁Philip	-12555
▁ließen	-12556
▁script	-12557
▁shadow	-12558
▁zuhause	-12559
▁beschuld	-12560
Mar	-12561
▁Bem	-12562
▁Times	-12563
igaretten	-12564
bart	-12565
lied	-12566
ollo	-12567
▁Kub	-12568
▁Ciao	-12569
▁Eurer	-12570
▁Maske	-12571
▁Wasch	-12572
▁demons	-12573
▁gucken	-12574
▁shield	-12575
▁Grenzen	-12576
▁gewohnt	-12577
▁counting	-12578
▁Obviously	-12579
▁witnesses	-12580
▁aufgegeben	-12581
▁embarrassed	-12582
rer	-12583
dale	-12584
itet	-12585
▁gig	-12586
▁unt	-12587
▁Ronnie	-12588
▁Sünden	-12589
▁creepy	-12590
▁Sklaven	-12591
▁actions	-12592
▁article	-12593
▁counsel	-12594
▁Franklin	-12595
▁dreaming	-12596
▁honestly	-12597
▁verwandelt	-12598
rate	-12599
leans	-12600
▁Lion	-12601
▁dawn	-12602
▁marks	-12603
▁setze	-12604
▁Tucker	-12605
▁Samantha	-12606
▁newspaper	-12607
rem	-12608
▁Ian	-12609
▁sab	-12610
ieter	-12611
▁100%	-12612
▁Hamm	-12613
▁zahl	-12614
▁uncom	-12615
utieren	-12616
▁exagger	-12617
▁versich	-12618
schlossen	-12619
▁valuable	-12620
▁authority	-12621
▁Wissenschaftler	-12622
cia	-12623
gor	-12624
▁FR	-12625
eider	-12626
▁Burt	-12627
▁split	-12628
▁dealer	-12629
▁beloved	-12630
▁Verabred	-12631
▁Kilometer	-12632
▁verbrannt	-12633
▁Anscheinend	-12634
fell	-12635
road	-12636
innst	-12637
▁jerk	-12638
ubborn	-12639
▁Beide	-12640
▁Ratten	-12641
▁Tschüs	-12642
▁stammt	-12643
▁treibt	-12644
▁clients	-12645
▁erfährt	-12646
▁gehörte	-12647
▁Inspektor	-12648
▁colleagues	-12649
BER	-12650
lim	-12651
alls	-12652
▁Arg	-12653
▁Tan	-12654
▁roy	-12655
aming	-12656
▁Craw	-12657
▁Finde	-12658
▁Heißt	-12659
▁terms	-12660
▁Finanz	-12661
▁Marine	-12662
▁assure	-12663
▁Bereich	-12664
▁campaign	-12665
▁physical	-12666
▁environment	-12667
▁unglücklich	-12668
▁cy	-12669
hard	-12670
izes	-12671
antly	-12672
▁Golf	-12673
▁Camer	-12674
▁Charm	-12675
▁Hafen	-12676
▁beunr	-12677
▁thirst	-12678
▁carried	-12679
▁Director	-12680
▁unfortunately	-12681
sta	-12682
▁brä	-12683
erehr	-12684
▁Etwa	-12685
schild	-12686
▁Pablo	-12687
▁flower	-12688
▁leiten	-12689
▁beating	-12690
▁besides	-12691
▁cheating	-12692
▁Deutschen	-12693
▁Einladung	-12694
▁impressive	-12695
bad	-12696
bass	-12697
water	-12698
▁Erik	-12699
▁Feel	-12700
▁Horn	-12701
▁Fight	-12702
▁Ersatz	-12703
▁bestätigt	-12704
▁impressed	-12705
öm	-12706
▁Maf	-12707
▁Tief	-12708
▁Verz	-12709
▁bars	-12710
▁Conrad	-12711
sequences	-12712
▁Indianer	-12713
▁suspicious	-12714
ran	-12715
▁Nan	-12716
äuber	-12717
▁Book	-12718
▁Left	-12719
gebild	-12720
▁Lloyd	-12721
▁Peggy	-12722
▁lacht	-12723
▁sorge	-12724
▁bitter	-12725
▁chamber	-12726
▁Beeilung	-12727
opft	-12728
▁gym	-12729
▁Anze	-12730
▁Eigen	-12731
▁Tests	-12732
▁broad	-12733
▁instr	-12734
▁clinic	-12735
▁warnen	-12736
▁worauf	-12737
▁Orleans	-12738
▁kontakt	-12739
▁November	-12740
▁Sprechen	-12741
▁offering	-12742
grö	-12743
ova	-12744
▁Mei	-12745
sters	-12746
▁Fehl	-12747
▁tent	-12748
▁Craig	-12749
▁Monro	-12750
▁Studio	-12751
▁highly	-12752
fortable	-12753
onscious	-12754
▁appears	-12755
▁Offizier	-12756
▁Stimmung	-12757
HN	-12758
▁Ky	-12759
eins	-12760
utch	-12761
▁Chap	-12762
▁asks	-12763
aneben	-12764
▁piano	-12765
inating	-12766
▁Passen	-12767
▁Später	-12768
▁geschm	-12769
▁pattern	-12770
▁warrant	-12771
▁suffered	-12772
▁beeindruckt	-12773
▁kennenlernen	-12774
wolf	-12775
▁Hump	-12776
ierter	-12777
▁Worum	-12778
▁drück	-12779
▁youth	-12780
▁Schreib	-12781
▁Realität	-12782
alo	-12783
ango	-12784
ramm	-12785
acted	-12786
icked	-12787
▁Owen	-12788
▁Pent	-12789
▁speaks	-12790
▁Sandwich	-12791
▁begeistert	-12792
Wenn	-12793
händ	-12794
riel	-12795
umor	-12796
wahl	-12797
▁Him	-12798
atoes	-12799
irmed	-12800
▁Gill	-12801
▁Magst	-12802
▁Clarke	-12803
▁elevator	-12804
▁beschützt	-12805
umn	-12806
▁Il	-12807
▁Leb	-12808
▁pir	-12809
ounce	-12810
▁Gene	-12811
▁Harv	-12812
▁heft	-12813
▁Clear	-12814
▁consequences	-12815
ups	-12816
ousy	-12817
ashed	-12818
ündigt	-12819
▁Prote	-12820
▁fully	-12821
▁squad	-12822
▁current	-12823
ekte	-12824
▁Krä	-12825
▁souls	-12826
▁Antrag	-12827
▁Turner	-12828
▁regeln	-12829
▁hübsche	-12830
▁Jungfrau	-12831
▁angreifen	-12832
▁Zigaretten	-12833
LA	-12834
My	-12835
adet	-12836
emal	-12837
pers	-12838
▁Mack	-12839
leiter	-12840
▁Diana	-12841
▁entsp	-12842
▁leise	-12843
▁proced	-12844
▁Findest	-12845
▁gewöhnt	-12846
▁eindeutig	-12847
▁testimony	-12848
▁_	-12849
cre	-12850
▁Ts	-12851
iegt	-12852
race	-12853
▁11:	-12854
▁Zwer	-12855
▁Schick	-12856
▁strugg	-12857
▁greifen	-12858
▁madness	-12859
▁versagt	-12860
▁gekämpft	-12861
▁weakness	-12862
▁confession	-12863
hi	-12864
oked	-12865
▁Moo	-12866
▁bury	-12867
▁wins	-12868
gleich	-12869
▁worum	-12870
erstoff	-12871
▁latest	-12872
▁geküsst	-12873
▁injured	-12874
▁Certainly	-12875
?!	-12876
▁flew	-12877
▁noon	-12878
▁sink	-12879
ickelt	-12880
▁Thron	-12881
▁coast	-12882
▁flies	-12883
achtung	-12884
glichen	-12885
▁Nation	-12886
▁Trauer	-12887
▁Tunnel	-12888
▁fiancé	-12889
▁reiten	-12890
▁Company	-12891
▁laundry	-12892
▁schulde	-12893
▁negative	-12894
▁explosion	-12895
▁vernünftig	-12896
no	-12897
adel	-12898
▁ehe	-12899
recke	-12900
▁Chir	-12901
▁Emil	-12902
▁Mona	-12903
▁poet	-12904
▁Bulle	-12905
▁Prime	-12906
▁beibr	-12907
▁shown	-12908
▁sides	-12909
▁bequem	-12910
▁rehears	-12911
▁volunte	-12912
▁verurteilt	-12913
ello	-12914
etit	-12915
▁Cry	-12916
▁Chen	-12917
▁holy	-12918
▁Gehst	-12919
▁fange	-12920
▁Donald	-12921
▁Fieber	-12922
▁altern	-12923
▁gesteckt	-12924
▁Verfügung	-12925
7,	-12926
▁Bol	-12927
▁Gau	-12928
krank	-12929
▁Live	-12930
▁glor	-12931
fläche	-12932
gruppe	-12933
▁Lydia	-12934
▁verär	-12935
▁Glücks	-12936
▁Kosten	-12937
▁Nigger	-12938
▁Sterne	-12939
▁Sterben	-12940
▁Dienstag	-12941
▁accepted	-12942
▁attitude	-12943
▁ordinary	-12944
▁criminals	-12945
isis	-12946
jahr	-12947
▁Pin	-12948
ansas	-12949
pfern	-12950
weite	-12951
▁grie	-12952
▁pupp	-12953
keeper	-12954
zieren	-12955
▁Gerät	-12956
▁skull	-12957
▁Couldn	-12958
▁Sozial	-12959
▁histor	-12960
▁sports	-12961
▁testify	-12962
▁Kindheit	-12963
▁Reporter	-12964
▁anhalten	-12965
▁hässlich	-12966
▁reported	-12967
▁Ernsthaft	-12968
▁Identität	-12969
bi	-12970
uns	-12971
othy	-12972
▁pit	-12973
okoll	-12974
▁lion	-12975
▁zero	-12976
▁songs	-12977
gekehrt	-12978
▁Hunter	-12979
▁allerg	-12980
gefallen	-12981
gerechnet	-12982
▁Verdacht	-12983
▁Bi	-12984
eill	-12985
wesen	-12986
▁Eher	-12987
▁Selt	-12988
▁bills	-12989
▁Kugeln	-12990
▁weisst	-12991
▁Welchen	-12992
▁Material	-12993
▁baseball	-12994
▁Definitely	-12995
▁AR	-12996
rüst	-12997
yard	-12998
▁Kay	-12999
ölker	-13000
▁bust	-13001
▁wolf	-13002
▁Direkt	-13003
▁writer	-13004
ächtiger	-13005
▁schwere	-13006
▁systems	-13007
▁verließ	-13008
▁Arbeiten	-13009
▁begangen	-13010
▁las	-13011
ivery	-13012
▁Want	-13013
▁ment	-13014
▁tritt	-13015
ordnung	-13016
▁Cowboy	-13017
▁widers	-13018
▁Schnitt	-13019
▁schießt	-13020
▁zusehen	-13021
▁customers	-13022
▁Widerstand	-13023
cen	-13024
ibal	-13025
anced	-13026
▁wave	-13027
▁Morde	-13028
▁Pater	-13029
▁Sandy	-13030
▁Vanessa	-13031
▁einladen	-13032
grü	-13033
club	-13034
▁ego	-13035
bringt	-13036
▁lernt	-13037
▁forgiven	-13038
▁Verteidigung	-13039
pie	-13040
▁elekt	-13041
▁tricks	-13042
▁voices	-13043
▁Miranda	-13044
▁herunter	-13045
▁schenken	-13046
gesprochen	-13047
▁Gouverneur	-13048
▁normalerweise	-13049
dies	-13050
▁Cob	-13051
▁Ira	-13052
▁Rog	-13053
annen	-13054
ammelt	-13055
▁Glenn	-13056
▁Thurs	-13057
▁clown	-13058
▁Eigent	-13059
astrophe	-13060
▁advance	-13061
▁rausfinden	-13062
ulu	-13063
etta	-13064
reed	-13065
rict	-13066
▁Wus	-13067
iments	-13068
▁Blake	-13069
▁Osten	-13070
▁Staub	-13071
▁Zeuge	-13072
▁suits	-13073
▁trace	-13074
▁Bisher	-13075
▁attend	-13076
▁hinweg	-13077
▁mental	-13078
▁Prepare	-13079
▁beeinfl	-13080
▁greater	-13081
▁network	-13082
▁pushing	-13083
▁standen	-13084
▁unknown	-13085
▁Besitzer	-13086
▁absolute	-13087
▁anbieten	-13088
▁Anweisungen	-13089
▁Ve	-13090
hört	-13091
▁1⁄4	-13092
▁Sea	-13093
steht	-13094
▁ausl	-13095
▁rank	-13096
ohnung	-13097
ammlung	-13098
▁Museum	-13099
▁affect	-13100
ijah	-13101
ingu	-13102
▁auff	-13103
rengen	-13104
umente	-13105
▁mechan	-13106
▁Heather	-13107
▁Spieler	-13108
▁bestehen	-13109
▁Hauptmann	-13110
▁ID	-13111
▁Heh	-13112
▁Bond	-13113
▁Dunk	-13114
▁Salz	-13115
indert	-13116
▁Isabe	-13117
▁belly	-13118
▁commer	-13119
▁supply	-13120
▁verliere	-13121
▁cigarette	-13122
▁bestätigen	-13123
▁Nol	-13124
▁dun	-13125
arian	-13126
astet	-13127
owski	-13128
rauen	-13129
▁Fris	-13130
▁Renn	-13131
▁Weit	-13132
▁thin	-13133
garten	-13134
▁Aktiv	-13135
▁Blitz	-13136
▁Claud	-13137
▁Leist	-13138
▁Monroe	-13139
▁farmer	-13140
▁harass	-13141
▁billion	-13142
▁Gerichts	-13143
▁Interest	-13144
▁Stephanie	-13145
▁Offensichtlich	-13146
izz	-13147
alth	-13148
▁Prop	-13149
▁nutz	-13150
▁ware	-13151
▁Crazy	-13152
▁Liter	-13153
▁Rauch	-13154
▁Wüste	-13155
▁route	-13156
▁stake	-13157
▁Elijah	-13158
▁Fabrik	-13159
▁Louise	-13160
▁nahmen	-13161
schafter	-13162
▁Fahrrad	-13163
▁Unrecht	-13164
▁bullets	-13165
▁trocken	-13166
▁connected	-13167
▁erschreckt	-13168
▁verschwand	-13169
Nein	-13170
ankt	-13171
gner	-13172
prob	-13173
▁ext	-13174
istry	-13175
person	-13176
▁Jonas	-13177
▁chain	-13178
▁Diener	-13179
▁burden	-13180
▁führte	-13181
▁ziehst	-13182
▁Looking	-13183
▁Spencer	-13184
▁costume	-13185
▁customer	-13186
▁erfüllen	-13187
▁instinct	-13188
▁Klamotten	-13189
▁Behandlung	-13190
▁freiwillig	-13191
nth	-13192
izei	-13193
▁18.	-13194
▁Kel	-13195
äufig	-13196
▁Graf	-13197
▁Year	-13198
▁tiny	-13199
uschen	-13200
ümmert	-13201
▁Adrian	-13202
▁Suchen	-13203
▁albern	-13204
▁beherr	-13205
ünktlich	-13206
▁Through	-13207
▁hundert	-13208
▁Stellung	-13209
▁passport	-13210
▁strangers	-13211
▁Schreibtisch	-13212
wr	-13213
lik	-13214
▁IS	-13215
ooth	-13216
▁Bär	-13217
▁Stab	-13218
▁jury	-13219
▁Mikro	-13220
▁metal	-13221
▁stets	-13222
▁Andere	-13223
▁Gehalt	-13224
▁verein	-13225
▁gemerkt	-13226
▁monitor	-13227
▁besiegen	-13228
▁specific	-13229
▁surrounded	-13230
Hey	-13231
load	-13232
nder	-13233
oine	-13234
▁Lhr	-13235
gener	-13236
igend	-13237
änner	-13238
▁Iris	-13239
▁Nora	-13240
▁Plus	-13241
▁Reis	-13242
▁Shaw	-13243
▁Sich	-13244
▁lauf	-13245
▁Ashley	-13246
▁erstaun	-13247
▁großzüg	-13248
▁steckst	-13249
▁stubborn	-13250
4,	-13251
liot	-13252
▁ohn	-13253
▁sche	-13254
▁Being	-13255
▁Clown	-13256
▁Teile	-13257
▁jewel	-13258
▁hundreds	-13259
▁occasion	-13260
▁Schreiben	-13261
▁Valentine	-13262
ls	-13263
oli	-13264
tery	-13265
▁Bir	-13266
▁Fat	-13267
▁Kür	-13268
▁abl	-13269
▁Read	-13270
▁phil	-13271
▁wide	-13272
schafts	-13273
▁Marion	-13274
▁Reisen	-13275
▁faszin	-13276
▁origin	-13277
▁Abenteuer	-13278
sie	-13279
▁Dark	-13280
▁Neil	-13281
▁Zone	-13282
▁anti	-13283
bewerb	-13284
▁Bruno	-13285
▁Janet	-13286
▁Kennt	-13287
▁Wrong	-13288
▁cheat	-13289
▁Brille	-13290
▁Coffee	-13291
▁Fangen	-13292
▁Glaube	-13293
gewiesen	-13294
▁regular	-13295
▁rauskommen	-13296
ez	-13297
ming	-13298
▁laid	-13299
▁rund	-13300
▁trem	-13301
......	-13302
▁Hanna	-13303
▁Speak	-13304
▁moder	-13305
▁notes	-13306
▁fellow	-13307
▁Lektion	-13308
▁library	-13309
▁riechen	-13310
▁worüber	-13311
▁äußerst	-13312
▁carrying	-13313
▁verflucht	-13314
▁durchgemacht	-13315
loy	-13316
yon	-13317
▁Web	-13318
offen	-13319
▁1000	-13320
uellen	-13321
utnant	-13322
▁Brenn	-13323
▁Clara	-13324
▁sheep	-13325
▁mostly	-13326
▁fressen	-13327
▁magazine	-13328
▁Angestell	-13329
▁eventually	-13330
▁Ay	-13331
▁Ga	-13332
wife	-13333
▁Dim	-13334
▁Conc	-13335
▁hits	-13336
▁rote	-13337
▁Wyatt	-13338
▁minds	-13339
▁verbl	-13340
fleisch	-13341
▁Bridge	-13342
▁packen	-13343
▁express	-13344
▁Feigling	-13345
▁einziger	-13346
▁schedule	-13347
▁Jefferson	-13348
▁übernehme	-13349
DE	-13350
▁Ei	-13351
▁bau	-13352
apers	-13353
okrat	-13354
▁Pfle	-13355
▁chap	-13356
cience	-13357
gebaut	-13358
▁Löwen	-13359
▁Motiv	-13360
▁Parte	-13361
▁boxes	-13362
▁rocks	-13363
▁surge	-13364
▁woran	-13365
▁unheim	-13366
▁monsters	-13367
▁particular	-13368
▁verzweifelt	-13369
ario	-13370
rier	-13371
üten	-13372
izens	-13373
▁Ruby	-13374
▁diagn	-13375
▁mutig	-13376
▁trotz	-13377
▁Indust	-13378
▁beläst	-13379
▁produc	-13380
▁Brauchst	-13381
EST	-13382
IER	-13383
oen	-13384
fish	-13385
olds	-13386
▁Lob	-13387
innie	-13388
▁Wasn	-13389
▁winz	-13390
▁draus	-13391
▁überl	-13392
▁bewund	-13393
▁bloody	-13394
geschäft	-13395
▁Cameron	-13396
▁offense	-13397
▁anscheinend	-13398
▁Bub	-13399
▁bump	-13400
▁cage	-13401
▁orph	-13402
flicht	-13403
▁Judge	-13404
▁Press	-13405
▁Statt	-13406
▁Whose	-13407
▁Silber	-13408
▁Titten	-13409
▁Technik	-13410
antwortet	-13411
▁helicopter	-13412
Fl	-13413
aro	-13414
vous	-13415
▁FOR	-13416
▁Joan	-13417
ichter	-13418
verage	-13419
▁Motel	-13420
▁stinkt	-13421
▁ability	-13422
▁pulling	-13423
▁underwear	-13424
rain	-13425
onica	-13426
örter	-13427
▁cart	-13428
▁Order	-13429
▁Spitz	-13430
▁Ferien	-13431
▁Kandid	-13432
▁tolles	-13433
indungen	-13434
▁smoking	-13435
▁waschen	-13436
▁Thursday	-13437
▁empfangen	-13438
▁intention	-13439
▁differently	-13440
erm	-13441
ürt	-13442
▁gal	-13443
▁seg	-13444
otzen	-13445
▁deck	-13446
▁lege	-13447
▁Klink	-13448
▁Tasse	-13449
▁fixed	-13450
mitteln	-13451
▁Hector	-13452
▁Schluck	-13453
▁unangen	-13454
▁slaughter	-13455
▁invitation	-13456
▁recognized	-13457
▁appropriate	-13458
aru	-13459
elta	-13460
frei	-13461
öder	-13462
▁195	-13463
itors	-13464
▁Fach	-13465
▁Hawa	-13466
▁kost	-13467
▁virt	-13468
locken	-13469
▁Romeo	-13470
▁Satan	-13471
▁Weißen	-13472
▁wounds	-13473
▁Vorteil	-13474
▁managed	-13475
▁verabschieden	-13476
▁75	-13477
klen	-13478
▁Esc	-13479
inkel	-13480
schirm	-13481
▁Small	-13482
▁occur	-13483
▁title	-13484
▁tower	-13485
▁Geruch	-13486
▁Motorr	-13487
▁Temper	-13488
▁ungern	-13489
▁Milliar	-13490
▁musstest	-13491
▁Verstärkung	-13492
If	-13493
▁CO	-13494
zieh	-13495
▁Exc	-13496
▁dün	-13497
▁Iren	-13498
▁bitt	-13499
▁männ	-13500
▁pride	-13501
▁Johann	-13502
▁Palast	-13503
▁Richie	-13504
▁Summer	-13505
▁patrol	-13506
▁Hättest	-13507
▁Mitleid	-13508
▁berührt	-13509
▁whiskey	-13510
▁Ewigkeit	-13511
▁cleaning	-13512
▁Diamanten	-13513
▁Kühlschrank	-13514
▁â	-13515
atory	-13516
▁News	-13517
ighters	-13518
rüstung	-13519
ulieren	-13520
▁Benzin	-13521
▁Reicht	-13522
▁Zeigen	-13523
▁tunnel	-13524
▁Fremden	-13525
▁besitzt	-13526
▁becoming	-13527
▁versprechen	-13528
ALL	-13529
▁Agn	-13530
▁ess	-13531
igner	-13532
▁Seil	-13533
▁hack	-13534
klagen	-13535
reiche	-13536
▁Royal	-13537
▁Hinweis	-13538
▁messages	-13539
▁mistress	-13540
▁Umständen	-13541
▁Universum	-13542
hmm	-13543
▁Kai	-13544
▁rib	-13545
cture	-13546
itory	-13547
▁Turk	-13548
orenen	-13549
▁Lemon	-13550
▁freie	-13551
▁lousy	-13552
▁shell	-13553
vertrau	-13554
▁crimes	-13555
ications	-13556
▁gewissen	-13557
▁ordentlich	-13558
▁construction	-13559
▁misunderstand	-13560
▁uncomfortable	-13561
fun	-13562
gut	-13563
gren	-13564
otes	-13565
rand	-13566
sens	-13567
viet	-13568
▁Lut	-13569
▁lif	-13570
▁mob	-13571
utral	-13572
ämmer	-13573
▁Budd	-13574
▁Cord	-13575
▁Nine	-13576
▁pigs	-13577
leidet	-13578
nummer	-13579
▁volle	-13580
▁loving	-13581
▁wallet	-13582
▁Bennett	-13583
▁Gabriel	-13584
▁Grayson	-13585
▁pleasant	-13586
▁Schlimmer	-13587
0,	-13588
imi	-13589
▁Chip	-13590
▁Dall	-13591
▁Fish	-13592
▁Nahr	-13593
▁rang	-13594
▁Ellie	-13595
zusagen	-13596
▁circle	-13597
▁rabbit	-13598
▁Schönen	-13599
▁version	-13600
▁Schritte	-13601
▁identify	-13602
▁Ax	-13603
illo	-13604
▁13.	-13605
▁Oct	-13606
▁Harm	-13607
▁welt	-13608
▁Keith	-13609
▁Harper	-13610
▁forbidden	-13611
▁angestellt	-13612
▁vorbereiten	-13613
wie	-13614
▁Pul	-13615
▁zone	-13616
▁Mauer	-13617
▁Nicky	-13618
▁Caesar	-13619
▁Keinen	-13620
▁Ehefrau	-13621
▁Friends	-13622
▁Harvard	-13623
▁Melissa	-13624
▁balance	-13625
▁crossed	-13626
▁erkläre	-13627
▁Gemeinde	-13628
▁einziges	-13629
▁Bedrohung	-13630
▁Interessant	-13631
obal	-13632
oden	-13633
▁puts	-13634
artner	-13635
▁Bates	-13636
▁Helft	-13637
▁Imper	-13638
▁guilt	-13639
▁melde	-13640
steller	-13641
▁trinkt	-13642
anischen	-13643
▁Alexand	-13644
▁Collins	-13645
▁Fliegen	-13646
▁sammeln	-13647
▁identity	-13648
▁decisions	-13649
▁potential	-13650
Bl	-13651
ARD	-13652
rid	-13653
baum	-13654
gibt	-13655
ieße	-13656
aktiv	-13657
icing	-13658
rison	-13659
▁golf	-13660
▁Alten	-13661
▁Boris	-13662
▁Drama	-13663
▁ideal	-13664
▁Diesen	-13665
▁Duncan	-13666
▁Fresse	-13667
▁Stevie	-13668
▁bedeut	-13669
▁headed	-13670
▁rennen	-13671
▁Vergleich	-13672
▁Untertitel	-13673
iki	-13674
▁Cur	-13675
▁rev	-13676
▁Anti	-13677
▁Kons	-13678
▁erklär	-13679
▁inspir	-13680
▁Russell	-13681
igarettes	-13682
schwester	-13683
▁wherever	-13684
onse	-13685
uous	-13686
▁Uni	-13687
kraft	-13688
ältst	-13689
▁Burg	-13690
▁sharp	-13691
▁Batman	-13692
▁Gegner	-13693
▁filthy	-13694
▁Führung	-13695
▁Kleinen	-13696
▁fashion	-13697
▁vampires	-13698
▁creatures	-13699
inte	-13700
▁Goa	-13701
▁SMS	-13702
▁bem	-13703
urtle	-13704
▁Fing	-13705
▁Weib	-13706
▁gain	-13707
▁obey	-13708
▁Bundy	-13709
▁engag	-13710
▁trunk	-13711
▁Apollo	-13712
▁Empire	-13713
▁Miguel	-13714
▁Posten	-13715
▁disaster	-13716
öch	-13717
ößt	-13718
▁AT	-13719
▁ME	-13720
burn	-13721
oner	-13722
pherd	-13723
ussion	-13724
▁score	-13725
▁beteil	-13726
▁wander	-13727
▁cooking	-13728
▁weshalb	-13729
▁exhausted	-13730
▁verwenden	-13731
▁Kanz	-13732
▁zahlt	-13733
▁Hätten	-13734
▁Therap	-13735
▁feuern	-13736
▁insult	-13737
▁bedroht	-13738
▁landing	-13739
▁designed	-13740
▁Transport	-13741
▁Schlimmste	-13742
oni	-13743
herz	-13744
ägen	-13745
▁Push	-13746
▁blut	-13747
ereien	-13748
▁landed	-13749
▁Klavier	-13750
▁Children	-13751
▁entfernen	-13752
▁Schwachsinn	-13753
▁Fä	-13754
▁HE	-13755
bein	-13756
plex	-13757
züge	-13758
▁exit	-13759
▁loan	-13760
reitet	-13761
▁Miete	-13762
▁fleet	-13763
▁Ausgang	-13764
▁Humphre	-13765
▁plastic	-13766
▁ceremony	-13767
▁blackmail	-13768
▁shy	-13769
▁Marsh	-13770
▁folks	-13771
▁lügst	-13772
▁Penner	-13773
▁Satell	-13774
▁breaks	-13775
▁manage	-13776
▁berühmt	-13777
schrauber	-13778
6,	-13779
osex	-13780
othe	-13781
▁Jar	-13782
▁Sug	-13783
ziert	-13784
▁Bree	-13785
▁Juli	-13786
▁subst	-13787
▁whist	-13788
▁tracks	-13789
▁violent	-13790
▁bestraft	-13791
▁studying	-13792
▁wertvoll	-13793
All	-13794
ahrt	-13795
roph	-13796
▁Gis	-13797
▁Wit	-13798
▁ast	-13799
▁max	-13800
swert	-13801
weist	-13802
▁Chan	-13803
▁Dale	-13804
▁enth	-13805
▁Doyle	-13806
▁arrog	-13807
▁glück	-13808
▁singt	-13809
▁Deputy	-13810
▁gering	-13811
▁hilfst	-13812
ayed	-13813
eton	-13814
▁Wra	-13815
▁ras	-13816
icles	-13817
ppelt	-13818
▁Carm	-13819
▁flat	-13820
▁furn	-13821
▁sollt	-13822
▁womit	-13823
liothek	-13824
▁Nieder	-13825
▁Stücke	-13826
▁jünger	-13827
▁replace	-13828
▁Tradition	-13829
▁bestellen	-13830
▁commercial	-13831
▁Wirklichkeit	-13832
eta	-13833
öses	-13834
▁14.	-13835
▁Bog	-13836
▁Use	-13837
▁nep	-13838
▁Monk	-13839
▁econ	-13840
▁fröh	-13841
▁Bäume	-13842
▁Mäuse	-13843
▁Spitze	-13844
▁beschw	-13845
▁fights	-13846
▁kämpft	-13847
▁series	-13848
zeichnen	-13849
▁facility	-13850
▁Miststück	-13851
▁answering	-13852
▁erwischen	-13853
▁vergangen	-13854
▁informiert	-13855
eb	-13856
ares	-13857
▁Tok	-13858
anners	-13859
▁Asche	-13860
▁Crist	-13861
▁merkt	-13862
▁Bishop	-13863
▁Manuel	-13864
▁crisis	-13865
▁Meeting	-13866
▁provide	-13867
▁besessen	-13868
▁delivery	-13869
▁Christine	-13870
Sp	-13871
zia	-13872
▁ca	-13873
cest	-13874
▁Bou	-13875
▁Suz	-13876
issar	-13877
▁Dist	-13878
▁onto	-13879
▁Füßen	-13880
▁Weiße	-13881
▁Zusch	-13882
▁Sharon	-13883
▁nachzu	-13884
▁species	-13885
▁paranoid	-13886
udd	-13887
prim	-13888
▁Alm	-13889
▁Eli	-13890
adder	-13891
front	-13892
waffe	-13893
▁Khan	-13894
▁Cathy	-13895
▁Afrika	-13896
▁Rätsel	-13897
▁resign	-13898
▁closing	-13899
▁hurting	-13900
schneiden	-13901
▁Anderson	-13902
▁schwerer	-13903
▁Apartment	-13904
▁Fingerabdrücke	-13905
▁$4	-13906
▁Breat	-13907
▁distra	-13908
▁urgent	-13909
▁bestens	-13910
▁Arbeiter	-13911
▁programm	-13912
▁Zigarette	-13913
▁verrückte	-13914
▁collection	-13915
▁conscience	-13916
chi	-13917
spl	-13918
▁91	-13919
▁Py	-13920
gins	-13921
▁Anh	-13922
verly	-13923
▁Gina	-13924
▁Kilo	-13925
▁Rosa	-13926
▁Tabl	-13927
▁drank	-13928
▁solch	-13929
vention	-13930
▁Deinen	-13931
▁candid	-13932
▁hunter	-13933
▁suchte	-13934
▁thrown	-13935
ordinary	-13936
▁fighter	-13937
▁Spielzeug	-13938
▁überfallen	-13939
elyn	-13940
emat	-13941
rage	-13942
▁Brig	-13943
▁Null	-13944
▁Pfei	-13945
ombies	-13946
▁Denkt	-13947
▁Jules	-13948
▁Konto	-13949
▁Linie	-13950
▁Womit	-13951
ikation	-13952
▁Luckily	-13953
▁negotiate	-13954
▁incredibly	-13955
▁2-	-13956
▁Dig	-13957
▁Isa	-13958
▁rut	-13959
asted	-13960
illon	-13961
▁Söhne	-13962
▁awful	-13963
etektiv	-13964
ützlich	-13965
▁Gepäck	-13966
▁Kellner	-13967
▁verwendet	-13968
▁determined	-13969
▁verarschen	-13970
▁imagination	-13971
see	-13972
▁42	-13973
stic	-13974
word	-13975
neten	-13976
verse	-13977
▁engl	-13978
gedreht	-13979
▁schaue	-13980
▁Allison	-13981
▁liefern	-13982
▁Rückkehr	-13983
▁liebsten	-13984
▁Studenten	-13985
▁television	-13986
▁Verabredung	-13987
▁Einverstanden	-13988
8,	-13989
OK	-13990
This	-13991
eila	-13992
resh	-13993
▁aust	-13994
urufen	-13995
▁Relig	-13996
▁defin	-13997
▁Sudden	-13998
▁heirat	-13999
▁tempor	-14000
aufgaben	-14001
chnungen	-14002
▁Schönes	-14003
▁reminds	-14004
▁workers	-14005
▁Interview	-14006
▁ausziehen	-14007
bour	-14008
.000.	-14009
boden	-14010
feuer	-14011
lager	-14012
▁Arab	-14013
zentrum	-14014
▁ghosts	-14015
▁silent	-14016
▁strict	-14017
▁würdet	-14018
▁gehörst	-14019
▁schaden	-14020
▁childhood	-14021
lai	-14022
eiße	-14023
▁Saw	-14024
▁Tap	-14025
▁Zit	-14026
leute	-14027
▁Afgh	-14028
▁Satz	-14029
▁salt	-14030
bergen	-14031
▁kaufe	-14032
▁Tanner	-14033
▁gelöst	-14034
▁hiermit	-14035
▁disappoint	-14036
▁Terroristen	-14037
▁Übersetzung	-14038
▁Rö	-14039
erve	-14040
igel	-14041
▁Salv	-14042
ingham	-14043
▁cells	-14044
▁chase	-14045
▁Instit	-14046
▁wenige	-14047
▁ausgest	-14048
▁Aufnahme	-14049
▁Donnerst	-14050
▁Erinnern	-14051
▁distract	-14052
▁infected	-14053
▁schläfst	-14054
verständnis	-14055
▁Mitarbeiter	-14056
▁Leidenschaft	-14057
▁9.	-14058
otzt	-14059
▁Buy	-14060
ragend	-14061
▁nehmt	-14062
▁Leslie	-14063
▁attacks	-14064
▁daneben	-14065
▁individ	-14066
▁screams	-14067
▁Ergebnis	-14068
▁studiert	-14069
▁angezogen	-14070
▁basically	-14071
setz	-14072
▁Nav	-14073
▁Raub	-14074
sprung	-14075
▁alert	-14076
▁traur	-14077
▁Carmen	-14078
▁Scheint	-14079
▁hitting	-14080
▁richten	-14081
▁Russians	-14082
▁Sekretär	-14083
▁brachten	-14084
HR	-14085
arts	-14086
look	-14087
appen	-14088
▁Zirk	-14089
▁coff	-14090
zahlen	-14091
▁Ursache	-14092
▁Hospital	-14093
▁punished	-14094
00.	-14095
ürf	-14096
▁',	-14097
aver	-14098
▁Ama	-14099
▁Kut	-14100
▁Lam	-14101
▁deb	-14102
▁Kath	-14103
▁Mail	-14104
▁dial	-14105
▁rail	-14106
ankind	-14107
▁Taten	-14108
waschen	-14109
▁Hatten	-14110
▁Lester	-14111
▁gehöre	-14112
▁tastes	-14113
aufnahme	-14114
▁normale	-14115
▁Belohnung	-14116
IZ	-14117
aft	-14118
dert	-14119
▁Gor	-14120
▁Ign	-14121
ianer	-14122
▁Vera	-14123
▁Könnt	-14124
▁Fische	-14125
▁bezahl	-14126
▁genial	-14127
▁Störung	-14128
▁removed	-14129
▁bewahren	-14130
▁Abmachung	-14131
▁miserable	-14132
▁schreckliche	-14133
ITT	-14134
len	-14135
erte	-14136
uate	-14137
▁tur	-14138
maßen	-14139
usten	-14140
▁muse	-14141
reffen	-14142
▁Italy	-14143
oration	-14144
▁einget	-14145
▁Council	-14146
▁Kennedy	-14147
▁tausend	-14148
▁Humphrey	-14149
▁Irgendwo	-14150
▁disagree	-14151
▁entertain	-14152
bow	-14153
das	-14154
▁8.	-14155
eibe	-14156
ilde	-14157
shot	-14158
sive	-14159
▁Laß	-14160
▁Kane	-14161
▁Rang	-14162
▁Stal	-14163
▁Whis	-14164
▁Ausge	-14165
▁bound	-14166
▁Arnold	-14167
▁Schrei	-14168
▁hörten	-14169
▁option	-14170
▁rescue	-14171
▁Ausweis	-14172
▁Natalie	-14173
▁brennen	-14174
▁lunatic	-14175
lace	-14176
rede	-14177
utor	-14178
zure	-14179
▁elf	-14180
▁Neun	-14181
▁edge	-14182
▁Passag	-14183
▁Steine	-14184
▁Teller	-14185
▁veröff	-14186
▁virgin	-14187
▁vehicle	-14188
▁Gerüchte	-14189
▁beruhigt	-14190
▁developed	-14191
eal	-14192
▁EN	-14193
ardo	-14194
▁Mai	-14195
iable	-14196
öscht	-14197
▁Rabb	-14198
▁duck	-14199
▁ersp	-14200
▁glory	-14201
▁Helena	-14202
▁hammer	-14203
▁nerves	-14204
▁zeigte	-14205
▁Ausdruck	-14206
▁particul	-14207
▁recording	-14208
UF	-14209
sky	-14210
zel	-14211
umph	-14212
▁Cad	-14213
▁Tepp	-14214
▁dunk	-14215
▁Bitch	-14216
▁babys	-14217
▁persu	-14218
▁Worten	-14219
▁satell	-14220
▁verhalten	-14221
RAU	-14222
▁Fly	-14223
▁Nag	-14224
ehrte	-14225
▁bail	-14226
▁dreh	-14227
utzend	-14228
▁Elvis	-14229
▁Sagte	-14230
änglich	-14231
▁nephew	-14232
▁Roboter	-14233
▁precious	-14234
▁Hurensohn	-14235
verk	-14236
aches	-14237
agers	-14238
lecht	-14239
▁reser	-14240
istence	-14241
▁Konzentr	-14242
▁schließt	-14243
▁angelogen	-14244
▁organization	-14245
atzen	-14246
klagt	-14247
loser	-14248
prech	-14249
▁Grie	-14250
▁brav	-14251
▁gott	-14252
▁ward	-14253
▁wund	-14254
gänger	-14255
levant	-14256
▁Figur	-14257
▁Wunde	-14258
▁Wusst	-14259
▁steig	-14260
▁zahle	-14261
ability	-14262
▁Flügel	-14263
▁vieles	-14264
▁zugest	-14265
▁selfish	-14266
▁Geräusch	-14267
▁homework	-14268
idt	-14269
▁Om	-14270
ritt	-14271
▁Cub	-14272
schst	-14273
uters	-14274
▁Bird	-14275
▁Büch	-14276
▁Eile	-14277
▁Supp	-14278
▁Walk	-14279
▁blew	-14280
▁eleg	-14281
▁pant	-14282
▁Stick	-14283
▁sport	-14284
▁fright	-14285
▁addition	-14286
▁ausruhen	-14287
▁attractive	-14288
▁Interesting	-14289
sect	-14290
▁Row	-14291
onent	-14292
▁pour	-14293
brannt	-14294
zeiten	-14295
▁weich	-14296
▁Esther	-14297
▁palace	-14298
▁flatter	-14299
▁verlasse	-14300
▁aufgetaucht	-14301
iß	-14302
eler	-14303
urer	-14304
▁Pfad	-14305
▁befol	-14306
▁bösen	-14307
▁zusch	-14308
otograf	-14309
▁Coming	-14310
▁Schach	-14311
▁Zeitungen	-14312
▁experienced	-14313
▁Ul	-14314
eleg	-14315
ippt	-14316
rows	-14317
▁17.	-14318
▁akt	-14319
▁Buddy	-14320
▁fence	-14321
▁Agreed	-14322
▁rächen	-14323
zumachen	-14324
▁aufgesch	-14325
▁invented	-14326
▁besondere	-14327
▁erscheint	-14328
▁approaching	-14329
asi	-14330
abet	-14331
ztin	-14332
▁Pig	-14333
angst	-14334
weckt	-14335
▁saus	-14336
achtel	-14337
▁Extra	-14338
▁schwe	-14339
▁sends	-14340
▁solid	-14341
▁thick	-14342
▁Kümmer	-14343
▁Russia	-14344
▁behalf	-14345
▁riding	-14346
▁Indians	-14347
▁frische	-14348
▁fürchten	-14349
▁reaction	-14350
▁Highschool	-14351
▁Schokolade	-14352
aubt	-14353
press	-14354
örden	-14355
▁Elef	-14356
▁Kern	-14357
▁sorg	-14358
▁weed	-14359
▁yard	-14360
cement	-14361
▁Nazis	-14362
▁prior	-14363
▁Herein	-14364
▁bezwei	-14365
▁fridge	-14366
▁powder	-14367
▁Schmuck	-14368
▁apology	-14369
▁settled	-14370
▁Suddenly	-14371
▁governor	-14372
▁wunderbare	-14373
Ab	-14374
west	-14375
musik	-14376
▁Puls	-14377
asters	-14378
▁occup	-14379
anische	-14380
▁Garage	-14381
▁Murder	-14382
▁Antoine	-14383
▁Gewinner	-14384
▁determine	-14385
▁rausholen	-14386
▁headquarters	-14387
Mann	-14388
enke	-14389
free	-14390
▁bug	-14391
▁Evan	-14392
▁March	-14393
▁Columb	-14394
▁Verspr	-14395
▁abends	-14396
▁ignore	-14397
▁regard	-14398
▁starke	-14399
▁Kleines	-14400
▁Besucher	-14401
▁assholes	-14402
▁imagined	-14403
▁movement	-14404
▁gekümmert	-14405
anor	-14406
emen	-14407
rary	-14408
ödie	-14409
▁bid	-14410
adows	-14411
▁Hugo	-14412
▁Phys	-14413
▁Ware	-14414
▁prem	-14415
ämlich	-14416
▁Pfarr	-14417
▁Ratte	-14418
ocktail	-14419
▁Jewish	-14420
▁Porter	-14421
▁loaded	-14422
▁Emperor	-14423
▁herausf	-14424
▁charming	-14425
▁quarters	-14426
▁amerikanische	-14427
▁'.	-14428
ibel	-14429
nahm	-14430
▁Loy	-14431
▁Bron	-14432
▁Each	-14433
▁Zero	-14434
▁Sohnes	-14435
▁durfte	-14436
▁orange	-14437
▁Bahnhof	-14438
▁weiteres	-14439
▁financial	-14440
SE	-14441
▁Dau	-14442
▁Ugh	-14443
arest	-14444
▁Conf	-14445
▁lots	-14446
bstahl	-14447
▁Süßer	-14448
▁beard	-14449
▁Gewinn	-14450
▁Kindes	-14451
▁solved	-14452
▁gewollt	-14453
▁ringing	-14454
▁gefällig	-14455
▁Badezimmer	-14456
▁background	-14457
▁wiederholen	-14458
RY	-14459
▁11.	-14460
block	-14461
▁Yang	-14462
▁Leber	-14463
▁Phase	-14464
▁motiv	-14465
▁Panzer	-14466
▁circus	-14467
▁dollar	-14468
▁policy	-14469
▁Frances	-14470
▁Französ	-14471
▁leading	-14472
▁informed	-14473
▁pünktlich	-14474
▁LA	-14475
ashi	-14476
▁Spar	-14477
▁liqu	-14478
üttern	-14479
▁Innen	-14480
▁Mädel	-14481
▁führe	-14482
▁intim	-14483
▁ought	-14484
▁stops	-14485
▁Dusche	-14486
▁Meiner	-14487
▁Ziehen	-14488
iversary	-14489
▁bereuen	-14490
▁beunruh	-14491
▁starben	-14492
▁delivered	-14493
12	-14494
sex	-14495
▁hor	-14496
iftet	-14497
jäger	-14498
▁goat	-14499
▁wort	-14500
eschön	-14501
▁Raven	-14502
jährige	-14503
▁anonym	-14504
▁tapfer	-14505
▁Seattle	-14506
▁mankind	-14507
▁supplies	-14508
▁university	-14509
ohn	-14510
pass	-14511
▁tub	-14512
▁Grün	-14513
ünscht	-14514
▁Mafia	-14515
▁units	-14516
▁wings	-14517
▁Dallas	-14518
jährigen	-14519
▁Entwick	-14520
▁Genauso	-14521
▁highest	-14522
▁kannten	-14523
▁practically	-14524
▁fingerprints	-14525
ütig	-14526
adise	-14527
child	-14528
ündung	-14529
▁Liber	-14530
▁Musst	-14531
▁gifts	-14532
▁postp	-14533
▁Herzog	-14534
▁ausgew	-14535
▁laughs	-14536
▁erwähnen	-14537
▁tracking	-14538
▁conscious	-14539
▁Az	-14540
etto	-14541
▁Bev	-14542
▁Teal	-14543
▁burst	-14544
▁Bewähr	-14545
▁Violet	-14546
▁skills	-14547
▁Kameras	-14548
▁moments	-14549
▁momentan	-14550
▁politics	-14551
▁schlechtes	-14552
▁Organisation	-14553
▁Cru	-14554
reife	-14555
▁pays	-14556
öglich	-14557
▁Eugen	-14558
▁Jenna	-14559
▁purse	-14560
▁Mordes	-14561
▁resour	-14562
▁Geiseln	-14563
▁Gilbert	-14564
▁warrior	-14565
▁starving	-14566
▁Spielchen	-14567
▁confirmed	-14568
▁Donnerstag	-14569
▁befreundet	-14570
▁Hubschrauber	-14571
▁Motherfucker	-14572
▁Normalerweise	-14573
Br	-14574
▁Pel	-14575
▁wis	-14576
anter	-14577
▁Euro	-14578
▁Höhle	-14579
▁hauen	-14580
▁nennst	-14581
▁phones	-14582
▁tiefer	-14583
▁Hattest	-14584
▁Korrekt	-14585
▁erkennt	-14586
▁Christus	-14587
▁Mountain	-14588
▁Experiment	-14589
▁beibringen	-14590
SA	-14591
▁TM	-14592
pres	-14593
uhen	-14594
▁ALL	-14595
ronen	-14596
▁Kram	-14597
▁Maya	-14598
▁Suppe	-14599
▁voran	-14600
▁Knight	-14601
▁Reifen	-14602
▁blöden	-14603
▁Überall	-14604
▁Hochzeits	-14605
▁Wichtiges	-14606
▁aufmachen	-14607
▁Verdächtigen	-14608
job	-14609
roc	-14610
irma	-14611
▁Nenn	-14612
▁Poir	-14613
▁fits	-14614
▁hill	-14615
eldung	-14616
fänger	-14617
geholt	-14618
▁Delta	-14619
▁Center	-14620
▁Debbie	-14621
▁Müssen	-14622
▁Jeffrey	-14623
▁Randall	-14624
▁sounded	-14625
▁Schwarze	-14626
▁heiratet	-14627
▁superior	-14628
▁heutzutage	-14629
'.	-14630
önt	-14631
ümm	-14632
▁Simp	-14633
▁shed	-14634
▁torn	-14635
▁Amber	-14636
▁Schla	-14637
▁Yanke	-14638
▁Pillen	-14639
▁Schein	-14640
▁daheim	-14641
▁gefreut	-14642
▁lessons	-14643
▁gekostet	-14644
▁presents	-14645
▁Gentleman	-14646
▁investigating	-14647
VD	-14648
lag	-14649
inda	-14650
▁Rex	-14651
armed	-14652
gment	-14653
▁Bear	-14654
▁Goth	-14655
▁Gran	-14656
▁pile	-14657
nesday	-14658
▁humor	-14659
▁kauft	-14660
▁oppos	-14661
▁überf	-14662
zahlung	-14663
▁dumped	-14664
▁transl	-14665
▁Gewicht	-14666
▁Flaschen	-14667
▁protected	-14668
▁reception	-14669
▁verschwenden	-14670
▁EM	-14671
eben	-14672
uana	-14673
▁Cale	-14674
▁eats	-14675
▁lazy	-14676
▁vice	-14677
▁1.000	-14678
▁Apfel	-14679
▁swing	-14680
▁Dachte	-14681
▁Fakten	-14682
▁unglaub	-14683
▁Lehrerin	-14684
▁Umstände	-14685
▁controll	-14686
▁document	-14687
▁reagiert	-14688
▁bescheuert	-14689
▁Bedingungen	-14690
bury	-14691
ivan	-14692
sprün	-14693
ügend	-14694
▁Seth	-14695
▁pipe	-14696
icient	-14697
▁Faust	-14698
▁Level	-14699
brecher	-14700
▁Poirot	-14701
▁planen	-14702
▁Ansicht	-14703
▁Dutzend	-14704
▁verkauf	-14705
▁territory	-14706
▁Herausforder	-14707
▁möglicherweise	-14708
▁Hod	-14709
▁Hop	-14710
▁dat	-14711
union	-14712
▁Bass	-14713
▁Jobs	-14714
▁Room	-14715
▁Ward	-14716
udding	-14717
▁Berge	-14718
▁Ladys	-14719
▁guide	-14720
▁media	-14721
enthalt	-14722
▁Stella	-14723
▁destro	-14724
▁Konzert	-14725
▁befreit	-14726
▁coordin	-14727
▁describe	-14728
oga	-14729
üht	-14730
▁""	-14731
acus	-14732
anni	-14733
▁lit	-14734
craft	-14735
▁Wart	-14736
gebiet	-14737
▁Chang	-14738
▁Crane	-14739
▁Rosie	-14740
mitglie	-14741
▁yelling	-14742
▁friendly	-14743
▁mitbringen	-14744
▁verbrennen	-14745
▁authorities	-14746
ahm	-14747
▁fuel	-14748
▁guts	-14749
▁sang	-14750
blasen	-14751
▁Carla	-14752
▁Hitze	-14753
▁cents	-14754
▁fraud	-14755
▁joint	-14756
bericht	-14757
▁Afghan	-14758
▁Slowly	-14759
▁Trevor	-14760
▁achten	-14761
▁stones	-14762
▁Schließ	-14763
▁Western	-14764
▁whisper	-14765
fortunate	-14766
▁eingestellt	-14767
ATE	-14768
DEN	-14769
don	-14770
odie	-14771
▁Erb	-14772
▁Nin	-14773
▁Vel	-14774
quenz	-14775
▁Gone	-14776
▁mole	-14777
▁Erdbe	-14778
▁boots	-14779
schauen	-14780
▁Whether	-14781
▁dragged	-14782
▁bezweifle	-14783
▁schweigen	-14784
gift	-14785
gypt	-14786
▁Cho	-14787
öpfen	-14788
▁Staff	-14789
▁cried	-14790
▁grass	-14791
▁grief	-14792
▁polic	-14793
jection	-14794
prügelt	-14795
▁establ	-14796
▁throne	-14797
▁trafen	-14798
▁accused	-14799
▁wenigen	-14800
▁divorced	-14801
▁Attention	-14802
▁Botschafter	-14803
▁extraordinary	-14804
▁understanding	-14805
mph	-14806
cies	-14807
pern	-14808
sing	-14809
achst	-14810
▁Erle	-14811
▁Mall	-14812
▁Maus	-14813
▁owns	-14814
▁tote	-14815
▁Welch	-14816
▁kurze	-14817
▁roomm	-14818
▁Lauren	-14819
▁Metall	-14820
▁haltet	-14821
pleasant	-14822
▁Marshal	-14823
▁Winston	-14824
▁complex	-14825
▁effects	-14826
▁einzeln	-14827
▁section	-14828
▁stabbed	-14829
▁Business	-14830
▁Schlafen	-14831
▁entirely	-14832
▁vermeiden	-14833
▁irgendeinem	-14834
.'	-14835
Ex	-14836
ieu	-14837
öte	-14838
▁Ark	-14839
▁Hud	-14840
hilfe	-14841
▁Konn	-14842
▁künd	-14843
▁Domin	-14844
▁Irish	-14845
▁Stahl	-14846
▁argue	-14847
▁issue	-14848
▁Solche	-14849
▁Spiele	-14850
▁barrel	-14851
gerissen	-14852
▁Seltsam	-14853
▁Motorrad	-14854
▁keinerlei	-14855
rd	-14856
▁WH	-14857
aval	-14858
▁Ald	-14859
▁Ara	-14860
▁Emm	-14861
edith	-14862
▁Lenn	-14863
▁deaf	-14864
▁herz	-14865
▁mitt	-14866
▁nest	-14867
▁warf	-14868
▁Humor	-14869
▁Wette	-14870
▁squee	-14871
▁cattle	-14872
▁cowboy	-14873
▁quietly	-14874
▁Lawrence	-14875
▁Wednesday	-14876
▁angeboten	-14877
gien	-14878
▁Brid	-14879
▁Drau	-14880
gültig	-14881
üchten	-14882
▁Group	-14883
▁Mayor	-14884
▁Nolan	-14885
▁bombs	-14886
▁wreck	-14887
▁dragon	-14888
▁heroes	-14889
▁joined	-14890
▁actress	-14891
▁breasts	-14892
▁captured	-14893
▁cigarettes	-14894
▁anniversary	-14895
änz	-14896
▁$50	-14897
▁Yak	-14898
feier	-14899
▁Jews	-14900
▁Kard	-14901
▁Reyn	-14902
▁stro	-14903
endent	-14904
ischem	-14905
▁Allow	-14906
▁apply	-14907
▁deton	-14908
▁Barnes	-14909
▁Graham	-14910
▁angels	-14911
▁Appetit	-14912
▁Freddie	-14913
▁hostage	-14914
▁Fantasie	-14915
▁checking	-14916
▁nachsehen	-14917
-5	-14918
BE	-14919
pes	-14920
rou	-14921
fense	-14922
lappt	-14923
▁lese	-14924
▁üben	-14925
▁Drake	-14926
▁Tower	-14927
▁Zwill	-14928
▁apple	-14929
▁below	-14930
▁decor	-14931
▁homes	-14932
▁drives	-14933
▁prüfen	-14934
▁district	-14935
▁necklace	-14936
▁employees	-14937
▁erscheinen	-14938
▁verdammtes	-14939
▁enttäuschen	-14940
lar	-14941
una	-14942
ayer	-14943
rukt	-14944
▁Maß	-14945
▁Tab	-14946
ingst	-14947
olves	-14948
▁Orte	-14949
▁gray	-14950
▁Haken	-14951
▁Offiz	-14952
▁innen	-14953
höflich	-14954
▁indeed	-14955
▁gestört	-14956
▁Veronica	-14957
▁education	-14958
▁Impossible	-14959
▁Einstellung	-14960
aska	-14961
nden	-14962
uise	-14963
wirk	-14964
▁Git	-14965
rufen	-14966
▁Gust	-14967
▁Lärm	-14968
▁Ouch	-14969
▁Vieh	-14970
▁tits	-14971
▁gross	-14972
▁Hawaii	-14973
▁Kansas	-14974
▁cleaned	-14975
▁Dummkopf	-14976
▁officially	-14977
▁amerikanischen	-14978
PD	-14979
ooke	-14980
tert	-14981
azier	-14982
ropfen	-14983
▁royal	-14984
▁solle	-14985
▁Shakes	-14986
▁blauen	-14987
▁Jacques	-14988
▁Prinzip	-14989
▁Heiligen	-14990
▁bereiten	-14991
▁geschnappt	-14992
eien	-14993
idel	-14994
▁gam	-14995
▁Food	-14996
istent	-14997
▁Nutte	-14998
▁eleph	-14999
▁regel	-15000
▁frustr	-15001
▁collaps	-15002
▁cookies	-15003
▁suspects	-15004
▁Bibliothek	-15005
▁bestimmten	-15006
▁particularly	-15007
80	-15008
put	-15009
üse	-15010
ovan	-15011
rina	-15012
iehst	-15013
weile	-15014
▁Beob	-15015
▁entw	-15016
▁spit	-15017
treter	-15018
▁salad	-15019
▁Golden	-15020
▁Zirkus	-15021
▁behave	-15022
▁hättet	-15023
▁Douglas	-15024
▁Rettungs	-15025
▁Einheiten	-15026
▁warehouse	-15027
▁Sauerstoff	-15028
▁Vereinigten	-15029
▁Versicherung	-15030
%.	-15031
▁mat	-15032
anzig	-15033
▁Nazi	-15034
▁Shir	-15035
artest	-15036
straße	-15037
▁Bibel	-15038
▁Laune	-15039
▁badge	-15040
▁Anzeige	-15041
▁Forward	-15042
▁charged	-15043
▁lawyers	-15044
▁berühren	-15045
▁listened	-15046
▁teaching	-15047
▁Fantastic	-15048
▁verhandeln	-15049
lli	-15050
▁mud	-15051
ähren	-15052
▁Bach	-15053
▁Erden	-15054
▁invent	-15055
▁review	-15056
▁robbed	-15057
▁bemerken	-15058
▁exercise	-15059
▁touching	-15060
▁Gesichter	-15061
ministerium	-15062
pot	-15063
elly	-15064
whel	-15065
blich	-15066
ckten	-15067
istin	-15068
anlage	-15069
▁Claus	-15070
▁hohen	-15071
▁sauce	-15072
▁Family	-15073
▁Wollte	-15074
▁surface	-15075
▁Auftritt	-15076
▁getragen	-15077
▁nützlich	-15078
▁Vergewalt	-15079
▁Raumschiff	-15080
▁SU	-15081
▁Jin	-15082
▁Fell	-15083
▁athl	-15084
▁weig	-15085
ephone	-15086
▁Point	-15087
▁ginge	-15088
▁gründ	-15089
▁besitzen	-15090
▁fotograf	-15091
▁vergesse	-15092
▁angeblich	-15093
▁berichten	-15094
▁geschaffen	-15095
▁Hausaufgaben	-15096
ighs	-15097
lene	-15098
sitz	-15099
▁600	-15100
▁hei	-15101
alyse	-15102
▁Hins	-15103
▁Simm	-15104
▁Wurm	-15105
▁appl	-15106
packen	-15107
▁brach	-15108
▁gehor	-15109
▁rufst	-15110
▁Thirty	-15111
▁durchge	-15112
▁Schwäche	-15113
▁whenever	-15114
▁existence	-15115
▁procedure	-15116
▁persönliche	-15117
gi	-15118
haw	-15119
rang	-15120
fisch	-15121
▁Ragn	-15122
▁unre	-15123
antine	-15124
▁Belle	-15125
▁refle	-15126
▁During	-15127
▁Hühner	-15128
▁Sprung	-15129
▁Tricks	-15130
▁lecker	-15131
▁perman	-15132
▁soviel	-15133
▁unique	-15134
▁install	-15135
zeichnungen	-15136
▁confidence	-15137
▁außergewöhn	-15138
▁unfortunate	-15139
UL	-15140
imo	-15141
iese	-15142
schle	-15143
▁Hunt	-15144
▁brit	-15145
▁straw	-15146
▁Muster	-15147
▁makeup	-15148
▁messen	-15149
▁swimming	-15150
▁Anzeichen	-15151
▁Liebhaber	-15152
▁bekämpfen	-15153
▁bothering	-15154
▁derselben	-15155
▁einfallen	-15156
▁execution	-15157
▁menschlichen	-15158
ucc	-15159
dach	-15160
▁Ori	-15161
oenix	-15162
uchst	-15163
▁Bande	-15164
▁Lesen	-15165
▁Total	-15166
▁chaos	-15167
▁backup	-15168
▁ehemal	-15169
▁proven	-15170
▁wächst	-15171
▁Schnapp	-15172
istration	-15173
▁Munition	-15174
▁anzurufen	-15175
▁notwendig	-15176
▁verschiedenen	-15177
itus	-15178
▁Brä	-15179
▁Ing	-15180
bsite	-15181
▁Töte	-15182
▁rape	-15183
morgen	-15184
▁1,000	-15185
▁India	-15186
▁Kopie	-15187
▁Käfig	-15188
▁Plast	-15189
▁Arschl	-15190
▁Batter	-15191
▁Lungen	-15192
▁ausget	-15193
▁Märchen	-15194
▁schmerz	-15195
▁wünscht	-15196
▁Russland	-15197
▁Überfall	-15198
▁Unterlagen	-15199
▁sicherlich	-15200
▁Universität	-15201
▁zurückgekommen	-15202
amme	-15203
nach	-15204
sign	-15205
▁Amt	-15206
▁ped	-15207
xygen	-15208
ängig	-15209
ürtel	-15210
▁Nope	-15211
▁Worf	-15212
▁clue	-15213
▁Toast	-15214
▁await	-15215
behörde	-15216
▁Komisch	-15217
▁Teppich	-15218
▁Meredith	-15219
▁Original	-15220
▁gesamten	-15221
▁ausgesucht	-15222
▁hierbleiben	-15223
fa	-15224
kal	-15225
inar	-15226
▁Rol	-15227
▁wra	-15228
antin	-15229
lässt	-15230
onnel	-15231
urger	-15232
▁Bour	-15233
▁faul	-15234
▁Human	-15235
▁Naomi	-15236
▁Union	-15237
▁mustn	-15238
▁sympt	-15239
▁Elaine	-15240
▁Hauses	-15241
▁Sender	-15242
▁Tempel	-15243
▁rumors	-15244
▁stimme	-15245
etzungen	-15246
▁Whiskey	-15247
▁gefasst	-15248
▁however	-15249
▁refused	-15250
▁Exzellen	-15251
▁Scheißkerl	-15252
▁unpleasant	-15253
és	-15254
kyo	-15255
▁hä	-15256
ccer	-15257
ller	-15258
▁toy	-15259
ammed	-15260
ausch	-15261
▁Moon	-15262
▁dign	-15263
▁reck	-15264
▁außen	-15265
▁hinzu	-15266
barkeit	-15267
▁Firmen	-15268
▁Valley	-15269
▁freien	-15270
wechselt	-15271
▁Cardass	-15272
▁loyalty	-15273
stellungen	-15274
▁gestanden	-15275
▁reingehen	-15276
▁identifizieren	-15277
▁ON	-15278
▁Fühl	-15279
▁Spir	-15280
▁mußt	-15281
▁nass	-15282
omatic	-15283
▁Agnes	-15284
▁Kabel	-15285
▁einig	-15286
▁Arrest	-15287
▁Regina	-15288
▁madame	-15289
▁hübsches	-15290
▁übersehen	-15291
▁aufgewachsen	-15292
ICK	-15293
hnte	-15294
oper	-15295
▁Heb	-15296
ademy	-15297
▁Lenny	-15298
▁flehe	-15299
▁mouse	-15300
▁abgest	-15301
▁benutz	-15302
▁Gründen	-15303
▁automat	-15304
▁Shakespe	-15305
▁scheiden	-15306
äher	-15307
▁Prä	-15308
ATION	-15309
▁Wass	-15310
▁sins	-15311
▁uses	-15312
regung	-15313
▁Wells	-15314
[...]
