<unk>	0
<s>	0
</s>	0
er	-0
en	-1
ch	-2
in	-3
▁d	-4
▁t	-5
▁w	-6
▁a	-7
▁s	-8
st	-9
ou	-10
▁i	-11
▁h	-12
▁I	-13
▁m	-14
ie	-15
▁th	-16
an	-17
on	-18
as	-19
ll	-20
▁g	-21
▁b	-22
re	-23
at	-24
▁n	-25
ein	-26
es	-27
ich	-28
▁S	-29
▁W	-30
un	-31
▁y	-32
it	-33
ar	-34
▁you	-35
or	-36
▁f	-37
▁D	-38
ir	-39
ing	-40
▁the	-41
▁A	-42
▁l	-43
et	-44
▁to	-45
▁T	-46
▁M	-47
▁H	-48
▁k	-49
is	-50
▁c	-51
om	-52
te	-53
▁ha	-54
nd	-55
▁o	-56
icht	-57
us	-58
▁p	-59
▁in	-60
ig	-61
▁ein	-62
▁B	-63
▁v	-64
el	-65
▁E	-66
ed	-67
▁Ich	-68
..	-69
▁ist	-70
ot	-71
▁N	-72
▁G	-73
al	-74
▁un	-75
...	-76
ow	-77
▁du	-78
ut	-79
▁das	-80
le	-81
eh	-82
▁z	-83
ve	-84
ck	-85
▁ich	-86
▁nicht	-87
ere	-88
▁die	-89
▁be	-90
▁Y	-91
ay	-92
▁O	-93
▁L	-94
▁K	-95
ei	-96
am	-97
ach	-98
ur	-99
▁of	-100
ag	-101
▁Th	-102
▁J	-103
▁F	-104
em	-105
▁it	-106
▁es	-107
▁C	-108
▁and	-109
ke	-110
de	-111
um	-112
▁an	-113
uf	-114
▁P	-115
im	-116
▁und	-117
▁was	-118
ld	-119
▁Sie	-120
▁that	-121
▁wh	-122
ber	-123
be	-124
▁me	-125
▁r	-126
▁on	-127
▁wir	-128
▁j	-129
ben	-130
▁so	-131
ill	-132
ter	-133
▁You	-134
▁zu	-135
▁re	-136
▁R	-137
id	-138
ann	-139
ier	-140
▁is	-141
▁we	-142
▁e	-143
ent	-144
▁Wh	-145
au	-146
ht	-147
oo	-148
▁ver	-149
ind	-150
▁der	-151
and	-152
ad	-153
▁er	-154
▁do	-155
ür	-156
all	-157
▁he	-158
ah	-159
ro	-160
▁sch	-161
out	-162
ung	-163
ver	-164
▁st	-165
▁U	-166
se	-167
ten	-168
▁sie	-169
ion	-170
ell	-171
▁V	-172
▁for	-173
ce	-174
eine	-175
sch	-176
enn	-177
▁all	-178
he	-179
der	-180
ust	-181
gen	-182
▁ih	-183
ight	-184
ist	-185
ome	-186
lich	-187
sen	-188
ge	-189
▁war	-190
il	-191
▁den	-192
▁kn	-193
uch	-194
▁He	-195
▁auf	-196
▁your	-197
omm	-198
▁hat	-199
▁Das	-200
▁al	-201
ith	-202
▁Du	-203
den	-204
▁this	-205
▁Sch	-206
▁my	-207
▁dass	-208
▁have	-209
▁ge	-210
▁mit	-211
▁know	-212
▁not	-213
▁mir	-214
▁li	-215
ol	-216
ant	-217
▁go	-218
▁Es	-219
up	-220
ra	-221
her	-222
os	-223
ould	-224
▁ne	-225
▁mich	-226
▁no	-227
▁with	-228
▁It	-229
ic	-230
▁Oh	-231
▁Was	-232
▁ab	-233
eiß	-234
▁get	-235
▁se	-236
▁What	-237
▁The	-238
▁habe	-239
aus	-240
op	-241
▁don	-242
▁dich	-243
ehen	-244
▁will	-245
▁Ja	-246
▁"	-247
▁are	-248
▁eine	-249
▁Z	-250
ff	-251
▁We	-252
▁Er	-253
▁can	-254
▁wie	-255
ct	-256
▁im	-257
ly	-258
▁what	-259
▁St	-260
▁sh	-261
▁Wir	-262
ren	-263
▁uns	-264
ri	-265
▁her	-266
▁für	-267
ink	-268
ab	-269
hing	-270
ry	-271
ess	-272
ast	-273
▁von	-274
oll	-275
▁dir	-276
▁Und	-277
▁mein	-278
ön	-279
▁And	-280
chen	-281
etz	-282
▁haben	-283
nen	-284
▁out	-285
▁just	-286
ake	-287
▁No	-288
▁sind	-289
▁here	-290
mer	-291
▁wer	-292
pp	-293
▁like	-294
▁sein	-295
one	-296
▁as	-297
art	-298
▁up	-299
▁aus	-300
▁at	-301
▁bin	-302
our	-303
ack	-304
ood	-305
▁sag	-306
▁him	-307
▁als	-308
▁sich	-309
▁fr	-310
ass	-311
▁kann	-312
kay	-313
ook	-314
▁um	-315
ak	-316
▁hier	-317
ank	-318
ore	-319
▁hast	-320
▁about	-321
▁sp	-322
▁le	-323
▁br	-324
▁So	-325
ib	-326
ehr	-327
▁einen	-328
ers	-329
▁Le	-330
est	-331
ul	-332
▁right	-333
ort	-334
▁geh	-335
end	-336
▁weiß	-337
ück	-338
▁ch	-339
▁da	-340
▁did	-341
▁ges	-342
acht	-343
od	-344
ute	-345
▁An	-346
▁man	-347
▁got	-348
über	-349
▁Die	-350
▁there	-351
ft	-352
ain	-353
onn	-354
▁dem	-355
▁wor	-356
hr	-357
▁That	-358
▁want	-359
ick	-360
ally	-361
▁Ver	-362
▁Hey	-363
▁Nein	-364
▁nur	-365
fe	-366
ine	-367
▁de	-368
▁wenn	-369
oug	-370
▁think	-371
▁mus	-372
▁us	-373
ation	-374
eah	-375
iel	-376
ze	-377
ern	-378
ure	-379
▁but	-380
▁Al	-381
▁one	-382
ard	-383
ive	-384
▁any	-385
ap	-386
▁they	-387
ang	-388
▁noch	-389
▁In	-390
hn	-391
ame	-392
▁gut	-393
ong	-394
ör	-395
etzt	-396
▁aber	-397
▁bist	-398
▁Fr	-399
▁Aber	-400
ät	-401
uck	-402
ug	-403
▁tr	-404
▁über	-405
▁kön	-406
▁But	-407
▁wird	-408
▁soll	-409
we	-410
▁schon	-411
la	-412
▁lo	-413
ime	-414
ate	-415
▁Yeah	-416
▁mach	-417
▁1	-418
▁dein	-419
▁if	-420
▁Wie	-421
▁ihn	-422
▁All	-423
▁vor	-424
lau	-425
▁some	-426
▁meine	-427
ven	-428
ommen	-429
▁'	-430
▁Be	-431
ause	-432
▁she	-433
eil	-434
▁-	-435
▁from	-436
▁sa	-437
che	-438
qu	-439
▁now	-440
▁Well	-441
cht	-442
▁nach	-443
▁oder	-444
ste	-445
kt	-446
▁am	-447
men	-448
▁see	-449
▁who	-450
▁Mr	-451
itt	-452
▁his	-453
▁ar	-454
▁ever	-455
▁ex	-456
▁War	-457
hl	-458
▁or	-459
▁say	-460
▁Okay	-461
ep	-462
▁would	-463
▁back	-464
are	-465
was	-466
iert	-467
age	-468
fen	-469
▁Ar	-470
ound	-471
own	-472
▁going	-473
onna	-474
▁Ch	-475
ase	-476
ob	-477
ice	-478
▁pro	-479
iss	-480
lle	-481
▁time	-482
und	-483
▁Wenn	-484
alk	-485
▁ihr	-486
▁them	-487
▁gu	-488
▁zur	-489
res	-490
▁gonna	-491
▁Ein	-492
way	-493
rie	-494
▁Sp	-495
▁et	-496
▁look	-497
▁auch	-498
▁dies	-499
▁Wo	-500
eit	-501
igen	-502
▁need	-503
▁dr	-504
▁been	-505
nt	-506
uh	-507
▁Do	-508
▁wür	-509
omet	-510
▁good	-511
▁were	-512
▁con	-513
▁Re	-514
▁could	-515
üs	-516
▁had	-517
▁werden	-518
▁Ge	-519
sel	-520
▁Ih	-521
itte	-522
ide	-523
zen	-524
▁This	-525
imm	-526
ert	-527
▁Br	-528
▁des	-529
esch	-530
▁etwas	-531
▁woll	-532
▁off	-533
ne	-534
▁nie	-535
ige	-536
▁thing	-537
▁com	-538
▁kl	-539
ous	-540
▁Yes	-541
ade	-542
other	-543
▁jetzt	-544
▁ag	-545
sp	-546
▁muss	-547
▁How	-548
▁She	-549
ted	-550
▁Mann	-551
▁They	-552
▁fe	-553
▁immer	-554
▁too	-555
▁hel	-556
so	-557
▁has	-558
▁our	-559
thing	-560
ose	-561
▁tell	-562
▁mal	-563
ahr	-564
wo	-565
▁keine	-566
▁wä	-567
▁come	-568
ue	-569
▁tun	-570
elt	-571
br	-572
▁Der	-573
▁dar	-574
ik	-575
▁pl	-576
ner	-577
test	-578
ough	-579
assen	-580
agen	-581
▁find	-582
▁Komm	-583
auf	-584
▁lie	-585
ble	-586
ire	-587
▁when	-588
▁würde	-589
iz	-590
▁Un	-591
▁Or	-592
eid	-593
▁every	-594
▁somet	-595
ater	-596
▁Fre	-597
ott	-598
▁take	-599
klich	-600
▁kein	-601
▁bl	-602
ave	-603
sten	-604
ieren	-605
ies	-606
▁way	-607
ger	-608
ien	-609
▁down	-610
ibt	-611
▁Sh	-612
▁mehr	-613
iv	-614
▁mean	-615
▁ste	-616
oy	-617
▁sagen	-618
▁wo	-619
ord	-620
▁alles	-621
▁how	-622
▁glau	-623
▁Warum	-624
▁geht	-625
agt	-626
ud	-627
ise	-628
▁didn	-629
▁by	-630
▁If	-631
▁einem	-632
isch	-633
cause	-634
▁okay	-635
▁work	-636
▁Se	-637
än	-638
alt	-639
▁pe	-640
▁Why	-641
▁bet	-642
ars	-643
▁happ	-644
▁gen	-645
▁komm	-646
▁Come	-647
reat	-648
▁talk	-649
▁zum	-650
▁something	-651
ip	-652
▁2	-653
00	-654
▁mo	-655
bst	-656
▁nichts	-657
▁Don	-658
▁int	-659
issen	-660
anke	-661
▁Zeit	-662
▁zurück	-663
▁really	-664
ielle	-665
ite	-666
▁more	-667
▁over	-668
▁There	-669
gel	-670
▁let	-671
▁wur	-672
▁gehen	-673
ittle	-674
▁ent	-675
pt	-676
▁make	-677
▁sehen	-678
amm	-679
ielleicht	-680
▁en	-681
▁call	-682
▁should	-683
▁ho	-684
pl	-685
ity	-686
fach	-687
ople	-688
▁einer	-689
▁ihm	-690
rei	-691
ish	-692
ody	-693
kommen	-694
▁deine	-695
▁können	-696
▁guy	-697
▁dann	-698
th	-699
ect	-700
av	-701
▁Let	-702
ought	-703
ange	-704
▁werde	-705
ER	-706
▁little	-707
ock	-708
▁wieder	-709
▁Is	-710
▁alle	-711
▁gef	-712
per	-713
ese	-714
▁Pro	-715
lease	-716
ild	-717
▁never	-718
▁los	-719
▁Also	-720
eren	-721
ub	-722
▁einfach	-723
▁then	-724
▁diese	-725
orry	-726
▁hät	-727
▁ja	-728
▁My	-729
▁day	-730
▁cl	-731
orm	-732
▁sehr	-733
ait	-734
erst	-735
▁qu	-736
▁machen	-737
ady	-738
ance	-739
▁pass	-740
ia	-741
me	-742
▁wirklich	-743
▁Her	-744
▁könn	-745
▁Thank	-746
▁müs	-747
▁verl	-748
▁people	-749
▁Not	-750
▁gr	-751
▁gan	-752
▁hin	-753
▁does	-754
wei	-755
ett	-756
▁said	-757
▁gibt	-758
beit	-759
heit	-760
▁bring	-761
aff	-762
ßen	-763
if	-764
▁viel	-765
gend	-766
gt	-767
bt	-768
▁only	-769
▁dam	-770
▁bei	-771
▁brau	-772
orgen	-773
mm	-774
▁Ne	-775
▁Mar	-776
ther	-777
uld	-778
▁Ha	-779
▁Gr	-780
▁gesagt	-781
▁very	-782
og	-783
▁Mom	-784
▁TH	-785
ree	-786
emand	-787
▁Leben	-788
▁Who	-789
▁Now	-790
ool	-791
self	-792
ungen	-793
▁ger	-794
▁Ist	-795
▁wurde	-796
get	-797
▁Gott	-798
unden	-799
▁won	-800
▁kill	-801
▁happen	-802
▁also	-803
▁doing	-804
▁Ihr	-805
▁love	-806
ull	-807
▁Sir	-808
▁again	-809
riend	-810
▁Nicht	-811
▁bef	-812
ichtig	-813
▁Danke	-814
▁müssen	-815
▁Nun	-816
änd	-817
▁Frau	-818
ond	-819
inn	-820
ather	-821
▁help	-822
hen	-823
▁much	-824
▁fa	-825
▁dur	-826
lie	-827
▁fü	-828
▁where	-829
▁sc	-830
urn	-831
▁pr	-832
amil	-833
▁even	-834
▁Dad	-835
▁Just	-836
▁af	-837
ster	-838
▁ye	-839
▁Bl	-840
▁hatte	-841
▁Leute	-842
irst	-843
eißt	-844
▁bis	-845
schen	-846
▁Will	-847
▁gew	-848
▁bel	-849
▁other	-850
▁two	-851
ken	-852
▁pre	-853
▁into	-854
▁why	-855
ges	-856
ört	-857
amp	-858
body	-859
▁Look	-860
eld	-861
▁still	-862
▁#	-863
▁kannst	-864
▁Jo	-865
IN	-866
▁wäre	-867
lt	-868
▁Wer	-869
ath	-870
irl	-871
orn	-872
OU	-873
▁Te	-874
▁vers	-875
▁Dr	-876
angen	-877
ont	-878
wer	-879
▁gro	-880
aby	-881
▁ins	-882
ans	-883
▁weißt	-884
ile	-885
▁feel	-886
eep	-887
▁wissen	-888
▁jed	-889
ress	-890
▁glaube	-891
▁To	-892
▁Lie	-893
oss	-894
▁Ma	-895
wn	-896
▁Where	-897
uten	-898
ark	-899
AN	-900
nung	-901
iff	-902
▁durch	-903
▁leid	-904
oney	-905
aybe	-906
▁Kind	-907
".	-908
▁Go	-909
uss	-910
▁gem	-911
."	-912
▁God	-913
ha	-914
▁ob	-915
▁give	-916
▁pa	-917
ser	-918
ost	-919
▁Schw	-920
▁gesch	-921
▁Tr	-922
▁Mein	-923
äd	-924
▁weit	-925
▁jemand	-926
▁life	-927
▁ask	-928
▁unter	-929
▁tra	-930
isten	-931
▁Are	-932
▁De	-933
▁sorry	-934
hal	-935
▁el	-936
▁night	-937
▁Da	-938
▁3	-939
▁tut	-940
ving	-941
▁because	-942
▁try	-943
▁verst	-944
ahren	-945
▁weg	-946
▁willst	-947
▁Ent	-948
▁wollte	-949
atch	-950
▁Ihnen	-951
▁anything	-952
▁fuck	-953
▁Fl	-954
▁heute	-955
▁thought	-956
▁Kl	-957
ting	-958
▁their	-959
ial	-960
▁run	-961
▁long	-962
▁Auf	-963
ty	-964
ely	-965
mal	-966
▁Geh	-967
achte	-968
▁raus	-969
▁friend	-970
rgend	-971
▁hand	-972
▁than	-973
blem	-974
▁sure	-975
▁Ste	-976
äch	-977
▁first	-978
▁wr	-979
▁well	-980
ment	-981
ehe	-982
▁sicher	-983
▁Good	-984
▁girl	-985
▁these	-986
gst	-987
upp	-988
▁te	-989
▁Tag	-990
▁best	-991
cc	-992
ischen	-993
ved	-994
day	-995
tern	-996
ören	-997
▁damit	-998
▁musst	-999
pr	-1000
▁before	-1001
▁zwei	-1002
▁new	-1003
▁thr	-1004
▁nein	-1005
▁Ab	-1006
ian	-1007
▁ihre	-1008
▁home	-1009
▁Hast	-1010
keit	-1011
▁sagte	-1012
fer	-1013
▁must	-1014
▁put	-1015
▁away	-1016
▁son	-1017
▁Dann	-1018
▁bitte	-1019
ungs	-1020
är	-1021
▁sel	-1022
chte	-1023
▁Ho	-1024
▁Hi	-1025
▁fl	-1026
ious	-1027
ler	-1028
▁hätte	-1029
▁per	-1030
▁Ihre	-1031
▁verd	-1032
▁Ok	-1033
ons	-1034
aten	-1035
▁part	-1036
▁könnte	-1037
▁Get	-1038
▁hal	-1039
▁dieser	-1040
▁Your	-1041
ways	-1042
▁meinen	-1043
att	-1044
▁gesehen	-1045
ße	-1046
▁Man	-1047
▁rem	-1048
oot	-1049
eing	-1050
zu	-1051
▁Men	-1052
▁weil	-1053
▁last	-1054
zt	-1055
▁co	-1056
▁told	-1057
aking	-1058
able	-1059
▁passiert	-1060
▁Pl	-1061
ye	-1062
aut	-1063
▁kid	-1064
pen	-1065
▁pla	-1066
ouse	-1067
▁Schl	-1068
▁Can	-1069
▁Ex	-1070
man	-1071
fü	-1072
ac	-1073
amen	-1074
▁wait	-1075
▁seine	-1076
▁car	-1077
▁keep	-1078
ign	-1079
sh	-1080
bend	-1081
ingen	-1082
ory	-1083
utter	-1084
lück	-1085
▁care	-1086
▁sec	-1087
esser	-1088
▁Vor	-1089
▁fun	-1090
▁ro	-1091
erson	-1092
▁Did	-1093
▁belie	-1094
▁Mal	-1095
tr	-1096
▁versuch	-1097
▁paar	-1098
▁better	-1099
ennen	-1100
▁gerade	-1101
▁years	-1102
▁Mäd	-1103
▁min	-1104
EN	-1105
▁things	-1106
▁Ah	-1107
▁Um	-1108
▁fin	-1109
▁reden	-1110
▁Alles	-1111
▁Vielleicht	-1112
ele	-1113
unde	-1114
atz	-1115
▁act	-1116
ves	-1117
ike	-1118
mand	-1119
ffen	-1120
▁Geld	-1121
ache	-1122
▁Ord	-1123
▁bed	-1124
▁dis	-1125
▁real	-1126
ount	-1127
▁ad	-1128
▁ble	-1129
▁spe	-1130
▁Hall	-1131
▁beg	-1132
▁around	-1133
AT	-1134
▁Ordnung	-1135
▁Freund	-1136
achen	-1137
schuld	-1138
▁When	-1139
▁after	-1140
▁wirst	-1141
▁stop	-1142
▁For	-1143
ember	-1144
▁cour	-1145
▁unsere	-1146
▁Au	-1147
▁those	-1148
▁always	-1149
ammen	-1150
▁dachte	-1151
ied	-1152
igt	-1153
▁such	-1154
▁gemacht	-1155
▁Weißt	-1156
▁great	-1157
▁boy	-1158
ehmen	-1159
▁zus	-1160
▁Gen	-1161
vor	-1162
▁Ges	-1163
ek	-1164
▁waren	-1165
▁Gesch	-1166
▁kommen	-1167
ling	-1168
▁Hier	-1169
hst	-1170
üt	-1171
▁kind	-1172
▁mö	-1173
▁sm	-1174
oin	-1175
▁Bitte	-1176
ary	-1177
▁bit	-1178
▁name	-1179
öt	-1180
▁Lass	-1181
ün	-1182
▁end	-1183
▁vielleicht	-1184
▁sir	-1185
ions	-1186
ahl	-1187
▁machst	-1188
▁please	-1189
▁big	-1190
ereit	-1191
ful	-1192
bar	-1193
ON	-1194
igh	-1195
▁euch	-1196
▁lassen	-1197
▁Mädchen	-1198
mp	-1199
▁place	-1200
▁old	-1201
▁Pr	-1202
▁show	-1203
▁doch	-1204
▁lot	-1205
▁Nach	-1206
ta	-1207
▁nothing	-1208
▁gest	-1209
anted	-1210
▁bes	-1211
▁Uh	-1212
eln	-1213
▁money	-1214
▁doesn	-1215
ict	-1216
▁sollte	-1217
von	-1218
▁made	-1219
▁YOU	-1220
▁guys	-1221
ient	-1222
▁Kr	-1223
▁OK	-1224
▁gel	-1225
fl	-1226
son	-1227
ßer	-1228
aug	-1229
▁wom	-1230
▁Vater	-1231
▁beh	-1232
xt	-1233
ump	-1234
▁letz	-1235
▁deinen	-1236
▁wollen	-1237
▁Ding	-1238
erstand	-1239
dy	-1240
▁irgend	-1241
▁On	-1242
ähl	-1243
äs	-1244
orr	-1245
▁Nacht	-1246
▁everything	-1247
hren	-1248
▁Miss	-1249
▁play	-1250
oth	-1251
▁keinen	-1252
erl	-1253
▁rec	-1254
▁kommt	-1255
▁mag	-1256
▁Q	-1257
als	-1258
▁Hör	-1259
urt	-1260
ix	-1261
ische	-1262
▁unser	-1263
▁Haus	-1264
ald	-1265
iele	-1266
▁gehört	-1267
▁warum	-1268
▁*	-1269
▁Hause	-1270
hne	-1271
▁through	-1272
▁Mutter	-1273
kl	-1274
▁zusammen	-1275
LL	-1276
▁anderen	-1277
iger	-1278
▁Abend	-1279
▁Then	-1280
▁believe	-1281
▁macht	-1282
▁Min	-1283
▁klar	-1284
▁wanted	-1285
▁Pol	-1286
oren	-1287
stell	-1288
▁Hallo	-1289
▁tot	-1290
anc	-1291
▁done	-1292
▁Ach	-1293
▁meinem	-1294
▁As	-1295
eiße	-1296
▁bad	-1297
▁ihnen	-1298
▁ph	-1299
▁hear	-1300
▁Me	-1301
▁schw	-1302
scha	-1303
ph	-1304
ete	-1305
red	-1306
allen	-1307
▁own	-1308
▁getan	-1309
▁wahr	-1310
▁selbst	-1311
very	-1312
ew	-1313
▁besser	-1314
ret	-1315
▁Ä	-1316
▁stay	-1317
ope	-1318
▁5	-1319
ng	-1320
▁THE	-1321
aufen	-1322
immt	-1323
▁Gut	-1324
▁leave	-1325
▁understand	-1326
▁meiner	-1327
▁head	-1328
anz	-1329
ürlich	-1330
under	-1331
▁schl	-1332
▁Hand	-1333
atürlich	-1334
▁Mit	-1335
▁Please	-1336
▁Ü	-1337
▁diesen	-1338
▁em	-1339
▁Kön	-1340
▁weiter	-1341
nis	-1342
▁hell	-1343
▁4	-1344
dest	-1345
▁finden	-1346
▁El	-1347
igung	-1348
▁Hell	-1349
ufen	-1350
▁left	-1351
▁being	-1352
▁Meine	-1353
geben	-1354
▁might	-1355
ually	-1356
tel	-1357
rück	-1358
▁cr	-1359
▁imp	-1360
AR	-1361
▁ser	-1362
▁klein	-1363
▁Welt	-1364
▁denn	-1365
ident	-1366
ated	-1367
▁schön	-1368
ors	-1369
▁wann	-1370
▁uh	-1371
▁Aus	-1372
▁coming	-1373
schw	-1374
liche	-1375
io	-1376
ey	-1377
▁che	-1378
▁house	-1379
▁happened	-1380
▁Aut	-1381
atter	-1382
arl	-1383
▁Jetzt	-1384
schl	-1385
▁world	-1386
▁besch	-1387
▁rein	-1388
▁diesem	-1389
▁dieses	-1390
ition	-1391
rechen	-1392
leich	-1393
akes	-1394
gr	-1395
act	-1396
▁wrong	-1397
OR	-1398
▁Mon	-1399
opf	-1400
itz	-1401
▁came	-1402
▁Weg	-1403
▁Cl	-1404
▁father	-1405
▁star	-1406
ok	-1407
▁Here	-1408
ail	-1409
ife	-1410
▁rep	-1411
▁app	-1412
uer	-1413
▁helfen	-1414
ince	-1415
▁konn	-1416
uff	-1417
▁mar	-1418
ane	-1419
▁zie	-1420
▁Maybe	-1421
▁Moment	-1422
▁miss	-1423
▁bus	-1424
form	-1425
▁course	-1426
ister	-1427
▁Arbeit	-1428
apt	-1429
dem	-1430
aw	-1431
ace	-1432
▁else	-1433
▁ass	-1434
▁dead	-1435
ahre	-1436
ief	-1437
arm	-1438
für	-1439
▁meet	-1440
▁Eine	-1441
▁found	-1442
▁sit	-1443
inner	-1444
ents	-1445
▁talking	-1446
▁John	-1447
▁str	-1448
▁schn	-1449
ffe	-1450
▁enough	-1451
sam	-1452
▁Fall	-1453
unge	-1454
▁Nur	-1455
▁famil	-1456
▁Am	-1457
▁bu	-1458
imes	-1459
ale	-1460
▁hab	-1461
▁mother	-1462
▁ganz	-1463
▁someone	-1464
schaft	-1465
use	-1466
▁lange	-1467
▁mom	-1468
▁start	-1469
▁Bist	-1470
fort	-1471
▁isn	-1472
ats	-1473
unk	-1474
▁turn	-1475
lichen	-1476
▁supp	-1477
▁Chr	-1478
▁geben	-1479
▁Jack	-1480
▁sur	-1481
▁Every	-1482
ings	-1483
äh	-1484
▁mon	-1485
zie	-1486
▁another	-1487
▁Baby	-1488
▁Weil	-1489
▁At	-1490
esen	-1491
▁Kann	-1492
▁verdamm	-1493
▁ret	-1494
▁getting	-1495
▁cle	-1496
000	-1497
az	-1498
▁Hello	-1499
ever	-1500
app	-1501
▁Über	-1502
ES	-1503
▁three	-1504
▁bereit	-1505
▁Famil	-1506
▁looking	-1507
▁mind	-1508
ash	-1509
▁bre	-1510
▁job	-1511
▁remember	-1512
immer	-1513
▁wus	-1514
iver	-1515
▁same	-1516
orge	-1517
▁men	-1518
▁inter	-1519
ester	-1520
ING	-1521
ult	-1522
▁cra	-1523
▁comp	-1524
▁Entschuld	-1525
▁sagt	-1526
▁denke	-1527
▁tre	-1528
▁erw	-1529
▁gl	-1530
▁Right	-1531
▁gegen	-1532
uder	-1533
▁Sag	-1534
▁davon	-1535
▁ide	-1536
olen	-1537
▁trying	-1538
oh	-1539
igkeit	-1540
▁andere	-1541
▁ben	-1542
▁cont	-1543
▁may	-1544
▁Ger	-1545
▁fre	-1546
▁room	-1547
▁drei	-1548
▁yourself	-1549
richt	-1550
▁yeah	-1551
sehen	-1552
▁went	-1553
▁Kinder	-1554
▁fine	-1555
ible	-1556
auen	-1557
ork	-1558
▁which	-1559
▁Mrs	-1560
▁Because	-1561
alten	-1562
▁One	-1563
▁wasn	-1564
▁pol	-1565
▁Keine	-1566
▁viele	-1567
▁gehe	-1568
▁Gef	-1569
▁saw	-1570
ating	-1571
▁Kerl	-1572
▁child	-1573
olle	-1574
▁bek	-1575
zähl	-1576
▁wen	-1577
bracht	-1578
▁ganze	-1579
▁Als	-1580
pe	-1581
eter	-1582
ähr	-1583
▁today	-1584
orning	-1585
uc	-1586
▁nice	-1587
▁week	-1588
▁acc	-1589
ins	-1590
ys	-1591
asse	-1592
▁dec	-1593
▁Qu	-1594
▁Unter	-1595
wh	-1596
gether	-1597
▁together	-1598
▁thank	-1599
gal	-1600
▁fast	-1601
ens	-1602
ctor	-1603
▁problem	-1604
les	-1605
▁Angst	-1606
▁diff	-1607
▁Har	-1608
▁person	-1609
▁Bar	-1610
ower	-1611
▁family	-1612
▁lang	-1613
glich	-1614
ready	-1615
▁vom	-1616
▁ohne	-1617
▁seit	-1618
reck	-1619
▁kenn	-1620
ktion	-1621
gesch	-1622
▁geb	-1623
▁Ro	-1624
▁att	-1625
▁TO	-1626
▁liebe	-1627
▁many	-1628
▁Mach	-1629
▁hard	-1630
▁next	-1631
uft	-1632
geh	-1633
oint	-1634
ason	-1635
▁stand	-1636
▁Wait	-1637
▁deinem	-1638
▁fucking	-1639
▁sei	-1640
▁Thanks	-1641
land	-1642
ple	-1643
▁baby	-1644
▁darüber	-1645
▁comm	-1646
ried	-1647
▁wanna	-1648
ipp	-1649
ical	-1650
anken	-1651
affe	-1652
ichte	-1653
▁spiel	-1654
▁arbeit	-1655
▁seen	-1656
mlich	-1657
IS	-1658
▁Ze	-1659
iben	-1660
▁genau	-1661
▁Sohn	-1662
air	-1663
come	-1664
▁Ad	-1665
▁already	-1666
zeit	-1667
aden	-1668
▁live	-1669
RE	-1670
orrow	-1671
▁bo	-1672
ina	-1673
▁Bruder	-1674
▁eines	-1675
ingt	-1676
iot	-1677
▁Scheiße	-1678
▁wouldn	-1679
led	-1680
▁einz	-1681
iness	-1682
inden	-1683
leep	-1684
▁Morgen	-1685
ma	-1686
aptain	-1687
schein	-1688
▁shit	-1689
▁...	-1690
▁woman	-1691
ette	-1692
▁hour	-1693
ufel	-1694
▁Hat	-1695
▁matter	-1696
cher	-1697
▁Glück	-1698
ander	-1699
▁Teufel	-1700
rew	-1701
ream	-1702
▁knew	-1703
▁heard	-1704
mmer	-1705
▁Los	-1706
oc	-1707
▁Dinge	-1708
adt	-1709
▁Hil	-1710
▁Ph	-1711
▁genug	-1712
geb	-1713
▁swe	-1714
▁bevor	-1715
äter	-1716
▁Willst	-1717
▁most	-1718
▁whole	-1719
▁Halt	-1720
▁Any	-1721
rochen	-1722
▁maybe	-1723
▁sollten	-1724
uth	-1725
iden	-1726
ird	-1727
▁Tod	-1728
▁Poliz	-1729
aupt	-1730
ations	-1731
▁Menschen	-1732
▁niemand	-1733
▁brother	-1734
by	-1735
▁idea	-1736
ule	-1737
▁10	-1738
▁tö	-1739
▁word	-1740
▁New	-1741
arn	-1742
▁morning	-1743
▁20	-1744
▁Seit	-1745
osed	-1746
▁schnell	-1747
olog	-1748
▁Sam	-1749
▁Art	-1750
▁Of	-1751
▁Problem	-1752
ama	-1753
llen	-1754
nde	-1755
icher	-1756
▁without	-1757
▁Män	-1758
▁hör	-1759
▁gefunden	-1760
ss	-1761
▁gotta	-1762
▁used	-1763
▁Vers	-1764
CH	-1765
▁neu	-1766
ison	-1767
▁brauche	-1768
▁tri	-1769
▁vorb	-1770
▁called	-1771
els	-1772
entlich	-1773
hlen	-1774
▁took	-1775
▁use	-1776
aum	-1777
▁Spiel	-1778
▁sl	-1779
▁seem	-1780
▁warst	-1781
anden	-1782
▁verstehe	-1783
ole	-1784
▁Have	-1785
ält	-1786
halb	-1787
▁Kopf	-1788
los	-1789
▁Jahre	-1790
▁Sc	-1791
▁guess	-1792
eim	-1793
chter	-1794
illion	-1795
▁move	-1796
zy	-1797
AS	-1798
▁konnte	-1799
▁under	-1800
▁deiner	-1801
▁Ber	-1802
gef	-1803
▁quest	-1804
▁Junge	-1805
▁gern	-1806
▁killed	-1807
▁sage	-1808
▁bringen	-1809
▁watch	-1810
ummer	-1811
hm	-1812
▁Familie	-1813
äft	-1814
▁gleich	-1815
▁Christ	-1816
ichen	-1817
ogen	-1818
▁Gib	-1819
▁wife	-1820
▁pret	-1821
▁Dar	-1822
eder	-1823
▁verrück	-1824
fall	-1825
halten	-1826
▁AN	-1827
▁second	-1828
augh	-1829
▁days	-1830
onight	-1831
▁heraus	-1832
ucht	-1833
▁Kn	-1834
iere	-1835
▁rest	-1836
▁je	-1837
▁Take	-1838
ward	-1839
▁Some	-1840
▁dort	-1841
▁erzähl	-1842
▁morgen	-1843
▁Car	-1844
▁Verd	-1845
▁Na	-1846
▁walk	-1847
▁ans	-1848
▁Sache	-1849
▁krie	-1850
▁open	-1851
▁ze	-1852
ny	-1853
▁yet	-1854
iet	-1855
▁Sieh	-1856
▁Wirklich	-1857
▁pay	-1858
▁Jahren	-1859
▁Sorry	-1860
▁ago	-1861
äll	-1862
▁wusste	-1863
ift	-1864
▁myself	-1865
gn	-1866
▁erst	-1867
▁$	-1868
▁Tell	-1869
▁heart	-1870
▁pretty	-1871
▁wegen	-1872
ilm	-1873
▁school	-1874
▁Ty	-1875
▁saying	-1876
▁par	-1877
gangen	-1878
▁See	-1879
▁Fe	-1880
ared	-1881
▁ev	-1882
▁sollen	-1883
▁seinen	-1884
▁few	-1885
▁Den	-1886
ets	-1887
▁Amer	-1888
IT	-1889
eth	-1890
▁jeden	-1891
▁listen	-1892
asst	-1893
▁unt	-1894
ction	-1895
▁Land	-1896
ably	-1897
▁Stop	-1898
▁Auto	-1899
▁Natürlich	-1900
▁while	-1901
▁sol	-1902
▁gone	-1903
ness	-1904
ötet	-1905
gar	-1906
uk	-1907
ove	-1908
cken	-1909
ize	-1910
▁hinter	-1911
▁bleiben	-1912
rop	-1913
its	-1914
teil	-1915
▁Stadt	-1916
▁alone	-1917
▁gek	-1918
▁Wow	-1919
▁Hel	-1920
▁Captain	-1921
▁Bewe	-1922
▁ready	-1923
▁Entschuldigung	-1924
▁count	-1925
▁Job	-1926
affen	-1927
▁Herr	-1928
▁resp	-1929
▁bede	-1930
sicht	-1931
ush	-1932
▁hören	-1933
▁cou	-1934
ehme	-1935
▁Ed	-1936
ged	-1937
▁Bes	-1938
▁friends	-1939
off	-1940
▁haven	-1941
▁Mir	-1942
OM	-1943
▁perfe	-1944
▁richtig	-1945
gew	-1946
▁hold	-1947
▁Augen	-1948
▁solltest	-1949
▁fight	-1950
▁kü	-1951
ony	-1952
▁Tra	-1953
▁face	-1954
gs	-1955
gessen	-1956
▁Kar	-1957
▁drink	-1958
▁glauben	-1959
▁Frank	-1960
▁dad	-1961
▁wel	-1962
▁Mich	-1963
▁exp	-1964
▁brauchen	-1965
▁eigen	-1966
eten	-1967
▁Wel	-1968
▁schle	-1969
umber	-1970
inc	-1971
▁Nie	-1972
▁dri	-1973
▁sleep	-1974
str	-1975
hle	-1976
▁Jahr	-1977
ates	-1978
▁Diese	-1979
wort	-1980
cuse	-1981
sche	-1982
vel	-1983
kst	-1984
▁sehe	-1985
och	-1986
▁zw	-1987
ertig	-1988
▁Like	-1989
▁tom	-1990
▁tonight	-1991
gest	-1992
ying	-1993
ley	-1994
▁Liebe	-1995
▁19	-1996
▁dafür	-1997
▁Mm	-1998
▁Ben	-1999
▁Ort	-2000
▁check	-2001
▁recht	-2002
▁couldn	-2003
▁business	-2004
▁6	-2005
▁fal	-2006
▁vorbei	-2007
cy	-2008
ämp	-2009
▁sieht	-2010
▁groß	-2011
▁wants	-2012
where	-2013
▁case	-2014
▁toll	-2015
▁hope	-2016
▁With	-2017
▁töten	-2018
▁deal	-2019
ding	-2020
▁Part	-2021
▁Bo	-2022
▁says	-2023
ET	-2024
▁soon	-2025
▁verschw	-2026
gehen	-2027
▁möchte	-2028
▁Che	-2029
▁lass	-2030
▁kam	-2031
▁once	-2032
▁lost	-2033
▁Für	-2034
▁Uhr	-2035
▁ter	-2036
▁Männer	-2037
▁sk	-2038
▁prob	-2039
ax	-2040
asy	-2041
▁Glau	-2042
▁gab	-2043
essen	-2044
▁worry	-2045
▁Geb	-2046
▁plan	-2047
▁actually	-2048
▁until	-2049
▁prom	-2050
▁hatten	-2051
sy	-2052
anger	-2053
ED	-2054
▁sign	-2055
▁inv	-2056
▁beaut	-2057
hnung	-2058
▁Ag	-2059
▁gute	-2060
ckt	-2061
▁expl	-2062
▁dire	-2063
ces	-2064
▁pri	-2065
uhe	-2066
▁yes	-2067
▁happy	-2068
▁Pe	-2069
ider	-2070
▁verrückt	-2071
▁Namen	-2072
▁Herz	-2073
▁anyone	-2074
co	-2075
ames	-2076
▁näch	-2077
▁ster	-2078
▁verm	-2079
▁Grund	-2080
▁both	-2081
▁Best	-2082
▁sw	-2083
▁cool	-2084
diot	-2085
▁Warte	-2086
▁Ser	-2087
▁fire	-2088
▁Hol	-2089
▁meinst	-2090
▁month	-2091
band	-2092
utes	-2093
▁Hilfe	-2094
▁Gl	-2095
▁break	-2096
▁Dam	-2097
▁Stra	-2098
▁Je	-2099
amer	-2100
▁Per	-2101
ton	-2102
elle	-2103
▁Oder	-2104
▁hurt	-2105
▁runter	-2106
utet	-2107
▁blood	-2108
▁gar	-2109
ormal	-2110
ither	-2111
▁stuff	-2112
▁gra	-2113
▁En	-2114
ator	-2115
▁wonder	-2116
▁Im	-2117
außen	-2118
▁letzte	-2119
▁drin	-2120
fess	-2121
ouble	-2122
fr	-2123
▁ac	-2124
▁fertig	-2125
uper	-2126
uchen	-2127
▁nehme	-2128
▁erinn	-2129
bringen	-2130
▁tomorrow	-2131
▁compl	-2132
utz	-2133
cept	-2134
▁gehst	-2135
▁verk	-2136
iful	-2137
▁pick	-2138
▁getötet	-2139
ollow	-2140
urz	-2141
actly	-2142
▁door	-2143
▁beide	-2144
▁point	-2145
"?	-2146
ily	-2147
▁since	-2148
▁hey	-2149
▁working	-2150
▁far	-2151
ts	-2152
▁order	-2153
▁huh	-2154
▁Verst	-2155
▁¶	-2156
▁30	-2157
unch	-2158
▁bisschen	-2159
▁Listen	-2160
ual	-2161
▁thinking	-2162
stem	-2163
ica	-2164
▁WH	-2165
▁leben	-2166
▁Polizei	-2167
▁read	-2168
fin	-2169
▁Give	-2170
▁hum	-2171
OW	-2172
gan	-2173
▁res	-2174
yes	-2175
▁wurden	-2176
▁bekommen	-2177
hin	-2178
▁Tür	-2179
inger	-2180
▁ziemlich	-2181
▁dra	-2182
▁year	-2183
▁â	-2184
▁Jes	-2185
▁Richtig	-2186
▁having	-2187
ouch	-2188
eiden	-2189
nst	-2190
äum	-2191
annt	-2192
schie	-2193
vie	-2194
ünd	-2195
▁Wor	-2196
▁sex	-2197
▁hands	-2198
▁nehmen	-2199
etzen	-2200
▁Schatz	-2201
▁würdest	-2202
▁su	-2203
▁Minuten	-2204
▁kennen	-2205
▁mache	-2206
ude	-2207
▁bez	-2208
▁sagst	-2209
▁Ide	-2210
iten	-2211
▁15	-2212
▁met	-2213
tend	-2214
▁Freunde	-2215
▁true	-2216
▁draußen	-2217
▁Des	-2218
▁komme	-2219
▁schät	-2220
oor	-2221
erest	-2222
▁Ende	-2223
▁each	-2224
cial	-2225
ci	-2226
▁Char	-2227
▁Dan	-2228
isen	-2229
▁gun	-2230
▁heißt	-2231
▁Dav	-2232
▁Wahr	-2233
▁Red	-2234
fol	-2235
ässt	-2236
hrend	-2237
aur	-2238
aul	-2239
gie	-2240
▁8	-2241
icken	-2242
▁ihren	-2243
▁Nichts	-2244
▁allein	-2245
▁frü	-2246
aster	-2247
▁benut	-2248
▁steht	-2249
▁knows	-2250
OT	-2251
▁au	-2252
▁Par	-2253
▁gave	-2254
old	-2255
urder	-2256
▁Schn	-2257
akt	-2258
▁phone	-2259
chst	-2260
▁sy	-2261
eral	-2262
▁Gro	-2263
▁7	-2264
▁sound	-2265
▁später	-2266
du	-2267
▁Jungs	-2268
▁arm	-2269
omp	-2270
itten	-2271
▁Mad	-2272
▁minutes	-2273
aughter	-2274
▁bro	-2275
▁Tut	-2276
▁sah	-2277
▁Lieb	-2278
▁danke	-2279
▁voll	-2280
cted	-2281
▁seiner	-2282
▁könnten	-2283
iam	-2284
eint	-2285
▁kids	-2286
ager	-2287
▁late	-2288
▁minute	-2289
scheinlich	-2290
▁Bill	-2291
▁death	-2292
▁würden	-2293
▁Tom	-2294
▁daran	-2295
head	-2296
▁poss	-2297
bl	-2298
▁Gesicht	-2299
▁IT	-2300
erent	-2301
▁Gu	-2302
▁Soll	-2303
▁Gehen	-2304
▁sofort	-2305
▁later	-2306
fte	-2307
▁ber	-2308
▁number	-2309
ention	-2310
▁means	-2311
▁gekommen	-2312
▁Col	-2313
▁shot	-2314
▁Krie	-2315
isk	-2316
▁verloren	-2317
▁9	-2318
?"	-2319
▁Bür	-2320
▁Geschichte	-2321
▁stimmt	-2322
aß	-2323
ball	-2324
sol	-2325
ning	-2326
▁high	-2327
▁ap	-2328
▁ain	-2329
▁Verdamm	-2330
äl	-2331
haft	-2332
abei	-2333
▁crazy	-2334
orth	-2335
▁inc	-2336
▁rel	-2337
▁große	-2338
▁wohl	-2339
lücklich	-2340
▁char	-2341
▁Hmm	-2342
▁jeder	-2343
ital	-2344
less	-2345
▁bra	-2346
▁versucht	-2347
▁Bis	-2348
▁Really	-2349
▁taking	-2350
▁Kein	-2351
▁mess	-2352
aken	-2353
▁luck	-2354
entr	-2355
▁Blut	-2356
ps	-2357
▁import	-2358
chs	-2359
▁wish	-2360
▁hit	-2361
▁fest	-2362
umm	-2363
▁eyes	-2364
▁seinem	-2365
side	-2366
▁darauf	-2367
▁supposed	-2368
ney	-2369
▁halten	-2370
▁dabei	-2371
▁Whoa	-2372
kel	-2373
▁Wei	-2374
chn	-2375
iter	-2376
▁reg	-2377
▁Mus	-2378
▁essen	-2379
▁Haben	-2380
▁ganzen	-2381
▁probably	-2382
lafen	-2383
▁change	-2384
▁Wasser	-2385
▁stud	-2386
▁murder	-2387
▁light	-2388
▁Sicher	-2389
ktor	-2390
ität	-2391
▁different	-2392
▁Schau	-2393
▁Nothing	-2394
▁everyone	-2395
▁beautiful	-2396
▁denken	-2397
ai	-2398
äng	-2399
▁Recht	-2400
▁jemanden	-2401
nf	-2402
▁hättest	-2403
▁eat	-2404
▁Daddy	-2405
▁Pat	-2406
oke	-2407
▁chance	-2408
arly	-2409
▁offen	-2410
▁power	-2411
▁water	-2412
onder	-2413
▁schwer	-2414
▁Sy	-2415
formation	-2416
▁verw	-2417
▁book	-2418
ement	-2419
ST	-2420
▁siehst	-2421
▁Bob	-2422
min	-2423
aps	-2424
LE	-2425
▁dran	-2426
▁body	-2427
piel	-2428
raid	-2429
▁Dein	-2430
▁looks	-2431
chten	-2432
▁sterben	-2433
fter	-2434
▁daughter	-2435
üb	-2436
pf	-2437
▁pain	-2438
▁Alle	-2439
bert	-2440
▁Plan	-2441
lapp	-2442
hung	-2443
▁fall	-2444
▁inside	-2445
unter	-2446
▁Mc	-2447
▁asked	-2448
▁Ant	-2449
▁makes	-2450
▁side	-2451
▁ander	-2452
▁Name	-2453
▁cop	-2454
▁police	-2455
eister	-2456
▁making	-2457
more	-2458
▁Niemand	-2459
igentlich	-2460
▁bedeutet	-2461
arbeit	-2462
▁set	-2463
auer	-2464
▁moment	-2465
ahn	-2466
▁Teil	-2467
usband	-2468
ised	-2469
▁pres	-2470
öff	-2471
▁His	-2472
▁reason	-2473
▁Pre	-2474
VE	-2475
▁Mag	-2476
▁Sure	-2477
ross	-2478
▁interest	-2479
wie	-2480
▁cut	-2481
ium	-2482
eht	-2483
itch	-2484
▁four	-2485
▁Str	-2486
▁half	-2487
▁ged	-2488
▁important	-2489
▁story	-2490
▁times	-2491
▁fünf	-2492
▁Tre	-2493
▁kleine	-2494
reiben	-2495
atur	-2496
outh	-2497
▁young	-2498
▁Ter	-2499
innen	-2500
▁wär	-2501
▁able	-2502
▁law	-2503
ov	-2504
▁Frauen	-2505
▁sing	-2506
▁funktion	-2507
▁against	-2508
rick	-2509
▁least	-2510
ision	-2511
▁warten	-2512
inken	-2513
▁fact	-2514
▁close	-2515
ael	-2516
▁dream	-2517
▁afraid	-2518
▁vergessen	-2519
abe	-2520
führ	-2521
▁hoffe	-2522
▁Schwester	-2523
▁Excuse	-2524
achten	-2525
oice	-2526
▁Gute	-2527
ahlen	-2528
▁Tochter	-2529
▁arbeiten	-2530
omb	-2531
▁wichtig	-2532
▁forg	-2533
▁König	-2534
lex	-2535
öre	-2536
▁nun	-2537
ächt	-2538
▁äh	-2539
ited	-2540
▁spr	-2541
▁Irgend	-2542
▁Bett	-2543
▁Bet	-2544
▁med	-2545
▁comes	-2546
▁Essen	-2547
▁follow	-2548
any	-2549
▁hours	-2550
▁spät	-2551
▁May	-2552
▁Schön	-2553
ield	-2554
▁question	-2555
ellen	-2556
...?	-2557
asch	-2558
eist	-2559
ween	-2560
laub	-2561
▁husband	-2562
cle	-2563
▁verlassen	-2564
▁Sü	-2565
▁aw	-2566
▁exactly	-2567
▁five	-2568
urs	-2569
ced	-2570
▁vier	-2571
▁Sorgen	-2572
▁Maj	-2573
ällt	-2574
▁außer	-2575
▁Mö	-2576
▁IN	-2577
▁cons	-2578
rol	-2579
▁dazu	-2580
ract	-2581
▁Schuld	-2582
▁AND	-2583
nehmen	-2584
▁kenne	-2585
reet	-2586
▁Eng	-2587
ired	-2588
vers	-2589
▁Fuck	-2590
oon	-2591
igure	-2592
▁mine	-2593
▁Idee	-2594
▁speak	-2595
▁waiting	-2596
AY	-2597
▁Hö	-2598
▁letzten	-2599
▁hoch	-2600
dern	-2601
zug	-2602
▁Händ	-2603
▁sent	-2604
▁ging	-2605
walt	-2606
▁Jesus	-2607
▁beim	-2608
▁dest	-2609
ehn	-2610
ron	-2611
▁Viel	-2612
▁town	-2613
▁Gra	-2614
▁send	-2615
▁shoot	-2616
most	-2617
▁verdammt	-2618
▁its	-2619
▁warte	-2620
▁bekomm	-2621
haupt	-2622
▁Chance	-2623
UT	-2624
▁behind	-2625
gung	-2626
äus	-2627
rank	-2628
▁glücklich	-2629
ape	-2630
ately	-2631
zeug	-2632
▁wunder	-2633
ickt	-2634
▁normal	-2635
▁tue	-2636
▁spielen	-2637
▁Spaß	-2638
weise	-2639
▁Somet	-2640
ters	-2641
rat	-2642
▁free	-2643
▁12	-2644
▁alt	-2645
stens	-2646
▁test	-2647
▁trust	-2648
▁Reg	-2649
▁Verb	-2650
▁OF	-2651
▁easy	-2652
unt	-2653
▁Pap	-2654
▁York	-2655
▁gets	-2656
bo	-2657
▁Spe	-2658
▁Kump	-2659
haus	-2660
▁full	-2661
CK	-2662
▁treffen	-2663
▁Ble	-2664
ubl	-2665
▁Det	-2666
▁Mart	-2667
▁Siehst	-2668
▁Ann	-2669
iously	-2670
▁truth	-2671
▁party	-2672
entle	-2673
▁Woche	-2674
urch	-2675
eilen	-2676
▁del	-2677
▁Sk	-2678
▁Sei	-2679
ective	-2680
stellen	-2681
▁started	-2682
▁Would	-2683
AL	-2684
▁Jul	-2685
▁gerne	-2686
▁game	-2687
▁Seite	-2688
▁interess	-2689
▁Wahrheit	-2690
ös	-2691
▁neue	-2692
▁Sar	-2693
tra	-2694
▁versp	-2695
▁Guten	-2696
▁bar	-2697
▁Kont	-2698
▁Sel	-2699
▁einmal	-2700
▁ersten	-2701
▁fol	-2702
▁Rest	-2703
▁Stunden	-2704
▁Ind	-2705
uation	-2706
oten	-2707
▁goes	-2708
ives	-2709
dr	-2710
lassen	-2711
enny	-2712
▁anymore	-2713
▁Son	-2714
ernt	-2715
▁sen	-2716
▁lead	-2717
▁WE	-2718
▁Mil	-2719
▁mil	-2720
▁between	-2721
▁Dank	-2722
▁answer	-2723
▁denkst	-2724
▁god	-2725
▁Genau	-2726
ären	-2727
▁touch	-2728
▁married	-2729
▁Gefü	-2730
komm	-2731
▁Kannst	-2732
ennt	-2733
▁Bef	-2734
chmal	-2735
▁learn	-2736
▁HE	-2737
▁erf	-2738
▁figure	-2739
▁fühl	-2740
▁Zwei	-2741
stag	-2742
▁Deine	-2743
▁Kranken	-2744
▁bewe	-2745
▁sweet	-2746
▁oben	-2747
▁kurz	-2748
upid	-2749
▁während	-2750
▁ma	-2751
ossen	-2752
ziehen	-2753
ene	-2754
▁musste	-2755
▁red	-2756
▁egal	-2757
unkt	-2758
▁nah	-2759
▁Spr	-2760
vest	-2761
▁Ruhe	-2762
▁Waffe	-2763
iven	-2764
▁versuchen	-2765
aving	-2766
ows	-2767
▁erste	-2768
uz	-2769
▁train	-2770
▁BE	-2771
▁Kat	-2772
▁heiß	-2773
▁Frage	-2774
▁betr	-2775
erv	-2776
▁darf	-2777
geln	-2778
▁Gar	-2779
▁Zimmer	-2780
▁sonst	-2781
bs	-2782
gy	-2783
▁Kumpel	-2784
▁fragen	-2785
▁children	-2786
auft	-2787
▁Nachricht	-2788
ject	-2789
arth	-2790
ertain	-2791
▁dep	-2792
▁trouble	-2793
▁unserer	-2794
▁telling	-2795
▁cor	-2796
▁pat	-2797
.000	-2798
▁Sind	-2799
▁forget	-2800
ards	-2801
▁Richt	-2802
▁Does	-2803
▁front	-2804
▁Dieser	-2805
irat	-2806
▁Gre	-2807
▁Flug	-2808
▁hätten	-2809
▁Tage	-2810
▁natürlich	-2811
IE	-2812
▁brought	-2813
▁Mike	-2814
ügen	-2815
▁Verg	-2816
uhig	-2817
▁though	-2818
tre	-2819
arch	-2820
inter	-2821
ines	-2822
▁kümmer	-2823
elef	-2824
▁tried	-2825
ics	-2826
▁couple	-2827
ufe	-2828
▁Lord	-2829
ischer	-2830
▁THAT	-2831
▁Wann	-2832
▁land	-2833
▁kommst	-2834
▁died	-2835
▁sim	-2836
▁office	-2837
▁Verdammt	-2838
▁Pf	-2839
▁conc	-2840
▁conf	-2841
ille	-2842
▁somebody	-2843
▁Arsch	-2844
▁Michael	-2845
▁Ob	-2846
▁Pass	-2847
▁quite	-2848
▁line	-2849
▁Hen	-2850
prü	-2851
▁Lebens	-2852
oto	-2853
▁Person	-2854
AM	-2855
ID	-2856
▁pull	-2857
▁schätze	-2858
▁wahrscheinlich	-2859
▁air	-2860
vice	-2861
oe	-2862
▁Wochen	-2863
▁sogar	-2864
uren	-2865
▁team	-2866
▁Nimm	-2867
▁anf	-2868
▁hol	-2869
▁00	-2870
zus	-2871
▁sister	-2872
▁secret	-2873
ehl	-2874
▁Zu	-2875
igkeiten	-2876
▁Mama	-2877
▁Kon	-2878
orden	-2879
▁braucht	-2880
▁aren	-2881
reich	-2882
▁girls	-2883
▁George	-2884
▁Schule	-2885
▁kleinen	-2886
ience	-2887
▁zwischen	-2888
▁pie	-2889
▁prote	-2890
ützen	-2891
▁return	-2892
ibst	-2893
▁MAN	-2894
▁yours	-2895
▁Our	-2896
roh	-2897
▁sn	-2898
▁seid	-2899
rieben	-2900
ants	-2901
▁Idiot	-2902
▁lässt	-2903
▁Off	-2904
oud	-2905
▁ersch	-2906
ship	-2907
GH	-2908
▁Macht	-2909
▁These	-2910
▁months	-2911
▁HA	-2912
▁Von	-2913
▁gegeben	-2914
▁Comm	-2915
▁David	-2916
▁lik	-2917
▁bald	-2918
▁Uns	-2919
urry	-2920
osition	-2921
▁fell	-2922
▁mer	-2923
aring	-2924
friend	-2925
net	-2926
▁fühle	-2927
gebracht	-2928
▁Agent	-2929
▁hate	-2930
▁Joe	-2931
ault	-2932
▁wün	-2933
üss	-2934
▁wenig	-2935
▁oh	-2936
örper	-2937
▁Wissen	-2938
▁alive	-2939
riff	-2940
▁fore	-2941
▁hält	-2942
▁Sm	-2943
▁Schon	-2944
icture	-2945
▁la	-2946
▁Co	-2947
▁buy	-2948
ERE	-2949
alm	-2950
▁falsch	-2951
ides	-2952
▁grö	-2953
▁verb	-2954
▁women	-2955
▁einzige	-2956
opp	-2957
osp	-2958
▁50	-2959
▁Fahr	-2960
imin	-2961
asche	-2962
▁dist	-2963
▁finish	-2964
▁Charlie	-2965
af	-2966
ism	-2967
▁Geht	-2968
die	-2969
ues	-2970
▁needs	-2971
rest	-2972
▁vis	-2973
▁fav	-2974
▁safe	-2975
▁Cr	-2976
▁build	-2977
▁Even	-2978
▁Äh	-2979
uin	-2980
to	-2981
▁Rück	-2982
,000	-2983
iving	-2984
▁Fü	-2985
▁sü	-2986
oul	-2987
zogen	-2988
ution	-2989
sych	-2990
▁along	-2991
oun	-2992
▁Med	-2993
▁Noch	-2994
hören	-2995
▁almost	-2996
▁Sit	-2997
▁Eltern	-2998
▁country	-2999
▁Show	-3000
▁Hold	-3001
▁überhaupt	-3002
▁Jed	-3003
▁chang	-3004
▁Wort	-3005
▁tust	-3006
▁stupid	-3007
▁Glaubst	-3008
inge	-3009
▁100	-3010
▁bew	-3011
artment	-3012
▁hot	-3013
▁unten	-3014
▁six	-3015
▁großen	-3016
▁ant	-3017
▁grand	-3018
▁Park	-3019
gem	-3020
▁clean	-3021
▁eins	-3022
▁Buch	-3023
▁anger	-3024
▁wind	-3025
yn	-3026
lo	-3027
ones	-3028
▁Wür	-3029
▁news	-3030
▁Alex	-3031
▁ON	-3032
▁Rob	-3033
▁damn	-3034
▁erzählt	-3035
uß	-3036
▁Nummer	-3037
▁picture	-3038
▁Op	-3039
ence	-3040
▁Feuer	-3041
uter	-3042
ury	-3043
▁Angel	-3044
▁black	-3045
hmm	-3046
isst	-3047
▁unseren	-3048
▁whatever	-3049
▁outside	-3050
▁mist	-3051
ically	-3052
▁Klapp	-3053
▁Pres	-3054
▁either	-3055
tem	-3056
▁erkl	-3057
aught	-3058
▁flie	-3059
▁everybody	-3060
▁Mor	-3061
▁Em	-3062
▁eng	-3063
Ich	-3064
▁suchen	-3065
▁guter	-3066
▁perfect	-3067
ante	-3068
ernen	-3069
▁bitch	-3070
▁Sorge	-3071
▁cann	-3072
leas	-3073
▁Film	-3074
▁ihrer	-3075
icer	-3076
▁less	-3077
ka	-3078
▁ahead	-3079
▁Fin	-3080
itting	-3081
orben	-3082
▁Boss	-3083
üssel	-3084
▁past	-3085
ational	-3086
bed	-3087
▁boys	-3088
▁redest	-3089
▁Ged	-3090
▁clear	-3091
▁doctor	-3092
▁gewesen	-3093
▁Scheiß	-3094
▁Two	-3095
▁det	-3096
▁ung	-3097
▁lose	-3098
▁save	-3099
▁Which	-3100
auber	-3101
▁ihrem	-3102
▁stehen	-3103
▁exc	-3104
▁After	-3105
▁Deshalb	-3106
ana	-3107
▁ME	-3108
▁Är	-3109
wor	-3110
ierte	-3111
▁ST	-3112
ior	-3113
▁neuen	-3114
▁Team	-3115
licher	-3116
▁Sicherheit	-3117
einen	-3118
▁könntest	-3119
▁fair	-3120
▁bas	-3121
▁human	-3122
▁Klar	-3123
▁Hoch	-3124
elefon	-3125
▁Ke	-3126
▁attack	-3127
▁ange	-3128
bye	-3129
▁Ihrer	-3130
ino	-3131
▁lock	-3132
▁eh	-3133
▁stra	-3134
▁food	-3135
▁sort	-3136
▁Bye	-3137
▁gesp	-3138
▁änd	-3139
▁Klappe	-3140
▁holen	-3141
je	-3142
▁wären	-3143
üben	-3144
▁sick	-3145
▁dog	-3146
▁sprechen	-3147
,"	-3148
▁mad	-3149
▁Million	-3150
▁Kü	-3151
right	-3152
iges	-3153
▁Paul	-3154
eisten	-3155
▁teach	-3156
▁hang	-3157
▁Peter	-3158
rt	-3159
▁Put	-3160
▁hole	-3161
▁finde	-3162
▁schau	-3163
▁ship	-3164
▁small	-3165
roll	-3166
▁Max	-3167
afft	-3168
▁add	-3169
ompl	-3170
vin	-3171
▁shall	-3172
sk	-3173
▁living	-3174
▁darum	-3175
ende	-3176
▁Jemand	-3177
▁scheint	-3178
▁lives	-3179
ollar	-3180
▁taken	-3181
yp	-3182
ßt	-3183
▁lä	-3184
▁ok	-3185
gh	-3186
▁General	-3187
ichten	-3188
▁seems	-3189
▁Selbst	-3190
▁become	-3191
▁fahren	-3192
▁bull	-3193
▁Woher	-3194
▁Sek	-3195
ften	-3196
▁absol	-3197
▁Mary	-3198
ierung	-3199
▁feeling	-3200
▁habt	-3201
▁gebe	-3202
olly	-3203
▁gegangen	-3204
▁Rich	-3205
▁dear	-3206
▁Mmm	-3207
▁certain	-3208
ehst	-3209
idence	-3210
▁hair	-3211
▁Bra	-3212
▁pap	-3213
▁funny	-3214
▁rid	-3215
▁eigenen	-3216
ikan	-3217
schieden	-3218
▁denen	-3219
▁city	-3220
▁rum	-3221
▁Ur	-3222
▁ball	-3223
iste	-3224
▁class	-3225
hnt	-3226
▁frei	-3227
▁funktioniert	-3228
▁Huh	-3229
▁sub	-3230
▁Ahnung	-3231
▁Got	-3232
▁quick	-3233
▁Keep	-3234
vern	-3235
▁Luc	-3236
leid	-3237
selves	-3238
ampf	-3239
▁verg	-3240
▁Geschäft	-3241
ility	-3242
▁Licht	-3243
▁zeigen	-3244
▁anderes	-3245
▁Very	-3246
▁selt	-3247
▁brauchst	-3248
▁Gew	-3249
▁Lou	-3250
ks	-3251
▁gestern	-3252
wa	-3253
▁By	-3254
▁running	-3255
lagen	-3256
SE	-3257
▁record	-3258
▁möglich	-3259
▁pers	-3260
ara	-3261
▁tw	-3262
▁Great	-3263
▁Sehr	-3264
▁schreck	-3265
▁herum	-3266
▁himself	-3267
IC	-3268
▁disc	-3269
ängnis	-3270
for	-3271
▁nimm	-3272
unken	-3273
▁lady	-3274
ugen	-3275
ospital	-3276
ently	-3277
▁Sachen	-3278
haps	-3279
▁art	-3280
finit	-3281
▁Arm	-3282
uge	-3283
▁Dass	-3284
dent	-3285
▁Ray	-3286
ehler	-3287
▁ernst	-3288
▁Zie	-3289
raft	-3290
▁Kir	-3291
LD	-3292
vo	-3293
▁Sex	-3294
▁win	-3295
▁kämp	-3296
▁Dro	-3297
▁Ooh	-3298
▁Eh	-3299
▁oft	-3300
▁schlecht	-3301
▁Können	-3302
que	-3303
▁Verl	-3304
▁Ihren	-3305
ican	-3306
▁dinner	-3307
irth	-3308
ative	-3309
▁surpr	-3310
▁Dies	-3311
▁Krieg	-3312
ittel	-3313
▁alten	-3314
otz	-3315
achsen	-3316
▁Wieder	-3317
artet	-3318
▁control	-3319
spr	-3320
ommy	-3321
▁Party	-3322
roffen	-3323
▁Bel	-3324
▁parents	-3325
▁verstehen	-3326
itze	-3327
▁anders	-3328
go	-3329
imme	-3330
astard	-3331
▁lieber	-3332
▁meines	-3333
unft	-3334
▁kriegen	-3335
▁Tu	-3336
▁Erinner	-3337
▁hierher	-3338
▁risk	-3339
IM	-3340
▁special	-3341
▁Mord	-3342
arr	-3343
▁hil	-3344
ollege	-3345
▁Büro	-3346
▁ran	-3347
roy	-3348
uppe	-3349
▁Mensch	-3350
▁Nick	-3351
mit	-3352
airs	-3353
▁heir	-3354
med	-3355
cke	-3356
une	-3357
▁promise	-3358
▁irgendwie	-3359
▁mid	-3360
RA	-3361
▁Jer	-3362
▁Ev	-3363
▁Inter	-3364
▁Platz	-3365
▁Einz	-3366
▁mark	-3367
KE	-3368
ivers	-3369
▁Denn	-3370
mö	-3371
▁Bed	-3372
▁X	-3373
äre	-3374
▁cannot	-3375
iche	-3376
▁Shut	-3377
▁Luft	-3378
oose	-3379
▁Zur	-3380
▁allen	-3381
▁expect	-3382
▁SH	-3383
▁lasse	-3384
▁DO	-3385
ular	-3386
ror	-3387
leben	-3388
dle	-3389
▁leaving	-3390
▁Could	-3391
▁report	-3392
▁Bring	-3393
▁col	-3394
▁Bild	-3395
▁alte	-3396
▁possible	-3397
iting	-3398
▁Everything	-3399
▁zuerst	-3400
▁serious	-3401
adies	-3402
▁18	-3403
örder	-3404
▁früh	-3405
▁ruin	-3406
▁wollten	-3407
mann	-3408
▁Nice	-3409
▁nerv	-3410
ängt	-3411
▁Groß	-3412
▁asking	-3413
room	-3414
▁Körper	-3415
▁retten	-3416
▁ang	-3417
nah	-3418
▁Liebling	-3419
▁Stück	-3420
oup	-3421
▁shouldn	-3422
▁Bei	-3423
▁Sher	-3424
onel	-3425
utenant	-3426
OO	-3427
▁ten	-3428
▁verste	-3429
▁James	-3430
▁Ju	-3431
▁Typ	-3432
▁top	-3433
machen	-3434
▁pack	-3435
....	-3436
▁imag	-3437
▁strong	-3438
▁sell	-3439
▁catch	-3440
antwort	-3441
schüss	-3442
ized	-3443
▁shut	-3444
▁anyway	-3445
▁Hund	-3446
▁danger	-3447
ided	-3448
▁Tages	-3449
▁invest	-3450
▁scared	-3451
▁Schiff	-3452
▁bringt	-3453
iebt	-3454
▁Hände	-3455
▁Mo	-3456
▁Say	-3457
▁har	-3458
ienst	-3459
▁drive	-3460
▁Rem	-3461
▁lieben	-3462
iratet	-3463
▁happens	-3464
▁gebracht	-3465
▁Mark	-3466
icks	-3467
▁wärst	-3468
▁Sta	-3469
lin	-3470
▁Himm	-3471
▁Gefängnis	-3472
▁sus	-3473
▁Jeder	-3474
▁super	-3475
▁Straße	-3476
stand	-3477
▁cover	-3478
▁thanks	-3479
ature	-3480
immy	-3481
genommen	-3482
▁Sieht	-3483
▁Ak	-3484
▁hor	-3485
antast	-3486
▁Alter	-3487
▁gentle	-3488
▁Pri	-3489
▁cry	-3490
▁sechs	-3491
▁terri	-3492
▁IS	-3493
osh	-3494
▁Näch	-3495
▁beiden	-3496
▁explain	-3497
ja	-3498
zlich	-3499
▁From	-3500
▁trans	-3501
▁Pa	-3502
▁Fehler	-3503
▁Sal	-3504
ities	-3505
EA	-3506
▁nett	-3507
▁Freundin	-3508
▁echt	-3509
▁bringe	-3510
fessor	-3511
",	-3512
ging	-3513
▁honey	-3514
▁million	-3515
öse	-3516
olf	-3517
▁offer	-3518
▁Lady	-3519
▁priv	-3520
▁dress	-3521
▁Phil	-3522
▁zerst	-3523
hy	-3524
otion	-3525
▁drüben	-3526
peration	-3527
▁protect	-3528
ists	-3529
▁dre	-3530
▁company	-3531
▁leg	-3532
▁cur	-3533
▁Mer	-3534
▁kleiner	-3535
▁Vergiss	-3536
▁anybody	-3537
▁Con	-3538
▁verp	-3539
▁Never	-3540
▁Stunde	-3541
▁ind	-3542
wohl	-3543
▁Only	-3544
▁vertr	-3545
▁Bewegung	-3546
▁key	-3547
▁Charl	-3548
▁angerufen	-3549
UR	-3550
sichtlich	-3551
▁Henry	-3552
sinn	-3553
etter	-3554
▁hospital	-3555
hrt	-3556
IR	-3557
▁direkt	-3558
▁nächsten	-3559
▁Et	-3560
▁..	-3561
▁Telefon	-3562
itter	-3563
onest	-3564
▁glad	-3565
amera	-3566
äsident	-3567
▁meeting	-3568
yle	-3569
▁Menge	-3570
▁zwe	-3571
änger	-3572
andy	-3573
ragt	-3574
▁birth	-3575
ahlt	-3576
▁guten	-3577
ounds	-3578
▁froh	-3579
cess	-3580
org	-3581
▁Hä	-3582
immen	-3583
aste	-3584
ho	-3585
ius	-3586
▁Help	-3587
▁bag	-3588
▁versuche	-3589
bel	-3590
▁Kell	-3591
aucht	-3592
▁dumm	-3593
▁kiss	-3594
ully	-3595
lossen	-3596
▁Beh	-3597
ständ	-3598
▁Jim	-3599
▁Zum	-3600
scheid	-3601
▁Waffen	-3602
ker	-3603
▁Fragen	-3604
▁ref	-3605
▁Außer	-3606
▁getroffen	-3607
▁Habe	-3608
▁sense	-3609
▁Brie	-3610
joy	-3611
▁glaubst	-3612
▁Sinn	-3613
bleme	-3614
auchen	-3615
▁known	-3616
onne	-3617
▁fix	-3618
▁foot	-3619
▁treat	-3620
▁Dollar	-3621
▁passieren	-3622
BI	-3623
raum	-3624
▁liegt	-3625
▁hung	-3626
▁San	-3627
▁Carl	-3628
▁wünsch	-3629
▁vict	-3630
▁ehr	-3631
GHT	-3632
▁Könn	-3633
▁eye	-3634
▁Wal	-3635
amed	-3636
▁po	-3637
▁richt	-3638
▁läuft	-3639
zei	-3640
▁Arzt	-3641
ohlen	-3642
▁cold	-3643
▁Sagen	-3644
▁Rom	-3645
▁exper	-3646
▁favor	-3647
▁aff	-3648
▁hattest	-3649
▁prison	-3650
▁hon	-3651
▁Far	-3652
▁schlafen	-3653
usst	-3654
▁Harry	-3655
▁Something	-3656
▁erled	-3657
▁zer	-3658
▁weeks	-3659
▁Gefühl	-3660
▁Geheim	-3661
▁Sa	-3662
pro	-3663
▁Call	-3664
▁Heil	-3665
ific	-3666
▁felt	-3667
▁jung	-3668
urity	-3669
cl	-3670
▁fly	-3671
▁weh	-3672
▁Boden	-3673
▁words	-3674
ills	-3675
▁First	-3676
▁Gold	-3677
ittag	-3678
▁leicht	-3679
tet	-3680
▁Big	-3681
The	-3682
▁Onkel	-3683
lung	-3684
einander	-3685
▁Raus	-3686
▁press	-3687
▁system	-3688
▁sow	-3689
▁Lieutenant	-3690
oes	-3691
▁longer	-3692
▁King	-3693
▁öff	-3694
▁Cor	-3695
ucker	-3696
▁worth	-3697
▁Comp	-3698
▁lust	-3699
▁wert	-3700
▁Sim	-3701
▁Res	-3702
▁Make	-3703
▁Zug	-3704
▁boss	-3705
irn	-3706
ission	-3707
▁Fine	-3708
legen	-3709
ogra	-3710
▁Lu	-3711
bald	-3712
uture	-3713
▁playing	-3714
▁Sen	-3715
▁wolltest	-3716
▁Fern	-3717
▁getr	-3718
▁adv	-3719
▁Hal	-3720
▁Heute	-3721
▁Detective	-3722
ped	-3723
▁Super	-3724
▁sold	-3725
stellt	-3726
▁Geburt	-3727
▁others	-3728
▁spend	-3729
view	-3730
▁Kre	-3731
▁definit	-3732
▁fur	-3733
▁Dor	-3734
▁fort	-3735
▁heiraten	-3736
mon	-3737
urg	-3738
▁disapp	-3739
onnen	-3740
▁worked	-3741
▁ra	-3742
▁drauf	-3743
▁gestorben	-3744
iser	-3745
▁verlieren	-3746
▁geworden	-3747
▁entire	-3748
▁esc	-3749
▁anr	-3750
▁40	-3751
▁erre	-3752
pped	-3753
ffee	-3754
▁genommen	-3755
▁till	-3756
irm	-3757
isse	-3758
▁beste	-3759
cri	-3760
▁zehn	-3761
olz	-3762
▁CH	-3763
▁loc	-3764
anzen	-3765
▁fallen	-3766
▁erinnere	-3767
▁Tschüss	-3768
▁schie	-3769
▁Hochzeit	-3770
▁Nä	-3771
▁gedacht	-3772
ote	-3773
▁fool	-3774
▁Schr	-3775
▁Wahl	-3776
▁WHAT	-3777
▁ruhig	-3778
▁Act	-3779
▁bud	-3780
▁rede	-3781
▁Stay	-3782
▁nennen	-3783
fahr	-3784
▁Musik	-3785
▁throw	-3786
▁Vertr	-3787
▁krank	-3788
▁Damn	-3789
▁allem	-3790
▁burn	-3791
▁Colonel	-3792
▁trinken	-3793
▁gefragt	-3794
▁Hab	-3795
▁Rep	-3796
▁drug	-3797
▁wall	-3798
▁meant	-3799
▁Krankenhaus	-3800
▁straight	-3801
ollen	-3802
▁road	-3803
▁breat	-3804
NA	-3805
▁Boy	-3806
ena	-3807
▁sug	-3808
▁Sein	-3809
▁App	-3810
▁allow	-3811
inz	-3812
fang	-3813
▁Bank	-3814
irt	-3815
▁kümmern	-3816
▁größ	-3817
aret	-3818
▁hart	-3819
▁benutzen	-3820
▁bec	-3821
▁dro	-3822
ita	-3823
▁Herren	-3824
ails	-3825
▁weap	-3826
▁US	-3827
▁wed	-3828
▁unserem	-3829
▁ir	-3830
▁frag	-3831
zuf	-3832
atten	-3833
▁Seine	-3834
▁short	-3835
▁Shit	-3836
▁pleas	-3837
▁future	-3838
yl	-3839
▁Father	-3840
mb	-3841
▁forgot	-3842
▁Mars	-3843
ika	-3844
▁prop	-3845
zuh	-3846
laf	-3847
uen	-3848
▁Eins	-3849
▁rad	-3850
▁weren	-3851
▁susp	-3852
▁calling	-3853
▁benutzt	-3854
ochen	-3855
idge	-3856
elbe	-3857
▁music	-3858
▁Ir	-3859
mals	-3860
▁box	-3861
▁white	-3862
▁choice	-3863
▁frage	-3864
▁Engl	-3865
sichtig	-3866
▁Präsident	-3867
halt	-3868
▁Darf	-3869
▁Besch	-3870
▁rock	-3871
▁Eigentlich	-3872
▁Haupt	-3873
▁opp	-3874
ept	-3875
▁stellen	-3876
▁Fle	-3877
TER	-3878
VER	-3879
▁11	-3880
▁total	-3881
▁turned	-3882
▁entschuld	-3883
ear	-3884
erence	-3885
▁looked	-3886
▁Star	-3887
▁Ol	-3888
▁Bleib	-3889
▁somewhere	-3890
▁Kaffe	-3891
ga	-3892
▁weniger	-3893
▁fault	-3894
▁überall	-3895
▁schm	-3896
▁invol	-3897
oof	-3898
▁Aah	-3899
▁Those	-3900
,...	-3901
▁questions	-3902
aged	-3903
▁hist	-3904
alent	-3905
ami	-3906
▁Klein	-3907
▁endlich	-3908
reche	-3909
ienen	-3910
▁rather	-3911
EL	-3912
scht	-3913
isches	-3914
za	-3915
▁song	-3916
hand	-3917
stes	-3918
▁stell	-3919
▁Ball	-3920
liches	-3921
▁Hölle	-3922
▁piece	-3923
ublic	-3924
▁dark	-3925
▁West	-3926
ilt	-3927
▁Jungen	-3928
▁besten	-3929
enden	-3930
▁Grand	-3931
reit	-3932
▁auss	-3933
▁Entscheid	-3934
zer	-3935
▁loved	-3936
druck	-3937
▁Raum	-3938
▁gesprochen	-3939
inks	-3940
.....	-3941
▁Hotel	-3942
▁FBI	-3943
▁Erde	-3944
▁takes	-3945
geht	-3946
▁Tony	-3947
▁creat	-3948
▁People	-3949
▁200	-3950
▁gold	-3951
etten	-3952
▁date	-3953
ampe	-3954
▁seltsam	-3955
▁Drogen	-3956
wood	-3957
ians	-3958
▁Witz	-3959
▁ident	-3960
▁Zw	-3961
▁nobody	-3962
▁Probleme	-3963
▁eff	-3964
int	-3965
▁join	-3966
▁Jimmy	-3967
▁Versuch	-3968
ask	-3969
cks	-3970
ras	-3971
▁dau	-3972
reen	-3973
▁Lond	-3974
▁kleines	-3975
ume	-3976
▁Paris	-3977
▁weird	-3978
▁Dire	-3979
▁Arme	-3980
▁schlie	-3981
▁Matt	-3982
▁Ihrem	-3983
llig	-3984
▁mem	-3985
▁schlimm	-3986
!"	-3987
▁ed	-3988
ösen	-3989
▁write	-3990
▁smell	-3991
geant	-3992
▁bott	-3993
zul	-3994
▁aufhören	-3995
▁High	-3996
▁Toll	-3997
▁erk	-3998
▁ändern	-3999
▁finally	-4000
▁hop	-4001
▁Millionen	-4002
▁14	-4003
II	-4004
schön	-4005
▁sun	-4006
▁Zuk	-4007
▁Einen	-4008
▁Information	-4009
▁feet	-4010
▁Dre	-4011
ches	-4012
▁Meister	-4013
▁Isn	-4014
▁gefähr	-4015
amb	-4016
utely	-4017
auch	-4018
iment	-4019
▁film	-4020
▁geschafft	-4021
arten	-4022
▁given	-4023
▁herausf	-4024
▁Majest	-4025
▁Mel	-4026
ots	-4027
▁Chief	-4028
▁Gericht	-4029
▁Professor	-4030
▁Anr	-4031
▁seeing	-4032
▁form	-4033
▁rufe	-4034
▁needed	-4035
▁Schlüssel	-4036
▁moving	-4037
holen	-4038
▁nachdem	-4039
▁mouth	-4040
mord	-4041
▁dance	-4042
gesehen	-4043
▁eure	-4044
zimmer	-4045
▁complet	-4046
ierst	-4047
▁hüb	-4048
bte	-4049
ischt	-4050
▁hall	-4051
▁cell	-4052
▁Opfer	-4053
▁jede	-4054
▁Franc	-4055
▁London	-4056
▁0	-4057
▁Verschw	-4058
▁Pfer	-4059
▁La	-4060
inde	-4061
▁FOR	-4062
▁ausge	-4063
▁clos	-4064
▁Tagen	-4065
▁eigentlich	-4066
dam	-4067
pan	-4068
▁Kaffee	-4069
▁beat	-4070
▁changed	-4071
iker	-4072
▁deep	-4073
▁kaufen	-4074
▁ones	-4075
▁Ms	-4076
ILL	-4077
▁arri	-4078
▁gefallen	-4079
key	-4080
itness	-4081
▁Gegen	-4082
erweise	-4083
▁Sl	-4084
▁16	-4085
▁zuf	-4086
▁Wunder	-4087
▁drop	-4088
esterday	-4089
▁Ra	-4090
▁irgendwas	-4091
▁giving	-4092
▁conv	-4093
▁consider	-4094
▁happening	-4095
▁Fuß	-4096
▁Sol	-4097
zentr	-4098
ändert	-4099
▁Bü	-4100
▁25	-4101
▁Ry	-4102
▁Lee	-4103
rolle	-4104
änder	-4105
▁Gem	-4106
ains	-4107
▁Zukunft	-4108
▁Nobody	-4109
mas	-4110
olt	-4111
▁kaum	-4112
▁erinnern	-4113
▁Hy	-4114
▁Rad	-4115
Sch	-4116
ether	-4117
AD	-4118
▁bank	-4119
▁extra	-4120
ages	-4121
▁spielt	-4122
▁wünschte	-4123
▁Mill	-4124
▁Arschl	-4125
zeich	-4126
▁govern	-4127
▁meisten	-4128
▁ALL	-4129
▁Hoff	-4130
▁Black	-4131
▁arrest	-4132
umen	-4133
▁Beste	-4134
ieß	-4135
▁Boot	-4136
▁reach	-4137
▁Cle	-4138
attle	-4139
▁Mist	-4140
▁coffee	-4141
ox	-4142
▁near	-4143
▁Kampf	-4144
▁evening	-4145
▁gefällt	-4146
▁information	-4147
▁lucky	-4148
▁jemandem	-4149
▁poor	-4150
▁missing	-4151
jen	-4152
▁süß	-4153
▁wü	-4154
▁Jan	-4155
▁Danny	-4156
itor	-4157
▁Zeug	-4158
▁doll	-4159
▁Billy	-4160
inning	-4161
azing	-4162
▁sondern	-4163
▁aller	-4164
▁Weihn	-4165
▁ann	-4166
▁Himmel	-4167
▁verdammte	-4168
▁Mü	-4169
▁psych	-4170
ehm	-4171
▁17	-4172
fst	-4173
▁voller	-4174
▁Tat	-4175
▁camp	-4176
▁interessiert	-4177
▁Traum	-4178
uel	-4179
ammer	-4180
kr	-4181
▁klingt	-4182
▁destroy	-4183
▁Ö	-4184
▁ü	-4185
▁mistake	-4186
▁kidding	-4187
▁prep	-4188
▁Doktor	-4189
IGHT	-4190
otos	-4191
▁GO	-4192
ängst	-4193
▁$1	-4194
▁vö	-4195
stead	-4196
unsch	-4197
▁Geist	-4198
ices	-4199
work	-4200
▁irgendwo	-4201
▁Leuten	-4202
▁Mother	-4203
▁bur	-4204
ENT	-4205
bor	-4206
▁Wen	-4207
▁blow	-4208
▁jedes	-4209
▁großer	-4210
da	-4211
cer	-4212
▁Anwalt	-4213
▁nä	-4214
▁Nähe	-4215
▁President	-4216
▁street	-4217
bes	-4218
wel	-4219
▁step	-4220
aun	-4221
▁arr	-4222
folg	-4223
line	-4224
▁Einzige	-4225
zept	-4226
gramm	-4227
▁Sand	-4228
▁Stand	-4229
▁halte	-4230
▁kennst	-4231
ric	-4232
▁Ähm	-4233
▁Jud	-4234
▁tragen	-4235
▁verletzt	-4236
▁Fen	-4237
rü	-4238
otzdem	-4239
▁ehrlich	-4240
▁anim	-4241
abel	-4242
▁Sarah	-4243
ansp	-4244
▁kick	-4245
▁Richard	-4246
ucks	-4247
▁coll	-4248
▁Move	-4249
oming	-4250
▁halt	-4251
▁accident	-4252
▁Frü	-4253
▁Such	-4254
ousand	-4255
▁worried	-4256
▁denkt	-4257
▁Whatever	-4258
▁Ted	-4259
▁hid	-4260
gemacht	-4261
▁Bin	-4262
▁laut	-4263
▁Zurück	-4264
▁honest	-4265
▁hasse	-4266
▁nächste	-4267
ktiv	-4268
▁cloth	-4269
▁works	-4270
▁Bezie	-4271
ängen	-4272
▁fantast	-4273
▁Hü	-4274
▁Sold	-4275
▁lernen	-4276
ettet	-4277
▁court	-4278
▁Three	-4279
anten	-4280
▁exist	-4281
ivil	-4282
▁early	-4283
▁Someone	-4284
voll	-4285
▁Unsere	-4286
lang	-4287
▁inst	-4288
▁persön	-4289
▁langsam	-4290
▁personal	-4291
▁Fein	-4292
▁Russ	-4293
▁fail	-4294
▁sounds	-4295
▁Beeil	-4296
▁Leave	-4297
▁Rolle	-4298
beite	-4299
▁victim	-4300
▁wedding	-4301
▁ride	-4302
▁sometimes	-4303
▁Ruf	-4304
▁cook	-4305
▁Kim	-4306
▁movie	-4307
▁kept	-4308
ops	-4309
▁einige	-4310
▁Sec	-4311
▁Hören	-4312
▁respect	-4313
▁welcome	-4314
▁watching	-4315
umb	-4316
▁verbr	-4317
oph	-4318
▁worse	-4319
▁tem	-4320
▁reicht	-4321
▁Wohnung	-4322
▁jud	-4323
Cause	-4324
▁Lo	-4325
▁Yo	-4326
yer	-4327
▁Sw	-4328
öst	-4329
▁Adam	-4330
▁Out	-4331
▁Schmer	-4332
▁cir	-4333
▁THIS	-4334
▁Ap	-4335
▁enjoy	-4336
▁Rock	-4337
▁Cra	-4338
UN	-4339
▁jump	-4340
▁surv	-4341
▁verstanden	-4342
▁Del	-4343
▁building	-4344
▁stri	-4345
▁geschickt	-4346
äume	-4347
ata	-4348
ppy	-4349
▁bereits	-4350
▁dou	-4351
▁decided	-4352
▁Ell	-4353
▁bleibt	-4354
▁marry	-4355
punkt	-4356
▁stick	-4357
▁king	-4358
▁respons	-4359
▁Finger	-4360
▁NO	-4361
ücht	-4362
▁Ernst	-4363
iko	-4364
▁etwa	-4365
▁stir	-4366
▁About	-4367
reifen	-4368
lichkeit	-4369
alen	-4370
▁Sil	-4371
▁quiet	-4372
▁contin	-4373
bie	-4374
▁grow	-4375
▁Watch	-4376
▁Back	-4377
▁erzählen	-4378
ya	-4379
▁13	-4380
▁Setz	-4381
▁busy	-4382
▁TV	-4383
osit	-4384
ured	-4385
▁Fred	-4386
▁SO	-4387
▁Actually	-4388
ano	-4389
kehr	-4390
▁Cal	-4391
▁Ele	-4392
mmere	-4393
▁vorstellen	-4394
unity	-4395
▁Everybody	-4396
▁Mörder	-4397
hnen	-4398
you	-4399
▁Test	-4400
▁evidence	-4401
▁Kommt	-4402
▁manchmal	-4403
▁Weile	-4404
▁stark	-4405
▁thinks	-4406
▁message	-4407
ories	-4408
gekommen	-4409
arte	-4410
IL	-4411
wards	-4412
▁Eur	-4413
▁Think	-4414
▁Deal	-4415
US	-4416
öhn	-4417
▁requ	-4418
ection	-4419
▁Wagen	-4420
viously	-4421
▁Laur	-4422
▁erklären	-4423
schied	-4424
▁besonder	-4425
enty	-4426
▁Remember	-4427
▁Vol	-4428
▁Wiedersehen	-4429
▁inn	-4430
▁Gesetz	-4431
ideo	-4432
ee	-4433
ION	-4434
vis	-4435
▁William	-4436
▁roll	-4437
▁handle	-4438
▁card	-4439
▁Sergeant	-4440
▁soul	-4441
▁idiot	-4442
▁überprü	-4443
▁gewinnen	-4444
▁wonderful	-4445
arbeitet	-4446
▁sieh	-4447
▁blind	-4448
▁Schlaf	-4449
orgt	-4450
▁stre	-4451
▁ground	-4452
▁Jeff	-4453
▁Johnny	-4454
▁div	-4455
▁Robert	-4456
ules	-4457
▁WAS	-4458
▁kämpfen	-4459
▁list	-4460
▁rob	-4461
▁sad	-4462
▁Ziel	-4463
▁caught	-4464
▁anrufen	-4465
erin	-4466
▁Leiche	-4467
▁SE	-4468
schn	-4469
▁Wil	-4470
owers	-4471
▁warm	-4472
▁niemanden	-4473
fully	-4474
▁begin	-4475
hat	-4476
▁entf	-4477
▁kont	-4478
▁Prinz	-4479
used	-4480
▁Stud	-4481
▁Van	-4482
▁broke	-4483
▁Drei	-4484
urm	-4485
▁nut	-4486
▁cross	-4487
▁Mac	-4488
ieden	-4489
▁situation	-4490
▁Ärger	-4491
ination	-4492
▁schick	-4493
hlt	-4494
▁Doctor	-4495
▁cost	-4496
▁deser	-4497
▁sil	-4498
▁ring	-4499
▁Unser	-4500
▁completely	-4501
▁Jane	-4502
▁Bus	-4503
▁vorsichtig	-4504
▁City	-4505
▁Jess	-4506
udden	-4507
CE	-4508
spann	-4509
eg	-4510
▁thousand	-4511
▁kon	-4512
▁whoa	-4513
▁relation	-4514
▁schaffen	-4515
▁paper	-4516
▁Herzen	-4517
aint	-4518
iar	-4519
isa	-4520
▁LI	-4521
▁hing	-4522
▁Ganz	-4523
ips	-4524
▁Pal	-4525
▁laufen	-4526
▁schwar	-4527
▁peace	-4528
▁ya	-4529
gere	-4530
▁Bull	-4531
▁spir	-4532
▁kap	-4533
ument	-4534
▁sagten	-4535
▁Jon	-4536
▁Tim	-4537
▁tired	-4538
▁Dieses	-4539
rian	-4540
▁Tor	-4541
▁dür	-4542
▁alter	-4543
▁oper	-4544
▁Everyone	-4545
▁Bad	-4546
▁Denk	-4547
aust	-4548
▁Whoo	-4549
▁apolog	-4550
▁organ	-4551
▁birthday	-4552
▁patient	-4553
▁present	-4554
laublich	-4555
hö	-4556
▁versch	-4557
▁clothes	-4558
▁Geheimnis	-4559
ures	-4560
▁cond	-4561
▁lebt	-4562
▁gestohlen	-4563
OME	-4564
▁post	-4565
▁verhe	-4566
indung	-4567
▁carry	-4568
ärt	-4569
▁More	-4570
▁Major	-4571
▁security	-4572
▁lustig	-4573
teid	-4574
here	-4575
achel	-4576
▁Laden	-4577
▁cre	-4578
itzen	-4579
▁gentlemen	-4580
St	-4581
▁Sn	-4582
▁berü	-4583
▁läch	-4584
undred	-4585
▁beschäft	-4586
▁Willkommen	-4587
▁Fir	-4588
▁sett	-4589
wick	-4590
▁Hin	-4591
stairs	-4592
▁Kill	-4593
reci	-4594
▁lying	-4595
fession	-4596
▁verdammten	-4597
▁Gibt	-4598
▁wütend	-4599
▁hö	-4600
▁station	-4601
▁UN	-4602
▁Rat	-4603
▁Daniel	-4604
▁Scott	-4605
▁Fol	-4606
▁sal	-4607
erk	-4608
▁Band	-4609
▁Vielen	-4610
▁bomb	-4611
RI	-4612
▁enem	-4613
▁American	-4614
▁Try	-4615
aters	-4616
▁born	-4617
▁belong	-4618
▁talked	-4619
stest	-4620
▁Steve	-4621
▁Still	-4622
illy	-4623
▁Mund	-4624
▁MY	-4625
abor	-4626
▁heißen	-4627
▁single	-4628
▁careful	-4629
▁suppose	-4630
osten	-4631
▁share	-4632
▁Arschloch	-4633
mar	-4634
▁vi	-4635
ored	-4636
▁Partner	-4637
▁park	-4638
▁Rei	-4639
▁Mont	-4640
▁Worte	-4641
▁Ow	-4642
▁fühlen	-4643
▁hundred	-4644
▁Ang	-4645
▁gift	-4646
worten	-4647
▁visit	-4648
▁mention	-4649
▁block	-4650
▁search	-4651
ished	-4652
▁angef	-4653
▁investig	-4654
▁Mehr	-4655
reng	-4656
ennst	-4657
▁yesterday	-4658
▁Bro	-4659
ande	-4660
▁Christmas	-4661
▁Should	-4662
redit	-4663
▁floor	-4664
▁middle	-4665
ances	-4666
▁slow	-4667
▁history	-4668
avy	-4669
▁früher	-4670
▁fil	-4671
▁Didn	-4672
▁pract	-4673
▁squ	-4674
fit	-4675
▁Beweise	-4676
▁tu	-4677
▁polit	-4678
▁schre	-4679
▁setzen	-4680
▁24	-4681
▁Over	-4682
▁bath	-4683
▁bother	-4684
▁Ster	-4685
▁voice	-4686
▁threat	-4687
▁Manchmal	-4688
▁table	-4689
öp	-4690
▁stat	-4691
▁Bobby	-4692
▁Japan	-4693
▁KN	-4694
iant	-4695
▁suggest	-4696
cover	-4697
izin	-4698
▁Marc	-4699
▁statt	-4700
▁Turn	-4701
▁concern	-4702
ancy	-4703
▁arbeite	-4704
▁dangerous	-4705
üg	-4706
onnie	-4707
▁bekomme	-4708
sc	-4709
▁Cla	-4710
▁swear	-4711
▁amazing	-4712
▁schrecklich	-4713
ägt	-4714
▁bezahlt	-4715
▁Jake	-4716
▁paid	-4717
▁tick	-4718
▁Ros	-4719
riage	-4720
▁hasn	-4721
▁Dem	-4722
▁Wieso	-4723
▁techn	-4724
▁schuld	-4725
▁welche	-4726
aurant	-4727
iesen	-4728
▁Martin	-4729
▁Aw	-4730
▁terrible	-4731
UST	-4732
▁across	-4733
▁enter	-4734
▁Schlampe	-4735
aven	-4736
zial	-4737
inal	-4738
▁fand	-4739
▁relationship	-4740
▁Last	-4741
▁wear	-4742
upt	-4743
▁Welcome	-4744
▁übr	-4745
AU	-4746
äss	-4747
▁Geschen	-4748
▁Schul	-4749
▁Eddie	-4750
utt	-4751
edet	-4752
▁ziehen	-4753
▁Foto	-4754
▁Anfang	-4755
fle	-4756
▁public	-4757
IA	-4758
▁Bud	-4759
fel	-4760
▁Papa	-4761
▁strange	-4762
▁age	-4763
▁Looks	-4764
▁brain	-4765
möglich	-4766
▁state	-4767
▁track	-4768
▁Meinung	-4769
▁wunderschön	-4770
fahren	-4771
▁anywhere	-4772
set	-4773
▁iss	-4774
gang	-4775
äfte	-4776
▁Neu	-4777
TH	-4778
par	-4779
▁wüs	-4780
rey	-4781
▁DON	-4782
▁cap	-4783
mittel	-4784
▁führen	-4785
kommt	-4786
▁wild	-4787
▁Wovon	-4788
▁Wind	-4789
▁verr	-4790
▁Wä	-4791
▁pur	-4792
achts	-4793
schlag	-4794
▁government	-4795
▁Damen	-4796
▁herausfinden	-4797
▁Gest	-4798
buch	-4799
▁sitzen	-4800
▁gerettet	-4801
▁schicken	-4802
ienten	-4803
▁bitten	-4804
▁push	-4805
▁Entscheidung	-4806
ki	-4807
ählt	-4808
▁space	-4809
▁sat	-4810
por	-4811
ierten	-4812
▁appreci	-4813
gency	-4814
▁verstehst	-4815
▁geredet	-4816
damn	-4817
▁Kap	-4818
iti	-4819
athan	-4820
▁Sus	-4821
▁Carol	-4822
▁Lar	-4823
▁dah	-4824
führt	-4825
▁Chris	-4826
▁anfangen	-4827
▁ansehen	-4828
kn	-4829
▁Mot	-4830
▁pop	-4831
getan	-4832
▁field	-4833
▁Antwort	-4834
▁forever	-4835
▁Monate	-4836
▁behand	-4837
▁match	-4838
äger	-4839
gedacht	-4840
uit	-4841
RO	-4842
tact	-4843
trag	-4844
ogn	-4845
▁Vict	-4846
▁inte	-4847
▁überras	-4848
▁sens	-4849
port	-4850
▁neigh	-4851
▁hältst	-4852
iny	-4853
▁Has	-4854
▁Kan	-4855
▁Club	-4856
▁Damit	-4857
▁Dame	-4858
▁recei	-4859
gestellt	-4860
▁hotel	-4861
▁bezahlen	-4862
▁contact	-4863
--	-4864
uert	-4865
wegen	-4866
denken	-4867
ago	-4868
▁Tommy	-4869
▁Gottes	-4870
▁namen	-4871
ANT	-4872
▁entsch	-4873
0.	-4874
▁Hurry	-4875
ekt	-4876
▁sitting	-4877
▁Geburtstag	-4878
▁pen	-4879
▁Minute	-4880
▁pot	-4881
▁totally	-4882
indet	-4883
ining	-4884
▁hübsch	-4885
▁geschrieben	-4886
▁Rick	-4887
icul	-4888
▁Open	-4889
"...	-4890
▁Charles	-4891
heiten	-4892
▁=	-4893
▁wem	-4894
▁Etwas	-4895
▁Ba	-4896
▁höre	-4897
▁Dep	-4898
▁crime	-4899
gin	-4900
ousin	-4901
▁agree	-4902
ada	-4903
▁simple	-4904
▁fear	-4905
▁eight	-4906
enk	-4907
▁bill	-4908
▁Vir	-4909
▁Perhaps	-4910
▁Commander	-4911
▁Mond	-4912
▁Erinnerst	-4913
▁glass	-4914
▁behalten	-4915
▁ign	-4916
üge	-4917
▁liebt	-4918
▁Monaten	-4919
▁Typen	-4920
ährt	-4921
aker	-4922
auso	-4923
jenige	-4924
▁fle	-4925
▁YOUR	-4926
▁gekauft	-4927
▁wearing	-4928
vol	-4929
stru	-4930
ption	-4931
ötzlich	-4932
▁alleine	-4933
▁Ehe	-4934
▁Eis	-4935
▁verh	-4936
▁cause	-4937
▁using	-4938
▁namens	-4939
▁hide	-4940
▁verkaufen	-4941
▁Handy	-4942
▁Tem	-4943
▁self	-4944
▁angel	-4945
ries	-4946
▁inform	-4947
▁beschäftigt	-4948
ötig	-4949
▁girlfriend	-4950
▁interested	-4951
▁Gel	-4952
vat	-4953
..."	-4954
▁NOT	-4955
▁mel	-4956
▁Monat	-4957
▁area	-4958
ec	-4959
▁Verstanden	-4960
iers	-4961
▁Earth	-4962
▁offic	-4963
ITH	-4964
the	-4965
▁dan	-4966
▁aussehen	-4967
▁verschwinden	-4968
rench	-4969
uffer	-4970
▁knock	-4971
▁perfekt	-4972
▁Insp	-4973
▁wake	-4974
aly	-4975
▁Jung	-4976
rad	-4977
ehren	-4978
▁RE	-4979
ode	-4980
▁Doc	-4981
▁deines	-4982
▁schöne	-4983
▁sudden	-4984
geld	-4985
▁Auge	-4986
▁lunch	-4987
well	-4988
▁Bur	-4989
▁witness	-4990
weis	-4991
▁club	-4992
ising	-4993
spiel	-4994
igger	-4995
ari	-4996
▁boat	-4997
▁buddy	-4998
orter	-4999
▁neben	-5000
▁Officer	-5001
▁Informationen	-5002
aub	-5003
▁Drink	-5004
▁Fenster	-5005
ston	-5006
aked	-5007
▁End	-5008
▁gib	-5009
▁Ta	-5010
▁Hung	-5011
▁vill	-5012
▁Verm	-5013
▁hinten	-5014
▁eas	-5015
icult	-5016
▁America	-5017
▁sowie	-5018
▁problems	-5019
enne	-5020
▁Ener	-5021
▁näher	-5022
▁Lang	-5023
iziert	-5024
▁store	-5025
▁jedem	-5026
▁solche	-5027
▁Sheriff	-5028
▁Brief	-5029
▁charge	-5030
cker	-5031
order	-5032
▁seven	-5033
▁traur	-5034
▁Punkt	-5035
▁rüber	-5036
▁account	-5037
▁proud	-5038
lace	-5039
drück	-5040
▁Auss	-5041
▁untersch	-5042
abb	-5043
endet	-5044
▁accept	-5045
falls	-5046
wagen	-5047
AND	-5048
▁stolz	-5049
▁Stimmt	-5050
▁gearbeitet	-5051
FF	-5052
▁calm	-5053
▁Anruf	-5054
▁mögen	-5055
▁steal	-5056
▁Lehr	-5057
▁cat	-5058
▁erwartet	-5059
▁Anyway	-5060
▁val	-5061
▁doubt	-5062
▁dasselbe	-5063
cially	-5064
▁verfol	-5065
▁hi	-5066
▁Eure	-5067
▁finished	-5068
ids	-5069
▁killer	-5070
ooper	-5071
▁board	-5072
▁smart	-5073
inder	-5074
▁killing	-5075
▁NE	-5076
▁Stimme	-5077
▁saved	-5078
▁imagine	-5079
▁scene	-5080
ächlich	-5081
▁gemein	-5082
▁dev	-5083
▁Fort	-5084
▁circ	-5085
▁Außerdem	-5086
äumen	-5087
▁during	-5088
▁schlimmer	-5089
üte	-5090
▁apartment	-5091
abl	-5092
▁stopped	-5093
gra	-5094
det	-5095
▁gebr	-5096
▁Preis	-5097
▁entfernt	-5098
enten	-5099
▁fürchte	-5100
eilig	-5101
wür	-5102
▁Shh	-5103
▁round	-5104
▁Rücken	-5105
▁beschützen	-5106
anne	-5107
▁Roger	-5108
▁Univers	-5109
▁schreiben	-5110
zw	-5111
▁geboren	-5112
▁fing	-5113
▁Kleid	-5114
▁position	-5115
▁Tisch	-5116
▁darling	-5117
▁Stell	-5118
▁plann	-5119
▁Chin	-5120
▁kalt	-5121
▁bought	-5122
▁letzter	-5123
▁occ	-5124
▁KNOW	-5125
▁Liebes	-5126
▁Since	-5127
▁group	-5128
▁hörte	-5129
▁kompl	-5130
vely	-5131
▁Hinter	-5132
▁gelesen	-5133
zz	-5134
▁suit	-5135
▁Jerry	-5136
▁Mur	-5137
time	-5138
▁hurry	-5139
ugg	-5140
ieht	-5141
▁aufge	-5142
▁völlig	-5143
▁support	-5144
▁def	-5145
▁missed	-5146
hood	-5147
▁cust	-5148
▁Anything	-5149
ays	-5150
▁empf	-5151
rik	-5152
▁geschlagen	-5153
▁Dur	-5154
annte	-5155
▁screw	-5156
.,	-5157
▁Verzei	-5158
ellschaft	-5159
▁Reise	-5160
ällig	-5161
▁fish	-5162
▁Ohne	-5163
▁genauso	-5164
werk	-5165
▁hört	-5166
▁sollst	-5167
▁Möglich	-5168
▁verheiratet	-5169
▁Kontrolle	-5170
▁Welche	-5171
▁realize	-5172
▁Tun	-5173
▁Schm	-5174
ackt	-5175
▁mis	-5176
▁neg	-5177
ielt	-5178
▁Immer	-5179
▁Bürger	-5180
boy	-5181
▁gewonnen	-5182
▁Stan	-5183
▁fill	-5184
prechen	-5185
▁letter	-5186
▁Tats	-5187
aves	-5188
▁hom	-5189
▁kümmere	-5190
eless	-5191
▁Once	-5192
▁danach	-5193
uppen	-5194
▁mass	-5195
oop	-5196
▁lar	-5197
▁Little	-5198
▁arbeitet	-5199
ias	-5200
▁sauer	-5201
▁Emm	-5202
▁Que	-5203
▁Vorsicht	-5204
▁beein	-5205
▁vielen	-5206
▁Brü	-5207
igaret	-5208
▁Beziehung	-5209
▁difficult	-5210
▁Dir	-5211
▁HAVE	-5212
▁bat	-5213
▁seat	-5214
▁calls	-5215
law	-5216
laufen	-5217
ehle	-5218
▁kom	-5219
▁trip	-5220
▁Frieden	-5221
ford	-5222
▁Lauf	-5223
▁aufgeh	-5224
▁Schnell	-5225
ises	-5226
▁rie	-5227
▁verdient	-5228
▁Hals	-5229
▁plane	-5230
omas	-5231
▁client	-5232
▁Mat	-5233
▁appro	-5234
▁drunk	-5235
erei	-5236
▁private	-5237
▁mü	-5238
▁earth	-5239
▁fühlt	-5240
▁bird	-5241
agon	-5242
▁Kom	-5243
▁fat	-5244
▁coun	-5245
▁fighting	-5246
ify	-5247
ohol	-5248
▁Euer	-5249
▁Lage	-5250
▁involved	-5251
ified	-5252
▁fres	-5253
unst	-5254
▁Bom	-5255
▁konnten	-5256
ccess	-5257
▁spot	-5258
ähn	-5259
ierig	-5260
▁Frei	-5261
▁Time	-5262
▁Check	-5263
▁ladies	-5264
▁Ka	-5265
▁Ass	-5266
▁mor	-5267
▁lesen	-5268
ulations	-5269
▁Love	-5270
▁rich	-5271
▁schlagen	-5272
ICH	-5273
▁Sant	-5274
▁dürfen	-5275
▁Sometimes	-5276
▁boyfriend	-5277
▁tief	-5278
▁Lei	-5279
▁Schlag	-5280
▁instead	-5281
▁sowieso	-5282
▁discuss	-5283
▁Master	-5284
▁Li	-5285
bare	-5286
ires	-5287
▁Pfl	-5288
▁Ram	-5289
▁dig	-5290
▁Sing	-5291
chsel	-5292
erd	-5293
artig	-5294
urteil	-5295
▁Zeiten	-5296
▁spec	-5297
▁force	-5298
▁horse	-5299
▁address	-5300
▁Rose	-5301
You	-5302
▁Hät	-5303
▁Uncle	-5304
▁Run	-5305
▁vorher	-5306
▁rom	-5307
▁folgen	-5308
äude	-5309
▁Hit	-5310
▁Ker	-5311
▁Ober	-5312
▁produ	-5313
een	-5314
▁Nachrichten	-5315
▁Met	-5316
ternoon	-5317
▁agre	-5318
▁Eric	-5319
▁forward	-5320
▁Computer	-5321
ossible	-5322
▁ak	-5323
▁Must	-5324
▁excuse	-5325
▁Runter	-5326
▁sieben	-5327
▁Bastard	-5328
▁Tri	-5329
▁trotzdem	-5330
▁Tasche	-5331
▁Sekunden	-5332
ico	-5333
▁Jun	-5334
▁Situation	-5335
▁spent	-5336
▁blue	-5337
▁gele	-5338
LY	-5339
uhige	-5340
▁Clark	-5341
▁broken	-5342
orfen	-5343
rasch	-5344
▁Fel	-5345
CT	-5346
▁Zwe	-5347
▁moved	-5348
▁Rel	-5349
quen	-5350
▁Bier	-5351
▁cops	-5352
field	-5353
▁reing	-5354
▁standing	-5355
▁Victor	-5356
over	-5357
▁Bre	-5358
örung	-5359
▁Form	-5360
▁suffer	-5361
ändig	-5362
▁Beis	-5363
▁neues	-5364
▁verspreche	-5365
otte	-5366
▁Nachbar	-5367
▁Anna	-5368
▁England	-5369
▁erfahren	-5370
ora	-5371
▁pray	-5372
▁streng	-5373
▁ice	-5374
etzte	-5375
ücke	-5376
▁tar	-5377
pecially	-5378
ky	-5379
arf	-5380
alth	-5381
▁Honey	-5382
▁spirit	-5383
▁aut	-5384
▁Rachel	-5385
RY	-5386
▁gener	-5387
stellung	-5388
▁MANN	-5389
otten	-5390
▁schwöre	-5391
elebr	-5392
▁nimmst	-5393
ieur	-5394
ourn	-5395
▁Hon	-5396
▁Mex	-5397
▁Cool	-5398
▁marriage	-5399
medi	-5400
▁nennt	-5401
▁ty	-5402
▁miles	-5403
▁Machen	-5404
1.	-5405
▁Kal	-5406
▁Seele	-5407
▁cas	-5408
▁definitely	-5409
▁Erw	-5410
▁kit	-5411
▁Fil	-5412
▁wach	-5413
aren	-5414
▁wette	-5415
ms	-5416
stehen	-5417
▁eigene	-5418
▁window	-5419
▁equ	-5420
▁Proz	-5421
▁Ryan	-5422
ALL	-5423
▁ertr	-5424
GE	-5425
äuf	-5426
weg	-5427
▁Weiß	-5428
▁nötig	-5429
▁Meer	-5430
gelt	-5431
oß	-5432
▁Vier	-5433
▁Gefallen	-5434
ützt	-5435
▁path	-5436
▁mensch	-5437
▁Operation	-5438
▁AB	-5439
omer	-5440
▁tough	-5441
▁anz	-5442
indest	-5443
▁Absol	-5444
▁Einer	-5445
shit	-5446
▁Leg	-5447
▁grab	-5448
▁jail	-5449
▁Street	-5450
▁within	-5451
▁member	-5452
rift	-5453
▁attention	-5454
▁Gang	-5455
▁lief	-5456
ongrat	-5457
ichtet	-5458
▁unmöglich	-5459
▁low	-5460
▁Thomas	-5461
▁except	-5462
▁Familien	-5463
reten	-5464
öl	-5465
▁verliebt	-5466
▁Sehen	-5467
▁interesting	-5468
otogra	-5469
▁White	-5470
rote	-5471
▁erledigt	-5472
▁appreciate	-5473
▁Wich	-5474
▁band	-5475
▁truck	-5476
▁immedi	-5477
▁feels	-5478
bre	-5479
▁seconds	-5480
▁prove	-5481
▁lovely	-5482
▁Bu	-5483
▁Beispiel	-5484
▁partner	-5485
▁surprise	-5486
OL	-5487
rel	-5488
aine	-5489
▁Kommen	-5490
▁Verbrechen	-5491
▁honor	-5492
bild	-5493
▁müde	-5494
▁Armee	-5495
▁College	-5496
▁Regierung	-5497
irgend	-5498
ham	-5499
▁insp	-5500
ünden	-5501
▁angry	-5502
▁versprochen	-5503
▁gelernt	-5504
err	-5505
▁magst	-5506
▁ries	-5507
▁bastard	-5508
OULD	-5509
▁est	-5510
▁tat	-5511
ipped	-5512
▁Louis	-5513
▁walking	-5514
▁Mittag	-5515
▁Kate	-5516
▁falls	-5517
▁Tur	-5518
ament	-5519
pa	-5520
▁WITH	-5521
▁fangen	-5522
wand	-5523
▁Auch	-5524
▁entschuldigen	-5525
ments	-5526
▁Pete	-5527
▁auth	-5528
▁service	-5529
▁Tante	-5530
▁fühlst	-5531
▁lawyer	-5532
gu	-5533
▁Amy	-5534
▁upon	-5535
▁Sat	-5536
agegen	-5537
▁Count	-5538
▁Walter	-5539
▁Fün	-5540
▁none	-5541
▁guest	-5542
aterial	-5543
▁Firma	-5544
▁schätzen	-5545
2.	-5546
▁lim	-5547
sey	-5548
eile	-5549
▁laugh	-5550
▁mission	-5551
▁afternoon	-5552
▁Bas	-5553
▁Su	-5554
erem	-5555
▁Fest	-5556
▁Before	-5557
▁acht	-5558
▁lived	-5559
jor	-5560
host	-5561
▁Doch	-5562
▁indem	-5563
▁planet	-5564
▁certainly	-5565
▁Tw	-5566
ression	-5567
▁Unfall	-5568
▁inf	-5569
▁Di	-5570
▁conn	-5571
▁Witze	-5572
▁milit	-5573
acy	-5574
▁Wein	-5575
▁böse	-5576
▁Roy	-5577
▁Next	-5578
▁kennt	-5579
vey	-5580
iner	-5581
▁Verbindung	-5582
stit	-5583
▁English	-5584
▁Mission	-5585
▁intern	-5586
▁abs	-5587
▁travel	-5588
PP	-5589
usion	-5590
▁Happy	-5591
▁gebeten	-5592
▁Flugzeug	-5593
▁Ohh	-5594
resse	-5595
illa	-5596
▁gefährlich	-5597
▁celebr	-5598
▁Masch	-5599
▁cow	-5600
▁Schre	-5601
▁DE	-5602
ads	-5603
alität	-5604
▁überle	-5605
▁bere	-5606
▁evil	-5607
▁scheiße	-5608
▁Überrasch	-5609
▁Madam	-5610
▁often	-5611
▁hungry	-5612
▁lay	-5613
▁wunderbar	-5614
ini	-5615
▁Zieh	-5616
house	-5617
▁CAN	-5618
ibility	-5619
▁Besonder	-5620
▁Irgendwas	-5621
asen	-5622
zukommen	-5623
▁deshalb	-5624
▁niemals	-5625
inen	-5626
▁Mhm	-5627
▁mot	-5628
▁Gren	-5629
▁cash	-5630
▁loves	-5631
▁}	-5632
jekt	-5633
itel	-5634
▁direct	-5635
▁unglaublich	-5636
▁offensichtlich	-5637
glie	-5638
▁aufs	-5639
▁erinner	-5640
▁umbringen	-5641
kte	-5642
ließ	-5643
▁dagegen	-5644
vier	-5645
▁Doug	-5646
▁recogn	-5647
▁Energie	-5648
▁Sign	-5649
▁dying	-5650
▁findet	-5651
▁nachgedacht	-5652
ampag	-5653
cious	-5654
▁joke	-5655
▁phys	-5656
▁likes	-5657
ji	-5658
ibly	-5659
5.	-5660
▁richtige	-5661
napp	-5662
▁Durch	-5663
▁Somebody	-5664
back	-5665
unkel	-5666
▁Kevin	-5667
▁bemer	-5668
▁Gehirn	-5669
zust	-5670
▁Lin	-5671
▁ill	-5672
▁Andy	-5673
▁magic	-5674
▁eingel	-5675
▁Möglichkeit	-5676
oking	-5677
▁verwand	-5678
▁pleasure	-5679
▁Vergangen	-5680
▁dick	-5681
▁weht	-5682
▁Gleich	-5683
▁Att	-5684
▁Würdest	-5685
▁harm	-5686
▁serv	-5687
irgendwo	-5688
▁shop	-5689
▁suche	-5690
iced	-5691
▁Stu	-5692
▁upset	-5693
▁AL	-5694
▁ARE	-5695
▁neck	-5696
ima	-5697
▁master	-5698
▁rufen	-5699
▁third	-5700
▁besonders	-5701
esse	-5702
▁Zus	-5703
▁arrang	-5704
▁verantwort	-5705
ustr	-5706
ector	-5707
▁liked	-5708
▁gebrochen	-5709
▁emotion	-5710
rit	-5711
such	-5712
▁Pet	-5713
ology	-5714
meister	-5715
▁guard	-5716
▁geschlafen	-5717
hew	-5718
nahme	-5719
▁Bereit	-5720
▁Volk	-5721
▁sake	-5722
▁starting	-5723
ellt	-5724
▁Intern	-5725
▁abgesch	-5726
of	-5727
axi	-5728
wise	-5729
stein	-5730
▁Maria	-5731
▁länger	-5732
▁Vergangenheit	-5733
▁lei	-5734
▁Wofür	-5735
▁dum	-5736
▁plötzlich	-5737
▁som	-5738
▁officer	-5739
pekt	-5740
anda	-5741
▁wrote	-5742
▁Süße	-5743
uhr	-5744
▁became	-5745
▁decision	-5746
▁AT	-5747
▁vern	-5748
▁starb	-5749
▁Kindern	-5750
▁Gal	-5751
▁Eier	-5752
▁weapon	-5753
▁absolut	-5754
sive	-5755
▁Dave	-5756
▁Lind	-5757
▁extre	-5758
▁innoc	-5759
▁fliegen	-5760
sst	-5761
▁AS	-5762
alte	-5763
laim	-5764
▁pal	-5765
▁machine	-5766
▁suspect	-5767
▁erwischt	-5768
▁Holly	-5769
▁cent	-5770
▁Geschenk	-5771
▁MA	-5772
▁Kug	-5773
▁Tier	-5774
▁Up	-5775
▁stuck	-5776
▁perhaps	-5777
▁owe	-5778
▁Gefahr	-5779
inkt	-5780
▁schaff	-5781
▁non	-5782
▁nahm	-5783
wunsch	-5784
▁House	-5785
▁Swe	-5786
▁Euch	-5787
haftet	-5788
fallen	-5789
schluss	-5790
▁Pan	-5791
▁fern	-5792
▁witz	-5793
ünst	-5794
▁Führ	-5795
etztes	-5796
▁comfort	-5797
▁dude	-5798
▁Liste	-5799
▁Robin	-5800
emals	-5801
▁beginning	-5802
con	-5803
rect	-5804
wohn	-5805
▁beob	-5806
▁draw	-5807
▁Jason	-5808
▁holding	-5809
▁GET	-5810
▁Stein	-5811
▁French	-5812
▁verkauft	-5813
▁Wald	-5814
▁di	-5815
etic	-5816
▁Sonne	-5817
▁rain	-5818
esh	-5819
undert	-5820
▁Dis	-5821
▁unless	-5822
▁Kontakt	-5823
night	-5824
▁Wichser	-5825
▁'?	-5826
▁Too	-5827
▁Chuck	-5828
enter	-5829
▁Techn	-5830
▁Alright	-5831
▁driving	-5832
ätz	-5833
▁Haare	-5834
▁rules	-5835
ona	-5836
▁promised	-5837
▁putting	-5838
▁Jac	-5839
▁mod	-5840
▁gegessen	-5841
▁cute	-5842
▁prov	-5843
icated	-5844
▁Claire	-5845
▁Könnte	-5846
iday	-5847
▁Zuh	-5848
▁JUST	-5849
▁gutes	-5850
▁Karte	-5851
▁schießen	-5852
ibe	-5853
lax	-5854
rakt	-5855
▁named	-5856
▁Gebäude	-5857
▁Want	-5858
▁verpasst	-5859
▁Verzeihung	-5860
▁difference	-5861
▁DNA	-5862
▁Ugh	-5863
▁dare	-5864
▁System	-5865
▁ständig	-5866
▁tie	-5867
▁ganzes	-5868
▁bekannt	-5869
▁gesucht	-5870
äm	-5871
▁Way	-5872
▁spl	-5873
▁Long	-5874
▁ille	-5875
▁Pferd	-5876
▁redet	-5877
na	-5878
▁jemals	-5879
▁necess	-5880
▁hero	-5881
hält	-5882
▁Tee	-5883
▁zeig	-5884
▁posit	-5885
▁tea	-5886
▁Wollen	-5887
▁Schmerz	-5888
▁sea	-5889
uhen	-5890
▁Camp	-5891
▁sauber	-5892
ippen	-5893
führer	-5894
▁Todes	-5895
▁success	-5896
han	-5897
▁wid	-5898
▁schlechte	-5899
ums	-5900
▁Aren	-5901
▁Fleisch	-5902
▁spricht	-5903
abeth	-5904
wich	-5905
icious	-5906
▁Dick	-5907
chtest	-5908
▁Legen	-5909
▁college	-5910
row	-5911
fast	-5912
▁Zeig	-5913
▁Vo	-5914
gefunden	-5915
▁president	-5916
ubb	-5917
▁quickly	-5918
▁niemandem	-5919
ploy	-5920
▁target	-5921
▁Glückwunsch	-5922
▁pregn	-5923
▁Indian	-5924
▁na	-5925
anna	-5926
▁Five	-5927
▁kamen	-5928
▁keiner	-5929
▁Rede	-5930
pected	-5931
ationen	-5932
kopf	-5933
riffen	-5934
irk	-5935
▁repar	-5936
▁Haufen	-5937
50	-5938
▁Position	-5939
uce	-5940
▁Wird	-5941
älter	-5942
▁Walk	-5943
▁konntest	-5944
▁Pil	-5945
▁Gentle	-5946
▁remind	-5947
seh	-5948
gezogen	-5949
▁60	-5950
▁Mami	-5951
▁danc	-5952
▁verhaftet	-5953
▁kriegst	-5954
▁erreichen	-5955
osen	-5956
▁bess	-5957
▁piss	-5958
▁hörst	-5959
▁liebst	-5960
▁Brother	-5961
▁profession	-5962
gram	-5963
▁Gesellschaft	-5964
erne	-5965
▁Entschuldigen	-5966
▁van	-5967
OP	-5968
ütz	-5969
atte	-5970
▁bewegen	-5971
▁amer	-5972
recht	-5973
▁Somm	-5974
▁betrunken	-5975
▁gelassen	-5976
ida	-5977
ipe	-5978
laubt	-5979
▁Richtung	-5980
▁üb	-5981
älle	-5982
▁bear	-5983
▁nimmt	-5984
▁sleeping	-5985
▁heiße	-5986
▁Schicks	-5987
iew	-5988
▁Hm	-5989
▁witzig	-5990
▁appe	-5991
▁tanzen	-5992
ev	-5993
▁gas	-5994
▁Betr	-5995
ongratulations	-5996
▁Chef	-5997
▁Brit	-5998
▁mitgebracht	-5999
wär	-6000
▁Ehren	-6001
▁picked	-6002
▁sup	-6003
▁Larry	-6004
hington	-6005
▁Leo	-6006
bruch	-6007
▁Prob	-6008
▁übern	-6009
▁absolutely	-6010
▁themselves	-6011
-1	-6012
▁Greg	-6013
▁forgive	-6014
▁OH	-6015
▁Port	-6016
ording	-6017
▁battle	-6018
▁church	-6019
▁ließ	-6020
▁wartet	-6021
urb	-6022
▁Cy	-6023
▁Fotos	-6024
▁Perfe	-6025
▁Weise	-6026
▁elect	-6027
ieb	-6028
eding	-6029
▁Dien	-6030
▁erwarten	-6031
▁Häl	-6032
▁Mos	-6033
ko	-6034
asc	-6035
ishing	-6036
▁Besuch	-6037
▁cab	-6038
▁German	-6039
iley	-6040
▁Com	-6041
▁radio	-6042
▁beweisen	-6043
▁hilft	-6044
ef	-6045
▁mut	-6046
▁Luke	-6047
▁army	-6048
▁vermisst	-6049
▁impossible	-6050
▁Staats	-6051
▁figured	-6052
schr	-6053
ressed	-6054
▁Offen	-6055
▁entlang	-6056
▁Sun	-6057
▁Joey	-6058
▁escape	-6059
▁whether	-6060
▁Af	-6061
▁Pop	-6062
Oh	-6063
▁fit	-6064
▁Today	-6065
icle	-6066
▁orders	-6067
▁Regeln	-6068
▁akzept	-6069
▁sobald	-6070
will	-6071
▁bekommst	-6072
scher	-6073
▁assh	-6074
▁wenigstens	-6075
▁ew	-6076
▁amb	-6077
▁Jose	-6078
▁perform	-6079
▁Muss	-6080
▁learned	-6081
▁listening	-6082
▁Ko	-6083
▁Aye	-6084
▁Ner	-6085
▁worst	-6086
▁computer	-6087
▁McC	-6088
▁Jenn	-6089
▁Dreck	-6090
▁Fünf	-6091
▁Brian	-6092
▁Dra	-6093
▁Roll	-6094
eilt	-6095
▁Four	-6096
▁main	-6097
▁Hoffnung	-6098
▁fantastisch	-6099
▁Treffen	-6100
▁ow	-6101
▁Cha	-6102
alien	-6103
▁event	-6104
▁trick	-6105
▁vertrauen	-6106
▁Cam	-6107
▁pun	-6108
▁inde	-6109
▁Amerika	-6110
▁Gedanken	-6111
orts	-6112
▁unbe	-6113
▁langw	-6114
weder	-6115
▁hello	-6116
▁Kirche	-6117
▁gives	-6118
▁myster	-6119
▁goddamn	-6120
chan	-6121
täus	-6122
▁Natur	-6123
ACK	-6124
▁verschwunden	-6125
ram	-6126
esome	-6127
▁yell	-6128
rog	-6129
▁besorgt	-6130
pielt	-6131
▁Josh	-6132
▁Alan	-6133
erecht	-6134
▁Francis	-6135
nern	-6136
▁BUT	-6137
heart	-6138
▁Druck	-6139
▁passed	-6140
▁staying	-6141
▁Kle	-6142
▁ourselves	-6143
▁eg	-6144
▁Bern	-6145
▁Down	-6146
▁Müll	-6147
▁relax	-6148
▁angefangen	-6149
▁Smith	-6150
▁enemy	-6151
▁shoes	-6152
▁Chic	-6153
IND	-6154
rieb	-6155
ismus	-6156
▁Hut	-6157
ordin	-6158
3.	-6159
▁mount	-6160
▁interview	-6161
▁♫	-6162
äne	-6163
ägst	-6164
▁gefü	-6165
▁damals	-6166
▁Feind	-6167
▁Straßen	-6168
lock	-6169
▁Lasst	-6170
▁Erst	-6171
▁eating	-6172
cing	-6173
▁Jeden	-6174
▁bunch	-6175
pty	-6176
▁dirty	-6177
ades	-6178
▁crap	-6179
sa	-6180
lant	-6181
igens	-6182
▁derjenige	-6183
▁Dumm	-6184
▁jack	-6185
▁heaven	-6186
üssen	-6187
ined	-6188
▁Step	-6189
onsieur	-6190
▁machte	-6191
▁Leon	-6192
▁Spur	-6193
▁immediately	-6194
▁$2	-6195
▁geliebt	-6196
▁traurig	-6197
▁Washington	-6198
▁beer	-6199
▁aufhalten	-6200
▁Wissenschaft	-6201
ola	-6202
▁Ly	-6203
▁experience	-6204
▁Bart	-6205
▁base	-6206
▁geschehen	-6207
▁Ring	-6208
▁Vaters	-6209
▁Richter	-6210
▁Psych	-6211
arently	-6212
thur	-6213
▁Schwach	-6214
lor	-6215
▁Fal	-6216
▁Rus	-6217
▁beenden	-6218
aschen	-6219
▁uncle	-6220
hall	-6221
äche	-6222
omen	-6223
▁Bew	-6224
oring	-6225
▁Zeichen	-6226
▁willing	-6227
▁entscheiden	-6228
OS	-6229
▁Haw	-6230
▁herself	-6231
▁Mut	-6232
ESS	-6233
▁Gefühle	-6234
▁hadn	-6235
▁Hunger	-6236
▁Hälfte	-6237
▁Madame	-6238
▁Schwanz	-6239
read	-6240
▁Baum	-6241
▁Eliz	-6242
▁fuckin	-6243
ened	-6244
▁Lisa	-6245
▁Post	-6246
▁Kraft	-6247
▁kaputt	-6248
äß	-6249
äge	-6250
▁orig	-6251
▁anderer	-6252
▁funktionieren	-6253
▁Date	-6254
▁Forget	-6255
▁Obwohl	-6256
▁Zust	-6257
▁passen	-6258
▁stirbt	-6259
▁wine	-6260
▁bekam	-6261
INE	-6262
▁cast	-6263
▁Kunst	-6264
▁tight	-6265
▁großes	-6266
▁kontroll	-6267
▁Tö	-6268
▁ener	-6269
▁Lassen	-6270
▁camera	-6271
▁unterst	-6272
ura	-6273
ague	-6274
▁Green	-6275
▁blame	-6276
ained	-6277
achtet	-6278
▁junge	-6279
▁ways	-6280
enken	-6281
▁Hang	-6282
▁helping	-6283
ags	-6284
iles	-6285
jähr	-6286
▁arms	-6287
▁blau	-6288
▁dank	-6289
▁convers	-6290
▁verschieden	-6291
bern	-6292
▁brill	-6293
itted	-6294
▁angetan	-6295
▁FR	-6296
▁author	-6297
▁feelings	-6298
licht	-6299
▁alright	-6300
ARD	-6301
iform	-6302
▁tree	-6303
▁Besser	-6304
fre	-6305
ibr	-6306
▁verab	-6307
▁Won	-6308
▁Güte	-6309
▁entschieden	-6310
▁nervös	-6311
▁Lied	-6312
▁Sonnen	-6313
▁cup	-6314
▁drugs	-6315
▁decide	-6316
aron	-6317
omin	-6318
year	-6319
▁emer	-6320
▁choose	-6321
▁dreams	-6322
▁Weihnachten	-6323
▁verantwortlich	-6324
▁'.	-6325
cent	-6326
▁Bell	-6327
▁nirgendwo	-6328
mond	-6329
▁Cop	-6330
▁Nar	-6331
▁Start	-6332
▁Gruppe	-6333
▁caus	-6334
▁Ross	-6335
▁tolle	-6336
▁Sobald	-6337
wann	-6338
▁Stock	-6339
▁Monster	-6340
ema	-6341
präch	-6342
▁Jean	-6343
ologie	-6344
▁Goodbye	-6345
▁op	-6346
▁Ehr	-6347
▁Ehre	-6348
▁quit	-6349
▁Bevor	-6350
▁dauern	-6351
▁Schritt	-6352
ostet	-6353
▁transp	-6354
▁opport	-6355
▁darin	-6356
uern	-6357
▁ruf	-6358
▁Emily	-6359
▁weekend	-6360
▁Heim	-6361
down	-6362
▁Klasse	-6363
ELL	-6364
laden	-6365
▁further	-6366
utlich	-6367
▁führt	-6368
auspiel	-6369
atic	-6370
▁huge	-6371
▁Bringen	-6372
▁allowed	-6373
rig	-6374
▁Bau	-6375
ville	-6376
isiert	-6377
▁zerstört	-6378
▁Ken	-6379
▁East	-6380
▁faith	-6381
▁Befehl	-6382
▁crimin	-6383
rib	-6384
▁Yep	-6385
▁lab	-6386
▁Deut	-6387
▁crew	-6388
▁princ	-6389
▁command	-6390
▁anst	-6391
▁charac	-6392
▁romant	-6393
▁bekommt	-6394
gress	-6395
icide	-6396
▁intro	-6397
▁Respekt	-6398
genheit	-6399
lei	-6400
acken	-6401
▁Nächstes	-6402
▁überrascht	-6403
▁ern	-6404
andon	-6405
cil	-6406
emann	-6407
▁claim	-6408
▁Chicago	-6409
zte	-6410
imp	-6411
▁2:	-6412
üsse	-6413
▁passt	-6414
▁favorite	-6415
bell	-6416
▁Nat	-6417
dd	-6418
aue	-6419
riere	-6420
izza	-6421
▁Unt	-6422
▁persönlich	-6423
cel	-6424
▁seines	-6425
▁erinnerst	-6426
▁verz	-6427
adition	-6428
▁Schicksal	-6429
nisse	-6430
▁final	-6431
▁SU	-6432
▁Grace	-6433
▁type	-6434
▁Simon	-6435
▁Vergn	-6436
▁Kamera	-6437
▁dachten	-6438
eds	-6439
▁Ung	-6440
▁fired	-6441
▁reink	-6442
▁übrig	-6443
gabe	-6444
duc	-6445
rass	-6446
▁Dach	-6447
▁fei	-6448
▁Mick	-6449
▁double	-6450
minister	-6451
▁THEY	-6452
▁Während	-6453
▁Neuigkeiten	-6454
▁Kelly	-6455
▁Klingt	-6456
▁bleibst	-6457
ito	-6458
▁mate	-6459
▁locked	-6460
▁Dorf	-6461
▁wood	-6462
▁Denkst	-6463
anner	-6464
fortun	-6465
▁gibst	-6466
▁fällt	-6467
▁names	-6468
▁Sonn	-6469
▁Händen	-6470
▁Mannes	-6471
▁kitchen	-6472
▁Ren	-6473
▁bathroom	-6474
▁pictures	-6475
ring	-6476
▁Emp	-6477
▁Zuf	-6478
▁race	-6479
▁sand	-6480
▁South	-6481
▁stole	-6482
ART	-6483
▁tap	-6484
▁Talk	-6485
ächtig	-6486
▁dollars	-6487
▁innocent	-6488
serv	-6489
▁Cast	-6490
▁entde	-6491
fet	-6492
abil	-6493
äst	-6494
mission	-6495
▁Verstand	-6496
▁guns	-6497
▁sexy	-6498
▁setz	-6499
▁teilen	-6500
▁Schluss	-6501
▁Unterschied	-6502
iety	-6503
▁Pick	-6504
gewöhn	-6505
▁Blick	-6506
▁Oma	-6507
olfen	-6508
▁Ange	-6509
▁inner	-6510
äu	-6511
▁Emma	-6512
ulation	-6513
▁kriegt	-6514
▁hook	-6515
▁weak	-6516
▁Kleiner	-6517
▁bell	-6518
ample	-6519
▁surprised	-6520
▁lächer	-6521
▁notice	-6522
va	-6523
▁Huren	-6524
▁fresh	-6525
▁Königin	-6526
▁captain	-6527
▁Majestät	-6528
▁Planeten	-6529
▁Steh	-6530
▁richtigen	-6531
zusehen	-6532
führen	-6533
▁drinking	-6534
▁Norm	-6535
agn	-6536
▁green	-6537
▁Schwar	-6538
▁Girl	-6539
▁Sche	-6540
arlier	-6541
▁entkommen	-6542
▁Arch	-6543
▁LIKE	-6544
▁deliver	-6545
ando	-6546
▁bow	-6547
▁Dean	-6548
▁nervous	-6549
izieren	-6550
▁Cap	-6551
▁medic	-6552
▁Frag	-6553
▁Kennen	-6554
▁keeping	-6555
▁21	-6556
▁schlau	-6557
▁Wild	-6558
▁North	-6559
▁Trick	-6560
▁besorgen	-6561
ique	-6562
▁unc	-6563
▁eben	-6564
▁summer	-6565
▁gegenüber	-6566
iell	-6567
▁OUT	-6568
▁Pen	-6569
▁waste	-6570
samkeit	-6571
▁Blumen	-6572
▁seriously	-6573
▁500	-6574
▁admit	-6575
▁Arthur	-6576
EST	-6577
▁Han	-6578
▁aufz	-6579
▁level	-6580
▁Überraschung	-6581
▁Beg	-6582
▁Deb	-6583
▁Liz	-6584
▁Nase	-6585
▁quar	-6586
▁bigger	-6587
merk	-6588
▁erg	-6589
▁continue	-6590
▁books	-6591
mir	-6592
▁closed	-6593
oßen	-6594
▁solange	-6595
IG	-6596
edy	-6597
satz	-6598
▁view	-6599
▁worden	-6600
▁wüsste	-6601
itty	-6602
äten	-6603
ites	-6604
▁Most	-6605
▁moon	-6606
▁Exactly	-6607
phy	-6608
▁Mum	-6609
ilty	-6610
irrt	-6611
iforn	-6612
▁Meilen	-6613
▁pregnant	-6614
rett	-6615
▁schaffst	-6616
▁gotten	-6617
▁gespielt	-6618
ival	-6619
▁helped	-6620
mach	-6621
▁Geschw	-6622
onen	-6623
iegen	-6624
▁Holy	-6625
ikaner	-6626
▁Insel	-6627
▁Young	-6628
▁teacher	-6629
▁wondering	-6630
▁Glas	-6631
mittag	-6632
▁sight	-6633
▁ermord	-6634
▁Gab	-6635
▁Val	-6636
ech	-6637
eel	-6638
7.	-6639
▁hy	-6640
▁duty	-6641
▁hoping	-6642
aufe	-6643
▁Bord	-6644
▁sever	-6645
OUT	-6646
▁versteckt	-6647
rieden	-6648
do	-6649
▁ur	-6650
▁Marg	-6651
▁Wand	-6652
▁THERE	-6653
▁price	-6654
velop	-6655
▁Dienst	-6656
IST	-6657
▁Jam	-6658
ließen	-6659
▁hiding	-6660
▁complete	-6661
▁Kä	-6662
▁Were	-6663
▁Schuss	-6664
▁Hank	-6665
▁Fisch	-6666
▁Carter	-6667
▁RIGHT	-6668
ünft	-6669
▁bringst	-6670
▁Anw	-6671
▁22	-6672
aded	-6673
▁Öff	-6674
▁HERE	-6675
▁twice	-6676
▁könnt	-6677
ru	-6678
▁memory	-6679
▁showed	-6680
▁deserve	-6681
▁Grö	-6682
treten	-6683
▁Viele	-6684
krie	-6685
klär	-6686
▁Zauber	-6687
LA	-6688
zahl	-6689
▁bestät	-6690
▁geholfen	-6691
ütze	-6692
▁legs	-6693
kam	-6694
▁UP	-6695
▁Span	-6696
▁gang	-6697
▁smoke	-6698
▁aud	-6699
▁obwohl	-6700
atherine	-6701
▁erschossen	-6702
▁island	-6703
▁access	-6704
▁result	-6705
▁Soldaten	-6706
▁Jew	-6707
▁Find	-6708
▁Annie	-6709
▁finger	-6710
▁proper	-6711
▁Besides	-6712
▁played	-6713
▁arrived	-6714
▁amerikan	-6715
▁Sur	-6716
▁Hilf	-6717
▁Pier	-6718
lligen	-6719
▁Hörst	-6720
▁discover	-6721
▁nose	-6722
▁sle	-6723
schung	-6724
▁brechen	-6725
anch	-6726
istr	-6727
▁Alice	-6728
gefallen	-6729
▁dauert	-6730
▁Cut	-6731
▁bleibe	-6732
▁erschie	-6733
▁wussten	-6734
▁incl	-6735
▁places	-6736
▁geändert	-6737
▁Schwier	-6738
▁Vergnügen	-6739
arty	-6740
passen	-6741
▁links	-6742
▁usually	-6743
iest	-6744
amous	-6745
▁assist	-6746
▁Paar	-6747
▁shooting	-6748
amin	-6749
▁Hor	-6750
itzer	-6751
▁Eines	-6752
▁natur	-6753
▁bloody	-6754
ex	-6755
▁Leichen	-6756
▁Tatsache	-6757
▁Other	-6758
ieten	-6759
berg	-6760
▁inj	-6761
▁Brad	-6762
▁Samm	-6763
▁Brown	-6764
▁apart	-6765
▁Grab	-6766
▁acting	-6767
▁Minister	-6768
▁Tay	-6769
▁wash	-6770
ädchen	-6771
▁Dafür	-6772
▁judge	-6773
▁Erfahr	-6774
met	-6775
▁Another	-6776
▁ähm	-6777
▁Abendessen	-6778
oms	-6779
▁AR	-6780
zeugen	-6781
▁Riesen	-6782
▁Hem	-6783
▁Wood	-6784
▁Reden	-6785
ahnsinn	-6786
▁flight	-6787
▁bestimmt	-6788
▁Ten	-6789
▁foc	-6790
immung	-6791
▁Jackson	-6792
▁zerstören	-6793
vy	-6794
▁Lily	-6795
llt	-6796
▁Fun	-6797
▁Pers	-6798
ameras	-6799
▁bless	-6800
▁terror	-6801
sohn	-6802
▁auft	-6803
▁Queen	-6804
iculous	-6805
▁illegal	-6806
▁village	-6807
▁eigenes	-6808
sec	-6809
▁Monsieur	-6810
hre	-6811
▁JO	-6812
▁everywhere	-6813
▁Fick	-6814
ellent	-6815
▁color	-6816
▁common	-6817
volution	-6818
▁vorbereit	-6819
▁Ash	-6820
▁SHE	-6821
▁upstairs	-6822
▁größer	-6823
zin	-6824
▁Verk	-6825
nes	-6826
▁1.	-6827
▁Air	-6828
entral	-6829
▁Doesn	-6830
▁Dreh	-6831
▁genie	-6832
isation	-6833
▁earlier	-6834
▁pig	-6835
▁Sekunde	-6836
▁Nik	-6837
▁Bein	-6838
▁Dude	-6839
pre	-6840
▁Fäh	-6841
▁agent	-6842
▁empty	-6843
▁unters	-6844
▁strength	-6845
▁Kyle	-6846
gers	-6847
aped	-6848
▁Hex	-6849
▁Kur	-6850
ba	-6851
ieve	-6852
▁darfst	-6853
ehrt	-6854
▁Vinc	-6855
▁corner	-6856
▁poison	-6857
▁Ladies	-6858
▁80	-6859
▁Vi	-6860
▁Day	-6861
▁itself	-6862
AB	-6863
val	-6864
▁Beruhige	-6865
▁echte	-6866
▁Messer	-6867
▁singen	-6868
▁writing	-6869
▁Guys	-6870
▁viol	-6871
▁major	-6872
OOD	-6873
▁Hu	-6874
anny	-6875
▁rot	-6876
▁above	-6877
▁obviously	-6878
▁pan	-6879
▁built	-6880
▁Glauben	-6881
▁weitere	-6882
ucky	-6883
würd	-6884
▁Six	-6885
▁Gast	-6886
▁weapons	-6887
▁verstecken	-6888
▁dump	-6889
welche	-6890
▁Police	-6891
▁verändert	-6892
▁SP	-6893
anwalt	-6894
ocks	-6895
▁300	-6896
imate	-6897
▁energy	-6898
▁following	-6899
▁Schauspiel	-6900
▁vir	-6901
huh	-6902
▁video	-6903
gesetzt	-6904
▁kannte	-6905
alous	-6906
zusch	-6907
hstück	-6908
▁triff	-6909
▁breath	-6910
iat	-6911
stra	-6912
▁verdienen	-6913
▁scr	-6914
▁dahin	-6915
brechen	-6916
▁project	-6917
▁Wach	-6918
▁Elizabeth	-6919
▁host	-6920
▁respekt	-6921
▁breakfast	-6922
elte	-6923
▁Imp	-6924
▁fem	-6925
▁Zeitung	-6926
▁reading	-6927
▁Ris	-6928
▁civil	-6929
▁hig	-6930
▁Lucy	-6931
INK	-6932
▁ah	-6933
ehow	-6934
▁Les	-6935
▁abgeh	-6936
yond	-6937
▁ought	-6938
ply	-6939
▁Warten	-6940
▁defend	-6941
ased	-6942
▁Laura	-6943
gern	-6944
andid	-6945
▁qual	-6946
▁taus	-6947
▁Zeugen	-6948
▁action	-6949
▁wurdest	-6950
▁responsible	-6951
▁Jenny	-6952
▁Haut	-6953
▁Sonst	-6954
▁enttäus	-6955
▁gefangen	-6956
▁lebe	-6957
▁scream	-6958
▁speaking	-6959
ery	-6960
▁Majesty	-6961
▁medical	-6962
ügel	-6963
▁Schle	-6964
▁crying	-6965
▁asshole	-6966
▁design	-6967
ONE	-6968
▁Ahh	-6969
▁Sub	-6970
▁Send	-6971
▁wusstest	-6972
▁Win	-6973
▁Regen	-6974
AP	-6975
sb	-6976
▁taste	-6977
▁commun	-6978
▁Schwierigkeiten	-6979
▁Susan	-6980
▁verraten	-6981
iegel	-6982
▁losing	-6983
▁plans	-6984
barrass	-6985
▁Letzte	-6986
▁Morgan	-6987
itive	-6988
▁Haar	-6989
▁defen	-6990
▁Mas	-6991
▁Cont	-6992
▁keeps	-6993
▁seemed	-6994
▁zufällig	-6995
oman	-6996
vater	-6997
▁ghost	-6998
▁wovon	-6999
vent	-7000
▁Dun	-7001
▁Log	-7002
▁Conn	-7003
▁traf	-7004
▁Sommer	-7005
▁irgendein	-7006
HER	-7007
▁Fang	-7008
▁demon	-7009
6.	-7010
Du	-7011
▁rese	-7012
ato	-7013
▁vol	-7014
▁Amand	-7015
▁gesund	-7016
▁ermordet	-7017
...!	-7018
gewalt	-7019
▁divor	-7020
▁pressure	-7021
Die	-7022
▁größte	-7023
▁chicken	-7024
▁neighbor	-7025
plant	-7026
▁verbringen	-7027
ifer	-7028
▁note	-7029
zeitig	-7030
▁remain	-7031
▁eher	-7032
▁Vogel	-7033
▁program	-7034
icate	-7035
vious	-7036
OOK	-7037
wegs	-7038
▁Old	-7039
▁Privat	-7040
▁Mik	-7041
▁Lager	-7042
▁brothers	-7043
▁neun	-7044
▁Rod	-7045
▁satt	-7046
▁China	-7047
▁Shall	-7048
▁animal	-7049
▁Ron	-7050
▁Cass	-7051
unehmen	-7052
▁willen	-7053
▁letztes	-7054
▁Zwischen	-7055
ämon	-7056
▁Polit	-7057
▁Einige	-7058
▁partic	-7059
▁opportunity	-7060
▁charm	-7061
▁request	-7062
ppe	-7063
▁Bot	-7064
▁Wall	-7065
▁Fro	-7066
▁sitzt	-7067
▁überw	-7068
▁müsste	-7069
▁leisten	-7070
üren	-7071
▁Sprich	-7072
▁pulled	-7073
▁Angriff	-7074
ili	-7075
▁BO	-7076
▁Erd	-7077
▁Sport	-7078
▁Sweet	-7079
▁fahre	-7080
▁Bon	-7081
indern	-7082
▁Meinst	-7083
▁Zuhause	-7084
▁stage	-7085
lyn	-7086
▁Schuhe	-7087
▁schwanger	-7088
anie	-7089
▁Ask	-7090
raben	-7091
▁Sogar	-7092
▁Tar	-7093
werden	-7094
zugehen	-7095
▁guilty	-7096
▁challen	-7097
▁erhalten	-7098
fern	-7099
itude	-7100
▁crack	-7101
▁mussten	-7102
▁schneller	-7103
▁1:	-7104
itzt	-7105
platz	-7106
▁überleben	-7107
ez	-7108
sell	-7109
▁Aug	-7110
▁Jones	-7111
▁daddy	-7112
▁Schwein	-7113
▁Better	-7114
▁file	-7115
▁process	-7116
odies	-7117
▁Loch	-7118
▁Mister	-7119
▁suddenly	-7120
▁Toil	-7121
▁warn	-7122
▁study	-7123
▁Sicherheits	-7124
ila	-7125
▁code	-7126
▁rechts	-7127
▁öffnen	-7128
▁Patienten	-7129
▁Hard	-7130
▁Gefangen	-7131
▁verurs	-7132
9.	-7133
UM	-7134
ocol	-7135
though	-7136
▁military	-7137
▁gay	-7138
▁log	-7139
▁nine	-7140
▁pants	-7141
▁market	-7142
▁nieder	-7143
▁Tomorrow	-7144
nel	-7145
▁nature	-7146
ula	-7147
orted	-7148
▁purp	-7149
▁zweite	-7150
lad	-7151
▁ER	-7152
▁Eth	-7153
lage	-7154
▁Law	-7155
▁doc	-7156
▁embarrass	-7157
▁reich	-7158
ios	-7159
uls	-7160
van	-7161
▁Freut	-7162
▁Normal	-7163
▁conversation	-7164
▁skin	-7165
▁legal	-7166
▁wehtun	-7167
▁schuldig	-7168
hör	-7169
▁Pull	-7170
gefähr	-7171
▁Beine	-7172
▁Tex	-7173
rible	-7174
▁Deck	-7175
▁Fire	-7176
▁Gord	-7177
▁Ready	-7178
▁Schne	-7179
▁correct	-7180
▁Congratulations	-7181
▁Erste	-7182
▁Wegen	-7183
▁among	-7184
▁aufre	-7185
▁Andrew	-7186
EM	-7187
frau	-7188
ental	-7189
osion	-7190
▁large	-7191
▁kümmert	-7192
▁unseres	-7193
sw	-7194
▁Mi	-7195
▁Flie	-7196
▁Leid	-7197
▁Taxi	-7198
▁Ther	-7199
zuhalten	-7200
▁unschuld	-7201
ams	-7202
▁Bib	-7203
antas	-7204
▁Wohn	-7205
haften	-7206
▁Hann	-7207
OUN	-7208
ähne	-7209
▁Kämp	-7210
▁bare	-7211
etzung	-7212
▁Polizist	-7213
▁necessary	-7214
▁lebend	-7215
abt	-7216
gery	-7217
▁tells	-7218
▁Maggie	-7219
Sh	-7220
▁Ton	-7221
essin	-7222
▁sour	-7223
▁Zuerst	-7224
▁Rot	-7225
▁Roman	-7226
▁incred	-7227
zulernen	-7228
▁Welcher	-7229
▁beeindruck	-7230
ils	-7231
▁separ	-7232
▁findest	-7233
ees	-7234
▁drag	-7235
annten	-7236
▁Genug	-7237
▁Until	-7238
▁asleep	-7239
▁werfen	-7240
▁Männern	-7241
lass	-7242
▁gre	-7243
▁wound	-7244
▁walked	-7245
▁Pfund	-7246
▁kennenzulernen	-7247
▁Ye	-7248
▁Angeb	-7249
▁Hätte	-7250
▁Kra	-7251
izier	-7252
▁genannt	-7253
▁Nachmittag	-7254
lan	-7255
▁sky	-7256
▁Sounds	-7257
▁schmutz	-7258
▁Freiheit	-7259
▁Vertrauen	-7260
▁Amanda	-7261
▁closer	-7262
cen	-7263
reht	-7264
▁Wochenende	-7265
bon	-7266
▁Narr	-7267
mutter	-7268
▁zahlen	-7269
▁Verstehst	-7270
wen	-7271
▁Bericht	-7272
▁Wur	-7273
8.	-7274
ado	-7275
▁Nor	-7276
zeichnet	-7277
▁condition	-7278
▁Barry	-7279
▁Trink	-7280
▁local	-7281
▁Wichtig	-7282
▁Direktor	-7283
▁aussieht	-7284
▁effect	-7285
▁engine	-7286
▁definitiv	-7287
▁WANT	-7288
▁Exper	-7289
▁Küche	-7290
▁sagtest	-7291
▁Jin	-7292
▁enc	-7293
▁bauen	-7294
ierend	-7295
▁folks	-7296
▁Mädels	-7297
▁Wa	-7298
▁cal	-7299
▁Mitch	-7300
zufinden	-7301
▁Stelle	-7302
äumt	-7303
▁Tob	-7304
▁held	-7305
▁gehören	-7306
eat	-7307
▁suck	-7308
▁Helen	-7309
▁glaubt	-7310
▁Tot	-7311
▁boo	-7312
üchtig	-7313
▁Idioten	-7314
▁entwick	-7315
▁murdered	-7316
▁apologize	-7317
▁advice	-7318
▁bottle	-7319
▁Hurensohn	-7320
ris	-7321
▁imm	-7322
▁Jesse	-7323
▁motherf	-7324
▁unf	-7325
▁Jedes	-7326
ERS	-7327
▁Know	-7328
▁lies	-7329
▁turns	-7330
▁Wahrscheinlich	-7331
ativ	-7332
▁klug	-7333
▁Franz	-7334
▁danken	-7335
▁fucked	-7336
ends	-7337
▁Tal	-7338
pping	-7339
▁Gary	-7340
▁develop	-7341
4.	-7342
iana	-7343
▁Bat	-7344
▁Song	-7345
▁heavy	-7346
▁knowing	-7347
▁schönen	-7348
▁gewartet	-7349
▁ridiculous	-7350
▁neither	-7351
▁CIA	-7352
▁due	-7353
▁spo	-7354
▁Wirst	-7355
▁Kuchen	-7356
elst	-7357
ardon	-7358
ournal	-7359
▁Ern	-7360
▁Hot	-7361
ading	-7362
▁meinte	-7363
▁hearing	-7364
▁1,	-7365
ores	-7366
▁Howard	-7367
▁zurückkommen	-7368
üler	-7369
▁Hum	-7370
▁rule	-7371
▁chair	-7372
mus	-7373
uts	-7374
bung	-7375
▁Held	-7376
▁freak	-7377
▁written	-7378
▁bullshit	-7379
▁Zeitpunkt	-7380
uzz	-7381
uell	-7382
▁arg	-7383
▁konzentr	-7384
▁AM	-7385
▁Flor	-7386
▁cars	-7387
▁Erzähl	-7388
▁Lehrer	-7389
▁Probably	-7390
▁lag	-7391
istan	-7392
▁Meter	-7393
▁helfe	-7394
▁angeht	-7395
▁Entspann	-7396
▁research	-7397
▁character	-7398
face	-7399
▁GOT	-7400
▁Ever	-7401
▁legen	-7402
▁river	-7403
▁Adresse	-7404
ints	-7405
▁Rand	-7406
▁Fernsehen	-7407
▁aufw	-7408
▁extrem	-7409
▁brauchte	-7410
▁Soph	-7411
▁Verantwort	-7412
ähle	-7413
▁Trans	-7414
▁taught	-7415
▁stories	-7416
ceed	-7417
ession	-7418
▁awful	-7419
▁verar	-7420
▁besuchen	-7421
▁lächerlich	-7422
uly	-7423
▁Easy	-7424
▁Rebe	-7425
▁Alk	-7426
▁Top	-7427
▁Produ	-7428
▁simply	-7429
▁Chl	-7430
▁Sean	-7431
athy	-7432
edom	-7433
asion	-7434
▁Hört	-7435
▁Absolutely	-7436
mbol	-7437
▁berühm	-7438
▁jungen	-7439
▁animals	-7440
eide	-7441
▁Berg	-7442
griffen	-7443
▁Urlaub	-7444
▁Freunden	-7445
scheinend	-7446
▁bottom	-7447
hes	-7448
▁Babys	-7449
▁Krank	-7450
▁disappe	-7451
,.....	-7452
▁beyond	-7453
▁hilf	-7454
▁Steven	-7455
▁LE	-7456
▁RO	-7457
▁ewig	-7458
ension	-7459
▁famous	-7460
▁scient	-7461
▁steckt	-7462
▁dropped	-7463
▁falschen	-7464
cca	-7465
gnet	-7466
▁relig	-7467
feuert	-7468
▁Süß	-7469
▁Seid	-7470
▁zeigt	-7471
▁Unless	-7472
▁dersel	-7473
ader	-7474
same	-7475
▁Tro	-7476
▁knife	-7477
▁Nehmen	-7478
ih	-7479
▁Lö	-7480
▁Szen	-7481
ington	-7482
setzen	-7483
▁Hunde	-7484
▁Nerven	-7485
▁bullet	-7486
▁Schlimm	-7487
▁tour	-7488
▁Brüder	-7489
▁Frem	-7490
▁sword	-7491
▁fellow	-7492
▁Morning	-7493
▁bringing	-7494
▁umgebracht	-7495
gele	-7496
▁loy	-7497
▁Prof	-7498
▁chief	-7499
▁prepared	-7500
▁Karen	-7501
▁planning	-7502
ala	-7503
What	-7504
▁Milit	-7505
▁excited	-7506
▁halb	-7507
▁tats	-7508
▁Taylor	-7509
▁werdet	-7510
▁pretend	-7511
▁23	-7512
eier	-7513
board	-7514
▁prefer	-7515
▁Verdächt	-7516
▁ähn	-7517
▁bust	-7518
▁smile	-7519
▁beginnen	-7520
äbe	-7521
mel	-7522
Es	-7523
offer	-7524
▁Hope	-7525
▁Rome	-7526
▁gehör	-7527
▁gelaufen	-7528
▁emergency	-7529
▁eingeladen	-7530
Th	-7531
eldet	-7532
▁Hill	-7533
uhigen	-7534
▁trial	-7535
▁keys	-7536
zeichen	-7537
rehen	-7538
stern	-7539
▁Blue	-7540
adem	-7541
▁Jay	-7542
▁nahe	-7543
▁Göt	-7544
▁Engel	-7545
▁deswegen	-7546
▁powerful	-7547
ehlt	-7548
▁Apr	-7549
▁Beck	-7550
▁meat	-7551
▁Nad	-7552
ichst	-7553
▁Fluss	-7554
aunlich	-7555
▁vermass	-7556
▁ignor	-7557
▁gebaut	-7558
▁Nächste	-7559
▁Trot	-7560
dienst	-7561
▁mitnehmen	-7562
alty	-7563
karte	-7564
▁Donn	-7565
▁lord	-7566
▁Except	-7567
▁Voll	-7568
▁Julie	-7569
just	-7570
▁rauf	-7571
▁shock	-7572
▁compet	-7573
▁leaves	-7574
▁Knochen	-7575
Das	-7576
book	-7577
▁Kong	-7578
▁WELL	-7579
▁hielt	-7580
teilung	-7581
▁plenty	-7582
▁großartig	-7583
▁pock	-7584
▁Albert	-7585
▁schul	-7586
▁appear	-7587
▁Verteid	-7588
pper	-7589
▁Mommy	-7590
▁flying	-7591
▁comb	-7592
estern	-7593
It	-7594
▁Sofort	-7595
wärts	-7596
▁Erfahrung	-7597
▁department	-7598
eph	-7599
▁opin	-7600
▁raise	-7601
▁Gegend	-7602
▁aufgere	-7603
kre	-7604
let	-7605
▁Sund	-7606
▁überprüfen	-7607
din	-7608
▁tape	-7609
▁activ	-7610
▁befre	-7611
▁Keller	-7612
▁weinen	-7613
dom	-7614
light	-7615
▁Acht	-7616
ales	-7617
aper	-7618
▁Gun	-7619
▁vac	-7620
▁bodies	-7621
▁descri	-7622
▁checked	-7623
▁eingesch	-7624
▁schließen	-7625
nahmen	-7626
▁Labor	-7627
▁beach	-7628
▁whose	-7629
▁credit	-7630
▁unterwegs	-7631
▁Hose	-7632
egas	-7633
▁abh	-7634
iverse	-7635
leichen	-7636
▁Terror	-7637
▁Heilige	-7638
▁regret	-7639
▁Amen	-7640
▁mill	-7641
school	-7642
▁papers	-7643
▁hanging	-7644
▁ju	-7645
duce	-7646
▁Sha	-7647
▁unbed	-7648
▁Bringt	-7649
▁Prinzessin	-7650
▁Schwachsinn	-7651
aki	-7652
can	-7653
▁Beth	-7654
▁Tanz	-7655
▁stars	-7656
▁stehe	-7657
▁explod	-7658
We	-7659
altet	-7660
▁Play	-7661
ösung	-7662
▁Katze	-7663
▁greatest	-7664
▁United	-7665
▁Mitglie	-7666
▁Senator	-7667
▁Richtige	-7668
zo	-7669
retty	-7670
oved	-7671
▁rei	-7672
▁lied	-7673
▁fährt	-7674
▁Radio	-7675
▁erschreck	-7676
ledge	-7677
▁health	-7678
▁Without	-7679
▁kr	-7680
▁DID	-7681
▁led	-7682
▁Anne	-7683
▁Brust	-7684
▁Steig	-7685
prochen	-7686
▁Schutz	-7687
▁sweetheart	-7688
In	-7689
erty	-7690
rant	-7691
alter	-7692
iction	-7693
▁typ	-7694
illen	-7695
riest	-7696
▁herausgefunden	-7697
▁Wolf	-7698
▁survive	-7699
▁Geben	-7700
▁liegen	-7701
▁getrunken	-7702
etting	-7703
▁Mittel	-7704
▁Geschichten	-7705
öd	-7706
▁lü	-7707
▁Meet	-7708
▁ABOUT	-7709
▁Griff	-7710
▁Bescheid	-7711
▁geschlossen	-7712
▁Sid	-7713
▁gep	-7714
seits	-7715
ütter	-7716
▁spoke	-7717
ätze	-7718
▁Had	-7719
▁boot	-7720
▁Alkohol	-7721
▁feed	-7722
▁Gemein	-7723
▁employ	-7724
▁Internet	-7725
ingst	-7726
▁shows	-7727
▁Erfolg	-7728
▁Zustand	-7729
▁Fab	-7730
▁crow	-7731
▁April	-7732
▁training	-7733
▁erledigen	-7734
mos	-7735
▁port	-7736
▁vert	-7737
ground	-7738
▁Naz	-7739
▁ihres	-7740
▁@	-7741
ampion	-7742
▁Gener	-7743
▁mochte	-7744
▁falsche	-7745
▁lights	-7746
etch	-7747
▁Garten	-7748
▁Chinese	-7749
▁Untersuch	-7750
änge	-7751
▁00.	-7752
▁MAR	-7753
ücken	-7754
▁Kommst	-7755
▁avo	-7756
isters	-7757
▁Hig	-7758
▁Nah	-7759
▁Dämon	-7760
▁Ehemann	-7761
▁Ins	-7762
▁exec	-7763
▁Vegas	-7764
▁fängt	-7765
isieren	-7766
EAH	-7767
▁Hug	-7768
▁odd	-7769
oster	-7770
▁None	-7771
▁vorne	-7772
▁mitten	-7773
ahle	-7774
▁lon	-7775
alley	-7776
▁speed	-7777
▁NOW	-7778
▁Work	-7779
▁Gewalt	-7780
▁contract	-7781
▁Enough	-7782
ICK	-7783
inke	-7784
▁Lüg	-7785
▁Julia	-7786
▁Quick	-7787
▁Kreuz	-7788
▁Reich	-7789
▁Harvey	-7790
▁Karten	-7791
▁durchs	-7792
▁Schönheit	-7793
▁aufgeregt	-7794
▁Erm	-7795
▁Vamp	-7796
▁Schlacht	-7797
▁aufgew	-7798
▁starts	-7799
▁zweiten	-7800
▁Taus	-7801
▁Trust	-7802
▁career	-7803
▁übernehmen	-7804
mäß	-7805
▁dogs	-7806
▁expen	-7807
▁tatsächlich	-7808
▁soft	-7809
▁Träume	-7810
▁stecken	-7811
etr	-7812
▁90	-7813
eman	-7814
▁Nic	-7815
▁Cour	-7816
father	-7817
▁Jahrh	-7818
▁silly	-7819
▁investigation	-7820
imb	-7821
öpfe	-7822
▁Acc	-7823
▁UND	-7824
grund	-7825
schiff	-7826
▁Always	-7827
▁Nathan	-7828
▁hinaus	-7829
▁erinnert	-7830
▁IF	-7831
▁Fer	-7832
perrt	-7833
▁react	-7834
▁woher	-7835
▁noticed	-7836
▁Wol	-7837
▁dumb	-7838
▁offiz	-7839
▁tro	-7840
▁shame	-7841
END	-7842
iro	-7843
▁YEAH	-7844
▁defe	-7845
▁numbers	-7846
reg	-7847
blick	-7848
▁earn	-7849
▁hoff	-7850
▁Verein	-7851
▁chem	-7852
▁Tiere	-7853
▁destroyed	-7854
▁interessant	-7855
kins	-7856
▁Fast	-7857
▁Judy	-7858
▁While	-7859
▁Prince	-7860
▁isst	-7861
▁wast	-7862
▁45	-7863
▁Tour	-7864
▁teeth	-7865
An	-7866
▁Us	-7867
▁includ	-7868
sprechen	-7869
▁restaurant	-7870
arbeiten	-7871
hip	-7872
▁Grü	-7873
▁Bücher	-7874
kes	-7875
vert	-7876
iding	-7877
▁copy	-7878
▁plant	-7879
▁Bilder	-7880
▁feiern	-7881
▁size	-7882
ements	-7883
▁subject	-7884
▁verschl	-7885
▁Farbe	-7886
▁Machst	-7887
▁Herzlichen	-7888
▁balls	-7889
▁Guess	-7890
▁davor	-7891
▁ausgel	-7892
▁National	-7893
ugs	-7894
asser	-7895
▁Zahn	-7896
▁hallo	-7897
▁afford	-7898
▁Gentlemen	-7899
cue	-7900
▁Suche	-7901
▁Oliver	-7902
▁Schwert	-7903
ANK	-7904
▁Lock	-7905
▁rat	-7906
▁san	-7907
▁milk	-7908
▁awesome	-7909
▁Polizisten	-7910
ca	-7911
▁leer	-7912
▁lots	-7913
▁Life	-7914
▁Punk	-7915
▁onto	-7916
▁Autos	-7917
fung	-7918
▁HER	-7919
▁several	-7920
▁Rein	-7921
▁loss	-7922
aka	-7923
▁Bruce	-7924
▁Toten	-7925
▁hurts	-7926
▁Joseph	-7927
▁Exc	-7928
▁Kenn	-7929
▁fürs	-7930
▁spell	-7931
ij	-7932
flich	-7933
▁sucht	-7934
▁Papier	-7935
▁selben	-7936
ckst	-7937
▁mix	-7938
▁Bauch	-7939
▁driver	-7940
▁Besonderes	-7941
baren	-7942
▁Feld	-7943
▁erfü	-7944
vision	-7945
standen	-7946
fers	-7947
▁Myl	-7948
▁Vincent	-7949
▁practice	-7950
▁BR	-7951
▁ONE	-7952
▁settle	-7953
▁letting	-7954
venge	-7955
▁Their	-7956
ampagne	-7957
▁Island	-7958
▁realized	-7959
▁Restaurant	-7960
ential	-7961
ization	-7962
▁Pretty	-7963
▁Winter	-7964
▁sorgen	-7965
▁Flasche	-7966
▁Medizin	-7967
▁Care	-7968
ela	-7969
nam	-7970
feld	-7971
▁Penny	-7972
▁bewegt	-7973
▁paying	-7974
▁Trottel	-7975
itar	-7976
▁gäbe	-7977
fortunately	-7978
mo	-7979
asure	-7980
▁WILL	-7981
▁angeb	-7982
▁willkommen	-7983
inne	-7984
▁Verrück	-7985
▁general	-7986
tes	-7987
▁WOM	-7988
feren	-7989
▁Tick	-7990
▁photo	-7991
▁especially	-7992
▁nachdenken	-7993
olo	-7994
▁Herrn	-7995
resp	-7996
äsent	-7997
▁wofür	-7998
▁gehabt	-7999
▁behandelt	-8000
▁verdammter	-8001
ued	-8002
iper	-8003
▁Ari	-8004
▁Kil	-8005
jemand	-8006
▁jagen	-8007
▁agreed	-8008
▁signal	-8009
gegangen	-8010
orie	-8011
▁Light	-8012
▁matters	-8013
▁hinterlassen	-8014
werfen	-8015
▁wicht	-8016
zig	-8017
ially	-8018
▁World	-8019
ication	-8020
▁records	-8021
▁Bullen	-8022
▁Strand	-8023
▁switch	-8024
▁concerned	-8025
▁Weihnachts	-8026
Was	-8027
erlin	-8028
▁ther	-8029
▁hasst	-8030
ünstler	-8031
▁betray	-8032
▁cousin	-8033
igur	-8034
▁Anton	-8035
▁games	-8036
▁serve	-8037
ORE	-8038
▁surgery	-8039
aser	-8040
zeigt	-8041
▁Läch	-8042
▁Santa	-8043
▁aware	-8044
far	-8045
iete	-8046
ikel	-8047
▁Bor	-8048
asing	-8049
▁erle	-8050
▁verlang	-8051
▁dry	-8052
▁butt	-8053
lade	-8054
tempt	-8055
▁Clar	-8056
▁Glaub	-8057
▁fragst	-8058
▁somehow	-8059
chem	-8060
fehl	-8061
lose	-8062
▁älter	-8063
▁polic	-8064
▁Patrick	-8065
▁shower	-8066
vies	-8067
▁Nett	-8068
▁Jackie	-8069
▁arrested	-8070
▁Schnapp	-8071
▁angesch	-8072
▁Zusammen	-8073
▁believed	-8074
forder	-8075
urance	-8076
▁Pause	-8077
▁beant	-8078
▁bucks	-8079
ners	-8080
▁wieso	-8081
▁Milch	-8082
▁easier	-8083
▁natural	-8084
▁photogra	-8085
oos	-8086
anze	-8087
▁fund	-8088
▁stür	-8089
▁Gordon	-8090
▁ruiniert	-8091
▁zurückzu	-8092
kon	-8093
▁saving	-8094
▁Aufmerk	-8095
▁Fucking	-8096
▁identif	-8097
▁gestellt	-8098
▁Entschuldige	-8099
▁TA	-8100
▁aufget	-8101
▁biggest	-8102
▁angesehen	-8103
▁arbeitest	-8104
acle	-8105
inct	-8106
▁LO	-8107
▁ug	-8108
iber	-8109
macht	-8110
▁flowers	-8111
▁operation	-8112
▁bedeuten	-8113
▁possibly	-8114
▁comfortable	-8115
no	-8116
üch	-8117
asty	-8118
gefü	-8119
▁Terry	-8120
▁trägt	-8121
pel	-8122
▁Bombe	-8123
▁beauty	-8124
igarette	-8125
▁Verantwortung	-8126
▁Aufmerksamkeit	-8127
imal	-8128
▁Code	-8129
▁weitermachen	-8130
DY	-8131
▁tele	-8132
▁Enter	-8133
▁monster	-8134
▁miteinander	-8135
gas	-8136
asons	-8137
▁Expl	-8138
▁Jord	-8139
ighter	-8140
▁Würde	-8141
ffer	-8142
▁farm	-8143
itation	-8144
▁geworfen	-8145
iens	-8146
▁lately	-8147
ois	-8148
like	-8149
▁HIM	-8150
▁Ohr	-8151
▁heat	-8152
teen	-8153
▁fan	-8154
iling	-8155
▁deter	-8156
▁object	-8157
▁Staaten	-8158
urr	-8159
▁ausges	-8160
▁invited	-8161
▁komisch	-8162
▁Gespräch	-8163
▁painting	-8164
mack	-8165
oute	-8166
ände	-8167
▁approach	-8168
▁erwachsen	-8169
▁2.	-8170
▁Calm	-8171
▁lift	-8172
itäten	-8173
▁States	-8174
auben	-8175
▁Daten	-8176
▁Frühstück	-8177
▁Dev	-8178
▁threw	-8179
verl	-8180
änen	-8181
▁Box	-8182
▁Kol	-8183
▁WOR	-8184
▁Under	-8185
erstood	-8186
▁perfectly	-8187
▁Marie	-8188
▁repres	-8189
▁soldiers	-8190
Er	-8191
arzt	-8192
seit	-8193
wart	-8194
▁tel	-8195
cient	-8196
ciety	-8197
▁cake	-8198
▁Kugel	-8199
▁heads	-8200
▁langu	-8201
▁storm	-8202
▁Solange	-8203
▁jealous	-8204
arp	-8205
▁Befehle	-8206
▁purpose	-8207
ITT	-8208
▁PR	-8209
komme	-8210
aktion	-8211
▁Hollywood	-8212
▁Jacob	-8213
▁Organ	-8214
▁kriege	-8215
▁Pflicht	-8216
kin	-8217
▁Sara	-8218
▁devil	-8219
▁lasst	-8220
▁Johnson	-8221
▁verlässt	-8222
Le	-8223
bew	-8224
iring	-8225
▁pink	-8226
▁witch	-8227
▁towards	-8228
▁Cas	-8229
ümmer	-8230
▁Carlos	-8231
▁student	-8232
▁langweilig	-8233
▁Hay	-8234
▁Cent	-8235
▁Ecke	-8236
▁Egal	-8237
lieben	-8238
▁gehalten	-8239
ashed	-8240
▁shirt	-8241
▁Abschluss	-8242
▁Kor	-8243
▁pool	-8244
nitten	-8245
▁gebrauchen	-8246
▁angegriffen	-8247
plan	-8248
▁Lat	-8249
▁capt	-8250
▁dish	-8251
chnung	-8252
▁Honor	-8253
▁Night	-8254
▁demand	-8255
▁hardly	-8256
▁dressed	-8257
▁versuchst	-8258
ieg	-8259
▁erm	-8260
▁Foot	-8261
▁Vern	-8262
▁fake	-8263
anders	-8264
▁THINK	-8265
▁followed	-8266
▁Verschwinde	-8267
▁70	-8268
ckte	-8269
kten	-8270
▁COM	-8271
igend	-8272
stadt	-8273
ointed	-8274
▁Boo	-8275
▁Mid	-8276
stung	-8277
▁Chloe	-8278
achtest	-8279
▁bemerkt	-8280
▁schwierig	-8281
jo	-8282
ym	-8283
▁CAR	-8284
▁Aust	-8285
ehnt	-8286
▁Gele	-8287
▁Holz	-8288
▁Wert	-8289
▁opinion	-8290
▁Mittagessen	-8291
ctors	-8292
▁Strom	-8293
▁ei	-8294
▁sacri	-8295
▁schwul	-8296
▁gleichen	-8297
offt	-8298
▁stär	-8299
▁Marty	-8300
AST	-8301
▁SA	-8302
▁Bay	-8303
▁Kop	-8304
▁Kore	-8305
▁Hintern	-8306
ährst	-8307
▁Wäre	-8308
▁wart	-8309
▁Virgin	-8310
▁movies	-8311
▁horrible	-8312
▁McG	-8313
▁Case	-8314
▁exam	-8315
▁Cousin	-8316
▁Gn	-8317
▁Sau	-8318
sence	-8319
▁Bere	-8320
▁roof	-8321
▁brachte	-8322
▁clearly	-8323
▁Ep	-8324
zeuge	-8325
▁Fass	-8326
▁erwä	-8327
▁Gutes	-8328
▁cream	-8329
▁truly	-8330
▁CO	-8331
▁Po	-8332
▁ended	-8333
hof	-8334
rap	-8335
▁cock	-8336
opping	-8337
▁focus	-8338
glichen	-8339
stant	-8340
▁whom	-8341
▁herauszufinden	-8342
aham	-8343
▁Sollen	-8344
▁fühlte	-8345
▁entführt	-8346
▁gefahren	-8347
▁aufpassen	-8348
UL	-8349
▁bleib	-8350
destens	-8351
▁Schieß	-8352
▁nachts	-8353
▁treffe	-8354
▁Einfach	-8355
▁criminal	-8356
aks	-8357
▁Lim	-8358
▁scare	-8359
▁wollt	-8360
▁Matthew	-8361
ushing	-8362
▁Wilson	-8363
▁schwe	-8364
▁Unsinn	-8365
▁schaffe	-8366
omat	-8367
▁Imm	-8368
▁COME	-8369
▁hors	-8370
▁freund	-8371
▁leader	-8372
UCK	-8373
tag	-8374
ride	-8375
ussy	-8376
öser	-8377
▁Ham	-8378
▁Squ	-8379
▁Ergeb	-8380
▁Angebot	-8381
▁Bleiben	-8382
▁finding	-8383
▁Laut	-8384
▁Mand	-8385
▁Coach	-8386
▁Ihres	-8387
isf	-8388
▁Ot	-8389
ütte	-8390
▁WHO	-8391
▁Lust	-8392
▁Again	-8393
▁zeige	-8394
adow	-8395
ivid	-8396
▁Ky	-8397
aben	-8398
igten	-8399
ucken	-8400
▁vote	-8401
▁wohnt	-8402
führung	-8403
richten	-8404
▁begann	-8405
▁Fernseh	-8406
losen	-8407
äufer	-8408
▁Stat	-8409
▁prec	-8410
▁Reihe	-8411
▁Koffer	-8412
▁Termin	-8413
▁unbedingt	-8414
▁Aff	-8415
▁Lex	-8416
▁Wes	-8417
▁Lois	-8418
▁Molly	-8419
▁ideas	-8420
▁Prozess	-8421
▁emotional	-8422
ering	-8423
▁Psst	-8424
▁Karriere	-8425
zeugt	-8426
▁Ohren	-8427
▁entspann	-8428
san	-8429
▁Gas	-8430
▁Cole	-8431
▁Hühn	-8432
agement	-8433
▁Lieblings	-8434
hol	-8435
äuse	-8436
althy	-8437
▁Schüler	-8438
ahres	-8439
mögen	-8440
▁Kiste	-8441
▁hängt	-8442
▁north	-8443
▁verteid	-8444
▁Amerikaner	-8445
▁weight	-8446
▁Nachdem	-8447
quet	-8448
▁mail	-8449
system	-8450
▁Geräus	-8451
▁Kommun	-8452
▁schauen	-8453
▁stehlen	-8454
▁snow	-8455
▁Princ	-8456
▁outta	-8457
▁sacrif	-8458
▁pein	-8459
▁Wenig	-8460
▁proof	-8461
▁Europe	-8462
▁failed	-8463
▁spread	-8464
▁nowhere	-8465
▁Marshall	-8466
▁Charlotte	-8467
▁nuts	-8468
itions	-8469
▁meaning	-8470
▁turning	-8471
▁geheiratet	-8472
▁hyp	-8473
▁Aunt	-8474
▁Brun	-8475
▁HOW	-8476
▁häss	-8477
▁chest	-8478
▁Junior	-8479
▁recognize	-8480
▁sched	-8481
▁stolen	-8482
▁created	-8483
las	-8484
▁issue	-8485
▁Kunden	-8486
ICE	-8487
agd	-8488
ublik	-8489
▁Buck	-8490
▁behav	-8491
▁beige	-8492
▁damage	-8493
eng	-8494
lev	-8495
▁teil	-8496
▁Streit	-8497
▁beleid	-8498
▁Interesse	-8499
lla	-8500
▁vo	-8501
mine	-8502
▁pil	-8503
▁older	-8504
▁amount	-8505
▁beschissen	-8506
No	-8507
▁Vö	-8508
▁ep	-8509
onds	-8510
▁Atlant	-8511
▁Cat	-8512
▁Linda	-8513
▁Risiko	-8514
▁furcht	-8515
bra	-8516
▁sla	-8517
▁Eind	-8518
▁transfer	-8519
▁außerhalb	-8520
▁Div	-8521
▁Coll	-8522
▁Donna	-8523
▁freue	-8524
▁hinge	-8525
wers	-8526
utung	-8527
▁pieces	-8528
▁Jessica	-8529
▁gezeigt	-8530
mes	-8531
enkt	-8532
iano	-8533
▁Stre	-8534
▁doin	-8535
▁rate	-8536
▁insane	-8537
▁EN	-8538
▁bi	-8539
aled	-8540
▁ner	-8541
▁wow	-8542
▁ausl	-8543
▁hous	-8544
▁zwar	-8545
▁melden	-8546
▁dancing	-8547
este	-8548
▁ren	-8549
▁Bund	-8550
▁Kriegs	-8551
▁gather	-8552
▁dankbar	-8553
▁kidnapp	-8554
▁sees	-8555
▁youn	-8556
kehren	-8557
▁release	-8558
▁grü	-8559
▁curr	-8560
▁Bravo	-8561
▁WOMAN	-8562
▁Wenigstens	-8563
▁Staatsanwalt	-8564
hi	-8565
hole	-8566
iene	-8567
ipul	-8568
ählen	-8569
▁abgel	-8570
opt	-8571
äck	-8572
▁Lew	-8573
▁Clay	-8574
▁social	-8575
entin	-8576
▁prof	-8577
klärung	-8578
▁create	-8579
▁freedom	-8580
▁forgotten	-8581
▁Süd	-8582
▁zust	-8583
▁punch	-8584
▁opened	-8585
gehalten	-8586
▁erwähnt	-8587
aku	-8588
▁Skla	-8589
▁erfolg	-8590
reden	-8591
▁Könntest	-8592
▁gefeuert	-8593
▁Inspector	-8594
Der	-8595
▁Crew	-8596
▁desk	-8597
▁trink	-8598
▁Bestes	-8599
lig	-8600
▁Magie	-8601
And	-8602
▁Dort	-8603
▁Same	-8604
▁Mitte	-8605
▁garden	-8606
▁Teddy	-8607
▁Handsch	-8608
▁national	-8609
▁Seriously	-8610
▁ANY	-8611
▁verprü	-8612
▁dorthin	-8613
▁av	-8614
utig	-8615
▁Mass	-8616
ros	-8617
▁Jen	-8618
▁Both	-8619
▁grad	-8620
▁Brücke	-8621
▁freuen	-8622
▁CL	-8623
▁sne	-8624
▁Genie	-8625
▁neuer	-8626
gegeben	-8627
▁Presse	-8628
▁nation	-8629
schlagen	-8630
▁selling	-8631
▁Selbstmord	-8632
▁hm	-8633
usch	-8634
sonst	-8635
▁LOOK	-8636
▁pred	-8637
▁slept	-8638
▁Lügner	-8639
▁strike	-8640
▁Offensichtlich	-8641
▁oil	-8642
▁grown	-8643
▁Programm	-8644
▁Normalerweise	-8645
ero	-8646
erie	-8647
▁ruft	-8648
mother	-8649
▁cards	-8650
▁stelle	-8651
▁Ca	-8652
iken	-8653
lauf	-8654
▁Bow	-8655
▁CON	-8656
▁VER	-8657
ragen	-8658
▁Bald	-8659
▁faster	-8660
▁example	-8661
▁aufgehört	-8662
uty	-8663
▁Freude	-8664
▁einzigen	-8665
bahn	-8666
▁rac	-8667
abend	-8668
▁Verp	-8669
▁west	-8670
▁Freit	-8671
▁breathe	-8672
▁schläft	-8673
▁pet	-8674
▁loose	-8675
swer	-8676
▁Fair	-8677
▁online	-8678
▁Angeles	-8679
▁breaking	-8680
▁responsibility	-8681
▁Kid	-8682
utzen	-8683
▁infl	-8684
▁Rache	-8685
▁müsst	-8686
wechsel	-8687
flug	-8688
▁suicide	-8689
alie	-8690
▁Alf	-8691
▁zieht	-8692
▁Marcus	-8693
▁erster	-8694
▁liebte	-8695
▁science	-8696
▁Opa	-8697
illed	-8698
▁goin	-8699
▁split	-8700
▁nearly	-8701
▁speech	-8702
itizen	-8703
steckt	-8704
▁Aussage	-8705
▁universe	-8706
▁Wend	-8707
▁Sechs	-8708
▁Parker	-8709
▁schnapp	-8710
prise	-8711
▁cult	-8712
▁ours	-8713
▁glaub	-8714
▁Jonathan	-8715
okes	-8716
traut	-8717
▁Texas	-8718
▁August	-8719
▁Seiten	-8720
▁justice	-8721
▁Woo	-8722
▁Führer	-8723
▁Christian	-8724
wä	-8725
▁usual	-8726
▁stayed	-8727
▁erz	-8728
▁Ruhig	-8729
laubnis	-8730
▁talent	-8731
▁umgehen	-8732
▁vergiss	-8733
▁Pak	-8734
▁opt	-8735
ämpft	-8736
lungen	-8737
unting	-8738
gaben	-8739
▁Abby	-8740
▁Neues	-8741
▁Sunday	-8742
▁begraben	-8743
▁Präsidenten	-8744
▁Untersuchung	-8745
iod	-8746
▁Holt	-8747
▁State	-8748
▁expert	-8749
▁Aud	-8750
▁Krimin	-8751
▁Schild	-8752
▁Things	-8753
▁expected	-8754
immst	-8755
▁Woll	-8756
▁heil	-8757
▁Mount	-8758
▁Kredit	-8759
▁Special	-8760
▁besprechen	-8761
▁Ew	-8762
▁FRA	-8763
▁lines	-8764
▁queen	-8765
▁thoughts	-8766
uckt	-8767
▁began	-8768
▁desto	-8769
▁Absicht	-8770
▁sending	-8771
▁vermisse	-8772
▁firm	-8773
drücke	-8774
▁River	-8775
▁drehen	-8776
▁stehst	-8777
▁official	-8778
▁mitkommen	-8779
▁irgendwann	-8780
sl	-8781
ulk	-8782
▁Rud	-8783
▁Stri	-8784
▁Tyler	-8785
▁wahre	-8786
aughing	-8787
▁disappeared	-8788
▁exh	-8789
ended	-8790
▁abandon	-8791
▁bewusst	-8792
00,	-8793
unr	-8794
lair	-8795
▁übel	-8796
▁fragt	-8797
▁ticket	-8798
▁zweimal	-8799
▁Free	-8800
▁erschießen	-8801
beh	-8802
▁lt	-8803
wach	-8804
▁Gil	-8805
ouver	-8806
▁beginnt	-8807
▁geschossen	-8808
▁Andre	-8809
▁impro	-8810
▁borrow	-8811
▁goodbye	-8812
iev	-8813
pol	-8814
▁Base	-8815
▁Jamie	-8816
▁bridge	-8817
▁Leonard	-8818
▁möchten	-8819
issa	-8820
leit	-8821
▁Füße	-8822
▁Katie	-8823
haltung	-8824
▁collect	-8825
▁Toilette	-8826
▁expecting	-8827
ray	-8828
▁Babe	-8829
▁Follow	-8830
▁signed	-8831
wend	-8832
ähig	-8833
sense	-8834
auchst	-8835
▁enden	-8836
▁unver	-8837
▁schlage	-8838
▁discovered	-8839
Pro	-8840
▁ve	-8841
▁Dopp	-8842
▁mood	-8843
▁norm	-8844
▁rough	-8845
▁Michelle	-8846
▁pair	-8847
aturday	-8848
mädchen	-8849
▁Verlob	-8850
▁ordered	-8851
▁Ernsthaft	-8852
▁verfolgen	-8853
▁Dich	-8854
▁Meth	-8855
stelle	-8856
▁Jerem	-8857
▁Video	-8858
▁alarm	-8859
▁letters	-8860
▁Geschäfts	-8861
▁Diam	-8862
▁Falls	-8863
▁crowd	-8864
▁OR	-8865
rupt	-8866
omach	-8867
sequen	-8868
▁Pläne	-8869
▁aufzu	-8870
▁schien	-8871
▁umsonst	-8872
win	-8873
tens	-8874
▁führ	-8875
▁Stuhl	-8876
▁Selt	-8877
spruch	-8878
▁dessen	-8879
ua	-8880
heim	-8881
▁geg	-8882
▁Jede	-8883
ctions	-8884
sitzen	-8885
▁normalerweise	-8886
Ar	-8887
▁Edward	-8888
▁Stephen	-8889
▁besteht	-8890
▁Sav	-8891
stück	-8892
▁uner	-8893
wir	-8894
ashion	-8895
▁gefol	-8896
▁Osc	-8897
▁Hong	-8898
kommst	-8899
▁Kreat	-8900
▁tötet	-8901
▁Fahrer	-8902
▁Soldat	-8903
ATE	-8904
box	-8905
ärm	-8906
obil	-8907
soci	-8908
▁Beat	-8909
▁gezogen	-8910
▁Braut	-8911
▁manager	-8912
town	-8913
▁deg	-8914
▁Clau	-8915
▁Penn	-8916
▁tort	-8917
▁küssen	-8918
▁erreicht	-8919
▁property	-8920
▁bab	-8921
▁disp	-8922
▁Halten	-8923
▁Rennen	-8924
oben	-8925
▁Nord	-8926
riester	-8927
elly	-8928
▁Ere	-8929
reibe	-8930
▁ends	-8931
▁gere	-8932
▁Falle	-8933
▁paint	-8934
▁south	-8935
▁bessere	-8936
▁reinkommen	-8937
▁Pau	-8938
▁Grant	-8939
zustellen	-8940
ani	-8941
ems	-8942
omes	-8943
▁ash	-8944
▁nor	-8945
▁loud	-8946
eimlich	-8947
▁Tonight	-8948
▁received	-8949
ipl	-8950
▁ausr	-8951
▁ugly	-8952
▁favour	-8953
▁fright	-8954
▁intend	-8955
▁Maschine	-8956
pha	-8957
▁Mah	-8958
fluss	-8959
hafen	-8960
▁Sally	-8961
▁liter	-8962
▁Anyone	-8963
▁spiele	-8964
▁verzei	-8965
▁Kok	-8966
▁denk	-8967
▁lügen	-8968
▁Friday	-8969
▁tradition	-8970
▁forced	-8971
elia	-8972
inos	-8973
▁Knie	-8974
▁Todd	-8975
▁gate	-8976
▁selten	-8977
▁convinc	-8978
▁sweetie	-8979
▁kontrollieren	-8980
oub	-8981
▁ear	-8982
▁Soon	-8983
▁plus	-8984
▁toil	-8985
▁Stern	-8986
▁ziehe	-8987
▁brings	-8988
gelassen	-8989
▁erklärt	-8990
▁location	-8991
▁verschwinde	-8992
▁GU	-8993
mans	-8994
▁Inte	-8995
▁schwach	-8996
▁detective	-8997
▁Sieg	-8998
▁ears	-8999
▁Chaos	-9000
▁Militär	-9001
▁streets	-9002
▁Catherine	-9003
▁zufrieden	-9004
äste	-9005
▁199	-9006
astrop	-9007
▁Haven	-9008
▁Valent	-9009
▁_	-9010
ira	-9011
prom	-9012
▁tim	-9013
▁Kurs	-9014
▁rent	-9015
▁brave	-9016
▁langer	-9017
▁attempt	-9018
▁details	-9019
▁erkennen	-9020
pted	-9021
reut	-9022
▁cares	-9023
▁Freitag	-9024
▁',	-9025
teile	-9026
▁Forg	-9027
dessen	-9028
▁heading	-9029
▁35	-9030
kung	-9031
ware	-9032
▁text	-9033
▁Christus	-9034
▁Highschool	-9035
ente	-9036
▁Akte	-9037
▁reag	-9038
▁Größe	-9039
▁kosten	-9040
▁disappear	-9041
▁Bürgermeister	-9042
emon	-9043
osis	-9044
▁Anzug	-9045
▁Steuer	-9046
▁fragte	-9047
▁lonely	-9048
▁surviv	-9049
▁geplant	-9050
▁returned	-9051
▁wichtiger	-9052
▁EX	-9053
▁TM	-9054
teln	-9055
älte	-9056
▁Kuss	-9057
▁treten	-9058
▁Ehrlich	-9059
▁attacked	-9060
iance	-9061
orney	-9062
round	-9063
▁flat	-9064
▁Seven	-9065
▁sahen	-9066
▁stock	-9067
▁Krankheit	-9068
▁Ac	-9069
anst	-9070
hang	-9071
▁DIE	-9072
einst	-9073
icans	-9074
▁laughing	-9075
▁FRAU	-9076
▁doors	-9077
▁connection	-9078
▁vorbereitet	-9079
essa	-9080
kont	-9081
▁Gras	-9082
▁bite	-9083
▁Brook	-9084
▁Relax	-9085
▁ansch	-9086
▁einsch	-9087
▁Notfall	-9088
▁größten	-9089
▁nochmal	-9090
▁Verdammte	-9091
▁Erinnerungen	-9092
tin	-9093
mail	-9094
pher	-9095
welt	-9096
▁EVER	-9097
arante	-9098
▁barely	-9099
▁beigebracht	-9100
▁ID	-9101
▁Betty	-9102
▁safet	-9103
▁assume	-9104
▁dating	-9105
lä	-9106
▁DI	-9107
▁Hass	-9108
ipping	-9109
▁Jordan	-9110
▁spring	-9111
▁Welches	-9112
▁gehofft	-9113
▁manipul	-9114
haben	-9115
▁model	-9116
▁caused	-9117
▁Station	-9118
verstanden	-9119
isc	-9120
äte	-9121
cean	-9122
oston	-9123
▁easily	-9124
üre	-9125
▁Prost	-9126
▁center	-9127
▁However	-9128
▁stellte	-9129
PS	-9130
▁GOOD	-9131
▁likely	-9132
ließlich	-9133
▁gemeinsam	-9134
oti	-9135
▁Sad	-9136
▁weder	-9137
▁wider	-9138
lligence	-9139
HING	-9140
▁Hir	-9141
▁pocket	-9142
▁safety	-9143
▁Niemals	-9144
▁ausgehen	-9145
gert	-9146
ators	-9147
▁Gesund	-9148
▁ausger	-9149
▁Schloss	-9150
arnt	-9151
▁SOME	-9152
▁neighb	-9153
▁Aufgabe	-9154
▁introduce	-9155
Wir	-9156
zent	-9157
▁ausz	-9158
▁Warst	-9159
▁hired	-9160
gesicht	-9161
▁geheim	-9162
▁Manager	-9163
▁falling	-9164
▁Schatten	-9165
anks	-9166
▁emp	-9167
▁net	-9168
ending	-9169
▁Samstag	-9170
▁morgens	-9171
▁weather	-9172
gebrochen	-9173
▁ungefähr	-9174
BER	-9175
blich	-9176
tritt	-9177
▁Cher	-9178
▁pure	-9179
▁Gehst	-9180
▁Szene	-9181
utzt	-9182
▁tax	-9183
▁Home	-9184
▁Ideen	-9185
▁Barbar	-9186
col	-9187
▁prakt	-9188
▁Unterst	-9189
▁Saturday	-9190
▁challenge	-9191
ounce	-9192
place	-9193
▁lebst	-9194
▁gelogen	-9195
▁Wr	-9196
umst	-9197
cture	-9198
▁dise	-9199
▁hängen	-9200
▁Geister	-9201
▁percent	-9202
▁recently	-9203
AIN	-9204
keep	-9205
rien	-9206
eißen	-9207
▁junger	-9208
▁Möchten	-9209
LLY	-9210
ador	-9211
▁Joy	-9212
sters	-9213
▁Zehn	-9214
▁fange	-9215
▁Coming	-9216
▁theory	-9217
BE	-9218
oi	-9219
oom	-9220
▁fro	-9221
▁Gift	-9222
▁Cooper	-9223
▁Fantast	-9224
▁original	-9225
amber	-9226
▁vamp	-9227
▁schicke	-9228
▁yo	-9229
uster	-9230
▁Wayne	-9231
▁priest	-9232
gesperrt	-9233
▁Entweder	-9234
▁familiar	-9235
▁language	-9236
▁peinlich	-9237
▁adm	-9238
▁Beerd	-9239
▁lösen	-9240
icherung	-9241
▁Rub	-9242
▁erh	-9243
▁lieb	-9244
▁Medik	-9245
▁bedroom	-9246
äul	-9247
▁fehl	-9248
▁Zugang	-9249
▁voraus	-9250
▁erstaunlich	-9251
AH	-9252
▁Poor	-9253
▁Handt	-9254
zuholen	-9255
gust	-9256
▁staff	-9257
▁France	-9258
▁kostet	-9259
▁points	-9260
▁reinge	-9261
▁coat	-9262
▁nights	-9263
ointment	-9264
▁reparieren	-9265
omi	-9266
rich	-9267
▁SEE	-9268
zwungen	-9269
▁Taschen	-9270
▁stomach	-9271
▁material	-9272
▁verfolgt	-9273
uelle	-9274
▁halbe	-9275
▁genius	-9276
▁soldier	-9277
▁Schmerzen	-9278
"!	-9279
▁rub	-9280
▁weiteren	-9281
ede	-9282
▁wet	-9283
▁Hemd	-9284
ingend	-9285
▁drinnen	-9286
▁.	-9287
▁season	-9288
▁British	-9289
▁victims	-9290
▁wagen	-9291
▁Pferde	-9292
▁changes	-9293
▁Football	-9294
▁Ankl	-9295
▁Chanc	-9296
▁Assist	-9297
▁schwarz	-9298
▁Anführer	-9299
▁scheinen	-9300
▁Erlaubnis	-9301
isy	-9302
iled	-9303
▁Bal	-9304
chung	-9305
▁Thor	-9306
aining	-9307
▁Blood	-9308
▁reichen	-9309
▁handsome	-9310
iami	-9311
öder	-9312
ateful	-9313
▁Truck	-9314
▁naked	-9315
▁Lieber	-9316
▁hassen	-9317
▁3.	-9318
acher	-9319
hungen	-9320
▁Grandpa	-9321
zing	-9322
▁Phoe	-9323
▁fiel	-9324
gebung	-9325
▁schme	-9326
▁Margaret	-9327
▁getrennt	-9328
▁incredible	-9329
▁DAS	-9330
▁Dri	-9331
ourney	-9332
▁Thema	-9333
▁wählen	-9334
▁gleiche	-9335
▁Wat	-9336
▁Tatort	-9337
▁Worüber	-9338
▁Apparently	-9339
▁Ain	-9340
▁buying	-9341
▁welcher	-9342
▁Geheimnisse	-9343
▁Boston	-9344
▁assign	-9345
▁bright	-9346
▁einzig	-9347
▁football	-9348
zi	-9349
ingo	-9350
auert	-9351
▁Eink	-9352
▁wheel	-9353
▁einsam	-9354
▁terrif	-9355
▁Russian	-9356
oops	-9357
▁Kam	-9358
▁Stär	-9359
angers	-9360
▁Bühne	-9361
▁bestimm	-9362
▁aufgeben	-9363
▁Schwestern	-9364
▁Fore	-9365
▁tall	-9366
▁commit	-9367
▁Lächeln	-9368
▁Ziemlich	-9369
▁mitgenommen	-9370
▁Afr	-9371
▁Cow	-9372
▁bye	-9373
▁iron	-9374
▁Kompl	-9375
▁antun	-9376
schnitt	-9377
▁buried	-9378
▁eifers	-9379
▁Gestern	-9380
▁Gesundheit	-9381
izing	-9382
▁Ident	-9383
▁dunkel	-9384
▁professional	-9385
ivia	-9386
▁Funk	-9387
▁Harold	-9388
▁artist	-9389
▁stimme	-9390
▁Englisch	-9391
▁nächstes	-9392
dia	-9393
oter	-9394
isher	-9395
▁male	-9396
▁Secret	-9397
▁horses	-9398
▁sprach	-9399
▁Grandma	-9400
▁funeral	-9401
▁guarante	-9402
He	-9403
rab	-9404
▁veh	-9405
▁Fantas	-9406
▁legend	-9407
▁Geschäfte	-9408
Hey	-9409
awa	-9410
rag	-9411
▁198	-9412
▁REA	-9413
▁Autor	-9414
▁Oscar	-9415
▁noise	-9416
istisch	-9417
▁secrets	-9418
▁Abst	-9419
▁rare	-9420
▁fehlt	-9421
▁parts	-9422
▁zulassen	-9423
kor	-9424
▁Lyn	-9425
▁Wid	-9426
steck	-9427
▁Army	-9428
▁stone	-9429
roat	-9430
▁Ruth	-9431
▁brief	-9432
▁shift	-9433
▁wohin	-9434
▁Wunsch	-9435
▁cheese	-9436
▁trägst	-9437
what	-9438
ächen	-9439
teilen	-9440
▁Kräfte	-9441
aud	-9442
oln	-9443
▁Böse	-9444
▁Verr	-9445
▁arme	-9446
▁page	-9447
outine	-9448
▁gelebt	-9449
▁Although	-9450
▁schützen	-9451
▁transport	-9452
cha	-9453
▁ple	-9454
▁Linc	-9455
ändern	-9456
▁Wohin	-9457
▁style	-9458
▁Heraus	-9459
▁covered	-9460
▁members	-9461
▁dachtest	-9462
▁Francisco	-9463
hel	-9464
ürt	-9465
▁School	-9466
▁singing	-9467
aa	-9468
esa	-9469
▁197	-9470
ATION	-9471
▁Prot	-9472
▁Persön	-9473
▁harder	-9474
▁Diesmal	-9475
▁warning	-9476
▁Zumindest	-9477
odes	-9478
uffy	-9479
▁hur	-9480
▁Nate	-9481
▁samm	-9482
▁Shoot	-9483
▁female	-9484
▁headed	-9485
▁Priester	-9486
erechtigkeit	-9487
IVE	-9488
oyd	-9489
uke	-9490
rist	-9491
▁resist	-9492
▁schöner	-9493
xy	-9494
urf	-9495
ffic	-9496
ppen	-9497
▁Fan	-9498
▁Fahren	-9499
▁reality	-9500
▁complicated	-9501
kle	-9502
▁$5	-9503
felt	-9504
▁Habt	-9505
nungen	-9506
▁trade	-9507
▁gewalt	-9508
▁gingen	-9509
▁Details	-9510
▁Vertrag	-9511
▁showing	-9512
▁insurance	-9513
itan	-9514
▁Viet	-9515
▁Miller	-9516
▁grew	-9517
▁Brand	-9518
▁Spion	-9519
▁Vince	-9520
▁Lippen	-9521
▁Manche	-9522
▁schönes	-9523
▁mountain	-9524
amt	-9525
nete	-9526
▁versich	-9527
sm	-9528
▁MO	-9529
▁Mem	-9530
▁Syd	-9531
eller	-9532
▁schief	-9533
▁Frankreich	-9534
üsst	-9535
▁tiny	-9536
antage	-9537
▁Wahnsinn	-9538
▁medicine	-9539
▁Jedenfalls	-9540
▁Arn	-9541
▁bal	-9542
▁gekl	-9543
▁Kolle	-9544
▁lachen	-9545
▁Sow	-9546
▁unw	-9547
bewer	-9548
▁runs	-9549
gliche	-9550
▁indeed	-9551
rak	-9552
asha	-9553
▁jün	-9554
heben	-9555
äuser	-9556
▁Lügen	-9557
▁manage	-9558
▁erlaubt	-9559
▁verurteil	-9560
▁Sep	-9561
▁ach	-9562
cement	-9563
weisen	-9564
▁miser	-9565
▁Transp	-9566
▁diesmal	-9567
▁cos	-9568
▁Mind	-9569
▁schreien	-9570
▁Gerechtigkeit	-9571
hoo	-9572
▁MR	-9573
▁joy	-9574
▁rush	-9575
imeter	-9576
▁bread	-9577
üchtern	-9578
▁beschl	-9579
▁students	-9580
eks	-9581
▁Head	-9582
▁Lucas	-9583
▁Stone	-9584
▁Hannah	-9585
▁community	-9586
utr	-9587
▁SM	-9588
▁gegenseit	-9589
▁verursacht	-9590
VEN	-9591
▁Earl	-9592
▁einge	-9593
▁meins	-9594
▁Ermitt	-9595
▁Hitler	-9596
▁Phoebe	-9597
▁trifft	-9598
▁opening	-9599
▁map	-9600
▁Chem	-9601
▁mult	-9602
▁Ellen	-9603
▁Panik	-9604
▁finds	-9605
▁leiden	-9606
▁wohnen	-9607
mosph	-9608
▁Drop	-9609
drehen	-9610
olence	-9611
ützung	-9612
▁relie	-9613
▁reasons	-9614
▁beschlossen	-9615
▁konzentrieren	-9616
▁Nope	-9617
▁temper	-9618
▁uniform	-9619
▁represent	-9620
▁Sab	-9621
▁Lüge	-9622
▁Wake	-9623
▁Miami	-9624
▁cases	-9625
▁ate	-9626
▁bang	-9627
▁prot	-9628
▁Feder	-9629
▁Zähne	-9630
▁Frankie	-9631
▁Schlange	-9632
▁Mod	-9633
▁Mun	-9634
▁ergibt	-9635
▁period	-9636
▁brilliant	-9637
Te	-9638
akte	-9639
▁Dere	-9640
▁Nina	-9641
▁Außen	-9642
▁Kenny	-9643
▁Wetter	-9644
arbeiter	-9645
tle	-9646
ummy	-9647
▁Gern	-9648
▁tong	-9649
▁Europ	-9650
▁Grenze	-9651
▁geschw	-9652
▁Theater	-9653
▁gentleman	-9654
▁untersuchen	-9655
uma	-9656
▁mei	-9657
press	-9658
worte	-9659
▁Werk	-9660
▁Armen	-9661
▁Block	-9662
▁brand	-9663
▁cancer	-9664
ui	-9665
seite	-9666
▁fuhr	-9667
▁gewö	-9668
▁Nancy	-9669
▁Stief	-9670
▁memories	-9671
ocht	-9672
rief	-9673
▁Guy	-9674
▁desp	-9675
▁chick	-9676
schaften	-9677
▁Fahrrad	-9678
▁überprüft	-9679
ping	-9680
▁colle	-9681
ilde	-9682
▁seg	-9683
iehst	-9684
retch	-9685
▁Angela	-9686
▁Leiden	-9687
▁hidden	-9688
▁obvious	-9689
▁Flughafen	-9690
▁thousands	-9691
▁LET	-9692
▁flo	-9693
rogen	-9694
▁beunr	-9695
▁perfekte	-9696
reib	-9697
ektor	-9698
ookie	-9699
▁Mühe	-9700
▁ruined	-9701
▁charges	-9702
▁Künstler	-9703
des	-9704
alph	-9705
cast	-9706
▁Gall	-9707
▁Zahl	-9708
▁Signal	-9709
▁positive	-9710
.'	-9711
arks	-9712
▁creep	-9713
▁source	-9714
▁screwed	-9715
▁knowledge	-9716
▁mentioned	-9717
▁Akt	-9718
▁Wut	-9719
▁ult	-9720
linge	-9721
▁bene	-9722
leiten	-9723
▁answers	-9724
▁spreche	-9725
iac	-9726
igst	-9727
obby	-9728
▁fate	-9729
▁clock	-9730
▁klären	-9731
▁toller	-9732
▁Projekt	-9733
vi	-9734
dra	-9735
ori	-9736
▁Beruf	-9737
▁Especially	-9738
▁mindestens	-9739
alys	-9740
▁Peg	-9741
▁Road	-9742
▁link	-9743
ettbewer	-9744
po	-9745
hek	-9746
iqu	-9747
▁Dunkel	-9748
▁verbracht	-9749
omed	-9750
▁Rak	-9751
▁Benn	-9752
reißen	-9753
▁Aaron	-9754
▁fingers	-9755
▁Virginia	-9756
▁Versuchen	-9757
▁permission	-9758
2,	-9759
▁Wy	-9760
aubt	-9761
▁Vic	-9762
▁jew	-9763
fahrt	-9764
front	-9765
▁Kurz	-9766
▁Prem	-9767
▁satisf	-9768
▁belongs	-9769
▁divorce	-9770
▁downstairs	-9771
oria	-9772
umpf	-9773
ystem	-9774
▁Anth	-9775
▁Kang	-9776
▁Elena	-9777
▁Großvater	-9778
▁Spen	-9779
▁meth	-9780
▁Lewis	-9781
▁Werde	-9782
azieren	-9783
▁robber	-9784
▁strugg	-9785
▁verwirrt	-9786
▁Yu	-9787
auern	-9788
▁educ	-9789
▁moral	-9790
▁Jugend	-9791
▁Zahlen	-9792
▁boring	-9793
▁Stellen	-9794
▁Schlafzimmer	-9795
00.	-9796
fia	-9797
acks	-9798
dlich	-9799
▁Brot	-9800
▁Zufall	-9801
▁powers	-9802
▁impress	-9803
▁bloß	-9804
ätzchen	-9805
▁Schade	-9806
▁Umständ	-9807
▁whoever	-9808
▁ertragen	-9809
hern	-9810
outs	-9811
▁Cos	-9812
▁TIM	-9813
ieber	-9814
▁Plus	-9815
▁tail	-9816
▁Int	-9817
▁ban	-9818
▁saß	-9819
utage	-9820
▁seek	-9821
▁desper	-9822
▁dealing	-9823
▁offered	-9824
▁Nachbarn	-9825
▁entdeckt	-9826
▁Gelegenheit	-9827
▁Nag	-9828
▁unit	-9829
▁Py	-9830
▁Kent	-9831
▁Runde	-9832
ailable	-9833
▁exciting	-9834
▁According	-9835
▁einfacher	-9836
ONG	-9837
▁bike	-9838
▁jerk	-9839
▁prim	-9840
▁Beaut	-9841
▁Laufen	-9842
▁punish	-9843
▁Spiegel	-9844
ux	-9845
ube	-9846
▁Ji	-9847
üste	-9848
eline	-9849
▁Alarm	-9850
▁Miles	-9851
▁Ärzte	-9852
▁Keiner	-9853
▁clever	-9854
aner	-9855
▁Set	-9856
ipper	-9857
uhigt	-9858
▁Cheers	-9859
▁Believe	-9860
▁confess	-9861
▁gezwungen	-9862
▁schlechter	-9863
dell	-9864
▁Übr	-9865
andal	-9866
elegt	-9867
▁Farm	-9868
▁Rett	-9869
▁Sicht	-9870
▁sexual	-9871
utzutage	-9872
▁schlechten	-9873
ippe	-9874
▁Bab	-9875
miral	-9876
▁trage	-9877
▁Beding	-9878
▁Leider	-9879
▁Caroline	-9880
▁Großmutter	-9881
aler	-9882
▁Invest	-9883
▁Seltsam	-9884
▁hingehen	-9885
▁Mine	-9886
▁Priv	-9887
▁esse	-9888
▁Randy	-9889
▁Norden	-9890
▁Patient	-9891
▁Schweine	-9892
▁überzeugen	-9893
ses	-9894
häng	-9895
look	-9896
▁Chand	-9897
▁Zivil	-9898
▁grave	-9899
▁kinda	-9900
▁Sophie	-9901
▁citizen	-9902
▁irgendjemand	-9903
▁irgendwelche	-9904
▁Walt	-9905
▁herr	-9906
▁Gäste	-9907
▁Berlin	-9908
▁families	-9909
▁particular	-9910
▁Schok	-9911
▁avoid	-9912
▁incre	-9913
▁langen	-9914
▁society	-9915
aging	-9916
▁Bede	-9917
▁Holl	-9918
▁revenge	-9919
fore	-9920
▁Ven	-9921
▁journey	-9922
▁motherfucker	-9923
AG	-9924
▁Dog	-9925
athol	-9926
using	-9927
▁Shin	-9928
▁verär	-9929
umachen	-9930
▁Angele	-9931
▁nennst	-9932
▁Barbara	-9933
▁vermissen	-9934
otch	-9935
▁trees	-9936
▁vorbe	-9937
▁carrying	-9938
▁akzeptieren	-9939
uring	-9940
▁gehei	-9941
geworfen	-9942
▁enttäuscht	-9943
ohn	-9944
▁Real	-9945
▁Davis	-9946
▁verlie	-9947
▁Department	-9948
▁Whit	-9949
▁Ethan	-9950
▁Flucht	-9951
▁Vision	-9952
▁fanden	-9953
▁lesson	-9954
▁Schreibt	-9955
▁streiten	-9956
▁Antworten	-9957
▁OP	-9958
ening	-9959
▁sterbe	-9960
▁durchgemacht	-9961
EP	-9962
Fr	-9963
▁Vis	-9964
lauben	-9965
▁director	-9966
▁statement	-9967
▁Öffentlich	-9968
▁Ay	-9969
▁Filme	-9970
▁sooner	-9971
▁ancient	-9972
▁aufgetaucht	-9973
▁neighborhood	-9974
▁Ali	-9975
akter	-9976
atsch	-9977
▁Gebiet	-9978
▁disgust	-9979
UD	-9980
▁HIS	-9981
▁zusehen	-9982
▁Eve	-9983
▁pill	-9984
▁Interess	-9985
äme	-9986
mare	-9987
▁Martha	-9988
▁fought	-9989
▁stellt	-9990
gelaufen	-9991
▁capable	-9992
▁hergekommen	-9993
IP	-9994
▁Dok	-9995
iller	-9996
samen	-9997
▁dozen	-9998
▁Second	-9999
▁verzwei	-10000
bit	-10001
rin	-10002
uche	-10003
gelegt	-10004
▁Mason	-10005
▁assum	-10006
▁humans	-10007
▁rights	-10008
ulf	-10009
▁DA	-10010
▁Neg	-10011
▁SCH	-10012
▁Perfect	-10013
▁Überleben	-10014
▁personally	-10015
▁eingesperrt	-10016
quis	-10017
▁Dear	-10018
▁reve	-10019
orenen	-10020
▁Casey	-10021
▁fixed	-10022
▁spare	-10023
▁Wonder	-10024
▁entlassen	-10025
ota	-10026
ühren	-10027
▁Face	-10028
▁erhö	-10029
▁Darauf	-10030
▁forest	-10031
▁raised	-10032
▁airport	-10033
▁growing	-10034
▁meal	-10035
▁Ricky	-10036
▁confirm	-10037
▁Erwachsen	-10038
▁Bez	-10039
▁deut	-10040
▁infe	-10041
öffnet	-10042
▁Übrigens	-10043
▁celebrate	-10044
▁SC	-10045
ungsk	-10046
▁newsp	-10047
ouverne	-10048
▁Mickey	-10049
▁Einheit	-10050
▁Verhalten	-10051
▁eifersüchtig	-10052
▁USA	-10053
setzt	-10054
▁Burn	-10055
▁stab	-10056
ickelt	-10057
▁aussch	-10058
▁Maschinen	-10059
▁verhaften	-10060
.?	-10061
▁(	-10062
wehr	-10063
clock	-10064
▁Bert	-10065
▁Staat	-10066
▁coach	-10067
▁files	-10068
▁whore	-10069
▁waited	-10070
▁planned	-10071
▁[	-10072
OWN	-10073
▁Morr	-10074
▁wire	-10075
▁chose	-10076
▁Sonntag	-10077
▁reached	-10078
▁buck	-10079
▁Kaiser	-10080
▁releas	-10081
▁Endlich	-10082
▁TR	-10083
oses	-10084
play	-10085
schm	-10086
▁Feel	-10087
▁site	-10088
▁zählt	-10089
▁Zucker	-10090
▁Klienten	-10091
rup	-10092
inny	-10093
▁Kay	-10094
haber	-10095
venue	-10096
▁heut	-10097
▁lautet	-10098
▁dringend	-10099
▁Beerdigung	-10100
▁mama	-10101
▁rück	-10102
▁Derek	-10103
ocolate	-10104
▁Weiter	-10105
▁anständ	-10106
▁unterstützen	-10107
▁sau	-10108
▁Dead	-10109
▁Seel	-10110
wohner	-10111
ümmert	-10112
▁Tiger	-10113
▁walls	-10114
▁Himmels	-10115
▁Zweifel	-10116
▁incident	-10117
▁springen	-10118
Man	-10119
oma	-10120
▁Coun	-10121
▁Walker	-10122
▁detail	-10123
▁Überhaupt	-10124
▁unterschreiben	-10125
mpt	-10126
oles	-10127
▁196	-10128
▁Hur	-10129
▁Mär	-10130
▁pin	-10131
▁exch	-10132
▁Steph	-10133
schrift	-10134
▁gewählt	-10135
▁medizin	-10136
▁tickets	-10137
ehmt	-10138
▁Hau	-10139
bereit	-10140
▁Quiet	-10141
▁Schwe	-10142
▁Lösung	-10143
▁photos	-10144
▁Alb	-10145
▁shh	-10146
▁trap	-10147
▁golden	-10148
▁insist	-10149
onnected	-10150
▁direction	-10151
Sie	-10152
osse	-10153
▁DER	-10154
▁Pam	-10155
▁Pot	-10156
ennung	-10157
▁Rever	-10158
▁gesam	-10159
bur	-10160
▁Kühl	-10161
▁Sammy	-10162
schrank	-10163
▁Number	-10164
▁regular	-10165
sver	-10166
hafte	-10167
▁anzu	-10168
▁eggs	-10169
▁jobs	-10170
▁rief	-10171
▁WOULD	-10172
▁woods	-10173
▁screen	-10174
issioner	-10175
▁Florida	-10176
▁Lincoln	-10177
▁gegenseitig	-10178
▁zieh	-10179
tember	-10180
▁beschw	-10181
▁bleeding	-10182
stal	-10183
▁Eun	-10184
▁data	-10185
▁Water	-10186
▁Monica	-10187
▁attend	-10188
▁doctors	-10189
▁enemies	-10190
▁vertraut	-10191
▁Ale	-10192
▁Arg	-10193
▁stink	-10194
▁drinks	-10195
▁filled	-10196
▁player	-10197
▁pounds	-10198
▁Einsatz	-10199
▁Schreck	-10200
öch	-10201
▁27	-10202
▁shr	-10203
▁Markt	-10204
▁Stich	-10205
▁Barney	-10206
▁Jennifer	-10207
▁gekämpft	-10208
Ch	-10209
agg	-10210
▁Ereign	-10211
ological	-10212
▁Anybody	-10213
▁kontakt	-10214
▁Irgendwie	-10215
▁Verschwinden	-10216
▁Öffentlichkeit	-10217
30	-10218
rock	-10219
▁bug	-10220
▁enth	-10221
recher	-10222
▁giant	-10223
▁stress	-10224
▁Möchtest	-10225
▁yourselves	-10226
▁OFF	-10227
▁vorhin	-10228
kerl	-10229
uted	-10230
▁mort	-10231
▁netter	-10232
Don	-10233
cohol	-10234
ätsel	-10235
▁Mäuse	-10236
▁Tränen	-10237
▁abholen	-10238
icia	-10239
mark	-10240
▁Gus	-10241
▁pump	-10242
▁cheap	-10243
▁dumme	-10244
▁shape	-10245
▁Verwand	-10246
▁überlebt	-10247
▁Versprechen	-10248
uchst	-10249
▁Forgive	-10250
▁verbunden	-10251
▁Schreibtisch	-10252
▁plate	-10253
▁Japanese	-10254
▁3:	-10255
▁LA	-10256
▁SAM	-10257
▁plat	-10258
ressen	-10259
▁Gouverne	-10260
▁Anscheinend	-10261
▁PRO	-10262
arson	-10263
▁beibr	-10264
▁echter	-10265
sper	-10266
ündet	-10267
▁gemeldet	-10268
▁Erklärung	-10269
▁erfolgreich	-10270
▁Hure	-10271
Ein	-10272
tending	-10273
▁spielst	-10274
▁komplett	-10275
▁romantic	-10276
▁according	-10277
▁OKAY	-10278
zubringen	-10279
▁Herausforder	-10280
▁2,	-10281
▁Lil	-10282
▁crit	-10283
▁fancy	-10284
▁glasses	-10285
▁committed	-10286
▁happiness	-10287
▁offiziell	-10288
▁experiment	-10289
igan	-10290
▁gal	-10291
▁Math	-10292
artier	-10293
ächtnis	-10294
▁beläst	-10295
▁burned	-10296
▁butter	-10297
▁fliehen	-10298
▁genießen	-10299
▁expensive	-10300
ANN	-10301
▁brut	-10302
believ	-10303
▁zuvor	-10304
rüstung	-10305
▁Killer	-10306
▁Liefer	-10307
▁ändert	-10308
▁Rebecca	-10309
▁beendet	-10310
▁Fingerab	-10311
ilar	-10312
iple	-10313
▁Lad	-10314
fälle	-10315
▁seien	-10316
▁Urteil	-10317
▁schade	-10318
▁erzähle	-10319
▁presence	-10320
▁versteht	-10321
▁fantastic	-10322
▁zumindest	-10323
iva	-10324
istic	-10325
▁laid	-10326
▁custom	-10327
▁toilet	-10328
.!	-10329
▁48	-10330
case	-10331
▁Hom	-10332
▁Ill	-10333
arily	-10334
▁Kost	-10335
▁Montag	-10336
▁Verlust	-10337
oker	-10338
quar	-10339
▁Las	-10340
▁scary	-10341
▁Nation	-10342
▁border	-10343
▁device	-10344
▁übrigens	-10345
▁unschuldig	-10346
verd	-10347
▁Raj	-10348
giving	-10349
▁drove	-10350
▁faces	-10351
▁trail	-10352
▁Nigger	-10353
▁woanders	-10354
-2	-10355
Al	-10356
▁diam	-10357
▁Death	-10358
▁Behand	-10359
▁Gefällt	-10360
▁picking	-10361
▁patients	-10362
ript	-10363
uses	-10364
▁Krebs	-10365
▁Talent	-10366
▁connect	-10367
▁officers	-10368
▁Schauspieler	-10369
bly	-10370
iane	-10371
innt	-10372
▁Ban	-10373
▁lad	-10374
▁Albt	-10375
▁Blake	-10376
▁Might	-10377
▁locker	-10378
▁Politik	-10379
▁Schaden	-10380
▁wünschen	-10381
lear	-10382
▁irre	-10383
▁terms	-10384
▁kicked	-10385
▁Italien	-10386
▁Director	-10387
▁including	-10388
bey	-10389
ibi	-10390
war	-10391
▁194	-10392
▁Navy	-10393
▁Nenn	-10394
▁Close	-10395
▁Jeremy	-10396
▁Spring	-10397
▁Veränder	-10398
▁murderer	-10399
LER	-10400
▁AG	-10401
▁Gi	-10402
acke	-10403
ruck	-10404
▁Ralph	-10405
▁Regel	-10406
▁Sturm	-10407
▁crash	-10408
▁County	-10409
▁Monday	-10410
▁elimin	-10411
▁watched	-10412
▁Geschmack	-10413
FE	-10414
fest	-10415
uchs	-10416
▁Muld	-10417
▁Tode	-10418
▁gesetzt	-10419
▁Bade	-10420
▁Bren	-10421
▁FROM	-10422
▁Koch	-10423
▁physical	-10424
▁aufgegeben	-10425
▁verschiedene	-10426
ali	-10427
▁GON	-10428
opher	-10429
▁Teen	-10430
▁debt	-10431
befehl	-10432
schmer	-10433
▁Schäd	-10434
▁behandeln	-10435
asten	-10436
▁Guter	-10437
▁Dennis	-10438
▁otherwise	-10439
▁erschaffen	-10440
▁verhindern	-10441
▁Unterstützung	-10442
▁international	-10443
cho	-10444
ynam	-10445
attoo	-10446
azine	-10447
atives	-10448
▁Kerle	-10449
▁adult	-10450
▁Dingen	-10451
▁attract	-10452
ül	-10453
otic	-10454
▁Dyl	-10455
▁Dong	-10456
▁Netz	-10457
▁amüs	-10458
ifornia	-10459
▁symbol	-10460
▁gekümmert	-10461
▁Os	-10462
spro	-10463
▁BACK	-10464
▁Prom	-10465
▁Sprache	-10466
▁Fähigkeiten	-10467
cul	-10468
▁Fa	-10469
sein	-10470
▁Ruh	-10471
▁Atem	-10472
▁Vide	-10473
▁Akten	-10474
östlich	-10475
▁babies	-10476
ANG	-10477
ders	-10478
ober	-10479
kehrt	-10480
▁Hart	-10481
▁Pizza	-10482
▁Beweis	-10483
▁Spuren	-10484
▁riecht	-10485
▁younger	-10486
▁kur	-10487
icted	-10488
etzten	-10489
aign	-10490
▁tip	-10491
uchte	-10492
▁corr	-10493
▁nurse	-10494
▁Rechnung	-10495
girl	-10496
▁Meg	-10497
amente	-10498
▁Force	-10499
aschine	-10500
▁results	-10501
igent	-10502
▁shots	-10503
▁Vietnam	-10504
▁prepare	-10505
▁verlangt	-10506
▁available	-10507
▁beobachtet	-10508
▁Rh	-10509
▁Si	-10510
▁Mean	-10511
ämpfen	-10512
▁Going	-10513
steigen	-10514
▁Dummkopf	-10515
▁vermasselt	-10516
▁schreckliche	-10517
ishop	-10518
▁lack	-10519
▁GONNA	-10520
▁crush	-10521
▁schla	-10522
ception	-10523
▁echten	-10524
▁halben	-10525
bekommen	-10526
▁circumst	-10527
▁vacation	-10528
▁aufgenommen	-10529
iskey	-10530
▁Dieb	-10531
▁Lucky	-10532
▁attra	-10533
▁Either	-10534
▁Justin	-10535
Und	-10536
pton	-10537
▁Eva	-10538
ähnen	-10539
▁based	-10540
▁birds	-10541
▁exact	-10542
▁Freundschaft	-10543
rael	-10544
▁trag	-10545
▁Einzel	-10546
▁higher	-10547
▁advantage	-10548
▁hmm	-10549
essed	-10550
▁Central	-10551
▁wiedersehen	-10552
▁GE	-10553
OUND	-10554
▁Oje	-10555
▁Pay	-10556
▁Sky	-10557
essel	-10558
ights	-10559
▁Sack	-10560
▁Sitz	-10561
▁armen	-10562
▁burning	-10563
▁EIN	-10564
▁Landes	-10565
▁progress	-10566
▁Überwach	-10567
▁aunt	-10568
testen	-10569
▁Travis	-10570
▁guests	-10571
fan	-10572
▁pissed	-10573
▁Stimmen	-10574
bür	-10575
äfst	-10576
▁erb	-10577
ables	-10578
▁Grad	-10579
▁Schande	-10580
▁schrieb	-10581
▁Erk	-10582
▁daß	-10583
alian	-10584
▁Sens	-10585
▁Stad	-10586
▁jury	-10587
▁gestr	-10588
▁Mexico	-10589
▁century	-10590
▁BL	-10591
▁Tina	-10592
▁beast	-10593
▁Friend	-10594
▁issues	-10595
▁appointment	-10596
omy	-10597
▁Ian	-10598
▁Mak	-10599
▁neug	-10600
▁Titel	-10601
▁pills	-10602
▁sorge	-10603
HN	-10604
igte	-10605
▁mic	-10606
▁Bast	-10607
▁Lane	-10608
▁Schnee	-10609
▁former	-10610
▁invite	-10611
▁Chancen	-10612
▁disease	-10613
▁welchem	-10614
▁Security	-10615
▁Otherwise	-10616
▁Dunkelheit	-10617
▁protection	-10618
▁AD	-10619
etti	-10620
,000.	-10621
eland	-10622
▁dust	-10623
▁Darum	-10624
▁Wendy	-10625
▁bound	-10626
▁anderem	-10627
▁cy	-10628
▁Fei	-10629
▁kür	-10630
aufst	-10631
rence	-10632
▁Fried	-10633
▁sugar	-10634
▁recomm	-10635
▁courage	-10636
▁fortune	-10637
▁princess	-10638
▁spazieren	-10639
ghan	-10640
▁gig	-10641
▁Quinn	-10642
▁cloud	-10643
▁motor	-10644
station	-10645
▁appears	-10646
▁neulich	-10647
▁sam	-10648
hness	-10649
▁zuhören	-10650
▁geglaubt	-10651
▁partners	-10652
▁herkommen	-10653
▁understood	-10654
▁Him	-10655
icked	-10656
▁role	-10657
▁GOING	-10658
▁innerhalb	-10659
▁überzeugt	-10660
IDE	-10661
▁Fat	-10662
▁Sum	-10663
▁Thr	-10664
▁mum	-10665
▁wei	-10666
agger	-10667
▁stood	-10668
▁disturb	-10669
▁gemeint	-10670
▁Trotzdem	-10671
▁schwarzen	-10672
▁kompliziert	-10673
▁entschuldige	-10674
gle	-10675
▁Syl	-10676
▁cure	-10677
▁Helden	-10678
▁instru	-10679
▁negoti	-10680
▁confused	-10681
▁nightmare	-10682
▁Fox	-10683
▁babe	-10684
schule	-10685
▁Stamm	-10686
▁Wurde	-10687
▁pulling	-10688
▁beschuld	-10689
▁television	-10690
züg	-10691
istenz	-10692
▁Lektion	-10693
▁Russell	-10694
▁technology	-10695
Ver	-10696
agh	-10697
änn	-10698
▁Willie	-10699
▁fährst	-10700
▁kochen	-10701
▁tongue	-10702
imer	-10703
ural	-10704
owing	-10705
ferenz	-10706
▁Dylan	-10707
▁awake	-10708
▁einst	-10709
▁ähnlich	-10710
ühr	-10711
▁II	-10712
ulen	-10713
amotten	-10714
▁telefon	-10715
▁campaign	-10716
▁Menschheit	-10717
hor	-10718
ours	-10719
unte	-10720
▁201	-10721
▁McK	-10722
▁Geis	-10723
render	-10724
▁Georg	-10725
▁image	-10726
▁sandwich	-10727
vels	-10728
▁obs	-10729
▁lower	-10730
▁Durchs	-10731
▁reports	-10732
▁Inspektor	-10733
ACH	-10734
Wenn	-10735
▁tit	-10736
isode	-10737
assung	-10738
▁dummen	-10739
▁Auftrag	-10740
▁defense	-10741
▁passion	-10742
▁breathing	-10743
▁Pad	-10744
▁Sue	-10745
akten	-10746
▁chap	-10747
uments	-10748
▁Honest	-10749
▁Schwer	-10750
▁therap	-10751
▁Williams	-10752
Fre	-10753
iao	-10754
acon	-10755
ello	-10756
▁Sollte	-10757
▁violence	-10758
▁basically	-10759
Un	-10760
▁Öl	-10761
ples	-10762
pten	-10763
▁dun	-10764
▁Curt	-10765
▁thief	-10766
▁forces	-10767
▁beantworten	-10768
▁\	-10769
ket	-10770
oned	-10771
▁mob	-10772
▁Pool	-10773
▁aufr	-10774
▁mask	-10775
▁moves	-10776
▁owner	-10777
▁Stehen	-10778
▁bieten	-10779
aling	-10780
▁Toby	-10781
▁Craig	-10782
▁jacket	-10783
▁throat	-10784
fell	-10785
▁reb	-10786
▁Yang	-10787
▁isol	-10788
▁Eisen	-10789
▁Tracy	-10790
▁Gehalt	-10791
▁Hallow	-10792
▁seltsame	-10793
▁Entscheidungen	-10794
gerät	-10795
▁bege	-10796
▁grat	-10797
ändnis	-10798
▁Break	-10799
▁Court	-10800
▁dreht	-10801
▁ashamed	-10802
▁changing	-10803
▁wichtige	-10804
believable	-10805
Be	-10806
urd	-10807
▁Karl	-10808
▁shake	-10809
▁toast	-10810
▁Grunde	-10811
▁Jahres	-10812
▁Anklage	-10813
▁recover	-10814
▁aufstehen	-10815
wan	-10816
lare	-10817
reek	-10818
rika	-10819
aming	-10820
▁Half	-10821
▁Krist	-10822
▁indust	-10823
▁launch	-10824
▁profit	-10825
▁trigger	-10826
▁stronger	-10827
▁political	-10828
izen	-10829
▁HEY	-10830
▁Nav	-10831
astic	-10832
▁Hirn	-10833
▁nutz	-10834
▁Clear	-10835
▁managed	-10836
▁vernünft	-10837
not	-10838
▁lat	-10839
▁bags	-10840
▁Carrie	-10841
▁anstatt	-10842
▁Unterricht	-10843
▁erschreckt	-10844
but	-10845
▁28	-10846
▁DU	-10847
▁Bry	-10848
▁hug	-10849
volle	-10850
▁Leit	-10851
▁Töte	-10852
▁euer	-10853
▁tear	-10854
illing	-10855
äulein	-10856
▁Rufen	-10857
▁badly	-10858
▁Mantel	-10859
▁accompl	-10860
▁Mitglied	-10861
▁treatment	-10862
▁grandfather	-10863
vir	-10864
▁Ve	-10865
othy	-10866
▁sin	-10867
markt	-10868
stone	-10869
▁blew	-10870
▁Beweg	-10871
▁Child	-10872
▁Holen	-10873
▁Logan	-10874
▁Harris	-10875
▁rennen	-10876
▁Admiral	-10877
▁product	-10878
▁Rec	-10879
▁Duke	-10880
▁Waren	-10881
▁endet	-10882
▁brains	-10883
▁healthy	-10884
▁grateful	-10885
▁beruhigen	-10886
colm	-10887
▁square	-10888
▁befreien	-10889
▁carefully	-10890
▁26	-10891
▁ol	-10892
emal	-10893
▁Hans	-10894
▁nackt	-10895
▁Church	-10896
▁vision	-10897
▁suffering	-10898
kunft	-10899
▁Card	-10900
▁Hexe	-10901
▁chat	-10902
▁lover	-10903
▁rescue	-10904
▁winter	-10905
▁Spezial	-10906
▁touched	-10907
aro	-10908
ubs	-10909
▁egg	-10910
▁hunt	-10911
▁Austr	-10912
▁Verräter	-10913
▁4.	-10914
ashi	-10915
▁swim	-10916
▁Homer	-10917
▁Westen	-10918
▁gelegt	-10919
▁Kleider	-10920
▁curious	-10921
▁verabschieden	-10922
▁150	-10923
▁Tasse	-10924
▁California	-10925
lers	-10926
that	-10927
▁Alpha	-10928
▁sitze	-10929
▁Feinde	-10930
▁anfassen	-10931
▁ego	-10932
▁Ford	-10933
▁Seht	-10934
▁herein	-10935
▁hoffen	-10936
▁Könnten	-10937
▁miracle	-10938
▁scratch	-10939
▁Fräulein	-10940
arma	-10941
urer	-10942
▁Use	-10943
uries	-10944
▁fried	-10945
▁verfl	-10946
▁Bonnie	-10947
▁Mulder	-10948
▁mirror	-10949
▁Agenten	-10950
▁wechsel	-10951
bid	-10952
▁8:	-10953
▁Chi	-10954
▁entr	-10955
▁Zentr	-10956
▁meint	-10957
▁Lachen	-10958
▁stören	-10959
▁gewinnt	-10960
indigkeit	-10961
▁entweder	-10962
▁considered	-10963
▁Unfortunately	-10964
▁Inc	-10965
angel	-10966
▁Pink	-10967
würdig	-10968
▁zählen	-10969
▁respond	-10970
▁schwier	-10971
▁anziehen	-10972
▁convinced	-10973
▁Erinnerung	-10974
1,	-10975
IZ	-10976
▁EM	-10977
allt	-10978
quem	-10979
elten	-10980
▁arch	-10981
▁Motor	-10982
▁Seems	-10983
▁Sister	-10984
▁Wouldn	-10985
▁trinke	-10986
▁gerufen	-10987
▁verrückte	-10988
▁verwandelt	-10989
▁är	-10990
▁Eben	-10991
▁Save	-10992
▁alien	-10993
▁Folgen	-10994
▁trafen	-10995
▁Thought	-10996
▁gefolgt	-10997
▁Vermögen	-10998
▁checking	-10999
liot	-11000
▁Süden	-11001
▁nette	-11002
▁tears	-11003
ierungs	-11004
▁Katzen	-11005
▁Sieben	-11006
▁modern	-11007
▁goodness	-11008
geschichte	-11009
▁36	-11010
anen	-11011
ampen	-11012
ällen	-11013
▁dopp	-11014
▁math	-11015
ometer	-11016
▁drown	-11017
▁Milliar	-11018
▁directly	-11019
ALK	-11020
uki	-11021
gott	-11022
▁WHEN	-11023
▁licen	-11024
▁Werden	-11025
▁suchst	-11026
▁Universum	-11027
▁photograph	-11028
▁GR	-11029
inda	-11030
▁Owen	-11031
▁soup	-11032
hängen	-11033
▁warri	-11034
▁Worauf	-11035
▁Würden	-11036
▁Neither	-11037
▁Besitzer	-11038
ooth	-11039
▁grade	-11040
▁sweat	-11041
▁Quelle	-11042
▁nannte	-11043
▁becomes	-11044
▁steigen	-11045
▁warrant	-11046
▁Kollegen	-11047
▁convince	-11048
▁verdammtes	-11049
▁WHY	-11050
▁Disk	-11051
▁shel	-11052
▁sinn	-11053
reichen	-11054
▁Anrufe	-11055
▁Malcolm	-11056
▁Reverend	-11057
▁apparently	-11058
▁rechtzeitig	-11059
AUSE	-11060
▁Yet	-11061
▁unh	-11062
rifft	-11063
▁Nich	-11064
▁fift	-11065
▁reck	-11066
▁ocean	-11067
utation	-11068
▁finanz	-11069
▁Krieger	-11070
▁Papiere	-11071
▁Est	-11072
ropri	-11073
▁Gray	-11074
▁cart	-11075
▁laws	-11076
isions	-11077
▁Artikel	-11078
▁Stanley	-11079
▁popular	-11080
▁programm	-11081
▁verbrannt	-11082
▁Ts	-11083
▁spy	-11084
arter	-11085
▁Käse	-11086
▁Vick	-11087
▁Phill	-11088
▁Türen	-11089
▁Almost	-11090
▁Verkehr	-11091
▁existiert	-11092
oli	-11093
burg	-11094
laut	-11095
▁Mort	-11096
▁tied	-11097
essert	-11098
▁Front	-11099
▁desire	-11100
▁inspir	-11101
▁Schnitt	-11102
▁Theorie	-11103
▁Americans	-11104
▁assistant	-11105
wohnt	-11106
▁trug	-11107
▁hated	-11108
▁wisst	-11109
chester	-11110
▁leider	-11111
▁Vertrau	-11112
▁dritten	-11113
▁experien	-11114
▁surround	-11115
deck	-11116
▁Rie	-11117
andet	-11118
undet	-11119
▁Gerü	-11120
▁absch	-11121
▁weiße	-11122
▁Heimat	-11123
▁Mittern	-11124
▁distance	-11125
while	-11126
▁Blau	-11127
▁atmen	-11128
▁Planet	-11129
▁stabil	-11130
▁license	-11131
▁traffic	-11132
▁Geräusch	-11133
▁schedule	-11134
▁vergewalt	-11135
zed	-11136
▁""	-11137
▁heim	-11138
▁Linie	-11139
▁troub	-11140
▁Corpor	-11141
▁affair	-11142
▁mehrere	-11143
TE	-11144
WAY	-11145
osa	-11146
lymp	-11147
▁Cons	-11148
wäsche	-11149
▁Bomben	-11150
▁Grenzen	-11151
▁Spieler	-11152
▁verließ	-11153
schmerzen	-11154
▁nonsense	-11155
▁confident	-11156
rier	-11157
▁Len	-11158
▁Feig	-11159
▁Magst	-11160
▁Olivia	-11161
▁associ	-11162
▁sisters	-11163
▁Baseball	-11164
AC	-11165
Ja	-11166
rän	-11167
annel	-11168
▁Chan	-11169
▁Kirk	-11170
▁reisen	-11171
▁Anthony	-11172
▁alcohol	-11173
▁Jas	-11174
▁SAY	-11175
bliche	-11176
▁Elekt	-11177
▁Denken	-11178
▁verletzen	-11179
say	-11180
umph	-11181
▁scen	-11182
▁knees	-11183
▁value	-11184
▁desert	-11185
▁erstes	-11186
▁reward	-11187
arre	-11188
▁Cind	-11189
▁Jill	-11190
▁Stil	-11191
▁aktiv	-11192
▁tests	-11193
ettbewerb	-11194
▁grandmother	-11195
ords	-11196
vere	-11197
aszin	-11198
▁June	-11199
▁Left	-11200
igungs	-11201
uchten	-11202
▁Elliot	-11203
▁Govern	-11204
▁escaped	-11205
▁verpassen	-11206
▁revolution	-11207
name	-11208
▁Dol	-11209
▁Eing	-11210
ladung	-11211
urufen	-11212
▁Knast	-11213
bildung	-11214
▁Vampir	-11215
verständ	-11216
▁attorney	-11217
▁circumstances	-11218
oret	-11219
ietet	-11220
▁Corn	-11221
▁Gabe	-11222
▁Moon	-11223
▁gall	-11224
▁Being	-11225
▁Helft	-11226
▁Hoheit	-11227
▁Vereinigten	-11228
My	-11229
▁Bang	-11230
▁dram	-11231
▁Vögel	-11232
▁Zunge	-11233
▁Geruch	-11234
▁Stärke	-11235
▁gewöhn	-11236
▁exchange	-11237
▁prisoner	-11238
ulse	-11239
▁30.	-11240
▁Komp	-11241
▁east	-11242
heriff	-11243
▁Stark	-11244
machung	-11245
▁Großer	-11246
▁Julian	-11247
▁Ausweis	-11248
▁Fantasie	-11249
▁loswerden	-11250
▁Verteidigung	-11251
5,	-11252
▁gez	-11253
öscht	-11254
abhäng	-11255
▁COULD	-11256
▁Europa	-11257
▁Victoria	-11258
▁concentr	-11259
▁Schlimmste	-11260
▁Amb	-11261
▁jen	-11262
▁abges	-11263
▁Götter	-11264
▁individ	-11265
▁Alexander	-11266
▁Thanksgiving	-11267
▁intelligence	-11268
▁mr	-11269
legt	-11270
▁Riley	-11271
▁daraus	-11272
▁served	-11273
▁surface	-11274
schwester	-11275
ruf	-11276
▁Snow	-11277
▁edge	-11278
fläche	-11279
▁Found	-11280
▁Castle	-11281
▁Louise	-11282
▁mental	-11283
▁bezahle	-11284
▁unglücklich	-11285
DER	-11286
ATOR	-11287
▁Nel	-11288
▁Anst	-11289
▁Bauer	-11290
▁cheer	-11291
▁Punkte	-11292
▁dienen	-11293
▁pleased	-11294
▁neugierig	-11295
utch	-11296
▁Pir	-11297
▁dün	-11298
▁aside	-11299
▁nenne	-11300
astrophe	-11301
▁passing	-11302
▁schickt	-11303
▁Offizier	-11304
▁excellent	-11305
mt	-11306
ENN	-11307
▁20.	-11308
▁Kanz	-11309
▁erzählst	-11310
▁überraschen	-11311
alled	-11312
▁appl	-11313
▁wohn	-11314
▁Aktiv	-11315
▁rooms	-11316
▁ships	-11317
▁Publik	-11318
▁Realität	-11319
▁abgeschlossen	-11320
▁rap	-11321
▁wide	-11322
öschen	-11323
▁bones	-11324
▁produc	-11325
▁Langsam	-11326
▁Schulter	-11327
▁Hoffentlich	-11328
▁zurückgekommen	-11329
grü	-11330
ämen	-11331
▁russ	-11332
▁sque	-11333
▁Teile	-11334
▁below	-11335
▁Jersey	-11336
▁Kennst	-11337
▁Schock	-11338
▁slowly	-11339
EAR	-11340
reme	-11341
rückt	-11342
ältst	-11343
▁Many	-11344
▁Guard	-11345
▁verge	-11346
▁bester	-11347
geschickt	-11348
▁schwarze	-11349
▁shoulder	-11350
▁Interview	-11351
▁geblieben	-11352
▁Zoe	-11353
▁bump	-11354
▁gefl	-11355
▁Treppe	-11356
▁beeilen	-11357
▁geführt	-11358
▁Reporter	-11359
▁beschützt	-11360
▁Wissenschaftler	-11361
OUR	-11362
irty	-11363
nappt	-11364
▁Slow	-11365
▁ordin	-11366
▁decent	-11367
▁strate	-11368
▁counter	-11369
▁electric	-11370
▁arbeitete	-11371
endes	-11372
▁holt	-11373
ächter	-11374
▁Hammer	-11375
▁silver	-11376
▁creature	-11377
▁desperate	-11378
▁riskieren	-11379
▁Gouverneur	-11380
ols	-11381
äden	-11382
▁bone	-11383
richtung	-11384
▁Careful	-11385
▁wachsen	-11386
▁behavior	-11387
▁disgusting	-11388
▁competition	-11389
▁menschliche	-11390
▁Leb	-11391
▁Rog	-11392
known	-11393
worth	-11394
▁Lake	-11395
▁adopt	-11396
▁Scheck	-11397
▁repeat	-11398
▁climb	-11399
▁mercy	-11400
▁pizza	-11401
▁remains	-11402
▁stärker	-11403
▁Halloween	-11404
eb	-11405
▁Golf	-11406
▁Pack	-11407
▁lips	-11408
▁unus	-11409
▁Chang	-11410
äuschen	-11411
▁Schädel	-11412
▁gewusst	-11413
▁becoming	-11414
uba	-11415
▁Trag	-11416
▁bail	-11417
▁corn	-11418
äglich	-11419
ilities	-11420
▁vehicle	-11421
▁musstest	-11422
▁eventually	-11423
▁bon	-11424
▁row	-11425
liegen	-11426
▁EVERY	-11427
▁cabin	-11428
▁teuer	-11429
▁trace	-11430
anische	-11431
▁Sterne	-11432
▁riding	-11433
▁zugeben	-11434
▁bestätigt	-11435
3,	-11436
lar	-11437
Mann	-11438
▁Aben	-11439
▁rise	-11440
▁sail	-11441
▁Norman	-11442
▁schmer	-11443
▁schlägt	-11444
▁treated	-11445
▁Versteck	-11446
▁schreibe	-11447
eiz	-11448
slos	-11449
ücher	-11450
▁100%	-11451
▁Ausge	-11452
▁signs	-11453
▁Schrank	-11454
▁pattern	-11455
▁verhand	-11456
▁Beeilung	-11457
don	-11458
▁Pac	-11459
mäßig	-11460
▁Gnade	-11461
▁Magen	-11462
▁Meiner	-11463
▁Kleidung	-11464
▁millions	-11465
▁rausholen	-11466
▁conference	-11467
away	-11468
▁erl	-11469
▁sed	-11470
usive	-11471
▁Hands	-11472
▁harte	-11473
▁prior	-11474
▁solve	-11475
▁Direkt	-11476
▁Darling	-11477
▁mystery	-11478
▁Training	-11479
zehn	-11480
▁woke	-11481
▁Power	-11482
▁establ	-11483
▁hearts	-11484
▁reserv	-11485
▁Certain	-11486
▁delicious	-11487
jagt	-11488
▁Eat	-11489
▁Hop	-11490
▁Lau	-11491
▁belt	-11492
▁liar	-11493
▁flesh	-11494
▁bewaff	-11495
▁compan	-11496
▁Finally	-11497
▁Gedanke	-11498
▁Konzentr	-11499
pers	-11500
uary	-11501
▁Dunk	-11502
wasser	-11503
▁Allen	-11504
▁dauer	-11505
▁loyal	-11506
▁garant	-11507
▁rauskommen	-11508
agan	-11509
ipment	-11510
▁höher	-11511
▁heilen	-11512
▁joking	-11513
▁Streich	-11514
▁parking	-11515
▁connected	-11516
▁Ig	-11517
odka	-11518
▁Scher	-11519
▁defin	-11520
▁mächt	-11521
▁arrive	-11522
▁regard	-11523
ampagner	-11524
▁billion	-11525
▁vertraue	-11526
▁praktisch	-11527
'.	-11528
▁wa	-11529
▁Juan	-11530
▁Zach	-11531
ichter	-11532
▁blank	-11533
orgeous	-11534
▁Scheid	-11535
zwischen	-11536
schlüssel	-11537
▁ernsthaft	-11538
▁beibringen	-11539
▁friendship	-11540
sta	-11541
bing	-11542
▁10.	-11543
▁spüren	-11544
▁trauen	-11545
▁aufregend	-11546
▁chocolate	-11547
AK	-11548
uhl	-11549
ünder	-11550
▁Mess	-11551
▁Kugeln	-11552
▁verteidigen	-11553
chi	-11554
▁400	-11555
allow	-11556
annon	-11557
anzös	-11558
▁tank	-11559
▁bösen	-11560
▁swing	-11561
▁Affäre	-11562
▁Sydney	-11563
▁zwingen	-11564
▁released	-11565
▁whenever	-11566
▁Revolution	-11567
▁Unglaublich	-11568
▁§	-11569
ORT	-11570
izz	-11571
lim	-11572
abbit	-11573
schau	-11574
▁TIME	-11575
▁teen	-11576
riften	-11577
▁verbl	-11578
▁Butter	-11579
▁assass	-11580
▁einigen	-11581
gewöhnlich	-11582
▁Beautiful	-11583
BO	-11584
gte	-11585
job	-11586
▁Sem	-11587
▁Tja	-11588
▁dirt	-11589
▁höch	-11590
▁Kreis	-11591
▁occur	-11592
▁garage	-11593
▁winner	-11594
▁unangen	-11595
bank	-11596
ombie	-11597
▁gods	-11598
▁Affen	-11599
▁Rosen	-11600
▁broad	-11601
schland	-11602
▁Danach	-11603
▁analys	-11604
▁weißen	-11605
▁Service	-11606
▁Verstär	-11607
▁receive	-11608
▁trapped	-11609
▁useless	-11610
▁erfunden	-11611
▁scheißegal	-11612
▁UH	-11613
▁leads	-11614
▁score	-11615
▁Marine	-11616
ASE	-11617
oard	-11618
▁HAD	-11619
ected	-11620
▁Kart	-11621
▁India	-11622
▁bride	-11623
▁cancel	-11624
▁Perfekt	-11625
▁hunting	-11626
▁PL	-11627
olas	-11628
▁Kab	-11629
▁Pic	-11630
reift	-11631
▁junk	-11632
▁custody	-11633
▁verdienst	-11634
▁bestätigen	-11635
▁unterhalten	-11636
gins	-11637
rell	-11638
▁Need	-11639
▁THEM	-11640
▁männ	-11641
▁Daisy	-11642
▁curse	-11643
▁Ronnie	-11644
▁troops	-11645
▁rauchen	-11646
▁staring	-11647
▁intellig	-11648
▁Explosion	-11649
▁angelogen	-11650
▁Champagner	-11651
lern	-11652
▁Jar	-11653
schuss	-11654
▁Decke	-11655
▁Revier	-11656
▁besseren	-11657
▁beschloss	-11658
▁schmutzig	-11659
nth	-11660
▁Fur	-11661
rohung	-11662
▁Wache	-11663
▁steps	-11664
▁Briefe	-11665
▁Wachen	-11666
▁bezwei	-11667
▁factory	-11668
▁Gewinner	-11669
▁midnight	-11670
▁Seb	-11671
▁Jacke	-11672
▁joint	-11673
liothek	-11674
▁financ	-11675
▁highly	-11676
▁prosec	-11677
▁heutzutage	-11678
7,	-11679
▁Ned	-11680
▁kle	-11681
▁acqu	-11682
▁Neben	-11683
▁Telef	-11684
▁WHERE	-11685
▁range	-11686
▁talks	-11687
▁batter	-11688
▁besucht	-11689
▁schließ	-11690
▁honestly	-11691
▁Klamotten	-11692
▁September	-11693
▁Sö	-11694
▁pity	-11695
▁deins	-11696
▁deren	-11697
▁liest	-11698
▁pride	-11699
▁merken	-11700
▁Raymond	-11701
▁Arbeiter	-11702
▁ausgesucht	-11703
erc	-11704
spir	-11705
sache	-11706
▁Tara	-11707
▁Wusst	-11708
▁Geduld	-11709
▁quarter	-11710
▁Indianer	-11711
▁audience	-11712
▁passierte	-11713
umn	-11714
üff	-11715
▁Soo	-11716
▁err	-11717
▁sem	-11718
▁Geor	-11719
▁Enkel	-11720
gelernt	-11721
▁Früher	-11722
▁refuse	-11723
▁cameras	-11724
▁mistakes	-11725
▁reingelegt	-11726
▁Medikamente	-11727
▁Heh	-11728
▁brit	-11729
▁wise	-11730
▁Kleine	-11731
▁schulde	-11732
▁solchen	-11733
▁antworten	-11734
▁gebraucht	-11735
▁schwimmen	-11736
▁kennengelernt	-11737
9,	-11738
ups	-11739
ült	-11740
kampf	-11741
▁Bahn	-11742
▁Jobs	-11743
cepted	-11744
▁Avenue	-11745
▁Schrift	-11746
▁Kommando	-11747
obt	-11748
pens	-11749
vell	-11750
▁Kauf	-11751
▁WERE	-11752
▁Shawn	-11753
▁Story	-11754
▁Zerst	-11755
geschlagen	-11756
orp	-11757
ixon	-11758
ulate	-11759
▁Evan	-11760
▁künd	-11761
▁lern	-11762
ammelt	-11763
uschen	-11764
▁Jäger	-11765
▁Shane	-11766
▁Finden	-11767
▁Untert	-11768
▁pardon	-11769
▁Meeting	-11770
▁champion	-11771
▁angezogen	-11772
▁Sä	-11773
riel	-11774
▁Grey	-11775
▁cris	-11776
▁summ	-11777
▁Holmes	-11778
▁Mylord	-11779
▁Though	-11780
▁announ	-11781
▁tolles	-11782
▁yellow	-11783
▁derselbe	-11784
▁occasion	-11785
▁vergeben	-11786
▁Besonders	-11787
afé	-11788
miss	-11789
▁Tan	-11790
▁load	-11791
▁Fahrt	-11792
▁Later	-11793
▁Paige	-11794
▁loving	-11795
▁depends	-11796
▁stimmen	-11797
▁trocken	-11798
▁Fortschr	-11799
▁erschein	-11800
▁treasure	-11801
▁Mitternacht	-11802
rip	-11803
klagt	-11804
▁Chir	-11805
imming	-11806
uclear	-11807
▁Kling	-11808
▁graus	-11809
brochen	-11810
▁französ	-11811
▁dieselbe	-11812
Re	-11813
AME	-11814
▁IM	-11815
imum	-11816
uman	-11817
▁Tie	-11818
▁Fran	-11819
zellen	-11820
▁wohne	-11821
underte	-11822
▁parano	-11823
▁stealing	-11824
▁equipment	-11825
▁Möglichkeiten	-11826
äub	-11827
ases	-11828
▁Muse	-11829
▁purs	-11830
▁steh	-11831
ograph	-11832
▁elekt	-11833
▁chances	-11834
▁throwing	-11835
▁Excellent	-11836
▁guarantee	-11837
onse	-11838
▁Mei	-11839
▁Sup	-11840
▁Liam	-11841
▁horn	-11842
▁töte	-11843
levant	-11844
▁Seien	-11845
▁dreck	-11846
▁notes	-11847
▁ability	-11848
▁foreign	-11849
▁Princess	-11850
▁Superman	-11851
▁successful	-11852
lon	-11853
rees	-11854
uled	-11855
utzend	-11856
▁Stücke	-11857
▁Willen	-11858
▁button	-11859
▁similar	-11860
▁Stimmung	-11861
pfel	-11862
quer	-11863
▁12.	-11864
▁flu	-11865
▁lake	-11866
▁Buddy	-11867
▁false	-11868
▁Israel	-11869
▁actual	-11870
▁current	-11871
UNG	-11872
ella	-11873
▁Nap	-11874
▁YES	-11875
▁effort	-11876
▁provide	-11877
▁versagt	-11878
▁Wusstest	-11879
▁sometime	-11880
▁agreement	-11881
▁performance	-11882
Fl	-11883
rif	-11884
ñor	-11885
▁32	-11886
▁HO	-11887
OUGH	-11888
▁Wün	-11889
▁cha	-11890
▁dunk	-11891
▁Finde	-11892
▁Truth	-11893
▁chain	-11894
▁coinc	-11895
▁gefühlt	-11896
▁worüber	-11897
▁leichter	-11898
▁extremely	-11899
aries	-11900
▁Zeuge	-11901
▁madam	-11902
▁15.	-11903
▁deb	-11904
▁Kult	-11905
▁holy	-11906
▁nasty	-11907
▁Dutzend	-11908
▁annehmen	-11909
▁Botschaft	-11910
▁zurückkommt	-11911
MAN	-11912
alo	-11913
▁PE	-11914
onym	-11915
gegen	-11916
▁hieß	-11917
▁liqu	-11918
aution	-11919
▁Temper	-11920
▁führte	-11921
▁mechan	-11922
▁Publikum	-11923
▁verschiedenen	-11924
esten	-11925
▁hill	-11926
▁brown	-11927
▁leise	-11928
▁marks	-11929
▁Cowboy	-11930
▁Goddamn	-11931
▁behaupt	-11932
▁wartest	-11933
▁Gewissen	-11934
▁auseinander	-11935
spe	-11936
▁BY	-11937
berry	-11938
ierer	-11939
peror	-11940
▁Mitt	-11941
▁abst	-11942
▁elev	-11943
▁Diane	-11944
▁Hütte	-11945
vention	-11946
▁secure	-11947
▁journal	-11948
▁solution	-11949
▁Enterprise	-11950
▁entwickelt	-11951
ARR	-11952
ürzt	-11953
▁Dex	-11954
▁Maya	-11955
▁bast	-11956
▁kinds	-11957
▁roten	-11958
▁Murphy	-11959
▁Schick	-11960
▁remove	-11961
hest	-11962
▁Each	-11963
schirm	-11964
▁scharf	-11965
▁moments	-11966
▁darkness	-11967
▁Pin	-11968
▁Stolz	-11969
▁bored	-11970
▁proced	-11971
▁knocked	-11972
▁verwandeln	-11973
▁Nachbarschaft	-11974
▁Fingerabdrücke	-11975
ran	-11976
una	-11977
▁QU	-11978
apie	-11979
▁merk	-11980
▁annoy	-11981
▁beeil	-11982
▁ehren	-11983
▁Einmal	-11984
▁Gloria	-11985
▁trusted	-11986
ISS	-11987
▁KE	-11988
opter	-11989
▁Burt	-11990
▁concl	-11991
▁Batman	-11992
▁Dinger	-11993
▁clients	-11994
▁properly	-11995
▁verliere	-11996
▁GRE	-11997
▁unhö	-11998
▁pitch	-11999
▁Trinken	-12000
▁searching	-12001
tät	-12002
itis	-12003
▁tor	-12004
▁fett	-12005
endung	-12006
▁songs	-12007
▁Seelen	-12008
▁flower	-12009
▁histor	-12010
▁gewarnt	-12011
▁unusual	-12012
▁cleaning	-12013
▁Gefangenen	-12014
▁HI	-12015
▁Ret	-12016
▁Finn	-12017
ielten	-12018
▁Rauch	-12019
▁agents	-12020
▁monkey	-12021
▁unfair	-12022
▁trennen	-12023
▁gelandet	-12024
▁Fu	-12025
▁zog	-12026
▁Gene	-12027
▁pupp	-12028
karten	-12029
lernen	-12030
▁fully	-12031
▁entert	-12032
▁Roboter	-12033
▁geklärt	-12034
▁schwere	-12035
ramm	-12036
▁Kuh	-12037
▁Tak	-12038
▁abge	-12039
▁mayor	-12040
anstalt	-12041
▁spoken	-12042
▁wahren	-12043
▁wishes	-12044
chnungen	-12045
▁unglaub	-12046
▁sentence	-12047
▁Fernseher	-12048
gesp	-12049
▁Zit	-12050
▁Been	-12051
▁Maul	-12052
▁Orig	-12053
▁nail	-12054
▁Gibbs	-12055
▁liber	-12056
▁raten	-12057
▁Worten	-12058
▁guards	-12059
▁tollen	-12060
▁handeln	-12061
▁schlafe	-12062
▁stranger	-12063
▁Bedeutung	-12064
▁anzurufen	-12065
▁Krankenwagen	-12066
FT	-12067
my	-12068
pect	-12069
sens	-12070
▁Wem	-12071
retär	-12072
▁Live	-12073
keeper	-12074
▁helps	-12075
gekehrt	-12076
▁Summer	-12077
▁advent	-12078
▁Drachen	-12079
▁Störung	-12080
▁Verkauf	-12081
▁cooking	-12082
▁engaged	-12083
▁leading	-12084
▁protest	-12085
▁stoppen	-12086
▁hundreds	-12087
▁verboten	-12088
-4	-12089
ilos	-12090
attan	-12091
▁Iron	-12092
▁Magn	-12093
▁Mall	-12094
▁Fight	-12095
▁Piper	-12096
▁altes	-12097
gedreht	-12098
▁Doppel	-12099
▁studio	-12100
▁Besseres	-12101
▁FE	-12102
hlst	-12103
otto	-12104
▁SOM	-12105
▁Tank	-12106
▁Heißt	-12107
▁Times	-12108
▁Audrey	-12109
zuziehen	-12110
▁Germany	-12111
▁beeinfl	-12112
▁smoking	-12113
▁screaming	-12114
▁Vermutlich	-12115
▁protecting	-12116
IK	-12117
▁DOWN	-12118
▁Rita	-12119
▁Safe	-12120
▁Felix	-12121
▁Whoever	-12122
▁sacrifice	-12123
lied	-12124
▁IST	-12125
▁Ped	-12126
anced	-12127
igner	-12128
▁Benj	-12129
▁Fitz	-12130
▁Reis	-12131
▁Tipp	-12132
▁Basis	-12133
▁Sandy	-12134
▁worum	-12135
▁Connor	-12136
▁dritte	-12137
▁smells	-12138
▁wander	-12139
▁erwarte	-12140
▁gesteckt	-12141
▁separate	-12142
via	-12143
esar	-12144
antha	-12145
bergen	-12146
▁Osten	-12147
▁Woman	-12148
▁juice	-12149
igungen	-12150
▁Alfred	-12151
▁Palmer	-12152
▁explan	-12153
▁Schwarz	-12154
▁CT	-12155
▁Ll	-12156
▁Glad	-12157
▁Höhe	-12158
▁Megan	-12159
▁Gegenteil	-12160
▁Commissioner	-12161
▁Por	-12162
▁Tae	-12163
lässt	-12164
▁Pist	-12165
▁Juden	-12166
▁pussy	-12167
▁trash	-12168
▁Uniform	-12169
▁univers	-12170
▁Personal	-12171
▁besessen	-12172
▁wehgetan	-12173
▁beobachten	-12174
▁remembered	-12175
ju	-12176
low	-12177
aver	-12178
▁fasc	-12179
▁Quite	-12180
▁armed	-12181
▁setze	-12182
ammlung	-12183
▁Fabrik	-12184
▁altern	-12185
▁Looking	-12186
▁basement	-12187
▁literally	-12188
▁schneiden	-12189
▁understanding	-12190
bage	-12191
▁Hüb	-12192
▁Cross	-12193
▁Answer	-12194
▁frustr	-12195
ropriate	-12196
▁großart	-12197
▁richtiger	-12198
▁verwickelt	-12199
▁CD	-12200
üche	-12201
▁TELL	-12202
▁judg	-12203
▁oppos	-12204
▁pilot	-12205
▁setzt	-12206
▁sharp	-12207
▁sport	-12208
▁Afghan	-12209
▁Anwesen	-12210
▁entirely	-12211
ablo	-12212
willig	-12213
▁Eight	-12214
▁Keith	-12215
▁THING	-12216
▁Zelle	-12217
▁moder	-12218
▁Ratten	-12219
▁Teller	-12220
▁wasting	-12221
▁ruinieren	-12222
üm	-12223
rom	-12224
ocken	-12225
▁Haltet	-12226
▁Rätsel	-12227
▁Weißen	-12228
▁tempor	-12229
▁Gewicht	-12230
▁spending	-12231
IRL	-12232
ova	-12233
tail	-12234
▁Full	-12235
▁Jagd	-12236
▁poet	-12237
eremon	-12238
▁Erinn	-12239
▁Stift	-12240
▁route	-12241
zunehmen	-12242
▁Verpiss	-12243
▁carried	-12244
▁gewohnt	-12245
uate	-12246
craft	-12247
▁Hear	-12248
▁econ	-12249
▁fein	-12250
verage	-12251
▁Enjoy	-12252
▁Donald	-12253
▁heirat	-12254
▁öffent	-12255
anischen	-12256
▁Bernard	-12257
▁aggress	-12258
▁verzeihen	-12259
fa	-12260
▁Ga	-12261
bten	-12262
weit	-12263
▁Boh	-12264
▁Dat	-12265
▁Gep	-12266
▁Hou	-12267
▁Budd	-12268
▁Khan	-12269
▁libr	-12270
▁Olymp	-12271
▁blast	-12272
▁eilig	-12273
▁flash	-12274
▁hates	-12275
▁leiten	-12276
▁bestellt	-12277
6,	-12278
ÄH	-12279
ASS	-12280
aya	-12281
mod	-12282
alia	-12283
hyth	-12284
▁Inn	-12285
▁Viv	-12286
etwas	-12287
▁Wirt	-12288
▁Brenn	-12289
▁Nelson	-12290
▁castle	-12291
▁Truppen	-12292
▁beating	-12293
▁aufgewachsen	-12294
That	-12295
emat	-12296
▁Eli	-12297
Sache	-12298
▁Noah	-12299
▁sale	-12300
▁Drive	-12301
▁Fälle	-12302
reibung	-12303
▁Antrag	-12304
▁aboard	-12305
▁Sternen	-12306
▁constant	-12307
▁friendly	-12308
80	-12309
uns	-12310
▁cho	-12311
▁Dest	-12312
▁Wege	-12313
▁etern	-12314
▁repla	-12315
▁Ashley	-12316
▁Inform	-12317
genheiten	-12318
▁ordinary	-12319
▁jederzeit	-12320
duct	-12321
ennis	-12322
ittee	-12323
▁wand	-12324
▁Couldn	-12325
▁origin	-12326
▁counsel	-12327
▁riechen	-12328
▁precious	-12329
▁derselben	-12330
▁Deutschland	-12331
öpf	-12332
▁Hub	-12333
▁Nut	-12334
▁suc	-12335
▁NEED	-12336
▁Past	-12337
▁hire	-12338
▁seht	-12339
achtel	-12340
▁stairs	-12341
▁tausend	-12342
▁freundlich	-12343
▁Beziehungen	-12344
klag	-12345
▁OUR	-12346
▁Web	-12347
▁fac	-12348
▁Halb	-12349
▁Said	-12350
▁deny	-12351
▁Lance	-12352
▁shout	-12353
▁ausgew	-12354
▁lebendig	-12355
▁schläfst	-12356
▁shopping	-12357
hai	-12358
yers	-12359
ively	-12360
lying	-12361
▁cand	-12362
▁goal	-12363
▁punk	-12364
▁rang	-12365
▁ambul	-12366
▁Hunter	-12367
▁affect	-12368
▁attitude	-12369
öh	-12370
▁$3	-12371
▁Neil	-12372
▁Domin	-12373
▁Gabriel	-12374
▁Gerichts	-12375
ISH	-12376
alle	-12377
▁ded	-12378
▁les	-12379
geber	-12380
okrat	-12381
▁Kino	-12382
▁craw	-12383
▁puts	-12384
▁task	-12385
▁Häuser	-12386
▁teleph	-12387
▁ziehst	-12388
▁Schokol	-12389
▁Kindheit	-12390
▁deutlich	-12391
▁authority	-12392
ministerium	-12393
bot	-12394
cia	-12395
leg	-12396
maß	-12397
zert	-12398
▁Var	-12399
▁Ivan	-12400
▁rote	-12401
▁Probe	-12402
▁Sonder	-12403
▁Warren	-12404
▁beängst	-12405
▁fishing	-12406
stitution	-12407
fir	-12408
▁3,	-12409
ktur	-12410
▁Jos	-12411
▁Low	-12412
▁syn	-12413
▁Orte	-12414
▁Rain	-12415
▁einig	-12416
zentrum	-12417
▁hinein	-12418
▁option	-12419
▁series	-12420
▁besides	-12421
▁capital	-12422
▁geküsst	-12423
antwortet	-12424
▁gedauert	-12425
▁kennenlernen	-12426
gibt	-12427
inik	-12428
ivery	-12429
▁News	-12430
▁slip	-12431
reitet	-12432
▁Beute	-12433
▁Tests	-12434
▁Wesen	-12435
▁Brille	-12436
▁breast	-12437
▁Brauchst	-12438
▁Franklin	-12439
▁schnappen	-12440
▁Christopher	-12441
▁Zwischenzeit	-12442
▁Hob	-12443
▁Jae	-12444
atory	-12445
▁clin	-12446
▁Verbr	-12447
▁sneak	-12448
▁spüre	-12449
drücken	-12450
▁determin	-12451
▁Jahrhundert	-12452
eta	-12453
ahrt	-12454
anzt	-12455
prim	-12456
umor	-12457
▁Cost	-12458
▁Flur	-12459
▁Wohl	-12460
▁rude	-12461
▁symp	-12462
ichert	-12463
▁manche	-12464
▁Erstens	-12465
▁Reaktion	-12466
▁surrender	-12467
▁intelligent	-12468
▁Seth	-12469
▁tast	-12470
graben	-12471
▁houses	-12472
▁sheriff	-12473
▁specific	-12474
▁angreifen	-12475
▁menschlichen	-12476
▁Bi	-12477
usty	-12478
▁Dom	-12479
▁Non	-12480
ursday	-12481
▁candy	-12482
otograf	-12483
▁bezweifle	-12484
AIT	-12485
hem	-12486
▁Ferr	-12487
▁Joan	-12488
reiten	-12489
rengen	-12490
▁Beach	-12491
▁fruit	-12492
▁Rechte	-12493
▁brennt	-12494
▁frisch	-12495
▁Dämonen	-12496
▁Prozent	-12497
▁mächtig	-12498
▁Mitchell	-12499
▁möchtest	-12500
▁Spielzeug	-12501
lem	-12502
▁Kurt	-12503
▁hack	-12504
gehört	-12505
▁Hatte	-12506
▁suppl	-12507
▁schlug	-12508
▁Definit	-12509
▁Heather	-12510
▁müssten	-12511
▁riesige	-12512
▁demonstr	-12513
▁reingehen	-12514
hört	-12515
▁roy	-12516
lasse	-12517
▁Imag	-12518
▁Diego	-12519
▁Hafen	-12520
▁minds	-12521
▁Irgendein	-12522
▁verlaufen	-12523
▁Herausforderung	-12524
UCH	-12525
▁Eg	-12526
ivan	-12527
▁Mün	-12528
▁Sah	-12529
▁Wed	-12530
▁fab	-12531
▁mole	-12532
▁Davon	-12533
▁Money	-12534
▁Tunnel	-12535
▁fashion	-12536
▁Bibliothek	-12537
▁geschnappt	-12538
▁verzweifelt	-12539
etts	-12540
kind	-12541
pack	-12542
▁Def	-12543
▁pit	-12544
verse	-12545
finden	-12546
gefühl	-12547
selben	-12548
▁refer	-12549
▁pushed	-12550
▁skills	-12551
▁brennen	-12552
▁victory	-12553
▁Division	-12554
▁PH	-12555
▁LAU	-12556
▁vul	-12557
passt	-12558
▁1000	-12559
▁Blöd	-12560
ierter	-12561
▁Janet	-12562
ability	-12563
▁fliegt	-12564
▁7:	-12565
▁DR	-12566
▁EL	-12567
ilfe	-12568
▁Cyr	-12569
ached	-12570
▁shoe	-12571
▁Blair	-12572
▁solid	-12573
▁toler	-12574
ogether	-12575
▁chosen	-12576
▁längst	-12577
▁method	-12578
▁silent	-12579
▁trained	-12580
▁aufnehmen	-12581
▁unhöflich	-12582
▁Bedingungen	-12583
▁eingestellt	-12584
▁interessieren	-12585
NE	-12586
cut	-12587
▁ICH	-12588
annen	-12589
▁Brig	-12590
▁Versp	-12591
▁alert	-12592
▁kaufe	-12593
▁virus	-12594
▁Sebast	-12595
▁volunte	-12596
▁reputation	-12597
▁unterschrieben	-12598
cco	-12599
iki	-12600
roht	-12601
utsch	-12602
▁Wade	-12603
▁sales	-12604
ologist	-12605
▁Deputy	-12606
▁Flügel	-12607
▁buchst	-12608
▁Verdächtigen	-12609
▁verschwindet	-12610
▁5.	-12611
▁Prü	-12612
▁Tel	-12613
▁ums	-12614
▁BEEN	-12615
▁Kids	-12616
......	-12617
▁twist	-12618
standing	-12619
▁Getting	-12620
▁abandoned	-12621
▁vorgestellt	-12622
▁ä	-12623
SON	-12624
▁Hof	-12625
▁Manh	-12626
▁TAKE	-12627
uellen	-12628
▁Philip	-12629
▁humili	-12630
▁policy	-12631
▁assault	-12632
▁wanting	-12633
▁stattdessen	-12634
SA	-12635
OUS	-12636
king	-12637
▁thy	-12638
▁flag	-12639
▁Africa	-12640
▁Studio	-12641
▁bequem	-12642
▁nutzen	-12643
▁surely	-12644
▁zugest	-12645
▁gehörte	-12646
▁stirbst	-12647
▁Ausrüstung	-12648
▁Fantastisch	-12649
uar	-12650
▁Bol	-12651
▁bum	-12652
onica	-12653
fernen	-12654
▁Folge	-12655
▁SOMET	-12656
▁feder	-12657
▁Action	-12658
▁Besitz	-12659
▁Kandid	-12660
▁thrown	-12661
▁express	-12662
▁vampire	-12663
▁Sandwich	-12664
▁Einstellung	-12665
▁Oz	-12666
arat	-12667
viet	-12668
achst	-12669
▁disk	-12670
▁Finanz	-12671
▁REALLY	-12672
usstsein	-12673
▁Kaliforn	-12674
▁verliert	-12675
▁Bedrohung	-12676
▁repariert	-12677
▁Leidenschaft	-12678
haw	-12679
walk	-12680
▁Dod	-12681
▁Tok	-12682
▁Shaw	-12683
▁Virus	-12684
▁elder	-12685
▁Anweis	-12686
▁kissed	-12687
▁körper	-12688
▁cutting	-12689
▁hässlich	-12690
▁furchtbar	-12691
▁professor	-12692
zub	-12693
rain	-12694
owder	-12695
rison	-12696
▁Boys	-12697
▁Cops	-12698
▁fuel	-12699
▁sons	-12700
iefert	-12701
uesday	-12702
▁Girls	-12703
▁Taten	-12704
▁squad	-12705
▁sucks	-12706
▁hilfst	-12707
▁Material	-12708
▁verdiene	-12709
stud	-12710
ausch	-12711
▁True	-12712
▁Damon	-12713
▁Wanna	-12714
▁Nicole	-12715
▁ficken	-12716
▁Hattest	-12717
▁learning	-12718
IB	-12719
üp	-12720
gate	-12721
ropos	-12722
esselt	-12723
▁Große	-12724
▁Abente	-12725
▁Certainly	-12726
bow	-12727
üst	-12728
▁lügst	-12729
▁segne	-12730
▁bricht	-12731
▁hervor	-12732
▁mostly	-12733
▁Italian	-12734
▁durchge	-12735
▁Gedächtnis	-12736
hold	-12737
▁Abr	-12738
▁Opf	-12739
▁füt	-12740
▁taten	-12741
ikation	-12742
▁Drinks	-12743
▁bisher	-12744
▁events	-12745
▁Abmachung	-12746
▁angekommen	-12747
▁angenommen	-12748
alf	-12749
oni	-12750
▁här	-12751
.000.	-12752
▁gilt	-12753
▁publ	-12754
▁Gotta	-12755
olution	-12756
▁Hector	-12757
▁prince	-12758
schreiben	-12759
▁gorgeous	-12760
roph	-12761
▁Kel	-12762
veill	-12763
▁nick	-12764
▁actor	-12765
▁coast	-12766
▁flehe	-12767
▁Silver	-12768
▁slight	-12769
▁Thursday	-12770
DE	-12771
All	-12772
▁9:	-12773
▁ou	-12774
▁max	-12775
anzer	-12776
▁$100	-12777
▁Tief	-12778
▁neur	-12779
▁panic	-12780
▁tooth	-12781
▁Diener	-12782
▁Freddy	-12783
▁Harper	-12784
▁Single	-12785
▁fellas	-12786
▁Natalie	-12787
▁winning	-12788
arts	-12789
onde	-12790
▁Manny	-12791
▁Dragon	-12792
▁Leslie	-12793
▁ausgeb	-12794
veillance	-12795
▁Brooklyn	-12796
▁begangen	-12797
▁negative	-12798
▁sprichst	-12799
▁mountains	-12800
▁witnesses	-12801
hte	-12802
itual	-12803
▁GIRL	-12804
▁subst	-12805
▁Leiter	-12806
▁Spanish	-12807
▁failure	-12808
▁Verstärkung	-12809
If	-12810
otes	-12811
▁Ath	-12812
ildet	-12813
viron	-12814
▁item	-12815
▁Freak	-12816
▁Women	-12817
▁estate	-12818
▁hitting	-12819
struction	-12820
▁argument	-12821
▁Previously	-12822
▁Vorstellung	-12823
etty	-12824
isha	-12825
▁10:	-12826
▁Kas	-12827
▁Lam	-12828
▁Mia	-12829
▁Pur	-12830
▁que	-12831
▁Shir	-12832
freund	-12833
kuchen	-12834
▁couch	-12835
▁woran	-12836
▁Glücks	-12837
▁useful	-12838
imension	-12839
▁betrogen	-12840
Wie	-12841
aah	-12842
dog	-12843
how	-12844
ality	-12845
ulous	-12846
water	-12847
weite	-12848
▁Cong	-12849
iation	-12850
▁Camer	-12851
▁Seren	-12852
▁beten	-12853
▁facts	-12854
▁rocks	-12855
▁coward	-12856
▁jumped	-12857
▁Kommand	-12858
▁Mitleid	-12859
▁Premier	-12860
▁abgehauen	-12861
PD	-12862
UE	-12863
This	-12864
arrow	-12865
▁Supp	-12866
▁Verz	-12867
▁hits	-12868
▁thee	-12869
▁weig	-12870
▁Hitze	-12871
▁assure	-12872
▁ehemal	-12873
▁Arbeits	-12874
▁Instead	-12875
▁nuclear	-12876
▁bastards	-12877
▁erlauben	-12878
▁verlierst	-12879
▁Ergebnisse	-12880
▁verprügelt	-12881
IER	-12882
Nein	-12883
fert	-12884
▁emb	-12885
zieht	-12886
▁fang	-12887
▁thin	-12888
▁march	-12889
▁corpor	-12890
▁garbage	-12891
▁massive	-12892
▁Samantha	-12893
▁amerikanische	-12894
bek	-12895
pot	-12896
▁Krä	-12897
▁Wasn	-12898
▁sink	-12899
▁Baron	-12900
▁Couch	-12901
▁Point	-12902
▁toten	-12903
▁Bundes	-12904
▁landen	-12905
▁wherever	-12906
▁weiterhin	-12907
kur	-12908
ria	-12909
thy	-12910
▁Ign	-12911
▁Kanal	-12912
▁Paula	-12913
▁Rober	-12914
▁metal	-12915
▁Bishop	-12916
▁Sozial	-12917
▁betrifft	-12918
▁counting	-12919
▁misunder	-12920
öm	-12921
ango	-12922
uden	-12923
▁Lor	-12924
▁TOO	-12925
▁Terr	-12926
▁anfü	-12927
ohnung	-12928
umente	-12929
öffent	-12930
▁Diana	-12931
▁Angestell	-12932
▁terrorist	-12933
▁übergeben	-12934
▁Irgendwelche	-12935
igel	-12936
wear	-12937
▁$10	-12938
▁Som	-12939
▁coo	-12940
▁eaten	-12941
▁youth	-12942
▁Curtis	-12943
▁einzel	-12944
▁Journal	-12945
▁confidence	-12946
yon	-12947
gypt	-12948
icing	-12949
▁Relig	-12950
erstoff	-12951
▁Fangen	-12952
▁reiten	-12953
▁ausmacht	-12954
▁identity	-12955
▁register	-12956
▁survived	-12957
ORD	-12958
umi	-12959
osal	-12960
unny	-12961
with	-12962
CAUSE	-12963
▁Dana	-12964
▁Royal	-12965
▁wreck	-12966
▁Benzin	-12967
▁Setzen	-12968
▁bedeut	-12969
▁closing	-12970
▁Schulden	-12971
▁Obviously	-12972
▁Its	-12973
▁aim	-12974
▁Ausw	-12975
▁Dale	-12976
▁frem	-12977
▁nass	-12978
▁root	-12979
▁Ellie	-12980
▁Sleep	-12981
▁grass	-12982
▁Besten	-12983
▁Lauren	-12984
▁fassen	-12985
▁Spencer	-12986
▁ergeben	-12987
▁großzüg	-12988
▁setting	-12989
▁Gur	-12990
▁Hyp	-12991
▁Loy	-12992
krieg	-12993
▁MEAN	-12994
▁asks	-12995
▁Betrü	-12996
▁Saint	-12997
▁Sklaven	-12998
▁Teenager	-12999
▁aufgebracht	-13000
4,	-13001
▁unn	-13002
▁mile	-13003
▁rehe	-13004
▁wave	-13005
▁zero	-13006
klagen	-13007
▁THANK	-13008
ützlich	-13009
maschine	-13010
▁Deckung	-13011
igaretten	-13012
▁Unschuld	-13013
▁explanation	-13014
fig	-13015
ammt	-13016
▁Nin	-13017
▁Rex	-13018
icles	-13019
▁dial	-13020
zieren	-13021
▁führe	-13022
▁grace	-13023
▁Brieft	-13024
▁blauen	-13025
▁hurting	-13026
di	-13027
▁ö	-13028
▁ko	-13029
▁mm	-13030
▁Kath	-13031
▁fella	-13032
▁limit	-13033
▁geschm	-13034
▁sports	-13035
▁Schreib	-13036
▁Treffer	-13037
▁angeboten	-13038
▁champagne	-13039
▁potential	-13040
▁beeindruckt	-13041
load	-13042
▁tag	-13043
▁urg	-13044
▁ven	-13045
artest	-13046
▁Benny	-13047
▁Frühl	-13048
▁Lange	-13049
▁plays	-13050
▁trunk	-13051
▁Indust	-13052
▁Tuesday	-13053
▁versuchte	-13054
▁verarschen	-13055
▁schließlich	-13056
rot	-13057
elled	-13058
feuer	-13059
uther	-13060
▁Sagt	-13061
▁engl	-13062
▁cruel	-13063
▁Metall	-13064
▁honour	-13065
▁script	-13066
▁Scheint	-13067
▁silence	-13068
▁secretary	-13069
▁Milliarden	-13070
TO	-13071
▁WAY	-13072
▁Brid	-13073
▁Gonna	-13074
▁basket	-13075
▁trinkst	-13076
▁schreibt	-13077
▁Irgendwann	-13078
▁amerikanischen	-13079
▁gym	-13080
THING	-13081
▁Chap	-13082
▁salt	-13083
▁Hügel	-13084
▁Zweck	-13085
▁einde	-13086
▁kills	-13087
▁übert	-13088
gewicht	-13089
▁Bailey	-13090
▁Morris	-13091
▁recall	-13092
▁shadow	-13093
▁vertrau	-13094
▁violent	-13095
▁Überprü	-13096
schneiden	-13097
▁Chandler	-13098
hu	-13099
road	-13100
▁Nam	-13101
▁irr	-13102
▁OVER	-13103
▁leit	-13104
▁mast	-13105
▁Staub	-13106
achtung	-13107
▁Suchen	-13108
▁supply	-13109
▁writer	-13110
▁Identität	-13111
▁sensitive	-13112
▁Koh	-13113
▁Mig	-13114
bares	-13115
reise	-13116
▁Stefan	-13117
▁Twenty	-13118
▁hungrig	-13119
▁Lawrence	-13120
▁einladen	-13121
uri	-13122
ippt	-13123
▁Lion	-13124
▁gosh	-13125
▁Korea	-13126
▁frank	-13127
▁maint	-13128
zuhören	-13129
▁Debbie	-13130
▁Mordes	-13131
▁jünger	-13132
▁holiday	-13133
▁ausruhen	-13134
▁bemerken	-13135
▁geöffnet	-13136
▁Charakter	-13137
▁Studenten	-13138
li	-13139
bum	-13140
▁MI	-13141
▁JOHN	-13142
▁Room	-13143
▁Tepp	-13144
geholt	-13145
▁Baker	-13146
▁Lloyd	-13147
▁begrü	-13148
▁distr	-13149
stecken	-13150
▁Ersatz	-13151
▁shield	-13152
▁network	-13153
▁magazine	-13154
▁schickte	-13155
▁studying	-13156
▁newspaper	-13157
▁informiert	-13158
▁Ru	-13159
keln	-13160
ogue	-13161
▁Bem	-13162
▁Lab	-13163
▁Nee	-13164
▁rib	-13165
ieter	-13166
▁loan	-13167
▁ober	-13168
▁Spielen	-13169
▁Honestly	-13170
▁erzählte	-13171
▁Scheidung	-13172
ürf	-13173
adel	-13174
ammed	-13175
bsite	-13176
illon	-13177
innst	-13178
▁Narren	-13179
▁closet	-13180
ications	-13181
▁Gleiche	-13182
▁species	-13183
▁Albtraum	-13184
▁Benjamin	-13185
▁Zigaretten	-13186
ühen	-13187
ührt	-13188
▁dawn	-13189
▁deck	-13190
▁guts	-13191
▁impl	-13192
▁verf	-13193
▁enorm	-13194
▁rufst	-13195
▁Fliegen	-13196
▁Kümmere	-13197
▁Irgendwo	-13198
▁Vorschlag	-13199
▁Anh	-13200
▁Kit	-13201
öcher	-13202
▁bowl	-13203
▁Rocky	-13204
▁Schiffe	-13205
▁berührt	-13206
schriften	-13207
▁opposite	-13208
▁vergisst	-13209
▁Vergewalt	-13210
▁schuldest	-13211
▁disappointed	-13212
▁gleichzeitig	-13213
▁Gina	-13214
schild	-13215
▁exerc	-13216
▁klapp	-13217
▁legit	-13218
▁Graham	-13219
▁Watson	-13220
▁robbery	-13221
▁baseball	-13222
▁Manhattan	-13223
▁schweigen	-13224
ammy	-13225
▁Wär	-13226
orror	-13227
▁Porn	-13228
▁rope	-13229
▁Prime	-13230
▁Schur	-13231
▁euren	-13232
fleisch	-13233
▁Falsch	-13234
▁dollar	-13235
▁contest	-13236
vironment	-13237
8,	-13238
dale	-13239
öpft	-13240
▁Saw	-13241
ianer	-13242
▁maid	-13243
▁faszin	-13244
▁nachzu	-13245
▁trinkt	-13246
▁Verspät	-13247
▁version	-13248
▁complain	-13249
▁Abteilung	-13250
▁interrupt	-13251
▁überlegen	-13252
So	-13253
inte	-13254
mber	-13255
▁Ihn	-13256
▁clue	-13257
▁Clown	-13258
▁Tempel	-13259
▁review	-13260
▁exhaust	-13261
▁abgesehen	-13262
▁veröffent	-13263
igo	-13264
▁SW	-13265
bart	-13266
plex	-13267
ques	-13268
▁Troy	-13269
▁grün	-13270
▁Group	-13271
▁Schuh	-13272
▁chase	-13273
▁defeat	-13274
urteilen	-13275
▁chasing	-13276
▁Eindruck	-13277
▁geträumt	-13278
▁reaction	-13279
▁irgendeinem	-13280
▁ba	-13281
oper	-13282
usel	-13283
▁Moo	-13284
▁ooh	-13285
stron	-13286
▁thou	-13287
▁Booth	-13288
▁Figur	-13289
▁fähig	-13290
ectives	-13291
looking	-13292
▁Reicht	-13293
▁Strafe	-13294
▁warnen	-13295
▁Kellner	-13296
▁Gerüchte	-13297
▁Tausende	-13298
▁pathetic	-13299
▁vernichten	-13300
▁possibility	-13301
pie	-13302
▁yö	-13303
ichi	-13304
▁Alt	-13305
▁Cry	-13306
▁Ihm	-13307
▁Mam	-13308
chnet	-13309
▁Kara	-13310
▁valu	-13311
iments	-13312
▁Jules	-13313
▁Kapit	-13314
bleiben	-13315
▁Heaven	-13316
▁weggelaufen	-13317
▁zurückbringen	-13318
YS	-13319
akin	-13320
ipal	-13321
ooke	-13322
ansas	-13323
▁Hawai	-13324
▁feuern	-13325
▁joined	-13326
▁stands	-13327
▁steigt	-13328
▁however	-13329
▁rechten	-13330
▁believes	-13331
▁miserable	-13332
▁Verdammter	-13333
▁embarrassing	-13334
▁Gran	-13335
▁Phys	-13336
▁bein	-13337
▁slave	-13338
▁Kämpfe	-13339
▁hinweg	-13340
▁Cameron	-13341
▁destiny	-13342
▁settled	-13343
▁systems	-13344
▁aufgesch	-13345
▁ambulance	-13346
▁prisoners	-13347
▁Ausgezeichnet	-13348
▁Sug	-13349
innie	-13350
istry	-13351
teilt	-13352
▁Much	-13353
ündigt	-13354
▁Colin	-13355
▁fourth	-13356
▁messed	-13357
▁Vorteil	-13358
▁section	-13359
▁Fähigkeit	-13360
▁Kalifornien	-13361
Ag	-13362
ahm	-13363
tert	-13364
▁Isa	-13365
selbe	-13366
sprün	-13367
▁Anze	-13368
stable	-13369
▁Fluch	-13370
▁Richie	-13371
▁begonnen	-13372
▁reported	-13373
▁Sebastian	-13374
▁decisions	-13375
▁verärgert	-13376
▁identifizieren	-13377
IRE	-13378
ati	-13379
eday	-13380
aches	-13381
ureau	-13382
▁Inde	-13383
▁Rory	-13384
▁Parte	-13385
▁Wasch	-13386
▁Whose	-13387
▁Trauer	-13388
▁Imagine	-13389
▁crossed	-13390
▁federal	-13391
▁library	-13392
▁package	-13393
▁pushing	-13394
▁Diamanten	-13395
▁threatened	-13396
▁verschwenden	-13397
obe	-13398
▁CR	-13399
oked	-13400
▁Cab	-13401
lauen	-13402
▁Bird	-13403
▁Cliff	-13404
▁clown	-13405
▁loser	-13406
jährige	-13407
aufnahme	-13408
▁bullets	-13409
▁geraten	-13410
schlossen	-13411
ternehmen	-13412
händ	-13413
▁Kry	-13414
▁Slo	-13415
▁Etwa	-13416
▁Oper	-13417
▁Reiß	-13418
▁Broad	-13419
▁diagn	-13420
▁Mexiko	-13421
▁Sohnes	-13422
▁nahmen	-13423
▁verlor	-13424
▁verwir	-13425
▁worauf	-13426
zumachen	-13427
▁erkannt	-13428
▁wünsche	-13429
▁controll	-13430
▁Gesichter	-13431
▁Behandlung	-13432
▁verurteilt	-13433
▁Technologie	-13434
But	-13435
irts	-13436
ödie	-13437
osing	-13438
▁Horn	-13439
▁Neun	-13440
▁Nove	-13441
▁chop	-13442
▁rail	-13443
▁Small	-13444
kelhaft	-13445
▁Schach	-13446
▁accepted	-13447
▁Christine	-13448
▁Unterhaltung	-13449
▁6.	-13450
▁Dig	-13451
▁Juli	-13452
▁LITT	-13453
▁Kitty	-13454
▁Stoff	-13455
▁Ausweg	-13456
▁Batter	-13457
▁Vergib	-13458
▁movement	-13459
▁teaching	-13460
▁customers	-13461
agle	-13462
rack	-13463
▁Aha	-13464
▁Kla	-13465
▁Ras	-13466
▁tur	-13467
anche	-13468
verly	-13469
▁Book	-13470
▁Fehl	-13471
▁Tele	-13472
▁yard	-13473
▁Mikro	-13474
▁Verab	-13475
▁kling	-13476
▁piano	-13477
mächtig	-13478
▁gehörst	-13479
▁murders	-13480
▁signature	-13481
see	-13482
▁MAY	-13483
▁Uhh	-13484
acker	-13485
pherd	-13486
▁stru	-13487
leiter	-13488
▁Nicky	-13489
▁stays	-13490
jenigen	-13491
ktionen	-13492
▁Damals	-13493
▁Passag	-13494
▁packen	-13495
▁greater	-13496
▁bestehen	-13497
arc	-13498
▁7.	-13499
weist	-13500
▁Lana	-13501
▁title	-13502
▁veget	-13503
▁Ticket	-13504
▁parties	-13505
▁Aufnahme	-13506
▁Belohnung	-13507
amps	-13508
▁Jude	-13509
▁Beide	-13510
▁Glenn	-13511
▁besie	-13512
▁Gerade	-13513
▁beides	-13514
▁Apropos	-13515
▁studiert	-13516
▁commander	-13517
▁Katastrophe	-13518
▁einverstanden	-13519
ombe	-13520
▁Gor	-13521
▁Ost	-13522
▁sac	-13523
▁Tess	-13524
▁Year	-13525
▁bury	-13526
▁Becky	-13527
▁Wüste	-13528
steller	-13529
▁Reisen	-13530
▁Houston	-13531
▁Miranda	-13532
▁schießt	-13533
▁auftauchen	-13534
▁Süßigkeiten	-13535
▁Dw	-13536
ario	-13537
oshi	-13538
vard	-13539
▁Brä	-13540
▁suff	-13541
▁Chase	-13542
▁lifet	-13543
▁Garage	-13544
▁Pardon	-13545
▁tricks	-13546
▁widers	-13547
▁Kartoff	-13548
▁machten	-13549
▁waschen	-13550
▁delivery	-13551
▁deserves	-13552
▁diejenige	-13553
emen	-13554
▁Cre	-13555
▁Dec	-13556
▁pee	-13557
stuhl	-13558
änner	-13559
ordert	-13560
▁refle	-13561
istence	-13562
▁Pierre	-13563
▁albern	-13564
▁Kreatur	-13565
▁behalte	-13566
▁Dienstag	-13567
▁anhalten	-13568
▁verbergen	-13569
▁entspannen	-13570
40	-13571
fun	-13572
▁Il	-13573
▁Mau	-13574
▁bla	-13575
▁Throw	-13576
▁mutig	-13577
▁occup	-13578
▁einander	-13579
▁gerissen	-13580
▁Gentleman	-13581
▁ausziehen	-13582
▁Verspätung	-13583
▁Kühlschrank	-13584
uy	-13585
wurf	-13586
▁Kiss	-13587
▁Zack	-13588
▁glob	-13589
▁korr	-13590
zahlen	-13591
▁Knopf	-13592
▁Prior	-13593
▁behau	-13594
▁Titten	-13595
▁bitter	-13596
▁Narrator	-13597
▁Durchsuch	-13598
▁irgendeine	-13599
LO	-13600
icy	-13601
riet	-13602
▁rig	-13603
omfort	-13604
▁Allein	-13605
▁Fertig	-13606
▁advance	-13607
ification	-13608
▁Zigarette	-13609
stic	-13610
▁HAS	-13611
▁Ira	-13612
▁Liv	-13613
▁Nan	-13614
▁Dark	-13615
▁lügt	-13616
ondere	-13617
▁Bäume	-13618
▁Liter	-13619
schläge	-13620
▁Promise	-13621
▁Veronica	-13622
▁festhalten	-13623
▁aufgefallen	-13624
Ab	-13625
point	-13626
▁Extra	-13627
▁Merry	-13628
▁plain	-13629
▁skull	-13630
▁Fakten	-13631
▁Option	-13632
▁Verspr	-13633
gerissen	-13634
▁Antonio	-13635
▁someday	-13636
▁betrayed	-13637
▁suspicious	-13638
War	-13639
ALLY	-13640
▁Iss	-13641
▁Key	-13642
ettel	-13643
▁freut	-13644
▁LITTLE	-13645
▁aufgeb	-13646
▁succeed	-13647
▁theater	-13648
▁charming	-13649
▁	-13650
▁195	-13651
▁Leck	-13652
▁warf	-13653
▁Stress	-13654
▁nachden	-13655
▁offering	-13656
Bl	-13657
now	-13658
eden	-13659
ertr	-13660
foot	-13661
▁Cart	-13662
▁Fing	-13663
▁Amber	-13664
▁Sonny	-13665
▁influ	-13666
▁Bridge	-13667
▁deprim	-13668
ordinary	-13669
▁erfüllt	-13670
▁psychiat	-13671
-0	-13672
Tr	-13673
ehre	-13674
▁Pra	-13675
▁Yam	-13676
ziert	-13677
▁Balt	-13678
▁Liber	-13679
▁blieb	-13680
▁instr	-13681
inosaur	-13682
▁Clarence	-13683
▁Kongress	-13684
▁Tradition	-13685
▁kidnapped	-13686
▁recommend	-13687
▁verändern	-13688
▁coincidence	-13689
▁Ax	-13690
renz	-13691
▁ohn	-13692
▁tau	-13693
itens	-13694
leans	-13695
▁tent	-13696
▁Klaus	-13697
▁Speak	-13698
▁homes	-13699
▁Juliet	-13700
▁absurd	-13701
▁begins	-13702
▁leaders	-13703
▁dahinter	-13704
▁schließt	-13705
▁entfernen	-13706
▁environment	-13707
CHER	-13708
▁wra	-13709
▁Deep	-13710
▁HAPP	-13711
▁Inst	-13712
▁anti	-13713
▁gain	-13714
▁term	-13715
ropfen	-13716
wiesen	-13717
▁Clara	-13718
▁Dutch	-13719
▁Stick	-13720
▁stört	-13721
imately	-13722
▁Satell	-13723
▁unique	-13724
schafter	-13725
▁November	-13726
▁Vorsitzen	-13727
▁6:	-13728
▁Pent	-13729
▁Prop	-13730
▁Carla	-13731
▁Morde	-13732
▁Sound	-13733
▁crown	-13734
▁knapp	-13735
▁sides	-13736
▁Center	-13737
▁Drehbuch	-13738
▁surveillance	-13739
bi	-13740
wr	-13741
aux	-13742
bei	-13743
rein	-13744
star	-13745
▁anx	-13746
emois	-13747
linie	-13748
▁Seil	-13749
▁wolf	-13750
▁forth	-13751
▁oblig	-13752
▁agency	-13753
▁crimes	-13754
▁Emotion	-13755
sex	-13756
Team	-13757
▁Fot	-13758
▁bid	-13759
▁rev	-13760
OTHER	-13761
bieten	-13762
▁Steck	-13763
▁Stupid	-13764
▁nothin	-13765
▁schaut	-13766
▁Shouldn	-13767
▁Highness	-13768
▁Sekretär	-13769
▁begleiten	-13770
▁u	-13771
▁Ei	-13772
etta	-13773
ünkt	-13774
▁Ast	-13775
▁BET	-13776
▁Sin	-13777
uckst	-13778
▁CALL	-13779
▁Lärm	-13780
▁glor	-13781
▁Teams	-13782
▁initi	-13783
▁labor	-13784
▁Klient	-13785
▁Ritter	-13786
▁backup	-13787
▁rächen	-13788
▁warned	-13789
▁vorüber	-13790
▁Geschworenen	-13791
▁91	-13792
olis	-13793
uing	-13794
▁Dus	-13795
▁Esc	-13796
▁Allah	-13797
▁Füßen	-13798
▁Señor	-13799
▁Straf	-13800
▁Schwie	-13801
▁palace	-13802
▁Company	-13803
▁chamber	-13804
▁proceed	-13805
▁Wichtigste	-13806
MY	-13807
lam	-13808
▁blö	-13809
▁ext	-13810
okoll	-13811
▁ment	-13812
ighted	-13813
▁gaben	-13814
▁stake	-13815
▁Soweit	-13816
▁retire	-13817
▁Absolut	-13818
▁benutze	-13819
▁messages	-13820
▁childhood	-13821
▁impressed	-13822
▁Afghanistan	-13823
▁£	-13824
▁Lib	-13825
ehmer	-13826
ender	-13827
uhren	-13828
▁Lies	-13829
▁Pope	-13830
▁Till	-13831
artner	-13832
▁snake	-13833
▁Führung	-13834
▁Feigling	-13835
ooh	-13836
▁Oct	-13837
▁fed	-13838
asket	-13839
▁Kern	-13840
▁glück	-13841
▁wings	-13842
▁virgin	-13843
quartier	-13844
▁Fremden	-13845
▁begegnet	-13846
▁disaster	-13847
▁paranoid	-13848
dies	-13849
tery	-13850
▁pir	-13851
▁sav	-13852
leute	-13853
▁Drew	-13854
▁könig	-13855
geschen	-13856
▁Vanessa	-13857
▁degrees	-13858
ée	-13859
pse	-13860
ößt	-13861
▁PO	-13862
olds	-13863
älde	-13864
▁ing	-13865
▁..."	-13866
▁Café	-13867
▁porn	-13868
▁angem	-13869
▁comin	-13870
▁freie	-13871
▁obser	-13872
▁prize	-13873
▁beloved	-13874
▁benehmen	-13875
▁wechseln	-13876
▁SOMETHING	-13877
▁explosion	-13878
▁Weihnachtsmann	-13879
bet	-13880
ikt	-13881
rer	-13882
oden	-13883
▁Fish	-13884
▁Prep	-13885
▁Raub	-13886
▁boom	-13887
▁magn	-13888
▁Cindy	-13889
▁circle	-13890
▁ignore	-13891
▁stopping	-13892
▁Dal	-13893
arest	-13894
besch	-13895
▁Herc	-13896
▁Korr	-13897
▁Pfad	-13898
ashing	-13899
▁Stuart	-13900
▁geholt	-13901
▁berühmt	-13902
▁comprom	-13903
▁welches	-13904
▁wounded	-13905
▁schrecklichen	-13906
▁4:	-13907
▁Miete	-13908
▁Offiz	-13909
▁fever	-13910
▁satell	-13911
quarters	-13912
▁Orleans	-13913
▁Version	-13914
▁article	-13915
▁stretch	-13916
emoiselle	-13917
▁wahnsinn	-13918
▁Wit	-13919
reffen	-13920
▁Alicia	-13921
▁Anteil	-13922
aufgaben	-13923
▁Leitung	-13924
▁complex	-13925
▁grandma	-13926
▁Einfluss	-13927
▁Schritte	-13928
roc	-13929
▁akt	-13930
▁Emil	-13931
▁Iren	-13932
▁Leib	-13933
▁Rosa	-13934
▁orph	-13935
schutz	-13936
ulieren	-13937
▁senior	-13938
▁Through	-13939
▁Angeklag	-13940
▁Donnerst	-13941
▁Einladung	-13942
▁Universität	-13943
▁verschlossen	-13944
anor	-13945
bird	-13946
rend	-13947
▁Tyr	-13948
▁cru	-13949
bauen	-13950
▁Barn	-13951
▁Mack	-13952
▁dipl	-13953
▁Motiv	-13954
▁Bewähr	-13955
▁Schlau	-13956
▁latest	-13957
▁windows	-13958
▁besiegen	-13959
▁telephone	-13960
▁Goo	-13961
▁Copy	-13962
▁MORE	-13963
▁bond	-13964
▁furn	-13965
▁grie	-13966
bstahl	-13967
▁Judge	-13968
▁thick	-13969
▁Pillen	-13970
▁Sharon	-13971
▁explos	-13972
▁designed	-13973
▁nützlich	-13974
▁Geschenke	-13975
▁behauptet	-13976
▁cigarette	-13977
▁impression	-13978
BY	-13979
How	-13980
tit	-13981
aptop	-13982
ölker	-13983
action	-13984
▁Arten	-13985
▁costs	-13986
▁tritt	-13987
▁install	-13988
▁solltet	-13989
▁treiben	-13990
▁Jungfrau	-13991
▁passport	-13992
▁intention	-13993
▁considering	-13994
eze	-13995
rix	-13996
klen	-13997
▁rip	-13998
arian	-13999
äuber	-14000
▁Bond	-14001
▁Carm	-14002
▁Maur	-14003
▁wing	-14004
▁Isabe	-14005
▁shell	-14006
▁require	-14007
▁untersucht	-14008
ATH	-14009
▁zuk	-14010
inkel	-14011
uters	-14012
örden	-14013
▁Data	-14014
▁virt	-14015
▁verfü	-14016
▁Museum	-14017
erstehen	-14018
▁Allison	-14019
▁präsent	-14020
▁somethin	-14021
▁Liebhaber	-14022
▁Widerstand	-14023
-3	-14024
üd	-14025
imi	-14026
▁FA	-14027
önig	-14028
▁Rum	-14029
agers	-14030
▁Ruhm	-14031
atoren	-14032
▁Kopie	-14033
▁Pilot	-14034
▁melde	-14035
▁Gründe	-14036
▁meiste	-14037
▁Platten	-14038
▁geklaut	-14039
▁refused	-14040
▁instinct	-14041
▁abgelehnt	-14042
▁beängstigend	-14043
pool	-14044
▁Lot	-14045
lings	-14046
ussion	-14047
wendig	-14048
▁Marco	-14049
▁Yanke	-14050
▁drück	-14051
▁hinzu	-14052
▁media	-14053
▁surge	-14054
jährigen	-14055
▁Kennedy	-14056
▁contain	-14057
▁Vorstand	-14058
▁langsamer	-14059
BS	-14060
ARL	-14061
happy	-14062
▁Sper	-14063
▁Sünde	-14064
▁Thomp	-14065
▁inher	-14066
▁Pierce	-14067
▁encour	-14068
▁remote	-14069
▁frische	-14070
▁schmerz	-14071
▁education	-14072
imo	-14073
eidet	-14074
ötete	-14075
▁rape	-14076
tragen	-14077
▁cells	-14078
▁mixed	-14079
▁Bauern	-14080
▁Palast	-14081
▁cleaned	-14082
▁Russland	-14083
▁Schlafen	-14084
▁einfache	-14085
ulu	-14086
acey	-14087
fish	-14088
ufst	-14089
eider	-14090
opath	-14091
▁Berge	-14092
▁Loser	-14093
▁Maske	-14094
▁echtes	-14095
▁Anderson	-14096
▁entrance	-14097
▁Deutschen	-14098
▁"'	-14099
▁Pie	-14100
iplin	-14101
▁Duck	-14102
▁Nine	-14103
▁THEN	-14104
▁cave	-14105
▁zone	-14106
▁shine	-14107
▁Rodney	-14108
▁removed	-14109
▁triffst	-14110
▁attractive	-14111
▁sichergehen	-14112
ardo	-14113
eton	-14114
team	-14115
imony	-14116
neten	-14117
opfen	-14118
▁Fell	-14119
▁Satz	-14120
▁gott	-14121
▁Halte	-14122
jection	-14123
▁Adrian	-14124
▁Connie	-14125
▁keinem	-14126
▁temple	-14127
▁twenty	-14128
▁liefern	-14129
▁privile	-14130
▁schlechtes	-14131
▁Terroristen	-14132
▁angeschossen	-14133
?!	-14134
El	-14135
500	-14136
ölf	-14137
▁Ya	-14138
▁Yi	-14139
edith	-14140
hless	-14141
irmed	-14142
▁Emer	-14143
▁Grie	-14144
▁Viol	-14145
amilie	-14146
▁Ladys	-14147
▁anzuf	-14148
▁stops	-14149
inating	-14150
▁hunter	-14151
▁tiefer	-14152
▁Schwuch	-14153
▁concert	-14154
▁Religion	-14155
▁vermeiden	-14156
oen	-14157
uous	-14158
aktiv	-14159
▁Bron	-14160
▁Chip	-14161
▁MAKE	-14162
▁rice	-14163
▁Erster	-14164
▁forgiven	-14165
▁Wunderschön	-14166
hab	-14167
▁ll	-14168
▁destru	-14169
▁interf	-14170
▁schock	-14171
▁tunnel	-14172
icularly	-14173
SH	-14174
UF	-14175
opft	-14176
▁Pel	-14177
▁Ausl	-14178
▁Kris	-14179
▁duck	-14180
▁süße	-14181
▁womit	-14182
sonsten	-14183
▁Scherz	-14184
▁leihen	-14185
▁testen	-14186
▁Betrüger	-14187
▁bestraft	-14188
▁frightened	-14189
▁DC	-14190
gien	-14191
▁REP	-14192
▁Beim	-14193
▁JACK	-14194
▁Brett	-14195
▁blown	-14196
▁Ranger	-14197
▁chines	-14198
▁Melissa	-14199
▁valuable	-14200
▁bekämpfen	-14201
▁someplace	-14202
▁embarrassed	-14203
▁Tap	-14204
gener	-14205
vented	-14206
▁Drama	-14207
▁Hosen	-14208
▁Touch	-14209
ärmlich	-14210
▁scheiß	-14211
▁routine	-14212
▁response	-14213
▁aufgehalten	-14214
oga	-14215
▁42	-14216
rede	-14217
▁Prä	-14218
▁rif	-14219
▁sab	-14220
laugh	-14221
▁WORK	-14222
▁Zwer	-14223
▁Verfü	-14224
▁Valley	-14225
▁crisis	-14226
▁Wallace	-14227
▁function	-14228
▁lifetime	-14229
▁Umständen	-14230
onie	-14231
▁Daw	-14232
▁kre	-14233
▁Boyd	-14234
▁Ruby	-14235
halter	-14236
▁Kehle	-14237
▁glory	-14238
▁inten	-14239
▁nerve	-14240
▁Königs	-14241
▁erlebt	-14242
▁bereuen	-14243
▁prevent	-14244
▁Gemeinde	-14245
▁suffered	-14246
▁schreibst	-14247
▁aufzuhalten	-14248
Sp	-14249
iy	-14250
▁Add	-14251
▁var	-14252
änzer	-14253
▁pant	-14254
▁uses	-14255
ingham	-14256
äblich	-14257
▁Adams	-14258
▁Pablo	-14259
▁Wyatt	-14260
▁Spitze	-14261
indungen	-14262
▁Schönen	-14263
▁kingdom	-14264
▁sammeln	-14265
▁ausgesch	-14266
▁generous	-14267
rd	-14268
URE	-14269
ekte	-14270
hart	-14271
urai	-14272
verk	-14273
zies	-14274
▁Hod	-14275
änzen	-14276
▁Chen	-14277
▁Town	-14278
▁tend	-14279
▁wins	-14280
udding	-14281
▁Perry	-14282
▁units	-14283
▁Indeed	-14284
▁forbid	-14285
▁parent	-14286
▁spielte	-14287
▁steckst	-14288
▁welchen	-14289
▁financial	-14290
abet	-14291
▁brä	-14292
ahlst	-14293
▁Belle	-14294
▁March	-14295
▁Sheld	-14296
▁neutr	-14297
▁schüt	-14298
▁candid	-14299
geschäft	-14300
▁Corporal	-14301
▁homework	-14302
▁Organisation	-14303
Ex	-14304
oid	-14305
tür	-14306
▁5:	-14307
▁Pig	-14308
about	-14309
▁Hamm	-14310
▁Salz	-14311
▁exit	-14312
▁Bingo	-14313
▁Crazy	-14314
▁Köpfe	-14315
▁steig	-14316
▁Caesar	-14317
▁behalf	-14318
▁leeren	-14319
▁Understand	-14320
rod	-14321
kram	-14322
othe	-14323
▁Inf	-14324
▁prü	-14325
▁rand	-14326
▁Firmen	-14327
▁Trevor	-14328
▁damned	-14329
▁geirrt	-14330
▁stecke	-14331
▁urgent	-14332
▁verpfl	-14333
▁accused	-14334
▁Schnappt	-14335
▁vorbeige	-14336
▁Donnerstag	-14337
▁zugestimmt	-14338
▁vorbeikommen	-14339
ered	-14340
▁mat	-14341
undry	-14342
▁Gill	-14343
▁stro	-14344
icient	-14345
▁Lydia	-14346
▁Zeich	-14347
▁niedr	-14348
▁shown	-14349
▁perman	-14350
▁status	-14351
▁tracks	-14352
▁Collins	-14353
▁Dorothy	-14354
▁heiratet	-14355
▁Königreich	-14356
▁vergewaltigt	-14357
ppt	-14358
life	-14359
▁shy	-14360
ulver	-14361
▁Nazi	-14362
nummer	-14363
attered	-14364
waschen	-14365
▁ending	-14366
▁resour	-14367
▁soweit	-14368
▁begging	-14369
▁footage	-14370
▁zukünft	-14371
▁Herrgott	-14372
▁unangenehm	-14373
dig	-14374
▁mud	-14375
▁Mast	-14376
▁Pfle	-14377
▁Marke	-14378
▁Toast	-14379
▁argue	-14380
▁mustn	-14381
▁kämpft	-14382
▁Dunkeln	-14383
▁torture	-14384
▁einziger	-14385
▁impressive	-14386
▁Angelegenheit	-14387
▁TW	-14388
rina	-14389
▁nig	-14390
kamen	-14391
▁Dall	-14392
▁TALK	-14393
▁Blitz	-14394
▁Jenna	-14395
▁Sarge	-14396
▁Union	-14397
▁weich	-14398
erneath	-14399
▁toward	-14400
▁actions	-14401
▁ausgest	-14402
▁council	-14403
▁normale	-14404
▁Umgebung	-14405
▁services	-14406
▁Wirtschaft	-14407
TA	-14408
▁¤	-14409
▁31	-14410
west	-14411
waffe	-14412
ousine	-14413
▁Lenny	-14414
▁Muster	-14415
laughter	-14416
▁Produkt	-14417
▁Verhand	-14418
▁facility	-14419
▁zustimmen	-14420
put	-14421
elta	-14422
herz	-14423
hrer	-14424
öses	-14425
▁Lay	-14426
▁SMS	-14427
anter	-14428
itial	-14429
▁Cale	-14430
▁guide	-14431
▁Archer	-14432
▁gejagt	-14433
▁mister	-14434
▁placed	-14435
▁Teppich	-14436
▁starten	-14437
▁unknown	-14438
istischen	-14439
rem	-14440
▁Mai	-14441
▁pad	-14442
▁Crow	-14443
antasy	-14444
▁Juwel	-14445
▁decor	-14446
▁unbek	-14447
▁recent	-14448
▁tapfer	-14449
▁Brandon	-14450
▁nutzlos	-14451
▁Unterwäsche	-14452
▁absichtlich	-14453
▁Persönlichkeit	-14454
gun	-14455
rid	-14456
bury	-14457
rade	-14458
▁ward	-14459
coming	-14460
▁ideal	-14461
▁print	-14462
▁Shakes	-14463
▁Turner	-14464
▁christ	-14465
▁schaue	-14466
▁tötete	-14467
▁Marshal	-14468
▁Standard	-14469
▁entgegen	-14470
▁erfüllen	-14471
▁Katherine	-14472
▁confirmed	-14473
▁übernehme	-14474
elu	-14475
yard	-14476
▁16.	-14477
▁ras	-14478
▁Cock	-14479
▁Shei	-14480
▁Simm	-14481
▁muse	-14482
▁noble	-14483
▁pound	-14484
▁Steine	-14485
▁commer	-14486
▁registr	-14487
▁judgment	-14488
▁meantime	-14489
agst	-14490
dach	-14491
oppy	-14492
▁bars	-14493
▁Bibel	-14494
▁Funny	-14495
▁Hauses	-14496
▁riesigen	-14497
▁gefesselt	-14498
▁verschwand	-14499
afe	-14500
irs	-14501
▁ERZ	-14502
▁Kör	-14503
▁spin	-14504
▁Asche	-14505
▁Ghost	-14506
▁Haken	-14507
▁Mayor	-14508
▁Serena	-14509
▁gehöre	-14510
▁Klassen	-14511
▁cleared	-14512
gestanden	-14513
▁identify	-14514
IV	-14515
grö	-14516
rou	-14517
▁AF	-14518
▁TE	-14519
ayed	-14520
osex	-14521
▁Spl	-14522
ckten	-14523
opped	-14524
▁gear	-14525
gruppe	-14526
prints	-14527
ucking	-14528
▁Crane	-14529
▁Hexen	-14530
▁strip	-14531
▁Alison	-14532
▁Andere	-14533
▁phones	-14534
▁Sterben	-14535
▁beruhige	-14536
▁document	-14537
▁versetzt	-14538
▁Hochzeits	-14539
▁75	-14540
ikes	-14541
▁Cob	-14542
▁tox	-14543
kward	-14544
▁Burke	-14545
▁Höhle	-14546
▁Stars	-14547
▁Train	-14548
▁minor	-14549
eistert	-14550
▁Family	-14551
▁Harvard	-14552
▁Sollten	-14553
▁drücken	-14554
▁quality	-14555
▁replace	-14556
▁dropping	-14557
▁mitbringen	-14558
▁verbrennen	-14559
kan	-14560
▁ES	-14561
avin	-14562
izei	-14563
▁Lis	-14564
▁Vie	-14565
▁elf	-14566
atoes	-14567
eteor	-14568
▁Ward	-14569
▁Prote	-14570
▁befol	-14571
▁tower	-14572
▁Russia	-14573
▁tattoo	-14574
▁Germans	-14575
▁balance	-14576
▁standen	-14577
▁University	-14578
▁confession	-14579
▁extraordinary	-14580
alin	-14581
▁Fig	-14582
ockey	-14583
▁Gwen	-14584
▁Made	-14585
▁Spock	-14586
▁Fieber	-14587
▁Jewish	-14588
▁Erzählen	-14589
▁eindeutig	-14590
▁procedure	-14591
IF	-14592
pet	-14593
cest	-14594
▁dat	-14595
▁jap	-14596
apped	-14597
ician	-14598
power	-14599
▁Bear	-14600
otions	-14601
▁ERZÄH	-14602
▁hoped	-14603
▁behave	-14604
▁jungle	-14605
▁Legende	-14606
▁schafft	-14607
▁berühren	-14608
▁cheating	-14609
▁Abenteuer	-14610
▁Stephanie	-14611
▁freiwillig	-14612
▁schüchtern	-14613
mor	-14614
rial	-14615
▁Rap	-14616
▁nap	-14617
fisch	-14618
▁ALLE	-14619
▁Gerät	-14620
▁wirft	-14621
▁prints	-14622
▁transl	-14623
bewohner	-14624
▁Seattle	-14625
▁kannten	-14626
▁monitor	-14627
▁politics	-14628
▁beleidigt	-14629
▁background	-14630
▁ohnmächtig	-14631
▁wiederzusehen	-14632
ENS	-14633
OND	-14634
▁Kh	-14635
lder	-14636
▁Bev	-14637
▁Oze	-14638
▁lit	-14639
weckt	-14640
▁Zent	-14641
▁Staff	-14642
▁habit	-14643
▁seats	-14644
fassung	-14645
▁Motorr	-14646
▁drawing	-14647
▁Original	-14648
▁freaking	-14649
▁touching	-14650
▁pf	-14651
rate	-14652
▁Vom	-14653
▁saf	-14654
agina	-14655
schle	-14656
▁Eile	-14657
▁rank	-14658
arehouse	-14659
▁starben	-14660
▁pretending	-14661
▁Interessant	-14662
▁temperature	-14663
ahrscheinlich	-14664
hs	-14665
IES	-14666
▁HEL	-14667
▁cam	-14668
ürtel	-14669
▁Conc	-14670
▁Aufre	-14671
dlichen	-14672
eremony	-14673
▁wounds	-14674
ünktlich	-14675
▁erwähnen	-14676
▁köstlich	-14677
▁swimming	-14678
▁Abgemacht	-14679
%.	-14680
IAN	-14681
oko	-14682
andra	-14683
▁chef	-14684
▁Puppe	-14685
▁Bedürf	-14686
▁Lungen	-14687
▁dummer	-14688
▁outfit	-14689
▁random	-14690
▁Findest	-14691
▁Aussicht	-14692
▁Speaking	-14693
▁downtown	-14694
▁struggle	-14695
▁anzusehen	-14696
▁creatures	-14697
▁gewalttät	-14698
▁punishment	-14699
▁enttäuschen	-14700
utor	-14701
▁DIDN	-14702
▁Dawn	-14703
ritory	-14704
▁Knock	-14705
▁Löwen	-14706
▁solle	-14707
▁Duncan	-14708
▁Tucker	-14709
schieben	-14710
▁selfish	-14711
▁servant	-14712
▁absolute	-14713
▁district	-14714
▁Konsequen	-14715
▁anscheinend	-14716
iga	-14717
▁Tam	-14718
▁Mari	-14719
uption	-14720
▁Cheer	-14721
▁Motel	-14722
▁folgt	-14723
▁starke	-14724
▁Lichter	-14725
▁tschüss	-14726
▁Überall	-14727
▁brachten	-14728
▁Yesterday	-14729
▁auftaucht	-14730
▁existence	-14731
▁Experiment	-14732
▁unheimlich	-14733
ARK	-14734
▁DJ	-14735
ussi	-14736
▁Zone	-14737
▁taxi	-14738
anners	-14739
leidet	-14740
▁Angie	-14741
▁Bären	-14742
▁Täter	-14743
assador	-14744
▁Elaine	-14745
▁Herzin	-14746
▁Spiele	-14747
▁orange	-14748
▁Bennett	-14749
▁Beverly	-14750
▁culture	-14751
▁instant	-14752
▁workers	-14753
▁Mistkerl	-14754
▁Schicken	-14755
▁Anzeichen	-14756
▁Feuerwehr	-14757
▁Irgendeine	-14758
▁Hausaufgaben	-14759
üse	-14760
▁DV	-14761
▁Wu	-14762
▁Zig	-14763
ademy	-14764
cience	-14765
▁Flash	-14766
▁Leber	-14767
▁Suppe	-14768
▁Beinen	-14769
▁Silber	-14770
▁Spider	-14771
▁Sünden	-14772
▁painful	-14773
▁elevator	-14774
▁ausschalten	-14775
bro	-14776
elyn	-14777
▁Cur	-14778
▁Nora	-14779
▁Doyle	-14780
▁Peggy	-14781
▁boots	-14782
▁volle	-14783
zugeben	-14784
▁Rezept	-14785
▁dumped	-14786
▁Trainer	-14787
▁getragen	-14788
▁Handtasche	-14789
▁Kopfschmerzen	-14790
▁Geschwindigkeit	-14791
-5	-14792
HR	-14793
▁Om	-14794
esis	-14795
▁193	-14796
▁Cad	-14797
▁Lov	-14798
farkt	-14799
▁toss	-14800
endent	-14801
▁drank	-14802
▁Kosten	-14803
▁kommun	-14804
▁vergaß	-14805
▁wallet	-14806
▁achieve	-14807
▁customer	-14808
▁scheiden	-14809
▁Parkplatz	-14810
▁bestimmten	-14811
▁wahnsinnig	-14812
IO	-14813
TY	-14814
ety	-14815
OPLE	-14816
▁GPS	-14817
alyse	-14818
fällt	-14819
ultan	-14820
▁Diff	-14821
▁pour	-14822
ammern	-14823
▁Erdbe	-14824
▁Fleck	-14825
▁Villa	-14826
▁Penner	-14827
▁Saison	-14828
▁Schrei	-14829
▁dealer	-14830
▁reckon	-14831
▁Thompson	-14832
▁wertvoll	-14833
▁Verfügung	-14834
▁influence	-14835
▁Botschafter	-14836
▁unterstützt	-14837
▁nachzudenken	-14838
PER	-14839
▁Cir	-14840
▁Flag	-14841
▁Hunt	-14842
▁bitt	-14843
▁lion	-14844
kaufen	-14845
▁Isaac	-14846
▁Satan	-14847
▁eröff	-14848
ordnung	-14849
▁Massen	-14850
▁brutal	-14851
▁gewöhnt	-14852
▁options	-14853
▁angeklagt	-14854
▁collection	-14855
jet	-14856
roe	-14857
▁mi	-14858
list	-14859
▁Renn	-14860
▁cage	-14861
▁gamb	-14862
▁Italy	-14863
▁jokes	-14864
▁purse	-14865
▁patrol	-14866
abteilung	-14867
▁Champion	-14868
▁anbieten	-14869
gut	-14870
▁gn	-14871
ollo	-14872
omic	-14873
frage	-14874
▁prem	-14875
bridge	-14876
jected	-14877
▁Kamer	-14878
▁Küste	-14879
▁Hawaii	-14880
▁verein	-14881
▁entered	-14882
▁erkläre	-14883
▁mysteri	-14884
▁Hospital	-14885
▁conscious	-14886
▁möglichen	-14887
▁Anweisungen	-14888
▁geschnitten	-14889
▁zurückkehren	-14890
spl	-14891
etit	-14892
udge	-14893
▁Hoo	-14894
ähren	-14895
▁LOVE	-14896
▁Reit	-14897
▁krit	-14898
▁spür	-14899
▁Armer	-14900
▁Phase	-14901
▁Plast	-14902
▁contr	-14903
▁Brenda	-14904
▁smooth	-14905
▁Ausgang	-14906
▁Freddie	-14907
▁Gemälde	-14908
▁reminds	-14909
▁abhalten	-14910
▁arranged	-14911
omfortable	-14912
▁ausmachen	-14913
▁undercover	-14914
OTH	-14915
pat	-14916
baum	-14917
ched	-14918
▁Bek	-14919
▁Heb	-14920
▁Rah	-14921
▁Yup	-14922
▁bay	-14923
iebte	-14924
scheu	-14925
▁NEVER	-14926
▁Ratte	-14927
▁Rosie	-14928
▁Klinik	-14929
▁PEOPLE	-14930
▁Scotch	-14931
▁cooper	-14932
▁Entwick	-14933
▁Viertel	-14934
▁coordin	-14935
▁lawyers	-14936
▁Ergebnis	-14937
▁citizens	-14938
▁behaupten	-14939
▁bestellen	-14940
▁criminals	-14941
ämt	-14942
aska	-14943
ibel	-14944
jack	-14945
reif	-14946
ätzt	-14947
▁Rup	-14948
▁las	-14949
▁nep	-14950
▁seh	-14951
owski	-14952
▁Jews	-14953
▁VERY	-14954
▁Press	-14955
▁bills	-14956
▁gross	-14957
▁Arnold	-14958
▁Panzer	-14959
▁Russen	-14960
▁Sendung	-14961
▁Stiefel	-14962
▁gestoßen	-14963
▁Sauerstoff	-14964
▁imagination	-14965
▁8.	-14966
▁Goa	-14967
▁lap	-14968
▁Pant	-14969
▁knee	-14970
▁scar	-14971
▁schr	-14972
▁unre	-14973
▁Daran	-14974
▁souls	-14975
barkeit	-14976
mitglie	-14977
▁allerg	-14978
▁verges	-14979
▁wenige	-14980
▁rolling	-14981
▁Meredith	-14982
▁Verabred	-14983
▁Schachtel	-14984
▁underwear	-14985
hh	-14986
acc	-14987
lav	-14988
▁Fi	-14989
▁Mu	-14990
züge	-14991
▁lun	-14992
annie	-14993
▁Harm	-14994
▁Sull	-14995
rücken	-14996
▁motiv	-14997
▁stalk	-14998
stitute	-14999
▁intent	-15000
▁kooper	-15001
▁mighty	-15002
▁Dschung	-15003
▁traitor	-15004
▁sicherlich	-15005
uto	-15006
▁AC	-15007
▁Az	-15008
ummi	-15009
▁18.	-15010
▁ess	-15011
▁toy	-15012
quenz	-15013
vertr	-15014
▁Sang	-15015
▁Text	-15016
▁cats	-15017
▁rose	-15018
garten	-15019
schaum	-15020
spielen	-15021
▁Dallas	-15022
▁fängst	-15023
▁öffnet	-15024
ithalten	-15025
onscious	-15026
▁Schüsse	-15027
▁Berichte	-15028
▁bewahren	-15029
▁ceremony	-15030
▁standard	-15031
▁neighbors	-15032
Mar	-15033
aco	-15034
bein	-15035
▁anl	-15036
ateur	-15037
▁DOES	-15038
▁Erin	-15039
▁Sung	-15040
▁hopes	-15041
▁Carmen	-15042
▁degree	-15043
▁erwähn	-15044
▁escort	-15045
▁wasted	-15046
▁Nicholas	-15047
▁Valentine	-15048
▁entertain	-15049
▁persönliche	-15050
ni	-15051
jin	-15052
▁00:	-15053
▁äuß	-15054
akers	-15055
▁FUCK	-15056
▁Double	-15057
▁Kindes	-15058
▁Lester	-15059
springen	-15060
▁laundry	-15061
▁Campbell	-15062
▁tracking	-15063
▁Schneller	-15064
▁rausgehen	-15065
▁scientist	-15066
▁zurückgehen	-15067
60	-15068
uv	-15069
▁AH	-15070
enna	-15071
▁ped	-15072
▁yöu	-15073
▁Craw	-15074
▁Komb	-15075
▁Mode	-15076
▁batt	-15077
bringt	-15078
fellos	-15079
▁patch	-15080
▁Medien	-15081
▁loaded	-15082
▁Kameras	-15083
▁Ermittlungen	-15084
nder	-15085
uana	-15086
örde	-15087
▁Lux	-15088
▁ens	-15089
swert	-15090
▁Ping	-15091
▁böser	-15092
▁walks	-15093
▁Wessen	-15094
▁farmer	-15095
▁nephew	-15096
▁charged	-15097
▁weglaufen	-15098
▁officially	-15099
▁Führerschein	-15100
De	-15101
To	-15102
Auf	-15103
amma	-15104
uste	-15105
▁Kai	-15106
▁Vel	-15107
Gesch	-15108
peare	-15109
▁Read	-15110
▁Ress	-15111
▁Verw	-15112
▁Makes	-15113
▁cheat	-15114
▁sample	-15115
▁zeigte	-15116
gewiesen	-15117
▁klingen	-15118
▁plastic	-15119
▁wüsstest	-15120
▁territory	-15121
▁beschreiben	-15122
MENT	-15123
betr	-15124
sack	-15125
sect	-15126
▁APP	-15127
▁DEA	-15128
ielen	-15129
urtle	-15130
▁Hyun	-15131
▁Reyn	-15132
▁Erden	-15133
▁Spitz	-15134
▁intim	-15135
▁lernt	-15136
▁prick	-15137
▁robot	-15138
▁talkin	-15139
▁thirst	-15140
▁Bargeld	-15141
▁bedroht	-15142
▁comment	-15143
▁Fahrzeug	-15144
▁schwerer	-15145
▁Jahrhunder	-15146
▁durcheinander	-15147
▁uncomfortable	-15148
zut	-15149
▁Roh	-15150
iftet	-15151
▁Kraw	-15152
▁Neue	-15153
▁Puls	-15154
▁Mafia	-15155
▁Thron	-15156
▁guilt	-15157
▁kauft	-15158
ständig	-15159
▁Brüste	-15160
▁glaubte	-15161
▁swallow	-15162
▁Versprich	-15163
▁verlangen	-15164
▁aufgewacht	-15165
▁vernünftig	-15166
▁Veränderung	-15167
mph	-15168
▁Av	-15169
erry	-15170
▁Cly	-15171
▁Ult	-15172
▁gee	-15173
inzen	-15174
isely	-15175
▁fond	-15176
▁golf	-15177
▁Brill	-15178
▁Charm	-15179
▁Imper	-15180
▁Zwill	-15181
▁Symbol	-15182
▁auszus	-15183
▁bestra	-15184
▁linken	-15185
▁planen	-15186
▁struck	-15187
▁Notizen	-15188
▁Raketen	-15189
▁verhung	-15190
▁divorced	-15191
▁Schokolade	-15192
▁determined	-15193
▁verrückten	-15194
▁Hauptquartier	-15195
gro	-15196
ido	-15197
rice	-15198
▁NEW	-15199
▁Kick	-15200
▁fick	-15201
▁spect	-15202
▁contra	-15203
▁strang	-15204
▁traged	-15205
▁Council	-15206
▁conduct	-15207
▁rehears	-15208
▁Abschied	-15209
▁practically	-15210
▁-?	-15211
burn	-15212
eres	-15213
▁00,	-15214
▁TOM	-15215
itors	-15216
▁Elef	-15217
▁Joel	-15218
▁Field	-15219
▁Mikey	-15220
▁Stahl	-15221
▁apple	-15222
▁gehor	-15223
▁sheep	-15224
▁suits	-15225
▁Carson	-15226
▁Laster	-15227
▁Trying	-15228
▁firing	-15229
▁speaks	-15230
▁Bruders	-15231
ungsbefehl	-15232
▁Attention	-15233
▁versprechen	-15234
SEL	-15235
Wer	-15236
▁14.	-15237
isser	-15238
oured	-15239
▁Male	-15240
▁blut	-15241
▁Bruno	-15242
▁Bisher	-15243
▁Dinner	-15244
▁Heroin	-15245
▁anfing	-15246
▁enjoyed	-15247
▁empfangen	-15248
▁erbärmlich	-15249
▁Shakespeare	-15250
▁irgendetwas	-15251
▁ED	-15252
▁Iz	-15253
ianc	-15254
ming	-15255
ousy	-15256
pret	-15257
▁Mosk	-15258
▁Pech	-15259
▁legt	-15260
▁Order	-15261
▁Gepäck	-15262
▁busted	-15263
eremonie	-15264
▁Französ	-15265
▁activity	-15266
▁quarters	-15267
▁individual	-15268
▁Herzinfarkt	-15269
▁Premierminister	-15270
aga	-15271
bad	-15272
izes	-15273
oves	-15274
▁DAY	-15275
▁Hud	-15276
▁SOR	-15277
▁Beob	-15278
▁Spir	-15279
▁mitt	-15280
▁myth	-15281
ündung	-15282
▁Class	-15283
▁Indem	-15284
▁Kabel	-15285
▁arrog	-15286
▁Schult	-15287
▁harter	-15288
▁invent	-15289
▁philos	-15290
istische	-15291
wechselt	-15292
▁geschen	-15293
▁zerquet	-15294
▁abgeholt	-15295
▁describe	-15296
▁verlasse	-15297
▁underneath	-15298
▁Tatsächlich	-15299
▁persönlichen	-15300
▁Rig	-15301
▁nav	-15302
▁Erik	-15303
▁Hood	-15304
▁burg	-15305
▁lesb	-15306
▁Segen	-15307
▁frame	-15308
▁genet	-15309
▁Besorg	-15310
▁Indien	-15311
▁graben	-15312
▁benefit	-15313
▁injured	-15314
▁offense	-15315
▁warrior	-15316
▁zurecht	-15317
▁guessing	-15318
▁Schweigen	-15319
▁Wunderbar	-15320
▁Generation	-15321
▁wiederholen	-15322
20	-15323
pson	-15324
uits	-15325
ATHER	-15326
ilien	-15327
▁sper	-15328
unning	-15329
▁Catch	-15330
▁Mauer	-15331
▁Naomi	-15332
▁schaust	-15333
▁yelling	-15334
▁interrog	-15335
▁Schätzchen	-15336
▁vorbereiten	-15337
ECT	-15338
▁ZU	-15339
club	-15340
laus	-15341
▁Kob	-15342
▁Moh	-15343
▁abw	-15344
arren	-15345
xygen	-15346
▁COMP	-15347
▁Choi	-15348
▁Jedi	-15349
▁evac	-15350
ortion	-15351
▁Sagte	-15352
▁eleph	-15353
▁sweep	-15354
leitung	-15355
▁breaks	-15356
▁claims	-15357
▁Einkauf	-15358
▁Schluck	-15359
▁Sheldon	-15360
schrauber	-15361
▁dreaming	-15362
▁gekostet	-15363
▁nachsehen	-15364
▁Zo	-15365
iders	-15366
riegt	-15367
▁diss	-15368
▁Bitch	-15369
▁Music	-15370
▁royal	-15371
zahlung	-15372
▁Bernie	-15373
▁Hühner	-15374
▁nebenan	-15375
▁sounded	-15376
▁Ox	-15377
iona	-15378
▁Tote	-15379
▁flow	-15380
▁welt	-15381
folgen	-15382
▁Fallen	-15383
▁packed	-15384
▁resign	-15385
▁Klavier	-15386
[...]
