<unk>	0
<s>	0
</s>	0
▁t	-0
ie	-1
▁w	-2
▁s	-3
he	-4
▁m	-5
▁a	-6
ou	-7
▁p	-8
in	-9
▁n	-10
▁d	-11
re	-12
▁c	-13
on	-14
an	-15
▁b	-16
▁I	-17
st	-18
at	-19
▁to	-20
ow	-21
▁z	-22
er	-23
▁o	-24
▁y	-25
▁the	-26
▁i	-27
le	-28
▁you	-29
sz	-30
▁j	-31
▁T	-32
▁g	-33
rz	-34
am	-35
▁W	-36
or	-37
▁k	-38
ar	-39
ing	-40
ię	-41
en	-42
li	-43
▁h	-44
dz	-45
▁f	-46
ro	-47
ak	-48
ll	-49
▁N	-50
ch	-51
ra	-52
▁th	-53
cz	-54
ał	-55
▁C	-56
▁M	-57
▁do	-58
ed	-59
ot	-60
em	-61
..	-62
as	-63
▁S	-64
om	-65
▁A	-66
▁P	-67
nd	-68
...	-69
▁nie	-70
ve	-71
is	-72
est	-73
▁na	-74
że	-75
▁D	-76
et	-77
it	-78
▁u	-79
go	-80
▁się	-81
▁he	-82
ad	-83
▁J	-84
▁in	-85
▁po	-86
▁Y	-87
nie	-88
im	-89
al	-90
▁B	-91
▁H	-92
ce	-93
ay	-94
▁of	-95
ci	-96
▁l	-97
rze	-98
▁be	-99
▁it	-100
hat	-101
ut	-102
ym	-103
▁O	-104
aj	-105
ni	-106
▁st	-107
es	-108
▁że	-109
▁on	-110
▁Nie	-111
▁mo	-112
ego	-113
▁me	-114
id	-115
▁jest	-116
▁and	-117
od	-118
dzie	-119
cie	-120
▁You	-121
▁we	-122
na	-123
▁go	-124
wi	-125
ko	-126
▁that	-127
▁za	-128
gh	-129
eś	-130
ck	-131
se	-132
▁ch	-133
ld	-134
▁by	-135
dzi	-136
rzy	-137
ob	-138
▁ha	-139
▁e	-140
▁G	-141
▁li	-142
ry	-143
▁co	-144
out	-145
▁Z	-146
ać	-147
▁is	-148
ny	-149
▁my	-150
je	-151
▁re	-152
▁L	-153
ver	-154
wo	-155
▁for	-156
ght	-157
▁wy	-158
▁The	-159
ła	-160
▁mi	-161
▁r	-162
ka	-163
la	-164
▁cz	-165
▁K	-166
czy	-167
▁tak	-168
my	-169
▁was	-170
ne	-171
▁To	-172
▁R	-173
▁sp	-174
now	-175
▁ro	-176
▁have	-177
▁He	-178
ant	-179
▁your	-180
dy	-181
ome	-182
ent	-183
bi	-184
us	-185
by	-186
▁jak	-187
▁We	-188
ir	-189
▁know	-190
ur	-191
ith	-192
ion	-193
ic	-194
ów	-195
ok	-196
ust	-197
▁It	-198
ło	-199
▁not	-200
▁this	-201
ly	-202
ki	-203
▁don	-204
owie	-205
▁with	-206
szy	-207
▁ty	-208
▁wie	-209
▁le	-210
▁te	-211
wa	-212
ke	-213
▁What	-214
ight	-215
▁can	-216
ku	-217
ould	-218
ill	-219
▁se	-220
ia	-221
ho	-222
ct	-223
her	-224
▁pro	-225
all	-226
▁od	-227
zy	-228
one	-229
▁dz	-230
▁are	-231
▁F	-232
op	-233
▁przy	-234
raw	-235
▁ne	-236
art	-237
os	-238
um	-239
cy	-240
▁Ch	-241
▁"	-242
hing	-243
▁Co	-244
il	-245
▁mnie	-246
▁prze	-247
ję	-248
anie	-249
▁ma	-250
▁what	-251
▁ab	-252
and	-253
un	-254
ży	-255
ca	-256
ej	-257
▁want	-258
▁E	-259
ol	-260
▁lo	-261
az	-262
▁Tak	-263
▁No	-264
ea	-265
wie	-266
bie	-267
▁like	-268
ała	-269
ąd	-270
▁get	-271
▁up	-272
▁kt	-273
el	-274
▁him	-275
▁And	-276
▁out	-277
ja	-278
ink	-279
▁an	-280
▁at	-281
▁here	-282
no	-283
▁sh	-284
▁about	-285
ap	-286
aw	-287
ter	-288
▁as	-289
ig	-290
ój	-291
ek	-292
▁pan	-293
ałem	-294
ści	-295
▁did	-296
ost	-297
▁so	-298
our	-299
▁just	-300
ść	-301
▁sz	-302
▁Jest	-303
▁ci	-304
pp	-305
▁Th	-306
iem	-307
▁her	-308
▁ra	-309
▁all	-310
▁Mo	-311
▁ba	-312
▁ś	-313
▁but	-314
ty	-315
▁no	-316
łu	-317
▁de	-318
ró	-319
ta	-320
ami	-321
ul	-322
▁think	-323
▁wor	-324
▁su	-325
▁bę	-326
very	-327
▁That	-328
▁us	-329
ru	-330
▁ko	-331
eah	-332
ge	-333
▁got	-334
łem	-335
▁al	-336
ast	-337
ną	-338
ją	-339
ły	-340
ri	-341
▁ale	-342
▁tym	-343
ind	-344
▁U	-345
szyst	-346
▁któ	-347
▁two	-348
onna	-349
▁there	-350
rom	-351
▁right	-352
ard	-353
ier	-354
ble	-355
szę	-356
▁gonna	-357
▁dzie	-358
hy	-359
si	-360
fe	-361
▁pe	-362
▁one	-363
▁Yeah	-364
ac	-365
▁any	-366
ają	-367
dę	-368
uż	-369
nt	-370
▁whe	-371
ba	-372
▁they	-373
lko	-374
śmy	-375
ate	-376
▁tego	-377
ga	-378
▁St	-379
ally	-380
▁pow	-381
uje	-382
▁ni	-383
▁mu	-384
▁now	-385
ers	-386
▁Ale	-387
▁1	-388
▁bo	-389
▁pod	-390
▁powie	-391
▁cię	-392
to	-393
▁Do	-394
res	-395
ank	-396
▁tu	-397
▁But	-398
▁zro	-399
asz	-400
ime	-401
▁je	-402
▁Jak	-403
▁dla	-404
▁sam	-405
▁mie	-406
▁if	-407
ive	-408
ep	-409
▁mam	-410
▁from	-411
kay	-412
▁who	-413
▁some	-414
▁roz	-415
ong	-416
eśli	-417
▁wi	-418
own	-419
▁Po	-420
▁she	-421
sp	-422
▁będzie	-423
ali	-424
▁wszyst	-425
▁dob	-426
▁My	-427
▁lu	-428
▁może	-429
▁see	-430
▁his	-431
ation	-432
ist	-433
▁or	-434
ore	-435
▁Wy	-436
use	-437
szcz	-438
▁them	-439
ówi	-440
alk	-441
ven	-442
▁mog	-443
▁will	-444
obie	-445
▁back	-446
łam	-447
▁tylko	-448
ało	-449
pie	-450
red	-451
▁prz	-452
rie	-453
ine	-454
▁gu	-455
ięc	-456
any	-457
▁com	-458
ach	-459
▁time	-460
ake	-461
sze	-462
▁-	-463
▁Cz	-464
▁ja	-465
row	-466
rou	-467
▁say	-468
▁So	-469
omet	-470
ałam	-471
▁ex	-472
▁ze	-473
▁were	-474
▁need	-475
iedy	-476
be	-477
usi	-478
ud	-479
▁Oh	-480
▁sa	-481
▁'	-482
▁con	-483
ess	-484
ście	-485
▁jesteś	-486
▁zrobi	-487
aż	-488
te	-489
śl	-490
▁Dz	-491
ale	-492
ich	-493
eraz	-494
thing	-495
▁pl	-496
iebie	-497
mie	-498
awi	-499
▁They	-500
▁going	-501
ort	-502
cę	-503
▁look	-504
▁pom	-505
▁ży	-506
▁ob	-507
ran	-508
▁could	-509
▁czy	-510
▁been	-511
are	-512
way	-513
da	-514
ony	-515
▁jed	-516
▁would	-517
ować	-518
▁coś	-519
lu	-520
qu	-521
ase	-522
▁good	-523
ame	-524
emy	-525
▁pot	-526
▁fe	-527
▁im	-528
▁She	-529
▁didn	-530
end	-531
kę	-532
▁są	-533
▁pra	-534
łeś	-535
▁bar	-536
ick	-537
ys	-538
kie	-539
▁już	-540
▁Whe	-541
lo	-542
omething	-543
▁być	-544
▁Sp	-545
▁praw	-546
▁tell	-547
▁Mam	-548
▁Dob	-549
▁How	-550
up	-551
▁had	-552
łaś	-553
▁our	-554
▁every	-555
▁Czy	-556
▁off	-557
▁v	-558
ani	-559
cho	-560
▁talk	-561
cause	-562
▁This	-563
▁If	-564
▁when	-565
▁tam	-566
ther	-567
ałeś	-568
ody	-569
nego	-570
▁sk	-571
ure	-572
▁Za	-573
▁Prze	-574
▁zost	-575
ous	-576
imy	-577
▁Ja	-578
les	-579
reat	-580
nia	-581
▁take	-582
▁something	-583
ji	-584
▁thing	-585
▁op	-586
▁Bo	-587
▁żeby	-588
wy	-589
ary	-590
▁Go	-591
liśmy	-592
▁mówi	-593
tle	-594
niej	-595
we	-596
bym	-597
uck	-598
▁Wie	-599
▁There	-600
▁jej	-601
▁swo	-602
mu	-603
▁work	-604
nym	-605
ave	-606
▁czas	-607
▁2	-608
▁V	-609
▁happ	-610
▁Może	-611
▁man	-612
▁raz	-613
ag	-614
▁jestem	-615
śli	-616
rzym	-617
ania	-618
▁Don	-619
ber	-620
▁poz	-621
▁był	-622
▁way	-623
oz	-624
gl	-625
czego	-626
ron	-627
▁sobie	-628
dzieć	-629
▁how	-630
▁ż	-631
lf	-632
▁too	-633
led	-634
mi	-635
▁robi	-636
▁Pro	-637
▁Why	-638
▁Ty	-639
▁Well	-640
▁kiedy	-641
▁zna	-642
▁come	-643
dzo	-644
ear	-645
pra	-646
▁chce	-647
th	-648
ople	-649
ały	-650
▁should	-651
oba	-652
▁lat	-653
bo	-654
▁has	-655
▁teraz	-656
emu	-657
▁Let	-658
▁zd	-659
if	-660
00	-661
enie	-662
▁ten	-663
▁mean	-664
▁Na	-665
ady	-666
owy	-667
ord	-668
▁zap	-669
orry	-670
uję	-671
amy	-672
▁przez	-673
▁Be	-674
▁down	-675
▁Przy	-676
▁naj	-677
lp	-678
▁fa	-679
▁By	-680
▁ciebie	-681
▁nas	-682
▁let	-683
ide	-684
▁Are	-685
kt	-686
▁zn	-687
owi	-688
▁more	-689
▁wiem	-690
ice	-691
▁dzi	-692
▁Okay	-693
szcze	-694
▁Is	-695
▁make	-696
lie	-697
▁wszystko	-698
other	-699
▁było	-700
▁Więc	-701
▁people	-702
▁does	-703
▁over	-704
▁ją	-705
uj	-706
▁Thank	-707
▁min	-708
ana	-709
ait	-710
óż	-711
cia	-712
czyć	-713
▁All	-714
nych	-715
gi	-716
ving	-717
▁musi	-718
iss	-719
▁Lo	-720
ound	-721
enia	-722
ane	-723
▁lit	-724
ies	-725
▁Jesteś	-726
ory	-727
▁day	-728
▁jeśli	-729
▁Come	-730
ond	-731
▁Jeśli	-732
▁jego	-733
▁cho	-734
▁Dzię	-735
▁bet	-736
▁little	-737
nder	-738
pi	-739
ang	-740
▁mogę	-741
▁love	-742
▁en	-743
▁said	-744
▁sorry	-745
ree	-746
▁pani	-747
ff	-748
ół	-749
▁Mr	-750
gląd	-751
nik	-752
▁help	-753
▁really	-754
▁okay	-755
▁pre	-756
js	-757
▁am	-758
▁never	-759
waż	-760
▁ich	-761
riend	-762
▁sy	-763
ting	-764
▁only	-765
ien	-766
▁happen	-767
▁Hey	-768
▁Sh	-769
dział	-770
rób	-771
utaj	-772
ark	-773
de	-774
▁br	-775
ity	-776
▁bardzo	-777
pe	-778
rzeb	-779
▁gdy	-780
▁doing	-781
igdy	-782
łuch	-783
sy	-784
ład	-785
dź	-786
▁find	-787
ite	-788
ning	-789
▁ar	-790
ought	-791
▁3	-792
dzin	-793
▁kon	-794
▁Jestem	-795
rawdę	-796
▁nap	-797
▁In	-798
▁kto	-799
self	-800
▁tra	-801
▁bez	-802
lease	-803
ona	-804
orm	-805
gain	-806
▁Od	-807
aybe	-808
ose	-809
▁mat	-810
rząd	-811
▁wię	-812
ery	-813
ań	-814
▁Mi	-815
▁dobrze	-816
tu	-817
▁af	-818
▁anything	-819
ss	-820
ather	-821
▁fir	-822
▁because	-823
▁masz	-824
▁pew	-825
▁other	-826
▁under	-827
▁why	-828
ance	-829
ką	-830
▁qu	-831
▁Not	-832
▁again	-833
ell	-834
▁spraw	-835
".	-836
▁Dla	-837
▁nic	-838
czę	-839
dzę	-840
▁where	-841
▁nam	-842
▁Je	-843
prasz	-844
▁chci	-845
▁year	-846
per	-847
ment	-848
▁jeszcze	-849
▁Who	-850
oney	-851
▁even	-852
ans	-853
▁wh	-854
▁rze	-855
▁call	-856
wój	-857
▁też	-858
▁then	-859
."	-860
▁które	-861
ze	-862
og	-863
▁minut	-864
▁bu	-865
▁moż	-866
▁Where	-867
▁moje	-868
▁very	-869
▁much	-870
cze	-871
au	-872
▁tutaj	-873
▁Re	-874
ass	-875
nej	-876
▁Powie	-877
▁Did	-878
▁gdzie	-879
▁God	-880
ough	-881
▁proble	-882
cu	-883
▁kil	-884
▁powin	-885
▁Look	-886
nę	-887
fore	-888
▁Jo	-889
sh	-890
▁into	-891
▁ser	-892
▁si	-893
▁Proszę	-894
▁try	-895
urn	-896
get	-897
▁nasz	-898
▁prost	-899
praszam	-900
ąg	-901
▁ask	-902
▁który	-903
ierw	-904
▁life	-905
▁Now	-906
▁give	-907
▁thought	-908
che	-909
▁feel	-910
▁nim	-911
ip	-912
era	-913
ew	-914
▁por	-915
▁zam	-916
▁On	-917
jego	-918
ujesz	-919
ór	-920
▁porząd	-921
ab	-922
▁part	-923
▁pi	-924
och	-925
▁won	-926
kiem	-927
▁still	-928
mawi	-929
aje	-930
▁lot	-931
▁bro	-932
▁przed	-933
▁pla	-934
▁miejs	-935
▁sure	-936
▁Good	-937
ire	-938
▁tr	-939
▁mój	-940
▁friend	-941
ren	-942
kaz	-943
ted	-944
ved	-945
▁ad	-946
dzić	-947
kuję	-948
▁night	-949
▁zrobić	-950
▁Yes	-951
▁wsp	-952
ałaś	-953
ują	-954
▁long	-955
ied	-956
rac	-957
▁Ż	-958
▁tro	-959
▁porządku	-960
▁więc	-961
yba	-962
▁domu	-963
▁than	-964
▁zabi	-965
day	-966
kow	-967
▁pie	-968
▁first	-969
co	-970
eni	-971
ade	-972
round	-973
▁before	-974
▁kill	-975
▁wr	-976
czą	-977
▁Can	-978
▁hand	-979
▁their	-980
▁nad	-981
óg	-982
rowa	-983
▁car	-984
▁id	-985
▁kid	-986
łaśnie	-987
oni	-988
▁bi	-989
▁os	-990
▁gir	-991
▁sm	-992
▁Ma	-993
▁ke	-994
ish	-995
▁dost	-996
▁poli	-997
▁Dlaczego	-998
▁rem	-999
▁dr	-1000
▁stop	-1001
▁Dobrze	-1002
▁An	-1003
▁ost	-1004
cej	-1005
▁start	-1006
ub	-1007
▁Al	-1008
▁cał	-1009
łop	-1010
▁new	-1011
ise	-1012
ęp	-1013
▁zab	-1014
▁Wiem	-1015
▁problem	-1016
chę	-1017
▁comp	-1018
▁spe	-1019
ft	-1020
ąż	-1021
▁great	-1022
ina	-1023
▁zoba	-1024
▁sc	-1025
gę	-1026
▁ta	-1027
▁imp	-1028
usz	-1029
yt	-1030
▁Wi	-1031
▁sie	-1032
ress	-1033
▁Se	-1034
▁doesn	-1035
▁chcę	-1036
▁home	-1037
uk	-1038
▁last	-1039
ath	-1040
▁better	-1041
▁Przepraszam	-1042
▁była	-1043
▁dro	-1044
łą	-1045
▁fo	-1046
▁told	-1047
▁Gdzie	-1048
▁Mar	-1049
▁fuck	-1050
age	-1051
▁chcesz	-1052
▁tej	-1053
▁care	-1054
▁Just	-1055
scy	-1056
cą	-1057
▁guy	-1058
▁put	-1059
róci	-1060
lat	-1061
▁bad	-1062
owa	-1063
▁un	-1064
pt	-1065
▁Your	-1066
▁Wiesz	-1067
nij	-1068
ways	-1069
▁takie	-1070
▁Nap	-1071
▁prawda	-1072
▁zaw	-1073
▁When	-1074
▁these	-1075
eść	-1076
ouse	-1077
łowie	-1078
odź	-1079
ile	-1080
▁plan	-1081
▁Get	-1082
▁koch	-1083
▁Myśl	-1084
▁away	-1085
▁Kto	-1086
ności	-1087
po	-1088
uch	-1089
▁świ	-1090
pad	-1091
rat	-1092
▁dis	-1093
▁Hej	-1094
▁sec	-1095
▁Ś	-1096
amię	-1097
▁che	-1098
ara	-1099
▁wanted	-1100
oty	-1101
▁years	-1102
wczy	-1103
cji	-1104
▁tru	-1105
▁powiedzieć	-1106
ował	-1107
▁show	-1108
▁Bę	-1109
▁ac	-1110
byś	-1111
onie	-1112
▁Am	-1113
ód	-1114
▁after	-1115
der	-1116
▁wiesz	-1117
▁girl	-1118
▁wait	-1119
▁everything	-1120
▁potrzeb	-1121
▁Pow	-1122
cję	-1123
int	-1124
▁Maybe	-1125
▁stra	-1126
▁always	-1127
ret	-1128
ięk	-1129
działem	-1130
▁belie	-1131
▁myśli	-1132
▁każ	-1133
▁cour	-1134
rzu	-1135
man	-1136
ction	-1137
ild	-1138
ember	-1139
▁mamy	-1140
usimy	-1141
▁myśl	-1142
dzisz	-1143
▁Roz	-1144
ole	-1145
▁dru	-1146
▁Wszyst	-1147
▁prostu	-1148
▁jakie	-1149
▁Li	-1150
▁list	-1151
▁możesz	-1152
ner	-1153
▁place	-1154
▁Mu	-1155
▁someone	-1156
▁przyja	-1157
▁gra	-1158
▁czego	-1159
aty	-1160
▁name	-1161
szyscy	-1162
stand	-1163
▁oj	-1164
rę	-1165
▁pos	-1166
owe	-1167
bą	-1168
ógł	-1169
▁Dziękuję	-1170
▁twoje	-1171
▁ludzi	-1172
dziemy	-1173
ried	-1174
▁cou	-1175
ves	-1176
▁keep	-1177
kol	-1178
▁Dobra	-1179
▁De	-1180
▁mom	-1181
▁Nic	-1182
▁trochę	-1183
▁money	-1184
▁więcej	-1185
▁wat	-1186
▁kom	-1187
▁Le	-1188
▁odp	-1189
się	-1190
ons	-1191
▁dziewczy	-1192
▁5	-1193
▁gł	-1194
su	-1195
▁naw	-1196
▁Musi	-1197
▁pierw	-1198
▁Masz	-1199
▁rob	-1200
▁must	-1201
▁supp	-1202
▁Kiedy	-1203
▁things	-1204
▁wz	-1205
▁around	-1206
▁big	-1207
▁nigdy	-1208
▁cl	-1209
▁play	-1210
▁For	-1211
▁czym	-1212
ób	-1213
oby	-1214
▁ok	-1215
wać	-1216
▁Sz	-1217
ata	-1218
lep	-1219
▁guys	-1220
▁razem	-1221
gu	-1222
▁4	-1223
cznie	-1224
▁um	-1225
du	-1226
dzą	-1227
kon	-1228
▁happened	-1229
▁understand	-1230
▁naprawdę	-1231
▁sir	-1232
▁kind	-1233
▁rzeczy	-1234
▁mar	-1235
lę	-1236
▁pa	-1237
▁ever	-1238
▁war	-1239
ano	-1240
fi	-1241
gin	-1242
ful	-1243
ince	-1244
▁pat	-1245
▁tobą	-1246
▁nothing	-1247
▁hear	-1248
ull	-1249
koń	-1250
dzy	-1251
dziej	-1252
ól	-1253
▁ass	-1254
▁Teraz	-1255
▁leave	-1256
▁niż	-1257
rew	-1258
kim	-1259
▁pop	-1260
▁wom	-1261
stwo	-1262
▁made	-1263
▁Bar	-1264
▁Two	-1265
form	-1266
▁believe	-1267
▁Pod	-1268
▁mną	-1269
lem	-1270
xt	-1271
▁per	-1272
▁sur	-1273
rać	-1274
▁talking	-1275
▁kole	-1276
▁og	-1277
ious	-1278
▁found	-1279
▁nawet	-1280
▁wygląd	-1281
▁old	-1282
▁chodzi	-1283
ris	-1284
son	-1285
▁Cho	-1286
sta	-1287
▁Hi	-1288
▁dzieci	-1289
▁świe	-1290
low	-1291
kich	-1292
▁well	-1293
ict	-1294
szed	-1295
▁own	-1296
tro	-1297
▁fun	-1298
▁those	-1299
▁spo	-1300
▁Lu	-1301
ram	-1302
▁będę	-1303
ąz	-1304
ctor	-1305
▁stało	-1306
ple	-1307
rough	-1308
▁wo	-1309
iesz	-1310
dą	-1311
▁Sam	-1312
▁Sk	-1313
tain	-1314
▁Pot	-1315
▁el	-1316
dziesz	-1317
▁swoje	-1318
naj	-1319
łuchaj	-1320
▁ł	-1321
▁wasn	-1322
óź	-1323
rem	-1324
▁Then	-1325
ić	-1326
wiek	-1327
▁mor	-1328
▁done	-1329
▁życie	-1330
▁left	-1331
▁dłu	-1332
rzę	-1333
▁zak	-1334
▁chwi	-1335
▁Chce	-1336
▁father	-1337
dze	-1338
alej	-1339
czu	-1340
▁mon	-1341
▁same	-1342
kolwiek	-1343
▁kobie	-1344
▁zas	-1345
▁proszę	-1346
▁coming	-1347
ign	-1348
▁miał	-1349
▁inte	-1350
▁Ex	-1351
▁house	-1352
▁ona	-1353
koj	-1354
▁ag	-1355
ult	-1356
▁Chci	-1357
▁Ta	-1358
▁world	-1359
▁spot	-1360
so	-1361
▁Tylko	-1362
▁else	-1363
body	-1364
▁em	-1365
▁ostat	-1366
▁course	-1367
▁head	-1368
cja	-1369
▁stay	-1370
▁through	-1371
ma	-1372
▁meet	-1373
zyb	-1374
ever	-1375
erw	-1376
▁cra	-1377
▁dead	-1378
▁cal	-1379
nię	-1380
▁człowie	-1381
▁trying	-1382
ęż	-1383
▁sho	-1384
zna	-1385
▁wrong	-1386
▁enough	-1387
▁looking	-1388
▁Because	-1389
ków	-1390
▁chłop	-1391
▁kogo	-1392
erson	-1393
▁Wszystko	-1394
ora	-1395
ymi	-1396
czek	-1397
▁came	-1398
▁week	-1399
mier	-1400
▁mak	-1401
czywi	-1402
av	-1403
▁met	-1404
▁Chcę	-1405
▁please	-1406
▁zawsze	-1407
▁jaki	-1408
rest	-1409
▁*	-1410
▁ph	-1411
▁moim	-1412
▁win	-1413
oc	-1414
▁Please	-1415
ated	-1416
▁temu	-1417
▁job	-1418
▁aby	-1419
▁pana	-1420
▁zmie	-1421
imes	-1422
▁czasu	-1423
▁ktoś	-1424
act	-1425
▁Jed	-1426
▁run	-1427
osed	-1428
▁Muszę	-1429
ność	-1430
▁fin	-1431
▁star	-1432
▁Te	-1433
chodzi	-1434
▁Wait	-1435
▁Boże	-1436
▁Ni	-1437
▁prac	-1438
▁Chodź	-1439
▁moja	-1440
czne	-1441
side	-1442
sza	-1443
▁mógł	-1444
▁koń	-1445
▁zaj	-1446
kład	-1447
rzą	-1448
▁Prz	-1449
reak	-1450
▁fami	-1451
old	-1452
▁Me	-1453
▁bus	-1454
▁mother	-1455
rod	-1456
▁sł	-1457
io	-1458
odu	-1459
ope	-1460
▁rep	-1461
▁jako	-1462
▁wróci	-1463
▁siebie	-1464
▁rodzin	-1465
▁hard	-1466
sty	-1467
god	-1468
▁tych	-1469
▁bit	-1470
▁twój	-1471
▁Mówi	-1472
ence	-1473
▁best	-1474
▁Gdy	-1475
▁hell	-1476
▁three	-1477
zw	-1478
nić	-1479
▁Już	-1480
gie	-1481
▁remember	-1482
▁któr	-1483
▁Joh	-1484
▁niego	-1485
▁Chyba	-1486
bly	-1487
▁Every	-1488
latego	-1489
ens	-1490
▁właśnie	-1491
▁num	-1492
▁albo	-1493
▁Dr	-1494
▁end	-1495
oth	-1496
▁przest	-1497
urt	-1498
▁Cześć	-1499
▁wyd	-1500
leź	-1501
ią	-1502
asy	-1503
▁boy	-1504
▁exp	-1505
kro	-1506
▁Zost	-1507
got	-1508
omo	-1509
▁miss	-1510
▁des	-1511
▁tę	-1512
▁wcz	-1513
▁żad	-1514
▁another	-1515
▁mart	-1516
ciu	-1517
lle	-1518
▁isn	-1519
▁10	-1520
gether	-1521
ger	-1522
▁son	-1523
ii	-1524
łysz	-1525
▁gl	-1526
ually	-1527
▁saw	-1528
▁par	-1529
czywiście	-1530
▁Or	-1531
ue	-1532
▁yourself	-1533
▁act	-1534
ors	-1535
▁ter	-1536
▁przyj	-1537
▁Dzięki	-1538
▁room	-1539
nąć	-1540
▁Nigdy	-1541
▁family	-1542
tedy	-1543
▁rec	-1544
less	-1545
stęp	-1546
▁app	-1547
▁As	-1548
cis	-1549
kry	-1550
arm	-1551
▁powiedzi	-1552
ając	-1553
▁będziesz	-1554
acz	-1555
▁wyb	-1556
▁kne	-1557
ready	-1558
szt	-1559
▁Naprawdę	-1560
▁being	-1561
▁One	-1562
amp	-1563
▁together	-1564
here	-1565
ions	-1566
▁Pan	-1567
nią	-1568
▁turn	-1569
▁wiel	-1570
▁znaj	-1571
tnie	-1572
iędzy	-1573
▁getting	-1574
▁went	-1575
▁możemy	-1576
▁spos	-1577
▁tele	-1578
▁wouldn	-1579
▁robisz	-1580
▁zat	-1581
▁Cóż	-1582
▁rę	-1583
▁already	-1584
wię	-1585
▁cle	-1586
▁mieć	-1587
▁Hell	-1588
▁might	-1589
▁mojego	-1590
óc	-1591
▁Ten	-1592
niu	-1593
▁Rob	-1594
rzyć	-1595
▁few	-1596
aught	-1597
▁today	-1598
▁wszystkie	-1599
piej	-1600
▁Ar	-1601
woni	-1602
▁nice	-1603
▁ot	-1604
▁John	-1605
▁idea	-1606
zn	-1607
ng	-1608
▁fi	-1609
▁took	-1610
aliśmy	-1611
acet	-1612
▁jesteśmy	-1613
skie	-1614
▁Thanks	-1615
▁trze	-1616
isi	-1617
sa	-1618
▁duż	-1619
ump	-1620
▁kim	-1621
▁20	-1622
▁used	-1623
▁Jack	-1624
▁Zap	-1625
▁person	-1626
ating	-1627
▁cie	-1628
▁dobry	-1629
▁Of	-1630
▁blo	-1631
▁ludzie	-1632
▁dlaczego	-1633
▁rozum	-1634
▁sit	-1635
iv	-1636
▁use	-1637
▁Br	-1638
▁str	-1639
raz	-1640
ujemy	-1641
▁#	-1642
ital	-1643
▁hour	-1644
▁godzin	-1645
▁bra	-1646
cj	-1647
▁śmier	-1648
rza	-1649
atu	-1650
▁next	-1651
ajcie	-1652
byt	-1653
▁dif	-1654
come	-1655
▁bl	-1656
▁live	-1657
oro	-1658
rist	-1659
▁most	-1660
▁mind	-1661
▁hu	-1662
▁prób	-1663
▁At	-1664
▁spotk	-1665
asne	-1666
▁ago	-1667
▁real	-1668
sł	-1669
▁anyone	-1670
ymy	-1671
jech	-1672
ntil	-1673
▁baby	-1674
▁whole	-1675
ąc	-1676
▁pret	-1677
▁Powin	-1678
▁Mom	-1679
łe	-1680
▁wyj	-1681
chool	-1682
▁znaczy	-1683
pu	-1684
▁musisz	-1685
ream	-1686
▁mojej	-1687
▁morning	-1688
alaz	-1689
▁ud	-1690
▁fight	-1691
▁without	-1692
ical	-1693
▁Mogę	-1694
leep	-1695
▁Dad	-1696
▁knew	-1697
▁Car	-1698
stwa	-1699
▁mał	-1700
▁odpowie	-1701
ców	-1702
ato	-1703
▁męż	-1704
orrow	-1705
ley	-1706
▁miesz	-1707
ange	-1708
gg	-1709
▁woman	-1710
dzenia	-1711
za	-1712
▁Chcesz	-1713
ciąg	-1714
▁Dzie	-1715
▁Musimy	-1716
ator	-1717
▁ey	-1718
▁skoń	-1719
▁moją	-1720
▁seen	-1721
▁supposed	-1722
▁powiedział	-1723
ings	-1724
▁chciał	-1725
star	-1726
▁szczę	-1727
▁killed	-1728
▁heard	-1729
owanie	-1730
▁Some	-1731
liście	-1732
szło	-1733
▁lub	-1734
▁miejsce	-1735
ste	-1736
▁wol	-1737
owo	-1738
▁die	-1739
ying	-1740
▁dom	-1741
▁nią	-1742
▁hist	-1743
szą	-1744
ason	-1745
▁mów	-1746
▁many	-1747
▁Har	-1748
gry	-1749
▁panie	-1750
anim	-1751
▁ru	-1752
▁child	-1753
▁szyb	-1754
▁Here	-1755
ciec	-1756
▁Zro	-1757
ins	-1758
let	-1759
▁Ci	-1760
igh	-1761
ster	-1762
▁wam	-1763
▁called	-1764
▁Hello	-1765
pa	-1766
owany	-1767
▁Char	-1768
▁aut	-1769
iness	-1770
▁dzieje	-1771
▁muszę	-1772
▁nich	-1773
▁ap	-1774
mawiać	-1775
▁facet	-1776
▁which	-1777
aut	-1778
▁may	-1779
▁gr	-1780
▁Mamy	-1781
cem	-1782
▁quest	-1783
▁fil	-1784
▁iść	-1785
lis	-1786
ha	-1787
wiąz	-1788
▁spra	-1789
▁Tell	-1790
▁rest	-1791
▁school	-1792
▁znaleź	-1793
▁maybe	-1794
ert	-1795
acji	-1796
▁wal	-1797
▁każd	-1798
▁wł	-1799
▁brother	-1800
aki	-1801
gn	-1802
lic	-1803
▁fucking	-1804
▁face	-1805
▁wiele	-1806
▁alone	-1807
▁inform	-1808
▁wants	-1809
▁Wh	-1810
▁Mój	-1811
czny	-1812
ness	-1813
▁Myślę	-1814
sto	-1815
raj	-1816
obą	-1817
▁stąd	-1818
czenia	-1819
▁taki	-1820
▁wszyscy	-1821
araz	-1822
000	-1823
▁pój	-1824
▁wife	-1825
żyć	-1826
▁dzię	-1827
▁nadzie	-1828
▁dalej	-1829
▁pomóc	-1830
▁dam	-1831
▁sposób	-1832
▁która	-1833
▁wiedzieć	-1834
śle	-1835
▁Take	-1836
▁póź	-1837
▁ry	-1838
▁swe	-1839
łaści	-1840
cted	-1841
▁Są	-1842
▁...	-1843
bably	-1844
▁Pom	-1845
cid	-1846
▁yet	-1847
▁shit	-1848
amięt	-1849
▁fine	-1850
▁deal	-1851
▁hot	-1852
▁6	-1853
▁Ro	-1854
▁Any	-1855
▁Panie	-1856
▁wszystkich	-1857
▁Stop	-1858
nam	-1859
prowa	-1860
▁Fr	-1861
▁Daj	-1862
▁zw	-1863
hed	-1864
▁pay	-1865
▁chyba	-1866
▁inter	-1867
▁walk	-1868
ąt	-1869
▁case	-1870
▁thank	-1871
▁czę	-1872
cić	-1873
szych	-1874
ition	-1875
▁ton	-1876
akt	-1877
cza	-1878
▁matter	-1879
▁word	-1880
"?	-1881
rzed	-1882
ciw	-1883
py	-1884
▁niez	-1885
▁powinien	-1886
▁Have	-1887
▁set	-1888
▁haven	-1889
▁najlep	-1890
ener	-1891
cent	-1892
cked	-1893
▁friends	-1894
▁couldn	-1895
▁niej	-1896
▁kilka	-1897
▁jeden	-1898
▁days	-1899
▁Koch	-1900
▁dużo	-1901
ks	-1902
pital	-1903
▁minute	-1904
▁lepiej	-1905
▁sw	-1906
▁nau	-1907
▁Czemu	-1908
▁pozwo	-1909
▁ev	-1910
ced	-1911
▁drink	-1912
oss	-1913
ton	-1914
cial	-1915
▁zm	-1916
ten	-1917
▁soon	-1918
rzymać	-1919
actly	-1920
zie	-1921
rent	-1922
▁tri	-1923
ps	-1924
▁zad	-1925
▁until	-1926
sible	-1927
▁myself	-1928
szedł	-1929
▁jedy	-1930
▁Ab	-1931
onieważ	-1932
▁cor	-1933
▁twoja	-1934
gs	-1935
gra	-1936
ird	-1937
▁pracy	-1938
▁stanie	-1939
▁second	-1940
▁robić	-1941
arn	-1942
mit	-1943
aniu	-1944
ler	-1945
▁dwa	-1946
▁move	-1947
ica	-1948
▁Możesz	-1949
▁dziw	-1950
▁tow	-1951
where	-1952
ding	-1953
▁watch	-1954
▁samoch	-1955
▁break	-1956
isiaj	-1957
rzeć	-1958
▁Pat	-1959
▁Tom	-1960
▁szko	-1961
ations	-1962
▁lost	-1963
▁test	-1964
▁Oczywiście	-1965
▁hope	-1966
▁Że	-1967
▁Naw	-1968
▁listen	-1969
▁dzień	-1970
▁kur	-1971
ari	-1972
▁Zam	-1973
▁syn	-1974
▁dziś	-1975
▁Ok	-1976
ala	-1977
▁miło	-1978
▁diffe	-1979
▁zb	-1980
▁kogoś	-1981
▁prom	-1982
▁men	-1983
▁wtedy	-1984
▁dri	-1985
gad	-1986
▁beaut	-1987
▁Powiedz	-1988
▁chol	-1989
ense	-1990
▁głu	-1991
▁guess	-1992
▁kup	-1993
▁Pa	-1994
▁Niech	-1995
wić	-1996
▁med	-1997
▁ready	-1998
▁Właśnie	-1999
cept	-2000
▁tom	-2001
▁hurt	-2002
▁inv	-2003
▁heart	-2004
ces	-2005
▁potem	-2006
▁gone	-2007
▁pyt	-2008
▁open	-2009
▁Nawet	-2010
▁samo	-2011
▁przyjacie	-2012
▁Musisz	-2013
ety	-2014
▁everyone	-2015
▁bardziej	-2016
▁Will	-2017
sk	-2018
nika	-2019
iny	-2020
lić	-2021
ada	-2022
▁pr	-2023
iej	-2024
lion	-2025
zum	-2026
▁Ona	-2027
▁poroz	-2028
▁Dok	-2029
▁saying	-2030
▁Tu	-2031
llow	-2032
▁Q	-2033
gan	-2034
len	-2035
▁hum	-2036
▁mil	-2037
ash	-2038
▁Un	-2039
▁Moż	-2040
land	-2041
▁Ke	-2042
▁zobaczyć	-2043
iful	-2044
▁mają	-2045
▁zbyt	-2046
▁Ju	-2047
▁count	-2048
▁du	-2049
▁crazy	-2050
▁working	-2051
cus	-2052
lub	-2053
▁gun	-2054
▁cr	-2055
tra	-2056
▁while	-2057
dza	-2058
▁cały	-2059
stawi	-2060
▁świat	-2061
▁$	-2062
uff	-2063
▁det	-2064
▁late	-2065
ling	-2066
▁wiecz	-2067
▁true	-2068
uth	-2069
rop	-2070
onder	-2071
fect	-2072
▁Naj	-2073
▁kr	-2074
▁sleep	-2075
wał	-2076
▁pomo	-2077
ents	-2078
▁stand	-2079
liwe	-2080
▁dowie	-2081
▁Wit	-2082
▁later	-2083
▁pap	-2084
ars	-2085
▁Potrzeb	-2086
cer	-2087
wier	-2088
▁Zaw	-2089
▁Right	-2090
yśl	-2091
cks	-2092
▁tonight	-2093
▁uh	-2094
▁month	-2095
okój	-2096
▁twoim	-2097
ister	-2098
▁tą	-2099
▁widzi	-2100
ierz	-2101
ciąż	-2102
liz	-2103
ates	-2104
▁prawdzi	-2105
▁sto	-2106
▁Wygląd	-2107
wiad	-2108
▁since	-2109
▁takiego	-2110
▁business	-2111
▁Coś	-2112
▁dobre	-2113
▁zanim	-2114
▁jakiś	-2115
▁chance	-2116
▁res	-2117
▁gave	-2118
owałem	-2119
▁pres	-2120
lan	-2121
als	-2122
▁życia	-2123
nts	-2124
▁uważ	-2125
▁Ser	-2126
▁Pew	-2127
▁says	-2128
▁yeah	-2129
▁bring	-2130
lit	-2131
▁19	-2132
rad	-2133
▁czek	-2134
▁hit	-2135
▁Pet	-2136
▁dni	-2137
ute	-2138
▁dobra	-2139
▁będziemy	-2140
▁List	-2141
▁waż	-2142
▁tran	-2143
▁można	-2144
▁phone	-2145
▁happy	-2146
▁tem	-2147
unch	-2148
▁import	-2149
▁Give	-2150
▁tobie	-2151
▁Ob	-2152
▁telef	-2153
ward	-2154
▁uży	-2155
▁swoją	-2156
▁Really	-2157
▁Pos	-2158
▁Uh	-2159
▁mur	-2160
adomo	-2161
▁kró	-2162
▁pewno	-2163
alf	-2164
▁Ge	-2165
ef	-2166
▁door	-2167
▁Christ	-2168
▁probably	-2169
cuse	-2170
▁zach	-2171
▁jakieś	-2172
▁thinking	-2173
▁ent	-2174
able	-2175
▁środ	-2176
▁death	-2177
▁worry	-2178
▁both	-2179
▁tomorrow	-2180
▁kids	-2181
▁Ed	-2182
▁wasz	-2183
▁Ad	-2184
szym	-2185
▁przeciw	-2186
▁hands	-2187
ądź	-2188
utro	-2189
czenie	-2190
▁beh	-2191
▁Ne	-2192
▁sign	-2193
pect	-2194
▁długo	-2195
raż	-2196
oł	-2197
ork	-2198
unk	-2199
czył	-2200
▁knows	-2201
iz	-2202
trol	-2203
vers	-2204
▁ucie	-2205
▁dziec	-2206
ual	-2207
▁change	-2208
▁będą	-2209
▁zostawi	-2210
ian	-2211
▁also	-2212
▁wcześ	-2213
▁each	-2214
▁dlatego	-2215
▁Frank	-2216
▁read	-2217
▁dw	-2218
▁pretty	-2219
▁nadzieję	-2220
▁7	-2221
▁przyjaci	-2222
▁such	-2223
▁resp	-2224
ota	-2225
sw	-2226
tem	-2227
ral	-2228
▁minutes	-2229
▁important	-2230
cess	-2231
▁beautiful	-2232
▁dad	-2233
▁rów	-2234
▁sex	-2235
▁With	-2236
ude	-2237
oke	-2238
tasz	-2239
▁Af	-2240
acja	-2241
▁Sure	-2242
ymore	-2243
▁Pe	-2244
▁Listen	-2245
▁conf	-2246
▁OK	-2247
▁ali	-2248
▁tyle	-2249
vie	-2250
▁Wszyscy	-2251
▁See	-2252
▁pick	-2253
order	-2254
źle	-2255
▁Like	-2256
nak	-2257
upid	-2258
▁pięk	-2259
▁anymore	-2260
▁Praw	-2261
▁far	-2262
▁dow	-2263
▁Bardzo	-2264
▁nocy	-2265
▁00	-2266
win	-2267
dził	-2268
iast	-2269
▁nami	-2270
▁Myśli	-2271
zpie	-2272
▁Rozum	-2273
▁moment	-2274
atch	-2275
▁rację	-2276
▁body	-2277
▁zapom	-2278
▁def	-2279
▁hon	-2280
▁kolej	-2281
▁wszystkim	-2282
aka	-2283
▁wonder	-2284
▁seem	-2285
IE	-2286
▁dzisiaj	-2287
▁eat	-2288
▁włas	-2289
▁ani	-2290
▁Ho	-2291
lly	-2292
cje	-2293
▁dnia	-2294
▁stud	-2295
raid	-2296
▁uwie	-2297
▁Przest	-2298
▁Zawsze	-2299
▁znaleźć	-2300
▁9	-2301
ójrz	-2302
▁Che	-2303
▁Ben	-2304
▁means	-2305
▁having	-2306
▁nazy	-2307
▁blood	-2308
▁30	-2309
lin	-2310
▁mess	-2311
mm	-2312
min	-2313
▁power	-2314
▁law	-2315
▁ode	-2316
▁żebyś	-2317
▁lubi	-2318
jęcia	-2319
▁15	-2320
▁once	-2321
▁New	-2322
▁8	-2323
▁Kim	-2324
sie	-2325
▁Sc	-2326
▁taking	-2327
▁tygod	-2328
▁przyjaciół	-2329
czas	-2330
wyk	-2331
▁point	-2332
anna	-2333
▁afraid	-2334
▁mist	-2335
▁syst	-2336
łap	-2337
koju	-2338
▁ciąg	-2339
vel	-2340
▁myślisz	-2341
▁Jeszcze	-2342
▁zast	-2343
lack	-2344
▁daw	-2345
▁twojej	-2346
▁pomys	-2347
kach	-2348
▁zrobił	-2349
▁musimy	-2350
▁bed	-2351
nowu	-2352
▁uro	-2353
rzwi	-2354
▁Gra	-2355
▁Jesteśmy	-2356
▁oni	-2357
▁trzy	-2358
▁clo	-2359
▁ak	-2360
kami	-2361
gram	-2362
▁którzy	-2363
▁ce	-2364
den	-2365
fer	-2366
▁stron	-2367
▁pri	-2368
ither	-2369
▁rad	-2370
łum	-2371
▁ele	-2372
ową	-2373
▁hold	-2374
▁Och	-2375
trz	-2376
▁mus	-2377
▁cięż	-2378
▁gi	-2379
▁przej	-2380
wol	-2381
▁check	-2382
bezpie	-2383
▁żyje	-2384
▁ca	-2385
ention	-2386
▁police	-2387
▁Pop	-2388
óz	-2389
▁post	-2390
▁pass	-2391
▁ojciec	-2392
▁Pani	-2393
óki	-2394
dzenie	-2395
▁daught	-2396
▁razie	-2397
olo	-2398
niądze	-2399
band	-2400
▁wygląda	-2401
ski	-2402
▁stat	-2403
▁histor	-2404
▁wiadomo	-2405
olog	-2406
▁luck	-2407
▁kaw	-2408
szego	-2409
▁miała	-2410
▁nag	-2411
mer	-2412
▁fire	-2413
ph	-2414
▁0	-2415
pis	-2416
łod	-2417
orn	-2418
▁zmieni	-2419
owych	-2420
br	-2421
▁Her	-2422
▁asked	-2423
▁ostatni	-2424
hes	-2425
sią	-2426
▁Pewnie	-2427
ormal	-2428
ah	-2429
reet	-2430
cyj	-2431
ace	-2432
▁pas	-2433
▁aż	-2434
▁były	-2435
owę	-2436
ect	-2437
liby	-2438
▁different	-2439
▁Był	-2440
▁och	-2441
▁miast	-2442
owała	-2443
▁Mat	-2444
▁dziecko	-2445
▁Fran	-2446
▁drzwi	-2447
▁hours	-2448
▁ran	-2449
obody	-2450
▁umie	-2451
apit	-2452
nek	-2453
▁mówisz	-2454
zu	-2455
isz	-2456
▁died	-2457
▁interest	-2458
▁Mrs	-2459
▁shot	-2460
liwo	-2461
▁five	-2462
▁stupid	-2463
▁noc	-2464
▁Jim	-2465
illi	-2466
owej	-2467
łos	-2468
ałbym	-2469
▁zrob	-2470
▁Nothing	-2471
▁waiting	-2472
▁później	-2473
ween	-2474
▁mężczy	-2475
▁Moja	-2476
▁free	-2477
▁Nikt	-2478
▁Mc	-2479
▁=	-2480
usband	-2481
▁party	-2482
▁zostać	-2483
ames	-2484
▁Czek	-2485
ront	-2486
▁Słuchaj	-2487
▁zadz	-2488
ident	-2489
▁Con	-2490
▁twoją	-2491
▁znalaz	-2492
czna	-2493
▁least	-2494
▁book	-2495
▁daughter	-2496
▁light	-2497
▁myślę	-2498
▁Jes	-2499
▁siost	-2500
▁started	-2501
▁szybko	-2502
oun	-2503
nicy	-2504
rzymaj	-2505
▁bym	-2506
owania	-2507
▁sca	-2508
▁sobą	-2509
ścia	-2510
▁którą	-2511
▁Mart	-2512
▁bezpie	-2513
▁eyes	-2514
▁prote	-2515
▁telefon	-2516
▁trust	-2517
most	-2518
▁stary	-2519
▁Gu	-2520
▁woj	-2521
,000	-2522
lera	-2523
▁dream	-2524
mę	-2525
▁wcześniej	-2526
▁Joe	-2527
mo	-2528
▁taka	-2529
urry	-2530
aku	-2531
▁Mich	-2532
ney	-2533
▁jedno	-2534
▁Fuck	-2535
▁Cl	-2536
eth	-2537
▁fig	-2538
pped	-2539
oru	-2540
▁mówić	-2541
▁pieniądze	-2542
▁Skąd	-2543
▁truth	-2544
▁pok	-2545
bra	-2546
▁roku	-2547
▁dia	-2548
bar	-2549
▁byłem	-2550
▁cut	-2551
▁twa	-2552
▁następ	-2553
▁interes	-2554
▁four	-2555
▁game	-2556
▁Jasne	-2557
▁wyp	-2558
ounds	-2559
▁side	-2560
▁zau	-2561
▁zł	-2562
▁Ste	-2563
▁psy	-2564
▁sent	-2565
żeli	-2566
air	-2567
▁cór	-2568
▁Com	-2569
▁ret	-2570
▁Man	-2571
lor	-2572
▁doctor	-2573
▁Dav	-2574
▁lep	-2575
ono	-2576
▁pię	-2577
lcome	-2578
▁dest	-2579
▁prof	-2580
▁question	-2581
ship	-2582
▁konie	-2583
arów	-2584
▁Does	-2585
▁easy	-2586
rosi	-2587
▁His	-2588
▁pu	-2589
▁czegoś	-2590
▁dep	-2591
▁answ	-2592
▁system	-2593
▁times	-2594
▁powodu	-2595
▁water	-2596
ush	-2597
▁husband	-2598
ial	-2599
▁mieszk	-2600
▁gotta	-2601
▁atta	-2602
niśmy	-2603
▁mogła	-2604
▁send	-2605
ałat	-2606
▁high	-2607
▁story	-2608
▁porozmawiać	-2609
oną	-2610
cle	-2611
▁wystar	-2612
ped	-2613
...?	-2614
▁Dan	-2615
▁makes	-2616
ain	-2617
▁chwilę	-2618
▁twojego	-2619
▁zamk	-2620
żej	-2621
▁looks	-2622
▁oko	-2623
▁którego	-2624
▁trzeba	-2625
ield	-2626
▁Zna	-2627
▁bud	-2628
▁swoim	-2629
▁Great	-2630
▁telling	-2631
▁pół	-2632
▁Geor	-2633
aptain	-2634
lain	-2635
▁Czas	-2636
▁comm	-2637
ross	-2638
▁reg	-2639
cyd	-2640
▁12	-2641
▁reason	-2642
cież	-2643
▁podej	-2644
▁zabić	-2645
▁shoot	-2646
▁Sir	-2647
com	-2648
▁Sy	-2649
▁śmie	-2650
▁Myślisz	-2651
mniej	-2652
▁stuff	-2653
▁rzecz	-2654
czysz	-2655
▁making	-2656
czeń	-2657
▁nasze	-2658
działam	-2659
▁róż	-2660
dzimy	-2661
▁zrozum	-2662
iot	-2663
its	-2664
zi	-2665
orem	-2666
▁Przestań	-2667
czkę	-2668
▁between	-2669
▁din	-2670
for	-2671
▁Świe	-2672
▁half	-2673
▁ple	-2674
▁został	-2675
kar	-2676
▁oper	-2677
▁Bill	-2678
▁mis	-2679
....	-2680
▁close	-2681
▁niep	-2682
biera	-2683
▁osob	-2684
▁Dam	-2685
▁okaz	-2686
▁wym	-2687
▁tried	-2688
łę	-2689
▁sprzed	-2690
▁kobiet	-2691
▁Ł	-2692
▁es	-2693
▁pań	-2694
▁moich	-2695
▁ut	-2696
▁kiedyś	-2697
unt	-2698
ene	-2699
▁pomysł	-2700
▁końcu	-2701
▁imię	-2702
▁nikt	-2703
ards	-2704
▁odd	-2705
▁Zoba	-2706
outh	-2707
▁against	-2708
▁dem	-2709
▁zabaw	-2710
▁potra	-2711
▁Gre	-2712
▁reali	-2713
▁pon	-2714
rouble	-2715
▁obie	-2716
▁pain	-2717
▁follow	-2718
▁tou	-2719
▁peł	-2720
rud	-2721
▁pierwszy	-2722
▁ku	-2723
▁razy	-2724
iously	-2725
▁super	-2726
▁char	-2727
ited	-2728
▁Ko	-2729
▁Wal	-2730
czekaj	-2731
rzel	-2732
▁wej	-2733
aną	-2734
▁front	-2735
wam	-2736
nu	-2737
▁sły	-2738
▁Spójrz	-2739
aving	-2740
▁cy	-2741
▁dot	-2742
▁sek	-2743
▁Ktoś	-2744
▁aren	-2745
erg	-2746
▁rozmawi	-2747
▁posz	-2748
ometimes	-2749
sel	-2750
▁oczy	-2751
łącz	-2752
▁Tam	-2753
▁wypad	-2754
ili	-2755
head	-2756
▁szuk	-2757
▁mine	-2758
▁Micha	-2759
▁takim	-2760
▁Excuse	-2761
▁Spo	-2762
▁Miss	-2763
▁nazw	-2764
▁nale	-2765
▁dy	-2766
▁alive	-2767
każ	-2768
▁able	-2769
cych	-2770
▁exactly	-2771
▁szans	-2772
▁Ba	-2773
alne	-2774
▁yes	-2775
▁ste	-2776
roż	-2777
▁zg	-2778
▁ist	-2779
▁mogą	-2780
rzem	-2781
▁pare	-2782
ement	-2783
▁ziem	-2784
▁number	-2785
▁leg	-2786
rek	-2787
ałe	-2788
▁spokój	-2789
▁fact	-2790
▁ho	-2791
▁behind	-2792
▁Su	-2793
oraj	-2794
ium	-2795
▁cent	-2796
▁chang	-2797
▁bie	-2798
▁wro	-2799
▁young	-2800
▁inside	-2801
▁speak	-2802
▁Cholera	-2803
▁Zrobi	-2804
▁safe	-2805
▁tor	-2806
▁pokaz	-2807
▁sprawy	-2808
▁pub	-2809
▁Qu	-2810
vice	-2811
ER	-2812
▁zni	-2813
▁morder	-2814
iet	-2815
siad	-2816
▁Zd	-2817
▁Op	-2818
▁team	-2819
▁Możemy	-2820
▁jutro	-2821
▁innego	-2822
rzmi	-2823
▁trouble	-2824
▁office	-2825
▁da	-2826
▁Będę	-2827
nać	-2828
▁Mon	-2829
▁jaką	-2830
▁związ	-2831
▁wish	-2832
rzyst	-2833
▁rodzi	-2834
▁months	-2835
▁Nad	-2836
▁nadal	-2837
prz	-2838
▁dop	-2839
▁Bob	-2840
▁secret	-2841
alo	-2842
▁jakby	-2843
▁Gr	-2844
▁pier	-2845
▁needs	-2846
szczę	-2847
▁poważ	-2848
▁wrac	-2849
▁normal	-2850
▁równie	-2851
▁obs	-2852
▁lead	-2853
▁śmierci	-2854
alny	-2855
▁którym	-2856
ścią	-2857
▁wid	-2858
▁married	-2859
▁sub	-2860
ług	-2861
▁full	-2862
▁Przykro	-2863
▁huh	-2864
nymi	-2865
świad	-2866
▁Dzi	-2867
▁Was	-2868
▁Si	-2869
▁Mów	-2870
▁zaczy	-2871
▁dol	-2872
dż	-2873
▁Będzie	-2874
▁jo	-2875
▁Mog	-2876
▁gru	-2877
▁ile	-2878
▁bur	-2879
czki	-2880
▁town	-2881
▁żebym	-2882
▁dup	-2883
▁sil	-2884
▁forget	-2885
?"	-2886
▁aw	-2887
ott	-2888
ib	-2889
cha	-2890
artment	-2891
▁Cię	-2892
▁gets	-2893
owali	-2894
▁przesz	-2895
▁Ost	-2896
▁Zabi	-2897
▁fast	-2898
▁między	-2899
ajem	-2900
▁Bez	-2901
fic	-2902
pr	-2903
ote	-2904
ung	-2905
▁miejscu	-2906
anger	-2907
▁Even	-2908
▁sister	-2909
▁Twój	-2910
▁nied	-2911
roy	-2912
▁buy	-2913
▁Would	-2914
▁int	-2915
łaściwie	-2916
▁Amer	-2917
liż	-2918
▁miałem	-2919
rought	-2920
owego	-2921
▁kochanie	-2922
▁Każ	-2923
działa	-2924
▁almost	-2925
▁gor	-2926
▁colle	-2927
▁bom	-2928
▁Albo	-2929
▁wciąż	-2930
▁Our	-2931
jawi	-2932
staw	-2933
▁film	-2934
▁rozumiem	-2935
▁kar	-2936
▁lata	-2937
owym	-2938
▁arm	-2939
ired	-2940
▁cons	-2941
jemy	-2942
vest	-2943
AN	-2944
▁comes	-2945
▁skończy	-2946
leg	-2947
▁Spraw	-2948
sam	-2949
▁nar	-2950
kać	-2951
ric	-2952
▁Ph	-2953
▁znowu	-2954
▁dzięki	-2955
czymy	-2956
jęcie	-2957
alnie	-2958
▁Um	-2959
▁człowiek	-2960
ników	-2961
▁answer	-2962
pl	-2963
▁Charlie	-2964
▁yours	-2965
▁bas	-2966
▁zło	-2967
▁actually	-2968
enny	-2969
bierz	-2970
nawi	-2971
rison	-2972
▁pamięt	-2973
▁prowa	-2974
▁brought	-2975
ned	-2976
▁Zn	-2977
aniem	-2978
▁swojego	-2979
cię	-2980
isko	-2981
lation	-2982
ające	-2983
▁control	-2984
▁wzią	-2985
▁save	-2986
▁której	-2987
▁pokoju	-2988
▁gdyby	-2989
▁Idź	-2990
▁ship	-2991
▁miejsca	-2992
▁hate	-2993
▁sprawa	-2994
▁trud	-2995
gent	-2996
▁Wygląda	-2997
nął	-2998
▁build	-2999
oda	-3000
▁mas	-3001
▁sing	-3002
▁six	-3003
lity	-3004
▁Bro	-3005
▁pła	-3006
▁kłam	-3007
▁zaję	-3008
działeś	-3009
tyw	-3010
▁deli	-3011
ścić	-3012
▁ojca	-3013
▁wear	-3014
óry	-3015
▁których	-3016
▁Michael	-3017
▁więk	-3018
▁Mor	-3019
▁sama	-3020
ość	-3021
amiętasz	-3022
▁learn	-3023
▁pozost	-3024
▁clear	-3025
▁Tra	-3026
ester	-3027
▁Per	-3028
ury	-3029
rzysz	-3030
nic	-3031
▁ear	-3032
kuje	-3033
stw	-3034
▁ponieważ	-3035
▁Shit	-3036
▁Dlatego	-3037
▁girls	-3038
uro	-3039
wien	-3040
ants	-3041
▁Cie	-3042
▁rid	-3043
▁vis	-3044
▁panu	-3045
▁Słysz	-3046
ese	-3047
▁children	-3048
▁air	-3049
rą	-3050
▁dokład	-3051
omin	-3052
tery	-3053
wali	-3054
▁szef	-3055
▁wspól	-3056
▁słuch	-3057
▁gdzieś	-3058
anę	-3059
▁słysz	-3060
▁Ah	-3061
",	-3062
peł	-3063
▁Prób	-3064
chać	-3065
▁mówię	-3066
▁wed	-3067
▁życiu	-3068
▁lose	-3069
▁swój	-3070
vor	-3071
▁szczęśli	-3072
▁May	-3073
▁ek	-3074
▁shouldn	-3075
owana	-3076
▁Rozumiem	-3077
▁powro	-3078
odob	-3079
▁wit	-3080
rible	-3081
▁vict	-3082
▁En	-3083
czka	-3084
▁fore	-3085
▁nos	-3086
▁leaving	-3087
▁lives	-3088
▁byś	-3089
ched	-3090
▁These	-3091
elu	-3092
▁fall	-3093
cił	-3094
▁wspani	-3095
śnie	-3096
▁chciała	-3097
▁Alex	-3098
▁ła	-3099
▁After	-3100
roni	-3101
bacz	-3102
▁dzieck	-3103
cząt	-3104
▁grand	-3105
▁women	-3106
▁ofi	-3107
▁clean	-3108
▁gener	-3109
▁Uważ	-3110
▁broń	-3111
▁mama	-3112
siąż	-3113
▁Czego	-3114
żdż	-3115
▁trans	-3116
bę	-3117
ts	-3118
aczej	-3119
▁szcz	-3120
▁Bra	-3121
▁Star	-3122
dzieli	-3123
▁parents	-3124
▁zadzwoni	-3125
ls	-3126
▁trzym	-3127
▁pewien	-3128
ones	-3129
ular	-3130
▁wp	-3131
ych	-3132
gani	-3133
▁dział	-3134
of	-3135
uter	-3136
amie	-3137
▁Hen	-3138
▁zgin	-3139
▁Myślałem	-3140
▁Zat	-3141
kom	-3142
▁psych	-3143
▁TH	-3144
▁Jakie	-3145
▁line	-3146
▁kl	-3147
▁record	-3148
wal	-3149
sięcy	-3150
▁Posłuchaj	-3151
▁zostanie	-3152
wart	-3153
▁dinner	-3154
▁słu	-3155
ject	-3156
▁att	-3157
▁human	-3158
▁god	-3159
▁ws	-3160
▁kurwa	-3161
▁sprawę	-3162
▁zaczą	-3163
▁outside	-3164
ately	-3165
róż	-3166
▁order	-3167
▁Ry	-3168
▁bitch	-3169
vin	-3170
▁ukry	-3171
licz	-3172
▁Which	-3173
ownie	-3174
▁hos	-3175
▁pun	-3176
▁dog	-3177
▁comple	-3178
▁brat	-3179
▁sprób	-3180
▁past	-3181
▁exper	-3182
ura	-3183
▁news	-3184
▁sch	-3185
▁pal	-3186
▁wind	-3187
ffe	-3188
▁czemu	-3189
▁numer	-3190
▁Zamk	-3191
▁tech	-3192
▁Ot	-3193
▁50	-3194
▁sick	-3195
▁dać	-3196
▁opu	-3197
▁George	-3198
eniu	-3199
óch	-3200
▁napis	-3201
▁zag	-3202
▁drugie	-3203
▁perfect	-3204
ount	-3205
▁świecie	-3206
▁py	-3207
▁program	-3208
isa	-3209
▁los	-3210
▁również	-3211
▁idiot	-3212
▁czu	-3213
dle	-3214
dziłem	-3215
rani	-3216
▁sen	-3217
▁pien	-3218
▁lik	-3219
gar	-3220
▁czar	-3221
▁goes	-3222
▁report	-3223
óle	-3224
▁protect	-3225
▁Jego	-3226
▁powst	-3227
▁przer	-3228
zd	-3229
▁David	-3230
▁widzę	-3231
▁Lep	-3232
▁pracę	-3233
▁Ali	-3234
▁krzy	-3235
stą	-3236
▁Im	-3237
▁łat	-3238
ham	-3239
▁moc	-3240
▁uni	-3241
▁uwa	-3242
▁asking	-3243
▁rozm	-3244
▁Put	-3245
oy	-3246
uka	-3247
▁świet	-3248
▁koniec	-3249
▁Got	-3250
▁Dost	-3251
▁Przez	-3252
▁honey	-3253
chm	-3254
▁nimi	-3255
▁add	-3256
▁dist	-3257
▁każdy	-3258
▁sim	-3259
▁mem	-3260
▁ści	-3261
▁przyp	-3262
va	-3263
▁less	-3264
▁ozna	-3265
▁sweet	-3266
▁Captain	-3267
▁touch	-3268
▁funny	-3269
▁przysz	-3270
▁Jaki	-3271
▁sum	-3272
▁swojej	-3273
▁Sorry	-3274
▁wart	-3275
arth	-3276
▁krwi	-3277
BI	-3278
▁Zaraz	-3279
▁country	-3280
▁wrócić	-3281
▁powiedz	-3282
▁jedną	-3283
▁bank	-3284
owane	-3285
rence	-3286
ajesz	-3287
▁food	-3288
ród	-3289
▁Sm	-3290
▁Ile	-3291
▁inc	-3292
lient	-3293
czony	-3294
erry	-3295
ater	-3296
ici	-3297
▁cur	-3298
▁Em	-3299
▁drug	-3300
▁wys	-3301
pierw	-3302
NA	-3303
▁pewnie	-3304
▁swoich	-3305
czni	-3306
▁całą	-3307
rót	-3308
anych	-3309
▁strasz	-3310
ację	-3311
▁powiem	-3312
ics	-3313
▁podob	-3314
▁Someone	-3315
▁glad	-3316
▁running	-3317
▁James	-3318
ktor	-3319
▁sus	-3320
▁musiał	-3321
▁skrzy	-3322
▁danger	-3323
▁La	-3324
▁zami	-3325
▁Nasz	-3326
▁city	-3327
ged	-3328
▁Min	-3329
▁cze	-3330
▁diab	-3331
▁feeling	-3332
▁Kocham	-3333
▁Powinien	-3334
▁Nice	-3335
ets	-3336
▁Ind	-3337
▁Widzisz	-3338
▁la	-3339
szyć	-3340
sist	-3341
najmniej	-3342
▁lin	-3343
▁mag	-3344
▁chciałem	-3345
wną	-3346
▁przypad	-3347
▁fut	-3348
▁gro	-3349
▁klu	-3350
▁company	-3351
ologi	-3352
ches	-3353
▁mały	-3354
▁hair	-3355
▁dou	-3356
▁rusz	-3357
▁Dalej	-3358
▁dwie	-3359
bs	-3360
▁skar	-3361
▁strong	-3362
▁hospital	-3363
▁Rich	-3364
▁wyt	-3365
zent	-3366
yle	-3367
▁Świetnie	-3368
▁cont	-3369
▁kont	-3370
▁Ha	-3371
wają	-3372
icer	-3373
rzeba	-3374
▁train	-3375
▁gad	-3376
isk	-3377
▁possible	-3378
▁rano	-3379
▁scared	-3380
szej	-3381
▁kraj	-3382
cią	-3383
nios	-3384
irth	-3385
▁agent	-3386
sol	-3387
▁stan	-3388
niem	-3389
med	-3390
▁Max	-3391
▁hor	-3392
eł	-3393
▁Daw	-3394
kiego	-3395
▁Mike	-3396
▁odpowiedzi	-3397
cin	-3398
▁El	-3399
ient	-3400
▁kart	-3401
▁wiemy	-3402
▁źle	-3403
light	-3404
▁Ray	-3405
▁szpital	-3406
uty	-3407
▁martw	-3408
,"	-3409
▁powiedziała	-3410
kojnie	-3411
▁murder	-3412
▁Par	-3413
▁wczoraj	-3414
▁Żad	-3415
▁explain	-3416
▁hang	-3417
▁himself	-3418
ode	-3419
▁dość	-3420
▁Dzień	-3421
owiad	-3422
▁ide	-3423
owałam	-3424
ita	-3425
▁its	-3426
nce	-3427
▁black	-3428
▁pomyśl	-3429
bec	-3430
▁Twoja	-3431
ciej	-3432
bawi	-3433
▁książ	-3434
▁młod	-3435
▁meeting	-3436
▁expect	-3437
▁kłop	-3438
▁byli	-3439
▁samochód	-3440
▁land	-3441
▁serious	-3442
▁naszej	-3443
śleć	-3444
▁dra	-3445
▁uciek	-3446
▁either	-3447
▁każdym	-3448
▁podczas	-3449
▁promise	-3450
arch	-3451
▁favor	-3452
▁ins	-3453
czyt	-3454
▁Kur	-3455
▁ład	-3456
selves	-3457
▁Jesus	-3458
▁inst	-3459
kogo	-3460
idence	-3461
▁Tutaj	-3462
▁dale	-3463
▁innych	-3464
nością	-3465
▁Mamo	-3466
ortun	-3467
app	-3468
▁zaraz	-3469
▁spę	-3470
dop	-3471
ont	-3472
▁widziałem	-3473
won	-3474
vil	-3475
▁stran	-3476
eniem	-3477
▁Something	-3478
czyłem	-3479
gam	-3480
▁18	-3481
▁From	-3482
▁Ży	-3483
▁Shut	-3484
▁czuję	-3485
▁załat	-3486
▁art	-3487
▁dwóch	-3488
nikiem	-3489
▁Nick	-3490
▁mod	-3491
▁dokładnie	-3492
▁invest	-3493
▁kw	-3494
▁Mary	-3495
▁Lepiej	-3496
jaś	-3497
▁Lea	-3498
▁choice	-3499
IN	-3500
onym	-3501
▁kol	-3502
▁Peter	-3503
▁odej	-3504
▁birth	-3505
▁victim	-3506
bye	-3507
urity	-3508
▁sytu	-3509
ball	-3510
▁Ludzie	-3511
adę	-3512
▁ogóle	-3513
iting	-3514
▁cud	-3515
▁wina	-3516
not	-3517
▁Act	-3518
▁mot	-3519
▁boss	-3520
▁happens	-3521
▁powinniśmy	-3522
oń	-3523
chu	-3524
▁doty	-3525
▁sell	-3526
▁znik	-3527
▁wró	-3528
▁Stra	-3529
▁niczego	-3530
▁pieniędzy	-3531
ON	-3532
czej	-3533
śmie	-3534
▁Miło	-3535
ides	-3536
▁wydaje	-3537
cyz	-3538
cident	-3539
▁poza	-3540
rzuc	-3541
▁special	-3542
▁potrafi	-3543
ena	-3544
▁współ	-3545
▁others	-3546
▁ball	-3547
▁chłopak	-3548
bu	-3549
ino	-3550
▁widzieć	-3551
▁weird	-3552
▁nak	-3553
ee	-3554
▁kidding	-3555
▁Bi	-3556
wasz	-3557
▁Stan	-3558
owałeś	-3559
▁Nobody	-3560
ering	-3561
▁pomocy	-3562
▁gent	-3563
▁prosi	-3564
▁zabój	-3565
▁100	-3566
ats	-3567
▁Mad	-3568
▁chwili	-3569
▁mid	-3570
▁whatever	-3571
▁chodź	-3572
▁tre	-3573
▁weren	-3574
irst	-3575
▁flo	-3576
ertain	-3577
odów	-3578
sive	-3579
▁Sup	-3580
▁działa	-3581
ajmy	-3582
nienia	-3583
▁prawie	-3584
▁zale	-3585
ganiz	-3586
▁sound	-3587
ił	-3588
korzyst	-3589
▁dostać	-3590
▁jednego	-3591
do	-3592
▁park	-3593
wnątrz	-3594
ska	-3595
▁pil	-3596
▁czasie	-3597
▁Chodzi	-3598
cious	-3599
rick	-3600
▁jednak	-3601
▁dor	-3602
▁Moje	-3603
▁dress	-3604
▁przygot	-3605
▁lie	-3606
▁żadnych	-3607
▁Kt	-3608
▁zrobię	-3609
rów	-3610
▁sens	-3611
▁Ponieważ	-3612
AT	-3613
▁throw	-3614
▁FBI	-3615
▁lab	-3616
ju	-3617
▁Henry	-3618
kąd	-3619
libyśmy	-3620
▁począt	-3621
▁welcome	-3622
▁leka	-3623
▁pog	-3624
▁class	-3625
isy	-3626
prawi	-3627
▁million	-3628
▁living	-3629
▁complete	-3630
▁couple	-3631
cemy	-3632
licy	-3633
▁Czekaj	-3634
AR	-3635
▁Oni	-3636
▁Hu	-3637
▁zamierz	-3638
▁jednym	-3639
▁small	-3640
▁Sim	-3641
▁Wow	-3642
▁przeciwko	-3643
raź	-3644
▁sense	-3645
czną	-3646
▁11	-3647
▁dum	-3648
▁zde	-3649
▁blis	-3650
▁dziewczyn	-3651
▁głup	-3652
itch	-3653
▁return	-3654
owod	-3655
▁Dop	-3656
czają	-3657
▁destroy	-3658
ape	-3659
ache	-3660
▁naszego	-3661
▁Szyb	-3662
▁naszych	-3663
▁księ	-3664
▁Paul	-3665
▁cool	-3666
room	-3667
▁idzie	-3668
▁Wo	-3669
akty	-3670
▁drive	-3671
▁kier	-3672
reed	-3673
▁weeks	-3674
dopodob	-3675
▁become	-3676
ogra	-3677
▁prawdę	-3678
cale	-3679
otę	-3680
ience	-3681
▁Pie	-3682
▁Rem	-3683
▁shut	-3684
▁Ze	-3685
cking	-3686
▁jesteście	-3687
▁stole	-3688
▁eye	-3689
▁playing	-3690
łym	-3691
▁niebezpie	-3692
▁talked	-3693
▁niech	-3694
▁X	-3695
▁rozp	-3696
osen	-3697
kań	-3698
andy	-3699
▁taken	-3700
▁mad	-3701
war	-3702
▁anyway	-3703
▁pora	-3704
▁także	-3705
▁matka	-3706
więk	-3707
▁znam	-3708
▁Cal	-3709
net	-3710
▁uder	-3711
▁wanna	-3712
aję	-3713
▁Tro	-3714
lia	-3715
torze	-3716
▁kick	-3717
▁sold	-3718
▁Lou	-3719
ised	-3720
▁prawo	-3721
▁pomoc	-3722
▁dziękuję	-3723
jesz	-3724
▁inne	-3725
▁chcą	-3726
▁mark	-3727
▁gów	-3728
▁zgo	-3729
▁dopóki	-3730
▁pojęcia	-3731
▁pewna	-3732
anawi	-3733
elt	-3734
▁bat	-3735
▁worked	-3736
▁wiedział	-3737
▁więzie	-3738
ros	-3739
▁kiss	-3740
▁Chciałbym	-3741
anego	-3742
acje	-3743
▁Wyd	-3744
▁beat	-3745
▁sou	-3746
▁inny	-3747
▁zwyk	-3748
▁pł	-3749
▁street	-3750
▁finally	-3751
▁dziewczyna	-3752
ief	-3753
▁sądzę	-3754
▁łóż	-3755
irs	-3756
lue	-3757
port	-3758
▁cier	-3759
▁byłeś	-3760
▁komp	-3761
chodzą	-3762
▁future	-3763
▁Ra	-3764
▁Byłem	-3765
▁zj	-3766
vern	-3767
waży	-3768
▁Wsp	-3769
▁treat	-3770
▁powiesz	-3771
▁Pi	-3772
▁cholery	-3773
lish	-3774
▁przep	-3775
▁spend	-3776
▁Obie	-3777
omni	-3778
▁sztu	-3779
rzej	-3780
▁worth	-3781
▁powrotem	-3782
▁lady	-3783
▁oc	-3784
▁Sara	-3785
▁though	-3786
uring	-3787
erze	-3788
▁Tr	-3789
▁prison	-3790
▁powinna	-3791
▁zało	-3792
łumacz	-3793
▁żyć	-3794
▁poznać	-3795
jeżdż	-3796
wiaz	-3797
▁Nazy	-3798
▁hun	-3799
▁poś	-3800
pping	-3801
ujące	-3802
▁lubię	-3803
▁pozwoli	-3804
łud	-3805
▁Zamknij	-3806
nos	-3807
▁śmierć	-3808
liwości	-3809
▁press	-3810
▁imag	-3811
▁wpad	-3812
▁byłam	-3813
uz	-3814
▁Call	-3815
lemen	-3816
▁przepraszam	-3817
▁Pr	-3818
lim	-3819
▁sła	-3820
ution	-3821
▁przyszło	-3822
ysk	-3823
▁kocham	-3824
▁człowieka	-3825
▁Everything	-3826
▁Weź	-3827
▁Hurry	-3828
▁przem	-3829
▁pytanie	-3830
▁całe	-3831
▁Maj	-3832
dzam	-3833
▁kobiety	-3834
▁naszym	-3835
▁zaczę	-3836
▁somewhere	-3837
▁osz	-3838
atychm	-3839
▁Col	-3840
▁potrzebuje	-3841
bor	-3842
atychmiast	-3843
▁Pre	-3844
▁przykro	-3845
ST	-3846
▁surv	-3847
▁boys	-3848
the	-3849
▁stwo	-3850
▁hid	-3851
▁table	-3852
lew	-3853
▁changed	-3854
▁foot	-3855
▁pur	-3856
▁zwie	-3857
dent	-3858
ując	-3859
▁Help	-3860
▁fault	-3861
▁wielu	-3862
▁questions	-3863
▁Mag	-3864
▁opie	-3865
▁Looks	-3866
▁Pu	-3867
▁słowa	-3868
els	-3869
▁dark	-3870
▁sal	-3871
▁ciągle	-3872
▁Sa	-3873
▁oznacza	-3874
▁żart	-3875
▁acc	-3876
▁Actually	-3877
▁Wybacz	-3878
oki	-3879
▁creat	-3880
lad	-3881
▁Cor	-3882
▁Stay	-3883
yer	-3884
▁jakiego	-3885
bers	-3886
▁partner	-3887
OU	-3888
▁ust	-3889
▁jaka	-3890
▁jakim	-3891
▁ważne	-3892
▁sym	-3893
arł	-3894
▁Tato	-3895
▁kawał	-3896
ości	-3897
upeł	-3898
▁parę	-3899
czycie	-3900
▁czymś	-3901
erman	-3902
ern	-3903
cznych	-3904
▁First	-3905
▁sprawie	-3906
unku	-3907
▁Cla	-3908
▁bel	-3909
vo	-3910
ffee	-3911
alu	-3912
▁lau	-3913
▁known	-3914
▁kobieta	-3915
▁głos	-3916
▁dod	-3917
▁macie	-3918
czaj	-3919
▁czujesz	-3920
▁pull	-3921
▁twoich	-3922
▁King	-3923
▁uczu	-3924
▁godziny	-3925
▁urat	-3926
dzię	-3927
▁People	-3928
rost	-3929
▁Very	-3930
łon	-3931
chy	-3932
czeg	-3933
ept	-3934
▁Ros	-3935
▁lunch	-3936
▁świad	-3937
▁ind	-3938
▁ones	-3939
▁zatrzym	-3940
por	-3941
▁cry	-3942
ils	-3943
▁inaczej	-3944
▁date	-3945
▁begin	-3946
acj	-3947
▁kapit	-3948
szedłem	-3949
▁information	-3950
▁pomy	-3951
▁syna	-3952
▁pole	-3953
żeń	-3954
▁Lord	-3955
▁Det	-3956
▁Prac	-3957
imo	-3958
lam	-3959
ryw	-3960
▁tar	-3961
ec	-3962
▁arrest	-3963
▁wyg	-3964
▁znów	-3965
ters	-3966
The	-3967
▁ahead	-3968
▁Ciebie	-3969
▁vo	-3970
▁200	-3971
▁Whatever	-3972
▁mówił	-3973
▁pły	-3974
▁Danie	-3975
▁Isn	-3976
▁podoba	-3977
dzaj	-3978
▁komu	-3979
▁dzwoni	-3980
▁Exactly	-3981
▁terrible	-3982
anym	-3983
▁decyz	-3984
onego	-3985
▁serce	-3986
▁worried	-3987
▁top	-3988
▁step	-3989
▁broke	-3990
▁rodziny	-3991
kin	-3992
▁ner	-3993
▁Gdyby	-3994
▁pojawi	-3995
▁inf	-3996
▁zda	-3997
▁damn	-3998
aste	-3999
▁lek	-4000
orth	-4001
cznego	-4002
▁każdego	-4003
▁Bet	-4004
cznej	-4005
▁Mie	-4006
▁calling	-4007
▁mistake	-4008
akes	-4009
IA	-4010
cing	-4011
▁drogi	-4012
col	-4013
▁rozmawiać	-4014
rzenia	-4015
▁Chodźmy	-4016
▁Twoje	-4017
▁thinks	-4018
▁forgot	-4019
ik	-4020
▁kry	-4021
▁mniej	-4022
bed	-4023
cisz	-4024
▁Poli	-4025
ey	-4026
▁gar	-4027
▁figure	-4028
▁decid	-4029
▁turned	-4030
OR	-4031
rym	-4032
▁ucz	-4033
ison	-4034
▁catch	-4035
▁pogad	-4036
ria	-4037
▁Halo	-4038
▁ciało	-4039
▁zrobiłeś	-4040
▁fu	-4041
▁żona	-4042
▁fix	-4043
▁zapła	-4044
kowi	-4045
▁Everybody	-4046
bardziej	-4047
łych	-4048
ically	-4049
▁dire	-4050
▁potrzebuję	-4051
▁fly	-4052
▁quick	-4053
▁odz	-4054
lot	-4055
▁ludz	-4056
inger	-4057
▁myślałem	-4058
bility	-4059
▁została	-4060
▁words	-4061
▁dziewczyny	-4062
▁Red	-4063
▁attack	-4064
▁kop	-4065
▁Could	-4066
▁Potrzebuję	-4067
vered	-4068
iat	-4069
brać	-4070
▁Oj	-4071
▁kosz	-4072
▁temat	-4073
cket	-4074
pić	-4075
▁Zadz	-4076
▁mówią	-4077
▁takich	-4078
▁kiedykolwiek	-4079
die	-4080
▁istnie	-4081
▁Kom	-4082
▁allow	-4083
eral	-4084
▁twarz	-4085
inal	-4086
▁Zostaw	-4087
▁ref	-4088
▁zabrać	-4089
▁Wol	-4090
▁wło	-4091
▁przes	-4092
niesz	-4093
ession	-4094
▁loved	-4095
▁wst	-4096
▁szczęście	-4097
▁Pozw	-4098
▁adv	-4099
▁szkoły	-4100
▁opp	-4101
niki	-4102
▁Honey	-4103
▁wyda	-4104
▁weap	-4105
fa	-4106
wego	-4107
▁jedna	-4108
▁meant	-4109
ican	-4110
▁przekon	-4111
▁diabła	-4112
▁Di	-4113
▁worse	-4114
▁Amery	-4115
ero	-4116
▁ogląd	-4117
▁pozw	-4118
rey	-4119
▁straight	-4120
▁breat	-4121
idge	-4122
▁złap	-4123
▁choler	-4124
▁cap	-4125
orę	-4126
▁zmi	-4127
▁York	-4128
▁Poz	-4129
▁impre	-4130
▁cold	-4131
▁wyk	-4132
▁Pomyśl	-4133
▁zdoby	-4134
esterday	-4135
▁tat	-4136
▁join	-4137
▁byłoby	-4138
▁maj	-4139
▁evidence	-4140
puszcz	-4141
▁końca	-4142
▁deser	-4143
▁Rus	-4144
▁rather	-4145
wą	-4146
▁brzmi	-4147
▁całkiem	-4148
gen	-4149
icture	-4150
▁Jeżeli	-4151
▁40	-4152
szcie	-4153
adies	-4154
▁quite	-4155
▁Dobry	-4156
rzesz	-4157
▁respon	-4158
▁sprawi	-4159
▁relation	-4160
▁brak	-4161
▁ręce	-4162
▁pen	-4163
▁Zrób	-4164
▁nikogo	-4165
▁Leave	-4166
łoń	-4167
▁felt	-4168
▁głowy	-4169
▁works	-4170
▁box	-4171
▁longer	-4172
▁produ	-4173
▁emp	-4174
▁sta	-4175
▁wysł	-4176
▁zabił	-4177
▁accident	-4178
▁wiadomość	-4179
cimy	-4180
▁looked	-4181
órz	-4182
wiat	-4183
▁rat	-4184
▁movie	-4185
▁drodze	-4186
lla	-4187
skiego	-4188
▁Chciałem	-4189
▁TV	-4190
▁fl	-4191
▁history	-4192
czym	-4193
▁terr	-4194
▁strony	-4195
ciaż	-4196
▁środku	-4197
▁wyjaś	-4198
skiej	-4199
▁lying	-4200
▁Była	-4201
dol	-4202
▁write	-4203
▁właści	-4204
▁Por	-4205
▁otwo	-4206
▁Fe	-4207
▁uk	-4208
▁zes	-4209
▁natu	-4210
▁uwierzyć	-4211
▁picture	-4212
▁piece	-4213
▁Keep	-4214
▁tot	-4215
▁bast	-4216
ander	-4217
▁Wtedy	-4218
▁Właściwie	-4219
rian	-4220
▁red	-4221
▁seems	-4222
samow	-4223
▁obu	-4224
lfriend	-4225
▁wyjść	-4226
spo	-4227
▁zapyt	-4228
cznym	-4229
atak	-4230
▁cam	-4231
▁Każdy	-4232
▁kimś	-4233
ished	-4234
arter	-4235
▁zar	-4236
▁krew	-4237
▁relationship	-4238
▁Patrz	-4239
kasz	-4240
▁Ang	-4241
▁Jane	-4242
▁25	-4243
tor	-4244
▁Turn	-4245
szysz	-4246
▁głów	-4247
▁Będziesz	-4248
▁tato	-4249
▁strzel	-4250
▁naszą	-4251
mas	-4252
▁Bóg	-4253
▁Jimmy	-4254
▁weekend	-4255
▁rand	-4256
kund	-4257
▁daj	-4258
dziła	-4259
▁Miałem	-4260
▁spad	-4261
▁Powiedział	-4262
alent	-4263
▁tył	-4264
roup	-4265
▁gór	-4266
▁miłość	-4267
owaliśmy	-4268
bin	-4269
uation	-4270
▁Mówię	-4271
▁zdecyd	-4272
niejsze	-4273
stairs	-4274
▁somebody	-4275
dzień	-4276
zed	-4277
▁obchodzi	-4278
▁entire	-4279
▁watching	-4280
▁świetnie	-4281
▁smell	-4282
erm	-4283
▁Danny	-4284
▁Da	-4285
▁About	-4286
friend	-4287
▁cell	-4288
▁umy	-4289
uki	-4290
szła	-4291
▁wedding	-4292
inite	-4293
onych	-4294
▁form	-4295
▁las	-4296
upełnie	-4297
iff	-4298
źni	-4299
▁wa	-4300
▁missing	-4301
▁przet	-4302
lbi	-4303
żę	-4304
▁Niez	-4305
▁faj	-4306
▁Wrac	-4307
bieg	-4308
▁Tony	-4309
▁planet	-4310
▁móz	-4311
▁Chwi	-4312
▁nowy	-4313
▁rom	-4314
▁white	-4315
raca	-4316
▁Park	-4317
que	-4318
▁Taa	-4319
▁security	-4320
nio	-4321
zydent	-4322
gor	-4323
▁investig	-4324
▁16	-4325
▁sty	-4326
aps	-4327
▁kola	-4328
▁powinieneś	-4329
ąć	-4330
▁gaz	-4331
▁dance	-4332
▁mąż	-4333
▁decis	-4334
▁powiedziałem	-4335
▁skąd	-4336
bliż	-4337
rok	-4338
▁14	-4339
▁clos	-4340
tact	-4341
▁honest	-4342
▁bądź	-4343
▁decided	-4344
▁grow	-4345
▁taką	-4346
▁wyją	-4347
oto	-4348
enty	-4349
rania	-4350
▁świata	-4351
▁Bu	-4352
pełni	-4353
▁robię	-4354
▁Mark	-4355
▁śle	-4356
▁idź	-4357
▁loc	-4358
prise	-4359
ctions	-4360
▁nasza	-4361
▁lucky	-4362
▁clot	-4363
EN	-4364
azing	-4365
▁chcie	-4366
▁Ant	-4367
▁dolarów	-4368
▁zrozumie	-4369
któ	-4370
▁tamt	-4371
▁giving	-4372
wanie	-4373
▁burn	-4374
▁along	-4375
▁Trzymaj	-4376
▁weź	-4377
▁coffee	-4378
rzał	-4379
▁building	-4380
eace	-4381
rzył	-4382
ift	-4383
▁zwy	-4384
▁zamiar	-4385
wym	-4386
orze	-4387
rzuci	-4388
▁panią	-4389
ama	-4390
▁spoj	-4391
▁nienawi	-4392
niku	-4393
▁Jeden	-4394
▁zrobiłem	-4395
▁Gener	-4396
▁stać	-4397
▁message	-4398
▁cover	-4399
dyn	-4400
▁Sta	-4401
▁Znalaz	-4402
▁bag	-4403
▁certain	-4404
used	-4405
cami	-4406
▁świę	-4407
▁Ostat	-4408
▁pomoże	-4409
anda	-4410
▁pięć	-4411
▁govern	-4412
▁wieczór	-4413
▁Tho	-4414
▁szy	-4415
▁specj	-4416
▁blisko	-4417
▁thanks	-4418
asure	-4419
▁blow	-4420
▁muzy	-4421
ature	-4422
▁Witaj	-4423
▁killer	-4424
▁miasta	-4425
▁Pamiętasz	-4426
ął	-4427
▁jud	-4428
▁Myślałam	-4429
▁stick	-4430
▁dostanie	-4431
atrz	-4432
ronić	-4433
ective	-4434
▁Wiel	-4435
▁Pierw	-4436
rum	-4437
▁najbardziej	-4438
▁Przecież	-4439
▁near	-4440
▁wierzę	-4441
▁Zast	-4442
chodzę	-4443
▁THE	-4444
bit	-4445
ands	-4446
▁Say	-4447
szczy	-4448
alt	-4449
▁Obiec	-4450
▁Witam	-4451
aster	-4452
▁mieli	-4453
▁Harry	-4454
▁innym	-4455
▁cel	-4456
ratul	-4457
▁Będziemy	-4458
▁pozn	-4459
▁plane	-4460
moż	-4461
oku	-4462
wonię	-4463
▁wyob	-4464
▁żadnego	-4465
awać	-4466
ałabym	-4467
▁należy	-4468
czekać	-4469
▁hotel	-4470
▁Pozwól	-4471
▁road	-4472
▁needed	-4473
dopodobnie	-4474
▁wykon	-4475
ilt	-4476
▁żoł	-4477
▁short	-4478
▁Mógł	-4479
dam	-4480
▁camp	-4481
▁takes	-4482
▁Pamięt	-4483
rzeli	-4484
▁hero	-4485
▁Dar	-4486
ased	-4487
▁San	-4488
▁Spe	-4489
olved	-4490
▁hasn	-4491
żył	-4492
bt	-4493
▁prop	-4494
▁Ow	-4495
▁exc	-4496
▁powinienem	-4497
fie	-4498
kej	-4499
▁sekund	-4500
yd	-4501
wych	-4502
▁apartment	-4503
kiej	-4504
▁kie	-4505
▁fr	-4506
▁Father	-4507
▁skoro	-4508
nim	-4509
▁jump	-4510
▁Post	-4511
▁conne	-4512
▁radę	-4513
jechać	-4514
łumaczenie	-4515
▁sun	-4516
▁miałam	-4517
ative	-4518
▁Znaj	-4519
▁dar	-4520
▁squ	-4521
vis	-4522
ges	-4523
iska	-4524
▁Oto	-4525
▁tata	-4526
▁Du	-4527
▁mouth	-4528
giem	-4529
▁Pl	-4530
▁głowę	-4531
▁ślub	-4532
▁poj	-4533
▁samol	-4534
▁stronie	-4535
▁tajem	-4536
▁17	-4537
oma	-4538
▁Pój	-4539
▁żon	-4540
▁moving	-4541
▁człowiekiem	-4542
▁zain	-4543
▁Those	-4544
▁szczeg	-4545
wania	-4546
▁Big	-4547
▁hop	-4548
▁Carl	-4549
▁część	-4550
▁seks	-4551
▁disapp	-4552
▁girlfriend	-4553
ciem	-4554
▁di	-4555
▁dangerous	-4556
▁wall	-4557
▁ruch	-4558
anta	-4559
ider	-4560
▁zabra	-4561
▁powiedziałeś	-4562
set	-4563
▁Raz	-4564
▁Tego	-4565
▁duch	-4566
iego	-4567
▁wieczorem	-4568
pris	-4569
▁przyjem	-4570
▁ban	-4571
▁mach	-4572
▁Nast	-4573
▁możliwe	-4574
▁miesięcy	-4575
▁daleko	-4576
give	-4577
▁esca	-4578
osh	-4579
▁song	-4580
▁szk	-4581
▁tur	-4582
▁situation	-4583
▁uda	-4584
▁miesią	-4585
kop	-4586
kur	-4587
▁kan	-4588
udy	-4589
▁court	-4590
ories	-4591
ring	-4592
▁fan	-4593
▁fell	-4594
ause	-4595
▁wziąć	-4596
initely	-4597
▁pul	-4598
▁War	-4599
▁milion	-4600
▁sometimes	-4601
par	-4602
▁Christmas	-4603
aking	-4604
gadza	-4605
ily	-4606
▁jaj	-4607
▁zewnątrz	-4608
▁gran	-4609
▁Bel	-4610
▁music	-4611
▁Agent	-4612
ald	-4613
▁feet	-4614
▁caught	-4615
▁kaz	-4616
ills	-4617
▁respect	-4618
▁cir	-4619
▁Only	-4620
▁straci	-4621
0.	-4622
▁prezent	-4623
▁spod	-4624
▁everybody	-4625
ages	-4626
▁mamo	-4627
▁eksp	-4628
nieść	-4629
▁Słuch	-4630
▁zła	-4631
con	-4632
▁wiedzą	-4633
▁zapomni	-4634
▁mili	-4635
▁odw	-4636
▁ground	-4637
jdź	-4638
▁ostatnie	-4639
▁oczywiście	-4640
▁Wil	-4641
▁spotkanie	-4642
key	-4643
ists	-4644
jąć	-4645
▁chciałam	-4646
▁voice	-4647
▁odkry	-4648
▁pozy	-4649
▁areszt	-4650
stead	-4651
▁smart	-4652
▁widzisz	-4653
▁Jen	-4654
wood	-4655
▁anim	-4656
▁Three	-4657
▁Sometimes	-4658
▁birthday	-4659
▁zobaczenia	-4660
▁ed	-4661
▁mówiłem	-4662
▁Remember	-4663
iona	-4664
ładnie	-4665
▁screw	-4666
woł	-4667
▁mention	-4668
▁yesterday	-4669
▁ve	-4670
▁Też	-4671
▁pójść	-4672
▁rodzaj	-4673
kować	-4674
▁bull	-4675
▁cokolwiek	-4676
▁jeżeli	-4677
▁Fin	-4678
▁rób	-4679
ający	-4680
▁Richard	-4681
▁Kochanie	-4682
sc	-4683
▁doll	-4684
nienie	-4685
▁Widzę	-4686
omi	-4687
▁cross	-4688
▁wyjąt	-4689
▁wszystkiego	-4690
słu	-4691
▁mater	-4692
ured	-4693
▁poczu	-4694
▁Kat	-4695
▁cond	-4696
▁zostało	-4697
▁bath	-4698
▁window	-4699
nica	-4700
cał	-4701
▁zły	-4702
▁gwiaz	-4703
ully	-4704
▁Uwie	-4705
itor	-4706
ila	-4707
▁Potem	-4708
▁exam	-4709
▁present	-4710
▁Kar	-4711
▁pracować	-4712
▁dziwne	-4713
ational	-4714
▁bother	-4715
▁cost	-4716
▁mogli	-4717
▁cat	-4718
▁cop	-4719
rag	-4720
▁pis	-4721
▁zrobisz	-4722
▁fant	-4723
▁opowie	-4724
▁Trzeba	-4725
OW	-4726
wiz	-4727
ders	-4728
▁wiedziałem	-4729
▁Czuję	-4730
▁Przed	-4731
▁chciałbym	-4732
aga	-4733
▁serca	-4734
me	-4735
hole	-4736
▁Cle	-4737
▁kit	-4738
▁mogłem	-4739
ries	-4740
rzymy	-4741
owiąz	-4742
usa	-4743
▁threat	-4744
▁stopped	-4745
!"	-4746
▁Ted	-4747
▁brain	-4748
▁Zak	-4749
▁Jej	-4750
mar	-4751
▁jas	-4752
▁szansę	-4753
cient	-4754
encie	-4755
stwie	-4756
▁honor	-4757
acjent	-4758
▁Kró	-4759
▁spotkać	-4760
▁szan	-4761
▁Poza	-4762
oo	-4763
lax	-4764
▁rozumiesz	-4765
▁Ange	-4766
▁card	-4767
▁amazing	-4768
pli	-4769
▁szal	-4770
reen	-4771
▁Jake	-4772
▁Den	-4773
rzenie	-4774
▁szkole	-4775
woń	-4776
▁okrop	-4777
ray	-4778
bić	-4779
▁Powiedziałem	-4780
▁obec	-4781
▁port	-4782
spe	-4783
▁ow	-4784
▁wyciąg	-4785
read	-4786
▁zauf	-4787
▁Sprób	-4788
▁broni	-4789
▁zakoń	-4790
▁Kapit	-4791
▁Spokojnie	-4792
▁pieprz	-4793
shit	-4794
ndred	-4795
▁24	-4796
▁anywhere	-4797
prac	-4798
▁sad	-4799
▁bomb	-4800
▁Nadal	-4801
dzt	-4802
czyn	-4803
▁cook	-4804
▁Pier	-4805
▁ring	-4806
czająco	-4807
▁DNA	-4808
▁wod	-4809
▁Grand	-4810
▁złam	-4811
▁czeka	-4812
▁finish	-4813
lisz	-4814
▁Wszystkie	-4815
soko	-4816
▁Hold	-4817
▁natychmiast	-4818
▁More	-4819
▁Idziemy	-4820
▁Bea	-4821
▁dopie	-4822
▁pamiętam	-4823
▁ef	-4824
▁Lub	-4825
▁Super	-4826
dered	-4827
ranoc	-4828
▁Willi	-4829
▁Wasz	-4830
▁hide	-4831
▁myśleć	-4832
czyła	-4833
ważne	-4834
▁Billy	-4835
▁pomog	-4836
▁middle	-4837
▁robota	-4838
▁clothes	-4839
▁ciała	-4840
reci	-4841
ament	-4842
ieni	-4843
oper	-4844
▁zesz	-4845
▁krę	-4846
▁kontro	-4847
ęd	-4848
bur	-4849
▁vi	-4850
▁zim	-4851
▁Steve	-4852
ługo	-4853
irt	-4854
▁chick	-4855
▁późno	-4856
bel	-4857
▁handle	-4858
łego	-4859
▁sku	-4860
▁sprawdzić	-4861
▁agree	-4862
▁głupi	-4863
siąc	-4864
▁wspólnego	-4865
▁swear	-4866
▁Cy	-4867
▁Sub	-4868
▁Mama	-4869
▁crime	-4870
▁slow	-4871
▁wypadek	-4872
ered	-4873
▁chor	-4874
▁Wystar	-4875
Cause	-4876
▁Rozmawi	-4877
▁ostatnio	-4878
jąc	-4879
▁kam	-4880
▁dopiero	-4881
▁Dokładnie	-4882
▁zawie	-4883
ken	-4884
▁contact	-4885
▁floor	-4886
hen	-4887
▁tymi	-4888
▁przyw	-4889
▁trafi	-4890
▁Mer	-4891
▁peace	-4892
▁pract	-4893
▁Trochę	-4894
▁fair	-4895
działaś	-4896
czona	-4897
▁belong	-4898
▁mieście	-4899
▁imie	-4900
▁prawa	-4901
iom	-4902
alna	-4903
▁Sec	-4904
▁odwie	-4905
▁hey	-4906
anowi	-4907
▁Rick	-4908
▁risk	-4909
▁zabij	-4910
ti	-4911
▁surpris	-4912
▁Zobacz	-4913
▁killing	-4914
ower	-4915
▁uwagę	-4916
▁boyfriend	-4917
▁gang	-4918
cher	-4919
▁aff	-4920
▁poważnie	-4921
▁fat	-4922
▁słowo	-4923
▁buddy	-4924
▁kap	-4925
anka	-4926
▁interested	-4927
stra	-4928
▁czyt	-4929
▁deep	-4930
▁wymy	-4931
▁station	-4932
▁Ud	-4933
▁Szuk	-4934
▁przykład	-4935
▁ryzy	-4936
▁support	-4937
łączyć	-4938
▁div	-4939
▁Skoro	-4940
▁thous	-4941
▁towa	-4942
▁wody	-4943
▁nowe	-4944
▁zwol	-4945
▁steal	-4946
ume	-4947
cially	-4948
table	-4949
ża	-4950
▁sat	-4951
▁ride	-4952
rawi	-4953
▁dear	-4954
▁Tod	-4955
▁Zaj	-4956
▁opin	-4957
▁przek	-4958
▁mówiąc	-4959
▁busy	-4960
ula	-4961
.....	-4962
▁Make	-4963
▁oskar	-4964
sport	-4965
cego	-4966
▁Ziem	-4967
▁wonderful	-4968
▁Ken	-4969
▁Jeff	-4970
▁Er	-4971
miss	-4972
▁Dwa	-4973
▁priv	-4974
▁jasne	-4975
lig	-4976
gą	-4977
▁tick	-4978
▁teach	-4979
▁using	-4980
▁bul	-4981
▁Tran	-4982
▁fool	-4983
▁careful	-4984
▁znasz	-4985
▁sitting	-4986
▁Jezu	-4987
▁mężczyz	-4988
▁Cam	-4989
▁stare	-4990
▁Int	-4991
▁kilku	-4992
▁ojcem	-4993
▁13	-4994
▁gentlemen	-4995
▁wystarczy	-4996
▁kas	-4997
▁zają	-4998
▁charge	-4999
▁Sły	-5000
onel	-5001
▁pokój	-5002
▁given	-5003
łóż	-5004
▁atak	-5005
▁rok	-5006
▁powinno	-5007
▁Med	-5008
▁małżeń	-5009
▁marry	-5010
kat	-5011
▁śpie	-5012
▁organiz	-5013
roud	-5014
szość	-5015
▁cztery	-5016
cep	-5017
▁offer	-5018
▁space	-5019
▁doc	-5020
▁znale	-5021
▁Hon	-5022
▁ofiar	-5023
▁App	-5024
▁Prawda	-5025
dziłam	-5026
4.	-5027
wór	-5028
krót	-5029
▁wejść	-5030
▁problems	-5031
▁nowego	-5032
▁Lee	-5033
▁gorą	-5034
▁Czyli	-5035
▁uz	-5036
▁gło	-5037
▁Oli	-5038
ggest	-5039
▁Never	-5040
▁tired	-5041
▁kept	-5042
▁zrobimy	-5043
▁niesamow	-5044
view	-5045
urch	-5046
ossible	-5047
▁klient	-5048
▁zdjęcie	-5049
▁Mac	-5050
▁całym	-5051
,...	-5052
owało	-5053
▁Damn	-5054
▁ciem	-5055
szeć	-5056
▁chcemy	-5057
▁Pokaż	-5058
▁wearing	-5059
lubi	-5060
▁cre	-5061
▁pust	-5062
▁laugh	-5063
▁bought	-5064
▁pierwsze	-5065
▁completely	-5066
▁Zach	-5067
▁government	-5068
▁głę	-5069
▁ciężko	-5070
ini	-5071
▁pacjent	-5072
ined	-5073
lock	-5074
▁Rusz	-5075
▁udało	-5076
▁nazywa	-5077
▁seeing	-5078
ency	-5079
▁born	-5080
▁paid	-5081
▁simple	-5082
▁zdra	-5083
▁hundred	-5084
▁stri	-5085
IS	-5086
yn	-5087
▁club	-5088
waj	-5089
dziel	-5090
szko	-5091
riage	-5092
▁bł	-5093
▁sort	-5094
▁przyby	-5095
▁suggest	-5096
▁Amy	-5097
▁00.	-5098
▁Try	-5099
▁Boga	-5100
itive	-5101
żą	-5102
oli	-5103
▁forever	-5104
▁ponad	-5105
▁zamknię	-5106
liwość	-5107
tarz	-5108
▁early	-5109
▁neigh	-5110
▁widział	-5111
▁wraż	-5112
▁samot	-5113
▁pozwolić	-5114
▁cóż	-5115
▁Znam	-5116
▁Sit	-5117
van	-5118
▁Adam	-5119
arkoty	-5120
▁grze	-5121
▁odpowied	-5122
▁Nar	-5123
chodzić	-5124
▁śmiesz	-5125
▁rodzina	-5126
▁znać	-5127
mon	-5128
▁Ham	-5129
gust	-5130
▁Mm	-5131
▁sol	-5132
▁coun	-5133
mij	-5134
▁mąd	-5135
▁spać	-5136
▁Earth	-5137
▁zrobiła	-5138
krótce	-5139
▁pamię	-5140
▁Pres	-5141
▁problemy	-5142
▁Ac	-5143
solute	-5144
▁corre	-5145
▁anybody	-5146
ya	-5147
▁zaczyna	-5148
pię	-5149
▁store	-5150
▁wła	-5151
▁reszt	-5152
cas	-5153
▁extra	-5154
▁proper	-5155
tit	-5156
▁dał	-5157
▁nobody	-5158
ures	-5159
▁robią	-5160
ąży	-5161
▁Gar	-5162
▁pyta	-5163
▁saved	-5164
kan	-5165
▁stronę	-5166
▁Bye	-5167
stawie	-5168
▁uf	-5169
▁witness	-5170
chen	-5171
aniale	-5172
▁drunk	-5173
▁Fo	-5174
rzyło	-5175
▁Powiem	-5176
▁złe	-5177
▁cieka	-5178
▁szuka	-5179
▁tydzień	-5180
▁samego	-5181
▁key	-5182
▁wami	-5183
▁missed	-5184
▁najwięk	-5185
▁zależy	-5186
uten	-5187
▁king	-5188
▁amb	-5189
ology	-5190
▁conv	-5191
▁rules	-5192
▁Bl	-5193
▁początku	-5194
▁Thom	-5195
▁rękę	-5196
▁razu	-5197
▁jakąś	-5198
▁field	-5199
▁college	-5200
rząt	-5201
▁bastard	-5202
▁ain	-5203
▁Step	-5204
alni	-5205
kowicie	-5206
▁dowiedzieć	-5207
▁tań	-5208
▁martwi	-5209
▁Sch	-5210
▁geni	-5211
aliz	-5212
▁Wciąż	-5213
▁fam	-5214
chem	-5215
▁usły	-5216
adow	-5217
▁gry	-5218
▁obraz	-5219
▁Ve	-5220
▁self	-5221
▁wpły	-5222
▁brata	-5223
▁pretend	-5224
▁Mówiłem	-5225
oh	-5226
olet	-5227
cl	-5228
▁Kurwa	-5229
▁wake	-5230
▁Chris	-5231
▁Inter	-5232
▁druży	-5233
▁zmienić	-5234
dzać	-5235
ines	-5236
▁public	-5237
▁kości	-5238
▁przyjaciel	-5239
uf	-5240
rot	-5241
▁Didn	-5242
kazy	-5243
▁ć	-5244
▁twi	-5245
ienie	-5246
▁wyba	-5247
▁Jedy	-5248
▁góry	-5249
▁Hmm	-5250
▁Fred	-5251
▁trip	-5252
▁pig	-5253
▁Było	-5254
▁cas	-5255
▁force	-5256
▁rozwiąz	-5257
▁position	-5258
▁prag	-5259
▁kraju	-5260
▁scen	-5261
▁Sarah	-5262
urę	-5263
▁drogę	-5264
▁głowie	-5265
▁jail	-5266
▁jechać	-5267
▁Sher	-5268
iel	-5269
stety	-5270
wała	-5271
▁piss	-5272
▁pic	-5273
▁słod	-5274
▁proud	-5275
▁interesting	-5276
gów	-5277
▁zacząć	-5278
▁bab	-5279
▁Ryan	-5280
▁American	-5281
▁energ	-5282
▁Emi	-5283
łó	-5284
▁spóź	-5285
▁starting	-5286
▁soldier	-5287
▁quiet	-5288
ństwo	-5289
▁drugiej	-5290
▁Son	-5291
▁kra	-5292
▁szale	-5293
▁Kole	-5294
▁freak	-5295
▁strange	-5296
▁punkt	-5297
▁dół	-5298
gii	-5299
▁Ani	-5300
▁Ele	-5301
▁praca	-5302
▁wielki	-5303
enerw	-5304
▁doświad	-5305
pper	-5306
cri	-5307
ciek	-5308
▁suc	-5309
sła	-5310
▁Idę	-5311
▁Mur	-5312
▁zajm	-5313
▁Tłumaczenie	-5314
▁Mal	-5315
tures	-5316
▁roboty	-5317
ień	-5318
▁naz	-5319
oph	-5320
ager	-5321
ideo	-5322
▁cele	-5323
ove	-5324
▁Win	-5325
▁Vict	-5326
aków	-5327
możliwe	-5328
▁samochodu	-5329
het	-5330
▁żołnie	-5331
▁ocze	-5332
▁przeszka	-5333
▁Widziałem	-5334
▁zacznie	-5335
▁wygra	-5336
▁zdjęcia	-5337
cją	-5338
▁wąt	-5339
▁Cieszę	-5340
▁William	-5341
nel	-5342
▁draw	-5343
iony	-5344
kowe	-5345
▁Bur	-5346
▁Słucham	-5347
AL	-5348
jon	-5349
▁tygodni	-5350
AS	-5351
alić	-5352
▁fur	-5353
rzucić	-5354
▁dziewczynę	-5355
▁Robert	-5356
▁pogadać	-5357
▁Ciąg	-5358
ujecie	-5359
▁podejrz	-5360
▁dowód	-5361
▁Johnny	-5362
▁lawyer	-5363
▁Lie	-5364
▁pus	-5365
▁Szybko	-5366
gubi	-5367
irty	-5368
unek	-5369
▁mł	-5370
▁age	-5371
▁ziemi	-5372
haps	-5373
ities	-5374
▁bal	-5375
▁Następ	-5376
▁przyjech	-5377
▁eas	-5378
acher	-5379
nęła	-5380
▁flow	-5381
Nie	-5382
▁Open	-5383
szędzie	-5384
▁angry	-5385
▁idziesz	-5386
▁wykorzyst	-5387
achel	-5388
▁zakład	-5389
▁fighting	-5390
▁president	-5391
odem	-5392
▁Napisy	-5393
ez	-5394
▁Ber	-5395
▁Lar	-5396
▁Black	-5397
▁eight	-5398
▁wieku	-5399
▁gdybym	-5400
▁state	-5401
▁dobrym	-5402
sił	-5403
▁Zrob	-5404
▁Cent	-5405
▁Żeby	-5406
▁appreci	-5407
teres	-5408
▁faceta	-5409
▁piosen	-5410
▁przestęp	-5411
▁Charles	-5412
ior	-5413
▁arri	-5414
▁najpierw	-5415
cker	-5416
..."	-5417
▁mię	-5418
czone	-5419
▁czasem	-5420
2.	-5421
bro	-5422
▁Jednak	-5423
▁żał	-5424
▁visit	-5425
▁decision	-5426
▁Doctor	-5427
▁musie	-5428
▁panowie	-5429
▁twier	-5430
▁zatrzymać	-5431
▁moved	-5432
▁Dobranoc	-5433
▁tygodniu	-5434
▁Rachel	-5435
▁odejść	-5436
▁samolot	-5437
▁personal	-5438
▁Eng	-5439
▁requ	-5440
zę	-5441
▁mała	-5442
gas	-5443
▁spoty	-5444
▁wystarczająco	-5445
▁bli	-5446
▁hurry	-5447
▁weak	-5448
▁ur	-5449
▁Fl	-5450
▁contin	-5451
▁Welcome	-5452
▁suspect	-5453
nieć	-5454
▁narkoty	-5455
▁sli	-5456
arent	-5457
fully	-5458
ejdź	-5459
▁dziecka	-5460
▁miasto	-5461
▁area	-5462
▁Przyj	-5463
▁Anyway	-5464
▁mógłby	-5465
▁equ	-5466
akiem	-5467
▁spent	-5468
▁$1	-5469
▁Sus	-5470
fię	-5471
▁jednej	-5472
▁zamiesz	-5473
owni	-5474
▁gold	-5475
▁wskaz	-5476
▁wiadomości	-5477
▁during	-5478
▁walczyć	-5479
▁Uważaj	-5480
▁gó	-5481
▁commit	-5482
▁ję	-5483
ędzi	-5484
▁raczej	-5485
▁sounds	-5486
utenant	-5487
▁Jul	-5488
▁Move	-5489
iver	-5490
▁Daniel	-5491
▁ext	-5492
▁poch	-5493
acie	-5494
▁zbrod	-5495
▁policji	-5496
▁samym	-5497
▁przeszło	-5498
▁YOU	-5499
▁seconds	-5500
▁definitely	-5501
hood	-5502
▁admit	-5503
▁rodzinę	-5504
▁wyglądasz	-5505
joy	-5506
▁glass	-5507
siąg	-5508
▁Dor	-5509
▁zapew	-5510
▁pozwól	-5511
▁osób	-5512
▁group	-5513
▁kłopoty	-5514
▁przeraż	-5515
▁Eddie	-5516
▁radio	-5517
▁seven	-5518
▁Spot	-5519
▁calm	-5520
▁Tę	-5521
ówki	-5522
gr	-5523
▁doj	-5524
▁ź	-5525
cjon	-5526
"...	-5527
▁jakoś	-5528
▁prosto	-5529
▁gotowy	-5530
adaj	-5531
▁Anything	-5532
▁scene	-5533
▁Dou	-5534
▁robimy	-5535
jekt	-5536
night	-5537
▁przedstawi	-5538
▁poprosi	-5539
oud	-5540
▁poor	-5541
▁przynajmniej	-5542
▁małe	-5543
▁Everyone	-5544
aly	-5545
▁oto	-5546
▁bullet	-5547
af	-5548
▁obv	-5549
▁wez	-5550
▁cała	-5551
▁pokazać	-5552
▁papie	-5553
azd	-5554
▁ciągu	-5555
▁rzeczywi	-5556
ging	-5557
▁Mil	-5558
▁Rom	-5559
▁till	-5560
▁paper	-5561
▁matki	-5562
▁trzymać	-5563
▁okazji	-5564
▁cops	-5565
▁Wystarczy	-5566
▁Since	-5567
▁połud	-5568
▁sn	-5569
jemu	-5570
▁mer	-5571
▁expl	-5572
▁kump	-5573
lls	-5574
nił	-5575
ówić	-5576
stru	-5577
▁obok	-5578
ye	-5579
▁Okej	-5580
łuma	-5581
rywat	-5582
▁rząd	-5583
▁soul	-5584
fortun	-5585
solutely	-5586
▁Scott	-5587
rócić	-5588
▁patient	-5589
komu	-5590
▁cust	-5591
ai	-5592
▁kos	-5593
▁wojs	-5594
▁Think	-5595
▁Tommy	-5596
▁apart	-5597
RE	-5598
▁dos	-5599
szedłeś	-5600
▁przeprowa	-5601
CH	-5602
▁er	-5603
ording	-5604
▁Sat	-5605
ners	-5606
▁Tym	-5607
▁Bobby	-5608
▁service	-5609
▁zauważy	-5610
▁..	-5611
▁drop	-5612
▁górę	-5613
▁powi	-5614
wałem	-5615
jny	-5616
▁prove	-5617
▁broken	-5618
▁skarbie	-5619
▁pocz	-5620
▁byłaś	-5621
▁otwart	-5622
nis	-5623
▁attention	-5624
▁dok	-5625
▁Zab	-5626
▁Kore	-5627
▁bohat	-5628
▁bawi	-5629
▁board	-5630
titles	-5631
▁involved	-5632
▁Chłop	-5633
▁podróż	-5634
▁dec	-5635
ujcie	-5636
▁sake	-5637
▁sklep	-5638
▁powinnam	-5639
▁Odp	-5640
skim	-5641
▁arty	-5642
field	-5643
▁smut	-5644
▁doubt	-5645
gy	-5646
▁writ	-5647
▁Watch	-5648
▁liked	-5649
rony	-5650
▁rock	-5651
▁pociąg	-5652
▁Jako	-5653
▁osobą	-5654
▁realize	-5655
▁telewiz	-5656
▁ponownie	-5657
ots	-5658
▁pójdę	-5659
▁podpis	-5660
appy	-5661
▁byliśmy	-5662
▁przecież	-5663
wej	-5664
inie	-5665
▁kre	-5666
▁West	-5667
▁suit	-5668
▁przew	-5669
bij	-5670
▁col	-5671
▁sud	-5672
▁Kate	-5673
▁Zrozum	-5674
omy	-5675
▁calls	-5676
▁godzinę	-5677
hor	-5678
▁cen	-5679
▁sądzisz	-5680
▁zostawić	-5681
praw	-5682
▁jad	-5683
▁likes	-5684
▁zobaczy	-5685
▁White	-5686
▁możecie	-5687
▁historii	-5688
rif	-5689
year	-5690
▁Ter	-5691
▁Bądź	-5692
urze	-5693
time	-5694
▁Dokąd	-5695
▁obiec	-5696
▁accept	-5697
▁przeży	-5698
▁base	-5699
ived	-5700
lace	-5701
▁chcecie	-5702
▁pregn	-5703
▁Gdybym	-5704
5.	-5705
onu	-5706
▁poży	-5707
▁fla	-5708
▁doku	-5709
▁kuch	-5710
▁jakiegoś	-5711
▁Powinieneś	-5712
▁miłości	-5713
▁męża	-5714
▁wspom	-5715
▁TO	-5716
▁Jess	-5717
▁stru	-5718
▁chwil	-5719
▁standing	-5720
▁błę	-5721
▁Tim	-5722
▁share	-5723
▁gen	-5724
ments	-5725
▁Trzy	-5726
▁rady	-5727
▁Zas	-5728
▁sudden	-5729
wen	-5730
▁obo	-5731
▁cause	-5732
▁dying	-5733
▁rozumie	-5734
▁fired	-5735
esty	-5736
▁Van	-5737
stwem	-5738
▁remind	-5739
▁fund	-5740
▁Should	-5741
▁nazwisko	-5742
ints	-5743
obi	-5744
▁Zaczekaj	-5745
anty	-5746
ciel	-5747
▁urodzin	-5748
▁zastanawi	-5749
▁Kon	-5750
▁cow	-5751
▁idę	-5752
▁mal	-5753
ira	-5754
▁błąd	-5755
▁zrób	-5756
▁Skoń	-5757
szcza	-5758
▁gard	-5759
▁Before	-5760
pią	-5761
▁choć	-5762
▁poł	-5763
▁podd	-5764
▁koszt	-5765
▁kupić	-5766
▁mógłbym	-5767
▁surprise	-5768
▁Naz	-5769
▁natural	-5770
▁Poczekaj	-5771
noc	-5772
▁ocz	-5773
▁Zabierz	-5774
LE	-5775
łączy	-5776
▁fed	-5777
▁grab	-5778
▁społe	-5779
▁środka	-5780
▁Byłam	-5781
▁upset	-5782
▁Daddy	-5783
▁happening	-5784
▁Dep	-5785
▁driving	-5786
▁Ron	-5787
▁czekać	-5788
▁mało	-5789
▁hiding	-5790
▁Seriously	-5791
ongratul	-5792
▁obej	-5793
▁evening	-5794
zer	-5795
cisk	-5796
▁spodzie	-5797
ford	-5798
▁Carol	-5799
▁czerw	-5800
▁search	-5801
▁zainteres	-5802
▁Przynajmniej	-5803
▁shall	-5804
▁talent	-5805
▁convers	-5806
adź	-5807
▁detek	-5808
▁trzech	-5809
▁Znasz	-5810
▁demon	-5811
▁mission	-5812
▁dłużej	-5813
▁potwier	-5814
▁student	-5815
▁zdrow	-5816
aret	-5817
▁miało	-5818
▁ice	-5819
▁recog	-5820
▁sprowa	-5821
▁Prof	-5822
▁zajmie	-5823
▁dig	-5824
owałaś	-5825
▁oraz	-5826
▁Dziś	-5827
▁Brian	-5828
▁Podob	-5829
▁potrzebujesz	-5830
rzeg	-5831
▁Najpierw	-5832
dziłeś	-5833
▁zadzwonić	-5834
▁zupełnie	-5835
oła	-5836
▁złego	-5837
▁Mel	-5838
▁et	-5839
▁Jap	-5840
▁Kup	-5841
▁niewin	-5842
▁America	-5843
ulous	-5844
▁pracuje	-5845
▁Jutro	-5846
▁disco	-5847
▁Słyszałem	-5848
▁Cał	-5849
▁Sie	-5850
▁listening	-5851
ids	-5852
iling	-5853
▁rodzice	-5854
cuss	-5855
▁skin	-5856
isiej	-5857
▁fear	-5858
▁Jan	-5859
▁powiet	-5860
wyczaj	-5861
▁imagine	-5862
▁łatwo	-5863
▁zakoch	-5864
ops	-5865
ształ	-5866
▁army	-5867
▁Racja	-5868
ality	-5869
zo	-5870
nnie	-5871
▁Kell	-5872
▁Miał	-5873
▁części	-5874
▁spróbować	-5875
▁Wed	-5876
esome	-5877
▁powinnaś	-5878
house	-5879
▁Anna	-5880
▁Chin	-5881
▁dzieckiem	-5882
ms	-5883
lepiej	-5884
ountain	-5885
▁widzenia	-5886
▁Macie	-5887
▁carry	-5888
▁przestań	-5889
▁exist	-5890
▁córka	-5891
1.	-5892
▁Bes	-5893
▁droga	-5894
▁posiad	-5895
line	-5896
▁sąd	-5897
▁typ	-5898
▁instead	-5899
▁niespo	-5900
poko	-5901
▁vir	-5902
▁drze	-5903
▁prywat	-5904
▁rozkaz	-5905
▁difference	-5906
▁mov	-5907
▁trakt	-5908
▁wybuch	-5909
ryt	-5910
▁sko	-5911
▁boat	-5912
łka	-5913
dzieliśmy	-5914
arently	-5915
▁takiej	-5916
świe	-5917
▁letter	-5918
vous	-5919
▁ble	-5920
▁Run	-5921
▁Wor	-5922
▁zdol	-5923
▁widziałam	-5924
rzyj	-5925
▁Dy	-5926
work	-5927
▁private	-5928
▁nast	-5929
▁Eric	-5930
▁czuje	-5931
wij	-5932
▁kor	-5933
▁seksu	-5934
▁seat	-5935
▁prezydent	-5936
▁obi	-5937
▁miles	-5938
▁Dru	-5939
▁eld	-5940
▁dziewczyną	-5941
bert	-5942
▁lived	-5943
▁myślałam	-5944
▁Powinniśmy	-5945
.,	-5946
▁Jor	-5947
▁gift	-5948
▁uczy	-5949
▁niczym	-5950
▁stuck	-5951
▁concer	-5952
cach	-5953
▁Odd	-5954
vi	-5955
▁ub	-5956
niemy	-5957
▁właściwie	-5958
▁dodat	-5959
▁wrócę	-5960
▁Jesteście	-5961
▁fish	-5962
▁drugs	-5963
owani	-5964
▁High	-5965
▁ident	-5966
▁loves	-5967
wórz	-5968
gue	-5969
▁Bud	-5970
ressed	-5971
▁jedynie	-5972
▁Któ	-5973
▁surprised	-5974
▁powód	-5975
lyn	-5976
ware	-5977
tów	-5978
▁leci	-5979
▁nagle	-5980
▁sport	-5981
▁hom	-5982
▁Wiecie	-5983
▁jakiej	-5984
▁showed	-5985
▁Victor	-5986
▁cla	-5987
andon	-5988
▁wrote	-5989
▁English	-5990
tract	-5991
▁Dave	-5992
host	-5993
kowy	-5994
▁Lind	-5995
▁musiała	-5996
niejszy	-5997
znes	-5998
▁Vin	-5999
▁neck	-6000
▁rece	-6001
▁machine	-6002
▁wzgl	-6003
las	-6004
▁Besides	-6005
▁żonę	-6006
ods	-6007
▁ju	-6008
▁przekaz	-6009
▁szpitala	-6010
amin	-6011
▁appro	-6012
▁har	-6013
▁koleś	-6014
▁zająć	-6015
▁maszy	-6016
▁Street	-6017
arz	-6018
▁pokon	-6019
▁kontrol	-6020
▁gas	-6021
▁wzię	-6022
▁kobietą	-6023
▁przesłuch	-6024
dźmi	-6025
▁cannot	-6026
▁feelings	-6027
sey	-6028
▁vill	-6029
OM	-6030
godnie	-6031
▁żadnej	-6032
ico	-6033
iled	-6034
▁defend	-6035
▁Goodbye	-6036
cide	-6037
rowie	-6038
▁Aren	-6039
▁officer	-6040
▁pewnością	-6041
▁całkowicie	-6042
rer	-6043
ING	-6044
łkow	-6045
▁buck	-6046
▁znajd	-6047
▁Wz	-6048
▁Emily	-6049
▁ludźmi	-6050
▁City	-6051
▁spir	-6052
▁Sho	-6053
▁pictures	-6054
lej	-6055
gest	-6056
▁chociaż	-6057
▁Juli	-6058
▁named	-6059
reszcie	-6060
▁appreciate	-6061
▁Pomo	-6062
▁sac	-6063
▁Mother	-6064
IT	-6065
▁Wydaje	-6066
▁mieliśmy	-6067
ij	-6068
alem	-6069
vy	-6070
ston	-6071
▁Ciągle	-6072
▁dan	-6073
▁Sama	-6074
▁szac	-6075
▁ochron	-6076
▁General	-6077
▁historia	-6078
▁glin	-6079
▁heal	-6080
▁Chciałam	-6081
▁pamiętasz	-6082
▁choose	-6083
▁Walter	-6084
▁profes	-6085
▁twarzy	-6086
▁Sze	-6087
▁guard	-6088
▁umiera	-6089
ienia	-6090
▁drugi	-6091
▁favorite	-6092
▁Rog	-6093
rench	-6094
▁Lubię	-6095
▁poziom	-6096
▁zwycię	-6097
▁Czyż	-6098
▁uderzy	-6099
▁słoń	-6100
▁marriage	-6101
rap	-6102
▁ski	-6103
chodzisz	-6104
czeństwa	-6105
▁Zostawi	-6106
▁Ga	-6107
rzeń	-6108
▁Los	-6109
▁shoes	-6110
▁hungry	-6111
▁Czasami	-6112
▁Cały	-6113
▁Sw	-6114
▁Grace	-6115
▁ulicy	-6116
▁suff	-6117
ns	-6118
▁worst	-6119
▁najlepszy	-6120
łoży	-6121
▁Next	-6122
▁idziemy	-6123
▁computer	-6124
dom	-6125
▁hi	-6126
▁kul	-6127
▁farm	-6128
nar	-6129
▁main	-6130
▁doktor	-6131
▁miałeś	-6132
▁bla	-6133
▁beer	-6134
▁guest	-6135
▁przyjacielem	-6136
uts	-6137
▁młody	-6138
▁ladies	-6139
▁result	-6140
▁wychodzi	-6141
nes	-6142
otogra	-6143
▁skrzyw	-6144
łoż	-6145
▁Ir	-6146
▁ka	-6147
▁zrozumi	-6148
▁inni	-6149
▁ślad	-6150
AM	-6151
gaż	-6152
han	-6153
▁Rz	-6154
▁poż	-6155
▁bullshit	-6156
▁przyjdzie	-6157
▁Matt	-6158
▁Subtitles	-6159
▁Off	-6160
▁joke	-6161
abin	-6162
▁skur	-6163
▁kidna	-6164
▁pytania	-6165
cip	-6166
▁wondering	-6167
ify	-6168
▁Eli	-6169
▁owe	-6170
oking	-6171
łopie	-6172
▁address	-6173
iche	-6174
ruch	-6175
▁Trans	-6176
eared	-6177
▁horse	-6178
znać	-6179
gery	-6180
mos	-6181
usie	-6182
cznij	-6183
▁zaatak	-6184
▁ludziom	-6185
▁Mówisz	-6186
▁single	-6187
▁prawdziwe	-6188
▁śni	-6189
▁Hall	-6190
▁Kyle	-6191
▁Clark	-6192
▁techn	-6193
kam	-6194
urs	-6195
▁języ	-6196
mission	-6197
▁obowiąz	-6198
▁przysię	-6199
▁siostra	-6200
▁dź	-6201
mond	-6202
aven	-6203
▁usually	-6204
▁Once	-6205
▁osobist	-6206
▁promised	-6207
essor	-6208
▁mę	-6209
bing	-6210
▁finger	-6211
▁impossible	-6212
▁rek	-6213
▁evil	-6214
alnego	-6215
▁osiąg	-6216
▁lubisz	-6217
eter	-6218
iced	-6219
▁niebie	-6220
wę	-6221
▁Rep	-6222
▁third	-6223
rzut	-6224
athan	-6225
▁gotowa	-6226
▁forward	-6227
▁beginning	-6228
▁Martin	-6229
▁Zmie	-6230
nocent	-6231
▁niepraw	-6232
łodzi	-6233
▁target	-6234
▁Dom	-6235
▁fal	-6236
▁ulubi	-6237
▁umrzeć	-6238
▁bieg	-6239
▁tysięcy	-6240
▁helping	-6241
łów	-6242
▁wybra	-6243
bat	-6244
resh	-6245
▁pracow	-6246
▁Cra	-6247
▁diffic	-6248
▁asshole	-6249
▁figured	-6250
luz	-6251
▁Lit	-6252
anej	-6253
rely	-6254
▁suk	-6255
▁Wcz	-6256
▁dostęp	-6257
okół	-6258
▁głupie	-6259
▁Lieutenant	-6260
▁Lin	-6261
odzenia	-6262
▁oskarż	-6263
▁policj	-6264
▁imm	-6265
▁Jaka	-6266
▁Żart	-6267
▁learned	-6268
szta	-6269
▁kłopot	-6270
rwa	-6271
▁Ash	-6272
▁Zgadza	-6273
▁przemy	-6274
▁teacher	-6275
▁jakaś	-6276
▁rozpo	-6277
▁across	-6278
wamy	-6279
▁Bon	-6280
▁pozby	-6281
▁zamiast	-6282
▁gay	-6283
▁kno	-6284
▁often	-6285
▁Bie	-6286
▁locked	-6287
sko	-6288
▁włosy	-6289
▁istnieje	-6290
▁przyszedł	-6291
icide	-6292
ierż	-6293
▁est	-6294
▁zech	-6295
▁level	-6296
▁necess	-6297
łej	-6298
▁Thomas	-6299
▁sla	-6300
▁wku	-6301
▁piek	-6302
▁budyn	-6303
▁enemy	-6304
▁staying	-6305
wyż	-6306
▁pers	-6307
▁robił	-6308
icj	-6309
▁człowieku	-6310
▁przyjaciółmi	-6311
otion	-6312
▁ostroż	-6313
▁band	-6314
▁chłopaki	-6315
ską	-6316
skich	-6317
▁daje	-6318
▁Serio	-6319
▁Jason	-6320
yal	-6321
▁blue	-6322
chodź	-6323
▁Ready	-6324
▁klucz	-6325
▁Mnie	-6326
▁conversation	-6327
▁led	-6328
▁magic	-6329
nó	-6330
erk	-6331
ilty	-6332
▁wiecie	-6333
▁Wyglądasz	-6334
▁jaz	-6335
ism	-6336
▁Detective	-6337
▁¶	-6338
▁zmę	-6339
litary	-6340
▁Miesz	-6341
▁muszą	-6342
▁będziecie	-6343
▁Kil	-6344
▁obiad	-6345
▁osoba	-6346
ongratulations	-6347
▁komple	-6348
unki	-6349
▁sami	-6350
▁host	-6351
iłem	-6352
▁wcale	-6353
▁Być	-6354
▁Jac	-6355
▁kwest	-6356
▁biznes	-6357
bawiam	-6358
▁pregnant	-6359
▁znaczenia	-6360
▁holding	-6361
aru	-6362
▁statek	-6363
▁cia	-6364
▁piąt	-6365
▁tough	-6366
▁Yo	-6367
▁Jerry	-6368
szenie	-6369
▁Znowu	-6370
▁camera	-6371
▁Josh	-6372
▁tyłu	-6373
▁Świę	-6374
SA	-6375
▁Nat	-6376
ucker	-6377
▁znisz	-6378
▁client	-6379
▁Pra	-6380
▁President	-6381
▁quit	-6382
rog	-6383
▁forgive	-6384
▁Too	-6385
▁study	-6386
jaw	-6387
▁Zw	-6388
▁zachow	-6389
▁discuss	-6390
sów	-6391
▁krót	-6392
aged	-6393
▁bot	-6394
▁apologi	-6395
▁gość	-6396
prawić	-6397
▁grać	-6398
kujemy	-6399
▁panem	-6400
▁Pete	-6401
▁urzą	-6402
szech	-6403
rzyd	-6404
▁Five	-6405
▁insp	-6406
▁hoping	-6407
damn	-6408
▁pomag	-6409
▁wrócił	-6410
nieś	-6411
▁none	-6412
▁Konie	-6413
▁uciec	-6414
▁zniszcz	-6415
▁medy	-6416
miesz	-6417
▁zostały	-6418
▁excuse	-6419
▁powstrzymać	-6420
▁{	-6421
▁pij	-6422
▁orders	-6423
▁recogni	-6424
▁pewny	-6425
▁Del	-6426
▁Luke	-6427
▁sytuacji	-6428
▁Chuck	-6429
▁gówno	-6430
▁porozmawi	-6431
▁układ	-6432
chodzie	-6433
▁przyjść	-6434
▁hy	-6435
▁fit	-6436
▁zmy	-6437
▁Most	-6438
▁człon	-6439
▁przeg	-6440
żni	-6441
▁nogi	-6442
▁uśmie	-6443
3.	-6444
▁doskon	-6445
▁Sil	-6446
▁dokument	-6447
▁Que	-6448
▁kocha	-6449
▁zabie	-6450
▁wyboru	-6451
▁totally	-6452
▁Prawie	-6453
▁Ram	-6454
▁innocent	-6455
▁eg	-6456
▁głod	-6457
▁pory	-6458
▁zapro	-6459
▁przestać	-6460
którzy	-6461
▁Check	-6462
▁Można	-6463
▁bog	-6464
▁Dawaj	-6465
▁upstairs	-6466
▁zre	-6467
▁ang	-6468
▁zrozumieć	-6469
▁załatwi	-6470
lik	-6471
▁dole	-6472
lii	-6473
▁Chry	-6474
liwy	-6475
▁lecz	-6476
▁każdej	-6477
cience	-6478
▁Carter	-6479
pare	-6480
▁rich	-6481
men	-6482
▁dwo	-6483
▁video	-6484
▁Uży	-6485
nąłem	-6486
▁Colonel	-6487
val	-6488
gged	-6489
▁Nieważne	-6490
▁Ach	-6491
onej	-6492
▁Niestety	-6493
▁powiedziałaś	-6494
ining	-6495
▁strze	-6496
wor	-6497
▁Rzu	-6498
▁często	-6499
▁elect	-6500
▁polity	-6501
szel	-6502
▁Doc	-6503
▁Jon	-6504
▁Joey	-6505
▁piękna	-6506
▁powiedziałam	-6507
igdzie	-6508
▁experience	-6509
▁House	-6510
▁udział	-6511
ances	-6512
racji	-6513
▁Sounds	-6514
aliście	-6515
▁Powinna	-6516
▁difficult	-6517
lbiam	-6518
oring	-6519
▁Wyno	-6520
▁zostaw	-6521
▁suppose	-6522
▁znalazł	-6523
▁zapytać	-6524
▁nauczycie	-6525
▁patrz	-6526
obec	-6527
▁spokoju	-6528
▁towarzy	-6529
▁crim	-6530
▁służ	-6531
▁żoną	-6532
▁blame	-6533
▁Pal	-6534
▁Phil	-6535
▁dump	-6536
▁synu	-6537
▁asleep	-6538
▁mieszka	-6539
▁Probably	-6540
▁piz	-6541
geant	-6542
niejsza	-6543
▁dreams	-6544
▁Wró	-6545
▁radi	-6546
▁Poważ	-6547
▁Popatrz	-6548
ED	-6549
▁ben	-6550
▁dirty	-6551
▁dziad	-6552
▁gości	-6553
▁truck	-6554
▁informacje	-6555
▁kolację	-6556
cki	-6557
mile	-6558
▁cos	-6559
▁decide	-6560
▁kni	-6561
▁gościa	-6562
▁memory	-6563
▁trudne	-6564
▁sleeping	-6565
▁themselves	-6566
▁pad	-6567
▁Show	-6568
▁dzisiej	-6569
nować	-6570
▁Claire	-6571
▁obserw	-6572
▁słyszałem	-6573
gno	-6574
ible	-6575
▁mocy	-6576
▁kierow	-6577
▁Kogo	-6578
▁Over	-6579
list	-6580
▁chę	-6581
▁ogrom	-6582
▁Rose	-6583
▁wizy	-6584
▁Uciek	-6585
▁labor	-6586
▁Miałam	-6587
▁bathroom	-6588
▁wiedziałam	-6589
dzony	-6590
ville	-6591
▁samej	-6592
eks	-6593
▁Nowy	-6594
▁Uncle	-6595
▁helped	-6596
illy	-6597
▁Han	-6598
▁doprowa	-6599
ito	-6600
rak	-6601
omnij	-6602
▁Except	-6603
iew	-6604
wid	-6605
asie	-6606
rass	-6607
▁gdybyś	-6608
▁wracać	-6609
▁Os	-6610
rant	-6611
▁poko	-6612
▁Trzym	-6613
▁Cokolwiek	-6614
▁Widziałeś	-6615
▁potrzebujemy	-6616
▁21	-6617
well	-6618
▁opt	-6619
atora	-6620
▁dare	-6621
▁feed	-6622
▁udowod	-6623
▁weapon	-6624
▁champ	-6625
▁żebyśmy	-6626
wise	-6627
▁Has	-6628
▁wolno	-6629
tel	-6630
alnym	-6631
puści	-6632
▁osoby	-6633
fast	-6634
▁dokon	-6635
▁nieźle	-6636
▁account	-6637
▁deserve	-6638
▁Chciałabym	-6639
▁Leo	-6640
▁Holly	-6641
▁scream	-6642
▁własne	-6643
piesz	-6644
atorium	-6645
▁cholera	-6646
▁wine	-6647
▁neighbor	-6648
▁Og	-6649
▁wydost	-6650
▁pack	-6651
▁odzys	-6652
▁¿	-6653
rut	-6654
▁Lau	-6655
usza	-6656
▁opportun	-6657
ida	-6658
gers	-6659
▁Jer	-6660
▁Spróbuj	-6661
▁rodziców	-6662
▁medic	-6663
▁adres	-6664
▁dobrego	-6665
puść	-6666
▁kot	-6667
▁Robin	-6668
alność	-6669
▁bigger	-6670
▁Were	-6671
▁Rozumiesz	-6672
▁więzienia	-6673
▁punk	-6674
▁blind	-6675
iculous	-6676
▁Ru	-6677
▁Dude	-6678
cof	-6679
▁Euro	-6680
▁sensu	-6681
▁Sen	-6682
▁alarm	-6683
▁Four	-6684
▁zmar	-6685
▁żony	-6686
hol	-6687
▁Holy	-6688
▁tree	-6689
▁drin	-6690
▁sob	-6691
arcie	-6692
AC	-6693
pisz	-6694
▁match	-6695
sibility	-6696
▁popełni	-6697
▁survive	-6698
▁Kare	-6699
▁parking	-6700
ału	-6701
▁low	-6702
pected	-6703
▁Lubi	-6704
▁pójdzie	-6705
▁Zo	-6706
verse	-6707
▁bird	-6708
▁reach	-6709
ech	-6710
itz	-6711
▁60	-6712
▁wysp	-6713
nóstwo	-6714
▁common	-6715
cean	-6716
lenie	-6717
▁duże	-6718
▁tygodnie	-6719
medi	-6720
▁Byłeś	-6721
▁drinking	-6722
▁sle	-6723
▁acting	-6724
▁zwierzę	-6725
▁Uni	-6726
nętrz	-6727
▁warm	-6728
▁wprowa	-6729
▁Dos	-6730
ujący	-6731
▁walki	-6732
▁French	-6733
▁pierwszym	-6734
zyn	-6735
reng	-6736
▁Jas	-6737
▁stos	-6738
▁PR	-6739
▁names	-6740
▁pytań	-6741
▁wdzię	-6742
icago	-6743
▁Pana	-6744
▁deta	-6745
▁wasze	-6746
▁guilty	-6747
▁częścią	-6748
OD	-6749
▁Nied	-6750
▁hotelu	-6751
▁sekret	-6752
▁pił	-6753
▁Dzieci	-6754
▁focus	-6755
ror	-6756
▁putting	-6757
▁jedzenie	-6758
▁niemożliwe	-6759
cel	-6760
▁lied	-6761
cky	-6762
▁proste	-6763
▁Przygot	-6764
50	-6765
how	-6766
▁Jud	-6767
▁moi	-6768
rasz	-6769
▁wieści	-6770
▁skład	-6771
▁Stary	-6772
▁effect	-6773
▁darling	-6774
▁track	-6775
tern	-6776
▁dick	-6777
▁kost	-6778
▁zagin	-6779
▁picked	-6780
▁wielkie	-6781
▁wszędzie	-6782
▁Człowie	-6783
zion	-6784
▁Kill	-6785
▁access	-6786
▁kontakt	-6787
▁najgor	-6788
▁sl	-6789
vent	-6790
▁Kiedyś	-6791
tynu	-6792
▁cute	-6793
▁zasko	-6794
▁Ca	-6795
▁biura	-6796
▁judge	-6797
cieć	-6798
▁Ich	-6799
roszę	-6800
▁tęsk	-6801
▁kobietę	-6802
▁pleasure	-6803
came	-6804
▁bos	-6805
▁embar	-6806
▁Chicago	-6807
tę	-6808
▁Ład	-6809
▁otrzym	-6810
▁Hol	-6811
▁Wróci	-6812
▁kro	-6813
▁ukrad	-6814
▁Brzmi	-6815
▁stawi	-6816
▁except	-6817
aler	-6818
każe	-6819
▁facetem	-6820
▁policję	-6821
▁Time	-6822
▁Zało	-6823
▁Kevin	-6824
▁Shall	-6825
▁pants	-6826
▁energy	-6827
▁szukać	-6828
▁związku	-6829
▁Szk	-6830
▁Paris	-6831
owano	-6832
ściem	-6833
lok	-6834
▁Nienawi	-6835
▁van	-6836
▁Jorku	-6837
▁około	-6838
▁najlepiej	-6839
▁duży	-6840
void	-6841
▁nervous	-6842
▁najlepsze	-6843
leci	-6844
▁Pomóż	-6845
▁szansa	-6846
▁mężczyzna	-6847
▁zamierzam	-6848
▁Nag	-6849
▁Last	-6850
▁komór	-6851
▁oh	-6852
obój	-6853
ument	-6854
IC	-6855
▁hole	-6856
▁spyt	-6857
▁enjoy	-6858
▁church	-6859
▁fucked	-6860
san	-6861
inted	-6862
▁zbliż	-6863
▁immedi	-6864
▁chłopcy	-6865
▁Brit	-6866
▁Zanim	-6867
▁Koniec	-6868
▁losing	-6869
wem	-6870
▁poison	-6871
leczkę	-6872
▁Rad	-6873
▁aud	-6874
▁mani	-6875
fortunately	-6876
▁akt	-6877
fortable	-6878
celle	-6879
▁oku	-6880
▁file	-6881
▁sześć	-6882
▁confir	-6883
iedem	-6884
▁nową	-6885
▁unik	-6886
alifor	-6887
▁model	-6888
▁became	-6889
▁Zrozumi	-6890
cil	-6891
▁bunch	-6892
▁pulled	-6893
▁Imp	-6894
▁McC	-6895
▁cred	-6896
▁round	-6897
asa	-6898
▁gives	-6899
rob	-6900
łbym	-6901
▁Dis	-6902
▁hadn	-6903
▁Wcale	-6904
▁sporo	-6905
xy	-6906
▁crew	-6907
▁Nazywam	-6908
▁Find	-6909
▁małą	-6910
▁Spotk	-6911
▁wierzy	-6912
bol	-6913
▁całej	-6914
heart	-6915
▁włos	-6916
▁books	-6917
▁Podoba	-6918
iley	-6919
▁Love	-6920
▁plans	-6921
▁resztę	-6922
▁milionów	-6923
▁zgło	-6924
▁played	-6925
▁und	-6926
▁Hang	-6927
▁górze	-6928
▁finished	-6929
▁Przyp	-6930
▁Cat	-6931
ranie	-6932
▁mogłam	-6933
▁streng	-6934
▁znak	-6935
▁dawno	-6936
▁pocał	-6937
łat	-6938
▁shop	-6939
▁Tay	-6940
cznik	-6941
▁Zostań	-6942
▁Wasza	-6943
▁wiedziała	-6944
▁Mają	-6945
okie	-6946
arka	-6947
▁Guys	-6948
▁Simon	-6949
▁price	-6950
▁Poważnie	-6951
▁Sal	-6952
▁mocno	-6953
▁thousand	-6954
▁zę	-6955
dziwi	-6956
▁intro	-6957
ives	-6958
▁mówiła	-6959
▁success	-6960
▁embarrass	-6961
▁Lon	-6962
ZY	-6963
▁circ	-6964
▁odbi	-6965
ES	-6966
▁Ver	-6967
▁Brad	-6968
▁code	-6969
▁Pójdę	-6970
▁Dziewczy	-6971
▁Comm	-6972
▁transport	-6973
▁tea	-6974
▁ourselves	-6975
▁szczęśliwy	-6976
▁Reg	-6977
▁Doesn	-6978
▁Us	-6979
▁oby	-6980
▁dostar	-6981
▁beg	-6982
▁nikomu	-6983
-1	-6984
You	-6985
▁hip	-6986
alnych	-6987
▁Policja	-6988
▁Wys	-6989
▁nowa	-6990
jechał	-6991
▁escape	-6992
▁związek	-6993
rzad	-6994
▁harm	-6995
▁eating	-6996
▁przyjaciela	-6997
ales	-6998
▁CIA	-6999
▁egg	-7000
▁vac	-7001
▁Hit	-7002
łabym	-7003
▁Lisa	-7004
▁race	-7005
▁stoi	-7006
▁earth	-7007
▁wszel	-7008
▁Dzisiaj	-7009
▁przysłu	-7010
▁pali	-7011
▁Alice	-7012
▁usłysz	-7013
▁sygn	-7014
ęło	-7015
▁musieli	-7016
aker	-7017
▁Andy	-7018
▁tyłek	-7019
▁lately	-7020
▁martwić	-7021
▁perform	-7022
▁dzieciak	-7023
▁Wez	-7024
▁hat	-7025
łożyć	-7026
▁zdję	-7027
▁wojny	-7028
▁przenie	-7029
▁cars	-7030
▁guns	-7031
▁Today	-7032
LL	-7033
wyraź	-7034
▁legs	-7035
▁prot	-7036
▁wysy	-7037
▁opuści	-7038
▁pomiędzy	-7039
▁szybciej	-7040
▁lar	-7041
▁Bad	-7042
▁Louis	-7043
▁Smith	-7044
▁medical	-7045
ug	-7046
▁Pho	-7047
▁elekt	-7048
orą	-7049
▁lock	-7050
▁Bring	-7051
▁temper	-7052
▁unless	-7053
▁mógłbyś	-7054
▁historię	-7055
▁odkąd	-7056
▁niespodzi	-7057
▁Num	-7058
▁zespo	-7059
▁author	-7060
▁willing	-7061
▁everywhere	-7062
▁Brak	-7063
▁pewne	-7064
▁wokół	-7065
ened	-7066
▁Zaczy	-7067
atherine	-7068
▁chronić	-7069
▁matką	-7070
ping	-7071
stąpi	-7072
▁wsty	-7073
▁zamord	-7074
▁uważasz	-7075
ancy	-7076
▁zagroż	-7077
▁materi	-7078
▁bied	-7079
▁investigation	-7080
rupt	-7081
▁brz	-7082
▁Until	-7083
▁Unless	-7084
▁znajdzie	-7085
▁Wiedziałem	-7086
asty	-7087
▁Pyt	-7088
▁ham	-7089
rzeni	-7090
▁celu	-7091
▁tacy	-7092
▁Annie	-7093
▁dobrą	-7094
ściek	-7095
▁łóżka	-7096
▁pies	-7097
▁tour	-7098
▁przypom	-7099
▁weapons	-7100
▁Kapitanie	-7101
lder	-7102
ored	-7103
łoby	-7104
▁thr	-7105
▁phy	-7106
▁waste	-7107
▁zdanie	-7108
▁Lond	-7109
▁Tor	-7110
▁nieco	-7111
▁łaz	-7112
▁sand	-7113
aron	-7114
▁ill	-7115
▁Ce	-7116
▁Robi	-7117
▁responsible	-7118
▁ból	-7119
▁póki	-7120
▁zabawne	-7121
▁lepsze	-7122
▁Francis	-7123
rowadź	-7124
▁faith	-7125
opy	-7126
▁Pięk	-7127
▁cast	-7128
▁pozwolę	-7129
▁Back	-7130
chan	-7131
ended	-7132
▁prawdopodobnie	-7133
▁jeź	-7134
▁użyć	-7135
▁przychodzi	-7136
▁Wes	-7137
▁przyz	-7138
▁Jackson	-7139
pę	-7140
▁Whoa	-7141
▁jakimś	-7142
▁poszedł	-7143
phy	-7144
▁cash	-7145
▁znajdziemy	-7146
dzasz	-7147
▁ghost	-7148
▁intel	-7149
▁jedyną	-7150
inary	-7151
▁prov	-7152
▁upew	-7153
▁Potrzebujemy	-7154
▁introdu	-7155
lier	-7156
▁spirit	-7157
owne	-7158
▁spowod	-7159
atic	-7160
▁following	-7161
▁wios	-7162
▁sposob	-7163
▁niezwyk	-7164
▁poru	-7165
▁twice	-7166
▁posłuchaj	-7167
fied	-7168
▁Bat	-7169
▁stał	-7170
▁Aw	-7171
▁Kaz	-7172
dzili	-7173
▁liter	-7174
▁postęp	-7175
ask	-7176
rend	-7177
▁Leon	-7178
▁wysoko	-7179
pire	-7180
tują	-7181
staur	-7182
▁Talk	-7183
▁empty	-7184
▁kamie	-7185
▁surgery	-7186
▁miesiąc	-7187
AD	-7188
aja	-7189
ieve	-7190
▁Huh	-7191
▁uderz	-7192
▁czasami	-7193
▁widziałeś	-7194
śni	-7195
▁Dun	-7196
▁Jose	-7197
▁bear	-7198
▁komputer	-7199
▁Hot	-7200
▁Major	-7201
▁Under	-7202
▁dollars	-7203
odies	-7204
▁Ross	-7205
▁eng	-7206
▁rent	-7207
▁Larry	-7208
▁usłyszeć	-7209
▁22	-7210
▁chair	-7211
▁gotów	-7212
▁Hank	-7213
▁command	-7214
▁odpowiedź	-7215
ancie	-7216
▁nose	-7217
▁speci	-7218
▁szpitalu	-7219
▁opportunity	-7220
▁Up	-7221
▁herself	-7222
▁projekt	-7223
▁pierwsza	-7224
▁spokojnie	-7225
▁Pret	-7226
▁boli	-7227
▁male	-7228
▁allowed	-7229
▁przyszłość	-7230
usiu	-7231
▁patrzeć	-7232
▁shooting	-7233
▁prawdziwy	-7234
hu	-7235
▁klasy	-7236
▁zadow	-7237
rócz	-7238
▁Calm	-7239
▁zbud	-7240
▁prosić	-7241
▁wypadku	-7242
hi	-7243
▁Gi	-7244
▁zrobiłaś	-7245
▁Powinienem	-7246
▁słuchaj	-7247
▁zbrodni	-7248
▁informacji	-7249
▁ul	-7250
ankę	-7251
śród	-7252
ałyśmy	-7253
▁master	-7254
▁walking	-7255
jed	-7256
▁restaur	-7257
▁znalazłem	-7258
▁odpo	-7259
▁chłopie	-7260
▁zrobiłam	-7261
▁$2	-7262
reg	-7263
lady	-7264
omer	-7265
▁Tur	-7266
▁hanging	-7267
▁skończyć	-7268
▁dysk	-7269
▁Other	-7270
▁Chciał	-7271
▁zaczyn	-7272
▁bron	-7273
▁event	-7274
▁Żadnych	-7275
ięć	-7276
▁ofiary	-7277
▁kitchen	-7278
▁Tri	-7279
▁Way	-7280
▁Sand	-7281
▁posłuch	-7282
▁zaprosi	-7283
OT	-7284
anem	-7285
▁poszło	-7286
▁apologize	-7287
▁myśle	-7288
▁lepszy	-7289
▁rodzaju	-7290
▁gej	-7291
▁oca	-7292
right	-7293
▁Bogu	-7294
▁jour	-7295
▁reas	-7296
▁Happy	-7297
▁advice	-7298
▁Zastanawi	-7299
:.	-7300
▁yell	-7301
▁avoid	-7302
▁zamie	-7303
▁double	-7304
▁Zapomni	-7305
inę	-7306
roz	-7307
comp	-7308
▁Inte	-7309
▁rese	-7310
▁London	-7311
▁checked	-7312
▁przejść	-7313
▁ram	-7314
▁wych	-7315
owiedz	-7316
...!	-7317
▁planning	-7318
ado	-7319
▁tort	-7320
▁martwy	-7321
▁robotę	-7322
▁noticed	-7323
▁lay	-7324
▁zjeść	-7325
▁hook	-7326
▁Wiemy	-7327
▁notice	-7328
wyraźniej	-7329
ming	-7330
▁zga	-7331
▁wkrótce	-7332
▁Pamiętam	-7333
▁cup	-7334
▁polit	-7335
▁zwykle	-7336
▁dziesię	-7337
żu	-7338
▁writing	-7339
▁pierdol	-7340
▁500	-7341
▁Takie	-7342
▁śniad	-7343
▁fra	-7344
▁East	-7345
▁jeść	-7346
▁Przysię	-7347
▁potrafię	-7348
▁uratować	-7349
rab	-7350
▁Pap	-7351
▁pist	-7352
▁piękne	-7353
▁wymyśli	-7354
lling	-7355
▁Taki	-7356
▁captain	-7357
sian	-7358
alist	-7359
rane	-7360
▁Poroz	-7361
▁Master	-7362
▁skom	-7363
▁ridiculous	-7364
lud	-7365
cter	-7366
▁Boy	-7367
▁siły	-7368
▁Kobie	-7369
▁South	-7370
kuj	-7371
▁Liz	-7372
▁abyś	-7373
▁hall	-7374
niesie	-7375
▁nagro	-7376
mist	-7377
▁śledzt	-7378
ID	-7379
ression	-7380
▁island	-7381
▁destroyed	-7382
▁Still	-7383
▁pilot	-7384
▁Znaleź	-7385
▁pewnego	-7386
▁szczęścia	-7387
ędu	-7388
dząc	-7389
▁zor	-7390
--	-7391
7.	-7392
▁restau	-7393
▁spójrz	-7394
▁Powiedziała	-7395
▁AN	-7396
▁Lucy	-7397
▁dzien	-7398
atki	-7399
▁mózgu	-7400
▁Zrobię	-7401
▁Eve	-7402
▁uli	-7403
▁divor	-7404
▁feels	-7405
▁tajemni	-7406
tąd	-7407
alną	-7408
▁zep	-7409
▁wraca	-7410
▁gotten	-7411
▁quickly	-7412
▁Congratulations	-7413
▁fał	-7414
▁narze	-7415
▁przyt	-7416
▁pressure	-7417
▁interview	-7418
▁pozna	-7419
▁Załat	-7420
▁closed	-7421
▁pokaż	-7422
▁Prince	-7423
▁strength	-7424
▁przyjaciele	-7425
pół	-7426
▁dokąd	-7427
wne	-7428
▁terror	-7429
▁mnóstwo	-7430
▁telefonu	-7431
▁disappear	-7432
▁Chief	-7433
▁knife	-7434
uc	-7435
szem	-7436
▁duty	-7437
▁powinni	-7438
noon	-7439
ledge	-7440
▁separ	-7441
icle	-7442
▁umar	-7443
▁autob	-7444
▁straż	-7445
▁prince	-7446
▁}	-7447
tych	-7448
▁pasuje	-7449
▁rodziną	-7450
icy	-7451
▁Sur	-7452
▁Doktorze	-7453
▁ciąży	-7454
▁walked	-7455
▁Same	-7456
▁raport	-7457
▁wyprawi	-7458
▁vol	-7459
▁push	-7460
▁plant	-7461
▁zawod	-7462
▁chciałeś	-7463
▁military	-7464
▁Long	-7465
▁Susan	-7466
venge	-7467
▁wysz	-7468
▁Zobaczymy	-7469
ends	-7470
▁built	-7471
kowo	-7472
▁kochasz	-7473
ósł	-7474
▁Gru	-7475
▁Napis	-7476
▁wound	-7477
▁flight	-7478
▁zaczął	-7479
▁complic	-7480
abeth	-7481
niony	-7482
dzicie	-7483
▁firmy	-7484
fy	-7485
▁taj	-7486
▁klub	-7487
▁słuchać	-7488
▁profession	-7489
▁byłby	-7490
alous	-7491
▁smoke	-7492
▁market	-7493
czko	-7494
łości	-7495
▁stylu	-7496
▁Sergeant	-7497
▁powstrzym	-7498
▁wycie	-7499
ference	-7500
▁dostał	-7501
▁proced	-7502
czyłeś	-7503
▁statku	-7504
▁Gab	-7505
▁zem	-7506
iment	-7507
▁Księ	-7508
▁zatrud	-7509
▁engine	-7510
▁Pas	-7511
▁purp	-7512
wnętrz	-7513
▁Kelly	-7514
▁córkę	-7515
▁practice	-7516
▁cru	-7517
▁rzą	-7518
▁komuś	-7519
▁realized	-7520
▁sync	-7521
▁sypi	-7522
▁appear	-7523
unity	-7524
▁Mill	-7525
▁crap	-7526
▁Chi	-7527
▁opuszcz	-7528
▁cake	-7529
▁Day	-7530
▁Pri	-7531
▁zmu	-7532
▁Lady	-7533
▁bott	-7534
▁fakt	-7535
▁huge	-7536
▁Marsh	-7537
antic	-7538
orter	-7539
▁shows	-7540
▁czwart	-7541
▁places	-7542
▁Angel	-7543
▁trial	-7544
▁battle	-7545
▁Szkoda	-7546
lon	-7547
▁drugą	-7548
aktycznie	-7549
hop	-7550
ared	-7551
▁recent	-7552
wers	-7553
▁Rze	-7554
▁lic	-7555
ising	-7556
▁Tyle	-7557
▁rule	-7558
gusting	-7559
▁descri	-7560
▁chory	-7561
▁emplo	-7562
ination	-7563
bia	-7564
▁psa	-7565
arant	-7566
▁Sprawdź	-7567
▁Des	-7568
▁wyst	-7569
stawić	-7570
▁czekaj	-7571
▁zdobyć	-7572
▁kasy	-7573
▁settle	-7574
chodzimy	-7575
dziliśmy	-7576
▁pę	-7577
uchy	-7578
▁poje	-7579
▁corrected	-7580
apt	-7581
via	-7582
awał	-7583
▁Wię	-7584
tą	-7585
wit	-7586
▁compet	-7587
▁pobliż	-7588
▁Emma	-7589
owaniu	-7590
▁pobliżu	-7591
9.	-7592
awaj	-7593
▁sea	-7594
▁powt	-7595
▁Jakieś	-7596
▁poszuki	-7597
▁afternoon	-7598
aro	-7599
▁sight	-7600
▁mountain	-7601
▁taught	-7602
▁Another	-7603
ciłem	-7604
▁wielkim	-7605
▁doktorze	-7606
▁Bru	-7607
▁Sean	-7608
▁nine	-7609
▁within	-7610
▁issu	-7611
aniesz	-7612
▁necessary	-7613
obę	-7614
▁słów	-7615
kun	-7616
▁ment	-7617
▁speed	-7618
▁więzieniu	-7619
8.	-7620
rage	-7621
▁Cięż	-7622
▁przyjęcie	-7623
▁światło	-7624
▁murdered	-7625
jo	-7626
erem	-7627
isku	-7628
▁sour	-7629
▁Miałeś	-7630
▁ostrze	-7631
lach	-7632
▁coraz	-7633
▁kanap	-7634
ky	-7635
▁Gib	-7636
▁samą	-7637
nijcie	-7638
▁Dzwoni	-7639
▁Forget	-7640
▁rum	-7641
▁król	-7642
▁Green	-7643
▁przyszłości	-7644
rup	-7645
▁licz	-7646
ensive	-7647
▁wspaniał	-7648
▁Gold	-7649
▁przetr	-7650
▁jedynym	-7651
▁fresh	-7652
▁instru	-7653
▁Fucking	-7654
▁".	-7655
▁bow	-7656
ałych	-7657
▁Jenny	-7658
▁zasług	-7659
▁reading	-7660
▁ziemię	-7661
▁Jones	-7662
▁doros	-7663
▁breakfast	-7664
▁Steven	-7665
▁strasznie	-7666
▁Duż	-7667
▁Swe	-7668
▁cous	-7669
▁closer	-7670
▁chłopaka	-7671
▁Bla	-7672
▁Bart	-7673
▁Miche	-7674
kowa	-7675
▁Nau	-7676
▁Mist	-7677
▁pray	-7678
▁wymi	-7679
▁podło	-7680
▁jakbym	-7681
▁wściek	-7682
▁zabije	-7683
razić	-7684
▁corner	-7685
▁summer	-7686
▁mężczyzn	-7687
▁mówiłeś	-7688
▁fli	-7689
▁miesiące	-7690
▁amery	-7691
▁Little	-7692
▁biurze	-7693
lar	-7694
jest	-7695
▁ćwi	-7696
▁Alan	-7697
▁arms	-7698
▁Vegas	-7699
▁cieszę	-7700
▁policja	-7701
▁sprawied	-7702
iev	-7703
▁Far	-7704
▁Jez	-7705
usion	-7706
▁oddy	-7707
▁records	-7708
▁tape	-7709
▁claim	-7710
bierasz	-7711
▁występ	-7712
6.	-7713
een	-7714
▁lok	-7715
▁Szcz	-7716
ęła	-7717
▁bodies	-7718
▁department	-7719
▁immediately	-7720
tna	-7721
limin	-7722
▁hurts	-7723
▁całego	-7724
▁kat	-7725
▁pry	-7726
czeństwo	-7727
▁pierwszej	-7728
▁uncle	-7729
▁Mieliśmy	-7730
▁Acc	-7731
▁uważa	-7732
▁podzie	-7733
▁passed	-7734
▁trudno	-7735
▁keeping	-7736
▁odna	-7737
▁Jew	-7738
▁znajdę	-7739
▁Angeles	-7740
pro	-7741
▁krzyw	-7742
▁famous	-7743
▁Zamierz	-7744
▁centrum	-7745
▁przezna	-7746
▁najlepszym	-7747
sec	-7748
vey	-7749
iach	-7750
▁juz	-7751
ktora	-7752
range	-7753
▁Aust	-7754
▁keys	-7755
▁włam	-7756
▁sword	-7757
▁Według	-7758
▁Brother	-7759
▁brothers	-7760
▁morderstwo	-7761
wiej	-7762
▁Posz	-7763
▁regret	-7764
▁naprawić	-7765
▁Wa	-7766
▁wuj	-7767
▁Cast	-7768
▁Nieźle	-7769
▁condition	-7770
▁Apparently	-7771
▁mowy	-7772
rzyłem	-7773
▁Karen	-7774
▁jednost	-7775
▁view	-7776
▁bottle	-7777
gami	-7778
▁wóz	-7779
▁wybór	-7780
▁Perhaps	-7781
▁widać	-7782
▁Taylor	-7783
waga	-7784
▁Walk	-7785
▁Laure	-7786
▁Otwórz	-7787
▁chcieli	-7788
▁względu	-7789
▁Ku	-7790
▁Dean	-7791
▁Eliz	-7792
▁oboje	-7793
▁driver	-7794
▁signal	-7795
▁Mick	-7796
▁threw	-7797
ZE	-7798
▁Hy	-7799
gging	-7800
▁Dick	-7801
▁heaven	-7802
▁seriously	-7803
▁Ak	-7804
▁300	-7805
▁uwol	-7806
▁easier	-7807
▁Lily	-7808
▁samobój	-7809
▁ir	-7810
▁baz	-7811
▁ener	-7812
▁wier	-7813
ishing	-7814
▁dotyk	-7815
▁relax	-7816
▁Met	-7817
aring	-7818
ender	-7819
▁pogo	-7820
▁Julia	-7821
▁viole	-7822
▁celebr	-7823
▁opowiad	-7824
▁Greg	-7825
▁green	-7826
▁wierzyć	-7827
▁ostatniej	-7828
▁Fa	-7829
▁Bry	-7830
ólnie	-7831
▁vote	-7832
?!	-7833
▁elderman	-7834
▁momencie	-7835
▁powiedzenia	-7836
arp	-7837
▁Cass	-7838
cellent	-7839
▁direct	-7840
ctwo	-7841
▁Cieka	-7842
▁Maria	-7843
pew	-7844
▁ways	-7845
▁zazd	-7846
▁mogło	-7847
▁tight	-7848
▁przeczyt	-7849
▁research	-7850
łyśmy	-7851
▁firm	-7852
▁zaba	-7853
▁Roger	-7854
▁gotowi	-7855
▁excited	-7856
AK	-7857
▁odm	-7858
▁fail	-7859
czyłam	-7860
▁niewie	-7861
dziennie	-7862
▁wyjaśnić	-7863
▁Translation	-7864
tach	-7865
▁Jean	-7866
bienia	-7867
▁Zatem	-7868
▁matkę	-7869
tny	-7870
▁val	-7871
▁zasa	-7872
▁whose	-7873
▁invited	-7874
▁większość	-7875
velop	-7876
▁rany	-7877
▁Porozmawi	-7878
▁Prawdopodobnie	-7879
muj	-7880
▁sky	-7881
▁action	-7882
▁bracie	-7883
▁zeszłym	-7884
▁samochodzie	-7885
▁dala	-7886
▁Hanna	-7887
▁screwed	-7888
▁Zapomnij	-7889
oms	-7890
▁23	-7891
▁kłó	-7892
▁próbował	-7893
▁robot	-7894
▁career	-7895
▁siedzieć	-7896
▁Powodzenia	-7897
▁plot	-7898
▁Chwileczkę	-7899
▁kolejny	-7900
▁victims	-7901
▁Gir	-7902
▁fas	-7903
▁tax	-7904
▁żyją	-7905
▁taste	-7906
▁assist	-7907
▁ruszaj	-7908
▁wracam	-7909
▁najważ	-7910
▁dotk	-7911
cka	-7912
ających	-7913
▁wir	-7914
▁miły	-7915
stawaj	-7916
▁Dobre	-7917
▁ocean	-7918
▁Maggie	-7919
▁training	-7920
arty	-7921
▁budynku	-7922
alam	-7923
nisz	-7924
▁życiem	-7925
▁Fed	-7926
▁Plan	-7927
▁keeps	-7928
▁otworzyć	-7929
▁Powiedziałam	-7930
▁zapis	-7931
ET	-7932
▁nu	-7933
▁Sądzę	-7934
▁Faj	-7935
▁rzu	-7936
▁uszko	-7937
▁Chcemy	-7938
cture	-7939
stein	-7940
▁Arth	-7941
▁magi	-7942
▁stanow	-7943
▁Powinnaś	-7944
▁wę	-7945
anki	-7946
▁Six	-7947
▁wast	-7948
▁bran	-7949
▁movies	-7950
sm	-7951
▁minuty	-7952
▁Panowie	-7953
▁consider	-7954
▁zniszczyć	-7955
▁Sto	-7956
▁orig	-7957
▁Ojciec	-7958
▁jakbyś	-7959
▁złapać	-7960
▁disappeared	-7961
ione	-7962
▁moon	-7963
▁Ziemi	-7964
▁powerful	-7965
rate	-7966
anu	-7967
▁OF	-7968
razy	-7969
▁strat	-7970
▁lovely	-7971
▁przyznać	-7972
stic	-7973
▁reli	-7974
wienie	-7975
▁wspaniałe	-7976
eny	-7977
pon	-7978
czką	-7979
▁upad	-7980
▁rozpoz	-7981
▁Usp	-7982
▁letting	-7983
▁problemu	-7984
amtąd	-7985
▁usią	-7986
▁activ	-7987
▁turns	-7988
▁uprawi	-7989
▁znaleźliśmy	-7990
▁ped	-7991
▁uzn	-7992
rief	-7993
▁balls	-7994
▁chara	-7995
▁Raczej	-7996
▁pomaga	-7997
▁travel	-7998
▁prowadzi	-7999
icial	-8000
▁byśmy	-8001
▁Sun	-8002
▁Rome	-8003
▁bleed	-8004
reme	-8005
▁North	-8006
▁Czym	-8007
▁wers	-8008
illiant	-8009
▁greatest	-8010
▁opinion	-8011
gni	-8012
▁Mex	-8013
ależ	-8014
bieram	-8015
▁Wiele	-8016
▁Ladies	-8017
▁crying	-8018
▁siedzi	-8019
▁whether	-8020
▁continue	-8021
gal	-8022
cony	-8023
kins	-8024
▁hig	-8025
▁Lois	-8026
▁None	-8027
▁własną	-8028
▁recognize	-8029
▁potrzebował	-8030
▁Gl	-8031
▁fake	-8032
▁wspomin	-8033
▁45	-8034
▁kla	-8035
▁pośl	-8036
▁Czasem	-8037
▁agreed	-8038
▁village	-8039
ładzie	-8040
▁umysł	-8041
▁painting	-8042
▁Uwielbiam	-8043
▁Wspaniale	-8044
▁ręka	-8045
▁Świat	-8046
czep	-8047
ises	-8048
ukać	-8049
▁popular	-8050
oko	-8051
▁prę	-8052
▁badania	-8053
▁Powiedziałeś	-8054
▁chal	-8055
▁United	-8056
▁damage	-8057
▁Jay	-8058
yment	-8059
ratula	-8060
▁nauczyć	-8061
▁mass	-8062
iękować	-8063
ori	-8064
lent	-8065
father	-8066
▁światła	-8067
bry	-8068
▁raise	-8069
▁further	-8070
angu	-8071
pozy	-8072
▁kuchni	-8073
bud	-8074
▁Lecz	-8075
▁barely	-8076
lec	-8077
▁Kit	-8078
▁poże	-8079
nimy	-8080
▁Shaw	-8081
▁commu	-8082
▁Obawiam	-8083
▁created	-8084
▁According	-8085
▁Elizabeth	-8086
kują	-8087
▁emerg	-8088
▁moimi	-8089
▁monster	-8090
▁próbuje	-8091
anek	-8092
koch	-8093
bierać	-8094
▁breath	-8095
▁przyję	-8096
rol	-8097
airs	-8098
▁animals	-8099
▁paying	-8100
▁uważam	-8101
▁Obiecuję	-8102
bli	-8103
off	-8104
▁process	-8105
▁policjant	-8106
endy	-8107
▁wil	-8108
▁Fire	-8109
▁imieniu	-8110
zz	-8111
aks	-8112
▁spie	-8113
▁alien	-8114
▁następnym	-8115
źć	-8116
osi	-8117
▁Wracaj	-8118
▁kawałek	-8119
niłem	-8120
▁córki	-8121
łaszcza	-8122
▁dry	-8123
▁ver	-8124
yw	-8125
▁niem	-8126
▁prefer	-8127
▁znajdziesz	-8128
sek	-8129
▁Kir	-8130
▁Pen	-8131
▁jakich	-8132
liczności	-8133
▁1.	-8134
▁Ka	-8135
▁Wid	-8136
asing	-8137
chedu	-8138
▁Widziałam	-8139
▁mieszkanie	-8140
▁note	-8141
▁chodziło	-8142
▁ciep	-8143
▁biggest	-8144
▁angie	-8145
▁bucks	-8146
▁papers	-8147
oci	-8148
pher	-8149
▁Res	-8150
▁chodzić	-8151
▁Pierwszy	-8152
▁buty	-8153
▁umarł	-8154
▁zapomnieć	-8155
▁restaurant	-8156
gon	-8157
solut	-8158
▁mózg	-8159
▁Out	-8160
▁jeb	-8161
▁Gent	-8162
▁soft	-8163
unkiem	-8164
▁łóżku	-8165
▁chciałabym	-8166
▁ST	-8167
▁mogłeś	-8168
▁robicie	-8169
wu	-8170
oks	-8171
▁heav	-8172
▁Wejdź	-8173
▁uczucie	-8174
siądź	-8175
ństwa	-8176
▁zbi	-8177
mother	-8178
▁według	-8179
▁Washing	-8180
▁certainly	-8181
hetic	-8182
▁final	-8183
▁caused	-8184
▁dowo	-8185
▁fill	-8186
▁kolego	-8187
tak	-8188
▁pró	-8189
▁Abby	-8190
owiada	-8191
▁drinka	-8192
nosi	-8193
▁abs	-8194
akcie	-8195
▁trick	-8196
▁pozbyć	-8197
osa	-8198
ńczy	-8199
▁Edward	-8200
▁kicked	-8201
▁zasady	-8202
▁Without	-8203
ruj	-8204
pet	-8205
hmm	-8206
▁posp	-8207
▁cream	-8208
▁okłam	-8209
▁fran	-8210
▁jedzenia	-8211
▁rodzinie	-8212
▁Jord	-8213
▁szla	-8214
▁dziel	-8215
omed	-8216
▁Pań	-8217
▁ant	-8218
▁neg	-8219
▁Norm	-8220
▁techni	-8221
▁Wyp	-8222
▁wyl	-8223
▁Jakiś	-8224
▁Wall	-8225
▁Molly	-8226
▁teeth	-8227
orów	-8228
▁myślą	-8229
▁earlier	-8230
▁animal	-8231
fia	-8232
fort	-8233
▁Pol	-8234
▁wiz	-8235
▁okre	-8236
▁Doktor	-8237
▁project	-8238
▁Znalazłem	-8239
boy	-8240
▁cig	-8241
▁speł	-8242
▁reput	-8243
▁kończy	-8244
appo	-8245
▁darm	-8246
▁example	-8247
▁80	-8248
▁dż	-8249
▁path	-8250
▁Który	-8251
▁wielką	-8252
▁autobus	-8253
ratulacje	-8254
▁Pil	-8255
godne	-8256
▁Stój	-8257
▁maga	-8258
wią	-8259
cert	-8260
▁śmi	-8261
▁wag	-8262
pared	-8263
▁smak	-8264
reedom	-8265
▁zamierzasz	-8266
▁pale	-8267
▁Pozwo	-8268
▁jedyny	-8269
uel	-8270
▁Alf	-8271
▁ciężarów	-8272
ann	-8273
▁książki	-8274
▁dostaniesz	-8275
▁ast	-8276
▁adop	-8277
▁shirt	-8278
▁jealous	-8279
▁poprzed	-8280
▁1,	-8281
▁bre	-8282
▁soldiers	-8283
▁załatwić	-8284
▁Moi	-8285
ration	-8286
▁wcześnie	-8287
pij	-8288
▁Roy	-8289
▁Hill	-8290
▁stara	-8291
▁Uspokój	-8292
▁wreszcie	-8293
▁napraw	-8294
▁wielkiego	-8295
yst	-8296
nięcie	-8297
▁Jakby	-8298
▁otwie	-8299
▁szczęśliwa	-8300
lek	-8301
▁cha	-8302
iście	-8303
▁swim	-8304
▁above	-8305
▁butel	-8306
▁Zde	-8307
▁hej	-8308
▁alko	-8309
▁data	-8310
▁źród	-8311
▁slept	-8312
▁przyzn	-8313
▁wyjdzie	-8314
iday	-8315
ucky	-8316
które	-8317
▁Pora	-8318
▁ziel	-8319
▁matters	-8320
▁siostry	-8321
naję	-8322
unąć	-8323
▁Relax	-8324
asu	-8325
▁bła	-8326
▁goodbye	-8327
▁major	-8328
▁zasłu	-8329
iera	-8330
iero	-8331
▁Rod	-8332
▁limit	-8333
ającego	-8334
▁ilo	-8335
ająca	-8336
cują	-8337
▁reszta	-8338
grze	-8339
ramy	-8340
wany	-8341
▁odzyskać	-8342
▁Blo	-8343
ified	-8344
▁Julie	-8345
▁strzał	-8346
▁amerykań	-8347
▁plus	-8348
▁urodziny	-8349
▁Głu	-8350
▁del	-8351
▁ign	-8352
▁miłe	-8353
▁Syn	-8354
▁mówiłam	-8355
rzch	-8356
ption	-8357
▁Ms	-8358
▁Więk	-8359
▁oddać	-8360
▁credit	-8361
▁zechce	-8362
▁zrobili	-8363
▁Deb	-8364
▁sna	-8365
▁adwo	-8366
▁phys	-8367
▁zara	-8368
▁Honor	-8369
igned	-8370
▁Donna	-8371
▁wolny	-8372
▁Dro	-8373
▁Hal	-8374
▁teor	-8375
▁Facet	-8376
▁abandon	-8377
zm	-8378
▁żaden	-8379
▁wielka	-8380
▁pójdziesz	-8381
cząć	-8382
face	-8383
▁enga	-8384
kowego	-8385
▁color	-8386
▁scient	-8387
▁detektyw	-8388
▁Możecie	-8389
▁chip	-8390
▁Chodźcie	-8391
lenia	-8392
▁wobec	-8393
▁iż	-8394
▁expecting	-8395
illa	-8396
▁słyszę	-8397
▁sweetheart	-8398
▁coll	-8399
▁ogień	-8400
ceed	-8401
sibly	-8402
though	-8403
▁wycof	-8404
▁lekarza	-8405
▁możliwości	-8406
amb	-8407
▁Cr	-8408
,000.	-8409
▁opis	-8410
▁kamer	-8411
▁Pretty	-8412
▁najmniej	-8413
sić	-8414
▁stamtąd	-8415
▁bezpieczeństwa	-8416
OL	-8417
▁nature	-8418
▁remain	-8419
▁utrzym	-8420
bil	-8421
plikow	-8422
▁psychiat	-8423
▁cuk	-8424
▁boję	-8425
▁desper	-8426
▁pissed	-8427
▁zajęty	-8428
▁attacked	-8429
▁Unfortunately	-8430
nor	-8431
▁Będą	-8432
▁mimo	-8433
▁roof	-8434
▁wrażenie	-8435
▁zobaczymy	-8436
ima	-8437
▁create	-8438
▁Chociaż	-8439
▁arrested	-8440
uma	-8441
▁betray	-8442
▁stories	-8443
law	-8444
ałby	-8445
▁Ask	-8446
▁sił	-8447
▁Washington	-8448
cts	-8449
eniam	-8450
▁Care	-8451
▁koło	-8452
▁cousin	-8453
▁Dużo	-8454
▁gorzej	-8455
▁przysto	-8456
▁przysługę	-8457
To	-8458
kien	-8459
▁Dem	-8460
▁local	-8461
▁Chwila	-8462
▁Jackie	-8463
▁dowody	-8464
▁fałszy	-8465
▁numbers	-8466
24.	-8467
erv	-8468
ground	-8469
▁smile	-8470
▁toast	-8471
▁latach	-8472
▁Cud	-8473
sznie	-8474
urance	-8475
▁Andrew	-8476
▁jedyna	-8477
▁północ	-8478
zyg	-8479
lies	-8480
▁ate	-8481
▁Pull	-8482
▁wezw	-8483
▁synem	-8484
▁absolutely	-8485
▁Beth	-8486
▁patrzy	-8487
▁proces	-8488
▁pomyślałem	-8489
▁znie	-8490
itions	-8491
▁Zadzwoń	-8492
▁Szybciej	-8493
▁Vi	-8494
▁Ass	-8495
wałeś	-8496
▁okrę	-8497
▁Gdybyś	-8498
▁chicken	-8499
zing	-8500
▁flying	-8501
▁zespół	-8502
▁pierwszą	-8503
ette	-8504
▁jut	-8505
▁Mommy	-8506
▁suddenly	-8507
muję	-8508
▁Vir	-8509
▁Zgo	-8510
▁\	-8511
arę	-8512
west	-8513
▁Queen	-8514
▁wiary	-8515
▁Patrick	-8516
▁motherf	-8517
▁rozmowę	-8518
▁Kap	-8519
lotte	-8520
▁hello	-8521
▁tells	-8522
llen	-8523
▁brud	-8524
erów	-8525
▁Art	-8526
▁egz	-8527
iction	-8528
▁Lucas	-8529
▁purpose	-8530
▁pracował	-8531
rakt	-8532
▁Santa	-8533
▁Somebody	-8534
▁meat	-8535
▁nakaz	-8536
▁Marcus	-8537
▁States	-8538
▁Majesty	-8539
fu	-8540
cal	-8541
▁moze	-8542
▁Morgan	-8543
▁zdenerw	-8544
▁Przynios	-8545
ients	-8546
▁Case	-8547
gnaj	-8548
przy	-8549
▁mut	-8550
▁vam	-8551
▁Gary	-8552
▁faster	-8553
▁knowing	-8554
▁moglibyśmy	-8555
▁IN	-8556
▁klat	-8557
▁święt	-8558
"!	-8559
onek	-8560
▁starts	-8561
▁Tomorrow	-8562
▁laboratorium	-8563
nem	-8564
▁Cut	-8565
▁wet	-8566
owały	-8567
▁Sund	-8568
▁dasz	-8569
▁dogs	-8570
odni	-8571
▁Coun	-8572
▁type	-8573
bieraj	-8574
▁afford	-8575
▁Wczoraj	-8576
▁zabezpie	-8577
kta	-8578
▁różne	-8579
▁kapitanie	-8580
elle	-8581
▁kawę	-8582
▁rzeczą	-8583
▁Bull	-8584
▁połą	-8585
▁beach	-8586
▁dawna	-8587
▁morderstwa	-8588
▁enc	-8589
▁Czar	-8590
llo	-8591
aled	-8592
chaj	-8593
▁Soph	-8594
▁desk	-8595
▁games	-8596
under	-8597
ontakt	-8598
ressive	-8599
▁Nathan	-8600
▁zadanie	-8601
▁Musiałem	-8602
lid	-8603
▁Law	-8604
cyjny	-8605
▁plany	-8606
▁itself	-8607
▁musicie	-8608
▁biał	-8609
▁czuć	-8610
szczęśli	-8611
bon	-8612
▁Aby	-8613
▁Dow	-8614
▁wodę	-8615
▁subject	-8616
▁śmieszne	-8617
sem	-8618
uto	-8619
▁Lex	-8620
▁niby	-8621
▁Friday	-8622
▁Professor	-8623
loe	-8624
▁Ton	-8625
▁Stand	-8626
▁Pomocy	-8627
▁kontynu	-8628
▁results	-8629
▁selling	-8630
▁dzieciaki	-8631
▁osobiście	-8632
▁stage	-8633
▁szefie	-8634
▁odebrać	-8635
▁rzeczywisto	-8636
eb	-8637
ires	-8638
▁Tru	-8639
nąłeś	-8640
▁dressed	-8641
urse	-8642
▁sexy	-8643
▁Brown	-8644
▁Jedna	-8645
▁Czę	-8646
▁Mos	-8647
▁fem	-8648
czeni	-8649
▁Puść	-8650
▁Tata	-8651
rezent	-8652
▁brave	-8653
▁listy	-8654
▁bloody	-8655
▁bó	-8656
ariusz	-8657
reb	-8658
▁ann	-8659
▁Believe	-8660
▁początek	-8661
▁domy	-8662
▁Japan	-8663
▁ktokolwiek	-8664
▁Kan	-8665
▁golf	-8666
▁tatu	-8667
▁awesome	-8668
▁świetny	-8669
▁35	-8670
czar	-8671
nemu	-8672
opie	-8673
feren	-8674
▁lekar	-8675
kali	-8676
▁McG	-8677
▁Val	-8678
alnej	-8679
▁Pary	-8680
▁kupi	-8681
▁written	-8682
▁saf	-8683
niego	-8684
▁Quin	-8685
▁śnie	-8686
▁każdą	-8687
▁serve	-8688
▁powtarz	-8689
▁straszne	-8690
▁Nienawidzę	-8691
▁les	-8692
▁sprzę	-8693
koł	-8694
▁mle	-8695
▁Dajcie	-8696
▁hearing	-8697
you	-8698
▁Kilka	-8699
▁becom	-8700
▁okres	-8701
▁odro	-8702
▁Arthur	-8703
▁Ear	-8704
board	-8705
▁krok	-8706
▁cards	-8707
▁stolen	-8708
▁DO	-8709
▁deg	-8710
▁Cole	-8711
▁innymi	-8712
▁intern	-8713
▁oglądać	-8714
▁wyobraż	-8715
▁uczucia	-8716
▁zare	-8717
▁miejsc	-8718
▁Ooh	-8719
▁Wat	-8720
kowie	-8721
▁krwa	-8722
▁Nasze	-8723
▁Udało	-8724
▁disappo	-8725
▁zobaczę	-8726
łogo	-8727
▁Espe	-8728
▁Pope	-8729
▁Port	-8730
▁moty	-8731
ingers	-8732
▁Trust	-8733
▁przyd	-8734
▁spell	-8735
▁NIE	-8736
▁sem	-8737
▁Barry	-8738
▁wygrać	-8739
▁sprawia	-8740
▁ostatnich	-8741
suń	-8742
▁uj	-8743
▁federal	-8744
▁roll	-8745
▁odcis	-8746
▁zobaczysz	-8747
▁Ależ	-8748
▁stwier	-8749
▁obviously	-8750
ached	-8751
▁Przysięgam	-8752
pul	-8753
▁tw	-8754
czem	-8755
▁Ren	-8756
▁Jedź	-8757
▁Helen	-8758
▁strate	-8759
▁Haw	-8760
▁dev	-8761
▁Laura	-8762
▁wśród	-8763
▁znajom	-8764
sę	-8765
▁Lat	-8766
▁piw	-8767
▁zasz	-8768
▁leaves	-8769
▁Especially	-8770
▁disgusting	-8771
▁zawi	-8772
pliwości	-8773
▁operation	-8774
▁complicated	-8775
▁Nor	-8776
▁brać	-8777
▁ordered	-8778
▁Charlotte	-8779
▁Nate	-8780
▁bringing	-8781
▁Słyszałeś	-8782
▁espe	-8783
▁Scot	-8784
▁mamą	-8785
▁nowych	-8786
▁książkę	-8787
anii	-8788
usty	-8789
▁Mit	-8790
▁gentle	-8791
▁develop	-8792
▁wyjścia	-8793
rib	-8794
ódź	-8795
▁clim	-8796
▁dach	-8797
▁inną	-8798
▁lone	-8799
▁accus	-8800
▁especially	-8801
▁wyglądać	-8802
nera	-8803
althy	-8804
▁dumny	-8805
▁Vincent	-8806
raniu	-8807
▁rain	-8808
▁Miami	-8809
▁turning	-8810
▁speaking	-8811
▁Hun	-8812
▁Mir	-8813
▁Póź	-8814
▁sne	-8815
▁ended	-8816
▁sending	-8817
▁believed	-8818
▁współprac	-8819
▁Gil	-8820
▁cicho	-8821
▁zmusz	-8822
▁Byliśmy	-8823
▁zostawił	-8824
ige	-8825
ilet	-8826
like	-8827
▁Mus	-8828
▁odpu	-8829
▁ostatnim	-8830
anne	-8831
▁split	-8832
▁przyprowa	-8833
szył	-8834
▁eff	-8835
▁auto	-8836
▁biur	-8837
▁dane	-8838
▁repe	-8839
▁chest	-8840
waliśmy	-8841
▁Chinese	-8842
▁przypomin	-8843
▁disc	-8844
czniku	-8845
▁Chloe	-8846
▁dwoje	-8847
▁dropped	-8848
▁Niektórzy	-8849
▁niesamowite	-8850
ific	-8851
▁lord	-8852
▁zakup	-8853
▁Barb	-8854
czucie	-8855
▁Nowego	-8856
▁nud	-8857
ligent	-8858
▁tysią	-8859
▁saving	-8860
▁problemów	-8861
edy	-8862
▁dating	-8863
knę	-8864
ćmi	-8865
▁wt	-8866
cyjne	-8867
▁199	-8868
torem	-8869
▁arrived	-8870
▁zgad	-8871
▁zabrał	-8872
▁Trud	-8873
▁device	-8874
▁Chryste	-8875
▁decyzję	-8876
▁Pomyślałem	-8877
can	-8878
lien	-8879
▁pet	-8880
▁zmusi	-8881
▁repres	-8882
▁przypadku	-8883
dzone	-8884
▁rout	-8885
▁emergency	-8886
berg	-8887
łoni	-8888
niam	-8889
▁Bor	-8890
▁fizy	-8891
▁proof	-8892
▁Usiądź	-8893
▁chłopiec	-8894
chi	-8895
wan	-8896
ators	-8897
▁Start	-8898
▁borrow	-8899
▁Żartujesz	-8900
wia	-8901
▁Zdecyd	-8902
▁pozwal	-8903
24	-8904
▁gap	-8905
▁głoś	-8906
▁oboz	-8907
▁cancer	-8908
bił	-8909
▁kawy	-8910
▁explos	-8911
róć	-8912
▁sytuacja	-8913
▁Wysoko	-8914
▁connection	-8915
▁fry	-8916
▁fort	-8917
▁sali	-8918
rifice	-8919
▁wywiad	-8920
▁skomplikow	-8921
▁przyjacielu	-8922
▁Young	-8923
▁sukin	-8924
▁potrze	-8925
▁zobacz	-8926
▁Ari	-8927
▁Atl	-8928
▁Cap	-8929
▁copy	-8930
▁ką	-8931
▁pou	-8932
riest	-8933
łogosła	-8934
▁Aż	-8935
believ	-8936
▁uwagi	-8937
▁kochać	-8938
▁manager	-8939
irur	-8940
więc	-8941
▁Def	-8942
▁Copy	-8943
▁dies	-8944
▁Sprzed	-8945
▁bridge	-8946
▁mężczyzną	-8947
▁Hay	-8948
rostu	-8949
▁Nowym	-8950
▁Tyler	-8951
▁prawdy	-8952
▁Prom	-8953
dzeniu	-8954
▁Sally	-8955
▁nowym	-8956
▁Mówiłam	-8957
▁zapłacić	-8958
ending	-8959
▁cześć	-8960
▁ochotę	-8961
▁falling	-8962
▁terrory	-8963
▁criminal	-8964
▁odpowiad	-8965
▁Tre	-8966
▁jerk	-8967
▁podz	-8968
▁behav	-8969
▁rozmowy	-8970
▁wierzysz	-8971
▁deliver	-8972
▁zadowol	-8973
▁discovered	-8974
rach	-8975
▁Mmm	-8976
▁lun	-8977
▁wild	-8978
▁secrets	-8979
▁niedługo	-8980
▁prepared	-8981
▁90	-8982
imate	-8983
▁swego	-8984
▁wziął	-8985
▁tamtej	-8986
▁zapach	-8987
▁przynios	-8988
utki	-8989
▁Uwaga	-8990
▁among	-8991
▁bless	-8992
▁oficj	-8993
▁zamknąć	-8994
▁postanowi	-8995
▁comfortable	-8996
acer	-8997
▁size	-8998
▁convin	-8999
▁delikat	-9000
cul	-9001
▁Taka	-9002
nikami	-9003
▁shame	-9004
▁partic	-9005
▁suicide	-9006
▁followed	-9007
mii	-9008
boje	-9009
▁czyn	-9010
▁ruin	-9011
▁text	-9012
▁vers	-9013
▁spokoj	-9014
▁Mówiłeś	-9015
▁pogrzeb	-9016
▁Zatrzymaj	-9017
▁Old	-9018
▁loss	-9019
▁powtó	-9020
▁Próbuję	-9021
▁uśmiech	-9022
▁Air	-9023
▁pud	-9024
kowym	-9025
▁snow	-9026
usted	-9027
▁anty	-9028
▁podró	-9029
kaliśmy	-9030
ajemy	-9031
miemy	-9032
▁chief	-9033
▁ślady	-9034
▁Enough	-9035
▁Ev	-9036
igger	-9037
▁lies	-9038
▁milk	-9039
▁Śmier	-9040
▁eksper	-9041
▁poczekać	-9042
▁Eth	-9043
▁Baby	-9044
▁widok	-9045
▁property	-9046
▁przeprosi	-9047
born	-9048
rzęd	-9049
▁żół	-9050
▁emoc	-9051
▁weight	-9052
▁somehow	-9053
▁musiałem	-9054
▁chat	-9055
▁wiat	-9056
kujesz	-9057
▁mirac	-9058
▁oczywi	-9059
▁Mógłbyś	-9060
▁przekonać	-9061
yfi	-9062
aska	-9063
liar	-9064
▁wsa	-9065
▁Dale	-9066
▁cywi	-9067
sia	-9068
zdu	-9069
lika	-9070
owny	-9071
▁bite	-9072
▁ours	-9073
▁older	-9074
▁umrze	-9075
owanych	-9076
▁jedziemy	-9077
▁wspaniale	-9078
bal	-9079
ival	-9080
▁jestes	-9081
▁oczach	-9082
▁funeral	-9083
▁transfer	-9084
▁okoliczności	-9085
veral	-9086
▁sumie	-9087
▁woods	-9088
▁opened	-9089
▁breaking	-9090
sąd	-9091
zon	-9092
anks	-9093
▁Plus	-9094
▁river	-9095
▁oczeki	-9096
▁request	-9097
▁bycie	-9098
▁Gabrie	-9099
▁object	-9100
▁Musicie	-9101
▁detective	-9102
▁due	-9103
▁Znajdź	-9104
▁Zadzwonię	-9105
▁wspaniały	-9106
eta	-9107
jęt	-9108
rona	-9109
▁szefem	-9110
▁Howard	-9111
▁emotion	-9112
▁potrzeba	-9113
ilar	-9114
▁Mia	-9115
▁bój	-9116
essed	-9117
▁Rock	-9118
▁Jedno	-9119
▁Miała	-9120
▁cases	-9121
sters	-9122
▁przede	-9123
▁zastęp	-9124
▁flowers	-9125
▁zao	-9126
ening	-9127
stood	-9128
▁pred	-9129
▁World	-9130
▁szery	-9131
▁contract	-9132
▁wydarzyło	-9133
śpie	-9134
▁słychać	-9135
▁_	-9136
▁justice	-9137
▁seemed	-9138
▁theory	-9139
▁goddamn	-9140
▁wyszedł	-9141
▁flu	-9142
▁Bierz	-9143
▁denerw	-9144
czyliśmy	-9145
▁breathe	-9146
▁details	-9147
ebe	-9148
rel	-9149
oster	-9150
▁load	-9151
▁Ojcze	-9152
▁trzyma	-9153
▁nowhere	-9154
etu	-9155
▁potęż	-9156
▁includ	-9157
▁sooner	-9158
▁uzy	-9159
▁ruszać	-9160
▁convince	-9161
book	-9162
▁Dod	-9163
▁scare	-9164
▁szpie	-9165
▁dolców	-9166
▁dowodów	-9167
▁pracuję	-9168
siąt	-9169
▁dude	-9170
▁skaz	-9171
▁świn	-9172
▁bottom	-9173
▁burned	-9174
II	-9175
▁Ki	-9176
▁Wst	-9177
▁mix	-9178
▁Jesse	-9179
▁Their	-9180
▁okolicy	-9181
▁gnie	-9182
▁heads	-9183
▁harder	-9184
▁siedem	-9185
▁działać	-9186
▁sukinsy	-9187
pot	-9188
uży	-9189
▁nosi	-9190
▁ideas	-9191
▁Pieprz	-9192
▁stracić	-9193
dech	-9194
▁doz	-9195
▁nor	-9196
▁karty	-9197
▁relat	-9198
▁przerw	-9199
▁kilomet	-9200
▁spojrzeć	-9201
OS	-9202
ierd	-9203
▁jes	-9204
▁leży	-9205
▁usta	-9206
▁stars	-9207
▁zanie	-9208
▁piwo	-9209
▁trój	-9210
stant	-9211
▁mile	-9212
▁pool	-9213
▁Police	-9214
▁speech	-9215
▁wytrzym	-9216
▁następny	-9217
bies	-9218
▁crow	-9219
▁Zapyt	-9220
szyb	-9221
▁grę	-9222
▁Czyt	-9223
▁zasad	-9224
▁Słyszysz	-9225
▁Gord	-9226
▁leader	-9227
▁lights	-9228
▁śmiercią	-9229
▁ug	-9230
▁Nik	-9231
słuch	-9232
▁zmarł	-9233
▁member	-9234
▁defense	-9235
UT	-9236
▁tie	-9237
▁downstairs	-9238
back	-9239
rzód	-9240
▁tab	-9241
▁Skar	-9242
▁Cooper	-9243
▁poster	-9244
▁chciałby	-9245
łuż	-9246
▁Fer	-9247
▁wak	-9248
▁wezmę	-9249
▁wybrać	-9250
▁neighborhood	-9251
alie	-9252
▁tuż	-9253
▁tap	-9254
▁appo	-9255
▁defe	-9256
▁gwał	-9257
▁innej	-9258
▁Przysz	-9259
▁funk	-9260
▁okno	-9261
▁poin	-9262
dko	-9263
▁Pół	-9264
▁map	-9265
▁bang	-9266
▁brut	-9267
▁cares	-9268
▁lonely	-9269
▁wydostać	-9270
▁zje	-9271
using	-9272
▁kiesz	-9273
▁zabawy	-9274
gro	-9275
load	-9276
▁Tan	-9277
▁bill	-9278
▁twoi	-9279
▁milli	-9280
▁health	-9281
▁dziećmi	-9282
▁Sid	-9283
▁mecz	-9284
▁Londy	-9285
olution	-9286
▁chłopcze	-9287
▁NA	-9288
ades	-9289
▁fortu	-9290
▁buying	-9291
▁podstaw	-9292
thew	-9293
▁coin	-9294
▁przodu	-9295
▁football	-9296
kową	-9297
▁Jere	-9298
▁Life	-9299
▁exec	-9300
▁jaja	-9301
▁kasę	-9302
▁metal	-9303
▁Oliver	-9304
▁sądzie	-9305
▁Ut	-9306
ujmy	-9307
▁fate	-9308
▁Dopiero	-9309
▁ochrony	-9310
▁telewizji	-9311
▁Au	-9312
down	-9313
omen	-9314
paść	-9315
▁iron	-9316
▁rele	-9317
▁Katie	-9318
▁popraw	-9319
▁ostatnia	-9320
lił	-9321
rit	-9322
tni	-9323
▁Amen	-9324
▁Król	-9325
▁rozw	-9326
▁ściąg	-9327
▁distra	-9328
▁drugim	-9329
▁wą	-9330
stal	-9331
usia	-9332
▁ponie	-9333
▁piersi	-9334
▁wyniki	-9335
Ch	-9336
mail	-9337
yond	-9338
▁abym	-9339
▁devil	-9340
▁zgubi	-9341
▁wrócisz	-9342
▁niew	-9343
cząc	-9344
▁Cour	-9345
▁Wyob	-9346
▁upon	-9347
ającym	-9348
▁zginął	-9349
▁Ly	-9350
rzez	-9351
▁Bay	-9352
▁stom	-9353
versity	-9354
astic	-9355
▁Sing	-9356
▁held	-9357
▁contain	-9358
anny	-9359
▁Wpad	-9360
▁naked	-9361
▁wchodzi	-9362
▁swa	-9363
ciach	-9364
▁Niem	-9365
▁podziękować	-9366
ault	-9367
▁Przej	-9368
▁hired	-9369
▁langu	-9370
▁wszech	-9371
▁Korekta	-9372
ctwa	-9373
ówka	-9374
▁Mek	-9375
▁suck	-9376
▁Przyja	-9377
▁boring	-9378
believable	-9379
▁Które	-9380
▁powiąz	-9381
▁horrible	-9382
▁Rę	-9383
▁Wyj	-9384
▁deb	-9385
amond	-9386
▁Mimo	-9387
▁Nasza	-9388
▁photo	-9389
▁198	-9390
▁cheer	-9391
▁listę	-9392
▁Sunday	-9393
▁mieszkania	-9394
▁wyści	-9395
owaniem	-9396
▁shower	-9397
▁wyjeżdż	-9398
ocz	-9399
zes	-9400
▁Clo	-9401
▁finds	-9402
▁chwila	-9403
▁piękny	-9404
▁Ciekawe	-9405
▁Większość	-9406
EM	-9407
ciąga	-9408
▁poss	-9409
▁schedu	-9410
▁Prawdzi	-9411
▁science	-9412
▁wybaczyć	-9413
▁pierwszego	-9414
▁Terry	-9415
▁Matthew	-9416
▁Tem	-9417
▁pir	-9418
▁taty	-9419
▁Jordan	-9420
▁center	-9421
▁character	-9422
▁Les	-9423
▁rev	-9424
▁Comp	-9425
ser	-9426
▁Kłam	-9427
▁charm	-9428
▁regular	-9429
jna	-9430
adem	-9431
▁stro	-9432
▁liście	-9433
▁ubezpie	-9434
▁Gentlemen	-9435
▁Clay	-9436
▁beauty	-9437
▁miałbym	-9438
ela	-9439
▁zezn	-9440
▁wasza	-9441
▁wojnę	-9442
▁escaped	-9443
▁grandmother	-9444
▁Blue	-9445
▁storm	-9446
▁usiąść	-9447
▁bedroom	-9448
▁wyprawiasz	-9449
RA	-9450
▁sin	-9451
itude	-9452
▁Najlep	-9453
▁Wilson	-9454
▁incred	-9455
▁zmiany	-9456
▁opuścić	-9457
▁własnej	-9458
▁Internet	-9459
▁Szczerze	-9460
▁niebezpieczne	-9461
▁48	-9462
▁nat	-9463
▁lice	-9464
▁Satur	-9465
▁linii	-9466
ekty	-9467
▁gadać	-9468
▁kolor	-9469
▁kurcz	-9470
▁source	-9471
▁ujaw	-9472
▁heavy	-9473
▁narzę	-9474
czności	-9475
▁poszła	-9476
▁dealing	-9477
▁pójdziemy	-9478
nior	-9479
▁finans	-9480
▁gotowe	-9481
▁ticket	-9482
▁members	-9483
▁reality	-9484
▁communic	-9485
krę	-9486
nast	-9487
▁liczy	-9488
00.	-9489
▁Lew	-9490
▁Derek	-9491
▁zarob	-9492
▁Proble	-9493
▁różnych	-9494
▁koszul	-9495
▁oświad	-9496
▁skontakt	-9497
pit	-9498
▁Bab	-9499
▁fle	-9500
▁rzuc	-9501
▁oszust	-9502
ught	-9503
▁Arm	-9504
▁chi	-9505
▁vot	-9506
lenty	-9507
ziono	-9508
▁dupę	-9509
▁reco	-9510
▁sierż	-9511
▁changes	-9512
▁cierpie	-9513
▁cli	-9514
▁indziej	-9515
▁przeszłości	-9516
ówkę	-9517
▁lif	-9518
▁łap	-9519
▁płak	-9520
▁zamy	-9521
▁Znaczy	-9522
▁potrafisz	-9523
pia	-9524
▁om	-9525
▁rą	-9526
▁Osz	-9527
identyfi	-9528
▁ubrania	-9529
▁Catherine	-9530
sit	-9531
▁Dość	-9532
▁Możliwe	-9533
▁Niczego	-9534
▁obvious	-9535
▁Pamiętaj	-9536
▁śniadanie	-9537
czo	-9538
▁ge	-9539
▁pin	-9540
▁Chan	-9541
▁sprze	-9542
▁Jeremy	-9543
▁Phoebe	-9544
▁miałaś	-9545
▁wysłać	-9546
▁Sum	-9547
▁dniu	-9548
▁kolejne	-9549
▁universe	-9550
▁Commander	-9551
▁wis	-9552
derer	-9553
dzają	-9554
▁młoda	-9555
▁niewy	-9556
▁Więcej	-9557
▁sygnał	-9558
▁traged	-9559
▁Podobno	-9560
ashion	-9561
▁queen	-9562
▁letters	-9563
▁świetne	-9564
▁handsome	-9565
▁operacji	-9566
▁twierdzi	-9567
▁introduce	-9568
▁responsibility	-9569
bas	-9570
ians	-9571
▁Uro	-9572
▁ster	-9573
▁Zapew	-9574
▁memories	-9575
▁db	-9576
puścić	-9577
▁invite	-9578
▁jedzie	-9579
idy	-9580
ffin	-9581
wałam	-9582
▁Złap	-9583
▁krze	-9584
▁Johnson	-9585
▁Patrzcie	-9586
.?	-9587
cting	-9588
▁podp	-9589
▁bratem	-9590
▁robber	-9591
▁students	-9592
▁insurance	-9593
▁Uk	-9594
boko	-9595
kanie	-9596
▁wsch	-9597
▁ambul	-9598
AY	-9599
IM	-9600
▁CH	-9601
What	-9602
▁north	-9603
▁Frankie	-9604
▁freedom	-9605
▁prawdziwa	-9606
▁przypadek	-9607
uta	-9608
rett	-9609
▁ląd	-9610
▁Bost	-9611
▁Cała	-9612
▁Tech	-9613
▁circum	-9614
▁spread	-9615
▁oś	-9616
▁wes	-9617
▁spis	-9618
▁osiem	-9619
▁utrzymać	-9620
▁Id	-9621
▁pol	-9622
▁zjad	-9623
▁aware	-9624
solutnie	-9625
▁assume	-9626
▁legend	-9627
▁sed	-9628
▁suspi	-9629
ekt	-9630
▁ON	-9631
▁Marga	-9632
▁punch	-9633
▁Słyszałam	-9634
▁trad	-9635
▁Zabra	-9636
▁toale	-9637
▁bronią	-9638
▁signed	-9639
▁current	-9640
▁zostaje	-9641
▁lewo	-9642
▁ofer	-9643
▁Betty	-9644
▁Ricky	-9645
▁strac	-9646
alności	-9647
▁rękach	-9648
▁zabiję	-9649
łać	-9650
astro	-9651
▁wyzw	-9652
▁Rebec	-9653
▁rescu	-9654
▁Indian	-9655
▁Nazywa	-9656
▁doctors	-9657
▁wewnątrz	-9658
gle	-9659
▁Py	-9660
▁cerem	-9661
▁zmienia	-9662
▁prawdziwym	-9663
▁non	-9664
▁whis	-9665
▁usual	-9666
▁cheese	-9667
▁oszczę	-9668
▁Officer	-9669
▁Później	-9670
▁spędzić	-9671
▁lekarzem	-9672
▁codziennie	-9673
ack	-9674
▁Las	-9675
awało	-9676
▁rzad	-9677
▁mężem	-9678
▁wheel	-9679
▁forced	-9680
▁Forgive	-9681
▁showing	-9682
▁pochodzi	-9683
▁Dwie	-9684
wienia	-9685
▁Szczę	-9686
▁pielę	-9687
okes	-9688
czyli	-9689
▁inna	-9690
▁ojcu	-9691
▁Wysoki	-9692
▁pieces	-9693
▁chłopca	-9694
▁dziwnie	-9695
▁spotkania	-9696
pson	-9697
vant	-9698
▁flat	-9699
▁ogło	-9700
▁drove	-9701
▁paint	-9702
▁Cze	-9703
▁długi	-9704
▁zajmę	-9705
śnienie	-9706
▁Parker	-9707
▁brilliant	-9708
ocy	-9709
gach	-9710
▁Owszem	-9711
▁randkę	-9712
gia	-9713
ized	-9714
▁gal	-9715
▁Elli	-9716
▁dise	-9717
▁cheap	-9718
▁sędzi	-9719
▁przyda	-9720
We	-9721
▁Ap	-9722
▁pracujesz	-9723
▁sacrifice	-9724
▁permission	-9725
▁kod	-9726
▁rab	-9727
▁termin	-9728
▁Ź	-9729
nki	-9730
ues	-9731
owiec	-9732
▁atmos	-9733
▁bry	-9734
▁Sweet	-9735
▁Żaden	-9736
▁Dopóki	-9737
▁pułkow	-9738
▁swoimi	-9739
czać	-9740
inem	-9741
▁cof	-9742
dziłaś	-9743
▁Zabaw	-9744
▁zasadzie	-9745
▁mel	-9746
▁Doug	-9747
▁Pomog	-9748
▁imprezę	-9749
▁Coll	-9750
▁napi	-9751
▁pude	-9752
▁ataku	-9753
▁specific	-9754
atek	-9755
ingo	-9756
sion	-9757
▁Men	-9758
▁Rand	-9759
▁heat	-9760
▁umowę	-9761
▁divorce	-9762
▁powinny	-9763
▁uniform	-9764
▁zachowy	-9765
▁zej	-9766
▁ille	-9767
▁Jamie	-9768
▁trzymaj	-9769
▁laughing	-9770
ems	-9771
▁Aunt	-9772
▁skle	-9773
▁zest	-9774
▁udowodnić	-9775
EL	-9776
▁traw	-9777
▁napad	-9778
uja	-9779
▁admi	-9780
▁Wstawaj	-9781
▁behavior	-9782
▁zniszczy	-9783
ruit	-9784
wało	-9785
▁shape	-9786
▁odnaleź	-9787
▁Saturday	-9788
▁własnego	-9789
oon	-9790
▁27	-9791
▁Hor	-9792
▁ana	-9793
imi	-9794
kowej	-9795
▁wash	-9796
ligence	-9797
▁ograni	-9798
umb	-9799
ilies	-9800
▁finding	-9801
▁patients	-9802
asi	-9803
fit	-9804
tki	-9805
tego	-9806
▁Squ	-9807
▁valu	-9808
▁autom	-9809
▁dotar	-9810
▁pomóż	-9811
▁kierunku	-9812
▁wyle	-9813
▁chose	-9814
▁uwielbi	-9815
▁tk	-9816
dzia	-9817
iger	-9818
bilit	-9819
▁Byłaś	-9820
onii	-9821
▁Pad	-9822
▁zero	-9823
▁Ciężko	-9824
▁doczekać	-9825
dzieliście	-9826
▁chwilkę	-9827
oul	-9828
▁Sad	-9829
▁żył	-9830
ciety	-9831
▁thro	-9832
▁ruined	-9833
▁reasons	-9834
▁nazwiska	-9835
▁30.	-9836
▁Sar	-9837
▁gum	-9838
gland	-9839
▁Fine	-9840
▁Pick	-9841
▁boga	-9842
▁wave	-9843
▁Meksy	-9844
▁artist	-9845
▁answers	-9846
▁oil	-9847
▁agen	-9848
▁klien	-9849
▁prokur	-9850
▁wyjście	-9851
▁zapomnij	-9852
▁śred	-9853
▁małym	-9854
▁wkurz	-9855
viously	-9856
▁papier	-9857
▁Powinnam	-9858
▁powiedzieli	-9859
uri	-9860
czku	-9861
▁dała	-9862
▁rana	-9863
ipment	-9864
▁Light	-9865
▁wojna	-9866
▁dancing	-9867
▁Potrzebujesz	-9868
tan	-9869
asha	-9870
▁dosy	-9871
branie	-9872
▁kredy	-9873
▁cigaret	-9874
▁zostaniesz	-9875
gać	-9876
▁ły	-9877
▁Mid	-9878
▁byc	-9879
zajem	-9880
▁airport	-9881
▁ostatnią	-9882
▁Yu	-9883
ague	-9884
▁mys	-9885
▁spy	-9886
▁Pięć	-9887
▁prin	-9888
▁organ	-9889
▁Ever	-9890
▁hors	-9891
▁Założę	-9892
▁romans	-9893
▁najszyb	-9894
rabi	-9895
▁teren	-9896
▁poświę	-9897
▁opening	-9898
otos	-9899
ślij	-9900
łabyś	-9901
▁Hard	-9902
▁magn	-9903
▁Media	-9904
▁bawić	-9905
▁picking	-9906
▁revenge	-9907
▁whoever	-9908
itiz	-9909
▁tren	-9910
hip	-9911
▁Iz	-9912
ador	-9913
▁woz	-9914
▁Tobą	-9915
▁sees	-9916
▁stab	-9917
▁punish	-9918
ucha	-9919
▁infe	-9920
▁grown	-9921
▁beyond	-9922
▁szanse	-9923
▁zostanę	-9924
kes	-9925
▁ya	-9926
▁Dowie	-9927
▁asyst	-9928
▁Zatrzym	-9929
▁Zrobiłem	-9930
▁Słuchajcie	-9931
▁przedstawie	-9932
omm	-9933
acją	-9934
▁Gun	-9935
▁bol	-9936
▁Chcie	-9937
▁promie	-9938
▁waszej	-9939
▁fingers	-9940
▁słyszysz	-9941
atory	-9942
▁wspomni	-9943
czce	-9944
▁Apr	-9945
▁tun	-9946
▁Thing	-9947
▁knock	-9948
▁księży	-9949
▁otwarte	-9950
▁mogłabym	-9951
▁thousands	-9952
lop	-9953
▁ol	-9954
▁hunt	-9955
▁loud	-9956
▁pill	-9957
▁adult	-9958
▁brings	-9959
▁stayed	-9960
▁monitor	-9961
▁możliwość	-9962
▁prowadzić	-9963
wny	-9964
wolu	-9965
▁USA	-9966
▁mail	-9967
▁zgadza	-9968
▁łazien	-9969
▁Grandma	-9970
łość	-9971
▁Zauf	-9972
▁króla	-9973
▁metrów	-9974
▁bleeding	-9975
▁Vince	-9976
▁pomyśleć	-9977
▁tan	-9978
▁Mont	-9979
▁tests	-9980
▁zwari	-9981
▁Lubisz	-9982
▁Straci	-9983
▁przech	-9984
▁safety	-9985
rech	-9986
▁197	-9987
▁suger	-9988
▁Amanda	-9989
▁Island	-9990
▁priest	-9991
▁knowledge	-9992
śred	-9993
▁rub	-9994
▁Hope	-9995
rzelił	-9996
▁covered	-9997
▁thoughts	-9998
▁czyż	-9999
▁niewi	-10000
▁bliżej	-10001
▁toilet	-10002
▁najlepsza	-10003
▁Absolutely	-10004
▁3.	-10005
serw	-10006
▁porów	-10007
▁Better	-10008
▁Fu	-10009
broj	-10010
▁10:	-10011
▁Pok	-10012
▁England	-10013
▁nazywasz	-10014
▁Razem	-10015
tek	-10016
tered	-10017
▁France	-10018
▁buried	-10019
▁player	-10020
▁przyczy	-10021
▁łatwiej	-10022
nalaz	-10023
▁cand	-10024
▁Andre	-10025
▁Wezmę	-10026
▁Najwyraźniej	-10027
▁zy	-10028
ściu	-10029
▁Zga	-10030
▁dwój	-10031
▁woli	-10032
▁genius	-10033
▁żyjesz	-10034
▁przyszła	-10035
obby	-10036
▁wypi	-10037
▁Grant	-10038
▁Jacob	-10039
▁małego	-10040
ggy	-10041
liwa	-10042
▁April	-10043
▁Stone	-10044
▁wyląd	-10045
▁fought	-10046
▁lekarz	-10047
▁several	-10048
▁medicine	-10049
ujek	-10050
arcia	-10051
zyden	-10052
▁mogły	-10053
▁complain	-10054
erzy	-10055
nęli	-10056
▁Dot	-10057
lenge	-10058
▁inten	-10059
▁łodzi	-10060
ślę	-10061
▁cu	-10062
ateful	-10063
▁Doskon	-10064
▁artyku	-10065
▁dobrych	-10066
stów	-10067
▁tch	-10068
▁German	-10069
▁Siadaj	-10070
▁Ej	-10071
▁net	-10072
▁winy	-10073
▁owner	-10074
▁prysz	-10075
▁recently	-10076
ential	-10077
▁equipment	-10078
▁2.	-10079
▁row	-10080
ipped	-10081
▁jury	-10082
▁kory	-10083
▁panno	-10084
▁wygry	-10085
▁charges	-10086
ties	-10087
▁pić	-10088
▁Part	-10089
▁kamp	-10090
działu	-10091
▁large	-10092
▁zabierz	-10093
▁dziesięć	-10094
▁najlepszego	-10095
cenie	-10096
▁moge	-10097
▁nadz	-10098
▁Again	-10099
▁bedzie	-10100
▁Mógłbym	-10101
▁brakuje	-10102
iti	-10103
aktu	-10104
bage	-10105
muje	-10106
łasz	-10107
▁móc	-10108
▁disp	-10109
▁woke	-10110
▁awful	-10111
▁przen	-10112
▁decyzja	-10113
▁upewnić	-10114
▁Sant	-10115
▁grupy	-10116
alifornia	-10117
▁Człowiek	-10118
▁@	-10119
▁8:	-10120
▁plenty	-10121
▁uspoko	-10122
It	-10123
ppy	-10124
łaby	-10125
przyć	-10126
▁Play	-10127
▁Tess	-10128
▁Mówił	-10129
▁Zabij	-10130
▁przyjemność	-10131
jne	-10132
żek	-10133
▁rot	-10134
▁Shin	-10135
jedzie	-10136
▁Panno	-10137
▁warte	-10138
▁failed	-10139
▁granic	-10140
▁tickets	-10141
▁szczerze	-10142
▁usi	-10143
▁kraw	-10144
▁miały	-10145
▁vacation	-10146
▁Wr	-10147
▁page	-10148
▁Bruce	-10149
▁badly	-10150
▁daleka	-10151
▁francus	-10152
▁słyszeć	-10153
▁właścicie	-10154
rated	-10155
▁mood	-10156
▁attem	-10157
▁Stu	-10158
▁Tat	-10159
▁Germ	-10160
▁sprawą	-10161
▁Michelle	-10162
case	-10163
chro	-10164
▁Bis	-10165
▁gate	-10166
colate	-10167
▁Casey	-10168
▁Szukam	-10169
▁photogra	-10170
cen	-10171
▁arg	-10172
▁Flor	-10173
▁pomocą	-10174
▁stronger	-10175
▁powierzch	-10176
żenie	-10177
▁based	-10178
▁kuzyn	-10179
▁Uważam	-10180
▁propozy	-10181
▁wyobrazić	-10182
VE	-10183
rees	-10184
▁alco	-10185
▁jedyne	-10186
▁serial	-10187
▁przygotować	-10188
hem	-10189
▁żyw	-10190
fered	-10191
nięty	-10192
▁Whit	-10193
▁cure	-10194
▁gosp	-10195
▁druga	-10196
intment	-10197
▁lecieć	-10198
▁stomach	-10199
▁nóż	-10200
▁posił	-10201
▁danych	-10202
▁Spen	-10203
▁odwa	-10204
▁Zakład	-10205
▁chodźmy	-10206
▁professional	-10207
▁Poru	-10208
▁reve	-10209
▁role	-10210
▁Angela	-10211
▁Neither	-10212
▁(	-10213
▁eki	-10214
dynek	-10215
▁Boss	-10216
▁blur	-10217
▁pach	-10218
▁poni	-10219
▁facetów	-10220
▁Minister	-10221
▁baseball	-10222
▁families	-10223
elli	-10224
ences	-10225
▁woda	-10226
▁lubią	-10227
▁sąsiad	-10228
▁drugiego	-10229
▁WH	-10230
szne	-10231
hamed	-10232
▁wraz	-10233
cement	-10234
▁Wayne	-10235
▁general	-10236
▁watched	-10237
▁znaczenie	-10238
▁Gal	-10239
▁Pozn	-10240
▁insist	-10241
▁zamian	-10242
bow	-10243
▁zys	-10244
▁Kent	-10245
▁Zgad	-10246
▁mamę	-10247
▁złym	-10248
▁witch	-10249
▁jakiejś	-10250
▁bike	-10251
▁mole	-10252
arters	-10253
▁poślu	-10254
▁announ	-10255
▁guarant	-10256
żesz	-10257
▁Rat	-10258
▁eggs	-10259
▁Jedziemy	-10260
▁concerned	-10261
▁mentioned	-10262
▁particular	-10263
oży	-10264
▁cab	-10265
▁Shoot	-10266
▁dobro	-10267
▁pułap	-10268
▁chciałaś	-10269
▁official	-10270
▁au	-10271
icho	-10272
▁Aud	-10273
▁Kong	-10274
▁auta	-10275
▁stacji	-10276
▁release	-10277
▁Marshall	-10278
▁restauracji	-10279
▁Mas	-10280
wards	-10281
▁drew	-10282
isters	-10283
▁zmieniło	-10284
bum	-10285
sell	-10286
vert	-10287
▁ends	-10288
pośred	-10289
▁whore	-10290
▁podróży	-10291
▁Hollywood	-10292
▁oczu	-10293
▁podnie	-10294
▁zaufać	-10295
▁Wkrótce	-10296
▁zapomin	-10297
▁Cas	-10298
akcept	-10299
▁remem	-10300
▁powers	-10301
▁potrzeby	-10302
EC	-10303
uman	-10304
icans	-10305
▁obli	-10306
▁Tobie	-10307
▁gradu	-10308
▁ashamed	-10309
▁romanty	-10310
▁szalony	-10311
▁Chłopaki	-10312
▁przypuszcz	-10313
▁Oby	-10314
▁Buff	-10315
▁koles	-10316
▁staje	-10317
▁studi	-10318
▁Tonight	-10319
▁meaning	-10320
▁Natychmiast	-10321
etch	-10322
▁akcji	-10323
▁dosyć	-10324
▁pills	-10325
▁własny	-10326
▁znaczyć	-10327
▁rak	-10328
czność	-10329
▁podać	-10330
▁pusty	-10331
▁zachować	-10332
▁fol	-10333
▁whoa	-10334
▁gwiazd	-10335
▁publicz	-10336
ett	-10337
nich	-10338
▁rozsąd	-10339
▁warning	-10340
▁confused	-10341
KA	-10342
ban	-10343
▁Kry	-10344
▁occ	-10345
▁Tęsk	-10346
nięcia	-10347
▁perfectly	-10348
▁represent	-10349
siada	-10350
▁ksią	-10351
▁Nancy	-10352
▁Caroline	-10353
▁familiar	-10354
▁murderer	-10355
%.	-10356
▁Zau	-10357
ięcie	-10358
▁Chcą	-10359
▁Zajmę	-10360
▁ignor	-10361
▁Gratulacje	-10362
▁Czu	-10363
▁Poor	-10364
▁perhaps	-10365
▁expensive	-10366
▁26	-10367
rama	-10368
omeday	-10369
▁towar	-10370
▁Joseph	-10371
▁królow	-10372
▁przyst	-10373
▁language	-10374
▁dziewczynka	-10375
▁Dasz	-10376
▁tong	-10377
▁south	-10378
▁Pracuję	-10379
▁clearly	-10380
UR	-10381
▁gę	-10382
rząc	-10383
uszą	-10384
niósł	-10385
▁Choć	-10386
▁Potra	-10387
▁nikim	-10388
▁dobrej	-10389
▁zginie	-10390
▁manipul	-10391
▁community	-10392
▁drob	-10393
▁camer	-10394
dzeniem	-10395
▁Trudno	-10396
▁Wierzę	-10397
▁drinks	-10398
▁sklepu	-10399
▁kapitan	-10400
▁znaleźli	-10401
▁forgotten	-10402
trze	-10403
▁Dra	-10404
▁Ode	-10405
ension	-10406
▁cierpi	-10407
▁symbol	-10408
▁tysiące	-10409
ctors	-10410
▁daddy	-10411
▁zasię	-10412
▁Szefie	-10413
▁Witamy	-10414
▁Christian	-10415
iry	-10416
▁Bła	-10417
▁unit	-10418
▁block	-10419
▁pokry	-10420
▁ostate	-10421
▁Whoever	-10422
▁Margaret	-10423
▁zer	-10424
emies	-10425
▁Mond	-10426
▁Riley	-10427
▁Europe	-10428
▁Rebecca	-10429
fon	-10430
▁Land	-10431
atorem	-10432
▁Marty	-10433
▁style	-10434
▁miałby	-10435
▁przeby	-10436
▁energii	-10437
▁nigdzie	-10438
▁założyć	-10439
anką	-10440
▁Fil	-10441
▁Joy	-10442
dzamy	-10443
▁powod	-10444
▁znamy	-10445
▁odnaleźć	-10446
▁challenge	-10447
hand	-10448
orąc	-10449
▁Ist	-10450
dzona	-10451
icers	-10452
▁mary	-10453
▁banku	-10454
▁biuro	-10455
▁drogą	-10456
▁license	-10457
▁Soon	-10458
▁obyw	-10459
▁stre	-10460
▁indic	-10461
▁zjawi	-10462
stances	-10463
▁Został	-10464
▁element	-10465
▁extreme	-10466
▁wysłuch	-10467
▁bała	-10468
▁czte	-10469
▁Kenny	-10470
▁Carlos	-10471
▁accomp	-10472
▁prędko	-10473
▁waited	-10474
▁naprawi	-10475
hold	-10476
unny	-10477
▁Gri	-10478
▁Kor	-10479
▁inj	-10480
▁rea	-10481
▁bólu	-10482
▁Życie	-10483
▁bright	-10484
▁pocket	-10485
owaną	-10486
ująca	-10487
▁Must	-10488
▁exch	-10489
▁lust	-10490
▁świą	-10491
▁domem	-10492
▁loyal	-10493
onsense	-10494
▁czasów	-10495
▁myślał	-10496
▁pojech	-10497
▁Zobaczmy	-10498
▁location	-10499
wiaty	-10500
▁Lore	-10501
▁kontroli	-10502
▁potrzebować	-10503
pse	-10504
▁ego	-10505
▁boisz	-10506
▁rzuci	-10507
▁hidden	-10508
▁sprzedać	-10509
▁survived	-10510
▁wyglądam	-10511
aked	-10512
▁Kay	-10513
▁mir	-10514
stery	-10515
▁siłę	-10516
▁Zapła	-10517
▁osobę	-10518
▁Nikogo	-10519
▁growing	-10520
▁lepszego	-10521
karz	-10522
▁Alli	-10523
▁skon	-10524
▁parts	-10525
▁głupia	-10526
▁lesson	-10527
▁Anybody	-10528
▁Zad	-10529
▁mic	-10530
▁anti	-10531
▁lamp	-10532
▁points	-10533
▁wiedzieli	-10534
wyt	-10535
▁pt	-10536
cons	-10537
▁spoke	-10538
▁przywi	-10539
▁social	-10540
▁Wysokość	-10541
udź	-10542
cies	-10543
▁Dia	-10544
▁ears	-10545
▁invent	-10546
▁ocalić	-10547
arta	-10548
cian	-10549
▁Podej	-10550
▁Chcecie	-10551
▁planned	-10552
▁siostrę	-10553
▁zwyczaj	-10554
▁Otherwise	-10555
wys	-10556
▁LA	-10557
dziec	-10558
▁miła	-10559
▁mamie	-10560
▁toler	-10561
▁spytać	-10562
▁śmieci	-10563
▁miliony	-10564
daż	-10565
▁Zg	-10566
vaila	-10567
▁Fore	-10568
▁mistakes	-10569
▁Cof	-10570
▁Phili	-10571
ket	-10572
łach	-10573
▁Sek	-10574
waniu	-10575
▁Całe	-10576
owanym	-10577
szenia	-10578
▁odwoł	-10579
▁pełne	-10580
▁bierze	-10581
▁fortune	-10582
▁connected	-10583
łby	-10584
▁Pon	-10585
szymi	-10586
▁River	-10587
▁deszcz	-10588
▁propos	-10589
▁resist	-10590
▁wybacz	-10591
▁skorzyst	-10592
fo	-10593
▁Syd	-10594
▁pak	-10595
▁Paige	-10596
▁assum	-10597
▁Secret	-10598
▁mojemu	-10599
▁zabiera	-10600
▁Fi	-10601
▁Zjed	-10602
▁ugly	-10603
▁Wyciąg	-10604
▁waszym	-10605
▁assistant	-10606
▁prog	-10607
▁Niepraw	-10608
▁kradzie	-10609
▁changing	-10610
▁Wiedziałam	-10611
▁Set	-10612
lismy	-10613
▁Teddy	-10614
▁obser	-10615
▁nieleg	-10616
atów	-10617
wane	-10618
▁Świ	-10619
▁Wake	-10620
▁blew	-10621
▁zabija	-10622
▁dziwnego	-10623
▁Próbowałem	-10624
▁crowd	-10625
▁files	-10626
▁original	-10627
▁Clear	-10628
▁córką	-10629
▁rights	-10630
▁log	-10631
▁wyż	-10632
ależy	-10633
▁kazał	-10634
▁kieps	-10635
▁rozst	-10636
▁solve	-10637
ulation	-10638
▁Malcol	-10639
▁pięciu	-10640
▁kłopotów	-10641
▁surround	-10642
anc	-10643
▁tip	-10644
▁alibi	-10645
▁total	-10646
▁znajduje	-10647
wana	-10648
▁Russian	-10649
▁Ostatnio	-10650
▁70	-10651
goti	-10652
▁Bern	-10653
▁grew	-10654
▁należ	-10655
▁walls	-10656
▁horses	-10657
▁prepare	-10658
▁rozkazy	-10659
▁wszystkimi	-10660
▁Kol	-10661
▁Tele	-10662
▁ręki	-10663
▁publi	-10664
▁tłuma	-10665
▁Sophie	-10666
▁przysł	-10667
▁głęboko	-10668
▁Pau	-10669
cenia	-10670
▁offered	-10671
▁przejmuj	-10672
PS	-10673
jek	-10674
met	-10675
▁Tędy	-10676
pisode	-10677
▁Davis	-10678
▁oficer	-10679
vailable	-10680
▁interesuje	-10681
▁Meg	-10682
▁bru	-10683
▁arch	-10684
▁pomogę	-10685
▁Leonard	-10686
▁dostanę	-10687
lą	-10688
▁Kla	-10689
▁Robię	-10690
▁staną	-10691
▁studio	-10692
▁wyglądają	-10693
rana	-10694
▁Oboje	-10695
▁Prowa	-10696
▁nowej	-10697
▁virus	-10698
▁sexual	-10699
▁capable	-10700
▁uwierzy	-10701
▁expected	-10702
▁wiedziałeś	-10703
▁Ina	-10704
▁baj	-10705
▁lito	-10706
czeniu	-10707
▁Death	-10708
▁cabin	-10709
▁sercu	-10710
▁sukces	-10711
▁enemies	-10712
▁katastro	-10713
Co	-10714
ąb	-10715
awy	-10716
▁Tex	-10717
▁głęb	-10718
▁nerw	-10719
▁lines	-10720
owanego	-10721
▁Podczas	-10722
IĘ	-10723
imp	-10724
szkę	-10725
▁Jar	-10726
▁Tar	-10727
▁Gibbs	-10728
▁angel	-10729
▁trady	-10730
▁wnios	-10731
łącznie	-10732
▁korzyst	-10733
▁przeprosić	-10734
11	-10735
▁Ol	-10736
▁ryb	-10737
▁tall	-10738
▁niewol	-10739
▁trening	-10740
▁małżeństwo	-10741
bern	-10742
rance	-10743
▁serio	-10744
▁używać	-10745
IL	-10746
▁Ws	-10747
nione	-10748
racja	-10749
▁expert	-10750
▁romantic	-10751
encj	-10752
wały	-10753
▁Wiec	-10754
▁szaf	-10755
▁crack	-10756
▁Zaczyn	-10757
nific	-10758
▁giant	-10759
▁Staram	-10760
▁Zachow	-10761
▁byłaby	-10762
▁zabawa	-10763
▁Pierdol	-10764
▁uciekać	-10765
St	-10766
ided	-10767
▁zom	-10768
▁Bell	-10769
▁półno	-10770
▁glinia	-10771
▁transp	-10772
▁wyprowa	-10773
▁Slow	-10774
▁wytłuma	-10775
dzał	-10776
▁nies	-10777
▁stink	-10778
▁Pewnego	-10779
▁Spencer	-10780
▁dotyczą	-10781
▁różnica	-10782
▁starusz	-10783
▁umiejęt	-10784
▁waszych	-10785
▁Although	-10786
▁convinced	-10787
zerw	-10788
▁dwu	-10789
uries	-10790
▁throat	-10791
▁wypełni	-10792
▁received	-10793
▁wątpliwości	-10794
bid	-10795
▁tim	-10796
▁decyd	-10797
▁grave	-10798
▁ukoch	-10799
▁mistrz	-10800
▁pytasz	-10801
▁motherfucker	-10802
▁IT	-10803
arki	-10804
▁Zoe	-10805
▁barze	-10806
▁łatwe	-10807
▁gościem	-10808
▁dat	-10809
▁Problem	-10810
▁własnym	-10811
▁stealing	-10812
IG	-10813
▁Były	-10814
▁gram	-10815
▁rach	-10816
▁dostałem	-10817
▁throwing	-10818
▁Uder	-10819
▁tear	-10820
▁aside	-10821
▁bycia	-10822
▁Miller	-10823
▁chirur	-10824
▁pewność	-10825
▁szczegół	-10826
▁AND	-10827
▁gat	-10828
▁meth	-10829
▁sześ	-10830
▁zbad	-10831
▁zeby	-10832
▁uczyć	-10833
▁belongs	-10834
▁poświęc	-10835
▁przywód	-10836
▁bezpośred	-10837
▁ki	-10838
czel	-10839
▁dys	-10840
▁finan	-10841
▁advant	-10842
▁II	-10843
aches	-10844
asant	-10845
▁Toby	-10846
▁filled	-10847
▁pistolet	-10848
▁Ri	-10849
owna	-10850
▁demand	-10851
20	-10852
▁usp	-10853
kował	-10854
▁damy	-10855
▁filmu	-10856
▁kwiat	-10857
▁szefa	-10858
▁przegra	-10859
▁streets	-10860
zj	-10861
llie	-10862
akter	-10863
▁Fant	-10864
▁Seven	-10865
▁drown	-10866
czonych	-10867
▁online	-10868
fii	-10869
rusz	-10870
tured	-10871
▁mask	-10872
▁Żegnaj	-10873
ctive	-10874
dziło	-10875
▁Anne	-10876
▁Things	-10877
▁sukien	-10878
▁zaprze	-10879
▁Dziękuje	-10880
▁Widziałaś	-10881
ader	-10882
▁crit	-10883
▁Ethan	-10884
▁While	-10885
▁planu	-10886
▁toreb	-10887
▁headed	-10888
jął	-10889
▁Drop	-10890
▁gods	-10891
▁strzelać	-10892
▁zrobienia	-10893
▁.	-10894
tne	-10895
wając	-10896
▁cenę	-10897
▁zaje	-10898
▁Penny	-10899
▁arran	-10900
▁Wielki	-10901
▁odzysk	-10902
▁oprócz	-10903
▁znacznie	-10904
oked	-10905
▁Home	-10906
ologii	-10907
▁liceum	-10908
▁liczyć	-10909
aa	-10910
żeni	-10911
▁gno	-10912
▁płu	-10913
ciwie	-10914
▁garn	-10915
▁fajnie	-10916
▁Nigdzie	-10917
▁statement	-10918
arni	-10919
liłem	-10920
▁dupy	-10921
▁odleg	-10922
▁potrzebują	-10923
ektyw	-10924
illed	-10925
ymiar	-10926
▁Both	-10927
▁impro	-10928
▁warri	-10929
▁taksów	-10930
▁Całkiem	-10931
▁touched	-10932
▁słyszałam	-10933
▁twar	-10934
▁wood	-10935
utiful	-10936
▁legal	-10937
▁neuro	-10938
▁Either	-10939
▁powiad	-10940
▁sklepie	-10941
▁zostali	-10942
▁grandfather	-10943
know	-10944
radzi	-10945
▁pounds	-10946
▁Careful	-10947
▁warrant	-10948
łowa	-10949
niona	-10950
▁ufać	-10951
▁Wendy	-10952
▁staff	-10953
▁pracują	-10954
▁zajmuje	-10955
▁kontrolę	-10956
▁nauczyciel	-10957
car	-10958
▁Bieg	-10959
▁Carm	-10960
▁Send	-10961
▁dram	-10962
▁pełni	-10963
▁zmart	-10964
▁jacket	-10965
▁grozi	-10966
▁Harris	-10967
▁pielęgni	-10968
bów	-10969
ńcu	-10970
▁pob	-10971
▁cart	-10972
▁cock	-10973
▁konk	-10974
▁Miles	-10975
▁koleż	-10976
▁Harvey	-10977
▁Ostroż	-10978
▁zazdros	-10979
fin	-10980
▁fre	-10981
▁błęd	-10982
▁reak	-10983
▁tłum	-10984
rzucił	-10985
▁istot	-10986
rid	-10987
ającą	-10988
▁boże	-10989
▁rela	-10990
▁Close	-10991
▁Czerw	-10992
▁Odejdź	-10993
▁recomm	-10994
▁Sheriff	-10995
▁zaczęło	-10996
▁wykorzystać	-10997
tes	-10998
▁dyre	-10999
▁Ellen	-11000
▁pamięć	-11001
▁przepis	-11002
▁klientów	-11003
▁chciałbyś	-11004
cko	-11005
▁słow	-11006
▁czekol	-11007
▁porusz	-11008
▁9:	-11009
▁sher	-11010
▁celem	-11011
▁media	-11012
▁noise	-11013
▁trail	-11014
▁basement	-11015
ains	-11016
obrze	-11017
▁Zwyk	-11018
▁elev	-11019
▁album	-11020
▁relie	-11021
▁affair	-11022
▁pewnym	-11023
▁strike	-11024
▁uciekł	-11025
▁wariat	-11026
▁pojechać	-11027
▁Dziękujemy	-11028
onem	-11029
xter	-11030
▁śli	-11031
▁mult	-11032
▁zagra	-11033
▁guards	-11034
▁zaakcept	-11035
▁gentleman	-11036
▁przekazać	-11037
▁US	-11038
lety	-11039
▁Dana	-11040
▁tytu	-11041
▁Quinn	-11042
▁crash	-11043
▁terap	-11044
▁niezły	-11045
▁photos	-11046
bilities	-11047
▁Zadzwoni	-11048
▁checking	-11049
▁wewnętrz	-11050
▁Tw	-11051
ermin	-11052
▁brief	-11053
▁wojow	-11054
▁przegap	-11055
▁mogłabyś	-11056
▁Znaleźliśmy	-11057
▁bły	-11058
▁akta	-11059
▁Siost	-11060
▁agents	-11061
▁faceci	-11062
▁neither	-11063
▁asystent	-11064
▁technology	-11065
pat	-11066
▁Bal	-11067
▁cro	-11068
▁Stef	-11069
zienie	-11070
▁aktyw	-11071
▁czyni	-11072
▁dawaj	-11073
▁somet	-11074
▁cooper	-11075
▁humili	-11076
▁disease	-11077
▁celebrate	-11078
ols	-11079
▁Kel	-11080
▁Lock	-11081
siadaj	-11082
▁obawi	-11083
▁refle	-11084
▁traff	-11085
▁confirm	-11086
▁którymi	-11087
▁podejrze	-11088
▁reporter	-11089
▁przeszkadza	-11090
'.	-11091
Th	-11092
▁Zm	-11093
cise	-11094
▁hur	-11095
▁Face	-11096
▁butt	-11097
▁weather	-11098
▁wartości	-11099
aniec	-11100
▁Oper	-11101
▁attor	-11102
▁alkoho	-11103
▁British	-11104
▁champion	-11105
▁bil	-11106
owymi	-11107
▁misji	-11108
▁ukryć	-11109
▁Skarbie	-11110
▁powietrze	-11111
▁ros	-11112
kaliz	-11113
spector	-11114
▁zobaczyłem	-11115
▁enter	-11116
▁sucks	-11117
▁Always	-11118
▁effort	-11119
▁żebyście	-11120
cznę	-11121
bered	-11122
▁mate	-11123
▁loser	-11124
▁żałos	-11125
óp	-11126
ciąć	-11127
ździe	-11128
▁scar	-11129
▁Count	-11130
▁Randy	-11131
▁incre	-11132
▁nieba	-11133
▁parano	-11134
▁wymaga	-11135
▁czasach	-11136
▁zorganiz	-11137
ażu	-11138
pes	-11139
nold	-11140
rapy	-11141
oween	-11142
▁Trze	-11143
▁konia	-11144
▁notes	-11145
▁trave	-11146
▁włącz	-11147
▁Mulder	-11148
▁sytuację	-11149
▁yourselves	-11150
▁anno	-11151
▁głowa	-11152
▁sekre	-11153
▁podwój	-11154
▁religi	-11155
▁okropne	-11156
▁pulling	-11157
łek	-11158
łki	-11159
czer	-11160
kamy	-11161
▁Rzym	-11162
▁prod	-11163
▁rozd	-11164
▁postawi	-11165
NIE	-11166
cut	-11167
elled	-11168
▁Mogą	-11169
▁winny	-11170
▁Zacznij	-11171
▁singing	-11172
▁abandoned	-11173
▁according	-11174
ropon	-11175
▁Zbyt	-11176
▁chron	-11177
▁niesp	-11178
▁shadow	-11179
▁hire	-11180
▁respond	-11181
▁wyciągnąć	-11182
tej	-11183
łaź	-11184
ples	-11185
▁Guess	-11186
▁pomógł	-11187
▁Kapitan	-11188
▁trakcie	-11189
▁najlepszych	-11190
2,	-11191
iną	-11192
sen	-11193
agne	-11194
▁warto	-11195
▁Valent	-11196
▁udawać	-11197
ological	-11198
▁cameras	-11199
▁godzina	-11200
▁śmiertel	-11201
ajd	-11202
aleko	-11203
▁coat	-11204
▁blond	-11205
▁czyli	-11206
▁kieru	-11207
▁zimno	-11208
▁wyłącz	-11209
▁zaplan	-11210
▁Grandpa	-11211
▁waszego	-11212
▁wróciła	-11213
▁zabiłem	-11214
▁zaczęła	-11215
He	-11216
ulf	-11217
czyk	-11218
▁Męż	-11219
▁kut	-11220
▁Agen	-11221
▁Liam	-11222
omości	-11223
▁Ogląd	-11224
▁boską	-11225
▁wyszła	-11226
▁zaofer	-11227
wich	-11228
▁ska	-11229
nifer	-11230
▁Burn	-11231
▁Todd	-11232
▁trwa	-11233
▁Która	-11234
▁Podaj	-11235
▁czasy	-11236
▁Almost	-11237
▁magazy	-11238
▁zarabi	-11239
▁widziała	-11240
▁including	-11241
ksy	-11242
▁herb	-11243
▁tank	-11244
▁tune	-11245
atural	-11246
▁powoli	-11247
▁tongue	-11248
▁healthy	-11249
vir	-11250
▁$5	-11251
▁blu	-11252
▁wyr	-11253
angaż	-11254
eline	-11255
▁stóp	-11256
▁emery	-11257
▁obron	-11258
itation	-11259
▁odszedł	-11260
andyd	-11261
niłeś	-11262
▁dokoń	-11263
▁mówiłaś	-11264
▁próbuję	-11265
▁kidnapped	-11266
lant	-11267
▁Gard	-11268
▁Rzuć	-11269
▁wymag	-11270
▁prakty	-11271
▁trap	-11272
▁wpływ	-11273
▁Wonder	-11274
▁Inaczej	-11275
▁robbery	-11276
mują	-11277
▁dal	-11278
▁stone	-11279
▁szkol	-11280
▁value	-11281
▁dziewi	-11282
▁drużyny	-11283
▁mieszkań	-11284
▁czynienia	-11285
ąpi	-11286
mare	-11287
owca	-11288
▁Gro	-11289
▁Raj	-11290
ouses	-11291
▁Lane	-11292
▁naro	-11293
▁Bravo	-11294
▁humans	-11295
▁ofiara	-11296
▁stracił	-11297
erz	-11298
yes	-11299
▁Hale	-11300
▁jobs	-11301
▁Pozost	-11302
▁guests	-11303
And	-11304
▁uś	-11305
rają	-11306
▁głową	-11307
▁motor	-11308
▁punkcie	-11309
▁zastrze	-11310
▁California	-11311
▁personally	-11312
▁ep	-11313
burg	-11314
▁idą	-11315
ropri	-11316
▁Hand	-11317
▁Okaz	-11318
▁Spad	-11319
▁Pogad	-11320
▁rough	-11321
▁Justin	-11322
▁zamiaru	-11323
▁committed	-11324
▁posłuchać	-11325
▁Kr	-11326
▁Jam	-11327
▁Jaką	-11328
▁bierz	-11329
▁kosmi	-11330
▁pizza	-11331
▁Gordon	-11332
▁Monday	-11333
▁custody	-11334
▁Beautiful	-11335
▁widziałaś	-11336
▁28	-11337
▁kół	-11338
eśnie	-11339
lubie	-11340
▁Glen	-11341
▁wysa	-11342
▁Chand	-11343
▁głodny	-11344
▁okazję	-11345
lix	-11346
olu	-11347
ella	-11348
▁Best	-11349
rating	-11350
▁język	-11351
▁najbliż	-11352
▁pokonać	-11353
▁tygodnia	-11354
▁znalazła	-11355
▁circumstances	-11356
iest	-11357
▁silny	-11358
▁zmienił	-11359
▁zniknął	-11360
▁zamierza	-11361
▁zapamięt	-11362
▁screaming	-11363
▁bezpiecznie	-11364
▁Ban	-11365
▁zwł	-11366
▁Bied	-11367
▁Moze	-11368
▁odby	-11369
▁Wygra	-11370
▁Wynoś	-11371
▁Second	-11372
ubli	-11373
▁Cli	-11374
▁sig	-11375
▁blok	-11376
▁para	-11377
▁proś	-11378
▁negoti	-11379
▁dzwonił	-11380
▁grateful	-11381
▁najlepszą	-11382
EST	-11383
mate	-11384
rzuć	-11385
yson	-11386
szczą	-11387
▁Olivia	-11388
▁czytać	-11389
▁reward	-11390
▁protest	-11391
łko	-11392
▁influ	-11393
▁illegal	-11394
▁mogłaby	-11395
▁bezpieczna	-11396
▁36	-11397
▁194	-11398
▁bon	-11399
▁Buck	-11400
▁Mówią	-11401
▁fabry	-11402
▁Adrian	-11403
▁kredyt	-11404
▁season	-11405
10	-11406
▁dumb	-11407
ierdal	-11408
▁chaos	-11409
▁ships	-11410
▁solid	-11411
▁stood	-11412
▁Mexico	-11413
▁studia	-11414
▁wyjechać	-11415
▁następnego	-11416
▁Want	-11417
▁skór	-11418
▁Night	-11419
▁Follow	-11420
▁Wspani	-11421
▁advantage	-11422
▁przechodzi	-11423
▁skrzywdzić	-11424
US	-11425
▁7:	-11426
▁Alp	-11427
▁Niedługo	-11428
▁Przyjech	-11429
bot	-11430
ike	-11431
uses	-11432
▁boom	-11433
▁opera	-11434
▁Julian	-11435
▁pięknie	-11436
▁Ostrożnie	-11437
xon	-11438
nowi	-11439
▁Kam	-11440
▁Enter	-11441
▁posta	-11442
▁zmierz	-11443
oj	-11444
ION	-11445
geon	-11446
aries	-11447
▁bags	-11448
▁Spoko	-11449
▁Bonnie	-11450
▁księżni	-11451
▁działania	-11452
▁potrzebne	-11453
atem	-11454
▁Gen	-11455
▁Ian	-11456
▁Kid	-11457
▁Osc	-11458
noszę	-11459
▁Dennis	-11460
▁burmist	-11461
▁zapłaci	-11462
▁pokładzie	-11463
nger	-11464
stit	-11465
▁frag	-11466
▁łączy	-11467
▁vision	-11468
▁ładnie	-11469
▁experiment	-11470
jan	-11471
raść	-11472
stry	-11473
▁śpi	-11474
▁Miej	-11475
▁educ	-11476
lients	-11477
▁Roman	-11478
▁Zróbmy	-11479
▁raised	-11480
▁However	-11481
▁detekty	-11482
▁odrobin	-11483
▁spodoba	-11484
▁breathing	-11485
▁najszybciej	-11486
▁joy	-11487
▁Łap	-11488
minist	-11489
▁Marie	-11490
▁bagaż	-11491
▁słabo	-11492
▁waszą	-11493
▁najwyż	-11494
▁zamieni	-11495
▁experien	-11496
oryt	-11497
rict	-11498
▁wore	-11499
działy	-11500
▁Jezus	-11501
▁gówna	-11502
▁scary	-11503
▁budynek	-11504
▁oczywiste	-11505
▁chłopakiem	-11506
wka	-11507
▁Ky	-11508
czeć	-11509
▁citiz	-11510
▁zgodnie	-11511
▁samochod	-11512
▁2,	-11513
nęło	-11514
▁Eri	-11515
▁baw	-11516
żyłem	-11517
▁krym	-11518
▁strz	-11519
▁mówimy	-11520
▁wyszło	-11521
bl	-11522
▁Rh	-11523
▁Dev	-11524
ważyć	-11525
▁Dire	-11526
▁easily	-11527
▁screen	-11528
▁mieszkaniu	-11529
▁protection	-11530
▁Thor	-11531
▁badań	-11532
▁jazdy	-11533
▁Virgin	-11534
▁treatment	-11535
etic	-11536
unków	-11537
▁Camp	-11538
▁Earl	-11539
▁długie	-11540
▁slowly	-11541
▁prezydenta	-11542
▁ew	-11543
▁tędy	-11544
▁trees	-11545
▁Malcolm	-11546
▁correct	-11547
▁napisać	-11548
▁szukasz	-11549
rus	-11550
▁viol	-11551
▁amount	-11552
▁distur	-11553
▁clients	-11554
▁zrobiliśmy	-11555
▁wd	-11556
▁Wło	-11557
▁org	-11558
▁wyraz	-11559
▁Hannah	-11560
▁stress	-11561
▁courage	-11562
▁exchange	-11563
▁partners	-11564
▁Arch	-11565
▁fart	-11566
▁Keith	-11567
▁bones	-11568
▁krety	-11569
▁kontrolować	-11570
▁±	-11571
ENT	-11572
lene	-11573
ługi	-11574
▁Lor	-11575
▁loj	-11576
▁Wysł	-11577
▁Znów	-11578
▁chances	-11579
▁reached	-11580
▁Spójrzcie	-11581
▁mego	-11582
▁śpią	-11583
▁creep	-11584
▁pisze	-11585
▁miracle	-11586
▁napisał	-11587
▁poradzić	-11588
zard	-11589
▁dek	-11590
▁drag	-11591
▁krop	-11592
▁accep	-11593
▁exact	-11594
▁piłkę	-11595
▁Pułkow	-11596
▁forces	-11597
▁glasses	-11598
▁pathetic	-11599
▁standard	-11600
gryz	-11601
▁ach	-11602
szyng	-11603
▁Cicho	-11604
▁Travis	-11605
▁Natalie	-11606
phe	-11607
ouch	-11608
▁przym	-11609
▁samych	-11610
▁odbiera	-11611
odes	-11612
żsam	-11613
▁00:	-11614
▁flir	-11615
▁zran	-11616
▁Dylan	-11617
▁Ashley	-11618
▁kształ	-11619
▁dotykaj	-11620
▁zamknij	-11621
▁znalazłam	-11622
▁wspomnienia	-11623
▁Ann	-11624
▁inde	-11625
▁unus	-11626
▁gazet	-11627
▁Miałaś	-11628
▁Chciała	-11629
imum	-11630
▁Bos	-11631
▁wzy	-11632
▁cało	-11633
▁rude	-11634
▁faces	-11635
▁Lincol	-11636
▁starego	-11637
▁towards	-11638
rd	-11639
▁Rób	-11640
▁bilet	-11641
▁nurse	-11642
▁tatto	-11643
▁tward	-11644
▁wracaj	-11645
▁curious	-11646
▁większe	-11647
▁zabiłeś	-11648
▁ambulance	-11649
▁direction	-11650
▁prawdziwą	-11651
▁tyl	-11652
▁una	-11653
never	-11654
▁Brend	-11655
▁Linda	-11656
▁internet	-11657
▁smo	-11658
▁boku	-11659
▁satis	-11660
▁higher	-11661
▁Idziesz	-11662
▁ancient	-11663
▁approach	-11664
▁Kie	-11665
▁lad	-11666
▁wyja	-11667
▁bibli	-11668
▁odcin	-11669
▁squad	-11670
▁umiem	-11671
▁Carrie	-11672
▁minutę	-11673
▁suffering	-11674
▁Mod	-11675
▁Spę	-11676
▁Sue	-11677
▁żąd	-11678
▁Blake	-11679
▁switch	-11680
▁czterech	-11681
tym	-11682
▁Isa	-11683
▁fif	-11684
▁Head	-11685
▁Megan	-11686
▁wolne	-11687
▁chosen	-11688
▁burning	-11689
▁powodów	-11690
▁obiecuję	-11691
▁returned	-11692
No	-11693
zwo	-11694
▁Cin	-11695
lished	-11696
▁śledztwo	-11697
▁WE	-11698
▁nę	-11699
scyt	-11700
▁Sol	-11701
▁pee	-11702
▁Curt	-11703
dzwoni	-11704
▁Domin	-11705
▁penis	-11706
▁Number	-11707
▁bohater	-11708
▁similar	-11709
▁skurwie	-11710
▁rzeczywiście	-11711
▁6:	-11712
onia	-11713
▁oka	-11714
kowych	-11715
▁różni	-11716
▁wciąg	-11717
▁oddech	-11718
▁suffer	-11719
▁sheriff	-11720
▁siostrą	-11721
▁Odw	-11722
▁Sav	-11723
▁idi	-11724
▁Odłóż	-11725
▁kryty	-11726
▁mikro	-11727
▁scrat	-11728
▁pozwala	-11729
▁princess	-11730
▁Francisco	-11731
▁Monica	-11732
▁Zrobimy	-11733
FF	-11734
szu	-11735
óst	-11736
▁Cos	-11737
▁gym	-11738
▁Owen	-11739
▁Urat	-11740
▁gain	-11741
rotnie	-11742
▁dziew	-11743
▁sztuki	-11744
▁zdrowie	-11745
▁mieszkać	-11746
▁Potrzebuje	-11747
casz	-11748
▁Drew	-11749
▁Mały	-11750
▁Haven	-11751
▁nosić	-11752
▁Byłoby	-11753
▁Philli	-11754
▁północy	-11755
▁spotkamy	-11756
▁słyszałeś	-11757
gnie	-11758
▁Lem	-11759
inner	-11760
▁Eight	-11761
▁mogłoby	-11762
▁Ral	-11763
▁Źle	-11764
ałoby	-11765
▁Szko	-11766
▁twoimi	-11767
▁elektry	-11768
▁poprzez	-11769
▁society	-11770
▁winning	-11771
▁rzeczywistości	-11772
Don	-11773
▁Cool	-11774
▁wyro	-11775
▁Albert	-11776
▁herbat	-11777
▁odpowiedzialny	-11778
miu	-11779
nal	-11780
▁3:	-11781
osek	-11782
▁Bren	-11783
▁Nina	-11784
▁Zero	-11785
▁chop	-11786
▁igno	-11787
▁zęby	-11788
▁kapel	-11789
▁obejrzeć	-11790
▁Przestańcie	-11791
eed	-11792
anów	-11793
▁150	-11794
▁Att	-11795
▁Bank	-11796
▁Twier	-11797
▁spare	-11798
▁custom	-11799
▁połącz	-11800
▁spacer	-11801
▁słońce	-11802
▁Halloween	-11803
▁bezpieczny	-11804
▁szaleństwo	-11805
ail	-11806
kod	-11807
▁plate	-11808
▁skills	-11809
▁sentence	-11810
▁przyjaciółką	-11811
mes	-11812
▁10.	-11813
▁san	-11814
arily	-11815
▁uzysk	-11816
▁Central	-11817
▁coincid	-11818
▁zobaczył	-11819
▁dzieciaka	-11820
rócił	-11821
▁dłuż	-11822
▁Prosze	-11823
▁garage	-11824
▁confess	-11825
▁pamięta	-11826
thy	-11827
czyło	-11828
ejmij	-11829
▁Wood	-11830
▁Honest	-11831
▁beating	-11832
▁dotrzeć	-11833
▁pamięci	-11834
66	-11835
▁jasno	-11836
▁parku	-11837
▁wyraź	-11838
▁backup	-11839
▁trapped	-11840
att	-11841
iac	-11842
rig	-11843
onów	-11844
▁pure	-11845
ements	-11846
pienia	-11847
▁Aaron	-11848
▁telep	-11849
▁violence	-11850
itar	-11851
unte	-11852
▁glo	-11853
▁tit	-11854
ałbyś	-11855
czych	-11856
szony	-11857
▁Rany	-11858
▁bzdu	-11859
▁remo	-11860
▁tied	-11861
▁signs	-11862
▁trade	-11863
▁zadać	-11864
▁słońca	-11865
▁Zauważy	-11866
▁dokumenty	-11867
OP	-11868
▁Break	-11869
niejszą	-11870
▁Waszyng	-11871
▁Rea	-11872
luzuj	-11873
owości	-11874
▁konkret	-11875
▁treated	-11876
▁skończył	-11877
▁zostałem	-11878
omb	-11879
gins	-11880
▁00,	-11881
▁Sab	-11882
▁Pokaz	-11883
▁zakaz	-11884
▁Castle	-11885
▁chłopcem	-11886
▁Excellent	-11887
▁chocolate	-11888
▁nieprawdaż	-11889
▁rozmawialiśmy	-11890
owac	-11891
▁Pam	-11892
▁Hands	-11893
▁wywoł	-11894
▁Choler	-11895
▁Lauren	-11896
▁nation	-11897
▁officers	-11898
▁happiness	-11899
▁zadzwonił	-11900
▁przeszłość	-11901
▁przypomina	-11902
dźmy	-11903
▁kab	-11904
▁Craig	-11905
▁thief	-11906
owiedzi	-11907
▁Przyby	-11908
▁desert	-11909
▁fantasty	-11910
▁potrzebny	-11911
▁Przyszedłem	-11912
▁widzieliśmy	-11913
▁Wym	-11914
▁Beat	-11915
▁stad	-11916
▁Booth	-11917
▁potrwa	-11918
▁wolności	-11919
▁zidentyfi	-11920
olat	-11921
▁sni	-11922
mować	-11923
▁Szef	-11924
▁ścież	-11925
▁Cztery	-11926
▁ustawi	-11927
▁zostaną	-11928
▁bezpieczne	-11929
▁staw	-11930
▁anger	-11931
▁firma	-11932
▁wykaz	-11933
▁Barney	-11934
▁Mickey	-11935
▁kandyd	-11936
▁ability	-11937
▁mystery	-11938
▁percent	-11939
▁vampire	-11940
▁zaangaż	-11941
▁nawzajem	-11942
▁konieczne	-11943
GO	-11944
ałóż	-11945
alony	-11946
▁simp	-11947
▁shopping	-11948
ante	-11949
▁jech	-11950
▁link	-11951
▁neighb	-11952
▁doktora	-11953
▁Jennifer	-11954
▁attorney	-11955
▁carefully	-11956
ows	-11957
▁000	-11958
liday	-11959
▁Glor	-11960
▁bone	-11961
▁nasi	-11962
▁spin	-11963
▁tatą	-11964
czeniem	-11965
▁Hitler	-11966
▁Mężczy	-11967
▁pojawił	-11968
▁błogosła	-11969
▁available	-11970
eda	-11971
▁kł	-11972
▁lift	-11973
▁insty	-11974
▁Walker	-11975
▁cleaning	-11976
▁zaszczyt	-11977
cesu	-11978
▁Evan	-11979
▁Każd	-11980
▁ducha	-11981
▁małej	-11982
▁nights	-11983
▁garbage	-11984
▁reprezent	-11985
cra	-11986
▁Ger	-11987
▁Anth	-11988
▁Down	-11989
▁jadę	-11990
▁moves	-11991
▁Strzel	-11992
▁explan	-11993
▁konkur	-11994
▁Stephen	-11995
▁państwo	-11996
▁sypialni	-11997
▁zaczekać	-11998
▁2:	-11999
onim	-12000
▁Dear	-12001
▁popo	-12002
▁site	-12003
rzeciw	-12004
▁Elena	-12005
▁grade	-12006
▁okrut	-12007
▁geniusz	-12008
▁interesy	-12009
czam	-12010
źnie	-12011
▁Vic	-12012
▁Dead	-12013
▁szkodzi	-12014
▁bastards	-12015
▁darkness	-12016
▁napisane	-12017
omić	-12018
▁Exp	-12019
▁tez	-12020
atura	-12021
place	-12022
▁magaz	-12023
▁ognia	-12024
▁shots	-12025
▁stock	-12026
▁Cheers	-12027
▁rozczar	-12028
▁smoking	-12029
▁Amerykan	-12030
liwi	-12031
holic	-12032
▁serw	-12033
▁Sierż	-12034
▁candy	-12035
▁gather	-12036
▁pokład	-12037
▁diamond	-12038
▁reports	-12039
▁kieszeni	-12040
▁wieczoru	-12041
▁mężczyznę	-12042
kup	-12043
▁duża	-12044
▁mund	-12045
▁Homer	-12046
▁Shane	-12047
▁mayor	-12048
▁sieci	-12049
▁wampi	-12050
ujących	-12051
▁Sądzie	-12052
▁insane	-12053
▁współpra	-12054
▁zmęczony	-12055
▁bothering	-12056
▁Powiedziałaś	-12057
bast	-12058
ites	-12059
just	-12060
niła	-12061
więć	-12062
▁Hop	-12063
▁Viv	-12064
▁dym	-12065
dźwie	-12066
▁łódź	-12067
▁Court	-12068
▁bored	-12069
▁hated	-12070
▁jutra	-12071
▁pokoj	-12072
▁Zaufaj	-12073
▁klasie	-12074
▁repeat	-12075
▁zajęcia	-12076
▁decisions	-12077
uce	-12078
▁Az	-12079
oman	-12080
iring	-12081
rzest	-12082
▁Duke	-12083
▁earn	-12084
▁nogę	-12085
▁każda	-12086
▁slight	-12087
▁Security	-12088
▁mogliśmy	-12089
▁żołnierzy	-12090
▁friendship	-12091
▁protecting	-12092
▁competition	-12093
▁przedstawić	-12094
30	-12095
EA	-12096
nuj	-12097
ashi	-12098
▁Len	-12099
rzyła	-12100
▁Cale	-12101
▁Odbi	-12102
▁perf	-12103
▁State	-12104
▁loose	-12105
▁poraż	-12106
▁wounds	-12107
▁younger	-12108
knąć	-12109
yers	-12110
clock	-12111
▁Fall	-12112
▁okej	-12113
▁polu	-12114
▁wroga	-12115
▁Fajnie	-12116
▁Stupid	-12117
▁Zjedno	-12118
▁uprzej	-12119
▁spodnie	-12120
▁version	-12121
▁poczekaj	-12122
ller	-12123
śnij	-12124
▁Kra	-12125
▁lip	-12126
▁Ukry	-12127
▁presence	-12128
▁schedule	-12129
▁eksperyment	-12130
ywać	-12131
▁Pak	-12132
alace	-12133
jąłem	-12134
▁butter	-12135
▁delicious	-12136
▁desperate	-12137
ola	-12138
▁warn	-12139
▁Lewis	-12140
▁aktor	-12141
▁beast	-12142
▁obses	-12143
▁dorast	-12144
struction	-12145
aph	-12146
▁benef	-12147
▁duszy	-12148
▁border	-12149
▁likely	-12150
▁stopni	-12151
▁Jessica	-12152
▁Williams	-12153
▁problemem	-12154
rena	-12155
▁Half	-12156
▁aunt	-12157
▁mort	-12158
▁zarę	-12159
▁hates	-12160
▁każde	-12161
▁połowę	-12162
▁tamtego	-12163
ua	-12164
▁Aut	-12165
▁Lam	-12166
▁Cart	-12167
▁lotn	-12168
orable	-12169
▁korzy	-12170
▁leads	-12171
▁plaży	-12172
▁Czyżby	-12173
▁Jedyne	-12174
▁Mitche	-12175
▁ryzyko	-12176
▁council	-12177
IR	-12178
ściej	-12179
▁seni	-12180
▁proto	-12181
▁tożsam	-12182
▁zrezyg	-12183
▁progress	-12184
▁fantastic	-12185
▁znalazłeś	-12186
▁przyszedłeś	-12187
▁niespodzianka	-12188
OK	-12189
▁nr	-12190
ille	-12191
▁Tina	-12192
▁obro	-12193
▁pocie	-12194
▁dźwięk	-12195
▁ciężkie	-12196
▁fotogra	-12197
▁nieprzy	-12198
▁prawdziwego	-12199
▁uraz	-12200
cyjnej	-12201
▁Coach	-12202
▁dałem	-12203
▁Bardziej	-12204
▁nieważne	-12205
▁powietrza	-12206
▁zadzwonię	-12207
wki	-12208
▁Ide	-12209
▁chem	-12210
▁dług	-12211
▁Zgoda	-12212
▁IS	-12213
bienie	-12214
▁zdarza	-12215
▁wrócimy	-12216
▁stranger	-12217
▁przyjaciółka	-12218
▁Bow	-12219
▁Gus	-12220
▁Syl	-12221
cyjna	-12222
▁konf	-12223
▁chwilą	-12224
▁Allison	-12225
▁popołud	-12226
▁creature	-12227
▁exciting	-12228
▁conference	-12229
niać	-12230
rica	-12231
▁zbli	-12232
alenie	-12233
▁Tracy	-12234
▁lodów	-12235
▁używa	-12236
▁strach	-12237
▁physical	-12238
▁zechcesz	-12239
5,	-12240
▁wyko	-12241
▁gliny	-12242
▁stanu	-12243
▁sprząt	-12244
▁narkotyków	-12245
▁yo	-12246
fika	-12247
play	-12248
▁Łat	-12249
▁pussy	-12250
▁wysok	-12251
▁Uwierz	-12252
▁kamery	-12253
icip	-12254
▁Nam	-12255
▁lod	-12256
opher	-12257
▁Matka	-12258
▁gejem	-12259
▁ranny	-12260
▁poważne	-12261
▁Poproszę	-12262
▁muzyki	-12263
▁przyjąć	-12264
▁przeprasz	-12265
▁wyjątkiem	-12266
mat	-12267
▁End	-12268
▁nob	-12269
▁skarb	-12270
▁Juliet	-12271
▁assass	-12272
▁events	-12273
▁pushed	-12274
szczenie	-12275
▁treasure	-12276
▁Americans	-12277
sequ	-12278
▁Eat	-12279
arian	-12280
▁Club	-12281
▁Hans	-12282
▁klubu	-12283
▁ojcze	-12284
▁repla	-12285
▁Anglii	-12286
▁HE	-12287
awno	-12288
niłam	-12289
▁peri	-12290
▁usun	-12291
▁zerw	-12292
bierze	-12293
▁zezna	-12294
▁female	-12295
▁attract	-12296
▁wybiera	-12297
▁pomyślałam	-12298
▁umiejętności	-12299
nok	-12300
▁wire	-12301
▁Zaczę	-12302
▁muzykę	-12303
czeństwie	-12304
▁nin	-12305
▁darmo	-12306
▁racja	-12307
idering	-12308
▁Manhat	-12309
▁wojnie	-12310
uss	-12311
óra	-12312
▁400	-12313
▁veh	-12314
▁Lang	-12315
▁Ręce	-12316
▁Cleve	-12317
▁stres	-12318
▁mirror	-12319
ropriate	-12320
▁przykry	-12321
▁nieprawda	-12322
▁Aha	-12323
▁gig	-12324
▁runs	-12325
▁Group	-12326
▁knees	-12327
▁kwiaty	-12328
▁Napisów	-12329
▁Dostałem	-12330
▁drzwiami	-12331
▁possibly	-12332
▁appointment	-12333
▁5:	-12334
esar	-12335
more	-12336
▁Seth	-12337
▁awake	-12338
▁coach	-12339
▁otwar	-12340
▁żadne	-12341
▁jumped	-12342
libyście	-12343
▁Moim	-12344
rzałem	-12345
▁Hotel	-12346
▁curse	-12347
▁Gdzieś	-12348
▁assure	-12349
▁trusted	-12350
▁millions	-12351
▁pamiętać	-12352
▁wsparcie	-12353
▁przyjeżdż	-12354
▁wyglądało	-12355
uś	-12356
cona	-12357
▁leż	-12358
▁orze	-12359
▁assign	-12360
▁odebra	-12361
▁przeni	-12362
▁Senator	-12363
▁Doceniam	-12364
▁Nieprawda	-12365
isher	-12366
▁Ruth	-12367
▁nego	-12368
▁teen	-12369
▁Oddaj	-12370
▁Szuka	-12371
▁duszę	-12372
▁zepsu	-12373
▁władzy	-12374
▁zostań	-12375
▁Czujesz	-12376
▁Zaczyna	-12377
▁quarter	-12378
▁rozmowa	-12379
▁własnych	-12380
▁zatem	-12381
▁koszmar	-12382
ścił	-12383
venue	-12384
▁Save	-12385
▁grup	-12386
▁obsz	-12387
▁paru	-12388
▁Przyz	-12389
▁czarn	-12390
▁Sydney	-12391
▁positive	-12392
▁odpowiada	-12393
mą	-12394
kre	-12395
Jest	-12396
▁Free	-12397
▁Troy	-12398
▁sale	-12399
▁skrę	-12400
ejdzie	-12401
▁Rober	-12402
▁kartę	-12403
▁identy	-12404
▁bałagan	-12405
ex	-12406
▁Him	-12407
▁Poś	-12408
▁bum	-12409
▁rąk	-12410
▁Kids	-12411
▁bury	-12412
▁laid	-12413
▁mercy	-12414
▁Anyone	-12415
▁systemu	-12416
▁director	-12417
▁stworzyć	-12418
▁bohaterem	-12419
gna	-12420
bles	-12421
cist	-12422
pers	-12423
▁Led	-12424
inals	-12425
▁cult	-12426
▁former	-12427
▁mogłaś	-12428
▁produk	-12429
▁materiał	-12430
▁profesjon	-12431
▁zakończyć	-12432
leb	-12433
▁29	-12434
arką	-12435
▁łeb	-12436
ordin	-12437
▁cris	-12438
vision	-12439
▁grupa	-12440
▁uważaj	-12441
▁konferen	-12442
▁Gów	-12443
▁Sel	-12444
ałaby	-12445
▁Dark	-12446
▁Neil	-12447
▁pair	-12448
▁scan	-12449
▁Drama	-12450
▁bread	-12451
▁spons	-12452
▁piosenkę	-12453
▁samobójstwo	-12454
urat	-12455
warz	-12456
▁Umie	-12457
▁bram	-12458
▁clock	-12459
▁Sebast	-12460
▁planety	-12461
▁zaczekaj	-12462
▁przyszłym	-12463
DZ	-12464
clear	-12465
▁ślep	-12466
▁wykry	-12467
▁mówili	-12468
▁piwnicy	-12469
▁unusual	-12470
▁normalne	-12471
▁Guy	-12472
▁hał	-12473
▁dużą	-12474
▁exha	-12475
▁Piper	-12476
▁rooms	-12477
▁sneak	-12478
▁Rodzin	-12479
▁stairs	-12480
▁zabity	-12481
▁Russell	-12482
▁cholernie	-12483
ckie	-12484
▁sądu	-12485
▁więź	-12486
▁Dziwne	-12487
▁święta	-12488
▁zamknięte	-12489
▁intelligence	-12490
oken	-12491
▁11:	-12492
▁Kurt	-12493
▁liar	-12494
▁Brook	-12495
▁Feder	-12496
▁Nicole	-12497
▁Silver	-12498
▁passion	-12499
▁wystawi	-12500
▁national	-12501
▁operację	-12502
▁tradition	-12503
szty	-12504
▁Hou	-12505
▁Kno	-12506
▁chap	-12507
▁west	-12508
▁Itali	-12509
▁condu	-12510
▁impul	-12511
▁ważny	-12512
▁Church	-12513
▁basket	-12514
▁garden	-12515
▁Heather	-12516
▁świetna	-12517
▁Department	-12518
3,	-12519
▁32	-12520
▁east	-12521
▁Grupa	-12522
▁Wyjdź	-12523
▁adopt	-12524
▁docho	-12525
▁surface	-12526
▁funkcjon	-12527
▁poprosić	-12528
▁szacunku	-12529
▁narkotyki	-12530
nięta	-12531
▁Vick	-12532
▁invol	-12533
jection	-12534
▁Gotowy	-12535
▁przesp	-12536
▁zabiła	-12537
▁Morning	-12538
▁decyzji	-12539
▁distance	-12540
non	-12541
▁boi	-12542
gling	-12543
▁Hist	-12544
▁bell	-12545
▁opła	-12546
▁image	-12547
▁Junior	-12548
▁zagrać	-12549
▁niepoko	-12550
▁Victoria	-12551
▁interrupt	-12552
▁Div	-12553
▁Fif	-12554
▁zaz	-12555
▁Know	-12556
▁lapt	-12557
▁najp	-12558
▁udać	-12559
▁Długo	-12560
▁lewej	-12561
▁Audrey	-12562
▁Miłość	-12563
▁poprowa	-12564
inda	-12565
liss	-12566
rich	-12567
▁Use	-12568
▁namie	-12569
▁czysty	-12570
▁elimin	-12571
▁garnit	-12572
▁pijany	-12573
▁uzbroj	-12574
▁Looking	-12575
czekajcie	-12576
▁chłopców	-12577
pre	-12578
loyd	-12579
outs	-12580
▁dea	-12581
▁Grey	-12582
▁Wade	-12583
▁dust	-12584
▁rare	-12585
▁rate	-12586
ughter	-12587
▁Przer	-12588
▁wyzna	-12589
▁zdjęć	-12590
▁Bishop	-12591
▁astron	-12592
▁explanation	-12593
roma	-12594
elson	-12595
......	-12596
▁breast	-12597
▁dziwny	-12598
▁served	-12599
▁nazywają	-12600
utka	-12601
▁Boję	-12602
▁Corre	-12603
▁campa	-12604
▁pokażę	-12605
▁szkołę	-12606
▁szczegó	-12607
▁przysięg	-12608
▁zaczniemy	-12609
ika	-12610
▁łu	-12611
▁Hart	-12612
▁Stud	-12613
▁Team	-12614
▁lower	-12615
▁chwile	-12616
▁Finally	-12617
▁Powiesz	-12618
▁Stanley	-12619
▁argument	-12620
▁południe	-12621
esa	-12622
hin	-12623
▁Oz	-12624
ases	-12625
bach	-12626
iana	-12627
▁boun	-12628
▁wino	-12629
gement	-12630
▁shock	-12631
▁Przesz	-12632
▁poczucie	-12633
▁Znalazłam	-12634
icted	-12635
▁cham	-12636
▁Logan	-12637
▁brzyd	-12638
▁chain	-12639
▁matce	-12640
▁uczni	-12641
▁akurat	-12642
▁Interes	-12643
▁następne	-12644
▁Cleveland	-12645
▁SH	-12646
viron	-12647
▁Mars	-12648
▁Scar	-12649
▁wolę	-12650
erable	-12651
▁chemi	-12652
▁Wymiar	-12653
▁spending	-12654
▁Zamierzam	-12655
▁Won	-12656
▁Wyt	-12657
▁Spóź	-12658
▁odno	-12659
▁tylu	-12660
▁Jesli	-12661
▁fancy	-12662
▁pisać	-12663
▁szansy	-12664
▁zrobią	-12665
▁nadziei	-12666
▁Speaking	-12667
▁przyjemnością	-12668
ako	-12669
uchu	-12670
ński	-12671
▁McK	-12672
▁Psy	-12673
▁Śmi	-12674
łonie	-12675
▁leki	-12676
▁concern	-12677
▁nastąpi	-12678
▁szczery	-12679
hib	-12680
▁Pic	-12681
▁Rów	-12682
▁unt	-12683
▁złot	-12684
▁twist	-12685
▁wstęp	-12686
▁obrzyd	-12687
▁wallet	-12688
▁Goddamn	-12689
▁shoulder	-12690
iner	-12691
żyła	-12692
▁Chap	-12693
będzie	-12694
▁oppos	-12695
▁shift	-12696
▁sugar	-12697
cześnie	-12698
▁szczegól	-12699
kał	-12700
▁goal	-12701
▁Wrócę	-12702
▁zginę	-12703
▁Perfect	-12704
▁Wielkie	-12705
▁imienia	-12706
ele	-12707
rzec	-12708
onymi	-12709
▁Blair	-12710
▁ruchu	-12711
▁stała	-12712
▁skończyłem	-12713
chani	-12714
▁false	-12715
▁szamp	-12716
ologist	-12717
▁murders	-12718
▁potencj	-12719
▁volunte	-12720
▁nightmare	-12721
▁przypadkiem	-12722
ertę	-12723
▁Pay	-12724
▁Pla	-12725
▁Vol	-12726
▁pit	-12727
▁Work	-12728
▁rush	-12729
render	-12730
▁remove	-12731
▁Special	-12732
▁swojemu	-12733
▁traffic	-12734
▁Japanese	-12735
▁confident	-12736
▁eventually	-12737
▁paz	-12738
▁czułem	-12739
▁kluczy	-12740
▁musiało	-12741
▁Zastanawiam	-12742
bell	-12743
stan	-12744
utch	-12745
▁Mał	-12746
rygin	-12747
▁atom	-12748
▁Mikoł	-12749
▁podąż	-12750
▁terms	-12751
▁Harper	-12752
▁zarzut	-12753
▁audience	-12754
▁coincidence	-12755
fr	-12756
▁4:	-12757
▁AT	-12758
▁Suk	-12759
▁siê	-12760
▁Mine	-12761
▁Road	-12762
▁sail	-12763
▁susp	-12764
▁tere	-12765
▁Błagam	-12766
▁Friend	-12767
▁associ	-12768
▁przesa	-12769
▁zginąć	-12770
▁Zgadzam	-12771
▁managed	-12772
▁staring	-12773
▁rzeczach	-12774
1,	-12775
tin	-12776
ancé	-12777
▁Nak	-12778
▁lear	-12779
▁Colle	-12780
▁began	-12781
▁ślubu	-12782
▁Ameryki	-12783
▁Anthony	-12784
adą	-12785
ker	-12786
▁ps	-12787
▁zbo	-12788
ision	-12789
known	-12790
nęłam	-12791
▁groź	-12792
▁będąc	-12793
▁helps	-12794
▁marks	-12795
▁relig	-12796
▁Załatwi	-12797
▁kwestia	-12798
▁Pierwsza	-12799
▁material	-12800
▁Ag	-12801
▁Cu	-12802
skak	-12803
▁196	-12804
▁uwię	-12805
▁naukow	-12806
▁journey	-12807
▁nadzieje	-12808
▁Doskonale	-12809
▁wspaniała	-12810
oner	-12811
▁Clar	-12812
▁term	-12813
czyłaś	-12814
ekscyt	-12815
▁Diego	-12816
▁niebo	-12817
▁doszło	-12818
▁status	-12819
▁bullets	-12820
▁hunting	-12821
▁programu	-12822
▁Prezydent	-12823
dzeń	-12824
ingu	-12825
ciele	-12826
rować	-12827
walić	-12828
▁anal	-12829
▁zdobę	-12830
▁altern	-12831
▁klucze	-12832
▁angiels	-12833
▁footage	-12834
▁zabójca	-12835
▁Niesamow	-12836
▁guarantee	-12837
▁zadowolony	-12838
▁przyszedłem	-12839
jeb	-12840
bled	-12841
▁Hong	-12842
▁klin	-12843
▁spła	-12844
▁humor	-12845
▁silen	-12846
▁tysiąc	-12847
▁sometime	-12848
▁ciemności	-12849
▁zachowanie	-12850
cre	-12851
▁indy	-12852
▁podat	-12853
▁zapas	-12854
▁postar	-12855
▁wolność	-12856
▁Honestly	-12857
▁administ	-12858
▁miesiącu	-12859
▁odpowiedzieć	-12860
ev	-12861
hel	-12862
▁zob	-12863
▁prąd	-12864
▁teat	-12865
▁Zdaje	-12866
▁chora	-12867
▁cruel	-12868
▁patrol	-12869
▁klienta	-12870
▁Pomyślałam	-12871
▁kompletnie	-12872
VD	-12873
nan	-12874
▁Ek	-12875
mark	-12876
▁Shh	-12877
ublic	-12878
▁jedź	-12879
isible	-12880
▁ciele	-12881
▁ładna	-12882
▁counter	-12883
▁procent	-12884
▁przeżyć	-12885
▁wyobraź	-12886
▁skomplikowane	-12887
yed	-12888
▁Meet	-12889
▁Otwo	-12890
▁armed	-12891
▁armii	-12892
▁jesli	-12893
sidered	-12894
▁destru	-12895
▁konsek	-12896
▁wystra	-12897
▁kolejną	-12898
▁sisters	-12899
▁zdarzyło	-12900
▁Następnym	-12901
▁considered	-12902
▁tek	-12903
okoła	-12904
▁plat	-12905
▁chase	-12906
▁lesie	-12907
▁cancel	-12908
▁uroczy	-12909
▁niegrze	-12910
owaliście	-12911
▁interrog	-12912
▁nienawidzę	-12913
▁Kl	-12914
ierę	-12915
ivid	-12916
▁celi	-12917
▁rolę	-12918
▁Texas	-12919
▁rzucić	-12920
▁odciski	-12921
▁przepad	-12922
vironment	-12923
▁mężczyźni	-12924
▁poniedział	-12925
▁pretending	-12926
▁znaleziono	-12927
mana	-12928
▁Ana	-12929
▁Jaz	-12930
▁Mig	-12931
▁Water	-12932
▁cloud	-12933
▁lover	-12934
▁panien	-12935
▁zabijać	-12936
▁solution	-12937
▁Sha	-12938
▁pump	-12939
▁odważ	-12940
▁coward	-12941
▁klubie	-12942
▁popatrz	-12943
▁połowie	-12944
lica	-12945
▁Ralph	-12946
▁długa	-12947
▁etern	-12948
▁obwin	-12949
▁Harold	-12950
▁drzewa	-12951
▁działo	-12952
▁królem	-12953
▁prosec	-12954
▁państwa	-12955
▁pozycji	-12956
▁victory	-12957
▁przynieść	-12958
▁tajemnicy	-12959
eds	-12960
xie	-12961
▁Kh	-12962
assi	-12963
▁Aah	-12964
▁Dur	-12965
▁shr	-12966
▁libr	-12967
▁ogro	-12968
dinary	-12969
▁Musie	-12970
reement	-12971
▁warned	-12972
▁zajęta	-12973
cili	-12974
▁Pear	-12975
▁meal	-12976
▁shel	-12977
▁waliz	-12978
▁hearts	-12979
▁psychi	-12980
▁secure	-12981
▁znieść	-12982
▁Goa	-12983
▁okul	-12984
▁Musze	-12985
▁trace	-12986
▁estate	-12987
▁smells	-12988
▁stworz	-12989
▁determin	-12990
essa	-12991
king	-12992
pton	-12993
▁rip	-12994
▁smu	-12995
▁ciot	-12996
▁Straż	-12997
▁mając	-12998
▁słone	-12999
▁therapy	-13000
▁campaign	-13001
rąc	-13002
sku	-13003
ando	-13004
▁desp	-13005
▁raka	-13006
▁moder	-13007
▁Awesome	-13008
▁wasting	-13009
hab	-13010
nies	-13011
▁Odkąd	-13012
▁4.	-13013
cier	-13014
czał	-13015
enci	-13016
hest	-13017
▁hyd	-13018
brzym	-13019
▁Rozp	-13020
▁najd	-13021
▁nieod	-13022
▁niezłe	-13023
▁wyjech	-13024
▁kłamstwo	-13025
▁disappointed	-13026
ruz	-13027
hern	-13028
inic	-13029
▁fav	-13030
▁Gene	-13031
▁polow	-13032
▁wysko	-13033
▁dumped	-13034
▁Mys	-13035
▁debt	-13036
▁zruj	-13037
▁zależ	-13038
▁Profes	-13039
▁clever	-13040
▁rejest	-13041
▁oddział	-13042
niejszego	-13043
▁released	-13044
ciła	-13045
rzyk	-13046
vere	-13047
▁Imag	-13048
▁tail	-13049
▁Lucky	-13050
▁Mitch	-13051
▁przyg	-13052
▁wyczu	-13053
▁piątek	-13054
▁przedmi	-13055
▁potential	-13056
100	-13057
▁Cons	-13058
▁Głów	-13059
▁tiny	-13060
pełnić	-13061
▁Idzie	-13062
▁Connor	-13063
▁button	-13064
▁fellow	-13065
▁reklam	-13066
▁alcohol	-13067
▁nagranie	-13068
ęt	-13069
aży	-13070
▁Cel	-13071
▁Oko	-13072
ardon	-13073
sides	-13074
stone	-13075
▁Mason	-13076
▁Sandy	-13077
▁pojed	-13078
▁walka	-13079
▁Martwi	-13080
▁bilety	-13081
▁skrzyd	-13082
▁Zwłaszcza	-13083
▁suspicious	-13084
▁Jin	-13085
▁Byli	-13086
▁Full	-13087
▁faci	-13088
▁ożeni	-13089
▁Jersey	-13090
▁filmie	-13091
▁słodki	-13092
▁remains	-13093
▁electric	-13094
▁pomożesz	-13095
▁mountains	-13096
▁niedaleko	-13097
nają	-13098
▁Bee	-13099
▁fac	-13100
▁fraj	-13101
▁glob	-13102
▁onto	-13103
▁pant	-13104
▁sympt	-13105
▁Rozumie	-13106
▁cheating	-13107
▁counting	-13108
▁zwierzęta	-13109
▁Dw	-13110
suit	-13111
vard	-13112
▁Sin	-13113
▁Nich	-13114
warant	-13115
▁range	-13116
▁dostaw	-13117
▁tempor	-13118
▁Strange	-13119
▁strachu	-13120
▁zespołu	-13121
▁Żadnego	-13122
agi	-13123
▁bok	-13124
▁Walt	-13125
▁Sammy	-13126
▁imper	-13127
▁minds	-13128
▁monkey	-13129
▁Powiedzmy	-13130
kud	-13131
ushed	-13132
▁koni	-13133
▁lake	-13134
▁lips	-13135
▁Drink	-13136
▁oceni	-13137
▁rozej	-13138
▁Powinni	-13139
▁mężczyzny	-13140
▁jab	-13141
▁rap	-13142
▁Card	-13143
▁Year	-13144
▁wiec	-13145
▁Jakim	-13146
▁issue	-13147
▁truly	-13148
▁Murphy	-13149
▁fiancé	-13150
▁forbid	-13151
▁gwiazdy	-13152
▁kolacji	-13153
▁Interest	-13154
bian	-13155
▁kurt	-13156
▁panic	-13157
▁August	-13158
▁Elliot	-13159
▁wszedł	-13160
▁chasing	-13161
▁destiny	-13162
▁zwierząt	-13163
Ne	-13164
cone	-13165
shed	-13166
▁Zaz	-13167
▁Grab	-13168
▁Niby	-13169
▁Camer	-13170
▁Koleś	-13171
▁wysłał	-13172
▁śladów	-13173
aliforni	-13174
▁Barbara	-13175
▁nonsense	-13176
▁!	-13177
nuje	-13178
▁concl	-13179
▁odczu	-13180
▁odpad	-13181
▁silly	-13182
▁trash	-13183
▁umówi	-13184
▁uruch	-13185
▁imprez	-13186
▁komput	-13187
▁zakupy	-13188
▁spróbuj	-13189
▁odpocząć	-13190
▁impressed	-13191
▁kontynuować	-13192
tee	-13193
nerem	-13194
▁opan	-13195
▁Hatak	-13196
▁kąpie	-13197
▁pełen	-13198
▁purse	-13199
▁punktu	-13200
▁znajdą	-13201
▁położyć	-13202
▁trained	-13203
▁hundreds	-13204
noś	-13205
waz	-13206
oted	-13207
▁jew	-13208
▁rys	-13209
▁Musiał	-13210
▁koryta	-13211
▁period	-13212
▁schron	-13213
▁sensie	-13214
▁sprzedaw	-13215
rój	-13216
▁SP	-13217
isty	-13218
otic	-13219
▁Fort	-13220
▁Fight	-13221
▁Stark	-13222
▁rozmi	-13223
ującego	-13224
▁Alison	-13225
▁houses	-13226
▁niemie	-13227
▁pierści	-13228
▁witnesses	-13229
ysis	-13230
▁gre	-13231
cipal	-13232
▁Kitty	-13233
▁poleg	-13234
▁uczci	-13235
▁Niewie	-13236
▁useless	-13237
▁prisoner	-13238
▁embarrassing	-13239
4,	-13240
gasz	-13241
▁Kop	-13242
hered	-13243
▁nieś	-13244
▁Buffy	-13245
▁obraż	-13246
▁Obserw	-13247
▁kissed	-13248
▁Ostatni	-13249
▁marzenia	-13250
▁stopping	-13251
▁procedure	-13252
▁pracowników	-13253
sed	-13254
rive	-13255
owied	-13256
ędzie	-13257
▁Seat	-13258
▁żyję	-13259
▁Numer	-13260
▁dumna	-13261
▁napić	-13262
▁ramię	-13263
▁stopy	-13264
▁decent	-13265
▁szukam	-13266
▁selfish	-13267
▁sprawić	-13268
▁poinform	-13269
▁apparently	-13270
▁doświadczenia	-13271
ckett	-13272
▁China	-13273
▁okiem	-13274
▁ofiarą	-13275
▁szkoda	-13276
▁Poprosi	-13277
kini	-13278
▁Sud	-13279
▁zal	-13280
▁zali	-13281
▁wynik	-13282
▁wyrzuc	-13283
▁dotyczy	-13284
▁emocjon	-13285
▁łazienki	-13286
1\	-13287
CE	-13288
lami	-13289
▁Tal	-13290
▁Janet	-13291
ception	-13292
▁funtów	-13293
niejszym	-13294
▁directly	-13295
▁rozpoczę	-13296
loz	-13297
▁Afry	-13298
▁anni	-13299
▁czuj	-13300
▁Lance	-13301
▁grant	-13302
▁zbieg	-13303
▁Austra	-13304
▁Boston	-13305
▁Jestes	-13306
▁gadasz	-13307
▁palców	-13308
▁attempt	-13309
▁century	-13310
alen	-13311
lena	-13312
▁dołą	-13313
verage	-13314
ństwie	-13315
▁consp	-13316
▁zwrac	-13317
▁comfort	-13318
▁nagrodę	-13319
▁Zaczynamy	-13320
▁Zrozumiałem	-13321
dźcie	-13322
ppers	-13323
ursday	-13324
▁Otwie	-13325
▁Twoim	-13326
▁Wielu	-13327
▁score	-13328
icially	-13329
▁Madame	-13330
▁Powtarz	-13331
▁przekro	-13332
▁potrafią	-13333
▁miejscach	-13334
▁podekscyt	-13335
ążę	-13336
aład	-13337
dzej	-13338
ggle	-13339
▁Mis	-13340
▁abo	-13341
▁react	-13342
▁Niezła	-13343
▁contra	-13344
▁silver	-13345
▁włosów	-13346
▁szukamy	-13347
▁przenieść	-13348
gage	-13349
▁krad	-13350
▁soup	-13351
▁karet	-13352
▁pomie	-13353
▁walkę	-13354
▁wykony	-13355
▁Francji	-13356
▁adwokat	-13357
▁digging	-13358
▁prevent	-13359
CZ	-13360
▁Ji	-13361
▁złą	-13362
▁heli	-13363
▁Oscar	-13364
▁ciast	-13365
▁liber	-13366
▁sprzęt	-13367
▁zorient	-13368
▁Mitchell	-13369
▁południu	-13370
▁political	-13371
▁wdzięczny	-13372
czerp	-13373
żenia	-13374
▁June	-13375
▁Wolę	-13376
▁ryby	-13377
owicie	-13378
szości	-13379
▁Damon	-13380
▁Idźcie	-13381
▁Niezły	-13382
▁kumpel	-13383
▁pożegn	-13384
▁terrif	-13385
▁concert	-13386
▁poprawi	-13387
▁słodkie	-13388
▁ostatniego	-13389
▁przysięgam	-13390
My	-13391
żeć	-13392
▁Pła	-13393
▁rel	-13394
water	-13395
▁Wzią	-13396
▁Guard	-13397
▁Shawn	-13398
▁fixed	-13399
▁folks	-13400
▁porno	-13401
▁tears	-13402
▁zwrócić	-13403
▁guessing	-13404
▁zadziała	-13405
▁Niemożliwe	-13406
alia	-13407
▁Ned	-13408
▁ryn	-13409
▁bazy	-13410
▁czarny	-13411
▁opieki	-13412
▁powrót	-13413
▁starym	-13414
▁package	-13415
▁złodziej	-13416
▁szacunkiem	-13417
▁dziewczynie	-13418
▁zdecydowanie	-13419
▁3,	-13420
ques	-13421
▁Est	-13422
▁Zim	-13423
cjach	-13424
▁Kira	-13425
▁prow	-13426
▁Każda	-13427
▁kills	-13428
▁Postar	-13429
▁staram	-13430
kają	-13431
lesh	-13432
▁snu	-13433
▁craw	-13434
▁wojen	-13435
▁polega	-13436
▁rescue	-13437
artament	-13438
▁samolotu	-13439
NI	-13440
oded	-13441
▁FOR	-13442
ownik	-13443
▁gest	-13444
▁znał	-13445
redith	-13446
▁clown	-13447
▁Zabiję	-13448
▁kochał	-13449
▁uważać	-13450
jedziemy	-13451
▁concent	-13452
▁consequ	-13453
▁Zupełnie	-13454
▁incident	-13455
▁wyglądał	-13456
▁explosion	-13457
▁niewłaści	-13458
▁zapomniałem	-13459
zem	-13460
▁Eh	-13461
ślić	-13462
▁Moc	-13463
▁mum	-13464
▁Span	-13465
▁jezi	-13466
▁panna	-13467
▁pokaże	-13468
▁konsekwen	-13469
▁dziewczynki	-13470
żysz	-13471
▁Pit	-13472
▁twe	-13473
dziest	-13474
▁firmę	-13475
▁prior	-13476
▁tooth	-13477
▁simply	-13478
▁posiada	-13479
▁Fox	-13480
▁noż	-13481
▁Bran	-13482
▁Ford	-13483
▁bust	-13484
▁plecy	-13485
▁advent	-13486
▁byłbym	-13487
▁królew	-13488
▁prepar	-13489
▁uczest	-13490
▁dostaje	-13491
▁Musiałam	-13492
▁Widzicie	-13493
▁świadków	-13494
jej	-13495
sun	-13496
▁Emm	-13497
▁dur	-13498
▁Widzi	-13499
▁degrees	-13500
▁zadział	-13501
▁niektóre	-13502
ryl	-13503
abel	-13504
▁Benj	-13505
▁Deli	-13506
▁typu	-13507
▁wise	-13508
▁Daisy	-13509
▁Paula	-13510
▁ranka	-13511
▁ukradł	-13512
▁Kobieta	-13513
▁dookoła	-13514
▁skurwys	-13515
▁zeszłej	-13516
ios	-13517
rin	-13518
sły	-13519
▁włó	-13520
biliz	-13521
▁pracą	-13522
▁Africa	-13523
▁fourth	-13524
▁umarła	-13525
niejszych	-13526
▁Superman	-13527
▁kościoła	-13528
▁otherwise	-13529
▁aresztowany	-13530
▁Wyb	-13531
który	-13532
▁Joan	-13533
▁uszy	-13534
▁wyna	-13535
▁Merry	-13536
▁blank	-13537
▁juice	-13538
▁Pierce	-13539
▁Wouldn	-13540
▁Collins	-13541
▁czekają	-13542
▁factory	-13543
▁niedzie	-13544
▁Moglibyśmy	-13545
wani	-13546
▁wra	-13547
▁Turns	-13548
▁żonie	-13549
▁nastro	-13550
▁prawej	-13551
▁zombie	-13552
▁ważnego	-13553
▁zaprowa	-13554
▁elevator	-13555
▁reputation	-13556
aco	-13557
▁Dup	-13558
▁Slo	-13559
antem	-13560
niach	-13561
▁fest	-13562
szczep	-13563
▁awans	-13564
▁porze	-13565
▁brains	-13566
▁useful	-13567
▁wielko	-13568
▁actions	-13569
▁nazywam	-13570
▁Thursday	-13571
▁zapropon	-13572
▁rozwiązać	-13573
▁Przypuszcz	-13574
ulu	-13575
umi	-13576
arda	-13577
▁mło	-13578
lying	-13579
nięte	-13580
aniemy	-13581
▁agres	-13582
▁Pomogę	-13583
▁prawdą	-13584
▁Prepare	-13585
▁besides	-13586
▁przerwę	-13587
▁zadzwoń	-13588
conscious	-13589
▁valuable	-13590
▁zwłaszcza	-13591
wna	-13592
jach	-13593
muni	-13594
▁Mum	-13595
▁Easy	-13596
▁Dawno	-13597
▁disag	-13598
▁Bennet	-13599
▁przyjdę	-13600
▁emotional	-13601
▁environment	-13602
uszu	-13603
▁Żyd	-13604
▁pens	-13605
czekam	-13606
▁odmówi	-13607
▁phones	-13608
▁trzeci	-13609
▁poradzę	-13610
▁midnight	-13611
▁confession	-13612
box	-13613
▁5.	-13614
▁Tea	-13615
dzeni	-13616
▁tatę	-13617
▁whom	-13618
▁Jules	-13619
▁kupił	-13620
▁załam	-13621
▁engaged	-13622
▁musiałam	-13623
▁zdolności	-13624
?.	-13625
aken	-13626
▁Bas	-13627
▁ded	-13628
istic	-13629
▁belt	-13630
▁żadna	-13631
▁starych	-13632
▁wakacje	-13633
▁podsłuch	-13634
▁dowiedział	-13635
▁szczególnie	-13636
łow	-13637
ńca	-13638
▁MI	-13639
▁kok	-13640
▁shoe	-13641
▁couch	-13642
▁wstyd	-13643
▁zdaje	-13644
▁oczami	-13645
▁przeklę	-13646
NE	-13647
alił	-13648
dale	-13649
stem	-13650
▁Złam	-13651
▁wodą	-13652
▁birds	-13653
▁czasz	-13654
▁babcia	-13655
▁defeat	-13656
▁laptop	-13657
arehouse	-13658
▁Wszędzie	-13659
▁przestra	-13660
sky	-13661
cast	-13662
rząs	-13663
▁tum	-13664
▁prim	-13665
▁zagad	-13666
▁Palmer	-13667
▁closet	-13668
▁piękną	-13669
▁Imagine	-13670
▁Lincoln	-13671
▁deserves	-13672
▁poznałem	-13673
Cz	-13674
▁Lt	-13675
▁ME	-13676
ousy	-13677
ching	-13678
▁Wróć	-13679
▁kurs	-13680
▁wins	-13681
uments	-13682
▁fruit	-13683
▁pełno	-13684
▁songs	-13685
▁łóżko	-13686
▁Uciekaj	-13687
▁crossed	-13688
▁nazywać	-13689
▁zgadzam	-13690
▁carrying	-13691
▁przychodzą	-13692
kle	-13693
ript	-13694
ulli	-13695
ówek	-13696
▁mro	-13697
▁Twoi	-13698
▁Upew	-13699
▁edge	-13700
▁okna	-13701
▁skut	-13702
bieramy	-13703
▁prints	-13704
▁dziadek	-13705
▁parties	-13706
▁systems	-13707
▁Bullshit	-13708
▁myślałeś	-13709
▁niewiele	-13710
▁incredible	-13711
log	-13712
moc	-13713
opsy	-13714
▁Ira	-13715
esday	-13716
garek	-13717
▁wrze	-13718
▁India	-13719
▁krwią	-13720
▁affect	-13721
▁muzyka	-13722
▁hitting	-13723
▁przerwy	-13724
▁Opowiedz	-13725
▁betrayed	-13726
▁offering	-13727
▁professor	-13728
orp	-13729
▁wand	-13730
▁wisi	-13731
▁Sprawi	-13732
▁Warren	-13733
▁bronić	-13734
▁ludzko	-13735
▁spring	-13736
▁heading	-13737
▁zdaniem	-13738
▁Meredith	-13739
▁przepros	-13740
▁Czekajcie	-13741
▁extremely	-13742
▁pozostawi	-13743
gał	-13744
▁Cre	-13745
pherd	-13746
▁rope	-13747
▁wywo	-13748
▁słaby	-13749
▁zbiera	-13750
ratuluję	-13751
▁Raymond	-13752
▁impreza	-13753
▁misunder	-13754
otek	-13755
teen	-13756
▁Znik	-13757
▁cave	-13758
▁pasz	-13759
▁zeps	-13760
▁Wybra	-13761
▁forgi	-13762
▁obrazy	-13763
szczenia	-13764
▁Promise	-13765
▁failure	-13766
▁robiłem	-13767
▁pacjentów	-13768
▁straciłem	-13769
bać	-13770
uted	-13771
▁Dog	-13772
▁setki	-13773
▁dealer	-13774
▁becoming	-13775
▁byliście	-13776
▁niektórzy	-13777
▁remembered	-13778
▁rozwiązanie	-13779
roe	-13780
uli	-13781
▁Hm	-13782
▁Mem	-13783
▁byl	-13784
▁Bron	-13785
▁Połud	-13786
▁pewni	-13787
▁doceni	-13788
▁psycho	-13789
▁yellow	-13790
▁Jonathan	-13791
▁reaction	-13792
▁influence	-13793
over	-13794
yard	-13795
▁Wej	-13796
▁hug	-13797
▁lud	-13798
▁sos	-13799
xygen	-13800
▁talks	-13801
▁złota	-13802
▁Naruto	-13803
▁Ruszaj	-13804
▁castle	-13805
▁dostała	-13806
▁przyjechał	-13807
7,	-13808
▁Had	-13809
▁Wąt	-13810
▁węd	-13811
ńskie	-13812
▁Jadę	-13813
▁gall	-13814
▁roze	-13815
▁zone	-13816
▁formu	-13817
▁wujek	-13818
▁design	-13819
▁trigger	-13820
▁zapewnić	-13821
łani	-13822
▁Lake	-13823
▁apar	-13824
▁Whose	-13825
▁occas	-13826
▁rzeki	-13827
▁wpaść	-13828
▁joined	-13829
▁Gabriel	-13830
▁Inspector	-13831
▁conscious	-13832
pass	-13833
wear	-13834
▁Rory	-13835
▁bond	-13836
▁facts	-13837
▁położ	-13838
▁sales	-13839
▁Wynocha	-13840
▁someday	-13841
▁messages	-13842
▁zainteresowany	-13843
▁Yang	-13844
▁wide	-13845
▁Carla	-13846
▁książka	-13847
▁separate	-13848
▁literally	-13849
hyd	-13850
jski	-13851
▁Lot	-13852
▁Child	-13853
▁Coming	-13854
▁czyste	-13855
▁forest	-13856
▁litość	-13857
▁piekła	-13858
▁review	-13859
▁winter	-13860
▁władzę	-13861
▁Meksyku	-13862
▁trup	-13863
▁sąsie	-13864
▁Robisz	-13865
▁środek	-13866
▁Instead	-13867
▁południ	-13868
▁setting	-13869
▁meantime	-13870
▁properly	-13871
bes	-13872
ręt	-13873
uni	-13874
spap	-13875
▁łam	-13876
arium	-13877
▁lack	-13878
pieprz	-13879
▁kryzy	-13880
▁sharp	-13881
▁angiel	-13882
▁czekał	-13883
▁płacić	-13884
ervation	-13885
▁kostium	-13886
▁windows	-13887
▁odwiedzić	-13888
▁spotkaniu	-13889
ood	-13890
oły	-13891
zię	-13892
opat	-13893
▁sha	-13894
nieje	-13895
▁sons	-13896
▁crush	-13897
▁kolek	-13898
▁wiatr	-13899
▁Leslie	-13900
▁wasted	-13901
▁winner	-13902
▁Hammond	-13903
▁Synchro	-13904
▁dowiemy	-13905
▁offense	-13906
▁champagne	-13907
9,	-13908
sył	-13909
▁zi	-13910
othy	-13911
▁uch	-13912
rawdy	-13913
▁fajne	-13914
▁rozwi	-13915
▁Berlin	-13916
▁cukier	-13917
▁gorąco	-13918
▁złożyć	-13919
two	-13920
aria	-13921
orta	-13922
▁Hod	-13923
▁cios	-13924
▁poet	-13925
▁dachu	-13926
▁sides	-13927
▁zaklę	-13928
▁mechan	-13929
▁spodob	-13930
▁tamtym	-13931
▁troche	-13932
▁ostrożny	-13933
▁answering	-13934
tom	-13935
▁BE	-13936
ślad	-13937
▁jam	-13938
▁Test	-13939
▁kons	-13940
▁Brawo	-13941
▁Gówno	-13942
▁desire	-13943
▁patrzysz	-13944
▁pozostać	-13945
▁prysznic	-13946
▁siedział	-13947
▁Dziewczyna	-13948
▁samochodem	-13949
▁Wp	-13950
▁Rap	-13951
▁Zni	-13952
▁cyt	-13953
geous	-13954
▁Krist	-13955
▁regul	-13956
▁shake	-13957
▁ważna	-13958
cyjnego	-13959
▁Samant	-13960
▁bogaty	-13961
▁pański	-13962
▁porówn	-13963
▁tracks	-13964
▁nuclear	-13965
▁learning	-13966
▁prowadzą	-13967
▁przypomni	-13968
▁przesłuchanie	-13969
UM	-13970
▁Bus	-13971
▁Rey	-13972
▁Żał	-13973
rzuty	-13974
▁Chase	-13975
▁Cross	-13976
▁chore	-13977
▁kinds	-13978
▁portf	-13979
▁fishing	-13980
▁excellent	-13981
▁Ktokolwiek	-13982
▁possibility	-13983
eau	-13984
ize	-13985
nień	-13986
▁Kirk	-13987
▁baru	-13988
▁shield	-13989
▁winien	-13990
▁Tuesday	-13991
▁holiday	-13992
▁swallow	-13993
▁Przynieś	-13994
▁pacjenta	-13995
laz	-13996
czes	-13997
▁pęk	-13998
czycy	-13999
▁Maya	-14000
▁komis	-14001
▁miecz	-14002
▁corpor	-14003
▁parent	-14004
▁theater	-14005
▁myślicie	-14006
wh	-14007
stka	-14008
endent	-14009
▁Pokażę	-14010
arygodne	-14011
▁provide	-14012
▁trzymał	-14013
▁uniwers	-14014
▁świadka	-14015
▁gdybyśmy	-14016
▁zasługuje	-14017
80	-14018
▁CO	-14019
▁ZA	-14020
▁jaw	-14021
▁Drag	-14022
▁acqu	-14023
▁puts	-14024
▁Girls	-14025
▁Myśle	-14026
▁twego	-14027
▁Kenned	-14028
▁instrum	-14029
▁pozytyw	-14030
▁understood	-14031
▁PO	-14032
bija	-14033
▁Web	-14034
berry	-14035
▁circle	-14036
▁robiła	-14037
▁wodzie	-14038
▁silence	-14039
▁miejscem	-14040
▁ordinary	-14041
bey	-14042
▁eh	-14043
resa	-14044
ignor	-14045
liwie	-14046
▁dwaj	-14047
▁rośl	-14048
▁Throw	-14049
▁prace	-14050
▁zwięk	-14051
▁Śmiało	-14052
▁Seattle	-14053
▁odeszła	-14054
▁pozycję	-14055
▁przyjaź	-14056
▁piosenka	-14057
▁zacząłem	-14058
▁nadchodzi	-14059
arma	-14060
▁Fair	-14061
▁maid	-14062
▁wese	-14063
▁Buddy	-14064
▁Johna	-14065
▁argue	-14066
▁gorsze	-14067
▁przeze	-14068
▁zamach	-14069
▁kingdom	-14070
▁Zrobiłam	-14071
▁zmęczona	-14072
▁recommend	-14073
▁zabójstwa	-14074
▁zazwyczaj	-14075
▁Impossible	-14076
Oh	-14077
ov	-14078
pted	-14079
road	-14080
licop	-14081
▁rehe	-14082
▁atrak	-14083
▁eaten	-14084
▁wybor	-14085
▁foreign	-14086
▁otworzy	-14087
▁obecność	-14088
▁najważniejsze	-14089
▁Bau	-14090
nował	-14091
▁babe	-14092
▁deny	-14093
▁neut	-14094
▁dupie	-14095
▁orygin	-14096
▁zachwy	-14097
▁nieruch	-14098
▁spotkałem	-14099
▁skontaktować	-14100
ere	-14101
ija	-14102
▁Ax	-14103
ańcz	-14104
gment	-14105
▁Burt	-14106
▁Jill	-14107
▁lots	-14108
▁ręką	-14109
▁unde	-14110
prints	-14111
▁souls	-14112
▁śmiet	-14113
▁żołąd	-14114
▁Normal	-14115
▁demonst	-14116
▁mechani	-14117
łom	-14118
▁bać	-14119
▁Fitz	-14120
▁zarzą	-14121
▁Często	-14122
▁fallen	-14123
▁nazwać	-14124
▁Podejdź	-14125
▁tańczyć	-14126
▁attitude	-14127
▁przystoj	-14128
▁Zdecydowanie	-14129
uru	-14130
▁Kal	-14131
▁gni	-14132
▁Mind	-14133
▁Rene	-14134
▁Jenna	-14135
▁Times	-14136
▁doors	-14137
▁stake	-14138
▁złych	-14139
▁Wykorzyst	-14140
ndy	-14141
rawa	-14142
▁Cha	-14143
▁Lis	-14144
rację	-14145
▁Pass	-14146
▁flash	-14147
których	-14148
▁Debbie	-14149
▁violent	-14150
▁Chandler	-14151
▁Zrobiłeś	-14152
▁świadkiem	-14153
rific	-14154
veill	-14155
▁Also	-14156
▁babies	-14157
▁rozgry	-14158
▁Zamiast	-14159
▁niestety	-14160
▁Valentine	-14161
aść	-14162
mis	-14163
osis	-14164
▁15.	-14165
▁Imm	-14166
▁Pob	-14167
▁nurs	-14168
▁sink	-14169
cyjnym	-14170
▁bills	-14171
▁kręci	-14172
▁wydaw	-14173
▁candid	-14174
▁resour	-14175
▁Spanish	-14176
▁naszymi	-14177
▁TM	-14178
chyl	-14179
cyjną	-14180
▁ilość	-14181
▁ładne	-14182
▁Willie	-14183
▁przewi	-14184
▁tortur	-14185
▁zmianę	-14186
▁Wyobraź	-14187
▁fragment	-14188
▁identity	-14189
▁wskazuje	-14190
bad	-14191
ras	-14192
keep	-14193
łady	-14194
▁spu	-14195
agger	-14196
▁Oczy	-14197
▁pigu	-14198
▁wond	-14199
▁Angie	-14200
▁Panna	-14201
▁Veron	-14202
▁broad	-14203
▁option	-14204
▁martwię	-14205
▁passing	-14206
▁confirmed	-14207
▁threatened	-14208
.'	-14209
vat	-14210
▁Ven	-14211
▁foo	-14212
szycie	-14213
▁Amber	-14214
▁Książ	-14215
▁obiekt	-14216
▁zawiod	-14217
▁przestrzeni	-14218
oza	-14219
▁TR	-14220
itet	-14221
▁Women	-14222
▁karie	-14223
▁picia	-14224
▁Miłego	-14225
▁rozryw	-14226
▁virgin	-14227
▁knocked	-14228
▁Niektóre	-14229
▁constant	-14230
▁agreement	-14231
▁Interesting	-14232
wszy	-14233
▁Girl	-14234
jected	-14235
▁Kling	-14236
▁costs	-14237
▁steps	-14238
▁uncom	-14239
▁zegar	-14240
▁tattoo	-14241
▁sposobem	-14242
▁sądziłem	-14243
▁pieprzony	-14244
▁embarrassed	-14245
6,	-14246
rano	-14247
woje	-14248
▁Dol	-14249
▁Słu	-14250
anymi	-14251
peror	-14252
▁Answ	-14253
▁liqu	-14254
▁obaj	-14255
szczaj	-14256
▁Prosi	-14257
▁Steph	-14258
▁musze	-14259
▁chcieć	-14260
▁żadnym	-14261
▁carried	-14262
▁chętnie	-14263
▁kochana	-14264
▁gdziekolwiek	-14265
word	-14266
▁Fat	-14267
▁dim	-14268
▁Noah	-14269
▁klas	-14270
▁umrę	-14271
▁Odsuń	-14272
▁pośpie	-14273
▁specja	-14274
▁square	-14275
▁przywit	-14276
▁większy	-14277
▁kontrakt	-14278
▁financial	-14279
▁próbujesz	-14280
Ii	-14281
szli	-14282
▁lim	-14283
▁Luci	-14284
▁biały	-14285
▁wkład	-14286
▁niezależ	-14287
▁charakter	-14288
▁przyjechać	-14289
ięty	-14290
▁den	-14291
▁Mass	-14292
▁Nora	-14293
▁Sile	-14294
onable	-14295
▁Being	-14296
▁Pamię	-14297
▁dzwonić	-14298
▁stanowi	-14299
▁Franklin	-14300
LA	-14301
zel	-14302
▁Sea	-14303
▁une	-14304
▁czuł	-14305
▁wykop	-14306
▁wyśle	-14307
▁zamów	-14308
▁silent	-14309
▁Przeczyt	-14310
▁pozwolenie	-14311
kus	-14312
▁'.	-14313
ództ	-14314
dziły	-14315
pires	-14316
▁Such	-14317
▁podw	-14318
▁palce	-14319
▁wyjdę	-14320
▁krymin	-14321
▁zabili	-14322
▁succeed	-14323
▁kontrolą	-14324
▁osiągnąć	-14325
▁Powiedzieli	-14326
TU	-14327
ista	-14328
noty	-14329
ącym	-14330
▁civ	-14331
przest	-14332
▁Miejs	-14333
▁Połóż	-14334
▁below	-14335
▁dupku	-14336
▁służyć	-14337
▁Zabawne	-14338
▁species	-14339
▁gorgeous	-14340
▁honestly	-14341
▁wyjdziesz	-14342
▁taś	-14343
żynie	-14344
▁regu	-14345
▁Imper	-14346
▁dwoma	-14347
▁króle	-14348
▁nauki	-14349
▁Curtis	-14350
▁nearly	-14351
▁umiesz	-14352
▁sprawach	-14353
▁chłopaków	-14354
▁Wiedziałeś	-14355
▁małżeństwa	-14356
▁szczęśliwi	-14357
lee	-14358
iers	-14359
iles	-14360
▁Fre	-14361
▁rif	-14362
adise	-14363
▁krat	-14364
▁flesh	-14365
▁miłos	-14366
▁mądry	-14367
▁Nelson	-14368
▁więźni	-14369
▁Service	-14370
▁assault	-14371
▁momentu	-14372
▁bibliote	-14373
▁zobowiąz	-14374
▁Zabierzcie	-14375
▁Unbelievable	-14376
-4	-14377
dl	-14378
say	-14379
insy	-14380
▁Zwol	-14381
▁sate	-14382
▁Quick	-14383
▁Wykon	-14384
▁forsę	-14385
▁quali	-14386
▁Cameron	-14387
▁plastic	-14388
▁wszechś	-14389
veillance	-14390
adel	-14391
bling	-14392
▁ukoń	-14393
▁Caleb	-14394
▁occur	-14395
▁wyraż	-14396
▁Napraw	-14397
▁mental	-14398
▁jakichś	-14399
▁cudownie	-14400
▁następnie	-14401
OB	-14402
cH	-14403
nda	-14404
pać	-14405
gnać	-14406
▁201	-14407
▁ses	-14408
onsie	-14409
▁duck	-14410
▁zmian	-14411
▁Norman	-14412
▁issues	-14413
▁myster	-14414
▁poproszę	-14415
▁prisoners	-14416
NY	-14417
▁WY	-14418
▁Mot	-14419
▁Dest	-14420
▁Read	-14421
▁miej	-14422
▁fully	-14423
▁spoko	-14424
▁lepsza	-14425
▁okropnie	-14426
▁inteligent	-14427
cam	-14428
▁Ran	-14429
▁potw	-14430
cznymi	-14431
▁Zabój	-14432
▁alert	-14433
▁braci	-14434
▁biorąc	-14435
▁indust	-14436
▁niemal	-14437
▁sample	-14438
▁kawałki	-14439
▁library	-14440
▁believes	-14441
▁jedziesz	-14442
▁kapitana	-14443
▁jednostki	-14444
▁Dziewczyny	-14445
emp	-14446
bili	-14447
▁dip	-14448
▁Erica	-14449
▁ekscy	-14450
▁filmy	-14451
▁gliną	-14452
▁instin	-14453
▁poczuć	-14454
▁skończyła	-14455
▁rib	-14456
▁tłu	-14457
▁styl	-14458
▁Potrafi	-14459
▁rozpozn	-14460
▁Spotkamy	-14461
▁opowiedzieć	-14462
▁km	-14463
dies	-14464
oter	-14465
zygn	-14466
▁kel	-14467
ciami	-14468
▁Skon	-14469
▁Allen	-14470
▁Ukrad	-14471
▁dotąd	-14472
▁dozen	-14473
▁pożar	-14474
▁wykoń	-14475
▁messed	-14476
▁mostly	-14477
▁ochronę	-14478
▁uniknąć	-14479
▁przeczytać	-14480
▁przystojny	-14481
▁GPS	-14482
▁Jos	-14483
czący	-14484
▁Zgin	-14485
▁wypo	-14486
▁Diane	-14487
▁Patty	-14488
▁cudem	-14489
▁sądzi	-14490
▁zasil	-14491
▁manage	-14492
▁zajebi	-14493
▁zegarek	-14494
▁rodzicami	-14495
▁sensitive	-14496
▁Bib	-14497
ołych	-14498
▁trop	-14499
▁wiek	-14500
▁estab	-14501
▁medal	-14502
▁wierz	-14503
▁Gloria	-14504
▁accused	-14505
▁contest	-14506
▁pomagać	-14507
▁robiłeś	-14508
▁zacznij	-14509
▁homework	-14510
▁neighbors	-14511
▁doświadczenie	-14512
▁Stać	-14513
▁udaw	-14514
▁Zgubi	-14515
▁płaci	-14516
▁skóry	-14517
▁piekło	-14518
▁szkoła	-14519
▁Shouldn	-14520
▁herbaty	-14521
▁moments	-14522
▁pańskie	-14523
▁pojęcie	-14524
▁poważny	-14525
▁słyszał	-14526
▁piosenki	-14527
śla	-14528
▁CD	-14529
▁nick	-14530
▁stays	-14531
▁Ronnie	-14532
▁zaczynamy	-14533
▁♫	-14534
▁Ur	-14535
ardo	-14536
chet	-14537
ńców	-14538
▁esc	-14539
▁rol	-14540
▁Ball	-14541
▁myli	-14542
▁tast	-14543
▁Wyjaś	-14544
▁squee	-14545
▁aboard	-14546
▁idiots	-14547
standing	-14548
▁Dziecko	-14549
▁Italian	-14550
▁pomyłka	-14551
▁istnieją	-14552
▁podpisać	-14553
▁Sebastian	-14554
▁Strasznie	-14555
▁skończyło	-14556
▁Rozmawiałem	-14557
nęły	-14558
▁20.	-14559
▁Lyn	-14560
▁100%	-14561
▁Admi	-14562
▁exer	-14563
▁wład	-14564
▁pełna	-14565
versary	-14566
▁launch	-14567
▁skupić	-14568
▁fashion	-14569
▁pomyślał	-14570
▁telefoni	-14571
▁Wszystkiego	-14572
Ar	-14573
Do	-14574
KI	-14575
gun	-14576
itą	-14577
▁ess	-14578
wałaś	-14579
▁Wolf	-14580
▁pias	-14581
▁Force	-14582
▁Zbliż	-14583
▁Hector	-14584
▁odrzuc	-14585
▁zapobie	-14586
▁normalnie	-14587
▁Peł	-14588
Fever	-14589
byśmy	-14590
istan	-14591
loved	-14592
▁menu	-14593
▁odzy	-14594
ologia	-14595
▁Quiet	-14596
▁Sześć	-14597
▁dłoni	-14598
▁kolana	-14599
▁kombin	-14600
▁rozważ	-14601
▁Miranda	-14602
▁article	-14603
▁hurting	-14604
▁powrotu	-14605
▁wróciłem	-14606
▁próbowałem	-14607
oze	-14608
▁Ast	-14609
▁Bri	-14610
▁Twi	-14611
wycię	-14612
▁Komp	-14613
▁capt	-14614
▁math	-14615
▁opóź	-14616
▁bound	-14617
▁ewaku	-14618
▁Czekam	-14619
▁Szczeg	-14620
▁compla	-14621
▁podzię	-14622
▁zmarła	-14623
▁Kobiety	-14624
▁podobne	-14625
▁wykonać	-14626
▁niedźwie	-14627
▁lę	-14628
▁Ellie	-14629
▁Chryst	-14630
▁highly	-14631
▁twarzą	-14632
▁becomes	-14633
▁Chciałeś	-14634
▁entrance	-14635
▁surrender	-14636
▁Ul	-14637
▁Brun	-14638
▁hits	-14639
▁biorę	-14640
▁celeb	-14641
▁żonaty	-14642
▁Mówiłaś	-14643
▁senator	-14644
kov	-14645
sona	-14646
phere	-14647
świet	-14648
▁nieu	-14649
▁Nagle	-14650
▁niezn	-14651
▁seats	-14652
▁Wyłącz	-14653
▁miaste	-14654
▁rękawi	-14655
zydencie	-14656
▁removed	-14657
▁szalone	-14658
▁wiedząc	-14659
▁odnośnie	-14660
▁entertain	-14661
szp	-14662
▁SE	-14663
▁kryj	-14664
▁Zejdź	-14665
▁przesł	-14666
▁stable	-14667
▁zablok	-14668
▁helicop	-14669
▁przytra	-14670
▁Highness	-14671
▁bierzesz	-14672
▁magazine	-14673
▁12.	-14674
▁Ela	-14675
▁uns	-14676
▁porę	-14677
▁swing	-14678
▁złoto	-14679
▁ciężki	-14680
▁przewa	-14681
▁newspap	-14682
roś	-14683
▁Nu	-14684
plom	-14685
▁ward	-14686
▁kultu	-14687
▁pytać	-14688
▁Stefan	-14689
▁takimi	-14690
▁Kennedy	-14691
▁królową	-14692
▁pushing	-14693
▁dostałeś	-14694
▁dołączyć	-14695
▁szczegóły	-14696
8,	-14697
irm	-14698
smy	-14699
▁ID	-14700
nili	-14701
▁dali	-14702
▁dent	-14703
▁rise	-14704
▁żywo	-14705
▁rozwo	-14706
▁Stanów	-14707
▁kłamie	-14708
▁pienię	-14709
▁ruszyć	-14710
▁dziennie	-14711
▁sandwich	-14712
▁Kaliforni	-14713
▁Wonderful	-14714
ERE	-14715
cow	-14716
łku	-14717
▁75	-14718
amed	-14719
ifts	-14720
myśl	-14721
rawy	-14722
simy	-14723
andra	-14724
▁Jedi	-14725
▁omin	-14726
▁redu	-14727
▁Beach	-14728
▁drank	-14729
▁skull	-14730
▁umowy	-14731
▁commer	-14732
▁crisis	-14733
26	-14734
rim	-14735
▁zup	-14736
iding	-14737
▁laund	-14738
▁pride	-14739
▁zebra	-14740
▁combin	-14741
▁pleased	-14742
▁musiałeś	-14743
▁widzieli	-14744
▁zaczynam	-14745
▁terrorist	-14746
▁DramaFever	-14747
▁połączenie	-14748
aju	-14749
urd	-14750
▁fag	-14751
▁Naomi	-14752
▁Popeł	-14753
▁naraz	-14754
▁prick	-14755
▁symbo	-14756
onsieur	-14757
▁Answer	-14758
▁prawem	-14759
dziesiąt	-14760
▁Ameryce	-14761
▁Jakiego	-14762
▁terenie	-14763
▁designed	-14764
▁podłodze	-14765
▁criminals	-14766
▁podstawie	-14767
UN	-14768
uld	-14769
▁dosł	-14770
▁poby	-14771
▁tend	-14772
▁dałeś	-14773
▁palec	-14774
▁snake	-14775
▁małych	-14776
▁regist	-14777
▁sobotę	-14778
▁Brandon	-14779
▁billion	-14780
▁skończę	-14781
▁postawić	-14782
arks	-14783
kata	-14784
▁bri	-14785
▁cul	-14786
▁bump	-14787
▁Burke	-14788
▁wyklu	-14789
▁cooking	-14790
▁dziecku	-14791
▁Wybaczcie	-14792
▁Chę	-14793
▁Mean	-14794
▁cells	-14795
▁trunk	-14796
▁Dawson	-14797
▁flower	-14798
▁koście	-14799
▁nogami	-14800
▁document	-14801
ldon	-14802
▁Scu	-14803
▁Gall	-14804
▁Gran	-14805
▁policy	-14806
▁Śmierć	-14807
▁Londynie	-14808
▁mordercą	-14809
▁prawnika	-14810
▁rozmawiamy	-14811
▁Zapomniałem	-14812
▁przypomnieć	-14813
acu	-14814
iła	-14815
▁1:	-14816
▁Apo	-14817
annie	-14818
▁Hend	-14819
▁Zawi	-14820
▁pola	-14821
erwork	-14822
▁umawi	-14823
▁writer	-14824
▁cutting	-14825
▁sweetie	-14826
▁Szczęśli	-14827
igo	-14828
▁Uf	-14829
antów	-14830
cover	-14831
▁Gwen	-14832
▁piwa	-14833
▁spow	-14834
▁Dałem	-14835
▁bomby	-14836
▁wiarę	-14837
▁Brooke	-14838
▁agency	-14839
▁Houston	-14840
▁network	-14841
▁wiecznie	-14842
oria	-14843
nijmy	-14844
▁Crow	-14845
▁Kind	-14846
▁Mack	-14847
▁Skur	-14848
▁tower	-14849
ongress	-14850
▁kłamać	-14851
▁potwor	-14852
▁ustalić	-14853
▁National	-14854
▁łą	-14855
jące	-14856
aryzy	-14857
▁Opie	-14858
▁bars	-14859
▁Avery	-14860
▁Cindy	-14861
▁Zaczą	-14862
▁bezna	-14863
▁oszal	-14864
▁wpadł	-14865
▁łańcu	-14866
▁Meliss	-14867
▁detail	-14868
▁dowiem	-14869
▁tricks	-14870
bierzesz	-14871
▁Madison	-14872
▁Następny	-14873
▁Straight	-14874
▁dreaming	-14875
▁rozmawiał	-14876
▁medication	-14877
▁specjalnie	-14878
▁stanowisko	-14879
▁Zre	-14880
wight	-14881
▁Kier	-14882
▁nosa	-14883
▁rape	-14884
▁spit	-14885
▁Manny	-14886
▁dźwię	-14887
▁nacis	-14888
▁podjąć	-14889
▁Absolutnie	-14890
azdu	-14891
rany	-14892
órka	-14893
▁Cro	-14894
▁Top	-14895
▁zwi	-14896
ścimy	-14897
▁Boys	-14898
▁Benny	-14899
▁ambas	-14900
▁Graham	-14901
▁Północ	-14902
▁Sister	-14903
▁crimes	-14904
▁hardly	-14905
▁modern	-14906
▁sports	-14907
▁uświad	-14908
▁wprost	-14909
▁comprom	-14910
▁komórki	-14911
▁oddychać	-14912
▁cigarette	-14913
▁Próbowałam	-14914
▁Baw	-14915
ilton	-14916
ounts	-14917
▁THAT	-14918
dziale	-14919
▁Small	-14920
▁basen	-14921
▁wolna	-14922
▁zdjąć	-14923
kowania	-14924
▁Antoni	-14925
▁bzdury	-14926
▁ciasto	-14927
▁robbed	-14928
▁słysze	-14929
▁butelkę	-14930
▁individ	-14931
▁pojedyn	-14932
▁przyczep	-14933
▁przeczucie	-14934
mia	-14935
łaty	-14936
▁agg	-14937
▁wzg	-14938
ected	-14939
itory	-14940
ribly	-14941
▁Army	-14942
▁Moon	-14943
▁guide	-14944
▁missi	-14945
▁karierę	-14946
▁naprzód	-14947
▁warrior	-14948
▁accepted	-14949
▁pamiętaj	-14950
-2	-14951
▁Mah	-14952
andal	-14953
▁Glad	-14954
▁rosy	-14955
▁decor	-14956
▁units	-14957
▁wydać	-14958
▁Spadaj	-14959
ordinary	-14960
▁artykuł	-14961
▁replace	-14962
▁Witajcie	-14963
▁cholerny	-14964
▁osobiste	-14965
▁planecie	-14966
▁trzymasz	-14967
▁consequences	-14968
rez	-14969
▁7.	-14970
wife	-14971
▁Hunt	-14972
▁dłoń	-14973
manent	-14974
▁wyczy	-14975
▁Duncan	-14976
▁firmie	-14977
▁zaśpie	-14978
▁choroby	-14979
▁sześciu	-14980
▁zabierze	-14981
▁wytłumaczyć	-14982
cio	-14983
▁iz	-14984
▁Judy	-14985
▁Zack	-14986
▁econ	-14987
▁ufam	-14988
▁Gwiaz	-14989
▁Haley	-14990
▁pewną	-14991
▁surgeon	-14992
▁działają	-14993
▁zostawię	-14994
▁wybierasz	-14995
▁ważniejsze	-14996
▁Niesamowite	-14997
nell	-14998
▁Cry	-14999
▁Dec	-15000
▁muse	-15001
▁spryt	-15002
▁widow	-15003
▁modlit	-15004
▁ludzkie	-15005
▁prostit	-15006
▁troszkę	-15007
▁weakness	-15008
▁secretary	-15009
▁underwear	-15010
▁nienawidzi	-15011
▁niesamowity	-15012
▁podejrzanego	-15013
ałą	-15014
wnie	-15015
▁sco	-15016
▁Juan	-15017
▁jack	-15018
▁trem	-15019
mienia	-15020
rzysty	-15021
▁Doyle	-15022
▁tatuś	-15023
▁Dwight	-15024
▁Hunter	-15025
▁Monroe	-15026
▁Philip	-15027
▁fuckin	-15028
▁wrogów	-15029
▁środki	-15030
▁Wallace	-15031
▁effects	-15032
▁odrobinę	-15033
▁paperwork	-15034
▁Enterprise	-15035
▁prawnikiem	-15036
▁właściciel	-15037
gic	-15038
▁Gad	-15039
▁Obu	-15040
▁Poj	-15041
owość	-15042
vious	-15043
▁Book	-15044
▁grat	-15045
▁szyi	-15046
▁delay	-15047
▁novel	-15048
▁Bailey	-15049
▁Morris	-15050
▁środow	-15051
▁Każdego	-15052
▁ciekawe	-15053
▁dokonać	-15054
▁skradzi	-15055
▁urządzenie	-15056
CI	-15057
TH	-15058
brew	-15059
stwu	-15060
▁Inc	-15061
▁kij	-15062
gines	-15063
▁Słoń	-15064
▁civi	-15065
▁dopas	-15066
▁lousy	-15067
▁misję	-15068
▁winna	-15069
▁paskud	-15070
▁profile	-15071
▁delivery	-15072
▁identify	-15073
▁partnera	-15074
▁understanding	-15075
kra	-15076
shot	-15077
órze	-15078
śliz	-15079
▁ono	-15080
czoną	-15081
▁Brig	-15082
▁tlen	-15083
▁depos	-15084
▁Holmes	-15085
▁Martha	-15086
▁dziecin	-15087
▁touching	-15088
▁kolejnego	-15089
▁przedstawienie	-15090
▁sprawiedliwości	-15091
ws	-15092
but	-15093
▁37	-15094
chod	-15095
▁Taj	-15096
dziny	-15097
narod	-15098
▁leak	-15099
▁Nicky	-15100
▁Power	-15101
▁rocks	-15102
▁spotka	-15103
▁tunnel	-15104
▁Zdejmij	-15105
▁beloved	-15106
▁egzamin	-15107
▁helikop	-15108
▁papiery	-15109
▁sprawdz	-15110
▁wróciłeś	-15111
▁customers	-15112
▁samochody	-15113
arkę	-15114
▁Aid	-15115
▁cio	-15116
nieni	-15117
ogram	-15118
▁Szan	-15119
▁norm	-15120
▁suko	-15121
▁Przep	-15122
▁całkow	-15123
▁refuse	-15124
▁supply	-15125
▁decyzje	-15126
▁któremu	-15127
▁tymczas	-15128
▁temperature	-15129
▁najwyraźniej	-15130
rzen	-15131
▁ing	-15132
▁Bert	-15133
▁jokes	-15134
▁sweat	-15135
▁plecami	-15136
▁starszy	-15137
▁interrup	-15138
▁zrobione	-15139
▁najgorsze	-15140
▁officially	-15141
▁HA	-15142
▁Tej	-15143
▁Dall	-15144
▁ukar	-15145
▁życi	-15146
▁Money	-15147
▁dogad	-15148
▁zwycięz	-15149
▁Detektyw	-15150
▁presents	-15151
ÓW	-15152
▁$3	-15153
iłeś	-15154
odka	-15155
zeum	-15156
▁Lyd	-15157
▁Bond	-15158
▁dawn	-15159
▁gówni	-15160
▁veget	-15161
▁Samoch	-15162
▁loving	-15163
▁oxygen	-15164
▁senior	-15165
▁kobiecie	-15166
▁precious	-15167
▁potrzebna	-15168
▁potrzebowała	-15169
▁przeznaczenie	-15170
cles	-15171
knął	-15172
sztą	-15173
▁nis	-15174
▁Snow	-15175
▁ciał	-15176
▁agenta	-15177
▁kochają	-15178
▁widzimy	-15179
▁forgiven	-15180
▁Christopher	-15181
rał	-15182
▁Sl	-15183
▁kum	-15184
ansas	-15185
▁kara	-15186
▁mowa	-15187
▁tits	-15188
ellite	-15189
▁Idiot	-15190
▁McGee	-15191
▁blast	-15192
▁znany	-15193
▁Cassie	-15194
▁okazja	-15195
▁zaszko	-15196
▁znalez	-15197
▁Uważasz	-15198
▁Zabiłeś	-15199
▁przyzwo	-15200
▁uderzył	-15201
▁ceremony	-15202
▁ucieczki	-15203
▁wherever	-15204
alth	-15205
ichi	-15206
▁Yan	-15207
osing	-15208
▁Brid	-15209
▁Spyt	-15210
▁fuel	-15211
owanej	-15212
▁dziwa	-15213
▁wirus	-15214
▁Simpson	-15215
▁koncert	-15216
▁nastroju	-15217
▁reported	-15218
▁warehouse	-15219
▁powinniście	-15220
oż	-15221
osę	-15222
what	-15223
▁soj	-15224
▁Hiszp	-15225
▁civili	-15226
▁źródło	-15227
▁express	-15228
▁okazało	-15229
▁złodzie	-15230
▁entirely	-15231
▁ludziach	-15232
▁nadejdzie	-15233
▁collection	-15234
▁Bag	-15235
▁Ohh	-15236
▁Ple	-15237
▁ubo	-15238
ięcia	-15239
▁Słod	-15240
▁dirt	-15241
▁konku	-15242
▁pasaż	-15243
▁tribe	-15244
▁Między	-15245
▁zmiana	-15246
▁Mistrzu	-15247
▁vehicle	-15248
▁naprawde	-15249
▁basically	-15250
▁dostaniemy	-15251
łak	-15252
▁GO	-15253
lect	-15254
rego	-15255
yees	-15256
▁Add	-15257
▁zdej	-15258
▁coast	-15259
▁torbę	-15260
▁śladu	-15261
chester	-15262
▁Avenue	-15263
▁escort	-15264
▁reszty	-15265
▁riding	-15266
▁samemu	-15267
▁Odpowie	-15268
▁autogra	-15269
▁cleaned	-15270
▁zostałeś	-15271
▁skorzystać	-15272
anci	-15273
aski	-15274
eman	-15275
▁Bir	-15276
▁Klu	-15277
▁Leg	-15278
▁Nov	-15279
▁unie	-15280
▁fever	-15281
▁nagry	-15282
▁attend	-15283
▁ignore	-15284
▁wsparcia	-15285
▁creatures	-15286
▁przetrwać	-15287
▁Eva	-15288
ntown	-15289
▁bylo	-15290
▁flew	-15291
▁torn	-15292
▁Blood	-15293
▁babci	-15294
▁benzy	-15295
▁deton	-15296
▁plays	-15297
▁stret	-15298
▁wysił	-15299
cyjnych	-15300
▁locker	-15301
▁zacznę	-15302
▁collect	-15303
▁lawyers	-15304
▁doskonale	-15305
▁kilometrów	-15306
▁punishment	-15307
alę	-15308
don	-15309
▁Sł	-15310
arem	-15311
▁Zag	-15312
▁hel	-15313
owców	-15314
rzemy	-15315
▁grał	-15316
▁obaw	-15317
▁scum	-15318
▁Siedem	-15319
▁emeryt	-15320
▁infected	-15321
▁sprzedaż	-15322
▁studying	-15323
▁uspokoić	-15324
▁successful	-15325
▁considering	-15326
gir	-15327
char	-15328
▁oba	-15329
▁obc	-15330
▁szm	-15331
▁Flyn	-15332
▁argu	-15333
▁dece	-15334
▁pełną	-15335
▁Donald	-15336
▁inspek	-15337
▁passen	-15338
▁pokazy	-15339
▁zauważ	-15340
▁Wiadomo	-15341
▁niespraw	-15342
▁occasion	-15343
▁Christine	-15344
▁wychodzić	-15345
TA	-15346
walk	-15347
▁rein	-15348
rześci	-15349
stąpić	-15350
▁Muszą	-15351
▁naraż	-15352
▁popat	-15353
▁School	-15354
▁ciaste	-15355
▁martwa	-15356
▁ofertę	-15357
▁recall	-15358
▁olbrzym	-15359
▁płaszcz	-15360
▁wanting	-15361
▁idealnie	-15362
▁Poruczniku	-15363
In	-15364
▁SD	-15365
cali	-15366
▁Tit	-15367
▁tiss	-15368
▁Jakoś	-15369
▁Twoją	-15370
▁rower	-15371
▁obrony	-15372
▁Święta	-15373
▁Zrobisz	-15374
▁ratować	-15375
▁Director	-15376
▁Zaczynam	-15377
▁[	-15378
nice	-15379
torek	-15380
uszki	-15381
▁Neal	-15382
▁kota	-15383
mujemy	-15384
▁mądra	-15385
▁Królew	-15386
▁region	-15387
▁Samantha	-15388
▁Spróbuję	-15389
▁teaching	-15390
▁przyszłaś	-15391
▁Definitely	-15392
▁Znajdziemy	-15393
▁zachowywać	-15394
uda	-15395
iłam	-15396
▁Die	-15397
ematy	-15398
▁wing	-15399
eśniej	-15400
▁Diana	-15401
▁Klaus	-15402
▁route	-15403
▁tytuł	-15404
▁wymyśl	-15405
▁Chętnie	-15406
▁Wyluzuj	-15407
▁dojdzie	-15408
BC	-15409
urą	-15410
▁ig	-15411
alone	-15412
sians	-15413
▁Cher	-15414
▁Mali	-15415
▁Oszal	-15416
▁attra	-15417
▁gubern	-15418
▁series	-15419
▁ukraść	-15420
▁cheerle	-15421
▁sekundy	-15422
▁torture	-15423
▁Zabieraj	-15424
▁friendly	-15425
▁Zazwyczaj	-15426
RY	-15427
fle	-15428
ozę	-15429
olar	-15430
uszy	-15431
▁Śle	-15432
▁swej	-15433
▁bracia	-15434
▁Zostałem	-15435
▁niewinny	-15436
▁Przypuszczam	-15437
▁Ay	-15438
▁Vo	-15439
iemu	-15440
wacz	-15441
▁nut	-15442
anies	-15443
▁Boli	-15444
▁Słysze	-15445
▁głośno	-15446
▁insult	-15447
▁kosmos	-15448
▁wishes	-15449
▁humanity	-15450
▁umierają	-15451
▁Katherine	-15452
▁niebezpieczny	-15453
HT	-15454
▁42	-15455
▁MO	-15456
▁Ti	-15457
bury	-15458
▁Pin	-15459
▁osą	-15460
amily	-15461
▁Karl	-15462
▁Madam	-15463
▁nasty	-15464
▁zdraj	-15465
▁otwórz	-15466
▁wyspie	-15467
▁leading	-15468
▁pozwolił	-15469
▁niektórych	-15470
ghan	-15471
▁ilu	-15472
▁wrę	-15473
aling	-15474
▁..."	-15475
▁Bast	-15476
▁Navy	-15477
▁Whoo	-15478
▁wzro	-15479
▁Szery	-15480
▁gwałt	-15481
▁stoją	-15482
▁byście	-15483
▁koment	-15484
▁Florida	-15485
▁Przekaż	-15486
▁papiero	-15487
▁listened	-15488
▁związane	-15489
▁ryzykować	-15490
▁Previously	-15491
gom	-15492
▁Finn	-15493
▁flag	-15494
▁kale	-15495
ission	-15496
▁noble	-15497
▁udaje	-15498
▁wyrok	-15499
▁Równie	-15500
▁chroni	-15501
▁trauma	-15502
▁closing	-15503
▁cywiliz	-15504
▁annoying	-15505
▁wszelkie	-15506
▁łazience	-15507
▁dosłownie	-15508
▁przychodzić	-15509
huh	-15510
▁SU	-15511
▁Kas	-15512
▁Kara	-15513
[...]
